{
  "version": "1.0",
  "truncation": null,
  "padding": null,
  "added_tokens": [
    {
      "id": 0,
      "content": "<pad>",
      "single_word": false,
      "lstrip": false,
      "rstrip": false,
      "normalized": false,
      "special": true
    },
    {
      "id": 1,
      "content": "<s>",
      "single_word": false,
      "lstrip": false,
      "rstrip": false,
      "normalized": false,
      "special": true
    },
    {
      "id": 2,
      "content": "</s>",
      "single_word": false,
      "lstrip": false,
      "rstrip": false,
      "normalized": false,
      "special": true
    },
    {
      "id": 3,
      "content": "<unk>",
      "single_word": false,
      "lstrip": false,
      "rstrip": false,
      "normalized": false,
      "special": true
    },
    {
      "id": 4,
      "content": "<mask>",
      "single_word": false,
      "lstrip": false,
      "rstrip": false,
      "normalized": false,
      "special": true
    }
  ],
  "normalizer": {
    "type": "Sequence",
    "normalizers": [
      {
        "type": "NFKD"
      },
      {
        "type": "BertNormalizer",
        "clean_text": true,
        "handle_chinese_chars": true,
        "strip_accents": null,
        "lowercase": true
      }
    ]
  },
  "pre_tokenizer": {
    "type": "Sequence",
    "pretokenizers": [
      {
        "type": "BertPreTokenizer"
      },
      {
        "type": "ByteLevel",
        "add_prefix_space": true,
        "trim_offsets": true,
        "use_regex": true
      }
    ]
  },
  "post_processor": {
    "type": "RobertaProcessing",
    "sep": [
      "</s>",
      2
    ],
    "cls": [
      "<s>",
      1
    ],
    "trim_offsets": true,
    "add_prefix_space": true
  },
  "decoder": {
    "type": "ByteLevel",
    "add_prefix_space": true,
    "trim_offsets": true,
    "use_regex": true
  },
  "model": {
    "type": "BPE",
    "dropout": null,
    "unk_token": "<unk>",
    "continuing_subword_prefix": null,
    "end_of_word_suffix": null,
    "fuse_unk": false,
    "vocab": {
      "<pad>": 0,
      "<s>": 1,
      "</s>": 2,
      "<unk>": 3,
      "<mask>": 4,
      "!": 5,
      "\"": 6,
      "#": 7,
      "$": 8,
      "%": 9,
      "&": 10,
      "'": 11,
      "(": 12,
      ")": 13,
      "*": 14,
      "+": 15,
      ",": 16,
      "-": 17,
      ".": 18,
      "/": 19,
      "0": 20,
      "1": 21,
      "2": 22,
      "3": 23,
      "4": 24,
      "5": 25,
      "6": 26,
      "7": 27,
      "8": 28,
      "9": 29,
      ":": 30,
      ";": 31,
      "<": 32,
      "=": 33,
      ">": 34,
      "?": 35,
      "@": 36,
      "[": 37,
      "\\": 38,
      "]": 39,
      "^": 40,
      "_": 41,
      "`": 42,
      "a": 43,
      "b": 44,
      "c": 45,
      "d": 46,
      "e": 47,
      "f": 48,
      "g": 49,
      "h": 50,
      "i": 51,
      "j": 52,
      "k": 53,
      "l": 54,
      "m": 55,
      "n": 56,
      "o": 57,
      "p": 58,
      "q": 59,
      "r": 60,
      "s": 61,
      "t": 62,
      "u": 63,
      "v": 64,
      "w": 65,
      "x": 66,
      "y": 67,
      "z": 68,
      "{": 69,
      "|": 70,
      "}": 71,
      "~": 72,
      "¡": 73,
      "¢": 74,
      "£": 75,
      "¤": 76,
      "¥": 77,
      "¦": 78,
      "§": 79,
      "¨": 80,
      "©": 81,
      "ª": 82,
      "«": 83,
      "¬": 84,
      "®": 85,
      "¯": 86,
      "°": 87,
      "±": 88,
      "²": 89,
      "³": 90,
      "´": 91,
      "µ": 92,
      "¶": 93,
      "·": 94,
      "¸": 95,
      "¹": 96,
      "º": 97,
      "»": 98,
      "¼": 99,
      "½": 100,
      "¾": 101,
      "¿": 102,
      "Â": 103,
      "Ã": 104,
      "Ä": 105,
      "Å": 106,
      "Æ": 107,
      "Ç": 108,
      "É": 109,
      "Ê": 110,
      "Ë": 111,
      "Î": 112,
      "Ï": 113,
      "Ð": 114,
      "Ñ": 115,
      "Ò": 116,
      "Ó": 117,
      "Õ": 118,
      "Ö": 119,
      "Ø": 120,
      "Ù": 121,
      "Ú": 122,
      "Û": 123,
      "ß": 124,
      "à": 125,
      "á": 126,
      "â": 127,
      "ã": 128,
      "ä": 129,
      "å": 130,
      "æ": 131,
      "ç": 132,
      "è": 133,
      "é": 134,
      "Ġ": 135,
      "Ģ": 136,
      "ģ": 137,
      "Ĥ": 138,
      "ĥ": 139,
      "Ħ": 140,
      "ħ": 141,
      "Ĩ": 142,
      "ĩ": 143,
      "Ī": 144,
      "ī": 145,
      "Ĭ": 146,
      "ĭ": 147,
      "Į": 148,
      "į": 149,
      "İ": 150,
      "ı": 151,
      "Ĳ": 152,
      "ĳ": 153,
      "Ĵ": 154,
      "ĵ": 155,
      "Ķ": 156,
      "ķ": 157,
      "ĸ": 158,
      "Ĺ": 159,
      "ĺ": 160,
      "Ļ": 161,
      "ļ": 162,
      "Ľ": 163,
      "ľ": 164,
      "Ŀ": 165,
      "ŀ": 166,
      "Ł": 167,
      "ł": 168,
      "Ń": 169,
      "ĠÐ": 170,
      "Ð°": 171,
      "Ðµ": 172,
      "Ð¸": 173,
      "Ð¾": 174,
      "ÑĤ": 175,
      "Ð½": 176,
      "ÑĢ": 177,
      "Ñģ": 178,
      "Ð»": 179,
      "Ð²": 180,
      "ĠÐ¿": 181,
      "ĠÐ½": 182,
      "Ð´": 183,
      "ĠÑģ": 184,
      "Ðº": 185,
      "ÐµÐ½": 186,
      "Ġ,": 187,
      "ÑĬ": 188,
      "Ð·": 189,
      "Ñı": 190,
      "ĠÐ½Ð°": 191,
      "ĠÐ¾": 192,
      "ÑĢÐ°": 193,
      "ÑĤÐ¾": 194,
      "Ð¼": 195,
      "ÑĢÐµ": 196,
      "Ð¿": 197,
      "Ñĩ": 198,
      "ÑĤÐ°": 199,
      "Ð²Ð°": 200,
      "ĠÐ¸": 201,
      "Ð³": 202,
      "ĠÐ´": 203,
      "ÑĤÐµ": 204,
      "Ñĥ": 205,
      "ĠÐ²": 206,
      "ÑĢÐ¸": 207,
      "Ð½Ð¸": 208,
      "Ġ.": 209,
      "Ð½Ð¾": 210,
      "ĠÐº": 211,
      "Ð±": 212,
      "ÑģÑĤ": 213,
      "ĠÐ¾ÑĤ": 214,
      "ĠÐ·": 215,
      "ÑĨ": 216,
      "Ð¶": 217,
      "ĠÐ¿Ð¾": 218,
      "ÐµÐ½Ð¸": 219,
      "ĠÐ·Ð°": 220,
      "Ð»Ð°": 221,
      "ĠÐ½Ðµ": 222,
      "ĠÐµ": 223,
      "Ð½Ð°": 224,
      "ÑĤÐ¸": 225,
      "Ð»Ð¸": 226,
      "Ġ2": 227,
      "Ġ1": 228,
      "ÑĢÐµÐ´": 229,
      "ĠÐ¿ÑĢÐ¸": 230,
      "ÑĢÐ¾": 231,
      "ÑĨÐ¸": 232,
      "Ð½Ðµ": 233,
      "ĠÑģÐµ": 234,
      "Ð²Ð¾": 235,
      "Ñī": 236,
      "ÐºÐ°": 237,
      "ĠÐºÐ¾": 238,
      "ĠÑģÑĬ": 239,
      "ĠÐ¼": 240,
      "Ð²Ð¸": 241,
      "Ġ)": 242,
      "Ġâ": 243,
      "ĠâĢ": 244,
      "ĠÑĩ": 245,
      "Ð³Ð°": 246,
      "ĠÐ´Ð°": 247,
      "ÐµÐ½Ð¸Ðµ": 248,
      "ÐºÐ¸": 249,
      "Ð»Ð¾": 250,
      "ÑĦ": 251,
      "Ġ(": 252,
      "ÑĪ": 253,
      "ĠÐ³": 254,
      "Ġ-": 255,
      "ĠÐ¸Ð·": 256,
      "ÑĬÑĢ": 257,
      "Ð¿Ð¾": 258,
      "Ñħ": 259,
      "Ð´Ð°": 260,
      "Ð²Ðµ": 261,
      "ĠÑĢÐ°": 262,
      "Ð»Ðµ": 263,
      "Ð¸Ñģ": 264,
      "ĠÑĢÐµ": 265,
      "00": 266,
      "Ð»ÐµÐ½": 267,
      "Ð·Ð¸": 268,
      "ĠÐ¿ÑĢÐµÐ´": 269,
      "Ġ/": 270,
      "ĠÐ±": 271,
      "ĠÐ´Ð¾": 272,
      "Ð´Ð¸": 273,
      "ĠÐ¿ÑĢÐ¾": 274,
      "Ð»Ð°Ð³Ð°": 275,
      "ĠÐ¾Ð±": 276,
      "Ġ3": 277,
      "Ð²Ð°Ð½Ðµ": 278,
      "Ġ_": 279,
      "ÐºÐ¾": 280,
      "ÑĤÐµÐ»": 281,
      "ĠÑĥ": 282,
      "Ð¼Ð°": 283,
      "ÑģÑĤÐ°": 284,
      "ĠÐ°": 285,
      "ĠÑĢÐ°Ð·": 286,
      "ĠÐ¿ÑĢÐ¸Ð»Ð°Ð³Ð°": 287,
      "ĠÑĤ": 288,
      "Ð¼ÐµÐ½": 289,
      "Ð¼Ð¾": 290,
      "ĠÑĩÐ»ÐµÐ½": 291,
      "ÑĬÐ»": 292,
      "ĠÐ²ÑĬ": 293,
      "ĠÑĤÐ¾": 294,
      "Ġ0": 295,
      "Ġc": 296,
      "ĠÐºÐ°": 297,
      "Ñİ": 298,
      "Ð¿Ðµ": 299,
      "ÑĢÑĥ": 300,
      "Ð³Ð¾": 301,
      "Ð»Ð¾Ð¶": 302,
      "ÑıÑĤÐ°": 303,
      "Ġ5": 304,
      "Ð½Ð¸ÑĤÐµ": 305,
      "Ð·Ð°": 306,
      "Ð½Ð¾ÑģÑĤ": 307,
      "Ġ4": 308,
      "Ġ:": 309,
      "Ð¶Ð°": 310,
      "Ġa": 311,
      "ÑģÐ½Ð¾": 312,
      "ĠÑĩÐµ": 313,
      "ĠÑģÐ°": 314,
      "Ð¸Ð·": 315,
      "ĠâĢĶ": 316,
      "Ð»ÐµÐ´": 317,
      "ÑģÐ¸": 318,
      "Ð½Ð¸Ñı": 319,
      "ĠÐ¸Ð»Ð¸": 320,
      "ÑīÐ¸": 321,
      "Ð´Ðµ": 322,
      "Ð¼Ð¸": 323,
      "Ġ20": 324,
      "ĠÐ¿Ð°": 325,
      "ĠÐ¿ÑĢÐ°": 326,
      "Ð°Ð»": 327,
      "ÐºÑĤÐ¸": 328,
      "ÑģÑĤÐ²Ð¾": 329,
      "Ð³Ð»Ð°": 330,
      "ĠÐ¿ÑĢÐµ": 331,
      "Ð±Ð¾": 332,
      "ÑģÐ¾": 333,
      "Ð¼Ðµ": 334,
      "ÑĪÐµÐ½Ð¸Ðµ": 335,
      "ĠÐ¿ÑĢÐ¸Ð»Ð¾Ð¶": 336,
      "ÑĩÐµ": 337,
      "Ð³ÑĢÐ°": 338,
      "Ġ200": 339,
      "ÑħÐ¾": 340,
      "ÑĨÐ¸Ð¸": 341,
      "Ð¸ÑĤÐ¾": 342,
      "Ð²ÐµÐ½": 343,
      "Ġ|": 344,
      "ĠÐ´Ðµ": 345,
      "Ð¸ÑĤ": 346,
      "Ð³Ð¸": 347,
      "ĠÐ¿Ð¾Ð´": 348,
      "ÑĩÐ¸": 349,
      "ÑģÑĤÐ¾": 350,
      "ÑĩÐ°": 351,
      "ĠÑĤÐµ": 352,
      "Ġ9": 353,
      "Ġe": 354,
      "Ġ6": 355,
      "ĠÑĦ": 356,
      "Ð¼ÐµÐ½ÑĤ": 357,
      "Ð½Ð°ÑĤÐ°": 358,
      "Ð²ÑĬÑĢ": 359,
      "ĠÐ¼Ð¾": 360,
      "ÑĬÑĢÐ¶Ð°": 361,
      "Ð½Ð¾ÑĤÐ¾": 362,
      "Ð¿ÑĬÐ»": 363,
      "ĠÐºÐ¾Ð¼": 364,
      "Ġs": 365,
      "ÑĨÐ¸Ñı": 366,
      "Ġn": 367,
      "Ġ7": 368,
      "ĠÐºÐ¾Ð¸ÑĤÐ¾": 369,
      "ÑģÑĤÐ°Ð²": 370,
      "ĠÐ»": 371,
      "Ġ8": 372,
      "Ð»Ñĥ": 373,
      "Ð¾Ð±": 374,
      "ĠÑģÐ»ÐµÐ´": 375,
      "Ð´Ñĥ": 376,
      "Ð¿Ð°": 377,
      "ĠÑģÑĤ": 378,
      "ÑıÑĤ": 379,
      "ĠÐºÐ¾Ð½": 380,
      "ĠÐ¼Ðµ": 381,
      "Ġ201": 382,
      "ÐºÑģ": 383,
      "ÑĨÐµ": 384,
      "Ð¿ÑĢÐ¸": 385,
      "Ð°ÑĤÐ°": 386,
      "Ġi": 387,
      "ĠÑĢÐµÐ³Ð»Ð°": 388,
      "ÑģÑĤÐ²Ð°": 389,
      "ÑīÐµ": 390,
      "ÑĢÑı": 391,
      "ĠÐ¸Ð½": 392,
      "ÑģÐºÐ¸": 393,
      "Ð»Ñı": 394,
      "Ð½ÐµÐ½Ð¸Ðµ": 395,
      "Ð¸Ð¼Ð¾": 396,
      "ĠÑĤÐ°": 397,
      "ĠÑĢÐµÐ³Ð»Ð°Ð¼ÐµÐ½ÑĤ": 398,
      "ĠÐºÐ°ÑĤÐ¾": 399,
      "Ð³ÑĢÐ°ÑĦ": 400,
      "Ð¸ÑĤÐ¸": 401,
      "Ð¶Ð´Ð°": 402,
      "ĠÐ¿Ð°ÑĢÐ°": 403,
      "ĠÐºÑĢÐµÐ´": 404,
      "Ð¸ÑģÐ¸": 405,
      "ĠÐ´ÑĢÑĥ": 406,
      "ĠÐ¿ÑĢÐ¾Ð¸Ð·": 407,
      "ĠâĢŀ": 408,
      "ĠâĢľ": 409,
      "Ġr": 410,
      "ÐµÑĤÐ¾": 411,
      "ĠÐ¿Ð°ÑĢÐ°Ð³ÑĢÐ°ÑĦ": 412,
      "ĠÐµÐºÑģ": 413,
      "Ð±Ð¸": 414,
      "ĠÐ¼Ð°": 415,
      "ĠâĢĵ": 416,
      "er": 417,
      "Ð²ÐµÑĤ": 418,
      "ÐµÐ½Ð¸Ñı": 419,
      "ĠÐ¿ÑĢÐ¸Ð»Ð¾Ð¶Ð¸Ð¼Ð¾": 420,
      "Ð¿Ð¾Ð·Ð¸": 421,
      "ÑĩÐ½Ð¸": 422,
      "ÑĢÐ°Ð½Ðµ": 423,
      "Ð¿ÑĬÐ»Ð½ÐµÐ½Ð¸Ðµ": 424,
      "ĠÑĢÐµÑĪÐµÐ½Ð¸Ðµ": 425,
      "ĠÐ´ÑĬÑĢÐ¶Ð°": 426,
      "ĠÐ²ÑĬÐ·": 427,
      "ĠÐ³Ð¾": 428,
      "ĠÐºÐ¾Ð¼Ð¸ÑģÐ¸": 429,
      "Ġl": 430,
      "ÑĢÐ¸Ñģ": 431,
      "ÑģÑĤÐ¾Ñı": 432,
      "Ð»Ñİ": 433,
      "ĠÑĥÑģ": 434,
      "ĠÑĤÐ¾Ð²Ð°": 435,
      "ĠÐ¾Ð¿": 436,
      "ÑĬÑĤ": 437,
      "Ð²Ð°Ð½ÐµÑĤÐ¾": 438,
      "Ð¶Ðµ": 439,
      "ÐµÐ½Ð¾": 440,
      "ĠÐµÐºÑģÐ¿Ð¾Ð·Ð¸": 441,
      "Ġno": 442,
      "ÑıÑĤÐ¸": 443,
      "ĠÐ¾ÑĤÐ½Ð¾": 444,
      "ĠÐµÐºÑģÐ¿Ð¾Ð·Ð¸ÑĨÐ¸Ð¸": 445,
      "Ð¾ÑĢ": 446,
      "ĠÐ¿ÑĢÐµÐ´Ð¿ÑĢÐ¸": 447,
      "ĠÐ¶": 448,
      "ÑĬÐ¼": 449,
      "ĠÐ¾ÑģÐ½Ð¾": 450,
      "ĠÐ´Ð¸": 451,
      "Ġ10": 452,
      "Ġm": 453,
      "Ġd": 454,
      "Ð¾ÑĤ": 455,
      "Ð²Ð°ÑĤ": 456,
      "Ġ;": 457,
      "ÑīÐ¾": 458,
      "ĠÐ»Ð¸": 459,
      "Ġp": 460,
      "ÐºÑĤÐ¾": 461,
      "ÐºÐ»Ñİ": 462,
      "ÑģÑĤÐ¸": 463,
      "ĠÐ¿ÑĢÐµÐ´Ð¿ÑĢÐ¸ÑıÑĤÐ¸": 464,
      "ÑĦÐ¸": 465,
      "ĠÐµÐ²": 466,
      "ĠÐ¿Ð¾ÑģÐ¾": 467,
      "ÑģÑĤÐ²Ð¸": 468,
      "ĠÐµÐ²ÑĢÐ¾": 469,
      "ÑģÐºÐ°": 470,
      "Ð±Ð°": 471,
      "ÑĢÐµÐ´Ðµ": 472,
      "ÑħÐ¾Ð´": 473,
      "ĠÐºÑĬÐ¼": 474,
      "ĠÑĢÐ¸Ñģ": 475,
      "ĠÑģÐ¿Ðµ": 476,
      "Ð¿ÑĢÐ°": 477,
      "ĠÑģÑĬÐ´": 478,
      "ĠÐ¿Ð¾ÑģÐ¾Ñĩ": 479,
      "ll": 480,
      "ÐºÑĥ": 481,
      "ĠÐ½ÐµÐ¸Ð·": 482,
      "Ġt": 483,
      "ĠÑģÐ¿ÐµÑĨÐ¸": 484,
      "ÑīÐ°": 485,
      "Ġ19": 486,
      "ÑĤÑĢÐµ": 487,
      "an": 488,
      "ĠÐºÐ¾Ð¼Ð¸ÑģÐ¸ÑıÑĤÐ°": 489,
      "ÑĢÐ°Ð½": 490,
      "ÑĨÐ¸Ð¾": 491,
      "ĠÑģÑĬÐ¾ÑĤ": 492,
      "Ġb": 493,
      "Ð²Ð¾Ð´": 494,
      "ĠÑģÑĬÐ¾ÑĤÐ²ÐµÑĤ": 495,
      "ÐºÐ²Ð°": 496,
      "ĠÐºÑĢÐµÐ´Ð¸ÑĤ": 497,
      "Ġ00": 498,
      "ĠÑģÐ¸": 499,
      "ĠÐ½ÐµÐ¸Ð·Ð¿ÑĬÐ»Ð½ÐµÐ½Ð¸Ðµ": 500,
      "Ð¸ÑĤÐ¸Ð½": 501,
      "ĠÑĢÐ¸ÑģÐº": 502,
      "ĠÑĢÐ°Ð·Ð»Ð¸": 503,
      "on": 504,
      "ĠÐ¾Ð¿ÑĢÐµÐ´Ðµ": 505,
      "ĠÐ¿ÑĢÐµÐ´Ð²Ð¸": 506,
      "ÐºÑĤ": 507,
      "ĠÐ´Ð¸ÑĢÐµ": 508,
      "ĠÐ¿ÑĢÐµÐ´Ð¿ÑĢÐ¸ÑıÑĤÐ¸Ñı": 509,
      "en": 510,
      "ĠÐ±ÑĬ": 511,
      "ÑĢÐ°Ð·": 512,
      "Ð½ÐµÑĤÐ¾": 513,
      "in": 514,
      "ÑĢÑĬ": 515,
      "Ð¶Ð¸": 516,
      "ÑĨÐµÐ½": 517,
      "ÑģÐµ": 518,
      "Ð½Ð¸Ðµ": 519,
      "ĠÑħ": 520,
      "ÑĤÐµÐ»Ð½Ð¾": 521,
      "Ġf": 522,
      "ĠÑĤÐ¾Ñĩ": 523,
      "ĠÑģÐ²Ð¾": 524,
      "or": 525,
      "ĠÐºÑĢÐµÐ´Ð¸ÑĤÐµÐ½": 526,
      "ĠÑģÐ¿Ð¾": 527,
      "ĠÐ´Ð¸ÑĢÐµÐºÑĤÐ¸": 528,
      "ÐµÐ½Ð¸ÐµÑĤÐ¾": 529,
      "Ġeu": 530,
      "Ð½Ð¾ÑģÑĤÑĤÐ°": 531,
      "ĠÑģÑĤÑĢÐ°": 532,
      "Ġ12": 533,
      "ĠÑģÐ»ÐµÐ´Ð²Ð°": 534,
      "ÑģÑı": 535,
      "ĠÐ´Ð¸ÑĢÐµÐºÑĤÐ¸Ð²Ð°": 536,
      "ÐµÐ·": 537,
      "ĠÐ±Ð¸": 538,
      "Ð¿ÐµÐ¸Ñģ": 539,
      "Ġ11": 540,
      "ĠÐµÐ²ÑĢÐ¾Ð¿ÐµÐ¸Ñģ": 541,
      "ÐºÐ°ÑĤÐ°": 542,
      "Ð²Ð¸ÑĤÐµ": 543,
      "ÑģÑĤÐ°Ð½Ð¾": 544,
      "ÐºÐ»ÑİÑĩ": 545,
      "Ð³Ð¾Ð²Ð¾": 546,
      "ĠÐ¿ÑĢÐ°Ð²Ð¾": 547,
      "Ð±Ð²Ð°": 548,
      "ÐµÐ½Ð¸ÑĤÐµ": 549,
      "ÑĢÑıÐ±Ð²Ð°": 550,
      "ĠÑĤÑĢÑıÐ±Ð²Ð°": 551,
      "ĠÐ´ÑĢÑĥÐ³Ð¸": 552,
      "ĠÐ¿ÑĢÐ¾Ð¸Ð·Ð²Ð¾Ð´": 553,
      "ĠÑģÑĬÑİ": 554,
      "ÑĥÐ±": 555,
      "ĠÐ¾Ñģ": 556,
      "Ð´Ð¾": 557,
      "ĠÐ¾ÑģÐ½Ð¾Ð²Ð°": 558,
      "ÑģÑĤÐ²Ð¾ÑĤÐ¾": 559,
      "ÐºÐ¸ÑĤÐµ": 560,
      "ĠÐ¿ÑĢÐµÐ´Ð²Ð¸Ð´": 561,
      "Ð²ÑĬÑĢÑĪ": 562,
      "ĠÑģÑĤÐ¾": 563,
      "ĠÑģÐ»Ñĥ": 564,
      "ĠÑĢÐ°Ð·Ð»Ð¸ÑĩÐ½Ð¸": 565,
      "ĠÐ½Ð¾": 566,
      "ĠÐ¾ÑĢ": 567,
      "Ġall": 568,
      "Ð¿ÑĢÐ¾": 569,
      "ĠÐ½Ð°ÑģÑĤÐ¾Ñı": 570,
      "ĠÐ¼Ñģ": 571,
      "ir": 572,
      "ĠÐ´ÐµÐ¸": 573,
      "ĠÐºÐ¾Ð½ÑĤ": 574,
      "ĠÐ¾ÑĢÐ³Ð°": 575,
      "Ġ%": 576,
      "ĠÐ¼Ð¾Ð¶Ðµ": 577,
      "Ġ]": 578,
      "Ġ[": 579,
      "es": 580,
      "ĠÐµÐ¾": 581,
      "Ð³Ð¾Ð²": 582,
      "ÑģÑĤÐ²Ð¸Ðµ": 583,
      "Ð»Ð·": 584,
      "ar": 585,
      "ÐµÐ½Ð°": 586,
      "ĠÐ¶Ð°Ð»": 587,
      "Ð´Ð½Ð¸": 588,
      "ĠÑĨÐµ": 589,
      "Ð¿Ð¸": 590,
      "Ð´ÑĬÐ»": 591,
      "ĠâĢĲ": 592,
      "ĠÐ¼ÑģÐ¿": 593,
      "ÑīÐ¸Ñı": 594,
      "Ð½Ð°Ð»": 595,
      "at": 596,
      "ĠÐ²ÑĬÑĤÑĢÐµ": 597,
      "ĠÐ¿Ð¾Ð´ÑħÐ¾Ð´": 598,
      "ĠÐ²ÑĬÑĤÑĢÐµÑĪ": 599,
      "10": 600,
      "ÐµÐ¼Ð°": 601,
      "Ġg": 602,
      "ĠÐ´Ð°Ð½": 603,
      "Ð°Ð»Ð¸": 604,
      "Ð´Ð°ÑĤÐµÐ»": 605,
      "ĠÑĤÐµÐ·Ð¸": 606,
      "Ð¾ÑĢÐ¼Ð°": 607,
      "Ð²Ñı": 608,
      "ĠÑĩÐ°": 609,
      "ÑĨÐ°": 610,
      "ĠÑĢÐ°Ð·Ð¿Ð¾": 611,
      "ÑĦÐµ": 612,
      "ĠÐ²Ðµ": 613,
      "ĠÐ¾ÑĤÐ½Ð¾ÑģÐ½Ð¾": 614,
      "Ð°Ð»Ð½Ð¾": 615,
      "ĠÑĤÐ¾ÑĩÐºÐ°": 616,
      "ÑħÐ¾Ð´Ð¸": 617,
      "Ġ13": 618,
      "ĠÐ´Ð¾ÑģÑĤÐ°Ð²": 619,
      "ĠÐºÐ°ÐºÑĤÐ¾": 620,
      "Ġk": 621,
      "Ð³ÐµÐ½": 622,
      "ĠÑģÐ²Ð¾Ð±Ð¾": 623,
      "Ð²ÐµÐ½Ð¾": 624,
      "ÑĤÐµÐ»Ð¸": 625,
      "ĠÐ¿ÑĢÐ¾Ð´Ñĥ": 626,
      "Ð·Ð¸ÑĢÐ°": 627,
      "Ð³Ñĥ": 628,
      "ÑĤÐµÐ½": 629,
      "al": 630,
      "ÑıÑĤÐ¾": 631,
      "Ġ15": 632,
      "ĠÑİ": 633,
      "ĠÑģÑĤÐ°": 634,
      "ÑģÐ»ÐµÐ´": 635,
      "ĠÑģÑĬÐ³Ð»Ð°": 636,
      "ĠÑģÑĤÑĢ": 637,
      "ÑĨÐ¸ÑıÑĤÐ°": 638,
      "ĠÐ´ÑĬÑĢÐ¶Ð°Ð²Ð°": 639,
      "Ð¿Ð¾Ð»Ð·": 640,
      "Ġ50": 641,
      "ĠÑĤÐ°Ð·Ð¸": 642,
      "Ð²ÑĢÐ¸": 643,
      "Ð¼Ð²ÑĢÐ¸": 644,
      "Ð´Ð¸Ð½": 645,
      "Ġh": 646,
      "ĠÐ¿ÑĢÐ°Ð²Ð¸": 647,
      "ĠÐ¿Ðµ": 648,
      "ĠÑĦÐ¸": 649,
      "ĠÐ¿ÑĬÑĢ": 650,
      "ÑĤÐµÑĢÐ¸": 651,
      "ĠÑĤÐ¾Ð·Ð¸": 652,
      "ĠÐ¼Ð¸": 653,
      "ĠÐºÐ¾ÑıÑĤÐ¾": 654,
      "ĠÐ¸Ð·Ð¿Ð¾Ð»Ð·": 655,
      "Ð³Ð»Ðµ": 656,
      "Ġv": 657,
      "ĠÐ±ÑĬÐ´Ðµ": 658,
      "ĠÐ²ÑĬÐ²": 659,
      "ĠÐºÐ¾ÐµÑĤÐ¾": 660,
      "ĠÐµÐ²ÑĢÐ¾Ð¿ÐµÐ¸ÑģÐºÐ¸": 661,
      "Ð»Ð¾Ð²Ð¸": 662,
      "ĠÐ²ÑĬÑĤÑĢÐµÑĪÐ½Ð¾": 663,
      "ÑĩÐºÐ¸": 664,
      "Ð²Ð½Ð¸": 665,
      "Ð·Ð½Ð°": 666,
      "ic": 667,
      "ÑĢÐ°Ð½Ð¸": 668,
      "ĠÑģÑĢÐµÐ´": 669,
      "ĠÐµÑģ": 670,
      "ĠÐ¾Ð±Ñī": 671,
      "ĠÐ¼ÐµÐ¶": 672,
      "ÑĢÐµÐ¸ÑĤÐ¸Ð½": 673,
      "ĠÐ³Ð¾Ð´Ð¸": 674,
      "ĠÐ²ÑĬÑĤÑĢÐµÑĪÐ½Ð¾ÑĢÐµÐ¸ÑĤÐ¸Ð½": 675,
      "irb": 676,
      "ĠÐ²ÑĬÑĤÑĢÐµÑĪÐ½Ð¾ÑĢÐµÐ¸ÑĤÐ¸Ð½Ð³Ð¾Ð²": 677,
      "ÑĩÐ½Ð¾": 678,
      "ĠÑģÑĬÐ´Ðµ": 679,
      "Ġ14": 680,
      "Ð¿Ñĥ": 681,
      "ĠÐ¸Ð¼Ð°": 682,
      "ĠÑģÑĬÐ³Ð»Ð°ÑģÐ½Ð¾": 683,
      "ec": 684,
      "ĠÐ³Ð»Ð°": 685,
      "ĠÑģÐ»ÑĥÑĩÐ°": 686,
      "ĠÐ¿ÑĢÐµÐ´Ð¾": 687,
      "ÑĢÐµÐ½": 688,
      "ĠÐ¼ÐµÐ¶Ð´Ñĥ": 689,
      "ĠÑĥÑģÑĤÐ°Ð½Ð¾": 690,
      "ÑĩÐµÑģÐºÐ¸": 691,
      "ĠÐ±Ñĥ": 692,
      "ĠÑģÑĬÑģ": 693,
      "ÑĦÐ¸ÑĨÐ¸": 694,
      "ĠÑĢÐ°Ð·Ð¿Ð¾ÑĢÐµÐ´": 695,
      "Ð¼ÐµÑĢ": 696,
      "ĠÐ´ÐµÐ»Ð¾": 697,
      "ĠÐ²ÑĬÐ¿ÑĢÐ¾": 698,
      "ĠÐµÐ²ÑĢÐ¾Ð¿ÐµÐ¸ÑģÐºÐ¸Ñı": 699,
      "ÑģÑĬ": 700,
      "Ġ16": 701,
      "ĠÐ¸Ð½ÑĦ": 702,
      "is": 703,
      "ĠÑģÑĬÐ´ÐµÐ±": 704,
      "Ġo": 705,
      "ĠÐ±ÐµÐ·": 706,
      "ĠÐ¾ÑĤÐ½Ð¾ÑĪÐµÐ½Ð¸Ðµ": 707,
      "ÑĢÐ°ÑĤ": 708,
      "ĠÑĥÑģÐ»Ð¾Ð²Ð¸": 709,
      "ÑģÐºÐ¾": 710,
      "Ð²Ð½Ð¾": 711,
      "Ð¾Ð²Ð°": 712,
      "ĠÐºÐ¾Ð½ÑĤÑĢÐ°": 713,
      "20": 714,
      "as": 715,
      "ÑģÐ°": 716,
      "ĠÐºÐ¾Ð½ÑĤÑĢÐ°Ð³ÐµÐ½": 717,
      "Ġeur": 718,
      "ĠÐ²Ð¸": 719,
      "ĠÑĩÐ»ÐµÐ½ÐºÐ¸": 720,
      "ĠÐ°ÐºÐ¾": 721,
      "ÐºÐ¾Ð½Ð¾": 722,
      "ÑĥÐ±Ð»Ð¸": 723,
      "ÑīÐµÑģÑĤ": 724,
      "ĠÐ²ÑģÐ¸": 725,
      "Ġ17": 726,
      "ĠÐ¸Ð·Ð¸Ñģ": 727,
      "ĠÐ´Ð¾ÑģÑĤÐ°Ð²ÐºÐ¸": 728,
      "ÑĤÐµÐ»Ð½Ð¸": 729,
      "ÑĨÐ¸Ð¾Ð½Ð°Ð»": 730,
      "ĠÐ¿ÑĢÐ¾ÑĨÐµ": 731,
      "ÑģÑĤÑĢÐ°": 732,
      "Ð³Ð°ÑĤÐ¾": 733,
      "it": 734,
      "Ð´Ð°ÑĤ": 735,
      "Ġ=": 736,
      "ĠÐºÐ¾Ð³Ð°ÑĤÐ¾": 737,
      "ĠÐµÐ´": 738,
      "ĠÐ·Ð°Ð´ÑĬÐ»": 739,
      "ĠÐ²ÑģÐ¸ÑĩÐºÐ¸": 740,
      "ĠÑģÐ°Ð¼Ð¾": 741,
      "ĠÐ¿ÑĢÐ¸Ð»Ð¾Ð¶ÐµÐ½Ð¸Ðµ": 742,
      "ÑīÐ°ÑĤÐ°": 743,
      "Ð±Ð¾Ð¿Ð¾": 744,
      "ĠÐ¶Ð°Ð»Ð±Ð¾Ð¿Ð¾": 745,
      "Ð½Ð°Ð½": 746,
      "ĠÑģÐ²Ð¾Ð±Ð¾Ð´Ð½Ð¸": 747,
      "Ð²ÐµÑĤÐ°": 748,
      "ĠÐºÐ¾Ð½ÑĤÑĢÐ°Ð³ÐµÐ½ÑĤÐ°": 749,
      "ÑĤÑĬ": 750,
      "ÑĪÐ°": 751,
      "ĠÑĢÐµÐ¸ÑĤÐ¸Ð½": 752,
      "Ð¿Ð¸ÑĤ": 753,
      "ĠÑģÑĬÐ¾ÑĤÐ²ÐµÑĤÑģÑĤÐ²Ð¸Ðµ": 754,
      "ĠÑģÑĬÐ²ÐµÑĤÐ°": 755,
      "ĠÑĢÐµÐ¸ÑĤÐ¸Ð½Ð³": 756,
      "Ġ30": 757,
      "ĠÑģÑĬÑİÐ·Ð°": 758,
      "ÑĢÑĤ": 759,
      "ĠÑģÐ¼": 760,
      "ĠÑĩÐ°ÑģÑĤ": 761,
      "Ġde": 762,
      "Ġ18": 763,
      "Ð°Ð»Ð¸Ð·Ð¸ÑĢÐ°": 764,
      "Ð´ÐµÐ½": 765,
      "ĠÐ²ÑĢÑĬ": 766,
      "Ġ25": 767,
      "ĠÐ¿Ð»Ð°": 768,
      "Ð½Ð¸Ðº": 769,
      "ĠÑĤÑı": 770,
      "ĠÑĩÐ»ÐµÐ½ÐºÐ°": 771,
      "ÑģÑĤÐ°Ð²Ñı": 772,
      "Ð³Ð»ÐµÐ¶Ð´Ð°": 773,
      "ĠÐ²Ð·": 774,
      "ĠÐºÑĢÐµÐ´Ð¸ÑĤÐ¸": 775,
      "ÑĢÐºÐ¸": 776,
      "ĠÐ¸Ð½ÑĦÐ¾ÑĢÐ¼Ð°": 777,
      "ĠÑģÑĤÑĢÐ°Ð½Ð°": 778,
      "ĠÑģÐ»ÑĥÑĩÐ°Ð¸": 779,
      "Ġ<": 780,
      "Ġ29": 781,
      "Ð±Ð¾ÑĤ": 782,
      "ĠÐ½ÐµÐ¾Ð±": 783,
      "Ð½Ð¾ÑģÑĤÐ¸": 784,
      "ĠÐ´Ð¾Ð³Ð¾Ð²Ð¾": 785,
      "Ġ21": 786,
      "ĠÑĤÑĢÐµ": 787,
      "ĠÐ½Ñı": 788,
      "ĠÐ¾ÑĢÐ³Ð°Ð½Ð¸": 789,
      "ĠÑģÑĬÐ¾Ð±": 790,
      "us": 791,
      "ÑĥÐ¼": 792,
      "Ð²ÐµÐ½Ð¸": 793,
      "ĠÑģÐ¿ÐµÑĨÐ¸Ð°Ð»Ð¸Ð·Ð¸ÑĢÐ°": 794,
      "ÑĤÐ¾ÑĢÐ¸": 795,
      "ĠÐ¾Ð¿ÑĢÐµÐ´ÐµÐ»": 796,
      "Ð³ÑĢÐ°Ð½Ð¸": 797,
      "ĠÐ¿ÑĢÐ¾Ð¸Ð·Ð²Ð¾Ð´ÑģÑĤÐ²Ð¾": 798,
      "ÐºÑĢÐµ": 799,
      "ÐºÐ°Ð·Ð°": 800,
      "ĠÐ±ÑĥÐºÐ²Ð°": 801,
      "ĠÑģÐ¿ÐµÑĨÐ¸Ð°Ð»Ð½Ð¾": 802,
      "Ð±Ðµ": 803,
      "ĠÐºÑĢÐµÐ´Ð¸ÑĤÐ¸ÑĢÐ°Ð½Ðµ": 804,
      "Ð½Ð¸ÑıÑĤ": 805,
      "ÑĢÐ°Ð¶": 806,
      "Ð³Ð°ÑĤ": 807,
      "Ġ+": 808,
      "ĠÑģÑĬÐ´ÑĬÑĢÐ¶Ð°": 809,
      "Ð²Ð°ÑĤÐ°": 810,
      "ĠÑı": 811,
      "Ð½Ñı": 812,
      "ĠÐ¿Ð°Ð·Ð°": 813,
      "ÑĨÐ¸Ð¾Ð½": 814,
      "Ġ199": 815,
      "ĠÐ²ÑĢÑĬÐ·": 816,
      "ion": 817,
      "ÐµÐ½Ð¸ÑıÑĤÐ°": 818,
      "ĠÐ¾Ð²": 819,
      "ĠÐ¿ÑĢÐ¾Ð´ÑĥÐºÑĤÐ¸": 820,
      "ÑīÐ¾ÑĤÐ¾": 821,
      "ĠÐ²ÑĬÑĢ": 822,
      "ĠÐ³Ð°": 823,
      "et": 824,
      "ĠÑĥÐ¿ÑĢÐ°": 825,
      "Ð¾Ð²Ðµ": 826,
      "ĠÐ½Ð°ÑĨÐ¸Ð¾Ð½Ð°Ð»": 827,
      "ÐºÐ»Ð°": 828,
      "ĠÐ¸ÑģÐºÐ°": 829,
      "Ġ26": 830,
      "ÑĤÐ¸ÑĤÐµ": 831,
      "Ġ31": 832,
      "ĠÐ¸Ð·Ð¸ÑģÐºÐ²Ð°": 833,
      "ĠÑĥÑģÐ»Ñĥ": 834,
      "Ġii": 835,
      "Ð½Ð°Ð½ÑģÐ¾": 836,
      "Ð¿Ð¸Ñģ": 837,
      "ĠÑģÐ¼Ð¸Ñģ": 838,
      "ĠÐ½ÐµÐ¾Ð±ÑħÐ¾Ð´Ð¸": 839,
      "Ġ28": 840,
      "Ð´ÐµÐ»": 841,
      "Ð²ÑĬÑĢÑĪÐµÐ½": 842,
      "ĠÑħÐ°": 843,
      "ĠÑĦÐ°": 844,
      "ĠÐ°Ð´": 845,
      "ÐºÑģÐ¸": 846,
      "Ð½Ð°ÑģÑı": 847,
      "ĠÐ´ÑĬÑĢÐ¶Ð°Ð²Ð¸ÑĤÐµ": 848,
      "ĠÐ¸Ð½ÑģÑĤ": 849,
      "ÑģÑĤÑĬ": 850,
      "ÑĪÐ¸": 851,
      "Ġ23": 852,
      "ĠÐ±ÑĬÐ´Ð°ÑĤ": 853,
      "ĠÑĢÐ°Ð¼": 854,
      "ĠÐ¿Ð¾Ð»Ñĥ": 855,
      "ĠÐ¶Ð°Ð»Ð±Ð¾Ð¿Ð¾Ð´Ð°ÑĤÐµÐ»": 856,
      "el": 857,
      "ro": 858,
      "ÑģÑĤÑĤÐ°": 859,
      "ÑĢÐ¸Ð¾": 860,
      "ĠÐ²ÑĢÑĬÐ·ÐºÐ°": 861,
      "ĠÐ½ÐµÐ³Ð¾": 862,
      "ĠÑĥÑģÑĬ": 863,
      "ĠÑĥÑģÑĬÐ²ÑĬÑĢÑĪÐµÐ½": 864,
      "Ð²Ð¾Ð´Ð¸": 865,
      "ÑĩÐ¸ÑĤÐ°": 866,
      "Ġ22": 867,
      "ĠÑĢÐ°Ð·Ð¿Ð¾ÑĢÐµÐ´Ð±Ð¸": 868,
      "ĠÐ¸Ð·Ð²ÑĬÑĢÑĪ": 869,
      "ÑģÑĤÐ²Ð°Ð½": 870,
      "Ġ90": 871,
      "ĠÑĨ": 872,
      "Ġairb": 873,
      "Ð²Ð½Ð°": 874,
      "ĠÐ³Ð¾Ð´Ð¸Ð½Ð°": 875,
      "ĠÑĥÑģÑĬÐ²ÑĬÑĢÑĪÐµÐ½ÑģÑĤÐ²Ð°Ð½": 876,
      "ĠÐ½Ð°ÑĢÑĥ": 877,
      "ÑĢÐ°Ð»": 878,
      "Ð²Ð°Ð½Ð¸": 879,
      "un": 880,
      "Ð¼Ð¸ÑĤÐµ": 881,
      "ĠÐ¿ÑĢÐ¾Ð²Ðµ": 882,
      "ÑĥÐ»": 883,
      "Ġ24": 884,
      "Ð²ÑĬÑĢÐ·Ð°": 885,
      "ÑĤÐ°ÑĤÐ°": 886,
      "ĠÐ¿ÑĢÐ¾ÑĨÐµÐ´Ñĥ": 887,
      "ĠÐ½Ð°Ð¸": 888,
      "ĠÑĨÐµÐ»": 889,
      "ĠÐ·Ð°Ð´ÑĬÐ»Ð¶": 890,
      "Ð¼Ð¾Ð¶": 891,
      "ÑĢÐ»Ð°": 892,
      "ĠÐ·Ð°ÑīÐ¸": 893,
      "Ġin": 894,
      "ĠÐ¼Ð¾Ð³Ð°ÑĤ": 895,
      "Ð¾Ð½Ð°": 896,
      "ĠÑģÑĤÐ¾Ð¸": 897,
      "ĠÐ¸Ð·Ð¼ÐµÐ½": 898,
      "ĠÑĤÐ°ÐºÐ°": 899,
      "ĠÑģÑĬÑİÐ·": 900,
      "ÑħÑĥ": 901,
      "ÑĢÑĤÐ¸": 902,
      "ÐºÐ»ÑİÑĩÐ¸": 903,
      "ĠÑģÐ¿ÐµÑĨÐ¸Ð°Ð»Ð¸Ð·Ð¸ÑĢÐ°Ð½Ð¾": 904,
      "Ð²Ð»": 905,
      "ĠÑĤÑĬÑĢ": 906,
      "ch": 907,
      "ĠÐ¼Ñĥ": 908,
      "Ð¸ÑģÑĤÐµ": 909,
      "ÐºÑĢÐ¸": 910,
      "ĠÐ²ÑĬÑĢÑħÑĥ": 911,
      "ÐµÐ¼Ð²ÑĢÐ¸": 912,
      "ĠÑĤÐµÑħ": 913,
      "Ġx": 914,
      "ĠÐ¿ÑĬÑĢÐ²Ð¾": 915,
      "ĠÐ´Ð°Ð½ÑĬ": 916,
      "Ð±Ð°ÑĤÐ°": 917,
      "ÐºÐ¾Ð»": 918,
      "il": 919,
      "Ġ27": 920,
      "ĠÐµÐ´Ð¸Ð½": 921,
      "ĠÐ½Ð¸": 922,
      "ĠÐ²ÑĬÐ·Ð¼Ð¾Ð¶": 923,
      "ĠÐ²Ð¶": 924,
      "ĠÐµÐ»Ðµ": 925,
      "Ð²ÐµÐ´": 926,
      "ÐºÑĨÐ¸Ñı": 927,
      "Ð¿ÑĢÐµ": 928,
      "ĠÐ±Ð°": 929,
      "ur": 930,
      "ĠÐ±Ðµ": 931,
      "ĠÑĢÐ°Ð·Ð³Ð»ÐµÐ¶Ð´Ð°": 932,
      "ĠÐ²ÑĬÐ¿ÑĢÐ¾Ñģ": 933,
      "ĠÑĥÑģÐ»ÑĥÐ³Ð¸": 934,
      "ÑĤÑĥ": 935,
      "ÑħÐ°": 936,
      "ĠÑģÐ¸ÑģÑĤÐµ": 937,
      "ol": 938,
      "ĠÑģÐ²ÑĬÑĢÐ·Ð°": 939,
      "ĠÐ½Ð°ÑģÑĤÐ¾ÑıÑīÐ¸Ñı": 940,
      "ĠÐ²ÑĢÐµ": 941,
      "ĠÐ¿ÑĢÐ°Ð²Ð¾ÑĤÐ¾": 942,
      "Ð±Ð½Ð¾": 943,
      "ĠÐ¿ÑĢÐ¸Ð½": 944,
      "ÑĢÐ°Ð´Ð¸": 945,
      "ĠÐ²ÐºÐ»ÑİÑĩ": 946,
      "ĠÐ²ÑģÑı": 947,
      "ĠÐ¾Ð±ÐµÐ·": 948,
      "ÑĩÐµÐ½": 949,
      "ĠÐ¾Ð¿ÑĢÐµÐ´ÐµÐ»Ñı": 950,
      "Ð»ÑıÐ²Ð°": 951,
      "ĠÐ¸Ð½ÑĦÐ¾ÑĢÐ¼Ð°ÑĨÐ¸Ñı": 952,
      "Ð»Ð½": 953,
      "ÑĢÐ°Ð·ÑĥÐ¼": 954,
      "Ð¼ÐµÐ½ÑĤÐ¸": 955,
      "ĠÐ¿ÑĢÐ¸Ðµ": 956,
      "Ð»Ð°ÑĤÐ°": 957,
      "ÑīÐ¸ÑĤÐµ": 958,
      "ÑħÐ²ÑĬÑĢ": 959,
      "ÑĩÐµÐ½Ð¸": 960,
      "ÐµÐºÑĤÐ¸": 961,
      "ĠÑģÐ¿Ð¾ÑĢÐ°Ð·ÑĥÐ¼": 962,
      "ĠÐ¿ÐµÑĢÐ¸Ð¾": 963,
      "ĠÐ²Ð¾": 964,
      "Ð¼ÐµÑĤ": 965,
      "Ġw": 966,
      "ĠÐ¼Ð»Ð½": 967,
      "Ð¶Ð°Ð»": 968,
      "Ġct": 969,
      "ĠÐ¾Ð±Ð¶Ð°Ð»": 970,
      "ÑĨÐ¸ÑĤÐµ": 971,
      "ĠÐ¼Ñı": 972,
      "ÑĩÐµÐ½Ð¸Ðµ": 973,
      "ĠÑĨÐµÐ»Ð¸": 974,
      "ĠÐ¿ÑĢÐ°ÐºÑĤÐ¸": 975,
      "ĠÐºÐ¾Ð¼Ð¸ÑģÐ¸Ñı": 976,
      "ÐµÑĢ": 977,
      "ĠÐ¿ÑĢÐµÐ´ÑģÑĤÐ°Ð²": 978,
      "Ð¿ÐµÑĤÐµÐ½": 979,
      "ĠÑĨÐµÐ½": 980,
      "ĠÐ¼ÐµÑĢÐºÐ¸": 981,
      "ĠÐºÐ¾Ð¼Ð¿ÐµÑĤÐµÐ½": 982,
      "ÑĢÐºÐ°": 983,
      "40": 984,
      "Ð¾Ð½": 985,
      "ĠÐ²Ð½Ð¾": 986,
      "30": 987,
      "Ġco": 988,
      "ĠÐ¿ÑĢÐµÐ´ÑģÑĤÐ°": 989,
      "ĠÐ¾ÑģÐ½Ð¾Ð²Ð°Ð½Ð¸Ðµ": 990,
      "ĠÐ¿ÑĢÐ¸Ð½ÑĨÐ¸": 991,
      "ed": 992,
      "Ð¸ÑĤÑĥ": 993,
      "ĠÐ¿ÑĢÐµÐ·": 994,
      "ÑĤÐµÐ»Ð¸ÑĤÐµ": 995,
      "ĠÐ¿Ð¾ÑĢÐ°Ð´Ð¸": 996,
      "ÑĤÐµÐ»ÑģÑĤÐ²Ð°": 997,
      "ÑĢÐ¸ÑĤÐµ": 998,
      "ĠÑģÑĢÐ¾": 999,
      "ĠÐ¸Ð·Ð¿ÑĬÐ»Ð½ÐµÐ½Ð¸Ðµ": 1000,
      "ĠÐ´ÑĢÐµ": 1001,
      "ĠÐ¿ÑĢÐ¾Ð¸Ð·Ð²Ð¾Ð´ÑģÑĤÐ²Ð¾ÑĤÐ¾": 1002,
      "ĠÐ¿ÑĢÐ¸ÐµÐ¼Ð°": 1003,
      "ĠÐ½Ð°Ð´": 1004,
      "ĠÑģÑĬÐ´Ð°": 1005,
      "ĠÐ´Ð°Ð»Ð¸": 1006,
      "Ð¿Ð»Ð°": 1007,
      "ĠÑĢÐ°Ð·ÑĢÐµ": 1008,
      "ĠÐ·Ð½Ð°": 1009,
      "ÑīÐ¸ÑıÑĤ": 1010,
      "Ġ\"": 1011,
      "ĠÐ¾ÑĤÐ½Ð°ÑģÑı": 1012,
      "ĠÐ¶Ð¸": 1013,
      "ÑĤÐ¸ÑĢÐ°": 1014,
      "ĠÐ»Ð¸ÑĨÐµ": 1015,
      "Ð°ÑĢÐ¸": 1016,
      "Ġ2009": 1017,
      "ĠÐ¾Ð³ÑĢÐ°Ð½Ð¸": 1018,
      "Ð¿Ð°Ð·": 1019,
      "ÐµÐ½Ð¾ÑĤÐ¾": 1020,
      "ĠÐ¸Ð¼": 1021,
      "ĠÐ¿ÑĢÐµÐ´Ð¸": 1022,
      "ĠÐ´ÑĢÐµÐ±Ð½Ð¾": 1023,
      "ĠÑĢÐ°Ð¼ÐºÐ¸ÑĤÐµ": 1024,
      "ĠÐ¸Ð·Ð´Ð°": 1025,
      "ĠÑĢÐµÐ·": 1026,
      "Ð´Ð¾Ð±": 1027,
      "Ð¿ÐµÑĢÐ°": 1028,
      "ĠÐ¸Ð½ÑĤÐµ": 1029,
      "os": 1030,
      "ĠÑģÑĥ": 1031,
      "ĠÐ¿Ð¾ÑģÐ»ÐµÐ´": 1032,
      "ĠÐ¿ÑĢÐµÐ²Ð¾": 1033,
      "Ġ2007": 1034,
      "ĠÐ¾ÑĤÐ³Ð¾Ð²Ð¾": 1035,
      "Ð½ÑģÐºÐ¸": 1036,
      "ÑĩÐ½Ð°": 1037,
      "Ð´Ð¸ÑĨÐ¸": 1038,
      "ÑĢÐ°Ð½ÐµÑĤÐ¾": 1039,
      "ĠÐ³Ð¾ÑĢÐµ": 1040,
      "ĠÐ´ÑĢÑĥÐ¶Ðµ": 1041,
      "ĠÐ´Ð°Ð½Ð½Ð¸": 1042,
      "Ð¼Ñı": 1043,
      "ĠÑĢÐµÐ³Ð¸": 1044,
      "ÑĦÐ¸ÐºÐ°": 1045,
      "ĠÑĦÐ¸Ð½Ð°Ð½ÑģÐ¾": 1046,
      "ĠÐºÑĢÐ¸": 1047,
      "ĠÐ¿ÑĢÐµÐ´Ð¾ÑģÑĤÐ°Ð²Ñı": 1048,
      "ĠÐ¿ÑĥÐ±Ð»Ð¸": 1049,
      "ĠÐ¾ÑĢÐ³Ð°Ð½": 1050,
      "ĠÐµÐ¸": 1051,
      "ac": 1052,
      "ent": 1053,
      "ÐºÐ¾Ð½": 1054,
      "ĠÐ¼Ð¸Ð»Ð¸": 1055,
      "ĠÐ¾ÑģÐ²ÐµÐ½": 1056,
      "ĠÐ¿Ð¾Ð·": 1057,
      "ÑĤÐ½Ð¸": 1058,
      "ĠÐµÐ´Ð½Ð°": 1059,
      "ĠÐ¾Ð±Ð¾": 1060,
      "ĠÑģÑĥÐ±": 1061,
      "ĠÑģÑĬÐ¾Ð±ÑĢÐ°Ð¶": 1062,
      "ĠÑĤÑĬ": 1063,
      "ĠÐ¿Ð¾Ð¼Ð¾": 1064,
      "Ġj": 1065,
      "ÑĢÐµÐ·": 1066,
      "ĠÐ³Ð°ÑĢÐ°Ð½": 1067,
      "ĠÐ·Ð°ÐºÐ¾Ð½Ð¾": 1068,
      "50": 1069,
      "ĠÐ¼Ð°Ð»": 1070,
      "ĠÐ²ÑģÐµ": 1071,
      "ĠÐ´Ð¾Ð¿Ñĥ": 1072,
      "ÑĤÐ¾ÑĢ": 1073,
      "ĠÐ¾Ð¿ÐµÑĢÐ°": 1074,
      "21": 1075,
      "Ġ2006": 1076,
      "ĠÐ¿ÑĢÐµÐ²Ð¾Ð·": 1077,
      "ĠÐ·Ð°Ð¿Ð¸ÑĤ": 1078,
      "Ð²Ð½Ð¾ÑĤÐ¾": 1079,
      "ÑĩÐ°Ð²Ð°": 1080,
      "ĠÑĤÑıÑħ": 1081,
      "ĠÑĩÑĢÐµÐ·": 1082,
      "Ð½Ð°Ð»Ð¸": 1083,
      "ĠÐ¼Ð¸Ð»Ð¸Ð¾Ð½Ð°": 1084,
      "Ð°Ð»ÐµÐ½": 1085,
      "ĠÐºÐ¾Ð½ÑĤÑĢÐ¾": 1086,
      "ĠÑĤÐ²ÑĬÑĢ": 1087,
      "ĠÐ¾Ð±ÑīÐ½Ð¾ÑģÑĤÑĤÐ°": 1088,
      "ÑĬÐ»ÐºÑĥ": 1089,
      "ĠÐ´ÑĢÑĥÐ³Ð°": 1090,
      "ĠÑĤÑĬÐ»ÐºÑĥ": 1091,
      "ĠÐ¸Ð·ÐºÐ»ÑİÑĩ": 1092,
      "ĠÐºÐ»Ð°": 1093,
      "Ġ40": 1094,
      "ÑĢÐ¾Ð¸": 1095,
      "Ð²ÐµÐ½Ð°": 1096,
      "ĠÐºÐ¾Ð¼Ð¿ÐµÑĤÐµÐ½ÑĤ": 1097,
      "ĠÐ¿Ð¾ÑģÐ¾ÑĩÐµÐ½Ð¸": 1098,
      "Ð½Ð¸ÑıÑĤÐ°": 1099,
      "Ð¼ÐµÐ½ÑĤÐ°": 1100,
      "Ð²ÑıÐ²Ð°Ð½Ðµ": 1101,
      "ĠÐ´ÐµÐ¸ÑģÑĤÐ²Ð¸": 1102,
      "Ð¼Ð°ÑĤÐ°": 1103,
      "ĠÐ¾Ð±Ð¶Ð°Ð»Ð²Ð°": 1104,
      "ÐºÐ¾ÑĤÐ¾": 1105,
      "ĠÐ³Ð»Ð°Ð²Ð°": 1106,
      "Ð¸ÑĤÐµ": 1107,
      "ad": 1108,
      "ĠÐ¿Ð¾Ð²Ðµ": 1109,
      "Ġ2008": 1110,
      "ĠÐ½Ð°Ð»Ð¸": 1111,
      "ĠÑģÑĩÐ¸ÑĤÐ°": 1112,
      "ĠÑģÑĤÑĢÐ°Ð½Ð¸": 1113,
      "ĠÐ¿Ð°ÑĢÐ»Ð°": 1114,
      "ĠÐ³ÑĢÐ°": 1115,
      "ĠÐ´ÑĬÑĢÐ¶Ð°Ð²Ð¸": 1116,
      "ÐµÐ½Ðµ": 1117,
      "Ð´Ð¾Ð²Ðµ": 1118,
      "Ð¿ÑĬÐ»Ð½Ð¸": 1119,
      "ÐºÐ»ÑİÑĩÐ¸ÑĤÐµÐ»Ð½Ð¾": 1120,
      "Ġ2013": 1121,
      "Ð²Ð½Ð¸ÑĤÐµ": 1122,
      "ÑĩÐ¸Ð½": 1123,
      "Ġ010": 1124,
      "ĠÐ°Ð²": 1125,
      "ĠÑģÑĬÑīÐ¾": 1126,
      "Ð¼Ð¸Ð½Ð¸": 1127,
      "ĠÐ¸Ð½ÑģÑĤÐ¸ÑĤÑĥ": 1128,
      "ÑĢÐ°Ð±Ð¾ÑĤ": 1129,
      "ÑģÐ¿Ð¾": 1130,
      "ĠÑģÑĬÑģÑĤÐ°Ð²": 1131,
      "ĠÐ·Ð°Ñı": 1132,
      "ĠÐ½ÐµÐ·Ð°": 1133,
      "ia": 1134,
      "em": 1135,
      "ÑģÑĤÑĬÐ¿": 1136,
      "ing": 1137,
      "ÐºÑĤÐ°": 1138,
      "Ð¿ÑĥÐ±Ð»Ð¸": 1139,
      "Ð²Ð¸Ñı": 1140,
      "ĠÑĨÐ¸": 1141,
      "ÑĪÐµÐ½Ð¸Ñı": 1142,
      "Ġex": 1143,
      "ĠÐ»Ð¸ÑĨÐ°": 1144,
      "ĠÐ´Ð¾ÐºÑĥ": 1145,
      "ÑĢÐ°ÑĤÐ°": 1146,
      "Ġ01": 1147,
      "ĠÑģÑĢÐµÐ´ÑģÑĤÐ²Ð°": 1148,
      "ĠÑģÑĬÑīÐµÑģÑĤ": 1149,
      "ĠÐ¾ÑĦÐ¸ÑĨÐ¸": 1150,
      "Ġ100": 1151,
      "ĠÐ¾ÑĨÐµÐ½": 1152,
      "90": 1153,
      "ĠÐ¶Ð¸Ð²Ð¾": 1154,
      "ÑĪÐ°Ð²Ð°": 1155,
      "ÐºÑĤÑĥ": 1156,
      "ĠÐ¸Ð·Ð¿Ð¾Ð»Ð·Ð²Ð°": 1157,
      "ÑıÐ²Ð°Ð½Ðµ": 1158,
      "Ð³Ð»ÐµÐ´": 1159,
      "Ð¸Ð½": 1160,
      "ÑģÑĤÐ²ÐµÐ½Ð¾": 1161,
      "ĠÐ½Ð°ÑģÑĤÐ¾ÑıÑīÐ¾ÑĤÐ¾": 1162,
      "Ð³Ð¾Ð²Ð°": 1163,
      "am": 1164,
      "ÐµÐ´Ð¸Ð½": 1165,
      "ÑģÐºÐ°ÑĤÐ°": 1166,
      "ÑĢÐ°Ðº": 1167,
      "ĠÐ²Ð·Ðµ": 1168,
      "ĠÑĥÑĩÐ°": 1169,
      "ĠÐ¿Ð¾Ð»Ð¾Ð¶": 1170,
      "ÑĢÐ¸Ñı": 1171,
      "ĠÑĪ": 1172,
      "ĠÐ½ÐµÐ¾Ð±ÑħÐ¾Ð´Ð¸Ð¼Ð¾": 1173,
      "ÑĨÐ¸Ð¸ÑĤÐµ": 1174,
      "ĠÑĩÐ»ÐµÐ½Ð¾Ð²Ðµ": 1175,
      "ÑĤÐµÐ»Ð½Ð°": 1176,
      "Ġsm": 1177,
      "ĠÑĤÑĬÐ¸": 1178,
      "ĠÑĦÑĥ": 1179,
      "ĠÐ½Ð°Ð¿ÑĢÐ°": 1180,
      "ĠÑĤÑĢÐµÑĤÐ¸": 1181,
      "ĠÐ»Ðµ": 1182,
      "ĠÐºÑĢÐ¸ÑĤÐµÑĢÐ¸": 1183,
      "ĠÐ²ÑĢÐµÐ¼Ðµ": 1184,
      "ĠÐ·Ð°ÑīÐ¸ÑĤÐ°": 1185,
      "ĠÐ¾Ð±ÑģÑĤÐ¾Ñı": 1186,
      "ĠÐ½Ð°ÑĢÑĥÑĪÐµÐ½Ð¸Ðµ": 1187,
      "ÑģÐ¸Ð³Ñĥ": 1188,
      "ĠÑģÑĢÐµ": 1189,
      "ĠÑĤÑĢÐ°Ð½": 1190,
      "ÑģÑĥ": 1191,
      "ĠÐ¿Ð°ÑĢÐ»Ð°Ð¼ÐµÐ½ÑĤ": 1192,
      "ĠÐ²ÑĤÐ¾": 1193,
      "ĠÑİÑĢÐ¸Ñģ": 1194,
      "ĠÐ¿ÑĢÐ¾Ð¸Ð·Ð²Ð¾Ð´Ð¸": 1195,
      "ĠÑİÑĢÐ¸ÑģÐ´Ð¸": 1196,
      "Ð²Ñĥ": 1197,
      "st": 1198,
      "ÑĩÐ½Ð¸ÑĤÐµ": 1199,
      "ĠÐ¾Ð±Ñħ": 1200,
      "Ð´Ð½Ð¾": 1201,
      "Ġ32": 1202,
      "ÑĬÐ¶": 1203,
      "Ġ>": 1204,
      "ĠÐ¿Ð¾Ð´Ð°": 1205,
      "Ð»Ð¸Ñı": 1206,
      "Ð»Ð½Ð¸": 1207,
      "ÑĥÐ»ÑĤÐ°": 1208,
      "Ġ2011": 1209,
      "Ð¾Ð²Ð°ÑĤÐµÐ»Ð½Ð¾": 1210,
      "Ġ2014": 1211,
      "Ġcr": 1212,
      "Ð½Ðº": 1213,
      "Ð²Ð¸ÑģÐ¸": 1214,
      "ĠÐ²ÑģÑıÐºÐ°": 1215,
      "Ġ0106": 1216,
      "ĠÐ¿ÑĢÐ°ÐºÑĤÐ¸ÐºÐ°": 1217,
      "ĠÐ¼ÑıÑģÑĤÐ¾": 1218,
      "ri": 1219,
      "86": 1220,
      "ĠÎ": 1221,
      "11": 1222,
      "Ð¿ÐµÐ½": 1223,
      "Ġ2004": 1224,
      "ut": 1225,
      "ĠÐ´ÐµÐº": 1226,
      "ĠÑĤÐ¸": 1227,
      "ĠÐµÐ·Ð¸": 1228,
      "ĠÐ²ÐºÐ»ÑİÑĩÐ¸ÑĤÐµÐ»Ð½Ð¾": 1229,
      "ĠÑĥÐ²Ðµ": 1230,
      "ĠÑĢÐ°Ð·ÑħÐ¾Ð´Ð¸": 1231,
      "Ð·Ð¾": 1232,
      "ĠÑģÐ¿Ð¾ÑĢÐµÐ´": 1233,
      "ĠÑģÐ¼Ð¸ÑģÑĬÐ»": 1234,
      "ĠÐ´ÐµÐºÐµÐ¼Ð²ÑĢÐ¸": 1235,
      "ĠÑĥÑģÐ»Ð¾Ð²Ð¸Ñı": 1236,
      "Ġ39": 1237,
      "ĠÐ¼Ð°ÑĤÐµÑĢÐ¸": 1238,
      "ĠÑģÐ»ÐµÐ´Ð¾Ð²Ð°ÑĤÐµÐ»Ð½Ð¾": 1239,
      "Ġst": 1240,
      "ĠÐ¿Ð¾Ð²ÐµÑĩÐµ": 1241,
      "ÑıÐ»Ð¾": 1242,
      "ĠÐ¾Ð¿ÑĢÐµÐ´ÐµÐ»ÐµÐ½": 1243,
      "ÐºÑĬ": 1244,
      "ĠÐ¾Ð±Ð»Ð°": 1245,
      "Ġ33": 1246,
      "ĠÑĢÐµÐ´": 1247,
      "ĠÐ¾Ð±ÑīÐ¸Ñı": 1248,
      "Ġ36": 1249,
      "ĠÑħÐ°ÑĢÐ°Ðº": 1250,
      "Ð¼ÐµÐ½Ð½Ð¾": 1251,
      "ĠÐ°Ð´Ð¼Ð¸Ð½Ð¸": 1252,
      "ĠÐµÐ»ÐµÐºÑĤ": 1253,
      "Ġ37": 1254,
      "ĠÑĢÐµÐ¿ÑĥÐ±Ð»Ð¸": 1255,
      "ÐºÐ²Ð¸": 1256,
      "Ġ35": 1257,
      "Ð²Ð»ÐµÐ½Ð¸Ðµ": 1258,
      "ĠÐ½ÑıÐºÐ¾": 1259,
      "ĠÑĢÐµÑĪÐµÐ½Ð¸ÐµÑĤÐ¾": 1260,
      "ĠÑĢÐµÐ¿ÑĥÐ±Ð»Ð¸ÐºÐ°": 1261,
      "ÐºÐ¾Ð½Ð¾Ð¼Ð¸": 1262,
      "Ġ2003": 1263,
      "80": 1264,
      "ĠÑģÑĤÐ¾Ð¸Ð½Ð¾ÑģÑĤ": 1265,
      "ation": 1266,
      "Ġ34": 1267,
      "ÑģÑĤÐ°ÑĤÑĬ": 1268,
      "ĠÐ°Ð´Ð¼Ð¸Ð½Ð¸ÑģÑĤÑĢÐ°": 1269,
      "ĠÐ¾Ð±Ð°": 1270,
      "Ð½Ð´Ð¸": 1271,
      "ĠÐ¾ÑģÐ¸Ð³Ñĥ": 1272,
      "ĠÐ¿Ð¾Ñģ": 1273,
      "ĠÑģÐ¾": 1274,
      "ÐºÐ°Ð·": 1275,
      "ĠÐ¿Ð¾Ð¼Ð¾Ñī": 1276,
      "Ġcor": 1277,
      "ĠÐ¸ÐºÐ¾Ð½Ð¾Ð¼Ð¸": 1278,
      "ĠÐ¾Ð±Ð¶Ð°Ð»Ð²Ð°Ð½Ð¾ÑĤÐ¾": 1279,
      "ĠÑīÐµ": 1280,
      "ĠÐ¿Ð°Ð·Ð°ÑĢ": 1281,
      "ĠÐ¾Ð±Ð°ÑĩÐµ": 1282,
      "Ð½Ð¸ÑĩÐµÑģÐºÐ¸": 1283,
      "ĠÐ¾ÑĤÐ³Ð¾Ð²Ð¾ÑĢ": 1284,
      "ÐµÐ¼": 1285,
      "ÑĤÐµÐ»Ñı": 1286,
      "Ġfirb": 1287,
      "ĠÐ²Ð·ÐµÐ¼Ð°": 1288,
      "id": 1289,
      "Ð½Ð¾Ð²Ð¸": 1290,
      "ĠÑģÐ²ÑĬÑĢÐ·Ð°Ð½Ð¸": 1291,
      "Ð¼Ð°Ð»": 1292,
      "ĠÐ¾Ð¿ÑĢÐµÐ´ÐµÐ»ÐµÐ½Ð¸": 1293,
      "ĠÑĥÑģÐ»Ð¾Ð²Ð¸ÑıÑĤÐ°": 1294,
      "ĠÑĢÐ°Ð±Ð¾ÑĤ": 1295,
      "ĠÐ¿ÑĢÐ¾Ð´Ð°": 1296,
      "ĠÐµÐ¸Ð¾": 1297,
      "ĠÐ½Ð°ÑĩÐ¸Ð½": 1298,
      "ĠÑĢÐ¸": 1299,
      "ĠÐ¿Ð¾Ð´Ð¾Ð±": 1300,
      "ĠÐ¾ÑģÑĬ": 1301,
      "ĠÐ¿Ð¾ÑĤÑĢÐµ": 1302,
      "ĠÑİÑĢÐ¸ÑģÐ´Ð¸ÐºÑĨÐ¸Ñı": 1303,
      "ĠÐºÐ¾Ð½ÐºÑĢÐµ": 1304,
      "ĠÐ¾Ð³Ð»ÐµÐ´": 1305,
      "ĠÐ·Ð°ÐºÐ¾Ð½Ð¾Ð´Ð°ÑĤÐµÐ»": 1306,
      "Ð²ÑĬ": 1307,
      "Ġ2012": 1308,
      "ÑĤÐ²ÑĬÑĢ": 1309,
      "ÑģÐºÐ¾ÑĤÐ¾": 1310,
      "Ð¼ÐµÑģÑĤ": 1311,
      "Ġ02": 1312,
      "ÑĤÐµÐ»ÐµÐ½": 1313,
      "Ð»Ð¾Ð³Ð¸": 1314,
      "ÑĤÑĬÐº": 1315,
      "ÑĬÐº": 1316,
      "Ð²ÐºÐ°": 1317,
      "ĠÐ¾ÑģÐ½Ð¾Ð²ÐµÐ½": 1318,
      "ĠÐ°ÐºÑĤÐ¸": 1319,
      "Ð¶Ð´Ð°Ð½Ðµ": 1320,
      "ĠÑĢÐ°Ð±Ð¾": 1321,
      "ĠÑģÑĢÐ¾Ðº": 1322,
      "ĠÑħÐ¸": 1323,
      "ÑīÑĥ": 1324,
      "re": 1325,
      "000": 1326,
      "ĠÐ´Ð²Ð¸": 1327,
      "ÑĤÐµÑĢ": 1328,
      "Ð»ÐµÐ¶": 1329,
      "Ġ38": 1330,
      "Ð²ÐµÑĤÐµ": 1331,
      "ĠÑģÑĢÐµÑīÑĥ": 1332,
      "qu": 1333,
      "ĠÐ°Ð½": 1334,
      "ÑİÐ´Ð¸ÑĨÐ¸": 1335,
      "ĠÐ¿ÑĢÐµÑİÐ´Ð¸ÑĨÐ¸": 1336,
      "ĠÑģÑĬÐ´ÑĬÑĤ": 1337,
      "um": 1338,
      "ĠÐ´ÑĬÑĢÐ¶Ð°Ð²Ð°ÑĤÐ°": 1339,
      "ĠÑģÑĥÐ±ÐµÐºÑĤÐ¸": 1340,
      "ĠÐ³ÑĢÑĥ": 1341,
      "ĠÐµÐ·Ð¸Ðº": 1342,
      "ÑĬÐ»Ð°": 1343,
      "ĠÐ²Ð¸Ñģ": 1344,
      "ĠÐ½ÑıÐºÐ¾Ð¸": 1345,
      "ĠÑģÐ¼Ð¸ÑģÑĬÐ»Ð°": 1346,
      "ÑĩÐ¸Ñģ": 1347,
      "ĠÐ´Ð¾ÐºÐ°Ð·Ð°": 1348,
      "ÑħÐ²ÑĬÑĢÐ»Ñı": 1349,
      "Ġ000": 1350,
      "ĠÐ¾ÑĤÐ³Ð¾Ð²Ð°": 1351,
      "ĠÐ¸Ð·Ð¿Ð¸ÑĤ": 1352,
      "Ġ*": 1353,
      "Ġcc": 1354,
      "ĠÐ¼Ð°Ð¸": 1355,
      "ÑĤÐ½Ð¾": 1356,
      "ĠÐºÐ°ÑĩÐµ": 1357,
      "ĠÐ¿ÑĢÐ¸Ð»Ð°Ð³Ð°Ð½Ðµ": 1358,
      "Ġcorp": 1359,
      "ĠÐ´ÑĬÐ»": 1360,
      "Ð³Ð»Ð¾": 1361,
      "Ġ84": 1362,
      "Ġz": 1363,
      "Ġ41": 1364,
      "Ð²Ð°Ð´": 1365,
      "ÐµÐ½Ð°ÑĤÐ°": 1366,
      "ÑīÐµÑģÑĤÐ²Ð¾": 1367,
      "ĠÑĤÐ¾Ð¸": 1368,
      "Ð½ÑıÐ²Ð°": 1369,
      "ĠÐ³ÑĢÐ°Ð¶Ð´Ð°": 1370,
      "ĠÐ¾ÑĦÐ¸ÑĨÐ¸Ð°Ð»ÐµÐ½": 1371,
      "ĠÐ¿ÐµÑĢÐ¸Ð¾Ð´": 1372,
      "ĠÐ¾Ð´Ð¾Ð±": 1373,
      "Ð»Ð¸Ð·Ð°": 1374,
      "ĠÑģÐ¸Ð»Ð°": 1375,
      "Ġ2010": 1376,
      "Î±": 1377,
      "Ġ60": 1378,
      "ÑıÐ²Ð°": 1379,
      "ĠÑģÑĤÐ°Ð½Ð¾Ð²Ð¸": 1380,
      "ĠÐ¿ÑĢÐµÐ´Ð²Ð¸Ð¶Ð´Ð°": 1381,
      "ÑĤÐµÐ»ÑģÑĤÐ²Ð¾": 1382,
      "ÑģÑĤÐ½Ð¸Ðº": 1383,
      "ĠÑĤÐ¾ÑĩÐºÐ¸": 1384,
      "Ġkg": 1385,
      "ĠÑĥÑĢÐµÐ´": 1386,
      "ĠÑĤÐµÑĢÐ¸": 1387,
      "Ð¼ÑıÐ½Ð°": 1388,
      "ĠÑĤÐµÑĢÐ¸ÑĤÐ¾ÑĢÐ¸": 1389,
      "Ð½Ð¸ÑĨÐ¸": 1390,
      "ĠÑģÑĬÐ²ÐµÑĤ": 1391,
      "Ð»ÐµÐ¼Ð¸": 1392,
      "ĠÐºÐ¾Ð½ÑĤÑĢÐ¾Ð»": 1393,
      "ĠÑģÑĬÐ²": 1394,
      "ĠÑĦÐµ": 1395,
      "and": 1396,
      "ĠÐ´Ð¾Ð³Ð¾Ð²Ð¾ÑĢ": 1397,
      "ÑģÐ¾Ð±": 1398,
      "Ð´ÐµÐ½Ð°": 1399,
      "ĠÐ¸Ñģ": 1400,
      "ĠÐ¿ÑĢÐ¾Ð´ÑĬÐ»": 1401,
      "Ġ2016": 1402,
      "ĠÐ¿Ð¾Ð»Ð¸": 1403,
      "om": 1404,
      "ĠÐµÑĦÐµ": 1405,
      "ĠÐ¿ÑĢÐµÑĨÐµÐ½": 1406,
      "ĠÑİÐ½Ð¸": 1407,
      "Ġ2015": 1408,
      "ÐºÐ°ÑĢ": 1409,
      "Ð²Ð½Ð¸Ñı": 1410,
      "ul": 1411,
      "Ġan": 1412,
      "ĠÑİÐ»Ð¸": 1413,
      "ĠÐ´Ð¾Ð¿ÑĬÐ»Ð½Ð¸": 1414,
      "ĠÐ¿ÑĢÐ¸Ð»Ð¾Ð¶Ð¸": 1415,
      "ĠÑĩÐ°ÑģÑĤÐ¸": 1416,
      "ĠÐ°Ð»Ð¸": 1417,
      "ĠÐ¾Ð±ÐµÐ·Ð¿Ðµ": 1418,
      "ĠÐ¿ÑĢÐ¸Ð»Ð°Ð³Ð°Ð½ÐµÑĤÐ¾": 1419,
      "Ġof": 1420,
      "Ġ85": 1421,
      "ĠÑĤÐµÐº": 1422,
      "ĠÐ´Ð¾ÐºÐ»Ð°": 1423,
      "Ġ2001": 1424,
      "ĠÐ·Ð°ÑģÐµ": 1425,
      "ĠÐ´Ð¾Ð³Ð¾Ð²Ð¾ÑĢÐ°": 1426,
      "Ð½Ñĥ": 1427,
      "ĠÐ¿Ð¸Ñģ": 1428,
      "ĠÐ¸Ð·Ð²Ð°Ð´": 1429,
      "ĠÐ±Ð¸Ð»Ð¾": 1430,
      "Ð½ÐµÑı": 1431,
      "Ð´ÑĬÑĢÐ¶Ð°": 1432,
      "Ð²Ð°Ð½Ð¸Ñı": 1433,
      "ĠÐ²ÐµÑģÑĤÐ½Ð¸Ðº": 1434,
      "im": 1435,
      "ĠÑĢÐµÐ·ÑĥÐ»ÑĤÐ°": 1436,
      "ÑĦÐµÑģ": 1437,
      "ĠÐ´ÑĦÐµÑģ": 1438,
      "ĠÑģÑħ": 1439,
      "ter": 1440,
      "ÑĢÐ°Ð½Ð°": 1441,
      "Ð·Ð´Ð°": 1442,
      "Ġ99": 1443,
      "ĠÑĢÐ°Ð·Ð¼ÐµÑĢ": 1444,
      "ĠÐ¸Ð·Ð»Ð¾Ð¶": 1445,
      "Ġ43": 1446,
      "ÑīÐ½Ð¾ÑģÑĤ": 1447,
      "Ð²ÐµÐ½Ð¸ÑĤÐµ": 1448,
      "ĠÐ²ÑģÐµÐºÐ¸": 1449,
      "Ġ42": 1450,
      "ĠÐ·Ðµ": 1451,
      "ĠÐµÐ´Ð½Ð¾": 1452,
      "ĠÑĢÐ°Ð·Ð¿Ð¾ÑĢÐµÐ´Ð±Ð¸ÑĤÐµ": 1453,
      "94": 1454,
      "Ð½Ð´Ð°": 1455,
      "ĠÑĤÑĬÑĢÐ³Ð¾Ð²": 1456,
      "ĠÑģÐ¾Ð±": 1457,
      "ĠÐ¿Ð¾Ð·Ð¸": 1458,
      "ĠÑģÑĬÑīÐµÑģÑĤÐ²Ñĥ": 1459,
      "ĠÑģÑĬÐ·Ð´Ð°": 1460,
      "Ð¿Ð¾ÑĢ": 1461,
      "Ð°Ð»Ð½Ð¸": 1462,
      "ĠÐ°Ð»Ð¸Ð½ÐµÑı": 1463,
      "Î¿": 1464,
      "Ġ05": 1465,
      "Ð²Ð¸ÑģÐ¸Ð¼Ð¾": 1466,
      "ĠÑģÐ¸ÑģÑĤÐµÐ¼Ð°": 1467,
      "Ġ44": 1468,
      "ĠÐ¾ÑĢÐ³Ð°Ð½Ð¸Ð·Ð°": 1469,
      "ĠÐ´Ð¾Ð±Ð°": 1470,
      "Ð²ÐµÑģÑĤ": 1471,
      "Ġ45": 1472,
      "ĠÐ½ÑıÐ¼Ð°": 1473,
      "ĠÑĤÑĢÐ¸": 1474,
      "ra": 1475,
      "ĠÐ¿Ð¾ÑģÐ¾ÑĩÐµÐ½Ð¾": 1476,
      "ĠÑĨÐµÐ»Ð¸ÑĤÐµ": 1477,
      "70": 1478,
      "ĠÐºÑĢÐ¸ÑĤÐµÑĢÐ¸Ð¸": 1479,
      "ĠÐ³Ð¾Ð»ÐµÐ¼Ð¸": 1480,
      "60": 1481,
      "Ð¿Ð¾ÑĤÑĢÐµ": 1482,
      "ĠÐ¶Ð°Ð»Ð±Ð¾Ð¿Ð¾Ð´Ð°ÑĤÐµÐ»Ñı": 1483,
      "ĠÐ´ÐµÐ¸Ð½Ð¾ÑģÑĤ": 1484,
      "ĠÑģÑĤÐ¾ÐºÐ¸": 1485,
      "ĠÐ¿ÑĢÐµÐ´ÑģÑĤÐ°Ð²Ð¸": 1486,
      "ĠÐ¶Ð°Ð»Ð±Ð¾Ð¿Ð¾Ð´Ð°ÑĤÐµÐ»ÑıÑĤ": 1487,
      "ĠÐºÑĢÐ°": 1488,
      "ĠÑĩÐ¸": 1489,
      "ĠÐ¿ÑĢÐ¾Ð¸Ð·ÑħÐ¾Ð´": 1490,
      "Ð»ÐµÐ½Ð¾": 1491,
      "ĠÐ¼ÐµÑĤÐ¾": 1492,
      "ĠÐ¾Ð±ÑĢÐ°Ð·": 1493,
      "ie": 1494,
      "Ġ54": 1495,
      "ÐºÑĤÐ¾ÑĢ": 1496,
      "ĠÐ¿Ð°Ð·Ð°ÑĢÐ°": 1497,
      "ĠÐ¿Ð¾Ð»Ðµ": 1498,
      "ĠÐºÐ¾Ð½ÐºÑĥ": 1499,
      "ĠÐ¾Ð±ÑīÐµÑģÑĤ": 1500,
      "Ð¿Ð°Ñģ": 1501,
      "ĠÐ¸Ð·ÑĩÐ¸Ñģ": 1502,
      "Ð¼Ñĥ": 1503,
      "he": 1504,
      "ĠÐµÐ»ÐµÐºÑĤÑĢÐ¾": 1505,
      "Ġ2002": 1506,
      "ĠÐ¸Ð·Ð½Ð¾": 1507,
      "ÑĤÐ¸ÑĩÐ°": 1508,
      "ĠÑĦÐ¾ÑĢÐ¼Ð°": 1509,
      "ÑģÐºÐ¸ÑĤÐµ": 1510,
      "ĠÐ¿Ð¾ÑĤÑĢÐµÐ±Ð¸": 1511,
      "Ð²ÐµÑģÑĤÐ¸": 1512,
      "ĠÐ³Ð»Ð°Ð²Ð½Ð¾ÑĤÐ¾": 1513,
      "Ð»ÑĬÐ¶": 1514,
      "Ð¾Ð±ÑĢÐ°Ð·": 1515,
      "oc": 1516,
      "Ġ2017": 1517,
      "ĠÑģÑĬÐ¾ÑĤÐ²ÐµÑĤÐ½Ð¸ÑĤÐµ": 1518,
      "ĠÐ¿ÑĢÐµÐ´ÑģÑĤÐ°Ð²Ð»ÑıÐ²Ð°": 1519,
      "ĠÑĢÐ°Ð·Ð½Ð¾": 1520,
      "ĠÐ¾ÐºÑĤÐ¾": 1521,
      "Ġ2005": 1522,
      "ĠÐ¿ÑĢÐµÐ´Ð¾ÑģÑĤÐ°": 1523,
      "Ġsmec": 1524,
      "ĠÐ¾ÐºÑĤÐ¾Ð¼Ð²ÑĢÐ¸": 1525,
      "ĠÐ¿ÑĢÐ°Ð²Ð¸Ð»Ð°": 1526,
      "Ð²Ð°ÑīÐ°ÑĤÐ°": 1527,
      "ÑģÑĤÐ²ÐµÐ½Ð¸": 1528,
      "ĠÑĢÐµÑĪÐµÐ½Ð¸Ñı": 1529,
      "ÑĢÐ¾Ð´": 1530,
      "ĠÐ¿ÑĢÐ°Ð²Ð½Ð°": 1531,
      "ĠÐ½Ð°ÑĤÐ°": 1532,
      "Ð»Ð°Ð³Ð°Ð½Ðµ": 1533,
      "ĠÐ·Ð°ÐºÐ»ÑİÑĩ": 1534,
      "ĠÐ¸Ð½ÑĤÐµÑĢÐµ": 1535,
      "ĠÐ¾Ð¿Ð¸Ñģ": 1536,
      "Ð½Ð¸ÐµÑĤÐ¾": 1537,
      "ĠÐ¿Ð¾Ð·Ð²Ð¾": 1538,
      "Ð½Ð°ÑĤÐ¸": 1539,
      "ĠÐ¼Ð°ÑĢÑĤ": 1540,
      "ĠÐ¿ÑĢÑı": 1541,
      "ĠÐ²ÑĬÐ·ÑģÑĤÐ°Ð½Ð¾": 1542,
      "Ġ80": 1543,
      "ĠÑģÐ¿Ð¾ÑĢ": 1544,
      "ĠÑĦÑĥÐ½Ðº": 1545,
      "Ð´Ð²Ð¸": 1546,
      "ĠÑĥÐ¿ÑĢÐ°Ð¶": 1547,
      "Ġ52": 1548,
      "Ð½Ð°Ð·Ð½Ð°": 1549,
      "Ð´ÐµÐ½ÑĤÐ¸": 1550,
      "ĠÐ´Ð¾ÑģÑĤÑĬÐ¿": 1551,
      "Î¹": 1552,
      "ĠÐ¾ÑĤÐ±Ðµ": 1553,
      "ÑģÑĤÑĢÐ¸": 1554,
      "Ġ91": 1555,
      "ĠÐµÐ²ÑĢÐ¾Ð¿ÐµÐ¸ÑģÐºÐ°ÑĤÐ°": 1556,
      "ot": 1557,
      "Ð»Ð½Ð¾": 1558,
      "ĠÐ¸Ð·Ð¿ÑĬÐ»": 1559,
      "Ð³Ð¸Ñı": 1560,
      "ĠÑģÐ¿Ð¸Ñģ": 1561,
      "ĠÐ¾Ð¿ÑĢÐµÐ´ÐµÐ»ÑıÐ½Ðµ": 1562,
      "ÑīÐ°Ð½Ðµ": 1563,
      "ÑĤÐµÐ¿ÐµÐ½": 1564,
      "ĠÐ¸Ð½ÑģÑĤÑĢÑĥ": 1565,
      "ĠÐ²Ð½Ð¾Ñģ": 1566,
      "ĠÐ¾Ð±ÑģÑĤÐ¾ÑıÑĤÐµÐ»ÑģÑĤÐ²Ð°": 1567,
      "ĠÐ´Ð»ÑĬÐ¶": 1568,
      "ĠÑģÑĬÐ¾Ð±ÑĢÐ°Ð¶ÐµÐ½Ð¸Ñı": 1569,
      "ĠÐºÐ¾Ð»Ð¸": 1570,
      "ÑĢÐ°ÑĤÐ¸": 1571,
      "ĠÑģÑĤÐ°Ð½Ð´Ð°": 1572,
      "ĠÐ±Ð¸Ð»Ð¸": 1573,
      "ĠÐ²Ð¸ÑģÐ¾": 1574,
      "ĠÐ¸Ð·Ð²Ð°Ð´ÐºÐ°": 1575,
      "ÑĤÑĢÑĥ": 1576,
      "ĠÐ½Ð¸ÑĤÐ¾": 1577,
      "ĠÐ¿ÑĢÐ¾Ð´Ð°Ð¶": 1578,
      "ĠÐ¼Ð°Ð»ÐºÐ¾": 1579,
      "Ð²Ð½Ð°ÑĤÐ°": 1580,
      "Ð²Ð°ÑīÐ¸": 1581,
      "ĠÐ¿Ð»Ð¾": 1582,
      "Ġ46": 1583,
      "ÑĪÐµ": 1584,
      "ÐºÐ¾Ð»ÐºÐ¾ÑĤÐ¾": 1585,
      "Ð²Ð°Ð½": 1586,
      "ĠÐ¼Ð¸ÑĤ": 1587,
      "Ġ0086": 1588,
      "ÑĤÐµÐ»Ð½Ð¸ÑĤÐµ": 1589,
      "Ð¿ÑĤÐµ": 1590,
      "Ġen": 1591,
      "Ð¿Ð¸ÑĤÐ°": 1592,
      "Ġ70": 1593,
      "Ð²Ð°Ð»Ð¸": 1594,
      "Ġ49": 1595,
      "ĠÑıÐ½Ñĥ": 1596,
      "op": 1597,
      "ĠÑıÐ½ÑĥÐ°ÑĢÐ¸": 1598,
      "ĠÐ¼Ð¸Ð½Ð¸": 1599,
      "Ġ53": 1600,
      "ĠÐ°Ð´Ð¼Ð¸Ð½Ð¸ÑģÑĤÑĢÐ°ÑĤÐ¸": 1601,
      "ÑĤÐµÐ³Ð¾": 1602,
      "ĠÐ¾Ð±Ñı": 1603,
      "ÑģÑĤÑĢÐ°Ð½": 1604,
      "Ð²Ð¸ÑĪÐ°Ð²Ð°": 1605,
      "ĠÑĢÐ°Ð·Ð¿Ð¾ÑĢÐµÐ´Ð±Ð°": 1606,
      "ĠÑĤÐ²ÑĬÑĢÐ´": 1607,
      "ĠÐ¿ÑĢÐ¾Ð´ÑĥÐºÑĤ": 1608,
      "Ġ51": 1609,
      "ort": 1610,
      "Ġ48": 1611,
      "ue": 1612,
      "Ð¼ÐµÐ½Ð¸": 1613,
      "Ġ55": 1614,
      "ĠÐ´ÐµÐ¸Ð½Ð¾ÑģÑĤÐ¸": 1615,
      "ĠÐ²Ð»Ð°": 1616,
      "ĠÐºÐ¾Ð»Ð¸ÑĩÐµ": 1617,
      "Ġre": 1618,
      "ĠÐ·Ð°Ð¿Ð¾": 1619,
      "ĠÐ¿ÑĢÐ°Ð²Ð°": 1620,
      "Ġbg": 1621,
      "ĠÑģÑĤÑĢÐ°Ð½Ð¸ÑĤÐµ": 1622,
      "ĠÐ°Ð½Ð°Ð»Ð¸": 1623,
      "ĠÐ½Ð°ÑĤÐ°ÑĤÑĬÐº": 1624,
      "ĠÑģÐ»ÐµÐ´Ð½Ð¸ÑĤÐµ": 1625,
      "ĠÑģÐµÐ¿ÑĤÐµ": 1626,
      "ĠÐ¿ÑĢÐ¸Ð·Ð½Ð°": 1627,
      "ĠÑģÐµÐ¿ÑĤÐµÐ¼Ð²ÑĢÐ¸": 1628,
      "ĠÐ¸Ð·ÐºÐ»ÑİÑĩÐµÐ½Ð¸Ðµ": 1629,
      "ĠÐ½Ð¾ÐµÐ¼Ð²ÑĢÐ¸": 1630,
      "ĠÐµÑĦÐµÐºÑĤÐ¸": 1631,
      "ĠÑīÐ¾": 1632,
      "ÑĢÑĥÐºÑĤÑĥ": 1633,
      "ĠÐ¾Ð¿Ð¸ÑģÐ°": 1634,
      "ĠÐ¸Ð·Ð¸ÑģÐºÐ²Ð°Ð½Ð¸Ñı": 1635,
      "ig": 1636,
      "ĠÐºÐ°ÑĤÐµÐ³Ð¾": 1637,
      "Ġ2018": 1638,
      "ĠÐ¿Ð¾Ð»Ð¾Ð¶ÐµÐ½Ð¸Ðµ": 1639,
      "ĠÐ¿Ð¾ÑģÐ¾ÑĩÐµÐ½Ð¸ÑĤÐµ": 1640,
      "Ġ95": 1641,
      "ĠÑĥÐ¿ÑĢÐ°Ð²Ð»ÐµÐ½Ð¸Ðµ": 1642,
      "ĠÐ´Ð¾ÑģÑĤÐ°ÑĤÑĬ": 1643,
      "ĠÐ¾Ð·Ð½Ð°": 1644,
      "Ð´ÐµÐ¸": 1645,
      "Ð²ÑıÐ²Ð°": 1646,
      "ÐºÑĬÐ²": 1647,
      "ĠÐ´Ð¸Ñģ": 1648,
      "ĠÐ¼ÐµÐ¶Ð´ÑĥÐ½Ð°": 1649,
      "ĠÐºÐ¾Ð½ÐºÑĥÑĢÐµÐ½": 1650,
      "ÑĢÐ½Ð¸": 1651,
      "ÑĩÐ°Ð»": 1652,
      "ii": 1653,
      "ĠÐ²ÑĤÐ¾ÑĢÐ¾": 1654,
      "ĠÐ²ÑĬÐ¿ÑĢÐ¾ÑģÐ¸": 1655,
      "sc": 1656,
      "ĠÐºÑĬ": 1657,
      "Ġ96": 1658,
      "Ð±Ð»Ð¸": 1659,
      "Ð¿ÑĢÐ¸Ð»": 1660,
      "ĠÑģÑĬÐ´ÐµÐ±Ð½Ð°": 1661,
      "31": 1662,
      "ĠÐ¿ÑĢÐµÐ´Ð¼ÐµÑĤ": 1663,
      "ÑĢÑģÐºÐ¸": 1664,
      "ĠÑģÐ¿Ð¾ÑĢÐ°Ð·ÑĥÐ¼ÐµÐ½Ð¸Ðµ": 1665,
      "ĠÐ³ÐµÑĢ": 1666,
      "ĠÐ¿ÑĬÑĤ": 1667,
      "ĠÑĤÑĢÑĥ": 1668,
      "Ġiii": 1669,
      "ÑĢÐ¸ÑĩÐ°": 1670,
      "ĠÐ¼Ð°ÑĢÐºÐ°": 1671,
      "ĠÑĢÐµÐ¶Ð¸": 1672,
      "ĠÐºÑĢÐ°Ð»": 1673,
      "ĠÐ°Ð¿ÑĢÐ¸Ð»": 1674,
      "ĠÐ¶Ð°Ð»Ð±Ð°ÑĤÐ°": 1675,
      "ĠÐ³ÐµÐ½Ðµ": 1676,
      "ag": 1677,
      "ĠÐ¿ÑĢÐµÐ´Ð¾ÑģÑĤÐ°Ð²": 1678,
      "ĠÐ³ÐµÑĢÐ¼Ð°": 1679,
      "ĠÐ¿Ð¾Ð»ÑĥÑĩÐ°": 1680,
      "Ġat": 1681,
      "ĠÑĢÐ¾": 1682,
      "ÑĩÐµÑģÐºÐ°": 1683,
      "ĠÑĤÐ¾Ð¼": 1684,
      "ĠÐ¿Ð¾ÑģÐ¾ÑĩÐ²Ð°": 1685,
      "ĠÐ¸Ð¼Ð¾": 1686,
      "Ð¿ÑĢÐµÐ´Ðµ": 1687,
      "ĠÐ·Ð°Ð¿Ð»Ð°": 1688,
      "ÑģÑĤÐ°Ð½": 1689,
      "ĠÐ¸Ð´ÐµÐ½ÑĤÐ¸": 1690,
      "Ġlc": 1691,
      "ĠÐ¿Ð¾Ð»": 1692,
      "Ð¼ÐµÐ½Ñı": 1693,
      "ĠÑģÑĢÐµÐ´ÑģÑĤÐ²Ð¾": 1694,
      "Ġ47": 1695,
      "ĠÐ¾Ð±Ð»Ð°ÑģÑĤÑĤÐ°": 1696,
      "Ð¿Ð¾ÑĤÐµ": 1697,
      "Ð´ÑĢÐ°": 1698,
      "Ð¾ÑĢÐ¼Ð¸": 1699,
      "ĠÐ¿ÑĢÐ¸Ð»Ð°Ð³Ð°ÑĤ": 1700,
      "ĠÑĤÑĢÐ°Ð½ÑģÐ¿Ð¾": 1701,
      "ĠÑĢÐ°Ð·Ð½Ð¾ÑģÐºÐ¸": 1702,
      "ĠÐ½Ð°ÑĢÐ¸ÑĩÐ°": 1703,
      "Ġrec": 1704,
      "22": 1705,
      "Ð´ÐµÐ½Ð¸": 1706,
      "ĠÐ¾Ð±ÑīÐ¸ÑıÑĤ": 1707,
      "ĠÑģÐ¿Ð¾ÑĢÐ°Ð·ÑĥÐ¼ÐµÐ½Ð¸ÐµÑĤÐ¾": 1708,
      "Ð¶ÐµÐ½Ð¸Ðµ": 1709,
      "ĠÐ²ÑĬÐ·Ð´Ñĥ": 1710,
      "ĠÑģÑĬÑģÑĤÐ¾Ñı": 1711,
      "ĠÐ¼Ð°ÑĤÐµÑĢÐ¸Ð°Ð»Ð¸": 1712,
      "ÑĢÑıÐ²Ð°Ð½Ðµ": 1713,
      "ÑĤÐµÐ¶Ð°": 1714,
      "ĠÐ¿Ð¾Ð»Ð·": 1715,
      "le": 1716,
      "ĠÑģÑĤÐµÐ¿ÐµÐ½": 1717,
      "Ð²Ð¾Ð±Ð¾": 1718,
      "ĠÐ²Ð»Ð¸Ð·Ð°": 1719,
      "Ð³Ð¾ÑĤ": 1720,
      "Ġcom": 1721,
      "ĠÑĨÐµÐ½ÑĤ": 1722,
      "ĠÐ½Ð°Ð¼Ð°": 1723,
      "ĠÐ¿Ð¾ÑģÑĤÐ°Ð½Ð¾": 1724,
      "ĠÐ¾ÑģÐ²Ð¾Ð±Ð¾": 1725,
      "Ġch": 1726,
      "ĠÐ²Ð°": 1727,
      "ĠÐ»Ð¸Ð¿": 1728,
      "ĠÐ¿ÑĢÐµÐ´Ð½Ð°Ð·Ð½Ð°": 1729,
      "Ð¿Ð°Ð´": 1730,
      "ĠÐ´Ð¾ÐºÐ¾Ð»ÐºÐ¾ÑĤÐ¾": 1731,
      "ĠÑĢÐ°Ð·ÑģÐ»ÐµÐ´": 1732,
      "ĠÑĥÑģÑĤÐ°Ð½Ð¾Ð²Ð¸": 1733,
      "ĠÐºÑĢÐ°Ð»ÑģÑĤÐ²Ð¾": 1734,
      "ÑĢÐºÐ¸ÑĤÐµ": 1735,
      "ĠÐ¸Ð¼Ð°ÑĤ": 1736,
      "ĠÐ²ÑĢÐµÐ´": 1737,
      "ĠÐ¿ÑĢÐ¾Ð³ÑĢÐ°": 1738,
      "ÑĩÐ¸ÑĤÐµÐ»Ð½Ð¸": 1739,
      "ÐºÐµ": 1740,
      "Ġ2000": 1741,
      "Ġ61": 1742,
      "ĠÐ½ÐµÑı": 1743,
      "ĠÐ¾Ð±ÑīÐ½Ð¾ÑģÑĤ": 1744,
      "ĠÑģÐ¿Ð°Ð·": 1745,
      "ĠÐ²ÑģÑĬ": 1746,
      "ĠÐ²ÑģÑĬÑīÐ½Ð¾ÑģÑĤ": 1747,
      "ĠÐºÐ°ÑĢ": 1748,
      "ĠÐ·Ð°Ð¿Ð¸ÑĤÐ²Ð°ÑīÐ°ÑĤÐ°": 1749,
      "ĠÑĥÐ¿Ð¾ÑĤÑĢÐµ": 1750,
      "ĠÐ¿Ð¾Ð´ÐºÑĢÐµ": 1751,
      "Ð±ÑĢÐ¾": 1752,
      "ĠÐ¿ÑĢÐ¸ÑĤÐµÐ¶Ð°": 1753,
      "ĠÐ¼Ð¾ÑĤÐ¸": 1754,
      "ĠÐºÐ°Ð¿Ð¸ÑĤÐ°": 1755,
      "ĠÐ¿ÑĢÐ¸Ð½ÑĨÐ¸Ð¿": 1756,
      "Ð´ÐµÐ½Ð¾": 1757,
      "Ð²Ð¾ÑĤÐ¾": 1758,
      "ĠÐ¸Ð·Ð¸ÑģÐºÐ²Ð°Ð½Ð¸ÑıÑĤÐ°": 1759,
      "ĠÐºÐ¾Ð¼Ð¸ÑĤÐµ": 1760,
      "Ð¿Ð°Ð´Ð°": 1761,
      "ĠÑģÑĤÐ°Ð½Ð¾Ð²Ð¸ÑīÐµ": 1762,
      "Ð±Ð¾ÑĢ": 1763,
      "ĠÐ¿Ð¾Ð´ÑħÐ¾Ð´Ñı": 1764,
      "ĠÐ¾ÑģÑĤÐ°": 1765,
      "Ġal": 1766,
      "Ġ92": 1767,
      "Ġ59": 1768,
      "Ð¶Ð¸Ð¼Ð¸": 1769,
      "ĠÐ·Ð°ÐºÐ¾Ð½": 1770,
      "ĠÐ²ÐµÑĩÐµ": 1771,
      "ÐºÐ¾Ð²Ð°": 1772,
      "Ð±Ð¸ÑĤÐµ": 1773,
      "ab": 1774,
      "Ð½ÐµÐ½": 1775,
      "ĠÐ¼Ð°ÐºÑģÐ¸": 1776,
      "Ð²ÐµÐ½Ð°ÑĤÐ°": 1777,
      "ĠÑģÐ»ÑĥÐ¶": 1778,
      "ÑĨÐ°ÑĤÐ°": 1779,
      "ĠÑĥÑĢÐµÐ´Ð±Ð°": 1780,
      "ĠÐ¾ÑĤÐ³Ð¾Ð²Ð°ÑĢÑı": 1781,
      "Ġ57": 1782,
      "ÑģÑĤÐ¾Ð¸": 1783,
      "Ð²ÐµÐ¶Ð´Ð°": 1784,
      "ĠÐ¾Ð·Ð½Ð°ÑĩÐ°Ð²Ð°": 1785,
      "ĠÐ´Ð¾ÑĢÐ¸": 1786,
      "ĠÐ¼Ð½Ð¾": 1787,
      "Ġcon": 1788,
      "ÑĩÐ½Ð°ÑĤÐ°": 1789,
      "Ġ56": 1790,
      "ĠÐ´Ð°ÑĤÐ°ÑĤÐ°": 1791,
      "ĠÐ¿ÑĢÐ¾ÑĤÐ¸": 1792,
      "ĠÐ´Ð¾ÐºÐ»Ð°Ð´": 1793,
      "ĠÐ²Ð¸Ð´Ð¾Ð²Ðµ": 1794,
      "ĠÑĤÐ°ÐºÐ¸": 1795,
      "ĠÑĤÐ°ÐºÐ¸Ð²Ð°": 1796,
      "ĠÐ³Ð°ÑĢÐ°Ð½ÑĤÐ¸ÑĢÐ°": 1797,
      "Ð¿Ð°Ð½": 1798,
      "Ð¼Ð¸ÑĪ": 1799,
      "ĠÐ½ÐµÐ¸": 1800,
      "ĠÐ¿ÑĢÐ¾ÑĨÐµÐ´ÑĥÑĢÐ°": 1801,
      "ĠÐ¿ÑĥÐ±Ð»Ð¸ÐºÑĥ": 1802,
      "ĠÐ½ÐµÑĦÐ¸": 1803,
      "Ġ65": 1804,
      "ĠÐ¼ÐµÑģÐµ": 1805,
      "ÑĨÐµÐ½ÑĤ": 1806,
      "Ġ93": 1807,
      "ĠÐ½ÐµÐ´Ð²Ð¸": 1808,
      "ĠÐ¿ÑĢÐµÐ´Ð²Ð¸Ð´ÐµÐ½Ð¸": 1809,
      "Ð²Ð°ÑīÐ°": 1810,
      "ĠÐ½ÐµÑĦÐ¸Ð½Ð°Ð½ÑģÐ¾": 1811,
      "ĠÑģÐ¸Ð³Ñĥ": 1812,
      "ĠÐ´ÑĢ": 1813,
      "ĠÐ¾Ð´Ð¾Ð±ÑĢ": 1814,
      "Ð¼ÐµÐ½Ð°": 1815,
      "ĠÐ·Ð°Ð±": 1816,
      "ĠÑħÐ°ÑĢ": 1817,
      "ÑĦÐµÑĢÐµÐ½": 1818,
      "ĠÑĨÑıÐ»Ð¾": 1819,
      "ĠÑĤÑĬÑĢÐ³Ð¾": 1820,
      "Ġ2019": 1821,
      "ĠÐ½Ð°ÑģÑĤÐ¾ÑıÑīÐ°ÑĤÐ°": 1822,
      "ĠÐ½ÐµÑĦÐ¸Ð½Ð°Ð½ÑģÐ¾Ð²Ð¸": 1823,
      "ĠÐ¾ÑĤÐ¼ÑıÐ½Ð°": 1824,
      "iv": 1825,
      "ĠÐ³ÑĢÑĥÐ¿Ð°": 1826,
      "ÑĤÐ½Ð¸ÑĤÐµ": 1827,
      "od": 1828,
      "ĠÐ´ÐµÐ¸ÑģÑĤÐ²Ð¸Ðµ": 1829,
      "ĠÐ´ÑĢÑĥÐ¶ÐµÑģÑĤÐ²Ð¾": 1830,
      "Ġtr": 1831,
      "ĠÐ¿ÑĢÐµÐ´Ð»Ð¾Ð¶": 1832,
      "ĠÑģÐ¿": 1833,
      "ĠÑģÐ¸Ð³ÑĥÑĢ": 1834,
      "Ð½Ð´Ð¸Ñı": 1835,
      "ĠÑĦÐ°ÐºÑĤÐ¸": 1836,
      "ip": 1837,
      "ĠÐ¾Ð±ÐµÐ·ÑīÐµ": 1838,
      "Ð¶Ð´": 1839,
      "ĠÐ°ÐºÑĤ": 1840,
      "Ġ94": 1841,
      "ĠÐ¸ÑģÐºÐ°Ð½Ðµ": 1842,
      "Ð½ÐµÑĢ": 1843,
      "ĠÑģÐ¿ÐµÑĨÐ¸ÑĦÐ¸": 1844,
      "Ġ87": 1845,
      "if": 1846,
      "Ġ71": 1847,
      "ĠÑĢÐ°Ð²Ð½Ð¸": 1848,
      "ÑĩÐµÑģÐºÐ¾": 1849,
      "ĠÑĥÑģÑĤ": 1850,
      "ĠÐ¶Ð°Ð»Ð±Ð°": 1851,
      "ĠÑĤÐµÐ³Ð»Ð¾": 1852,
      "ĠÑģÑĬÐ²Ð¼ÐµÑģÑĤ": 1853,
      "ĠÐ´Ð¾ÐºÐ°Ð·Ð°ÑĤÐµÐ»ÑģÑĤÐ²Ð°": 1854,
      "ĠÐ¾Ð±ÐµÐ·ÑīÐµÑĤ": 1855,
      "ĠÑĥÐ²ÐµÐ´Ð¾": 1856,
      "ÑĤÐµÐ»Ð½Ð¾ÑģÑĤ": 1857,
      "ĠÐ¸Ð½Ð²ÐµÑģÑĤÐ¸": 1858,
      "Ð²ÑĢÑĥ": 1859,
      "ĠÑĦÐµÐ²ÑĢÑĥ": 1860,
      "ĠÑĦÐµÐ²ÑĢÑĥÐ°ÑĢÐ¸": 1861,
      "Ġ58": 1862,
      "ĠÑħÐ¾": 1863,
      "Ġ75": 1864,
      "ĠÑĢÐ°Ð·ÑĢÐµÑĪÐµÐ½Ð¸Ðµ": 1865,
      "ĠÐ¿ÑĢÐµÐ´Ð¿ÑĢÐ¸ÑıÑĤÐ¸Ðµ": 1866,
      "ĠÐ·Ð´ÑĢÐ°": 1867,
      "ĠÐ³Ð¾Ð»Ñı": 1868,
      "ĠÐ¶Ð°Ð»Ð±Ð¾Ð¿Ð¾Ð´Ð°": 1869,
      "ĠÐ¸Ð·Ð¼ÐµÐ½ÐµÐ½Ð¸Ðµ": 1870,
      "ĠÐºÐ¸": 1871,
      "ĠÐ²ÑĬÐ·Ð¼Ð¾Ð¶Ð½Ð¾ÑģÑĤ": 1872,
      "ÑĤÐµÐ»Ð½Ð¾ÑĤÐ¾": 1873,
      "ĠÐ¿Ð¾Ð·Ð¾Ð²Ð°": 1874,
      "ÑĢÐ°Ð²": 1875,
      "ov": 1876,
      "Ġ98": 1877,
      "ĠÑĢÐ°Ð·Ð²Ð¸": 1878,
      "Ð²ÐµÑĢ": 1879,
      "ĠÐµÐ´Ð¸Ð½ÑģÑĤÐ²ÐµÐ½Ð¾": 1880,
      "ĠÐ¾ÑĨÐµÐ½ÐºÐ°": 1881,
      "Ġfr": 1882,
      "Ġpr": 1883,
      "99": 1884,
      "ĠÐ²ÑģÑıÐºÐ¾": 1885,
      "ĠÐ¿ÑĢÐ¾Ð¼Ð¸ÑĪ": 1886,
      "Ð»ÐµÐ½Ð¸": 1887,
      "Ð²ÑĢÐµ": 1888,
      "ĠÐ¸Ð¼Ð¾ÑĤÐ¸": 1889,
      "ĠÐ´Ð¸ÑĢÐµÐºÑĤÐ¸Ð²Ð°ÑĤÐ°": 1890,
      "Â°": 1891,
      "ĠÐ¿Ð¾ÑģÐ¾ÑĩÐµÐ½Ð°ÑĤÐ°": 1892,
      "ĠÐ½Ð°Ð»Ð¸ÑĩÐ¸": 1893,
      "Ð±Ð¸Ð²Ð°": 1894,
      "ich": 1895,
      "ĠÐ¸Ð·Ð¿Ð¾Ð»Ð·Ð²Ð°Ð½Ðµ": 1896,
      "Ġ08": 1897,
      "ĠÐ¾ÑĤÐ´ÐµÐ»": 1898,
      "Ð½Ð°ÑĤ": 1899,
      "Ð²ÐºÐ¸": 1900,
      "Ġy": 1901,
      "ĠÐ´ÑĢÑĥÐ¶ÐµÑģÑĤÐ²Ð°": 1902,
      "Ð»Ð°Ð½": 1903,
      "te": 1904,
      "ĠÐºÐ¾ÑĢÐ°": 1905,
      "ĠÑħÐ°ÑĢÐ°ÐºÑĤÐµÑĢ": 1906,
      "ĠÐ¾Ð±ÐµÐ·Ð¿ÐµÑĩÐµÐ½Ð¸": 1907,
      "ĠÐ¾Ð±Ð¸": 1908,
      "ĠÑĥÑģÐ»Ð¾Ð²Ð¸Ðµ": 1909,
      "Ġ64": 1910,
      "ĠÐ¿Ð°ÑĢÐ°Ð³ÑĢÐ°ÑĦÐ¸": 1911,
      "ÑĥÑĢ": 1912,
      "ĠÐ²Ð¾Ð´Ð¸": 1913,
      "ĠÐ³Ð¾Ð´Ð¸Ð½Ð¸": 1914,
      "Ð»ÑıÐ²Ð°Ð½Ðµ": 1915,
      "ÐµÐºÑĤ": 1916,
      "ĠÑģÑĬÐ¾Ð±ÑĢÐ°Ð¶ÐµÐ½Ð¸Ðµ": 1917,
      "ĠÐ²ÐºÐ»ÑİÑĩÐ²Ð°": 1918,
      "ĠÐ·Ð°Ð´ÑĬÐ»Ð¶Ð¸": 1919,
      "Ġ73": 1920,
      "ĠÐºÐ»Ð¸": 1921,
      "ĠÐ¸Ð½ÑģÑĤÐ¸ÑĤÑĥÑĨÐ¸Ð¸": 1922,
      "ĠÐ¿Ñĥ": 1923,
      "Ð´Ñģ": 1924,
      "ĠÐ»Ð°": 1925,
      "Ġsp": 1926,
      "Ġes": 1927,
      "Ð³Ð°Ð½Ðµ": 1928,
      "Ð¿ÑĢÐ¸Ð¼ÐµÑĢ": 1929,
      "Ð»ÐµÐ½Ð¸Ðµ": 1930,
      "ĠÑĦÐ¸Ð½Ð°Ð½ÑģÐ¾Ð²Ð¸": 1931,
      "ÑĢÐµÑĪ": 1932,
      "ĠÑĢÐ°Ð·Ð¿ÑĢÐµÐ´Ðµ": 1933,
      "ĠÐ½Ð°Ð¿ÑĢÐ¸Ð¼ÐµÑĢ": 1934,
      "ÑĢÑĤÐ°": 1935,
      "ity": 1936,
      "Ð¾Ð½Ð¸": 1937,
      "ĠÐ½ÐµÐ·Ð°Ð²Ð¸ÑģÐ¸Ð¼Ð¾": 1938,
      "ĠÐ¾Ð±ÑĢÐ°Ð±Ð¾ÑĤ": 1939,
      "Ð»ÑıÐ²Ð°ÑĤ": 1940,
      "ĠÐ½Ð°ÑģÑĤÐ¾ÑıÑīÐ¸ÑıÑĤ": 1941,
      "ĠÑĢÐ°Ð·Ð³ÑĢÐ°Ð½Ð¸": 1942,
      "Ġ1999": 1943,
      "ĠÐ½ÐµÐ´Ð²Ð¸Ð¶Ð¸Ð¼Ð¸": 1944,
      "ĠÐ¼Ð°ÑĢ": 1945,
      "ĠÐ¿ÑĢÑıÐºÐ¾": 1946,
      "Ð¼Ð¸Ð½Ð°": 1947,
      "ĠÑģÑĬÐ´ÑĬÑĢÐ¶Ð°Ð½Ð¸Ðµ": 1948,
      "Ð³Ð»ÐµÐ´Ð°": 1949,
      "Ġ63": 1950,
      "Ð²Ð¸ÑĤÐµÐ»Ð¸": 1951,
      "ĠÐ·Ð°Ð¿Ð¸ÑĤÐ²Ð°Ð½Ðµ": 1952,
      "ĠÐ°Ð²ÑĤÐ¾": 1953,
      "ĠÑģÑĬÐ´ÐµÐ±Ð½Ð¾": 1954,
      "ÑĤÐ¸Ð»": 1955,
      "Ð°Ð»Ð½Ð°": 1956,
      "ĠÐºÐ°ÑĩÐµÑģÑĤÐ²Ð¾ÑĤÐ¾": 1957,
      "ĠÐ°Ð»": 1958,
      "15": 1959,
      "ÑģÐ½Ð¸": 1960,
      "ÐµÐ¼Ð¸": 1961,
      "ĠÐ²ÐµÑīÐµ": 1962,
      "ĠÐ¸Ð·Ð´Ð°Ð½Ð¸Ðµ": 1963,
      "ĠÐ´ÐµÐºÐ»Ð°": 1964,
      "ĠÐ·Ð°Ð´ÑĬÐ»Ð¶ÐµÐ½Ð¸Ñı": 1965,
      "ĠÑĤÐµÑħÐ½Ð¸ÑĩÐµÑģÐºÐ¸": 1966,
      "ÑĢÐ°Ð½Ð¸ÑĤÐµ": 1967,
      "Ġ62": 1968,
      "ĠÑĢÐ°Ð·Ð´ÐµÐ»": 1969,
      "ĠÐ·Ð°ÑģÑı": 1970,
      "ĠÑģÐµÑĢÑĤÐ¸": 1971,
      "ÑĤÐµÐ»ÑıÑĤ": 1972,
      "ĠÐ²Ð¸Ð´": 1973,
      "ĠÐ¾Ð±Ð¾ÑģÐ½Ð¾": 1974,
      "Ð½ÑıÑĤÐ¸": 1975,
      "ĠÐ¿Ð¾ÑģÑĤÐ¸": 1976,
      "ĠÐ¿ÑĢÐ¸ÐµÐ¼Ðµ": 1977,
      "12": 1978,
      "Ð¸ÑģÐºÐ°": 1979,
      "ÑĤÐ½Ð°": 1980,
      "Ð²Ð°ÑĢÐ¸": 1981,
      "ĠÑĥÑĩÐ°ÑģÑĤÐ¸": 1982,
      "io": 1983,
      "ĠÐ¿ÑĢÐ¾ÑĨÐµÐ´ÑĥÑĢÐ°ÑĤÐ°": 1984,
      "Ð²Ð°Ð½Ð¾": 1985,
      "ÑģÑĤÑĢÐ°ÑħÐ¾": 1986,
      "ĠÐºÐ»Ð°ÑģÐ¸": 1987,
      "Ð²ÐµÐ½ÑĤÑĥ": 1988,
      "ĠÐµÐ²ÐµÐ½ÑĤÑĥ": 1989,
      "Ð²ÑĬÐ½": 1990,
      "ÑĤÐµÐ»ÑģÑĤÐ²Ð¾ÑĤÐ¾": 1991,
      "ĠÐ¸Ð·Ð¿Ð¾Ð»Ð·Ð²Ð°Ð½Ð¸": 1992,
      "ĠÐ¿ÑĢÐ¸Ð½ÑĨÐ¸Ð¿Ð°": 1993,
      "Ġ88": 1994,
      "ĠÐ¾Ð±ÐµÐ´Ð¸Ð½": 1995,
      "ÑĤÑĢÑĥÐ´Ð½Ð¸": 1996,
      "Ġ07": 1997,
      "Ð¿Ð¾Ð¼": 1998,
      "ĠÐºÐ¾Ð½Ð²ÐµÐ½": 1999,
      "ĠÐ´Ð¾Ð¿ÑĥÑģÐºÐ°": 2000,
      "ÏĦ": 2001,
      "ĠÐ¾Ð³ÑĢÐ°Ð½Ð¸Ñĩ": 2002,
      "ĠÐ¿Ð¾Ð»Ð¸ÑĤÐ¸": 2003,
      "ĠÐ¸Ð·Ð¸ÑģÐº": 2004,
      "ĠÐ¸Ð·Ð¿ÑĢÐ°": 2005,
      "Ð»Ð°ÑĤÐ¸": 2006,
      "Ð´ÐµÐºÑģ": 2007,
      "ĠÐ´Ð¾ÐºÑĥÐ¼ÐµÐ½ÑĤÐ¸": 2008,
      "ĠÑģÑĬÐ´ÐµÐ±Ð½Ð¸ÑĤÐµ": 2009,
      "Ġ72": 2010,
      "Ð¿Ð»Ð¾": 2011,
      "ĠÐ´Ð¾Ð²Ð¾Ð´Ð¸": 2012,
      "Ð¿Ð¸Ð½": 2013,
      "ĠÐ¶Ð°Ð»Ð±Ð¾Ð¿Ð¾Ð´Ð°ÑĤÐµÐ»Ð¸ÑĤÐµ": 2014,
      "ĠÐ¿Ð¾Ð½ÑıÑĤÐ¸": 2015,
      "Ð°Ð»Ð½Ð¸ÑĤÐµ": 2016,
      "ÐµÐ»": 2017,
      "Ġ97": 2018,
      "ĠÐ´Ð°ÑĤÐ°": 2019,
      "ÑģÑĬÐ¾Ð±ÑĢÐ°Ð·": 2020,
      "ĠÑģÑĬÑĤÑĢÑĥÐ´Ð½Ð¸": 2021,
      "ĠÐ¿ÑĢÐ¸ÑĩÐ¸": 2022,
      "ĠÐ¸Ð·Ð²ÑĬÑĢÑĪÐ²Ð°": 2023,
      "ĠÐ¿ÑĢÐ¸ÑģÑĬ": 2024,
      "ĠÐ¸ÑĤÐ°": 2025,
      "ĠÐ½Ð°ÑģÐ¾": 2026,
      "ĠÐ¸Ð·Ð²ÑĬÐ½": 2027,
      "Ġthe": 2028,
      "ĠÐ³ÑĢÐ°Ð½Ð¸": 2029,
      "ĠÑĢÐµÐ¶Ð¸Ð¼": 2030,
      "Ġ09": 2031,
      "ÑĢÑıÑĤ": 2032,
      "Ġ74": 2033,
      "ĠÑģÐ»ÑĥÑĩÐ°Ñı": 2034,
      "ĠÐ¿Ð¾Ð²": 2035,
      "ĠÑģÑĬÐ¾ÑĤÐ²ÐµÑĤÐ½Ð°ÑĤÐ°": 2036,
      "ĠÐ½ÐµÐ¿ÑĢÐµ": 2037,
      "ĠÐ¸Ð¼ÐµÐ½Ð½Ð¾": 2038,
      "Î½": 2039,
      "ĠÐµÐ¼": 2040,
      "up": 2041,
      "ĠÐ´ÐµÐ½": 2042,
      "ueil": 2043,
      "Ð¼ÐµÐ½Ð¾Ð²Ð°": 2044,
      "ĠÐµÑģÑĤÐµ": 2045,
      "Ġrecueil": 2046,
      "ĠÐµÐ´Ð¸": 2047,
      "Ġ?": 2048,
      "Ð¼ÐµÑĢÐ°": 2049,
      "ow": 2050,
      "ĠÐ¼Ð°Ñģ": 2051,
      "ĠÑĤÐ²ÑĬÑĢÐ´Ð¸": 2052,
      "ĠÐ¼Ð½Ð¾Ð³Ð¾": 2053,
      "ĠÐ½Ð°Ð¸Ð¼ÐµÐ½Ð¾Ð²Ð°": 2054,
      "ĠÐ¿Ð¾ÑģÐ»Ðµ": 2055,
      "Ġ67": 2056,
      "ĠÐ´Ð´Ñģ": 2057,
      "ÑĨÐ¸Ð¾Ð½Ð¸": 2058,
      "ĠÐ¿ÑĢÐµÐ´ÑģÑĤÐ°Ð²Ñı": 2059,
      "ÐºÐ¾Ð½ÑĩÐ°": 2060,
      "ÑĤÐ¾Ñĩ": 2061,
      "Ð¼ÐµÑĢÐ¸": 2062,
      "Ð²ÑıÑĤ": 2063,
      "Ð³Ð»Ð¸": 2064,
      "ĠÐ´Ð¾ÐºÐ°": 2065,
      "ĠÑĢÐ¸Ð±Ð¾": 2066,
      "Ð»ÐµÐ¶Ð¸": 2067,
      "Ġun": 2068,
      "ĠÑĤÐµÑħÐ½Ð¸ÑĤÐµ": 2069,
      "ĠÐ´Ð²Ðµ": 2070,
      "ĠÐ¿ÑĬÐ»": 2071,
      "ĠÐ¿Ð¾Ð´Ð´ÑĬÑĢÐ¶Ð°": 2072,
      "ĠÐ¿ÑĢÐ¾Ð¸Ð·ÑĤÐ¸ÑĩÐ°": 2073,
      "ĠÑĥÑģÑĤÐ°Ð½Ð¾Ð²ÑıÐ²Ð°Ð½Ðµ": 2074,
      "Ġsl": 2075,
      "ĠÑģÐµÐºÑĤÐ¾ÑĢ": 2076,
      "ÑĢÐ½Ð¾": 2077,
      "Ïģ": 2078,
      "13": 2079,
      "est": 2080,
      "ĠÐ¾ÑĤÑħÐ²ÑĬÑĢ": 2081,
      "ĠÐ¾ÐºÐ¾Ð½ÑĩÐ°": 2082,
      "93": 2083,
      "ĠÐ¼Ð°ÐºÑģÐ¸Ð¼Ð°Ð»": 2084,
      "ik": 2085,
      "ĠÐ¿Ð¾ÑĢÑĬ": 2086,
      "ĠÑģÐ»ÐµÐ´Ð½Ð¾ÑĤÐ¾": 2087,
      "ĠÐ¾ÑĤÐ²ÐµÑĤ": 2088,
      "ĠÐ¿Ð¾ÑģÑĤÐ¾Ñı": 2089,
      "Ð»Ð¸Ð½Ð°": 2090,
      "ÑģÐ»Ñĥ": 2091,
      "ĠÑģÐ¸Ð»Ð°ÑĤÐ°": 2092,
      "ÑĢÐ°Ð½Ð¾": 2093,
      "ĠÐ¸Ð·Ð¿ÑĬÐ»Ð½ÐµÐ½Ð¸ÐµÑĤÐ¾": 2094,
      "ĠÐ¿ÑĢÐµÐ±Ð¸Ð²Ð°": 2095,
      "ĠÐ¾ÑģÐ²Ð¾Ð±Ð¾Ð¶Ð´Ð°": 2096,
      "ĠÑĩÑĥ": 2097,
      "ĠÑħÐ°ÑĢÐ°ÐºÑĤÐµÑĢÐ¸": 2098,
      "ĠÑĢÐ¸Ð±Ð¾Ð»Ð¾": 2099,
      "Ġ68": 2100,
      "ÑĤÐµÐ»Ð½Ð¸Ñı": 2101,
      "ĠÐ¸Ð½Ð´Ð¸": 2102,
      "ĠÑĢÐµÐ·ÑĥÐ»ÑĤÐ°ÑĤ": 2103,
      "Ġlt": 2104,
      "ĠÑģÐ¾ÑĨÐ¸": 2105,
      "Ð½Ð¸ÐºÐ°": 2106,
      "Ð½Ð°Ð½ÑģÐ¸": 2107,
      "ĠÐ½Ð°Ð»Ð°Ð³Ð°": 2108,
      "ĠÐ¼ÐµÑĢÐºÐ¸ÑĤÐµ": 2109,
      "ist": 2110,
      "ÐºÑĨÐ¸Ð¸": 2111,
      "ĠÐ¿Ð¾ÑģÐ¾ÑĩÐµÐ½Ð¸Ñı": 2112,
      "ĠÐ¸ÐºÐ¾Ð½Ð¾Ð¼Ð¸ÑĩÐµÑģÐºÐ¸": 2113,
      "ĠÐ´Ð°Ð½Ð½Ð¸ÑĤÐµ": 2114,
      "ĠÐºÐ¾Ð½ÑģÑĤÐ°": 2115,
      "Ġ66": 2116,
      "Ġap": 2117,
      "ÑģÑıÑĤ": 2118,
      "ÑĤÐµÐ»Ð½Ð°ÑĤÐ°": 2119,
      "ĠÑģÑĬÐµÐ´Ð¸Ð½": 2120,
      "Ġ78": 2121,
      "ĠÐ±ÐµÐ·Ð¾": 2122,
      "Ð¼Ð°ÑĤÐ¸": 2123,
      "ÑıÐ»": 2124,
      "Ð¸ÑģÐºÐ¸": 2125,
      "ĠÐ±Ð¾": 2126,
      "ĠÐºÐ¾Ð´": 2127,
      "ÑĢÑĥÐ´": 2128,
      "ĠÐ¾ÑīÐµ": 2129,
      "ĠÑĤÑĬÐ»ÐºÑĥÐ²Ð°": 2130,
      "ĠÐ´Ð²Ð°": 2131,
      "ĠÐ³Ð»Ð¾": 2132,
      "ÑĩÐ½Ð¸Ñı": 2133,
      "ÑĬÐ¼Ð¿Ð¸Ð½": 2134,
      "ĠÐ¾ÑĤÑĩÐµ": 2135,
      "ĠÑĢÐ°Ð·ÑħÐ¾Ð´Ð¸ÑĤÐµ": 2136,
      "ĠÐ²ÐµÑīÐµÑģÑĤÐ²Ð°": 2137,
      "ÑĩÐ°Ð²Ð°Ð½Ðµ": 2138,
      "ĠÐ°Ð´Ð²Ð¾": 2139,
      "ĠÐ²ÑĬÐ·Ð¼Ð¾Ð¶Ð½Ð¾": 2140,
      "ÑĢÐ°ÑĨÐ¸Ñı": 2141,
      "Ġ198": 2142,
      "ÑĢÑıÐ²Ð°": 2143,
      "ĠÐºÑĢÐ°Ð¸": 2144,
      "ÐºÐ°ÑĤ": 2145,
      "Ġ2020": 2146,
      "ce": 2147,
      "ĠÑģÐ¼ÐµÑĤ": 2148,
      "ĠÐ±Ð¸Ð»": 2149,
      "ĠÐ¾Ð±ÑīÐ¾": 2150,
      "ĠÐ¾ÑģÑĬÑīÐµÑģÑĤ": 2151,
      "ĠÑģÑĬÑīÐ¸Ñı": 2152,
      "ĠÐ·Ð°ÑģÐµÐ³": 2153,
      "ĠÑĢÐ°Ð·Ð²Ð¸ÑĤÐ¸": 2154,
      "ÑĩÐ½Ð¾ÑĤÐ¾": 2155,
      "ĠÐ½ÐµÐ´Ð¾": 2156,
      "ĠÐµÐ½ÐµÑĢ": 2157,
      "ĠÐºÐ²Ð°Ð»Ð¸": 2158,
      "ĠÐ´Ð°Ð½ÑĬÑĩÐ½Ð¾": 2159,
      "ÑģÐµÐ´Ð°ÑĤÐµÐ»": 2160,
      "Ġand": 2161,
      "ĠÐ·Ð°Ð´ÑĬÐ»Ð¶ÐµÐ½Ð¸Ðµ": 2162,
      "ĠÑĥÐ²ÐµÐ»Ð¸": 2163,
      "Ġ81": 2164,
      "ĠÐ±Ð¸Ð»Ð°": 2165,
      "ĠÐ¿ÑĢÐµÐ´ÑģÑĤÐ°Ð²Ð¸ÑĤÐµÐ»Ð¸": 2166,
      "ĠÐ¸Ð¿Ð¾ÑĤÐµ": 2167,
      "ÑģÐ¿Ðµ": 2168,
      "Ð¾Ð½Ð°Ð»": 2169,
      "ĠÐ¾Ð±Ð¾ÑĢÑĥÐ´": 2170,
      "ĠÐ¼Ð¾Ð»": 2171,
      "ĠÑĥÑģÑĤÑĢÐ¾Ð¸": 2172,
      "ÑıÐ²Ð°Ð½ÐµÑĤÐ¾": 2173,
      "Ġ0094": 2174,
      "ĠÐ¾ÑĤÑĩÐ¸ÑĤÐ°": 2175,
      "ĠÐ°Ð³ÐµÐ½": 2176,
      "ĠÐ¿ÑĢÐµÐ´Ð²Ð°ÑĢÐ¸": 2177,
      "ĠÐ¿ÑĢÐµÐ´Ð¾ÑģÑĤÐ°Ð²ÑıÐ½Ðµ": 2178,
      "ĠÐ¶Ðµ": 2179,
      "ĠÐ³ÐµÑĢÐ¼Ð°Ð½Ð¸Ñı": 2180,
      "ĠÑģÐ¿ÑĢÑı": 2181,
      "ĠÐ¿ÑĢÐ°Ð²Ð½Ð¸": 2182,
      "ÐºÐ»Ð¾": 2183,
      "ĠÐ¿Ð¾ÑĤÐ²ÑĬÑĢ": 2184,
      "ÑİÐºÑģ": 2185,
      "ÑĢÐ¾Ð±": 2186,
      "ber": 2187,
      "Ð»ÐµÐ¶ÐºÐ°": 2188,
      "ĠÐ¸Ð·ÑĢÐ°Ð·": 2189,
      "Ġpro": 2190,
      "Ġ83": 2191,
      "ĠÐ²ÑĤÐ¾ÑĢÐ¸": 2192,
      "ĠÑĢÑĬ": 2193,
      "ÑĨÐ¸Ð¾Ð½Ð½Ð¸": 2194,
      "Ġ76": 2195,
      "ap": 2196,
      "ĠÑģÐ¼Ðµ": 2197,
      "ĠÐ¿ÑĢÐ¸Ð´Ð¾Ð±": 2198,
      "Ġse": 2199,
      "ĠÑħÑĢÐ°Ð½Ð¸": 2200,
      "ĠÐºÐ²Ð¾": 2201,
      "ĠÐ½ÐµÐ¾": 2202,
      "ĠÐ´ÑĢÑĥÐ³": 2203,
      "Ġ89": 2204,
      "ĠÐ±ÑĬÐ»": 2205,
      "ĠÐ¸Ð¼Ðµ": 2206,
      "ĠÑģÐ»ÑĥÐ¶Ð¸": 2207,
      "Ġpl": 2208,
      "ĠÐ±ÑĬÐ»Ð³Ð°": 2209,
      "ĠÐ½Ð°ÑĨÐ¸Ð¾Ð½Ð°Ð»Ð½Ð¸ÑĤÐµ": 2210,
      "ts": 2211,
      "ĠÐ´Ð¾ÑģÑĤÐ°ÑĤÑĬÑĩÐ½Ð¾": 2212,
      "Ġ77": 2213,
      "ud": 2214,
      "Îµ": 2215,
      "ĠÐ¿Ð¾Ð´ÐºÑĢÐµÐ¿Ð°": 2216,
      "ĠÐ½ÐµÑģÑĬ": 2217,
      "Ġbr": 2218,
      "ĠÐ¶Ð¸Ð²Ð¾ÑĤÐ½Ð¸": 2219,
      "ĠÐ±Ð°Ð½": 2220,
      "ĠÐ¿ÐµÑĢÐ¸Ð¾Ð´Ð°": 2221,
      "ĠÐ¸Ð·Ð¿Ð¾Ð»Ð·Ð²Ð°Ð½ÐµÑĤÐ¾": 2222,
      "Ð²Ð»ÐµÐ½Ð¸ÐµÑĤÐ¾": 2223,
      "th": 2224,
      "ĠÐ¿ÑĢÐ°Ð²Ð¾Ð¼Ð¾": 2225,
      "ĠÐ±ÐµÐ·Ð¾Ð¿Ð°Ñģ": 2226,
      "ĠÐ·Ð°Ð´ÑĬÐ»Ð¶ÐµÐ½Ð¸ÐµÑĤÐ¾": 2227,
      "Ġcp": 2228,
      "ĠÑģÑĬÐ¾ÑĤÐ²ÐµÑĤÐ½Ð¾": 2229,
      "ĠÐ±ÑĢÐ¾Ð¸": 2230,
      "ĠÑĦÐ¸Ð½Ð°Ð½ÑģÐ¸": 2231,
      "ĠÐ¸Ð½ÑĦÐ¾ÑĢÐ¼Ð°ÑĨÐ¸ÑıÑĤÐ°": 2232,
      "Ð¶Ð°ÑĤ": 2233,
      "ĠÐ·Ð½Ð°ÑĩÐµÐ½Ð¸Ðµ": 2234,
      "ĠÐ¸Ð¿Ð¾ÑĤÐµÐºÐ¸": 2235,
      "ĠÑĢÐµÐ³Ð¸ÑģÑĤÑĢÐ°": 2236,
      "ĠÑģÑĬÑĤÑĢÑĥÐ´Ð½Ð¸ÑĩÐµ": 2237,
      "ĠÐ¼ÑĢÐµ": 2238,
      "ĠÐ½Ð°Ð»Ð¾Ð¶": 2239,
      "Ġ69": 2240,
      "ĠÑĢÐ°Ð²Ð½Ð¸ÑīÐµ": 2241,
      "Ġar": 2242,
      "ĠÑģÑĬÐ±Ð¸": 2243,
      "Ġsa": 2244,
      "ĠÑģÑĬÑģÑĤÐ°": 2245,
      "Ġor": 2246,
      "ĠÐ¼ÐµÑģÑĤÐ¾": 2247,
      "ĠÑģÐ¸Ð³ÑĥÑĢÐ½Ð¾ÑģÑĤ": 2248,
      "Ð½ÐµÐ½Ð¸": 2249,
      "Ð²ÑıÐ²Ð°Ð½ÐµÑĤÐ¾": 2250,
      "ĠÐºÐ¾Ð¼Ð¸ÑĤÐµÑĤ": 2251,
      "ĠÐ¿ÑĢÐµÐ´ÑģÐµÐ´Ð°ÑĤÐµÐ»": 2252,
      "ĠÐ¿ÑĢÐ°Ð²Ð¸Ð»Ð°ÑĤÐ°": 2253,
      "ÑģÑĤÐ²Ð¸ÐµÑĤÐ¾": 2254,
      "Ġ79": 2255,
      "ĠÐ°ÐºÑĤÐ¾": 2256,
      "ĠÐ¸Ð·Ð¿Ð¾Ð»Ð·Ð²Ð°ÑĤ": 2257,
      "ĠÑīÐ°": 2258,
      "ĠÑĢÐµÐ³Ñĥ": 2259,
      "uc": 2260,
      "Ð½ÐµÑģ": 2261,
      "ĠÐ¿Ð¾Ð·Ð¸ÑĨÐ¸Ñı": 2262,
      "ĠÐ·Ð½Ð°ÑĩÐ¸": 2263,
      "ĠÑģÑĢÐµÐ´Ð°": 2264,
      "Ġus": 2265,
      "ĠÐ´Ð¾ÑģÑĤÐ°Ð²ÑĩÐ¸": 2266,
      "ĠÑģÐºÐ»ÑİÑĩ": 2267,
      "ĠÑģÑĤÐ¾Ð¸Ð½Ð¾ÑģÑĤÐ¸": 2268,
      "ĠÐ¿ÑĢÐµÐ´Ð¿Ð¾": 2269,
      "ĠÐ¿ÑĢÐ¾ÑĤÐ¸Ð²Ð¾": 2270,
      "ÑĤÐµÐº": 2271,
      "ĠÐ¿Ð¸": 2272,
      "ĠÐ¸Ð½ÑĤÐµÑĢÐµÑģ": 2273,
      "ĠÑģÐ¿ÑĢÑıÐ¼Ð¾": 2274,
      "ĠÑĤÐ°Ð±Ð»Ð¸": 2275,
      "Ġla": 2276,
      "ĠÑģÐµÐ»": 2277,
      "ÑģÐ½Ð°": 2278,
      "ĠÐ¿Ð¾ÑģÑĢÐµÐ´": 2279,
      "Ð´ÐµÐ»Ð¸": 2280,
      "ĠÐ¿ÑĬÑĢÐ²Ð¾Ð½Ð°": 2281,
      "ĠÐ½Ð¸ÐºÐ°": 2282,
      "ĠÐ¿Ð¾ÑģÑĤÐ¾ÑıÐ½": 2283,
      "ĠÐµÐ¼Ð¸ÑģÐ¸": 2284,
      "ĠÑĨÐ¸ÑĤÐ¸ÑĢÐ°": 2285,
      "ĠÑĤÐ°ÐºÐ¾Ð²Ð°": 2286,
      "ÑģÑĤÐ°Ð½ÑĨÐ¸Ð¾Ð½": 2287,
      "ĠÑģÑĬÑīÐµÑģÑĤÐ²ÑĥÐ²Ð°": 2288,
      "ĠÐ¼ÐµÐ¶Ð´ÑĥÐ½Ð°ÑĢÐ¾Ð´": 2289,
      "Ð»ÐµÐ³Ð¸": 2290,
      "ĠÐ³ÑĢÐµÑĪ": 2291,
      "ĠÐ¿ÑĢÐ¾Ð²ÐµÑĢÐºÐ°": 2292,
      "ĠÑģÑĬÑīÐµÑģÑĤÐ²Ð¾": 2293,
      "Ġ06": 2294,
      "ĠÐ³Ð°ÑĢÐ°Ð½ÑĤÐ¸": 2295,
      "ĠÐ¿ÑĬÑĢÐ²Ð¾Ð¸Ð½": 2296,
      "ÑĤÐ²Ð¾": 2297,
      "ĠÐ½Ð¾ÑĢÐ¼Ð°": 2298,
      "ĠÑģÑĬÐ¾ÑĤÐ²ÐµÑĤÑģÑĤÐ²Ð°": 2299,
      "Ġit": 2300,
      "ĠÐ¿ÑĬÑĢÐ²Ð¾Ð¸Ð½ÑģÑĤÐ°Ð½ÑĨÐ¸Ð¾Ð½": 2301,
      "ĠÐ½Ð°Ð»Ð¸ÑĩÐ¸ÐµÑĤÐ¾": 2302,
      "ĠÐ¾Ð±ÑīÐ¸": 2303,
      "ÑĦÐµÑģÐ¸": 2304,
      "ĠÐ¾ÑģÐ¿Ð¾ÑĢ": 2305,
      "Ð¿ÑĢÐµÐºÐ¸": 2306,
      "ĠÐ¼ÐµÑģÐµÑĨÐ°": 2307,
      "ĠÐ¿Ð»Ð°ÑīÐ°": 2308,
      "ĠÐ¿ÑĢÐµÐ´Ð°": 2309,
      "ĠÐ²ÑĬÐ¿ÑĢÐµÐºÐ¸": 2310,
      "ĠÑĦÐ¸Ð·Ð¸": 2311,
      "ĠÐ¾ÑģÐ½Ð¾Ð²Ð°Ð½Ð¸Ñı": 2312,
      "14": 2313,
      "ĠÑĥÐ¿Ð¾ÑĤÑĢÐµÐ±Ð°": 2314,
      "ÐºÑĢÐ°ÑĤ": 2315,
      "ĠÑĨÐµÐ½ÑĤÑĢÐ°Ð»": 2316,
      "ĠÑħÐ°ÑĢÐ°ÐºÑĤÐµÑĢÐ¸ÑģÑĤÐ¸": 2317,
      "ĠÐ¾ÑģÐ²": 2318,
      "ĠÑĢÐ°Ð²Ð½Ð¾": 2319,
      "ÑĢÐ»Ð°Ð½Ð´Ð¸Ñı": 2320,
      "ĠÐ¿Ð¾ÑģÐ¾ÑĩÐµÐ½Ð¾ÑĤÐ¾": 2321,
      "ĠÑĥÐ¿ÑĢÐ°Ð¶Ð½Ñı": 2322,
      "Ġequ": 2323,
      "ÑĤÐ¾ÑĩÐ½Ð¸": 2324,
      "Ð½Ð¸ÑĨÐ¸ÑĤÐµ": 2325,
      "ĠÐ½Ð¾Ð¼ÐµÑĢ": 2326,
      "Ð°Ð½": 2327,
      "Ġmc": 2328,
      "ĠÐ¿Ð¾Ð·Ð²Ð¾Ð»ÑıÐ²Ð°": 2329,
      "og": 2330,
      "ub": 2331,
      "ĠÐ¿ÑĢÐ¾ÑĦÐµÑģÐ¸": 2332,
      "ĠÐ¾ÑĤÐ¿Ð°Ð´": 2333,
      "ĠÐ¸Ð½ÑĤÐµÑĢ": 2334,
      "Ġ86": 2335,
      "ĠÐ¿ÑĢÐµÑİÐ´Ð¸ÑĨÐ¸Ð°Ð»Ð½Ð¾": 2336,
      "ĠÐ½Ð°Ð»Ð¸ÑĨÐµ": 2337,
      "Ïħ": 2338,
      "áĥ": 2339,
      "ĠÐ·Ð°ÐºÐ¾Ð½Ð¾Ð´Ð°ÑĤÐµÐ»ÑģÑĤÐ²Ð¾": 2340,
      "ĠÑĪÐµ": 2341,
      "ĠÐ¿ÑĢÐ¸Ð½ÑĨÐ¸Ð¿Ð¸": 2342,
      "ĠÐ¼ÑıÑĢÐºÐ°": 2343,
      "ĠÐ°Ð¿Ðµ": 2344,
      "ĠÐ¾Ð±ÑĢÐ°Ð·Ñĥ": 2345,
      "ĠÐ´Ð¾Ð²Ðµ": 2346,
      "ĠÑĤÑĢÐµÑĤÐ¾": 2347,
      "ĠÐ¾Ð±ÑħÐ²Ð°ÑĤÐ°": 2348,
      "ĠÑĢÐµÐ³Ð¸ÑģÑĤÑĢÐ¸": 2349,
      "ĠÐ·Ð°ÐºÑĢÐ¸": 2350,
      "ĠÐ°Ð¿ÐµÐ»Ð°ÑĤÐ¸": 2351,
      "Ġiv": 2352,
      "ĠÐ²ÑĬÐ·ÑĢÐ°Ð¶": 2353,
      "ĠÑģÐ»Ð¾": 2354,
      "ĠÐ¿ÑĢÐ¾Ð¸Ð·Ð²Ð¾Ð´Ð¸ÑĤÐµÐ»Ð¸": 2355,
      "ĠÐ¾Ð±ÑīÐ°ÑĤÐ°": 2356,
      "ÐºÑĢÐ°": 2357,
      "ĠÑĨÐµÐ½Ð°": 2358,
      "ĠÐ¿ÑĬÑĢÐ²Ð°": 2359,
      "ĠÐ°ÐºÑĤÐ¸Ð²Ð¸": 2360,
      "ÑĤÐµÑĢÐµ": 2361,
      "ĠÐ¿ÑĢÐ¾Ð´ÑĥÐºÑĤÐ°": 2362,
      "ÑĪÐµÐ½": 2363,
      "ĠÐ´Ð²Ð¸Ð¶ÐµÐ½Ð¸Ðµ": 2364,
      "ĠÐ¿ÑĢÐ¾Ð´ÑĬÐ»Ð¶Ð¸": 2365,
      "ĠÑĢÐ°Ð·Ð¿Ð¾Ð»Ð°Ð³Ð°": 2366,
      "ĠÑĤÐµÐºÑģÑĤ": 2367,
      "Ġma": 2368,
      "ĠÐ¾ÑĤÐ¿ÑĢÐ°": 2369,
      "ĠÑĩÐµÑĤÐ²ÑĬÑĢ": 2370,
      "Ġbe": 2371,
      "ĠÑĪÐ¸": 2372,
      "ĠÐ»Ð¾": 2373,
      "ĠÐºÐ¾ÑĢÐµ": 2374,
      "ÑģÐ»ÐµÐ´ÑģÑĤÐ²Ð¸Ðµ": 2375,
      "ĠÑĦÐ¾ÑĢ": 2376,
      "Ð·Ð°ÑĤÐ°": 2377,
      "ĠÐ¿ÑĢÐ°Ð²Ð½Ð¾": 2378,
      "ers": 2379,
      "ÑģÑĤÑĬÐ¿Ð¸": 2380,
      "ĠÑĥÑĩÐ°ÑģÑĤÐ²Ð°": 2381,
      "ĠÐ³Ð°Ð·": 2382,
      "ĠÐ»Ð¸Ð¿Ñģ": 2383,
      "Ġ82": 2384,
      "ÑħÐ¸": 2385,
      "ÑĢÐ°ÑģÑĤ": 2386,
      "ĠÐ¸Ð·Ð¼ÐµÑĢ": 2387,
      "ĠÐ¸Ð·ÑģÐ»ÐµÐ´": 2388,
      "ta": 2389,
      "ĠÐ¿ÑĢÐµÐ²Ð¾Ð·Ð½Ð¸": 2390,
      "ĠÑģÐ´ÐµÐ»": 2391,
      "Ð²ÐµÐ½Ð¸Ñı": 2392,
      "Ð¸Ð½ÑĤÐµÑĢÐµ": 2393,
      "ĠÐ¾ÑģÐ½Ð¾Ð²Ð½Ð¸ÑĤÐµ": 2394,
      "ĠÐ·Ð°Ð¸Ð½ÑĤÐµÑĢÐµ": 2395,
      "ĠÐ¿ÑĢÐ°Ð²Ð°ÑĤÐ°": 2396,
      "ĠÐ°Ð´Ð²Ð¾ÐºÐ°ÑĤ": 2397,
      "ĠÐ³ÑĢÐ°Ð¶Ð´Ð°Ð½Ð¸": 2398,
      "ĠÑĨÐµÐ»ÑĤÐ°": 2399,
      "ĠÐ¾ÑĤÐ±ÐµÐ»Ñı": 2400,
      "ĠÐºÐ½": 2401,
      "Ġmm": 2402,
      "ĠÑģÐ¿Ð¸ÑģÑĬÐº": 2403,
      "ĠÑĢÑĥ": 2404,
      "ÑĩÐ°ÑĤ": 2405,
      "ĠÐ¿ÑĢÐ°Ð²Ð¸Ð»Ð¾": 2406,
      "ĠÑģÑĤÐ¾ÐºÐ¸ÑĤÐµ": 2407,
      "ĠÐ³ÐµÐ½ÐµÑĢÐ°Ð»": 2408,
      "ĠÐ°Ð½ÑĤÐ¸": 2409,
      "ĠÐ¿Ð¾ÐºÑĢÐ¸": 2410,
      "ĠÑĨÑıÐ»Ð¾ÑģÑĤ": 2411,
      "ĠÑĦÑĥÐ½ÐºÑĨÐ¸Ð¾Ð½Ð¸": 2412,
      "ĠÐºÐ¾Ð´ÐµÐºÑģ": 2413,
      "ĠÑĤÐµÑĢÐ¸ÑĤÐ¾ÑĢÐ¸ÑıÑĤÐ°": 2414,
      "Ïĥ": 2415,
      "ÑĢÐ¾ÑıÑĤ": 2416,
      "Ġ101": 2417,
      "Ð¸Ð½Ð¸": 2418,
      "ĠÐ¿ÑĢÐ¾ÑĤÐ¾": 2419,
      "Ġ03": 2420,
      "ÐµÐ½ÑĤÐ¸": 2421,
      "ÑĪÐ°Ð²Ð°Ð½Ðµ": 2422,
      "0000": 2423,
      "ĠÐ¼Ð¸ÑĤÐ½Ð¸ÑĩÐµÑģÐºÐ¸": 2424,
      "ĠÐ¾ÑģÐ¾Ð±": 2425,
      "ĠÑĤÑĬÐ»ÐºÑĥÐ²Ð°Ð½Ðµ": 2426,
      "ĠÐ¾ÑĤÑħÐ²ÑĬÑĢÐ»Ñı": 2427,
      "ĠÐ¿Ð¾Ð´Ð¾Ð±Ð½Ð¸": 2428,
      "ĠÐ¾Ð¿ÑĢÐµÐ´ÐµÐ»ÑıÑĤ": 2429,
      "ĠÐ´ÑĢÑĥÐ³Ð¾": 2430,
      "ĠÑĤÑĢÐµÑĤÐ°": 2431,
      "ĠÐ¼Ð°ÑĪÐ¸": 2432,
      "ĠÐºÐ¾Ð½ÐºÑĢÐµÑĤÐ½Ð¾": 2433,
      "ĠÐ¿ÑĢÐ°Ð²Ð¸ÑĤÐµÐ»ÑģÑĤÐ²Ð¾": 2434,
      "Ġu": 2435,
      "ÑĪÐ½Ð¸": 2436,
      "Ð³Ð½Ðµ": 2437,
      "ĠÐ·Ð°ÑģÐµÐ´Ð°": 2438,
      "ĠÐ²ÑĬÐ·ÑģÑĤÐ°Ð½Ð¾Ð²ÑıÐ²Ð°Ð½Ðµ": 2439,
      "ĠÐ¿ÐµÐ½": 2440,
      "Ġbas": 2441,
      "ĠÐ¼ÐµÑĤÐ°": 2442,
      "ĠÐ²ÑĬÐ·Ð¼Ð¾Ð¶Ð½Ð¾ÑģÑĤÑĤÐ°": 2443,
      "ĠÐ±ÑĢ": 2444,
      "ĠÐºÐ¾Ð¼Ð¿ÐµÑĤÐµÐ½ÑĤÐ½Ð¸ÑĤÐµ": 2445,
      "ĠÐ¸ÑģÐ¿Ð°": 2446,
      "ĠÑĦÐ¾Ð½": 2447,
      "ĠÑĢÐ°Ð·Ð³Ð»ÐµÐ´Ð°": 2448,
      "ĠÑģÐ²Ð¾ÑıÑĤÐ°": 2449,
      "ĠÑģÑĬÑģÑĤÐ¾ÑıÐ½Ð¸Ðµ": 2450,
      "Ġ04": 2451,
      "Ð»Ð°Ð³Ð¾": 2452,
      "sk": 2453,
      "ĠÐºÐ¸Ñģ": 2454,
      "ĠÐ»Ð¸ÑĨÐµÐ½": 2455,
      "ĠÐ´ÐµÐ¸ÑģÑĤÐ²Ð°": 2456,
      "ĠÐ²ÑĬÐ·Ð´ÐµÐ¸": 2457,
      "ĠÐ´ÐµÐ¸ÑģÑĤÐ²Ð¸Ñı": 2458,
      "ĠÐ·ÐµÐ¼Ðµ": 2459,
      "19": 2460,
      "ĠÐ¿ÑĢÐµÑĨÐµÐ½ÐºÐ°": 2461,
      "Ð²ÐºÐ°ÑĤÐ°": 2462,
      "23": 2463,
      "Ð·Ð¾ÑĢ": 2464,
      "ĠÑĤÑĬÑĢÐ³Ð¾Ð²ÑģÐºÐ¸": 2465,
      "ĠÐ´Ð²Ð¸Ð³Ð°": 2466,
      "ÑĤÐµÐ½Ð¸": 2467,
      "Ð¿ÑĢÐµÐ´": 2468,
      "ĠÑĥÑģÑĤÐ°Ð½Ð¾Ð²ÐµÐ½Ð¸": 2469,
      "ĠÐ¾Ð¿ÑĢÐµÐ´ÐµÐ»Ð¸": 2470,
      "ĠÐ´ÐµÐ»Ð¾ÑĤÐ¾": 2471,
      "Ð·Ð½Ð¸": 2472,
      "ĠÑģÑĬÑīÐ°ÑĤÐ°": 2473,
      "ĠÐ·Ð°Ð³Ñĥ": 2474,
      "ĠÐ¼Ð¾ÑĤÐ¸Ð²Ð¸": 2475,
      "ĠÑģÑħÐµÐ¼Ð°": 2476,
      "ĠÐ²Ð·ÐµÐ¼Ð°ÑĤ": 2477,
      "ĠÐ¾ÐºÐ¾Ð»": 2478,
      "ĠÐ¿ÑĬÑĢÐ²Ð¸": 2479,
      "ĠÐ·Ð°ÑģÑĤÑĢÐ°ÑħÐ¾": 2480,
      "ĠÐ¾ÑĤÐ¿Ð°Ð´ÑĬ": 2481,
      "ĠÐ·Ð°Ð¸Ð½ÑĤÐµÑĢÐµÑģÐ¾": 2482,
      "ĠÐ´Ð¾Ð±": 2483,
      "ĠÐ·Ð°Ð¼ÐµÐ½Ñı": 2484,
      "ĠÐ·Ð°ÐºÐ»ÑİÑĩÐµÐ½Ð¸Ðµ": 2485,
      "ĠÐ¿ÑĢÐ¾Ð´ÑĥÐºÑĤÐ¸ÑĤÐµ": 2486,
      "ÑĦÐ°": 2487,
      "ĠÐ°Ð´ÑĢÐµ": 2488,
      "ĠÐ¿ÑĢÐ¸Ð¿Ð¾Ð¼": 2489,
      "ÑĢÑģÐ¸": 2490,
      "Ð·Ð²Ð°": 2491,
      "ÐºÐ°Ð·Ð²Ð°": 2492,
      "ÑĩÐµÑģÐºÐ°ÑĤÐ°": 2493,
      "of": 2494,
      "ĠÑģÑĬÐ²ÐµÑĤÑĬÑĤ": 2495,
      "ĠÑģÑĬÐ´Ð¸": 2496,
      "ĠÐµÐ»ÐµÐ¼ÐµÐ½ÑĤÐ¸": 2497,
      "ÑĤÐµÐ³": 2498,
      "ĠÐ¿Ð¾Ð´Ð¿Ð¾": 2499,
      "ĠÐ¿ÑĢÐ¸Ð»Ð¾Ð¶ÐµÐ½Ð¸ÐµÑĤÐ¾": 2500,
      "ĠÐ¾ÑĤÐ¿Ñĥ": 2501,
      "ĠÑĤÐ°ÐºÑĬÐ²": 2502,
      "ÑģÑĤÐ¸Ð¼Ð¾": 2503,
      "Ð²Ð½Ð¾ÑģÑĤ": 2504,
      "ĠÐºÐ¾Ð½Ñģ": 2505,
      "ÑĮ": 2506,
      "ĠÐµÐ¸Ð¿": 2507,
      "ĠÐ¸Ð·Ð³Ð¾ÑĤ": 2508,
      "Ð»Ð¸ÑĤÐµ": 2509,
      "24": 2510,
      "ĠÑģÑĬÐ´ÑĬÑĢÐ¶Ð°ÑīÐ¸": 2511,
      "ĠÐ¿ÑĢÐ°Ð²Ð¸Ð»": 2512,
      "Ġequity": 2513,
      "ÐµÑĤÐ¸": 2514,
      "ĠÐµÑĤÐ°": 2515,
      "ÑĤÑĢÐ¸": 2516,
      "ĠÐ¿ÑĬÑĢÐ²Ð¾ÑĤÐ¾": 2517,
      "ĠÐ½Ð°Ð¼Ð¸": 2518,
      "ĠÐ·Ð°Ð¿Ð¾Ñĩ": 2519,
      "ĠÐºÐ¾Ð½ÑĤÐµÐº": 2520,
      "af": 2521,
      "eg": 2522,
      "ĠÐ¿ÑĢÐµÐ´Ð½Ð°Ð·Ð½Ð°ÑĩÐµÐ½Ð¸": 2523,
      "ĠÑģÐ¸ÑģÑĤÐµÐ¼Ð¸": 2524,
      "ill": 2525,
      "ĠÑģÐ¸ÑģÑĤÐµÐ¼Ð°ÑĤÐ°": 2526,
      "ĠÐ¿ÑĢÐ¾Ð¼Ð¸ÑĪÐ»ÐµÐ½Ð¾": 2527,
      "ĠÐ½ÐµÐ¾Ð±ÑħÐ¾Ð´Ð¸Ð¼Ð¸": 2528,
      "ĠÑĨÐ¸ÑĤÐ¸ÑĢÐ°Ð½Ð°ÑĤÐ°": 2529,
      "Ð´Ð¸ÑĤÐµ": 2530,
      "ĠÐ¿ÑĢÐµÑħÐ²ÑĬÑĢÐ»Ñı": 2531,
      "ÑĦÐ¸ÐºÐ°ÑĨÐ¸Ñı": 2532,
      "ĠÑĤÐ°ÑĢÐ¸": 2533,
      "Ð½Ð°ÑģÑıÑĤ": 2534,
      "ĠÐ¿ÑĢÐµÐ´Ð»Ð°Ð³Ð°": 2535,
      "ĠÐ°Ð½Ð°Ð»Ð¸Ð·": 2536,
      "ĠÐ¾Ð¿ÑĢÐµÐ´ÐµÐ»ÐµÐ½Ð¸Ðµ": 2537,
      "ĠÑĤÐµÑħÐ½Ð¸": 2538,
      "ĠÐ¿Ð¾ÑģÐ¾ÑĩÐµÐ½Ð°": 2539,
      "ÑĩÐ¸Ð½Ð°": 2540,
      "ĠÐ¾Ð±Ñĥ": 2541,
      "ÐºÐ¾Ð²Ðµ": 2542,
      "ell": 2543,
      "ĠÐ»Ð¸Ñħ": 2544,
      "ĠÑģÐ¿ÐµÑĨÐ¸Ð°Ð»Ð¸Ð·Ð¸ÑĢÐ°Ð½Ð¾ÑĤÐ¾": 2545,
      "ĠÐ¼Ð¾Ð¼ÐµÐ½ÑĤÐ°": 2546,
      "34": 2547,
      "ĠÐ¼Ð°ÐºÐ°ÑĢ": 2548,
      "ĠÑĢÐ°Ð·Ð³ÑĢÐ°Ð½Ð¸ÑĩÐ¸ÑĤÐµÐ»Ð½Ð¸": 2549,
      "Ġtri": 2550,
      "Ð°Ð»Ð½Ð¾ÑĤÐ¾": 2551,
      "ĠÐµÐ»ÐµÐºÑĤÑĢÐ¾Ð½": 2552,
      "ĠÐ´Ð¾ÐºÑĥÐ¼ÐµÐ½ÑĤ": 2553,
      "Ð¿ÑĬÐ»Ð½Ð¾": 2554,
      "ĠÐ³Ð¾ÑĢÐ¸": 2555,
      "Ġslsc": 2556,
      "ĠÐ¿ÑĢÐ¸Ð´Ð¾Ð±Ð¸": 2557,
      "ĠÐ½Ð°ÑĨÐ¸Ð¾Ð½Ð°Ð»Ð½Ð¾ÑĤÐ¾": 2558,
      "ĠÐ²ÐµÑīÐµÑģÑĤÐ²Ð¾": 2559,
      "Ġag": 2560,
      "ĠÐ·Ð°Ð¼": 2561,
      "ĠÐ²Ð½Ð¾ÑģÐ°": 2562,
      "ĠÑĦÐ¾ÑĢÐ¼Ñĥ": 2563,
      "ĠÐ´Ð¾Ð¿ÑĬÐ»Ð½ÐµÐ½Ð¸Ðµ": 2564,
      "ÑħÐ°Ð½Ð¸": 2565,
      "ĠÑģÐºÐ¾": 2566,
      "ÑĦÐ¾": 2567,
      "ĠÐ´Ð°Ð´ÐµÐ½Ð°": 2568,
      "ĠÑģÐ»ÑĥÐ¶Ð±Ð°": 2569,
      "ĠÐºÐ°ÑĤÐµÐ³Ð¾ÑĢÐ¸Ñı": 2570,
      "ĠÑĢÐ°Ð±Ð¾ÑĤÐ°": 2571,
      "ĠÐ´ÑĢÑĥÐ³Ð¸ÑĤÐµ": 2572,
      "ĠÐ¿ÐµÑĢ": 2573,
      "ĠÑģÑĤÐ¾Ð¿Ð°Ð½": 2574,
      "ĠÑĤÑĢÐ°Ð½ÑģÐ¿Ð¾ÑĢÑĤ": 2575,
      "ĠÐ¸Ð·Ð¿ÑĬÐ»Ð½Ð¸": 2576,
      "Î·": 2577,
      "Ð½ÐµÐ½Ð¸Ñı": 2578,
      "ĠÐ¿ÑĢÐ¾ÐµÐºÑĤÐ¸": 2579,
      "Ġ197": 2580,
      "ĠÐ½Ð°Ð¿ÑĢÐ°Ð²Ð¸": 2581,
      "ÑĢÐ½Ð°": 2582,
      "Ð»ÑıÐ½Ðµ": 2583,
      "ĠÑĢÐµÑĦÐµÑĢÐµÐ½": 2584,
      "ĠÐ½Ð¸Ð´Ðµ": 2585,
      "Ġfor": 2586,
      "ĠÐ·Ð°Ð¿Ð»Ð°ÑĤÐ¸": 2587,
      "ĠÐ²ÑĬÐ½": 2588,
      "ÐºÐ¾Ð²Ð¸": 2589,
      "ĠÐ·Ð°ÑħÐ°": 2590,
      "ĠÐ°ÐºÑĤÐ¾Ð²Ðµ": 2591,
      "ÑĤÐ¸Ñı": 2592,
      "ĠÑģÐµÐ¼Ðµ": 2593,
      "ĠÑĤÑĢÐµÑĤÐ¸ÑĢÐ°Ð½Ðµ": 2594,
      "ĠÐ¼ÐµÑħÐ°Ð½Ð¸": 2595,
      "ĠÐ±Ñİ": 2596,
      "ĠÑģÑĤÐ¾Ð¸Ð½Ð¾ÑģÑĤÑĤÐ°": 2597,
      "ak": 2598,
      "av": 2599,
      "ÑĤÐ¾Ð²Ð°": 2600,
      "ĠÐ»ÐµÐºÐ°ÑĢ": 2601,
      "ĠÐ°Ðº": 2602,
      "Ġ'": 2603,
      "Ġ2021": 2604,
      "ĠÐ½ÐµÐ¿ÑĢÐ°": 2605,
      "16": 2606,
      "17": 2607,
      "ÑĢÐ°Ð½Ð°ÑĤÐ°": 2608,
      "ĠÑģÑĬÐ±": 2609,
      "ĠÐºÐ¸ÑģÐµ": 2610,
      "Ð´Ð°ÑĤÐ°": 2611,
      "ĠÑĥÐºÐ°Ð·Ð°": 2612,
      "ĠÑģÐ¿Ð¸": 2613,
      "ĠÐ¿Ð¾Ð»ÑĥÑĩÐ¸": 2614,
      "ĠÐµÐºÑģÐ¿Ð»Ð¾": 2615,
      "ĠÐ¾ÑĤÐ³Ð¾Ð²Ð¾ÑĢÐ½Ð¾ÑģÑĤ": 2616,
      "ĠÐ¸ÑģÐºÐ°Ð½ÐµÑĤÐ¾": 2617,
      "ĠÐµÐº": 2618,
      "ĠÐ¸Ð½ÑģÑĤÑĢÑĥÐ¼ÐµÐ½ÑĤÐ¸": 2619,
      "Ð¸ÑĤÐµÐ½": 2620,
      "ĠÑģÐ¿Ð¸ÑģÑĬ": 2621,
      "ÐºÐ¾Ð»ÐºÐ¾": 2622,
      "ĠÑĢÐ°Ð·Ð¼ÐµÑĢÐ°": 2623,
      "ĠÐ¿ÑĢÐ¸Ñģ": 2624,
      "ĠÐºÐ°ÑĤÐµÐ³Ð¾ÑĢÐ¸": 2625,
      "ĠÐ²ÑĬÐ·Ð½Ð°": 2626,
      "Ð¿Ð¸ÑģÐ°": 2627,
      "ĠÐ´ÐµÐ¸ÑģÑĤÐ²Ð¸ÑĤÐµÐ»Ð½Ð¾": 2628,
      "ĠÐ´ÑĬÐ»Ð¶Ð¸": 2629,
      "ĠÑıÑģÐ½Ð¾": 2630,
      "ÑĨÐ¸Ð¾Ð½ÐµÐ½": 2631,
      "ĠÐ²ÑĢÐµÐ¼ÐµÐ½": 2632,
      "Ġgr": 2633,
      "ĠÐ¾ÑĤÐºÑĢÐ¸": 2634,
      "ĠÑĦÑĢÐµÐ½": 2635,
      "ÑĢÐ¸Ð´Ð¸": 2636,
      "ĠÐ½Ð°ÐºÐ°Ð·Ð°": 2637,
      "ÑĩÑĥ": 2638,
      "ÑĪÐµÐ½Ð¸ÑıÑĤÐ°": 2639,
      "ĠÑģÐ¾Ð±ÑģÑĤÐ²ÐµÐ½Ð¾": 2640,
      "ĠÑĢÐ°Ð¸": 2641,
      "25": 2642,
      "ĠÐ¼Ð°ÑĢÐºÐ¸": 2643,
      "29": 2644,
      "Ġmort": 2645,
      "ĠÐ²ÐºÐ»ÑİÑĩÐµÐ½Ð¸": 2646,
      "ÑĩÐºÐ°": 2647,
      "ĠÐ¿Ð¾Ð½Ðµ": 2648,
      "ĠÐ²Ð°Ð»Ð¸": 2649,
      "ĠÐ¾Ð¿ÑĢÐµÐ´ÐµÐ»ÐµÐ½Ð°": 2650,
      "ĠÐ¿Ð¾ÐºÐ°Ð·Ð°": 2651,
      "Ð»ÐµÐ½Ð°": 2652,
      "ÑģÑĤÐ²Ð°ÑĤÐ°": 2653,
      "ĠÐ´ÑĬ": 2654,
      "ĠÐ¾Ð±ÐµÐºÑĤÐ¸": 2655,
      "Ð¸ÑĨÐ°": 2656,
      "Ð¿Ð¾ÑĢÑĨÐ¸Ð¾Ð½Ð°Ð»": 2657,
      "ĠÐ¿Ð¾Ð´Ð¿Ð¾Ð¼Ð°": 2658,
      "Ġ110": 2659,
      "ÑĢÐµÐ´Ð¸ÑĤÐµÐ½": 2660,
      "ĠkÑĢÐµÐ´Ð¸ÑĤÐµÐ½": 2661,
      "ĠÐ¾ÑģÐ½Ð¾Ð²Ð½Ð¸Ñı": 2662,
      "ĠÐºÑĥ": 2663,
      "ĠÐ¿ÑĢÐµÐ´Ð¾ÑģÑĤÐ°Ð²ÑıÑĤ": 2664,
      "ĠÐ¾ÐºÐ¾Ð»Ð½Ð°ÑĤÐ°": 2665,
      "ĠÑĤÑĢÑĥÐ´Ð¾": 2666,
      "ĠÐ´Ð¾Ð³Ð¾Ð²Ð¾ÑĢÐ¸": 2667,
      "ĠÑģÑĩÐµ": 2668,
      "ĠÑĦÑĢÐ°Ð½": 2669,
      "ĠÐ¿Ð°ÑĢÐ¸": 2670,
      "ĠâĢĻ": 2671,
      "ĠÐ·Ð°Ð¿Ð°Ð·": 2672,
      "ĠÐ·Ð°Ð´ÑĬÐ»Ð¶ÐµÐ½Ð¸ÑıÑĤÐ°": 2673,
      "ĠÐ½Ð°ÑĨÐ¸Ð¾Ð½Ð°Ð»Ð½Ð°": 2674,
      "ĠÐ¿ÐµÐ½ÑģÐ¸": 2675,
      "Ð¶Ð°Ð²Ð°": 2676,
      "Ð²ÑĢÐµÐ¼ÐµÐ½Ð½Ð¾": 2677,
      "Ð²Ð°Ð½Ð¸ÑıÑĤÐ°": 2678,
      "ĠÐ¾ÑģÐ½Ð¾Ð²Ð°Ð²Ð°": 2679,
      "Ġav": 2680,
      "Ð½Ð³Ð°": 2681,
      "Ġ104": 2682,
      "Ġsk": 2683,
      "ĠÑģÑĤÑĢÑĥÐºÑĤÑĥ": 2684,
      "ÑĤÐ½Ð¸Ñı": 2685,
      "33": 2686,
      "ĠÐ¾ÑĤÐ²ÐµÑĤÐ½Ð¸Ðº": 2687,
      "ĠÐ´ÑıÐ»": 2688,
      "ĠÐ¸Ð·Ð¿Ð¸ÑĤÐ²Ð°Ð½Ðµ": 2689,
      "ĠÐ±Ð¸Ð¾": 2690,
      "Ð²Ð°Ð½Ð¸ÑĤÐµ": 2691,
      "ass": 2692,
      "ĠÑģÐ²Ð¸": 2693,
      "ang": 2694,
      "ĠÐ¾ÑĢÐ³Ð°Ð½Ð¸Ð·Ð°ÑĨÐ¸Ñı": 2695,
      "ĠÐ±ÐµÐ»": 2696,
      "ĠÐ¿Ð¾Ð½ÑıÑĤÐ¸ÐµÑĤÐ¾": 2697,
      "ĠÐ¿Ð¾Ð¸ÑģÐºÐ°": 2698,
      "ĠÐ¿ÑĢÐµÐ´Ð¿ÑĢÐ¸ÑıÑĤÐ¸ÐµÑĤÐ¾": 2699,
      "Ð²ÐµÑĤÐ¾": 2700,
      "ĠÐ¿Ð¾Ð»Ð·Ð²Ð°": 2701,
      "ĠÑĥÐ´Ð¾": 2702,
      "ĠÑħÐ¸Ð¼Ð¸": 2703,
      "ĠÐ¿ÑĢÐ¸ÐµÐ¼Ð°Ð½ÐµÑĤÐ¾": 2704,
      "ĠÐ¾ÑĤÐ±ÐµÐ»ÐµÐ¶Ð¸": 2705,
      "ĠÐ¼Ð¸ÑĤÐ½Ð¸": 2706,
      "ĠÐ¸Ð·Ð½Ð¾Ñģ": 2707,
      "ĠÐ¸Ð·Ð½Ð¾ÑģÐ¸": 2708,
      "Ð´ÐµÐ»Ð¸Ñı": 2709,
      "ĠÑģÑĤÐ°Ð½Ð´Ð°ÑĢÑĤÐ¸": 2710,
      "ĠÐ¸Ð·Ð´ÐµÐ»Ð¸Ñı": 2711,
      "ĠÐ¿ÑĢÐµÐ´Ð¾ÑģÑĤÐ°Ð²Ð¸": 2712,
      "ĠÑĨÐµÐ½Ð¸": 2713,
      "ĠÐ´Ñĥ": 2714,
      "Ġdi": 2715,
      "ĠÑĥÑģÑĤÐ°Ð½Ð¾Ð²ÐµÐ½Ð¾": 2716,
      "ĠÐ´ÐµÐ»ÐµÐ³Ð¸": 2717,
      "ĠÐ½Ð°Ð´Ð·Ð¾ÑĢ": 2718,
      "ĠÑģÑĬÑĤÑĢÑĥÐ´Ð½Ð¸ÑĩÐµÑģÑĤÐ²Ð¾": 2719,
      "ĠÑģÑĥÐ¼Ð°": 2720,
      "Ð¿Ð°ÑĢÐ°ÑĤÐ¸": 2721,
      "ÑĢÐ¸Ð³Ð¸": 2722,
      "Ġad": 2723,
      "ĠÐ´Ð°Ð½ÑĬÐº": 2724,
      "ĠÐ¸Ð·ÑĤÐ¾ÑĩÐ½Ð¸": 2725,
      "Ġac": 2726,
      "ĠÐ¾Ð±ÐµÐ·ÑīÐµÑĤÐµÐ½Ð¸Ðµ": 2727,
      "ĠÑĤÐ°ÐºÐ°Ð²Ð°": 2728,
      "ung": 2729,
      "Ð¸Ð½Ð°": 2730,
      "ĠÐºÐ¾Ð½ÑĨÐµÐ½ÑĤ": 2731,
      "ĠÑĢÐµÐ³Ð»Ð°Ð¼ÐµÐ½ÑĤÐ°": 2732,
      "ĠÐ±Ð¾ÑĢ": 2733,
      "ĠÐ¿Ð¾Ð´ÑĢÐ¾Ð±": 2734,
      "ĠÐ½Ð°Ð±": 2735,
      "ĠÑĩÐ¾Ð²Ðµ": 2736,
      "ĠÐ¸Ð·Ð±ÑĢÐ¾": 2737,
      "ĠÑģÑĬÐ¾Ð±Ñī": 2738,
      "ĠÐ¾Ð±Ð¾ÑĢÑĥÐ´Ð²Ð°Ð½Ðµ": 2739,
      "ĠÑĤÑĢÑıÐ±Ð²Ð°Ð»Ð¾": 2740,
      "ĠÐ½Ð°Ñģ": 2741,
      "ĠÐµÐ²ÑĢÐ¾Ð¿ÐµÐ¸ÑģÐºÐ¸ÑĤÐµ": 2742,
      "ĠÐ¾Ð¿ÐµÑĢÐ°ÑĤÐ¾ÑĢÐ¸": 2743,
      "ĠÐ¾Ð¿Ð¾": 2744,
      "ant": 2745,
      "ÑĤÑĬÑĢ": 2746,
      "Ġ0000": 2747,
      "ĠÐ¾Ð±ÑīÐ°": 2748,
      "ĠÑģÑĤÐ°Ð½Ð´Ð°ÑĢÑĤ": 2749,
      "ĠÑĨÐµÐ½Ð¸ÑĤÐµ": 2750,
      "ÏĢ": 2751,
      "ĠÐ¾Ð¿ÑĢÐµÐ´ÐµÐ»ÑıÐ½ÐµÑĤÐ¾": 2752,
      "ard": 2753,
      "ĠÑģÑĤÐ°ÑĤÑĥ": 2754,
      "ĠÐ¿ÑĢÐµÑĢÐ°Ð±Ð¾ÑĤ": 2755,
      "Ð´ÑĢÐ¾": 2756,
      "ĠÑĦÐ¾ÑĢÐ¼Ð°ÑĤÐ°": 2757,
      "ĠÑĥÑģÐ»ÑĥÐ³Ð°": 2758,
      "ĠÑĥÑĩÐ°ÑģÑĤÐ¸Ðµ": 2759,
      "ĠÐ±ÑĬÐ»Ð³Ð°ÑĢÑģÐºÐ¸": 2760,
      "ĠÐ¾Ð¿ÐµÑĢÐ°ÑĤÐ¾ÑĢ": 2761,
      "ĠÑīÐ°ÑĤÐ¸": 2762,
      "ĠÐ¿ÑĢÐµÑĢÐ°Ð·": 2763,
      "ÑĢÐµÐ¶Ð´Ð°": 2764,
      "ÑıÐ²Ð°ÑĤ": 2765,
      "ĠÐ¾ÑĤÐ³Ð¾Ð²Ð°ÑĢÑıÑĤ": 2766,
      "ĠÐ½Ð°Ñĥ": 2767,
      "ÑĤÐµÐ»Ð½Ð¾ÑģÑĤÑĤÐ°": 2768,
      "Ġinter": 2769,
      "ĠÐ¿ÐµÑĩÐ°Ð»": 2770,
      "ust": 2771,
      "ĠÐ·Ð°ÑģÑıÐ³Ð°": 2772,
      "ÐºÑĤÐ¾ÑĢÐ¸": 2773,
      "ĠÐ½ÐµÐ³Ð¾Ð²Ð¾": 2774,
      "Ġro": 2775,
      "ĠÐºÐ»Ð°Ñĥ": 2776,
      "ĠÐ½ÐµÐ´Ð¾Ð¿Ñĥ": 2777,
      "ĠÑģÑĬÐµÐ´Ð¸Ð½ÐµÐ½Ð¸": 2778,
      "ĠÑĤÐµÐ»Ðµ": 2779,
      "ĠÐ´Ð¾Ð¿ÑĥÑģÑĤÐ¸": 2780,
      "ĠÑĤÐµÑĢÐ¸ÑĤÐ¾ÑĢÐ¸Ñı": 2781,
      "Ġmar": 2782,
      "ĠÐ¾Ð±ÑģÑĤÐ¾ÑıÑĤÐµÐ»ÑģÑĤÐ²Ð¾ÑĤÐ¾": 2783,
      "ĠÑĦÐ¾": 2784,
      "ĠÐ¾ÑģÐ¸Ð³ÑĥÑĢÐ¸": 2785,
      "ĠÐ¿ÑĢÐ¾ÑĨÐµÐ´ÑĥÑĢÐ¸": 2786,
      "ĠÑģÐµÑĢÑĤÐ¸ÑĦÐ¸ÐºÐ°": 2787,
      "68": 2788,
      "Ð¼Ð¾Ð½Ð¸": 2789,
      "Ð¼ÐµÐ½ÑĤÐ¸ÑĤÐµ": 2790,
      "18": 2791,
      "Ġltd": 2792,
      "ÐµÐ¾": 2793,
      "ine": 2794,
      "ĠÐ¿Ð»Ð°ÑīÐ°Ð½Ðµ": 2795,
      "ĠÐ·Ð°ÐºÐ¾": 2796,
      "Ġaty": 2797,
      "ĠÑģÑĬÑħ": 2798,
      "ĠÐ±ÐµÐ»ÐµÐ¶ÐºÐ°": 2799,
      "Ġet": 2800,
      "ĠÐ¼ÐµÑģÑĤ": 2801,
      "ĠÐ²ÐµÑĢÐ¾ÑıÑĤ": 2802,
      "ĠÑĢÐ°Ð·Ð²Ð¸ÑĤÐ¸Ðµ": 2803,
      "ĠÐ²Ð·ÐµÐ¼Ðµ": 2804,
      "ÏĤ": 2805,
      "Ġmcy": 2806,
      "ĠÑģÑĬÐ¾ÑĤÐ²ÐµÑĤÐ½Ð¸Ñı": 2807,
      "Ð´ÐµÑĤÐ¾": 2808,
      "ĠÑĪÐ¸ÑĢÐ¾": 2809,
      "74": 2810,
      "ĠÑĥÑĤÐ¾Ñĩ": 2811,
      "Ð´Ð½Ð°": 2812,
      "ĠÐ½Ñĥ": 2813,
      "Ð²Ð°ÑĤÐµÐ»Ð½Ð¸": 2814,
      "ÑĢÐ¾Ð²Ð¸": 2815,
      "ÑİÐºÑģÐµÐ»": 2816,
      "ĠÐ½ÑıÐºÐ¾Ð»ÐºÐ¾": 2817,
      "ÑĢÐµÐ½Ð¸": 2818,
      "Ð»Ð¸Ð½": 2819,
      "ĠÐ±ÑĢÑİÐºÑģÐµÐ»": 2820,
      "ĠÐ²ÑĤÐ¾ÑĢÐ°": 2821,
      "Ġis": 2822,
      "ĠÐ¿ÑĢÐµÑĨÐµÐ½ÐºÐ°ÑĤÐ°": 2823,
      "de": 2824,
      "Ð¸ÐºÐ¸": 2825,
      "Ð´ÑĬÐ»Ð¶": 2826,
      "ĠÐ´Ð¾Ð¿ÑĬÐ»Ð½Ð¸ÑĤÐµÐ»Ð½Ð¸": 2827,
      "ĠÑĤÑĢÑĬ": 2828,
      "ĠÐºÐ¾Ð¼Ð±Ð¸": 2829,
      "ĠÐ¿ÑĢÐµÐ´Ð¸Ð¼": 2830,
      "ĠÐ´Ð½Ð¸": 2831,
      "ĠÐ°ÑĢ": 2832,
      "ĠÑģÐ»ÑĥÑĩÐ°Ð¸ÑĤÐµ": 2833,
      "ĠÐºÐ¾Ð»Ðµ": 2834,
      "ĠÐ»Ð¸Ð½Ð¸Ñı": 2835,
      "ĠÐ±ÐµÑĪÐµ": 2836,
      "ĠÐ´Ð»ÑĬÐ¶Ð½Ð¾ÑģÑĤ": 2837,
      "ĠÐ³ÑĢÐµÑĪÐºÐ°": 2838,
      "ĠÐ¿Ð¾Ð»ÑĥÑĩÐµÐ½Ð¸": 2839,
      "ÑĢÐ°ÑĤÑĥ": 2840,
      "ÑĩÐµÐ½Ð°": 2841,
      "ĠÐ·Ð°ÑīÐ¾": 2842,
      "ĠÑģÑĤÐ°Ð²Ð°": 2843,
      "ĠÐ½Ð°Ð±Ð»Ñİ": 2844,
      "ens": 2845,
      "ĠÑģÐ¿ÑĢÐ°": 2846,
      "ĠÐ¾Ð¿Ð°": 2847,
      "ob": 2848,
      "ÐºÐ²Ð¾": 2849,
      "Ġ040": 2850,
      "Ġgm": 2851,
      "ĠÑĢÐµÐ·ÐµÑĢ": 2852,
      "ÐºÑĢÐ¸Ð¼Ð¸Ð½Ð°": 2853,
      "ĠÑĤÐ¸Ð¿": 2854,
      "ĠÑģÐ²Ð¾Ð¸ÑĤÐµ": 2855,
      "ĠÑĢ": 2856,
      "ÑĩÐµÑĢÑĤÐ°": 2857,
      "ĠÐ½ÐµÐ¿Ð¾": 2858,
      "ĠÐ³Ð¸": 2859,
      "ĠÐ²Ð¾Ð´Ð°": 2860,
      "ÑĦÐ¸ÑĨÐ¸ÑĢÐ°Ð½Ð¸": 2861,
      "ĠÐ¿Ð¾Ð´Ð»Ðµ": 2862,
      "ĠÐ·Ð°Ðµ": 2863,
      "ĠÐ¸Ð·ÑĢÐ¸": 2864,
      "Ġcl": 2865,
      "ĠÐ³ÑĢÐ°Ð¶Ð´Ð°Ð½": 2866,
      "ĠÐ¿ÑĢÐµÐ´Ð¾ÑģÑĤÐ°Ð²ÑıÐ½ÐµÑĤÐ¾": 2867,
      "ĠÑĢÐ°Ð·Ð³Ð»ÐµÐ¶Ð´Ð°Ð½Ð¸Ñı": 2868,
      "ĠÐ½Ð¾Ð²Ð¸": 2869,
      "ÑĩÐµÐ½Ð¸ÐµÑĤÐ¾": 2870,
      "ĠÑģÐ¼ÐµÑĤÐºÐ°": 2871,
      "ĠÐ±ÑĢÐ¾": 2872,
      "ĠÐ½Ð°ÑĢÑĥÑĪÐµÐ½Ð¸ÐµÑĤÐ¾": 2873,
      "ÑĢÐµÐ½Ð¾": 2874,
      "ĠÐ¿ÑĢÐµÐ´ÑģÑĤÐ°Ð²Ð¸ÑĤÐµÐ»": 2875,
      "ĠÐ¿ÑĢÐ¾Ð¸Ð·Ð²ÐµÐ´": 2876,
      "ĠÐ¾Ð±ÑīÐ½Ð¾ÑģÑĤÐ¸": 2877,
      "ĠÐ·Ð°Ð´Ð°": 2878,
      "ÑĤÐ¸ÑĩÐ½Ð¸": 2879,
      "ĠÐ¿Ð»Ð¾Ð´Ð¾Ð²Ðµ": 2880,
      "ĠÐ´Ð¾Ð»Ñĥ": 2881,
      "ĠÐ¿ÑĢÐ¾Ð¿Ð¾ÑĢÑĨÐ¸Ð¾Ð½Ð°Ð»": 2882,
      "ĠÐ¸ÑģÐº": 2883,
      "ĠÑģÑĬÐ´ÐµÐ±Ð½Ð¾ÑĤÐ¾": 2884,
      "ĠÐ¾Ð¿Ð¸ÑģÐ°Ð½Ð¸Ðµ": 2885,
      "ĠÐ·Ð°ÑıÐ²Ð¸": 2886,
      "ĠÑĤÑĬÑĢÐ³Ð¾Ð²Ð¸Ñı": 2887,
      "ĠÐºÑĬÐ´ÐµÑĤÐ¾": 2888,
      "Ð»ÐµÐ²Ð°Ð½": 2889,
      "Ð²Ð¿": 2890,
      "ĠÑģÑĬÐ·Ð´Ð°Ð²Ð°Ð½Ðµ": 2891,
      "Ġle": 2892,
      "ĠÐ½Ð°Ð¸Ð¼ÐµÐ½Ð¾Ð²Ð°Ð½Ð¸Ðµ": 2893,
      "Ð²ÐµÐ¶Ð´Ð°Ð½Ðµ": 2894,
      "ĠÐ¸ÑģÐ¿Ð°Ð½Ð¸Ñı": 2895,
      "ÑĢÐ°ÑīÐ¸": 2896,
      "ess": 2897,
      "ĠÑģÐ²ÐµÑĤ": 2898,
      "Ð±Ñĥ": 2899,
      "ÑĢÐ°Ð·Ð¸": 2900,
      "ĠÐ·Ð°ÑģÐµÐ´Ð°Ð½Ð¸Ðµ": 2901,
      "ĠÐ²ÑĬÑĤÑĢÐµÑĪÐ½Ð¸Ñı": 2902,
      "ĠÐ¿Ð¾ÑĢÑĤ": 2903,
      "ĠÐ¿Ð¾Ð¼Ð¾ÑīÐ¸": 2904,
      "ÑĨÑıÐ»Ð¾": 2905,
      "ĠÐ»Ð¸Ð¿ÑģÐ°ÑĤÐ°": 2906,
      "ĠÐ¿ÑĢÐ¸Ð»Ð¾Ð¶Ð¸Ð¼Ð¸": 2907,
      "ĠÐ³ÐµÐ¾": 2908,
      "ĠÑģÐºÐ¾ÑĢÐ¾": 2909,
      "ĠÐ¸Ð·ÑĨÑıÐ»Ð¾": 2910,
      "ĠÐ´ÑĬÑĢ": 2911,
      "Ð½ÑģÐºÐ¸ÑĤÐµ": 2912,
      "ay": 2913,
      "ĠÐ¼ÐµÑĤÐ¾Ð´": 2914,
      "ĠÐ²Ð·Ð°": 2915,
      "ĠÐ·Ð°ÐºÑĢÐ¸Ð»Ð°": 2916,
      "ÑģÑĤÐ²ÐµÐ½": 2917,
      "ĠÐ´Ð°Ð´ÐµÐ½": 2918,
      "ĠÑģÑĤÐ¸": 2919,
      "ĠÑħÐ°ÑĢÐ¼Ð¾Ð½Ð¸": 2920,
      "Ð»ÐµÐ½Ð¸ÐµÑĤÐ¾": 2921,
      "Ð¶Ð´ÐµÐ½Ð¸Ðµ": 2922,
      "ĠÐ¾Ð±Ð»Ð°Ð³Ð°Ð½Ðµ": 2923,
      "all": 2924,
      "ĠÑħÐ°ÑĢÐ°ÐºÑĤÐµÑĢÐ¸ÑģÑĤÐ¸ÐºÐ¸": 2925,
      "ĠÐ´Ð¾Ð¼Ð°": 2926,
      "ĠÐ¿Ð¸ÑģÐ¼ÐµÐ½": 2927,
      "Ð°Ð»Ð½Ð°ÑĤÐ°": 2928,
      "ĠÐ·Ð°Ð²Ð¸ÑģÐ¸Ð¼Ð¾": 2929,
      "ĠÑģÑĬÑīÐ¾ÑĤÐ¾": 2930,
      "Ġpar": 2931,
      "ĠÐºÐ°ÑĩÐµÑģÑĤÐ²Ð¾": 2932,
      "ĠÐµÑĤÐ¾": 2933,
      "ĠÐ²ÑĬÐ²ÐµÐ¶Ð´Ð°": 2934,
      "ĠÐ¿Ð¸ÑģÐ¼Ð¾": 2935,
      "ĠÐ¼Ð°ÑĪÐ¸Ð½Ð¸": 2936,
      "ĠÐºÐ°Ð¿Ð°": 2937,
      "ĠÐ²Ð°Ð¶": 2938,
      "ĠÐ¿ÑĬÑĢÐ²Ð¸Ñı": 2939,
      "ĠÑģÑħÐ¾Ð´": 2940,
      "ÑĪÐ½Ð¾": 2941,
      "ĠÐ´ÐµÐ¸Ð½Ð¾ÑģÑĤÑĤÐ°": 2942,
      "ĠÐ¸Ð½ÑĤÐµÑĢÐµÑģÐ¸": 2943,
      "Ð»Ð½Ð°": 2944,
      "ĠÑģÐµÐ»ÑģÐºÐ¾": 2945,
      "ĠÑĢÐµÑģÑĥ": 2946,
      "ĠÐ½Ð¸Ð²Ð¾": 2947,
      "ĠÐ¿ÑĢÐµÐ´Ð²Ð¸Ð´ÐµÐ½Ð¾": 2948,
      "ĠÑģÑĬÐ´ÐµÐ±Ð½Ð¸": 2949,
      "Ð´Ð¶Ðµ": 2950,
      "ÑĪÐµÐ½Ð¸": 2951,
      "Ġas": 2952,
      "Ð·Ð°ÑĨÐ¸Ñı": 2953,
      "Ð´ÑĢÑĥ": 2954,
      "Ġvi": 2955,
      "ĠÑĨÐµÐ»Ðµ": 2956,
      "ÑĢÐ¸ÑĢÐ°Ð½Ðµ": 2957,
      "ĠÐ±ÑĥÐºÐ²Ð¸": 2958,
      "ĠÐ¿ÑĢÐ¾ÑĦÐµÑģÐ¸Ð¾Ð½Ð°Ð»": 2959,
      "ĠÑģÑĢÐ¾ÐºÐ°": 2960,
      "ĠÑĩÐ¸Ð¸ÑĤÐ¾": 2961,
      "ĠÐ¿Ð¾ÑģÐ¾ÑĩÐµÐ½": 2962,
      "ĠÑħÐ°ÑĢÑĤÐ°ÑĤÐ°": 2963,
      "ĠÐºÐ¾Ð¼Ð¿ÐµÑĤÐµÐ½ÑĤÐ½Ð¾ÑģÑĤ": 2964,
      "ĠÐ¾ÑģÐ²Ð¾Ð±Ð¾Ð¶Ð´Ð°Ð²Ð°Ð½Ðµ": 2965,
      "Ð»Ð¾ÑĤÐ¾": 2966,
      "ĠÑģÑĤÐ°Ð½Ð¾Ð²Ð¸ÑīÐµÑĤÐ¾": 2967,
      "ĠÐ·ÐµÐ¼ÐµÐ´ÐµÐ»": 2968,
      "ÑĢÐºÐ°ÑĤÐ°": 2969,
      "ĠÐ¼Ð¸Ð½Ð¸Ð¼Ð°Ð»": 2970,
      "ÐºÑģÐ°": 2971,
      "ĠÐºÐ¸ÑĤÐ°": 2972,
      "45": 2973,
      "ÑĢÐ¾Ð´Ð½Ð¸": 2974,
      "ĠÑģÑĤÐ°ÑĤÐ¸": 2975,
      "ĠÐ¿ÑĬ": 2976,
      "ĠÐ¾Ð±ÑīÐ¸ÑĤÐµ": 2977,
      "ĠÐ´Ð¸Ð°": 2978,
      "ĠÐ²Ð¸Ð´Ð½Ð¾": 2979,
      "ĠÐ¿ÑĢÐ¾ÑĤÐ¸Ð²Ð¾ÑĢÐµ": 2980,
      "ĠÐ¾Ð¿Ð°Ñģ": 2981,
      "ĠÑĪÐ²Ðµ": 2982,
      "ĠÐ¾ÑĩÐ°": 2983,
      "ĠÑĩÑĥÐ¶": 2984,
      "ĠÑĢÐ°Ð·ÑģÐ»ÐµÐ´Ð²Ð°Ð½Ðµ": 2985,
      "ĠÐµÐºÑģÐ¿Ð»Ð¾Ð°ÑĤÐ°": 2986,
      "Ð»Ð¾Ð¶ÐµÐ½Ð¸Ðµ": 2987,
      "ĠÐ·Ð°Ð²Ð¸ÑģÐ¸Ð¼Ð¾ÑģÑĤ": 2988,
      "Ð½Ð¾Ð»Ð¾Ð³Ð¸": 2989,
      "ĠÐ²ÑĬÐ¿ÑĢÐ¾ÑģÐ°": 2990,
      "ÑĩÐ½Ð¾ÑģÑĤ": 2991,
      "ĠÐ¾Ð±Ð¶Ð°Ð»Ð²Ð°Ð½Ðµ": 2992,
      "ĠÐ¿ÑĢÐ¾ÑĨÐµÑģÑĥ": 2993,
      "ĠÑĤÐ°Ð±Ð»Ð¸ÑĨÐ°": 2994,
      "ĠÐ»Ð¸ÑĨÐµÐ½Ð·Ð¸": 2995,
      "Ð²Ð°Ð½Ð°": 2996,
      "Ġrx": 2997,
      "az": 2998,
      "yl": 2999,
      "ĠÐµÐ»ÐµÐºÑĤÑĢÐ¸": 3000,
      "ĠÑģÑĤÑĢÐ¾Ð¸": 3001,
      "ĠÐ¾Ð±ÑĢÐ°ÑĤ": 3002,
      "Ð¿Ð¾Ð½ÐµÐ½": 3003,
      "ĠÐ²Ð»Ð°Ðº": 3004,
      "ĠÐ¿ÑĢÐµÐ´ÑħÐ¾Ð´": 3005,
      "ĠÐºÐ¾Ð½ÑģÑĥÐ»ÑĤÐ°": 3006,
      "Ġth": 3007,
      "ĠÐ¸Ð·ÑĤÐ¸ÑĩÐ°": 3008,
      "ĠÐ¿ÑĤÐ¸": 3009,
      "ĠÐ´Ð¾Ð¿ÑĬÐ»": 3010,
      "ĠÐ¿Ð¾Ð¼Ð¾ÑīÑĤÐ°": 3011,
      "Ġvii": 3012,
      "ĠÐ±ÑİÐ´Ð¶Ðµ": 3013,
      "ÑĩÐµÑģÐºÐ¸ÑĤÐµ": 3014,
      "ĠÑĤÑĢÐ°": 3015,
      "ĠÐ¾ÑĤÐºÐ°Ð·": 3016,
      "ne": 3017,
      "ĠÐ¸Ð·Ð²ÐµÑģÑĤ": 3018,
      "ÐºÐ²Ð°Ð½Ðµ": 3019,
      "ĠÐ¿Ð¾ÑģÐ»ÐµÐ´Ð¸ÑĨÐ¸": 3020,
      "ĠÐ¿ÑĢÐµÐ±Ð¸Ð²Ð°Ð²Ð°Ð½Ðµ": 3021,
      "ĠÐ½Ð°Ð¼Ð°Ð»ÑıÐ²Ð°Ð½Ðµ": 3022,
      "ĠÐ¿Ð¾ÑģÐ¾ÑĩÐ¸": 3023,
      "Ġ130": 3024,
      "ĠÐ¿Ð¾Ð¿Ð°Ð´Ð°": 3025,
      "ĠÐ¾Ð±Ð¸ÑĩÐ°": 3026,
      "ĠÐ¿ÑĢÐµÐ´Ð²Ð°ÑĢÐ¸ÑĤÐµÐ»Ð½Ð¾": 3027,
      "ĠÑģÐ°Ð½Ðº": 3028,
      "ÑĩÐµÐ½Ð¾": 3029,
      "ĠÑĤÑĬÐ»ÐºÑĥÐ²Ð°Ð½ÐµÑĤÐ¾": 3030,
      "ĠÐ²ÐºÐ»ÑİÑĩÐ²Ð°ÑĤ": 3031,
      "Ð½Ð³": 3032,
      "ÑģÑĤÐ²Ð¾Ð¼": 3033,
      "Ð½Ð¸Ð¼Ð°": 3034,
      "Ġel": 3035,
      "ĠÐ¿Ð¾ÑģÑĢÐµÐ´ÑģÑĤÐ²Ð¾Ð¼": 3036,
      "ĠÑĤÑĢÐ°Ð½Ñģ": 3037,
      "ĠÐµÐ´Ð¸Ð½Ð¸": 3038,
      "Ġ&": 3039,
      "ĠÐ²Ð¿Ð¸Ñģ": 3040,
      "ÑģÐºÐ°Ð½Ðµ": 3041,
      "ĠÐ´ÐµÐ»Ð°": 3042,
      "ĠÐ¸Ð·Ð¼ÐµÐ½ÐµÐ½": 3043,
      "ĠÂ": 3044,
      "ĠÐºÐ¾Ð½ÐºÑĥÑĢÐµÐ½ÑĨÐ¸ÑıÑĤÐ°": 3045,
      "ĠÐ¾Ð´Ð¾Ð±ÑĢÐµÐ½Ð¸Ðµ": 3046,
      "ĠÐ´ÑĢÑĥÐ¶ÐµÑģÑĤÐ²Ð¾ÑĤÐ¾": 3047,
      "ĠÐ½ÐµÐ³Ð¾Ð²Ð¾ÑĤÐ¾": 3048,
      "ĠÑĤÐµÐ¶Ðµ": 3049,
      "ĠÐ¿ÑĢÐµÐ²Ð¾Ð·Ð½Ð¾ÑĤÐ¾": 3050,
      "ĠÐ¾ÑģÐ¾Ð±ÐµÐ½Ð¾": 3051,
      "Ġ220": 3052,
      "Ġcomp": 3053,
      "ÑģÑĤÐ²ÐµÐ½Ð¸ÑĤÐµ": 3054,
      "ĠÐ¿ÑĢÐ¾Ð²ÐµÑĢÐ¸": 3055,
      "ĠÐ³Ð»Ð°ÑģÐ¸": 3056,
      "sch": 3057,
      "ĠÐ¿ÑĢÐµÐ¿Ð¾": 3058,
      "ĠÐºÐ°Ð½Ð´Ð¸": 3059,
      "Ð²Ð½Ð¸ÑıÑĤ": 3060,
      "ĠÐ´ÐµÑĢÐ¾": 3061,
      "ĠÑģÑĢÐ°Ð²": 3062,
      "ĠÐ¾Ð¿Ð°ÐºÐ¾": 3063,
      "ĠÐ¸Ð½Ð´Ð¸Ð²Ð¸": 3064,
      "ĠÐºÐ¾Ð¼Ð¿Ð¾Ð½ÐµÐ½": 3065,
      "ĠÐ¸Ð·Ð¿Ð»Ð°": 3066,
      "ÑĤÐ½Ð°ÑĤÐ°": 3067,
      "ĠÐ·Ð¾Ð½Ð°": 3068,
      "ĠÐ¿Ð¾Ð´Ð°Ð´ÐµÐ½Ð°": 3069,
      "ĠÐ¸Ð·Ð²ÑĬÑĢÑĪÐ¸": 3070,
      "ĠÐ¾Ð±ÐµÐ´Ð¸Ð½ÐµÐ½Ð¾ÑĤÐ¾": 3071,
      "ĠÐ¼Ð¸ÑĤÐ¾": 3072,
      "ĠÑģÐ¿Ð¸ÑģÑĬÐºÐ°": 3073,
      "ĠÐ¼ÐµÑħÐ°Ð½Ð¸Ð·": 3074,
      "iz": 3075,
      "Ð¿ÑĢÐ¸ÑıÑĤ": 3076,
      "ĠÑİÑĢÐ¸Ð´Ð¸": 3077,
      "ĠÑĢÐ°Ð·Ð±Ð¸": 3078,
      "ĠÑģÐµÐ»ÑģÐºÐ¾ÑģÑĤÐ¾": 3079,
      "ÑģÑĤÐ²ÐµÐ½Ð°": 3080,
      "ĠÐ¸ÑĤÐ°Ð»Ð¸": 3081,
      "ĠÑĨÐµÐ½Ð°ÑĤÐ°": 3082,
      "ate": 3083,
      "Ð»Ð°Ð³Ð¾Ð¿ÑĢÐ¸ÑıÑĤ": 3084,
      "39": 3085,
      "Ð½ÐµÐ½Ð¾": 3086,
      "ĠÑĢÐµÑģÑĥÑĢÑģÐ¸": 3087,
      "ĠÐ¿ÑĢÐ°Ð²Ð¸Ð»Ð½Ð¸Ðº": 3088,
      "Ġair": 3089,
      "ĠÐ¸Ð¼ÐµÑĤÐ¾": 3090,
      "77": 3091,
      "ĠÐ¿ÐµÑĢÑģÐ¾": 3092,
      "ĠÑĤÑıÑħÐ½Ð¾ÑĤÐ¾": 3093,
      "ĠÐ¿Ð¾Ð·Ð¸ÑĨÐ¸Ð¸": 3094,
      "ĠÐ½ÐµÐ³Ð¾Ð²Ð¸ÑĤÐµ": 3095,
      "ĠÐ¸Ð·Ð¼ÐµÐ½Ñı": 3096,
      "ĠÑĢÐ¸ÑģÐºÐ°": 3097,
      "ĠÐ¿ÑĢÐµÐ´ÑģÑĤÐ°Ð²Ð»ÑıÐ²Ð°ÑĤ": 3098,
      "ĠÐ¸Ð¼Ñĥ": 3099,
      "ĠÐ¸Ð·ÑĢÐ¸ÑĩÐ½Ð¾": 3100,
      "ĠÑĥÑģÐ»ÑĥÐ³Ð¸ÑĤÐµ": 3101,
      "ÐºÑĢÐµÑĤÐ°": 3102,
      "ĠÐ¸Ð½ÑĦÐ¾ÑĢÐ¼Ð¸": 3103,
      "ĠÐ¶Ð°": 3104,
      "ĠÐ½Ð°ÑĨÐ¸Ð¾Ð½Ð°Ð»Ð½Ð¸": 3105,
      "ÐºÐ½Ð¾": 3106,
      "ĠÐ¾Ð±ÐµÐ¼": 3107,
      "ĠÐ¿Ð¾Ð²ÐµÐ´": 3108,
      "ĠÑĥÑģÑĤÐ°Ð½Ð¾Ð²ÑıÐ²Ð°": 3109,
      "ĠÐ¸Ð·ÑĤÑĬ": 3110,
      "ĠÐ¿ÑĢÐµÐ²Ð¸ÑĪÐ°Ð²Ð°": 3111,
      "ĠÐ»Ð¸ÑĨÐ°ÑĤÐ°": 3112,
      "ĠÐºÐ¸ÑģÐµÐ»Ð¸Ð½Ð°": 3113,
      "ĠÐ´Ð¾ÐºÐ°ÑĤÐ¾": 3114,
      "ĠÐ¸Ð½ÑģÑĤÐ¸ÑĤÑĥÑĨÐ¸Ñı": 3115,
      "ĠÐµÑĤÐ¸": 3116,
      "ĠÐ¿ÑĬÑĢÐ²Ð°ÑĤÐ°": 3117,
      "ĠÑģÑħÐ²Ð¿": 3118,
      "ĠÑģÐ²Ð¾Ñı": 3119,
      "ĠÐ¸Ð·Ð±": 3120,
      "ĠÑĥÐ²ÐµÐ´Ð¾Ð¼Ñı": 3121,
      "Ġto": 3122,
      "ĠÐºÐ½Ð¸": 3123,
      "ĠÐ¸Ð·Ð²ÐµÐ´": 3124,
      "Ð¿Ð¾Ð·Ð¸ÑĤÐ¸": 3125,
      "Ġexc": 3126,
      "und": 3127,
      "ĠÐ¿Ð¾ÑĤÑĢÐµÐ±Ð¸ÑĤÐµÐ»Ð¸ÑĤÐµ": 3128,
      "ian": 3129,
      "ĠÐ¸Ð·ÑĤÑĬÐº": 3130,
      "Ð³ÑĥÑģÑĤ": 3131,
      "ĠÑĨÑı": 3132,
      "ĠÑģÐ¿Ð¾ÑĢÐ°": 3133,
      "ĠÐºÐ°Ð¿Ð°ÑĨÐ¸ÑĤÐµ": 3134,
      "38": 3135,
      "ĠÐ±Ð¸ÑħÐ°": 3136,
      "ĠÐ¾ÑĤÐ¿Ð°Ð´ÑĬÑĨÐ¸": 3137,
      "ĠÐ¾Ð±ÑħÐ²Ð°ÑĤ": 3138,
      "ĠÐ¿Ð¾Ð´ÑĩÐµÑĢÑĤÐ°": 3139,
      "ĠÐ¸Ð½Ð´Ð¸Ð²Ð¸Ð´Ñĥ": 3140,
      "ĠÐ°Ð²Ð³ÑĥÑģÑĤ": 3141,
      "ĠÐ¾ÑĤÐ³Ð¾Ð²Ð¾ÑĢÐ¸": 3142,
      "ĠÐ·Ð°ÐºÐ»ÑİÑĩÐµÐ½Ð¸ÐµÑĤÐ¾": 3143,
      "ĠÐ¸Ð·Ð¾": 3144,
      "ĠÐ½ÐµÐ¿ÑĢÐµÐ²Ð¸ÑĪÐ°Ð²Ð°": 3145,
      "ĠÐºÐ¾Ð½Ð²ÐµÐ½ÑĨÐ¸Ñı": 3146,
      "ĠÐ¾ÑĤÐ±ÐµÐ»ÑıÐ·Ð²Ð°": 3147,
      "ĠÐ¸Ð·ÐºÐ»ÑİÑĩÐ¸": 3148,
      "Ð²Ð¾Ð´Ð°": 3149,
      "ĠÑĢÐ°Ð¼ÐºÐ¾": 3150,
      "ĠÑĢÑĬÐºÐ¾": 3151,
      "Ð¸Ð½Ð¾": 3152,
      "ĠÐ°Ð½Ð°": 3153,
      "ĠÐ¾ÑĩÐ°ÐºÐ²Ð°": 3154,
      "ĠÐ¿ÑĢÐµÐ¿ÑĢÐ°": 3155,
      "ĠÐ·Ð°ÑīÐ¸ÑĤÐ°ÑĤÐ°": 3156,
      "ĠÐ¿Ð¾ÑģÑĤÐ°Ð²": 3157,
      "ect": 3158,
      "27": 3159,
      "ĠÐ¿ÑĢÐµÐ´ÑģÑĤÐ°Ð²ÐµÐ½Ð¸": 3160,
      "ĠÐ¾ÑģÐ¸Ð³ÑĥÑĢÑıÐ²Ð°Ð½Ðµ": 3161,
      "ĠÑĦÐµÐ´Ðµ": 3162,
      "ĠÐ¸Ð·ÑĤÑĬÐºÐ²Ð°": 3163,
      "ÑģÐµÐ½": 3164,
      "ĠÐ¾Ð±Ð¸ÐºÐ½Ð¾": 3165,
      "ĠÐ´Ð²ÐµÑĤÐµ": 3166,
      "Ġ1998": 3167,
      "ĠÐ²ÑĬÐ·Ð½Ð°Ð³ÑĢÐ°": 3168,
      "ĠÑģÐ¾Ð±ÑģÑĤÐ²ÐµÐ½Ð¾ÑģÑĤ": 3169,
      "ĠÐ·Ð°ÐºÐ¾Ð½Ð°": 3170,
      "ĠÐ¾ÑĤÑħÐ²ÑĬÑĢÐ»Ð¸": 3171,
      "Ð·Ð¸ÑĢÐ°Ð½Ðµ": 3172,
      "26": 3173,
      "ĠÐ¿ÑĢÐ¾Ð´Ð°Ð¶Ð±Ð°": 3174,
      "ĠÐ±Ñı": 3175,
      "ĠÑĦÑĥÐ½ÐºÑĨÐ¸Ð¾Ð½Ð¸ÑĢÐ°Ð½ÐµÑĤÐ¾": 3176,
      "Ð½Ð´": 3177,
      "ĠÐ¿ÑĬÑĢÐ²Ð¾Ð½Ð°ÑĩÐ°Ð»": 3178,
      "Ð¾ÑĢÑĬÐ¶": 3179,
      "ĠÐºÐ¾Ð»Ð¾": 3180,
      "ĠÑģÐµÐºÑĢÐµÑĤÐ°": 3181,
      "ĠÐºÑĢÐ¸ÑĤÐµÑĢÐ¸Ð¸ÑĤÐµ": 3182,
      "ĠÑģÑĤÐ¾Ð¼Ð°": 3183,
      "ĠÐ¿ÑĥÐ±Ð»Ð¸ÐºÑĥÐ²Ð°Ð½ÐµÑĤÐ¾": 3184,
      "Ġcar": 3185,
      "ĠÐ¿Ð¾ÑģÑĤÐ°Ð²Ñı": 3186,
      "ale": 3187,
      "ĠÑĢÐ°Ð·Ð³Ð»ÐµÐ¶Ð´Ð°Ð½Ð¸ÑĤÐµ": 3188,
      "ĠÑĢÐµÐ³Ð¸ÑģÑĤÑĢÐ°ÑĨÐ¸Ñı": 3189,
      "ĠÐ³ÐµÐ¾Ð³ÑĢÐ°ÑĦ": 3190,
      "ÑģÐ¿Ð¾ÑģÐ¾Ð±": 3191,
      "ĠÐ¾Ð±ÑħÐ²Ð°ÑīÐ°": 3192,
      "ĠÑĢÐµÐ»ÐµÐ²Ð°Ð½": 3193,
      "ĠÑĩÐ¸Ñģ": 3194,
      "Ð»ÐµÑĤ": 3195,
      "ĠÐ³ÑĢÑĥÐ¿Ð¸": 3196,
      "ug": 3197,
      "Ð·Ð¸ÑĢÐ°Ð½Ð¸": 3198,
      "ĠÐ¿Ð¾Ð»Ð¸ÑĤÐ¸ÐºÐ°": 3199,
      "ÐµÐ²": 3200,
      "ĠÐºÑĥÐ»": 3201,
      "ĠÑģÑĬÐ¼": 3202,
      "ĠÐ¼ÑĢÐµÐ¶Ð°": 3203,
      "Ġgb": 3204,
      "Î»": 3205,
      "ĠÑĢÐ°Ð·Ð³Ð»ÐµÐ¶Ð´Ð°Ð½Ð°ÑĤÐ°": 3206,
      "Ġsmer": 3207,
      "Ð¼ÐµÑģÑĤÐ¸": 3208,
      "ans": 3209,
      "ĠÐ¿ÑĢÐ¾Ð²ÐµÐ¶Ð´Ð°": 3210,
      "ĠÐ¶Ð¸Ð²Ð¾ÑĤÐ½Ð¸ÑĤÐµ": 3211,
      "ĠÐ´Ð¸ÑģÐºÑĢÐ¸Ð¼Ð¸Ð½Ð°": 3212,
      "ĠÐ¾ÑģÑĤÐ°Ð½Ð°Ð»Ð¸": 3213,
      "Ð»ÑıÑĤ": 3214,
      "ĠÐ¿ÑĢÐµÐºÑĢÐ°ÑĤ": 3215,
      "ĠÑģÑĬÐ´ÑĬÑĢÐ¶Ð°Ð½Ð¸ÐµÑĤÐ¾": 3216,
      "ĠÐ¾Ð¿ÑĢÐµÐ´ÐµÐ»ÐµÐ½Ð¾": 3217,
      "Ð¿ÑĬÑĤ": 3218,
      "ĠÐ²ÑĤÐ¾ÑĢÐ¾ÑĤÐ¾": 3219,
      "ĠÐ½Ð°Ð¿ÑĢÐ°Ð²ÐµÐ½Ð¸": 3220,
      "35": 3221,
      "ĠÐ¼Ð°ÑĤÐµÑĢÐ¸Ð°Ð»": 3222,
      "ĠÑĤÑĥ": 3223,
      "Ġeurop": 3224,
      "ÑģÐ¾Ð²Ð¸": 3225,
      "ĠÐ³Ð¾Ð»ÑıÐ¼Ð°": 3226,
      "ĠÐ¾Ð¿ÐµÑĢÐ°ÑĤÐ¸": 3227,
      "ĠÑĨÑıÐ»Ð°ÑĤÐ°": 3228,
      "ĠÐ¿ÑĢÐµÐ´Ð¾ÑģÑĤÐ°Ð²ÐµÐ½Ð¸": 3229,
      "ĠÐ·ÐµÐ»ÐµÐ½": 3230,
      "85": 3231,
      "ÐºÑĥÐ¿": 3232,
      "ĠÐ¼Ð°Ð»ÐºÐ°": 3233,
      "ĠÐ¾ÑĤÐ½Ð°ÑģÑıÑĤ": 3234,
      "ĠÑĥÐ´Ð¾ÑģÑĤÐ¾": 3235,
      "ÑĤÐ¸ÑĢÐ°Ð½Ðµ": 3236,
      "ĠÐ°Ð½ÑĤÐ¸Ð´": 3237,
      "ĠÑĦÑĢÐ°Ð½ÑĨÐ¸Ñı": 3238,
      "Ġam": 3239,
      "ÑĩÐµÑĤÐ°": 3240,
      "ĠÐ´Ð°Ð´ÐµÐ½Ð¾": 3241,
      "Ġmin": 3242,
      "ĠÐ»Ð¸Ð¿ÑģÐ°": 3243,
      "ĠÑĢÐµÐ·ÑĥÐ»ÑĤÐ°ÑĤÐ¸ÑĤÐµ": 3244,
      "ÑģÑĢÐ¾": 3245,
      "ĠÐ¾Ð³ÑĢÐ°Ð½Ð¸ÑĩÐµÐ½Ð¸Ñı": 3246,
      "ĠÑĦÐ°ÐºÑĤÐ°": 3247,
      "ÑĨÐµÐ½Ð¸": 3248,
      "ĠÐ·Ð°Ð¿Ð°": 3249,
      "ĠÐ°Ð½ÑĤÐ¸Ð´ÑĬÐ¼Ð¿Ð¸Ð½": 3250,
      "ĠÑĩÐµÑģÑĤÐ¾": 3251,
      "ĠÐ¾ÑģÐ½Ð¾Ð²Ð½Ð¸": 3252,
      "ĠÑģÐµÐ¼ÐµÐ¸": 3253,
      "ĠÐºÐ¾Ðµ": 3254,
      "Ð»ÑĬ": 3255,
      "ĠÐ¿ÑĢÐ¸ÐµÐ¼Ð°ÑĤ": 3256,
      "Ð¾ÑĤÐ²": 3257,
      "Îº": 3258,
      "ĠÑĤÐµÐ³Ð»Ð¾Ð²Ð½Ð¾": 3259,
      "Ġ125": 3260,
      "ĠÐ¿ÑĢÐµÐ´Ð¾ÑĤÐ²": 3261,
      "ĠÑģÑĤÐ°ÑĤÐ¸ÑģÑĤÐ¸": 3262,
      "ĠÐ¿ÑĢÐµÐ¿Ð¸Ñģ": 3263,
      "Ð¼Ð½Ð¾": 3264,
      "Ð²ÑıÐ²Ð°ÑĤ": 3265,
      "ĠÐ¿ÑĢÐ°Ð²Ð¾Ð¼Ð¾ÑīÐ¸": 3266,
      "ĠÐ´Ð¾Ð¿ÑĥÑģ": 3267,
      "ĠÐ´Ð¾Ð±Ð°Ð²Ñı": 3268,
      "ÐºÑĨÐ¸ÑıÑĤÐ°": 3269,
      "co": 3270,
      "ĠÑĢÐµÐ´Ð°": 3271,
      "Ð¶Ð°Ð²Ð°Ð½Ðµ": 3272,
      "ĠÂ°": 3273,
      "ÑĢÐ½Ð¸Ñı": 3274,
      "Ġsch": 3275,
      "ĠÐ±Ð°Ð»Ð°Ð½": 3276,
      "ĠÐ¿Ð¾ÑģÑĤÐ°": 3277,
      "ĠÐ¿ÑĢÐµÐ´Ð¿Ð¾Ð»Ð°Ð³Ð°": 3278,
      "ĠÐ´Ð¾Ð±ÑĢÐ¾": 3279,
      "Ð¼Ð¿Ðµ": 3280,
      "ĠÐ¿ÑĢÐµÐ¿Ð¾ÑĢÑĬ": 3281,
      "ĠÐµÐ²ÑĢÐ¾Ð¿ÐµÐ¸ÑģÐºÐ°": 3282,
      "ier": 3283,
      "Ġil": 3284,
      "ĠÐ²Ð½Ð¸Ð¼Ð°": 3285,
      "ĠÐ¿Ð¾Ð»Ð·Ð°": 3286,
      "ĠÐ¿ÑĢÐ¾ÑĨÐµÑģ": 3287,
      "ĠÑģÑĬÑģÑĤÐ°Ð²ÐµÐ½Ð¾": 3288,
      "ĠÐ¸ÑĤÐ°Ð»Ð¸Ñı": 3289,
      "ĠÐ¿ÑĢÐµÑģÐ»ÐµÐ´": 3290,
      "ĠÑģÐ¿ÐµÑĨÐ¸ÑĦÐ¸ÑĩÐ½Ð¸": 3291,
      "ĠÐ¿ÑĢÐµÑĢÐ°Ð·Ð³Ð»ÐµÐ¶Ð´Ð°": 3292,
      "ÑĥÐ³Ð°": 3293,
      "Ġlu": 3294,
      "ĠÐ¾ÑĤÐ¼ÐµÐ½Ð¸": 3295,
      "Ð·Ð°Ð´ÑĬÐ»Ð¶": 3296,
      "ĠÐ¿ÐµÑĤ": 3297,
      "ĠÐ¾ÑģÐ¿Ð¾ÑĢÐ²Ð°": 3298,
      "ĠÐ¸Ð·Ð¿ÑĬÐ»Ð½ÑıÐ²Ð°": 3299,
      "ĠÐ½Ð¾ÑĤÐ¸": 3300,
      "Ġon": 3301,
      "ĠÐ´Ð¾Ð¿ÑĥÑģÑĤÐ¸Ð¼Ð¾": 3302,
      "ĠÐ¿ÑĢÐ¸ÑģÐ¿Ð°Ð´Ð°": 3303,
      "44": 3304,
      "ĠÑħÐµ": 3305,
      "ĠÐ¾ÑģÑĤÐ°ÑĤÑĬ": 3306,
      "ech": 3307,
      "ĠÐ¸Ð½ÑģÑĤÑĢÑĥÐ¼ÐµÐ½ÑĤ": 3308,
      "ĠÐ¿Ð¾ÑĤÐ²ÑĬÑĢÐ¶Ð´Ð°": 3309,
      "Ð½ÐµÑģÐµ": 3310,
      "ÑĤÑĬÑĤ": 3311,
      "ĠÐ¼Ð¾Ð»Ð±Ð°": 3312,
      "ĠÐºÐ¾Ð¼Ð¿": 3313,
      "ĠÐºÐ¾Ð½ÑģÑĤ": 3314,
      "ĠÐ¾Ð¿Ð¾Ð²ÐµÑģÑĤ": 3315,
      "ĠÐ³Ð»ÐµÐ´": 3316,
      "ĠÐ³Ð°ÑĢÐ°Ð½ÑĤÐ¸ÑĢÐ°ÑĤ": 3317,
      "ÑģÐ»ÑĥÐ¶": 3318,
      "ĠÐ¸ÑģÐºÐ°Ð½Ð¸Ñı": 3319,
      "ĠÐ´Ð°Ð½ÑĬÑĩÐ½Ð¾Ð·Ð°Ð´ÑĬÐ»Ð¶": 3320,
      "ĠÑĦÐ¸Ð½Ð°Ð½ÑģÐ¸ÑĢÐ°Ð½Ðµ": 3321,
      "36": 3322,
      "ĠÐ¿Ð»Ð°Ð½": 3323,
      "ĠÑģÑĬÐ¾Ð±ÑĢÐ°Ð·": 3324,
      "ÐºÑĤÐ¾ÑĢÐ°": 3325,
      "ĠÐ¿ÑĢÐ¸Ð»Ð¾Ð¶Ð½Ð¾ÑĤÐ¾": 3326,
      "ĠÐ¿Ð¾ÑģÐ»ÐµÐ´Ð½Ð¾": 3327,
      "land": 3328,
      "ger": 3329,
      "ĠÑģÑĬÐ´ÐµÐ±Ð½Ð°ÑĤÐ°": 3330,
      "ĠÑģÑĬÑīÐ¸ÑĤÐµ": 3331,
      "ÑĢÐ¸Ð·": 3332,
      "Ð²ÐµÐ´Ð»Ð¸": 3333,
      "ĠÐ¸Ð·Ð¿ÑĢÐ°ÑīÐ°": 3334,
      "ĠÐ²ÑĬÐ·Ð´ÑĥÑħÐ¾": 3335,
      "ib": 3336,
      "ĠÐ¿Ð¾Ð·Ð¾Ð²Ð°Ð²Ð°": 3337,
      "28": 3338,
      "ĠÑĢÐ°Ð·Ð¿ÑĢÐ¾": 3339,
      "ĠÐ¸Ð·Ð±Ðµ": 3340,
      "ÐºÐ°Ð½Ð¸": 3341,
      "ĠÐºÐ¾Ð½ÑģÑĥ": 3342,
      "95": 3343,
      "ĠÐ½Ð°ÑĩÐ°": 3344,
      "ĠÐ½ÐµÑģ": 3345,
      "ĠÐ¿ÑĢÐ¾Ð³ÑĢÐ°Ð¼Ð°": 3346,
      "ĠÐ¿Ð°Ðº": 3347,
      "ĠÐ´ÐµÑĢÐ¾Ð³Ð°": 3348,
      "ĠÐ¾ÑĤÐ´Ðµ": 3349,
      "Ġpo": 3350,
      "ÑģÐ¸Ð´Ð¸": 3351,
      "ĠÐ¾ÑĨÐµÐ½ÐºÐ°ÑĤÐ°": 3352,
      "ĠÑģÑĬÐ¾ÑĤÐ²ÐµÑĤÐ½Ð¾ÑĤÐ¾": 3353,
      "ĠÐ¿Ð¾ÑģÐ»ÐµÐ´Ð½Ð°ÑĤÐ°": 3354,
      "Ð±Ð¸Ð»": 3355,
      "ĠÐ¾Ð±Ð»Ð°ÑģÑĤ": 3356,
      "ĠÐ¿ÑĢÐ¾ÑĨÐµÐ½ÑĤ": 3357,
      "ĠÐ¸Ð´ÐµÐ½ÑĤÐ¸ÑĦÐ¸ÐºÐ°": 3358,
      "Ġâī": 3359,
      "ĠÐ¼ÐµÑģÐ¾": 3360,
      "Ð½Ð°ÑģÑĤÐ¾Ñı": 3361,
      "ĠÐºÑĢÑĬ": 3362,
      "ĠÑĢÐ°ÑģÑĤ": 3363,
      "ÑĨÐ¸Ð¾Ð½Ð½Ð¸ÑĤÐµ": 3364,
      "Ġab": 3365,
      "Ġca": 3366,
      "ĠÐ¿ÑĢÐµÐ´Ð¿ÑĢÐ¸ÑıÑĤÐ¸ÑıÑĤÐ°": 3367,
      "ek": 3368,
      "ĠÑĢÐµÑĪÐ¸": 3369,
      "ĠÐ²ÑĬÐ·Ð´ÑĥÑħÐ¾Ð¿Ð»Ð°": 3370,
      "Ð·Ð¸Ð½": 3371,
      "Î¼": 3372,
      "ÑĤÑĥÑĢÐ°": 3373,
      "ma": 3374,
      "Ð²ÑĬÐ·": 3375,
      "ank": 3376,
      "ĠÑĦÐ¸Ð½Ð°Ð½ÑģÐ¾Ð²Ð¸ÑĤÐµ": 3377,
      "Ġsol": 3378,
      "ĠÑĢÐ°Ð·ÑĪÐ¸": 3379,
      "ĠÐµÐ½ÐµÑĢÐ³Ð¸Ñı": 3380,
      "ĠÑĤÐµÑħÐ½Ð¾Ð»Ð¾Ð³Ð¸": 3381,
      "ĠÐ´ÑĬÐ¼Ð¿Ð¸Ð½": 3382,
      "ĠÐ¼Ð°ÑĢÐºÐ°ÑĤÐ°": 3383,
      "ĠÑģÐ¿Ð¾ÑĢÐ°Ð·ÑĥÐ¼ÐµÐ½Ð¸Ñı": 3384,
      "ĠÐ¿Ð¾Ð´ÑħÐ¾Ð´ÑıÑīÐ¸": 3385,
      "ĠÑĢÐ°Ð·ÑĢÐµÑĪÐ¸": 3386,
      "ĠÐ½ÐµÐ¾Ð±ÑħÐ¾Ð´Ð¸Ð¼Ð¸ÑĤÐµ": 3387,
      "ĠÑģÐ¾Ð±ÑģÑĤÐ²ÐµÐ½Ð¸": 3388,
      "ĠÐ±ÐµÐ·Ð¾Ð¿Ð°ÑģÐ½Ð¾ÑģÑĤ": 3389,
      "ĠÑģÑĩÐµÑĤÐ¾": 3390,
      "ĠÐ·Ð°Ð±ÑĢÐ°Ð½": 3391,
      "ĠÐ½ÐµÑĥ": 3392,
      "ĠÐºÐ¾Ð½ÑģÑĤÐ°ÑĤÐ°": 3393,
      "Ġ107": 3394,
      "ÑĩÐµÑģÐºÐ¾ÑĤÐ¾": 3395,
      "ĠÐ·Ð°Ð±Ðµ": 3396,
      "Ġcas": 3397,
      "Ġpt": 3398,
      "ĠÐ¸Ð·Ð±ÑĢÐ¾ÐµÐ½Ð¸": 3399,
      "ĠÐºÐ¾ÐµÑĦÐ¸ÑĨÐ¸": 3400,
      "ĠÐ½Ð°Ð¼Ð¸ÑĢÐ°": 3401,
      "ĠÐ¿ÐµÑĢÐ¸Ð¾Ð´Ð¸": 3402,
      "ĠÐºÑĬÑģÐ½Ð¾": 3403,
      "ĠÐºÐ»Ð°Ñģ": 3404,
      "ĠÑģÐ°Ð¼Ð¾ÑģÑĤÐ¾Ñı": 3405,
      "ĠÐ´Ð°Ð²Ð°": 3406,
      "ĠÑĢÐ°ÑģÑĤÐ¸": 3407,
      "ĠÑĢÐµÐ³ÑĥÐ»Ð¸": 3408,
      "ĠÑĤÐµÐ¼Ð¿Ðµ": 3409,
      "ij": 3410,
      "ipo": 3411,
      "ĠÑĢÐµÐ³Ð»Ð°Ð¼ÐµÐ½ÑĤÐ¸": 3412,
      "ĠÑĤÐµÑĢ": 3413,
      "ĠÐ¸Ð·Ñı": 3414,
      "Ð³Ð°Ð½ÐµÑĤÐ¾": 3415,
      "ĠÐ¿ÑĢÐµÐ²Ð¾Ð·Ð½Ð¾": 3416,
      "ÑģÐ¸Ðµ": 3417,
      "ĠÑģÑĩÐ¸ÑĤÐ°ÑĤ": 3418,
      "ĠÐ¿ÑĢÐ¾Ð¼ÐµÐ½": 3419,
      "ĠÑĢÐ°Ð·ÑĤÐ²Ð¾": 3420,
      "ĠÐ³Ð»ÐµÐ´Ð½Ð°": 3421,
      "02": 3422,
      "Ð·Ð¸ÑĤÐµ": 3423,
      "ear": 3424,
      "ĠÐ½Ð°ÑģÑĬÑĢ": 3425,
      "ĠÑĥÐ½Ð³Ð°": 3426,
      "Ġnl": 3427,
      "ĠÑģÑĩÐ¸ÑĤÐ°Ð½Ð¾": 3428,
      "Ġ115": 3429,
      "ĠÐ·ÐµÐ»ÐµÐ½ÑĩÑĥ": 3430,
      "Ð½Ð¾ÑģÑĤÐ¸ÑĤÐµ": 3431,
      "ĠÑĤÐ°ÐºÑģÐ¸": 3432,
      "ĠÐ¿ÑĢÐµÐ´Ñı": 3433,
      "Ð´ÐµÑģÐµ": 3434,
      "ĠÐ¿ÑĢÐ¸ÐµÑĤÐ¸": 3435,
      "ĠÐ·Ð°ÐµÐ´Ð½Ð¾": 3436,
      "ĠÐ»Ð¸ÑĨÐµÑĤÐ¾": 3437,
      "ĠÑģÐµÑĢÐ¸Ð¾": 3438,
      "Ġ020": 3439,
      "ĠÐºÐ°Ð¿Ð¸ÑĤÐ°Ð»": 3440,
      "Ð¼ÑĬ": 3441,
      "ĠÐµÐ¼Ð¸ÑģÐ¸Ð¸": 3442,
      "ÑģÐº": 3443,
      "bh": 3444,
      "ĠÐ½ÐµÐ±": 3445,
      "ĠÑģÑĬÐ¾ÑĢÑĬÐ¶": 3446,
      "ĠÐ¿ÑĢÐ¾Ð¸Ð·Ð²Ð¾Ð´Ð¸ÑĤÐµÐ»": 3447,
      "ĠÐ¾Ð±ÑĢÐ°Ð±Ð¾ÑĤÐºÐ°": 3448,
      "ÑĤÐµÐ¶": 3449,
      "Ð²Ð¾Ð»": 3450,
      "ex": 3451,
      "Ð³Ð¾Ð²Ð¸": 3452,
      "Ð¿ÑĢÐ¾Ð¸Ð·": 3453,
      "ĠÐ¿ÑĢÐ¾Ð¼ÐµÐ½Ð¸": 3454,
      "Ïī": 3455,
      "ĠÐ½Ð°ÑĨÐ¸Ð¾Ð½Ð°Ð»Ð½Ð°ÑĤÐ°": 3456,
      "Ð¿ÑıÑĤ": 3457,
      "ÑĢÐ¾Ð²Ðµ": 3458,
      "ĠÐºÐ¾Ð»Ð¸ÑĩÐµÑģÑĤÐ²Ð¾": 3459,
      "ĠÐ²Ð¸ÑģÐ¾ÐºÐ¾": 3460,
      "01": 3461,
      "ĠÐ¿Ð¾ÑĤÐ¾": 3462,
      "Ð»ÑıÐ²Ð°Ð½ÐµÑĤÐ¾": 3463,
      "ĠÐ¿ÑĢÐ¸ÐµÐ¼Ð°Ð½Ðµ": 3464,
      "ÐµÐ½ÐµÑĢ": 3465,
      "ĠÐ¸Ð·ÑģÐ»Ñĥ": 3466,
      "Ð¸ÑĤÐ°": 3467,
      "ĠÐ³ÑĢÑĥÐ¿Ð°ÑĤÐ°": 3468,
      "ĠÑģÑĬÐ±Ð¸ÑĢÐ°Ð½Ðµ": 3469,
      "ĠÐ¿ÑĢÐ¾Ð¸Ð·Ð²Ð¾Ð´Ð¸ÑĤÐµÐ»Ð¸ÑĤÐµ": 3470,
      "ĠÑĢÐ°Ð½": 3471,
      "Ð°ÑĤ": 3472,
      "ĠÐ¸Ð·Ð²ÑĬÑĢÑĪÐ²Ð°ÑĤ": 3473,
      "49": 3474,
      "ĠÑĥÐ¿ÑĢÐ°Ð¶Ð½ÑıÐ²Ð°": 3475,
      "ĠÐ½Ð¸Ð´ÐµÑĢÐ»Ð°Ð½Ð´Ð¸Ñı": 3476,
      "ĠÐ¸Ð½ÑģÑĤÐ¸ÑĤÑĥÑĨÐ¸Ð¸ÑĤÐµ": 3477,
      "Ġsi": 3478,
      "ĠÐ½ÐµÐ³Ð¾Ð²Ð°ÑĤÐ°": 3479,
      "Ġeuipo": 3480,
      "Ð³Ð°Ð¶Ð¸": 3481,
      "ĠÐ²ÑĢÐµÐ´Ð¸": 3482,
      "ĠÐ¿ÑĬÐ»Ð½Ð¾": 3483,
      "erv": 3484,
      "ĠÑģÐ¿ÑĢÐ°Ð²ÐµÐ´Ð»Ð¸": 3485,
      "ĠÑģÑĬÐ´ÑĬÑĢÐ¶Ð°ÑĤ": 3486,
      "ĠÐ¿ÑĢÐ¸Ð¿Ð¾Ð¼Ð½Ð¸": 3487,
      "ĠÑģÑĤÑĢÐ°Ð½Ð°ÑĤÐ°": 3488,
      "Ð½Ð°Ð´": 3489,
      "ĠÑĨÐµÐ½ÑĤÑĢÐ°Ð»Ð½Ð¸": 3490,
      "Ð²Ð»Ðµ": 3491,
      "ĠÐ¸ÑīÐµ": 3492,
      "ĠÐ·Ð°Ð´ÑĬÐ»Ð¶Ð¸ÑĤÐµÐ»ÐµÐ½": 3493,
      "ĠÑĤÐµÐ¼Ð¿ÐµÑĢÐ°ÑĤÑĥ": 3494,
      "Ġreg": 3495,
      "ĠÐ¿ÑĢÐµÐ´Ð¿ÑĢÐ¸ÐµÐ¼Ð°": 3496,
      "ĠÐ²Ð»Ð°ÐºÐ½Ð°": 3497,
      "ĠÐ¿Ð¾ÑĤÑĢÐµÐ±": 3498,
      "ĠÑģÐ¼ÑıÑĤÐ°": 3499,
      "ĠÑģÑĥÐ±ÑģÐ¸Ð´Ð¸": 3500,
      "Ġapr": 3501,
      "ĠÐ½Ð°Ð·Ð½Ð°": 3502,
      "ĠÐ¼ÑıÑģÑĤÐ¾ÑĤÐ¾": 3503,
      "ĠÐ°Ð½Ð³Ð°Ð¶Ð¸": 3504,
      "ĠÐ¿Ð¾ÑĢÑĤÑĥÐ³Ð°": 3505,
      "Ġ080": 3506,
      "ĠÐ²ÑĬÐ·Ð»Ð°Ð³Ð°": 3507,
      "ĠÑĩÐµÑĤÐ¸": 3508,
      "ĠÑĤÐ°ÑĢÐ¸ÑĦ": 3509,
      "Ġ207": 3510,
      "37": 3511,
      "ĠÐ¸Ð½ÑģÑĤÐ°": 3512,
      "ĠÑĢÐ°Ð·Ð»Ð¸ÑĩÐ½Ð¸ÑĤÐµ": 3513,
      "ez": 3514,
      "ĠÐ¼Ð¾Ð½": 3515,
      "ĠÑĢÐµÑĪÐ°Ð²Ð°": 3516,
      "Ð²Ð¸ÑıÑĤÐ°": 3517,
      "ĠÐ²Ð¸Ð´Ð°": 3518,
      "Ġ030": 3519,
      "Ð´Ð¸Ð¾": 3520,
      "ÑĢÐµÐ½Ð°": 3521,
      "Ð¿Ð°Ð·Ð²Ð°Ð½Ðµ": 3522,
      "ĠÐ¿ÑĢÐ¾ÑĤÐ¾ÐºÐ¾Ð»": 3523,
      "ial": 3524,
      "ĠÐ´ÑĬÑīÐµ": 3525,
      "ĠÑĩÐ¸ÑıÑĤÐ¾": 3526,
      "ĠÐ¾ÑĦÐµ": 3527,
      "ĠÐ¸Ð·Ð¼ÐµÐ½ÐµÐ½Ð¸Ñı": 3528,
      "Ð»Ð¾Ð²": 3529,
      "Ð³ÑĢÐ¸": 3530,
      "ĠÐºÐ¾Ð½ÑģÑĤÐ°ÑĤÐ¸ÑĢÐ°": 3531,
      "ĠÑĩÐ»ÐµÐ½Ð¾Ð²ÐµÑĤÐµ": 3532,
      "se": 3533,
      "ĠÐ½ÐµÐ¿ÑĢÐ°Ð²Ð¸": 3534,
      "ĠÐ´Ð¾ÐºÑĥÐ¼ÐµÐ½ÑĤÐ°": 3535,
      "ĠÑĥÐ¿ÑĢÐ°Ð²": 3536,
      "Ð¾ÑĢÐ´Ð¸": 3537,
      "ĠÐ¼ÐµÑĤÐ¾Ð´Ð¸": 3538,
      "ĠÐ¿ÑĢÐ¾ÑĤÐ¸Ð²Ð¾ÑĢÐµÑĩÐ¸": 3539,
      "ĠÑģÐ²Ð¾Ð±Ð¾Ð´": 3540,
      "ĠÐ´ÐµÐ½Ñı": 3541,
      "ĠÐ¸Ð·ÑĢÐµ": 3542,
      "66": 3543,
      "Ġ112": 3544,
      "ĠÐ¶Ð¸Ð²Ð¾ÑĤÐ¸": 3545,
      "ĠÐ¼Ð¸ÑĤÐ°": 3546,
      "Ġcn": 3547,
      "ĠÐ¿Ð¾ÑģÐ»ÐµÐ´Ð¸": 3548,
      "ĠÐ½Ð°ÑĢÐ¸ÑĩÐ°Ð½Ð¾": 3549,
      "ĠÑģÐ¸Ð½": 3550,
      "ĠÐºÐ¾Ð¾ÑĢÐ´Ð¸": 3551,
      "ĠÐ²ÑģÐ»ÐµÐ´ÑģÑĤÐ²Ð¸Ðµ": 3552,
      "Ġcz": 3553,
      "ĠÐ¾Ð±ÐµÐºÑĤ": 3554,
      "ĠÑĤÑĬÑĢÐ³Ð¾Ð²Ð¸ÑıÑĤÐ°": 3555,
      "Ġ1994": 3556,
      "ĠÐºÐ²Ð¾ÑĤÐ¸": 3557,
      "Ð½Ð°Ð»Ð°": 3558,
      "ÑĦÐ¸ÑĨÐ¸ÑĢÐ°": 3559,
      "ĠÑĥÐ¿ÑĢÐ°Ð²Ð¸": 3560,
      "Ġfin": 3561,
      "ĠÐ¿Ð¾ÑĢÑĬÑĩÐºÐ¸": 3562,
      "Ð³Ð¾Ð²Ð°ÑĢÑı": 3563,
      "ĠÑĩÐ¸ÐµÑĤÐ¾": 3564,
      "ĠÐ¾ÑĤÐºÐ»Ð¾": 3565,
      "Ġ140": 3566,
      "ĠÐ¸Ð·Ð¿ÑĬÐ»Ð½ÐµÐ½Ð¸": 3567,
      "ĠÐ½ÐµÐ·Ð°Ð±Ð°": 3568,
      "Ġec": 3569,
      "ĠÐ´Ð¸ÑģÐ¿Ð¾Ð·Ð¸ÑĤÐ¸": 3570,
      "Ġmt": 3571,
      "ĠÐ°ÐºÑĤÐ°": 3572,
      "ĠÑħÑĢÐ°Ð½Ð¸ÑĤÐµ": 3573,
      "ĠÐ°Ð²ÑĤÐ¾Ð¼Ð°ÑĤÐ¸": 3574,
      "ĠÐ¿ÑĢÐ¾ÑĨÐµÐ´ÑĥÑĢÐ¸ÑĤÐµ": 3575,
      "ĠÐ¿ÑĢÐ¸ÑĩÐ¸Ð½Ð¸": 3576,
      "ĠÐºÑĥÐ»ÑĤÑĥ": 3577,
      "ĠÐ¿ÑĢÐ¾Ð¼Ð¸ÑĪÐ»ÐµÐ½Ð¾ÑģÑĤÑĤÐ°": 3578,
      "ĠÐ½Ð°Ð¼Ð°Ð»": 3579,
      "ĠÑĢÐ°Ð·Ð»Ð¸ÐºÐ°": 3580,
      "Ġprp": 3581,
      "ational": 3582,
      "Ð¼Ð°ÑĨÐ¸Ñı": 3583,
      "Ð²ÐµÐ½Ð¾ÑĤÐ¾": 3584,
      "Ð½ÑıÐ²Ð°ÑĤ": 3585,
      "ÑĨÐ¸Ð¾Ð½Ð½Ð°": 3586,
      "ĠÑģÐ¼ÐµÑģ": 3587,
      "ĠÐ·Ð°ÑıÐ²Ð»ÐµÐ½Ð¸Ðµ": 3588,
      "Ġim": 3589,
      "ĠÐ½Ð°Ð¿ÑĢÐµÐ´": 3590,
      "ĠÑĦÐ¸ÐºÑģÐ¸": 3591,
      "ĠÐ±ÑıÑħÐ°": 3592,
      "Ġ120": 3593,
      "ĠÐºÐ¾Ð»Ð¸ÑĩÐµÑģÑĤÐ²Ð°": 3594,
      "ĠÑĢÐµÐ³ÑĥÐ»Ð°": 3595,
      "ĠÐºÐ¾Ð½Ð²ÐµÐ½ÑĨÐ¸ÑıÑĤÐ°": 3596,
      "ĠÐ½Ð°ÑĢÑĥÑĪÐµÐ½Ð¸Ñı": 3597,
      "ĠÐ¾Ð¿ÐµÑĢÐ°ÑĨÐ¸Ð¸": 3598,
      "Ð½ÑıÐ²Ð°Ð½Ðµ": 3599,
      "ĠÑģÑĩÐµÑĤÐ¾Ð²Ð¾Ð´": 3600,
      "ĠÐ±ÐµÐ»Ð³Ð¸Ñı": 3601,
      "Ð´Ð½Ð¾ÑģÑĤ": 3602,
      "ÑĪÐ½Ð°": 3603,
      "ae": 3604,
      "Ġ105": 3605,
      "ÑĩÐ°Ð²Ð°ÑĤ": 3606,
      "ĠÑģÐ¿Ð¾ÑĢÐ½Ð¾ÑĤÐ¾": 3607,
      "ĠÐ·Ð°ÐµÑĤÐ¾": 3608,
      "ĠÑĦÐ¾ÑĢÐ¼Ð¸": 3609,
      "ĠÐ¿ÑĢÐ°Ð²Ð¾Ð¼Ð¾ÑīÐ¸Ñı": 3610,
      "46": 3611,
      "ĠÐºÐ¾Ð½ÑĤÐµÐºÑģÑĤ": 3612,
      "ÑĤÑĢÐ°": 3613,
      "ĠÐ²ÑĬÐ·Ð¿ÑĢÐ¸": 3614,
      "ĠÐ¾Ð¿ÑĢÐ°Ð²": 3615,
      "ĠÐ¾ÑģÑĬÐ´Ð¸": 3616,
      "ĠÐ¸Ð·ÐºÑĥ": 3617,
      "ĠÐºÑĢÐ°Ñı": 3618,
      "ĠÑĢÐ°Ð·ÑģÐ»ÐµÐ´Ð²Ð°Ð½ÐµÑĤÐ¾": 3619,
      "91": 3620,
      "ĠÐ°Ð´ÑĢÐµÑģ": 3621,
      "ĠÐ·Ð°ÑīÐ¸ÑĤ": 3622,
      "ĠÐ½Ð°ÑĢÐ¸ÑĩÐ°Ð½": 3623,
      "Ð±Ð¾ÑĢÐ°": 3624,
      "ĠÑĤÐµÐºÑģÑĤÐ°": 3625,
      "ĠÑģÑĢÐ°Ð²Ð½ÐµÐ½Ð¸Ðµ": 3626,
      "ment": 3627,
      "ÑĢÑĬÐ¶": 3628,
      "ĠÑĦÐ¸Ð³Ñĥ": 3629,
      "Ġsc": 3630,
      "ĠÐ¿ÑĢÐµÐ´ÑģÑĤÐ°Ð²ÑıÐ½Ðµ": 3631,
      "au": 3632,
      "ĠÐ¿Ð¾ÑģÑĤÐ°Ð½Ð¾Ð²Ð¸": 3633,
      "ĠÑģÐ²Ð¾ÐµÑĤÐ¾": 3634,
      "ĠÐºÐ¾Ð½ÑĤÑĢÐ¾Ð»Ð¸": 3635,
      "ou": 3636,
      "ĠÐºÑĢÐµÐ´Ð¸ÑĤÐ½Ð°": 3637,
      "ĠÐ¿ÑĢÐ¾Ð²ÐµÑĢÐºÐ¸": 3638,
      "ĠÑĨÐµÐ»ÐµÑģÑĬÐ¾Ð±ÑĢÐ°Ð·": 3639,
      "ĠÐ¿ÑĢÐ¾Ñĥ": 3640,
      "ĠÑģÐ¿ÐµÑĨÐ¸Ð°Ð»Ð½Ð¸": 3641,
      "Ð·Ð°Ð³Ð»Ð°": 3642,
      "ica": 3643,
      "47": 3644,
      "Ð²ÑıÐ½Ðµ": 3645,
      "yn": 3646,
      "Ġ150": 3647,
      "Ġhu": 3648,
      "ĠÐ¿Ð°ÑģÐ¸": 3649,
      "ĠÐ¿ÑĢÐµÐ´Ð²Ð¸Ð´ÐµÐ½Ð°": 3650,
      "Ð½ÐºÑĨÐ¸Ñı": 3651,
      "Ð·Ð¸ÑĢÐ°Ð½": 3652,
      "41": 3653,
      "Ġnet": 3654,
      "ĠÐ°Ð¿Ð°ÑĢÐ°ÑĤÐ¸": 3655,
      "ĠÐ¾ÑĤÑĢÐ°Ð·": 3656,
      "ĠÐ·Ð°ÑħÐ°ÑĢ": 3657,
      "ĠÐ½Ð°Ð¿ÑĢÐ°Ð²ÐµÐ½Ð¸ÑĤÐµ": 3658,
      "ies": 3659,
      "ement": 3660,
      "ĠÐ¿Ð¾Ð»ÑĥÑĩÐ°Ð²Ð°": 3661,
      "ĠÐ¸Ð·Ð»Ð¾Ð¶ÐµÐ½Ð¸ÑĤÐµ": 3662,
      "ĠÐ¿ÑĢÐµÑħÐ¾Ð´": 3663,
      "ace": 3664,
      "ĠÑģÐµÐ±Ðµ": 3665,
      "ĠÑħÐ¸Ð´ÑĢÐ¾": 3666,
      "ĠÐ¾ÑĢÐ³Ð°Ð½Ð¸ÑĤÐµ": 3667,
      "ĠÑĥÑģÑĤÑĢÐ¾Ð¸ÑģÑĤÐ²Ð°": 3668,
      "ĠÐµÐ²ÐµÐ½ÑĤÑĥÐ°Ð»Ð½Ð¾": 3669,
      "ĠÐ¾Ð·Ð°Ð³Ð»Ð°": 3670,
      "ann": 3671,
      "ĠÐ¸ÑĢÐ»Ð°Ð½Ð´Ð¸Ñı": 3672,
      "ĠÐ·Ð»Ð¾": 3673,
      "ĠÐ·Ð°ÐºÐ¾Ð½Ð¾Ð´Ð°ÑĤÐµÐ»ÑģÑĤÐ²Ð¾ÑĤÐ¾": 3674,
      "ĠÐ²Ð·ÐµÐ¼Ð°Ð½Ðµ": 3675,
      "ĠÐºÐ¾Ð½ÐºÑĥÑĢÐµÐ½ÑĨÐ¸Ñı": 3676,
      "ĠÑĥÑĢÐµÐ¶Ð´Ð°": 3677,
      "ĠÑģÐµÐ»ÑģÐºÐ¾ÑģÑĤÐ¾Ð¿Ð°": 3678,
      "ĠÐ´ÐµÐºÐ»Ð°ÑĢÐ°ÑĨÐ¸Ñı": 3679,
      "ĠÐ½Ð°Ð´Ð»ÐµÐ¶": 3680,
      "ĠÐ²Ð¸Ð½Ð°": 3681,
      "ĠÐ¾Ð±ÑģÐ»ÑĥÐ¶": 3682,
      "ĠÐ³ÐµÐ½ÐµÑĢÐ°Ð»Ð½Ð¸Ñı": 3683,
      "ĠÐ½Ð¾ÑģÐ¸": 3684,
      "ĠÐ¿ÑĢÐµÐ¼Ð¸": 3685,
      "ĠÐºÐ¾Ð¼Ð¿ÐµÑĤÐµÐ½ÑĤÐ½Ð¸Ñı": 3686,
      "Ð³ÑĬÐ»": 3687,
      "ah": 3688,
      "ĠÐ²Ð°Ð»": 3689,
      "ĠÎ±": 3690,
      "ĠÐ¿ÑĢÐ¾Ð¼ÑıÐ½Ð°": 3691,
      "ĠÑħÐ¸Ð¿Ð¾ÑĤÐµ": 3692,
      "ĠÑĢÐ¸Ð±Ð¾Ð»Ð¾Ð²": 3693,
      "ĠÐ¶ÐµÐ»Ðµ": 3694,
      "ĠÐ³ÑĬÑĢ": 3695,
      "ĠÐ¼Ð°ÑģÐ»Ð¾": 3696,
      "ĠÑĤÑıÑħÐ½Ð°ÑĤÐ°": 3697,
      "Ð¼ÐµÑĤÑĢÐ¸": 3698,
      "ĠÐ²Ð»Ð°ÑģÑĤÐ¸": 3699,
      "ÑĢÐ¸ÑĨÐ°": 3700,
      "88": 3701,
      "ĠÐ²Ð»Ð¸Ð·Ð°Ð½Ðµ": 3702,
      "ÑģÑĤÑĢÑĥÐºÑĤÑĥ": 3703,
      "ĠÐ¿ÑĢÐ°Ð²Ð½Ð°ÑĤÐ°": 3704,
      "ĠÐ¿Ð¾Ð»ÑĥÑĩÐ°Ð²Ð°Ð½Ðµ": 3705,
      "Ġgmbh": 3706,
      "ĠÑĢÐµÑĪÐµÐ½Ð¸ÑıÑĤÐ°": 3707,
      "ep": 3708,
      "ĠÐ¼ÐµÐ½": 3709,
      "ĠÐ²ÑĬÐ·Ð½Ð¸Ðº": 3710,
      "ach": 3711,
      "200": 3712,
      "Ġgro": 3713,
      "ĠÐ¸Ð·ÑĢÐµÑĩÐµÐ½Ð¸Ðµ": 3714,
      "ĠÐ³ÑĢÐ°Ð¶Ð´Ð°Ð½Ð¸Ð½": 3715,
      "ĠÐ²Ð»Ð¸Ñı": 3716,
      "ĠÐ½Ð°ÑĨÐ¸Ð¾Ð½Ð°Ð»Ð½Ð¾": 3717,
      "ÅĤ": 3718,
      "ĠÐ¿ÑĢÐµÐ´Ð¾ÑģÑĤÐ°Ð²ÐµÐ½Ð°": 3719,
      "ĠÐºÐ°ÑĤÐµÐ³Ð¾ÑĢÐ¸Ð¸": 3720,
      "ĠÐ¼ÐµÐ´Ð¸ÑĨÐ¸": 3721,
      "ĠÐ¸Ð·Ð¸ÑģÐºÐ²Ð°Ð½Ðµ": 3722,
      "ĠÐ¼Ð¾Ð¼ÐµÐ½ÑĤ": 3723,
      "ĠÐ¾Ð¿ÑĢÐ°Ð²Ð´Ð°": 3724,
      "to": 3725,
      "ĠÑģÐµÐ´": 3726,
      "Ð½Ð°ÑĤÐ¾": 3727,
      "ĠÐ½Ð°Ð´Ð²Ð¸ÑĪÐ°Ð²Ð°": 3728,
      "ĠÐ¿ÑĢÐ¸ÑģÑĬÐµÐ´Ð¸Ð½": 3729,
      "Ð»Ð¾Ð¶Ð¸": 3730,
      "ĠÑģÐ´ÐµÐ»ÐºÐ¸": 3731,
      "ĠÐ¸Ð·Ð»Ð¾Ð¶ÐµÐ½Ð¸": 3732,
      "Ð±ÑĥÑĢ": 3733,
      "ĠÐ¿ÑĢÐ¾Ð¸Ð·Ð²Ð¾Ð´Ð¸ÑĤÐµÐ»Ñı": 3734,
      "ĠÐµÐºÑģÐ¿Ðµ": 3735,
      "ÑģÑĤÐ¾Ð¸ÑĩÐ¸": 3736,
      "ĠÐ¿ÑĢÐµÑģÑĤÑĢÑĥÐºÑĤÑĥ": 3737,
      "Ġfi": 3738,
      "ĠÐ¶Ð¸Ð²Ð¾ÑĤÐ¸Ð½ÑģÐºÐ¸": 3739,
      "Ð¾ÑĤÐ½Ð¾": 3740,
      "ĠÐ°ÑĢÑĤÐ¸": 3741,
      "Ġdel": 3742,
      "ĠÐ¸Ð·Ð²Ð¾Ð´": 3743,
      "ĠÐºÐ¾ÑĢÐ°Ð±Ð¸": 3744,
      "ÐºÑĬÑģ": 3745,
      "Ġ108": 3746,
      "ĠÐºÐ½Ð¸Ð¶Ð°": 3747,
      "Ġdes": 3748,
      "Ð¼Ð¾ÑģÑĤ": 3749,
      "Ð¿Ð¿": 3750,
      "ĠÐ°Ð±": 3751,
      "ĠÐ±ÑĢÐ¾Ñı": 3752,
      "ĠÐ¿ÑĢÐ¸Ð½ÑĨÐ¸Ð¿Ð¸ÑĤÐµ": 3753,
      "Ġ300": 3754,
      "ĠÑĨÐ¸ÑĦ": 3755,
      "ĠÐ¾Ð±ÑĥÑĩÐµÐ½Ð¸Ðµ": 3756,
      "ĠÐ²ÑĬÐ·Ð´ÐµÐ¸ÑģÑĤÐ²Ð¸Ðµ": 3757,
      "ĠÐ¾ÑĤÑĢÐ¸ÑĨÐ°": 3758,
      "ÐµÐ½ÑĤ": 3759,
      "ĠÑĤÐ¸Ð¿Ð°": 3760,
      "ĠÐ¼Ð¾Ð³Ð»Ð¾": 3761,
      "Ð¶Ð´Ð¸": 3762,
      "Ð·Ðµ": 3763,
      "Ġzz": 3764,
      "ĠâĢ²": 3765,
      "Ð¼Ð¸Ð½": 3766,
      "ĠÐ¿Ð¾ÑĤÐµÐ½": 3767,
      "ĠÐ¾ÑĢÐ³Ð°Ð½Ð¸Ð·Ð°ÑĨÐ¸Ð¸": 3768,
      "end": 3769,
      "ĠÐ²Ð¿Ð¾": 3770,
      "ĠÐ¿ÑĬÑĢÐ²Ð¾Ð¸Ð½ÑģÑĤÐ°Ð½ÑĨÐ¸Ð¾Ð½Ð½Ð¸Ñı": 3771,
      "ĠÑģÐ²Ð¾Ð±Ð¾Ð´Ð½Ð¾": 3772,
      "ĠÑĦÐ¸Ð½Ð°Ð½ÑģÐ¾Ð²Ð°": 3773,
      "Ġ106": 3774,
      "ĠÐ´Ð¾ÐºÐ°Ð¶Ðµ": 3775,
      "ĠÐ¿ÑĢÐµÑĨÐµÐ½Ð¸": 3776,
      "ĠÐ´Ð¾ÑģÑĤÐ¸": 3777,
      "Ġsh": 3778,
      "ver": 3779,
      "ĠÑģÑĤÐ°Ð½Ð¾Ð²Ð¸ÑīÐ°": 3780,
      "ĠÐºÐ¾Ð´Ð¾Ð²Ðµ": 3781,
      "ĠÐ´Ð¾Ð¿ÑĬÐ»Ð½Ð¸ÑĤÐµÐ»Ð½Ð°": 3782,
      "ĠÐ²Ð¿Ð¾ÑģÐ»ÐµÐ´ÑģÑĤÐ²Ð¸Ðµ": 3783,
      "ĠÐ¾Ð±Ð»Ð°Ð³Ð°": 3784,
      "Ð±ÑĥÑĢÐ³": 3785,
      "Ġver": 3786,
      "ĠÑĢÐ¸Ð±Ð°": 3787,
      "Î¿Ïħ": 3788,
      "05": 3789,
      "ĠÐ²ÑĬÐ·Ð»Ð°Ð³Ð°Ð½Ðµ": 3790,
      "Ġ103": 3791,
      "ice": 3792,
      "ĠÐ´ÐµÐºÐ»Ð°ÑĢÐ°": 3793,
      "Ð²Ð°Ð»ÐµÐ½": 3794,
      "Ġkr": 3795,
      "Ð¼ÑıÐ½Ð°ÑĤÐ°": 3796,
      "ĠÐ¿Ð¾ÑĤÐµÐ½ÑĨÐ¸": 3797,
      "ance": 3798,
      "ÑĪÐ½Ð¸ÑĤÐµ": 3799,
      "ĠÐ¿ÑĢÐµÐ´Ð²Ð¸Ð´ÐµÐ½Ð¸ÑĤÐµ": 3800,
      "ĠÐ·Ð°ÑıÐ²Ð»ÐµÐ½Ð¸ÐµÑĤÐ¾": 3801,
      "ĠÐ¿Ð»Ð°ÑīÐ°Ð½Ð¸Ñı": 3802,
      "ĠÐ½Ð°ÐºÑĢÐ°": 3803,
      "ĠÐ¿ÑĢÐ¸Ð½Ð°Ð´": 3804,
      "Ġ500": 3805,
      "Ġvan": 3806,
      "ĠÑĩÐ¾Ð²ÐµÐºÐ°": 3807,
      "ĠÐ´Ð¾ÑģÑĤÐ°Ð²ÐºÐ°": 3808,
      "Ġq": 3809,
      "Ġlv": 3810,
      "ĠÐ²Ð½Ð¸Ð¼Ð°Ð½Ð¸Ðµ": 3811,
      "ĠÐ¿ÑĢÐµÐ²Ð¾Ð·Ð²Ð°": 3812,
      "ĠÎ¼": 3813,
      "ĠÑģÐ¿Ð¾Ð¼ÐµÐ½Ð°": 3814,
      "ÑĪÐºÐ¸": 3815,
      "sm": 3816,
      "ĠÐ¸Ð·Ð¿Ð¸ÑĤÐ²Ð°Ð½ÐµÑĤÐ¾": 3817,
      "ĠÐµÐ»ÐµÐºÑĤÑĢÐ¾ÐµÐ½ÐµÑĢ": 3818,
      "ÑĤÐ¾ÑĢÐ½Ð¸": 3819,
      "ÑĢÐ°Ð±Ð¾": 3820,
      "ÑĢÐ½Ð¸ÑĤÐµ": 3821,
      "ĠÑģÑĬÐ´ÐµÐ±ÐµÐ½": 3822,
      "ÑĢÐ°Ð²Ð½Ð¸": 3823,
      "ĠÐºÐ¾Ð¼Ð¿ÐµÐ½": 3824,
      "ĠÐ¸Ð·Ð³Ð»ÐµÐ¶Ð´Ð°": 3825,
      "ĠÑģÑĥÐ¼Ð°ÑĤÐ°": 3826,
      "ĠÐ³Ð¾ÑĢÐ¸Ð²Ð¾": 3827,
      "ĠÐ²Ð½Ð¾ÑģÐ¸": 3828,
      "ĠÐ´Ð¾Ð³Ð¾Ð²Ð°ÑĢÑı": 3829,
      "ĠÑģÐ²Ð¾Ð±Ð¾Ð´Ð°": 3830,
      "ĠÐ´Ð¸ÑģÐºÑĢÐ¸Ð¼Ð¸Ð½Ð°ÑĨÐ¸Ñı": 3831,
      "ĠÐ³Ð°Ð·Ð¾Ð²Ðµ": 3832,
      "ÑģÑĤÑĬÑĢ": 3833,
      "ĠÐ·Ð°Ð³ÑĥÐ±Ð¸": 3834,
      "32": 3835,
      "anc": 3836,
      "ĠÐ·Ð°Ð´ÑĬÑĢÐ¶Ð°": 3837,
      "ÑģÐ¸ÑĤÐµ": 3838,
      "ÑĤÐµÑĢÐ¸Ð½Ð°": 3839,
      "ĠÐ¿ÑĢÐµÐ´Ð¾ÑĤÐ²ÑĢÐ°ÑĤ": 3840,
      "ĠÑģÐ¿Ð°Ð·Ð²Ð°Ð½Ðµ": 3841,
      "ĠÐ¿ÑĢÐ°Ð²Ð¸Ð»Ð½Ð¸": 3842,
      "58": 3843,
      "98": 3844,
      "Ġ1996": 3845,
      "Ð¿Ð°Ð´Ð°ÑĤ": 3846,
      "ĠÐ¿ÑĢÐ¾ÑģÑĤÑĢÐ°Ð½": 3847,
      "ĠÐ¿Ð»Ð°ÑĤ": 3848,
      "ĠÐ²ÐµÑĤÐµÑĢÐ¸Ð½Ð°": 3849,
      "ĠÐ¿Ð¾Ð´Ð¾Ð±Ð½Ð¾": 3850,
      "Ð»ÐµÐ½Ð¸Ñı": 3851,
      "ĠÐ¿ÑĢÐµÐ´ÑģÑĤÐ°Ð²ÑıÑĤ": 3852,
      "ĠÐ»Ð¸Ñģ": 3853,
      "ĠÐ¿Ð¾Ð´Ð¿Ð¾Ð¼Ð°Ð³Ð°Ð½Ðµ": 3854,
      "ĠÐ´Ð¾ÑħÐ¾Ð´Ð¸": 3855,
      "tr": 3856,
      "ĠÐ¾Ð±Ð¼ÐµÐ½": 3857,
      "ĠÐ½Ð°ÐºÑĢÐ°Ñı": 3858,
      "ĠÐ¾ÑĤÐ½Ð¾ÑģÐ¸": 3859,
      "ao": 3860,
      "ÑĤÐ¾ÑĢÐ°": 3861,
      "ĠÐµÐ½ÐµÑĢÐ³Ð¸": 3862,
      "ĠÐ²ÑĤÐ¾ÑĢÐ¸Ñı": 3863,
      "ĠÑĦÐ°ÐºÑĤ": 3864,
      "Ġhr": 3865,
      "ÐºÐ²Ð¸Ð²Ð°Ð»ÐµÐ½": 3866,
      "Ð½Ð¾Ð²Ðµ": 3867,
      "Ġcy": 3868,
      "Ð°Ð»Ð½Ð¸Ñı": 3869,
      "ĠÐ²ÑĢÐµÐ´Ð°": 3870,
      "ĠÑģÐ»Ð°": 3871,
      "ĠÑĢÐ°Ð·Ð³Ð»ÐµÐ¶Ð´Ð°Ð½Ðµ": 3872,
      "ĠÐ¿ÑĤÐ¸ÑĨÐ¸": 3873,
      "ĠÐºÐ¾Ð¼Ð±Ð¸Ð½Ð¸": 3874,
      "ÑĦÐ¸Ð½Ð¸": 3875,
      "ÑĨÐ¸Ð¾Ð½Ð°": 3876,
      "ĠÐ¾ÑģÑĤÐ°Ð½Ð°Ð»Ð¸ÑĤÐµ": 3877,
      "ĠÑģÐ¿Ð¾ÑģÐ¾Ð±": 3878,
      "Ġmg": 3879,
      "ĠÐ½ÐµÐ·Ð°Ð±Ð°Ð²Ð½Ð¾": 3880,
      "ÑĩÐµÐ½Ð¸ÑĤÐµ": 3881,
      "ĠÐ¿Ð¾Ð¿ÑĢÐ°": 3882,
      "ĠÐ¸Ð·Ð²ÑĬÑĢÑĪÐ²Ð°Ð½Ðµ": 3883,
      "ĠÐ¾Ð±ÑīÐ¾ÑĤÐ¾": 3884,
      "ĠÐºÐ¾Ð½ÑģÑĥÐ¼Ð°ÑĨÐ¸Ñı": 3885,
      "ÑĨÐ±": 3886,
      "ĠÐ°ÐºÑĤÑĥ": 3887,
      "ĠÐ²ÑĬÐ³Ð»Ðµ": 3888,
      "ÑĢÐ°Ð»Ð¸": 3889,
      "ĠÐ²ÑĬÐ·ÑĢÐ°ÑģÑĤ": 3890,
      "Ġau": 3891,
      "ĠÑĥÐ½Ð¸": 3892,
      "ĠÐ·Ð½Ð°ÑĩÐ¸ÑĤÐµÐ»Ð½Ð¾": 3893,
      "ĠÐ½Ð°Ð¿ÑĬÐ»Ð½Ð¾": 3894,
      "ĠÐ´ÐµÑĤÐµ": 3895,
      "ÑĮÐ¾": 3896,
      "ĠÐ¿Ð¾ÑĤÑĢÐµÐ±Ð¸ÑĤÐµÐ»": 3897,
      "ÐºÐ°Ð½": 3898,
      "ĠÐ°ÑģÐ¿Ðµ": 3899,
      "ÐºÐ¾ÑħÐ¾": 3900,
      "ok": 3901,
      "Ġind": 3902,
      "ĠÐ¿ÑĢÐ¸ÑħÐ¾Ð´Ð¸": 3903,
      "ÑĩÐ²Ð°Ð½Ðµ": 3904,
      "ĠÑĢÐ°Ð±Ð¾ÑĤÐ¸": 3905,
      "ĠÑģÐµÐºÑĤÐ¾ÑĢÐ°": 3906,
      "ÑĦÐ¸ÑĨÐ¸ÑĢÐ°Ð½Ðµ": 3907,
      "Ð²Ð¸Ð·Ð¸": 3908,
      "ĠÐ¿Ð¾Ð»Ð¾Ð¶ÐµÐ½Ð¸ÐµÑĤÐ¾": 3909,
      "ÑĢÐ¸Ð´": 3910,
      "ĠÑĥÑģÑĤÑĢÐ¾Ð¸ÑģÑĤÐ²Ð¾": 3911,
      "eb": 3912,
      "75": 3913,
      "ĠÐ¿Ð¾Ð²Ð¸": 3914,
      "ĠÐ¿ÑĢÐ¾Ð³ÑĢÐ°Ð¼Ð¸": 3915,
      "ĠÑĩÐµÑĤÐ¸ÑĢÐ¸": 3916,
      "ĠÐµÑĤÐ¸ÐºÐµ": 3917,
      "Ġ1995": 3918,
      "Ð½ÐµÑĤ": 3919,
      "ĠÐµÐºÐ²Ð¸Ð²Ð°Ð»ÐµÐ½": 3920,
      "ĠÐ´ÐµÐ¸Ð½Ð¾ÑģÑĤÐ¸ÑĤÐµ": 3921,
      "Ġinc": 3922,
      "ÑħÐ¾Ð´Ð°": 3923,
      "Ð¼Ð¾Ñī": 3924,
      "ĠÐ»ÐµÑĤÐ¸": 3925,
      "ĠÐ¸Ð·Ð´Ð°Ð²Ð°Ð½Ðµ": 3926,
      "ĠÑĥÐ¿ÑĢÐ°Ð¶Ð½ÑıÐ²Ð°Ð½ÐµÑĤÐ¾": 3927,
      "yd": 3928,
      "ĠÐ¾Ð±ÑħÐ²Ð°": 3929,
      "Ð»Ð¾Ð¶ÐµÐ½Ð¸": 3930,
      "ÑĤÐ¾Ð²Ð°ÑĢ": 3931,
      "ĠÐºÑĢÐ°ÑĤ": 3932,
      "ĠÐ²ÑĬÐ²ÐµÐ´": 3933,
      "ĠÐ·ÐµÐ¼ÐµÐ´ÐµÐ»ÑģÐºÐ¸": 3934,
      "ĠÐ¼Ð¾ÑĤÐ¸Ð²Ð¸ÑĤÐµ": 3935,
      "ĠÐ¿Ð¾ÑģÐ»ÐµÐ´Ð½Ð¸ÑĤÐµ": 3936,
      "ĠÐ¾Ð±ÑĢÐ°ÑĤÐ½Ð¾": 3937,
      "ina": 3938,
      "ĠÐ¿ÑĢÐ¾ÐµÐºÑĤ": 3939,
      "ĠÑģÑĬÑħÑĢÐ°Ð½": 3940,
      "ĠÑģÐ±Ð¾ÑĢ": 3941,
      "ĠÐ²ÑĢÐµÐ¼ÐµÑĤÐ¾": 3942,
      "ĠÑĦÐ°Ð·Ð°": 3943,
      "ĠÐºÐ°Ð¿Ð°ÑĨÐ¸ÑĤÐµÑĤ": 3944,
      "ÑĩÐ°Ð²Ð°Ð½ÐµÑĤÐ¾": 3945,
      "ĠÐ±ÐµÐ·Ð¾Ð¿Ð°ÑģÐ½Ð¾ÑģÑĤÑĤÐ°": 3946,
      "ÐºÑĢÐ¾": 3947,
      "ĠÐ²ÑģÑĤÑĬÐ¿Ð¸": 3948,
      "ĠÑĩÐ°ÑģÑĤÐ¸ÑĩÐ½Ð¾": 3949,
      "ĠÐ¾ÑģÐ½Ð¾Ð²Ð°ÑĤÐ°": 3950,
      "ĠÐµÐ¼Ð¸ÑģÐ¸Ð¸ÑĤÐµ": 3951,
      "Ð·ÐµÐ¼": 3952,
      "ĠÐ½ÐµÐ¾Ð±ÑħÐ¾Ð´Ð¸Ð¼Ð¾ÑģÑĤ": 3953,
      "ÑģÑĤÐ²Ð°Ð½Ðµ": 3954,
      "ĠÑĥÑĤÐ¾ÑĩÐ½ÑıÐ²Ð°": 3955,
      "Ð²Ð»ÐµÐ½Ð¸Ñı": 3956,
      "ĠÐ·Ð°Ð¿Ð¸Ñģ": 3957,
      "ÑĢÑıÐ²Ð°Ð½ÐµÑĤÐ¾": 3958,
      "ein": 3959,
      "ĠÑģÐ»ÐµÐ´Ð½Ð¸Ñı": 3960,
      "ĠÑĩÐ°ÑģÑĤÑĤÐ°": 3961,
      "ÑĩÐµÑĢ": 3962,
      "ĠÑģÐ»ÑĥÐ¶Ð¸ÑĤÐµÐ»Ð¸": 3963,
      "ĠÑĩÐµÑĢ": 3964,
      "ĠÐ¿ÑĢÐµÑħÐ²ÑĬÑĢÐ»ÑıÐ½Ðµ": 3965,
      "ĠÐ´ÐµÐ»ÐµÐ³Ð¸ÑĢÐ°Ð½": 3966,
      "ĠÐ½Ð¾ÑĢ": 3967,
      "ĠÐ´Ð°Ð´Ðµ": 3968,
      "ĠÐ¿ÑĢÐ°Ð²Ð¸Ð»Ð½Ð¸ÐºÐ°": 3969,
      "ĠÐ¸Ð·ÑĩÐ¸ÑģÐ»ÑıÐ²Ð°Ð½Ðµ": 3970,
      "ĠÐ´Ð¾Ð²Ð¾Ð´Ð¸ÑĤÐµ": 3971,
      "ÑħÐ¾Ð¶Ð´Ð°": 3972,
      "ĠÑĥÑģÑĤÐ¾Ð¸ÑĩÐ¸": 3973,
      "ĠÑĢÐ°Ð·ÑĢÐ°Ð±Ð¾ÑĤ": 3974,
      "ĠÐ°Ð½Ð°Ð»Ð¾Ð³Ð¸": 3975,
      "Ġdk": 3976,
      "Ġ1997": 3977,
      "ĠÑĦÐ¾Ð½Ð´": 3978,
      "Ð¸ÑģÐºÐ¾": 3979,
      "ĠÐ½Ð°Ð´Ð»ÐµÐ¶Ð½Ð¾": 3980,
      "ĠÐµÐ»ÐµÐ¼ÐµÐ½ÑĤ": 3981,
      "ÐµÐºÑĤÐ°": 3982,
      "ÐºÐ¾Ð»Ð¾Ð³Ð¸": 3983,
      "act": 3984,
      "ĠÐ¸Ð·Ð¾Ð±": 3985,
      "Ġ1510": 3986,
      "ĠÑģÑĬÐ³Ð»Ð°ÑģÑĥ": 3987,
      "ĠÐ¿ÑĢÐ°ÐºÑĤÐ¸ÐºÐ°ÑĤÐ°": 3988,
      "65": 3989,
      "ĠÐºÐ¾ÑĢÐ¸Ð³Ð¸": 3990,
      "ĠÐ¾Ð¿ÑĢÐµÐ´ÐµÐ»ÐµÐ½Ð¸ÐµÑĤÐ¾": 3991,
      "ĠÐ¿Ð¾ÑĢÑĬÑĩÐºÐ°": 3992,
      "ĠÐ¿Ð¾ÐºÑĢÐ¸ÑĤÐ¸": 3993,
      "ĠÑģÑĥÐ¼Ð¸": 3994,
      "ĠÐ¾Ð³ÑĢÐ°Ð½Ð¸ÑĩÐ¸": 3995,
      "ĠÑģÐ²ÑĬÑĢÐ·Ð°Ð½Ð°": 3996,
      "ĠÑģÑĬÐ´Ð¸Ð»Ð¸": 3997,
      "ĠÐ¼Ð°ÐºÑģÐ¸Ð¼Ð°Ð»Ð½Ð°": 3998,
      "ĠÐ¿Ð¾Ð²ÑĤÐ¾ÑĢ": 3999,
      "71": 4000,
      "ĠÐ¿Ð¾Ð»ÑĪÐ°": 4001,
      "62": 4002,
      "ĠÑģÐµÐ´Ð°": 4003,
      "ĠÐ¾Ð´Ð¸": 4004,
      "ĠÐ´Ð°Ð½ÑĬÐºÐ°": 4005,
      "ĠÑĢÐ°Ð±Ð¾ÑĤÐ¾": 4006,
      "ĠÐ¸Ð·Ð¸ÑģÐºÐ²Ð°Ð½ÐµÑĤÐ¾": 4007,
      "ÑĢÐ°Ð»ÐµÐ½": 4008,
      "ĠÑĤÐµÐºÑģÑĤÐ¸": 4009,
      "ĠÑģÐ¿Ð°Ð·Ð²Ð°Ð½ÐµÑĤÐ¾": 4010,
      "ĠÐ·ÐµÐ»ÐµÐ½ÑĩÑĥÑĨÐ¸": 4011,
      "ĠÑĥÑĩ": 4012,
      "ĠÐ¿ÑĢÐµÑĤÐµÐ½": 4013,
      "ĠÑĦÐ°ÐºÑĤÐ¸ÑĤÐµ": 4014,
      "ĠÐ¿ÑĢÐ¾ÑĨÐµÐ´ÑĥÑĢÐ½Ð¸Ñı": 4015,
      "ĠÐ½ÐµÐ¾Ð±ÑħÐ¾Ð´Ð¸Ð¼Ð¾ÑģÑĤÑĤÐ°": 4016,
      "ĠÑĢÐ°Ð·Ð»Ð¸ÑĩÐ½Ð°": 4017,
      "our": 4018,
      "ĠÐ±Ð°Ð·Ð°ÑĤÐ°": 4019,
      "ĠÑĥÐ±Ðµ": 4020,
      "ÐºÐ°Ð¶Ðµ": 4021,
      "Ð´ÐµÑģÑĤÑĢÐ°Ð½": 4022,
      "ĠÐ°ÑĢÑĤÐ¸ÐºÑĥ": 4023,
      "Ð³Ð¾ÑĤÐ¾": 4024,
      "ĠÐ½Ð¾Ð²Ð¾": 4025,
      "ĠÐ·Ð´ÑĢÐ°Ð²ÐµÑĤÐ¾": 4026,
      "ĠÐ°Ð´Ð°": 4027,
      "Ð½Ð¾Ð²Ð°": 4028,
      "ĠÑĩÑĥÐ¶Ð´ÐµÑģÑĤÑĢÐ°Ð½": 4029,
      "ĠÑģÑĬÐ²Ð¼ÐµÑģÑĤÐ¸Ð¼Ð¾": 4030,
      "Ġ102": 4031,
      "ĠÐ´Ð¸ÑĢÐµÐºÑĤ": 4032,
      "ĠÐ´Ð¸Ð·Ð°": 4033,
      "Ð²ÑĬÑĢÑħ": 4034,
      "ric": 4035,
      "ĠÐºÐ¾Ð¼Ð¸ÑĤÐµÑĤÐ°": 4036,
      "ÑĥÐ¿Ð¾ÑĤÑĢÐµ": 4037,
      "ĠÐ¿ÑĢÐ°ÐºÑĤÐ¸ÐºÐ¸": 4038,
      "ÑģÑĤÑĢÐ¸Ñı": 4039,
      "ĠÐ·Ð°Ð¼ÑĢÐ°Ð·": 4040,
      "ĠÐ°ÑģÐ¾": 4041,
      "Ð²ÑĬÑĢÐ·": 4042,
      "ÑĢÑıÐ²Ð°ÑĤ": 4043,
      "ĠÐ¿Ð¾Ð²ÑĬÑĢÑħ": 4044,
      "ĠÐ¿ÑĢÐ¾Ð±": 4045,
      "ÑĢÐ°ÑģÑĤÑĢÑĥÐºÑĤÑĥ": 4046,
      "ĠÐ·Ð°Ð»Ð¸": 4047,
      "ĠÑģÐ²ÐµÑĤÐ»Ð¸": 4048,
      "ĠÐ¿ÑĥÐ±Ð»Ð¸ÑĩÐ½Ð¾": 4049,
      "ĠÐ·ÑĬÑĢ": 4050,
      "ĠÐ¸Ð½ÑĦÑĢÐ°ÑģÑĤÑĢÑĥÐºÑĤÑĥ": 4051,
      "ĠÐ¿ÑĢÐ¾ÑĤÐ¾ÐºÐ¾": 4052,
      "ĠÑģÐ²Ð¾Ð±Ð¾Ð´Ð½Ð¾ÑĤÐ¾": 4053,
      "ĠÐ°Ð´Ð°Ð¿": 4054,
      "ĠÑĥÐ»Ðµ": 4055,
      "ĠÐ¾ÑĤÐ³Ð»ÐµÐ¶Ð´Ð°": 4056,
      "ult": 4057,
      "ĠÐ±Ð°Ð½ÐºÐ¸": 4058,
      "Ð»Ð°ÑĨÐ¸Ñı": 4059,
      "ĠÐ¸ÐºÐ¾Ð½Ð¾Ð¼Ð¸ÑĩÐµÑģÐºÐ°": 4060,
      "Ð²Ð°Ð½Ð¾ÑĤÐ¾": 4061,
      "Ð»Ð½Ð°ÑĤÐ°": 4062,
      "ĠÐ·Ð»Ð¾ÑĥÐ¿Ð¾ÑĤÑĢÐµ": 4063,
      "ĠÐ¿Ð¾Ð¼Ðµ": 4064,
      "Ġru": 4065,
      "Ġkm": 4066,
      "ĠÐ¿Ð°Ð·Ð°ÑĢÐ¸": 4067,
      "ÐºÐ¾Ð²ÐµÑĤÐµ": 4068,
      "ĠÐ¾ÑĢÐ³Ð°Ð½Ð¸Ð·Ð°ÑĨÐ¸ÑıÑĤÐ°": 4069,
      "ĠÐ¾ÑĤÑģÑĤÑĢÐ°Ð½": 4070,
      "ÑĩÐµÐ½Ð¸Ñı": 4071,
      "ĠÐ²ÑĢÐµÐ¼ÐµÐ½Ð½Ð¾": 4072,
      "ĠÐ¾Ð¿ÑĢÐµÐ´ÐµÐ»ÐµÐ½Ð¸Ñı": 4073,
      "ĠÐ¿ÑĢÐ¾Ð¸Ð·ÑĤÐ¸ÑĩÐ°ÑīÐ¸": 4074,
      "ĠÑģÑĬÑģÑĤÐ¾Ð¸": 4075,
      "ĠÐ½Ð°Ð±Ð»ÑİÐ´": 4076,
      "ĠÐ¾ÐºÐ¾Ð½ÑĩÐ°ÑĤÐµÐ»Ð½Ð¾": 4077,
      "ĠÐºÐ¾ÑĢ": 4078,
      "ĠÐ°Ð²ÑĤÐ¾Ð¼Ð¾": 4079,
      "ĠÐ¾Ð±ÑģÑĤÐ¾ÑıÑĤÐµÐ»ÑģÑĤÐ²Ð°ÑĤÐ°": 4080,
      "ĠÐ¿Ð¾Ð·Ð¾Ð²Ð°Ð²Ð°Ð½Ðµ": 4081,
      "43": 4082,
      "Ġeurope": 4083,
      "ĠÐ¿Ð¾Ð´Ð°Ð²Ð°": 4084,
      "ĠÐ¼ÐµÑĤÐ¸Ð»": 4085,
      "ÑīÐµÐ¼": 4086,
      "Ġintern": 4087,
      "Ð·ÑĢÐ°": 4088,
      "67": 4089,
      "ĠÐ¾Ð±ÑıÑģ": 4090,
      "ĠÑĢÐ°Ð±Ð¾ÑĤÐ½Ð¸ÑĨÐ¸ÑĤÐµ": 4091,
      "ĠÐ¾ÑĤÐ¿ÑĢÐ°Ð²ÐµÐ½Ð¾": 4092,
      "ĠÐºÐ¾Ð¼Ð¿ÐµÑĤÐµÐ½ÑĤÐµÐ½": 4093,
      "Ð½Ð°ÑģÑĤÐ¾ÑıÑīÐµÐ¼": 4094,
      "ĠÐ¿Ð¾Ð½Ð°ÑģÑĤÐ¾ÑıÑīÐµÐ¼": 4095,
      "ĠÐµÐ´Ð¸Ð½Ð¸ÑĨÐ°": 4096,
      "ĠÑĨÐµÐ½Ð½Ð¸": 4097,
      "55": 4098,
      "ĠÐ°Ð¼ÐµÑĢÐ¸": 4099,
      "ĠÐ²ÑĤÐ¾ÑĢÐ°ÑĤÐ°": 4100,
      "ÑĤÐ¾Ð²Ðµ": 4101,
      "ĠÐ¿ÑĢÐ°Ð²Ð¸Ð»Ð½Ð¾": 4102,
      "ĠÐºÐ¾Ð½ÐºÑĢÐµÑĤÐ½Ð¸Ñı": 4103,
      "ÑģÑıÐ²Ð°Ð½Ðµ": 4104,
      "ĠÐ¿ÑĢÐ¾Ð´Ð°Ð¶Ð±Ð¸ÑĤÐµ": 4105,
      "ph": 4106,
      "ĠÐ¿ÑĢÐ¾Ð¸Ð·Ð½ÐµÑģÐµ": 4107,
      "ĠÐ¿Ð¾Ð²ÐµÐ´ÐµÐ½Ð¸Ðµ": 4108,
      "ĠÑĥÐ¿ÑĢÐ°Ð²Ð»ÐµÐ½Ð¸ÐµÑĤÐ¾": 4109,
      "ĠÑģÐµÑĢÑĤÐ¸ÑĦÐ¸ÐºÐ°ÑĤ": 4110,
      "ĠÑĢÐ°Ð±Ð¾ÑĤÐ½Ð¸ÑĨÐ¸": 4111,
      "Ð²ÑĢÑĬ": 4112,
      "ĠÐ¸Ð·Ð²ÐµÑģÑĤÐ¸": 4113,
      "69": 4114,
      "ĠÐ¿ÑĢÐ¸Ð»Ð¾Ð¶ÐµÐ½Ð¸Ñı": 4115,
      "ĠÐ°Ð»ÐºÐ¾ÑħÐ¾": 4116,
      "ĠÐ¼Ð°ÑģÐ°": 4117,
      "ĠÐºÐ»Ð°ÑĥÐ·Ð°": 4118,
      "ĠÐ¿Ð¾Ð²ÐµÑĢÐ¸": 4119,
      "ĠÑħÐ»Ð¾": 4120,
      "ĠÐ¿Ð¾Ð·Ð²Ð¾Ð»Ð¸": 4121,
      "Ġder": 4122,
      "ĠÑĤÑĢÐ°Ð½ÑģÐ¿Ð¾Ð½Ð¸": 4123,
      "ĠÐ³ÑĬÑĢÑĨÐ¸Ñı": 4124,
      "ĠÑĢÐµÐ°": 4125,
      "Ġic": 4126,
      "ĠÐ¾Ð±Ð¾ÑĢÐ¾": 4127,
      "ĠeÐ¾": 4128,
      "ĠÐ½Ð°ÑĢÑĥÑĪÐ¸": 4129,
      "Ġ5493": 4130,
      "ĠÐ²ÑĬÐ·Ð¿ÑĢÐ¾Ð¸Ð·": 4131,
      "ĠÐ¿ÑĢÐ¾Ð¸Ð·Ð½Ð°ÑģÑı": 4132,
      "ĠÐ°Ð³ÐµÐ½ÑĨÐ¸ÑıÑĤÐ°": 4133,
      "ĠÐ¸Ð·ÐºÐ»ÑİÑĩÐ¸ÑĤÐµÐ»Ð½Ð¾": 4134,
      "ĠÐºÐ¾Ð¼Ð¿ÐµÑĤÐµÐ½ÑĤÐ½Ð¾ÑģÑĤÑĤÐ°": 4135,
      "ĠÐ½ÐµÐ¿ÑĥÐ±Ð»Ð¸": 4136,
      "ĠÐ¸Ð·Ð²ÐµÐ´ÐµÐ½Ð¾": 4137,
      "ĠÐ¶ÐµÐ»ÐµÐ·Ð¾": 4138,
      "ĠÐ¿ÑĢÐµÑħÐ²ÑĬÑĢ": 4139,
      "ĠÑĢÐµÐ³Ð¸Ð¾Ð½Ð°Ð»": 4140,
      "ĠÑĤÐ²ÑĬÑĢÐ´ÐµÐ½Ð¸ÐµÑĤÐ¾": 4141,
      "ĠÐ·Ð°Ð±ÑĢÐ°Ð½Ð°": 4142,
      "ĠÐ¿ÑĢÐ¸ÐµÐ¼": 4143,
      "ÑĢÐ»Ð°Ð½Ð´": 4144,
      "100": 4145,
      "ÑĨÐ¸Ð¾Ð½Ð°Ð»ÐµÐ½": 4146,
      "ĠÐ¶ÐµÐ»ÐµÐ·Ð¾Ð¿ÑĬÑĤ": 4147,
      "Ġir": 4148,
      "ĠÑģÐ²Ð¸Ð´Ðµ": 4149,
      "ĠÐºÐ¾Ð½ÑĤÐµÐºÑģÑĤÐ°": 4150,
      "ĠÑģÑĬÐ¾ÑĤÐ²ÐµÑĤÑģÑĤÐ²Ð¸ÐµÑĤÐ¾": 4151,
      "icht": 4152,
      "Ġqu": 4153,
      "ĠÐ½ÐµÐ¿ÑĥÐ±Ð»Ð¸ÐºÑĥ": 4154,
      "ana": 4155,
      "ĠÑģÐ²ÑĬÑĢÐ·Ð°Ð½Ð¾": 4156,
      "Ġfl": 4157,
      "ĠÐ¿ÑĢÐ¾Ð¸Ð·Ð²Ð¾Ð´ÑģÑĤÐ²Ð°": 4158,
      "Ð½Ð°ÑĤÐ¸ÑĤÐµ": 4159,
      "ĠÐºÐ¾Ð½ÑĤÑĢÐ°Ð³ÐµÐ½ÑĤÐ¸": 4160,
      "ien": 4161,
      "ĠÐ½ÐµÐ¿ÑĢÐ¸": 4162,
      "84": 4163,
      "ĠÐ¸Ð½ÑĤÐµÑĢÐ½ÐµÑĤ": 4164,
      "Ġne": 4165,
      "ĠÐ²ÑĬÐ·ÑĢÐ°Ð¶ÐµÐ½Ð¸Ðµ": 4166,
      "ĠÑģÐ¾ÑĢ": 4167,
      "ĠÐ¿ÑĢÐ¸ÐµÐ»": 4168,
      "ĠÐ±ÐµÐ½": 4169,
      "ĠÑģÐ¿ÐµÑĨÐ¸ÑĦÐ¸ÐºÐ°": 4170,
      "ĠÐ¿ÑĢÐ¸ÑģÐ¿Ð°Ð´Ð°Ð½Ðµ": 4171,
      "sp": 4172,
      "ĠÐ¿ÑĢÐµÑģÑĤÑĬÐ¿": 4173,
      "ÑģÐºÐ¸Ñı": 4174,
      "Ġph": 4175,
      "Ð»Ð°Ð½Ð´Ð¸Ñı": 4176,
      "ĠÑĢÐµÐ´Ð¾": 4177,
      "ĠÐ¿Ð¾ÑĤÑĢÐµÐ±Ð¸ÑĤÐµÐ»Ð¸": 4178,
      "ge": 4179,
      "ĠÑģÑĬÐ±Ð¸ÑĤÐ¸": 4180,
      "ĠÐºÐ¾Ð»Ð¾Ð½Ð°": 4181,
      "Ð½ÐµÐ½Ð¸ÐµÑĤÐ¾": 4182,
      "ĠÐºÐ¾Ñģ": 4183,
      "ĠÐ¸Ð½Ð²ÐµÑģÑĤÐ¸ÑĨÐ¸Ð¸": 4184,
      "Ġyear": 4185,
      "ĠÐ¼Ð¾Ð³Ð»Ð¸": 4186,
      "ĠÑĢÐ°Ð·Ð¼ÐµÑĢÑĬÑĤ": 4187,
      "Ð¶Ð½Ð¸": 4188,
      "ÐºÐ°Ð½ÑģÐºÐ¸": 4189,
      "ĠÐºÑĢÐµÐ´Ð¸ÑĤÐ½Ð¸": 4190,
      "old": 4191,
      "ĠÑģÐ¾Ð»Ð¸": 4192,
      "04": 4193,
      "ĠÐ¸Ð·Ð±Ð¾ÑĢ": 4194,
      "ĠÐ¾ÑĤÐ¼ÐµÐ½": 4195,
      "ĠÐµÑģÑĤÐµÑģÑĤÐ²Ð¾ÑĤÐ¾": 4196,
      "ord": 4197,
      "ĠÐ·Ð¾Ð½Ð¸": 4198,
      "ĠÐ¿ÑĢÐµÑģÑĤÑĢÑĥÐºÑĤÑĥÑĢÐ¸ÑĢÐ°Ð½Ðµ": 4199,
      "ĠÐ¼Ð°Ð·Ð½Ð¸": 4200,
      "ĠÐ¿ÑĢÐ¸Ð´ÑĢÑĥ": 4201,
      "ĠÐ´Ð¸ÑģÐ¿Ð¾Ð·Ð¸ÑĤÐ¸Ð²": 4202,
      "ÑģÐ¾Ð²Ðµ": 4203,
      "Ð»ÐµÐ¶ÐºÐ¸": 4204,
      "ĠÐ¾ÑĢÐ³Ð°Ð½Ð°": 4205,
      "ĠÐ¾Ð±Ð¾Ð·Ð½Ð°": 4206,
      "ĠÐ¿ÑĢÐ¾Ð²ÐµÑĢÐºÐ°ÑĤÐ°": 4207,
      "ĠÐ²Ð·Ð°Ð¸": 4208,
      "art": 4209,
      "ĠÐºÐ¾Ð½ÑĤÑĢÐ¾Ð»Ð°": 4210,
      "Ġ549300": 4211,
      "oz": 4212,
      "Ð¼Ð¸Ñı": 4213,
      "ĠÑĥÑĩÐ°ÑģÑĤ": 4214,
      "ĠÐ±ÐµÐ½Ðµ": 4215,
      "Ġ1992": 4216,
      "Ð´ÑĢÑĬÐ¶": 4217,
      "ĠÐºÐ°Ðº": 4218,
      "ĠÐ¸Ð½ÑģÐ¿Ðµ": 4219,
      "ĠÐ°Ð²ÑģÑĤÑĢÐ¸Ñı": 4220,
      "ĠÑĤÐ¾Ð½Ð°": 4221,
      "ĠÐ»Ð¸ÑĩÐ½Ð¸": 4222,
      "ĠÐ¿Ð¾ÑĩÐ¸": 4223,
      "ĠÐ¾Ð³ÑĢÐ°Ð½Ð¸ÑĩÐµÐ½Ð¸Ðµ": 4224,
      "ĠÐ²Ð·ÐµÑĤÐ¸": 4225,
      "Ð»ÐµÑĤÐ¸": 4226,
      "ĠÐ¿ÑĢÐµÐ´Ð¸Ð¼ÑģÑĤÐ²Ð¾": 4227,
      "ĠÑģÑĬÐ¾Ð±ÑīÐ°": 4228,
      "Ð¾ÑĢÐ¾": 4229,
      "ĠÐ¿Ð¾ÑĤÐ²ÑĬÑĢÐ¶Ð´Ð°Ð²Ð°": 4230,
      "ps": 4231,
      "ĠÐ¿ÑĥÐ±Ð»Ð¸ÑĩÐ½Ð¸Ñı": 4232,
      "ĠÐ¿ÑĢÐµÐ´Ð»Ð¾Ð¶ÐµÐ½Ð¸Ðµ": 4233,
      "ĠÑģÑĬÑīÐµ": 4234,
      "ern": 4235,
      "ĠÐ¸Ð·Ð²ÑĬÑĢÑĪÐµÐ½Ð¸": 4236,
      "Ġ1993": 4237,
      "ÑĮÐ¾ÑĢ": 4238,
      "ĠÐ·Ð°ÐºÐ¾Ð½Ð¾ÑģÑĬÐ¾Ð±ÑĢÐ°Ð·": 4239,
      "Ð¿Ñı": 4240,
      "Ĥ¬": 4241,
      "ĠÐ²ÑħÐ¾Ð´": 4242,
      "ĠâĤ¬": 4243,
      "ĠÑĢÐ°Ð¼ÐºÐ°": 4244,
      "07": 4245,
      "ĠÐ¿Ð°ÑĢÑĤ": 4246,
      "ĠÐ¾Ð±ÑīÐµÑģÑĤÐ²ÐµÐ½Ð¸": 4247,
      "ĠÐ´Ð¸Ð²Ð¸": 4248,
      "Ð»Ð¸ÑīÐµ": 4249,
      "ĠÐ¾Ñħ": 4250,
      "ĠÐ·Ð°ÑģÑıÐ³Ð°ÑĤ": 4251,
      "ĠÐ¿ÑĬÑĢÐ²Ð¾Ð½Ð°Ñĩ": 4252,
      "ĠÐ°Ð´Ð¼Ð¸Ð½Ð¸ÑģÑĤÑĢÐ°ÑĤÐ¸Ð²Ð½Ð¸": 4253,
      "ĠÑĪÐµÑģÑĤ": 4254,
      "ĠÐ²Ð¸Ð´Ð¾Ð²ÐµÑĤÐµ": 4255,
      "ĠÑħÐ°ÑĢÑĤÐ¸": 4256,
      "ĠÐ¿ÑĢÐ¾Ð±Ð¸": 4257,
      "Ġiso": 4258,
      "iss": 4259,
      "ĠÐ·Ð°Ð¼ÑĬÑĢ": 4260,
      "ĠÐ¿ÑĢÐ¸ÑĩÐ¸Ð½": 4261,
      "ĠÐ´Ð¸ÑĢÐµÐºÑĤÐ¾ÑĢ": 4262,
      "ĠÎ´": 4263,
      "ĠÐ¿Ð¾Ð´Ð°Ð²Ð°Ð½Ðµ": 4264,
      "ĠÐ¿ÑĢÐ¾Ð·ÑĢÐ°": 4265,
      "ĠÐ·Ð°Ð´Ð°ÑĩÐ¸": 4266,
      "ĠÑģÑĬÐ´ÐµÐ¸": 4267,
      "Ð·Ð½Ð¾": 4268,
      "ĠÐ¿Ð°ÑĢÑĤÐ½": 4269,
      "ĠÐ´Ð¾Ð²Ð¾Ð´": 4270,
      "ĠÐ¾Ð±ÑĢÐ°Ð·Ðµ": 4271,
      "ÑģÑĤÐ²ÐµÐ½Ð¸Ñı": 4272,
      "pl": 4273,
      "ĠÑģÐ¸Ð³": 4274,
      "ĠÐ¿Ð¾ÑģÑĤÐ¾ÑıÐ½Ð½Ð°ÑĤÐ°": 4275,
      "ĠÐµÑĦÐµÐºÑĤ": 4276,
      "ĠÑĥÑĩÐ°ÑģÑĤÐ¸ÐµÑĤÐ¾": 4277,
      "ĠÐ¿ÑĢÐµÐ¼Ð°": 4278,
      "ĠÑĢÐ°Ð¸Ð¾Ð½Ð¸": 4279,
      "Ġ118": 4280,
      "ific": 4281,
      "ĠÑĢÐ°ÑģÑĤÐµÐ½Ð¸Ñı": 4282,
      "ĠÐ¼Ð¾ÑīÐ½Ð¾ÑģÑĤ": 4283,
      "ĠÑģÑĬÐ´Ð¾Ð²Ðµ": 4284,
      "ĠÐ±Ð¾Ð»Ðµ": 4285,
      "ĠÐ¾Ð±ÑĢÐ°Ð·Ð¾Ð²Ð°": 4286,
      "ĠÐ²ÑĬÐ¿ÑĢÐ¾ÑģÐ½Ð¸ÑĤÐµ": 4287,
      "Ġsg": 4288,
      "isch": 4289,
      "ĠÑĥÐ²ÐµÐ´Ð¾Ð¼": 4290,
      "ĠÐ´ÐµÑĢÐ¾Ð³Ð°ÑĨÐ¸Ñı": 4291,
      "ĠÐ¼ÑĢÐµÐ¶Ð¸": 4292,
      "ĠÐºÐ¾Ð½ÑĤÐ°": 4293,
      "ĠÐ¾ÑģÑĬÐ¶Ð´Ð°": 4294,
      "ĠÐ´Ð²Ñĥ": 4295,
      "ĠÐµÑĨÐ±": 4296,
      "ĠÐ°Ð½Ð³Ð»Ð¸": 4297,
      "ÑģÐ¸Ñı": 4298,
      "Ġmon": 4299,
      "Ð²Ð°Ñī": 4300,
      "54": 4301,
      "va": 4302,
      "ÑĢÐ¼Ð°": 4303,
      "ĠÑĦÐ¾ÑĢÐ¼ÑĥÐ»Ð¸": 4304,
      "ĠÐ·Ð°ÑģÑĤÑĢÐ°ÑħÐ¾Ð²Ð°": 4305,
      "oh": 4306,
      "ĠÑĩÐµÑĪ": 4307,
      "Ð²Ð½Ð¾ÑģÑĤÑĤÐ°": 4308,
      "Ġper": 4309,
      "ĠÐ¿ÑĢÐµÐ´Ð²Ð¸Ð´Ð¸": 4310,
      "ĠÐ´Ð¾Ð³Ð¾Ð²Ð¾ÑĢÐ¸ÑĤÐµ": 4311,
      "ĠÐ·Ð°Ð¸Ð½ÑĤÐµÑĢÐµÑģÐ¾Ð²Ð°Ð½Ð¸ÑĤÐµ": 4312,
      "tt": 4313,
      "ÐºÐ¾Ð»Ð¾": 4314,
      "Ð¼ÐµÐ½ÐºÐ»Ð°": 4315,
      "ĠÐ°Ð»ÑĤÐµÑĢ": 4316,
      "ium": 4317,
      "ĠÐµÑĦÐµÐºÑĤÐ¸Ð²Ð½Ð¾ÑģÑĤ": 4318,
      "Ġinst": 4319,
      "min": 4320,
      "ĠÐ½ÐµÐ¿ÑĥÐ±Ð»Ð¸ÐºÑĥÐ²Ð°Ð½Ð¾": 4321,
      "ĠÐ½Ð¾Ð¼ÐµÐ½ÐºÐ»Ð°": 4322,
      "ĠÑĥÐ¿ÑĢÐ°Ð¶Ð½ÑıÐ²Ð°Ð½Ðµ": 4323,
      "ĠÐ½Ð°ÑĢÐµÐ´": 4324,
      "ĠÑģÐ¸ÑĤÑĥ": 4325,
      "ĠÑħÐ¾Ð´Ð°": 4326,
      "ĠÐºÑĥÑĢ": 4327,
      "ÑģÑĤÐµÑĢ": 4328,
      "Ð¾Ð½Ð½Ð¸": 4329,
      "ĠÐ¸Ð½ÑģÑĤÐ¸ÑĤÑĥÑĨÐ¸ÑıÑĤÐ°": 4330,
      "ĠÑģÐ¸ÑĤÑĥÐ°": 4331,
      "ĠÐ¿ÑĢÐµÐ³Ð»ÐµÐ´": 4332,
      "ys": 4333,
      "ĠÐ°Ð¿ÐµÐ»Ð°ÑĤÐ¸Ð²Ð½Ð¸Ñı": 4334,
      "ĠÐ³Ð»Ð¾Ð±Ð°ÑĤÐ°": 4335,
      "ÑĩÐ½Ð¾ÑģÑĤÑĤÐ°": 4336,
      "ÑĤÐ°Ð½": 4337,
      "57": 4338,
      "ĠÐ½ÐµÐ±Ð»Ð°Ð³Ð¾Ð¿ÑĢÐ¸ÑıÑĤ": 4339,
      "ĠÐ¿ÑĢÐµÑĢÐ°Ð·Ð³Ð»ÐµÐ¶Ð´Ð°Ð½Ðµ": 4340,
      "ĠÐ´Ð¾Ð¿ÑĬÐ»Ð½Ð¸ÑĤÐµÐ»Ð½Ð¾": 4341,
      "Ð³Ð°Ð½Ð¸": 4342,
      "ÐµÐ¼Ð±ÑĥÑĢÐ³": 4343,
      "ĠÐ½Ð¾Ð²Ð°": 4344,
      "59": 4345,
      "ĠÐ¿ÑĢÐ¾ÑĨÐµÐ½": 4346,
      "ĠÑĦÐµÐ´ÐµÑĢÐ°Ð»": 4347,
      "ĠÐ°Ð´Ð¼Ð¸Ð½Ð¸ÑģÑĤÑĢÐ°ÑĤÐ¸Ð²ÐµÐ½": 4348,
      "ĠÑģÑĤÐ¾Ð¿Ð°": 4349,
      "ĠÐ»ÑİÐºÑģ": 4350,
      "ĠÑĦÐ¸Ð·Ð¸ÑĩÐµÑģÐºÐ¸": 4351,
      "ĠÐ¿ÑĢÐµÐ¼Ð°Ñħ": 4352,
      "aj": 4353,
      "ĠÑĪÐ²ÐµÐ¸ÑĨÐ°": 4354,
      "ĠÐ¸Ð·Ð½Ð¾ÑģÐ¸ÑĤÐµÐ»Ð¸": 4355,
      "ĠÐ»ÑİÐºÑģÐµÐ¼Ð±ÑĥÑĢÐ³": 4356,
      "ĠÐµÐºÑģÐ¿Ð»Ð¾Ð°ÑĤÐ°ÑĨÐ¸Ñı": 4357,
      "Ð²Ð°Ð»": 4358,
      "ht": 4359,
      "ĠÐ¸ÑĤÐ°Ð»Ð¸Ð°Ð½": 4360,
      "ĠÐ¿Ð¾Ð´ÑĢÐ¾Ð±Ð½Ð¸": 4361,
      "ĠÐºÐ¾Ð»ÐµÐºÑĤÐ¸": 4362,
      "ĠÑĩÐµÑĤÐ²ÑĬÑĢÑĤÐ¾": 4363,
      "ĠÐ¼ÐµÐ¶Ð´ÑĥÐ½Ð°ÑĢÐ¾Ð´Ð½Ð°": 4364,
      "Ġie": 4365,
      "ĠÐ¾ÑĤÐ»Ð¸": 4366,
      "ĠÐ²Ð¸ÑģÐ¾ÑĩÐ¸Ð½Ð°": 4367,
      "ĠÐ°Ð»ÑĤÐµÑĢÐ½Ð°ÑĤÐ¸": 4368,
      "Ð½ÑĤ": 4369,
      "ĠÐ²Ð°Ð»Ñĥ": 4370,
      "ĠÐ¿ÑĢÐ°Ð²ÐµÐ½": 4371,
      "ÑĥÐ¼Ð°": 4372,
      "ĠÑĨÐµÐ»ÐµÑģÑĬÐ¾Ð±ÑĢÐ°Ð·Ð½Ð¾": 4373,
      "ĠÐ´Ð¾ÑģÑĤÐ°Ð²ÑĩÐ¸Ðº": 4374,
      "53": 4375,
      "ĠÑģÐºÐ»Ð°": 4376,
      "entr": 4377,
      "Ð·Ð¸Ñı": 4378,
      "ÑģÐºÐ°Ð½ÐµÑĤÐ¾": 4379,
      "ĠÐºÐ¾Ð¿Ð¸": 4380,
      "ĠÏĦ": 4381,
      "ĠÐµÑģÑĤÐµÑģÑĤÐ²Ð¾": 4382,
      "ĠÐ¿ÑĢÐ¾Ð³": 4383,
      "ÑĤÐ¸ÑĢÐ°Ð½Ð¸": 4384,
      "ĠÑģÐ¸Ð½ÑĤÐµ": 4385,
      "ĠÐ¼ÐµÐ¶Ð´ÑĥÐ½Ð°ÑĢÐ¾Ð´Ð½Ð¸": 4386,
      "ĠÐ»Ð¸ÑĤ": 4387,
      "ĠÑĤÐ¸ÑĢÐµ": 4388,
      "Ġbar": 4389,
      "ÑĢÐ¸ÑĢÐ°": 4390,
      "ubl": 4391,
      "Ð¾Ð±ÑĢÐ°Ð·Ñĥ": 4392,
      "Ġgroup": 4393,
      "ĠÐ½Ð°Ð±Ð¾ÑĢ": 4394,
      "ast": 4395,
      "ĠÑģÑĬÑīÐµÑģÑĤÐ²ÐµÐ½Ð¾": 4396,
      "ĠÐ³Ð¾Ð»ÑıÐ¼": 4397,
      "Ġlim": 4398,
      "ÑīÐ°Ð½ÐµÑĤÐ¾": 4399,
      "ĠÐ·Ð°Ð´ÑĬÐ»Ð¶Ð¸ÑĤÐµÐ»Ð½Ð¾": 4400,
      "ĠÐ·Ð´ÑĢÐ°Ð²Ðµ": 4401,
      "ĠÐ¿Ð¾Ð´Ð»ÐµÐ¶Ð°ÑĤ": 4402,
      "ÑģÐ½Ð¾ÑĤÐ¾": 4403,
      "ĠÐ¿ÑĬÑĢÐ²Ð¾Ð½Ð°ÑĩÐ°Ð»Ð½Ð¾": 4404,
      "Ġres": 4405,
      "ÑĤÐµÐ»Ð½Ð¸ÑıÑĤ": 4406,
      "ĠÐµÐ¼Ð¸": 4407,
      "ĠÐ¸Ð·ÑħÐ¾Ð´": 4408,
      "ĠÐµÑĤÐ°Ð¿": 4409,
      "ÑĤÐºÐ¸": 4410,
      "ÑĢÐµÐ¶Ð´Ð°Ð½Ðµ": 4411,
      "ÑĤÐ½Ð¾ÑĤÐ¾": 4412,
      "ĠÐµÐ´Ð¸Ð½Ð¸ÑĨÐ¸": 4413,
      "63": 4414,
      "ĠÐ¿ÑĬÑĤÐ¸": 4415,
      "alt": 4416,
      "ĠÑģÐ²Ð¾Ð±Ð¾Ð´Ð°ÑĤÐ°": 4417,
      "ĠÐ²Ð½Ð¾ÑģÐºÐ¸": 4418,
      "fa": 4419,
      "ĠÑģÐ±Ð¾ÑĢÐ½Ð¸Ðº": 4420,
      "ĠÐ¸Ð·Ð²ÑĬÑĢÑĪÐ²Ð°Ð½ÐµÑĤÐ¾": 4421,
      "ĠÐ¿Ð¾Ð´Ð»ÐµÐ¶Ð°": 4422,
      "ĠÐ³ÑĢÐ°Ð½Ð¸ÑĨÐ¸": 4423,
      "ĠÐ±ÐµÐ½ÐµÑĦÐ¸ÑĨÐ¸": 4424,
      "erg": 4425,
      "ĠÑģÐ°Ð¼Ð¾ÑĤÐ¾": 4426,
      "52": 4427,
      "ĠÑĢÐ°Ð·ÑĢÐµÑĪ": 4428,
      "ĠÐ¿ÑĢÐ¸Ð·Ð½Ð°Ð²Ð°Ð½Ðµ": 4429,
      "ĠÐ²ÑĬÐ·Ð´ÐµÐ¸ÑģÑĤÐ²Ð¸ÐµÑĤÐ¾": 4430,
      "ĠÐ½Ð°ÑĢÐ¸ÑĩÐ°Ð½Ð°": 4431,
      "ĠÑĢÑĬÐºÐ¾Ð²Ð¾Ð´": 4432,
      "ĠÐ¿Ð¾Ð´Ð¿Ð¸Ñģ": 4433,
      "ĠÐ¾ÑģÐ¸Ð³ÑĥÑĢÑıÐ²Ð°": 4434,
      "Ġcm": 4435,
      "ĠÑĢÐ°Ð·Ð¿ÑĢÐ¾ÑģÑĤÑĢÐ°": 4436,
      "Ð¾Ð±Ñħ": 4437,
      "ĠÐ½Ð°Ð´ÑħÐ²ÑĬÑĢÐ»Ñı": 4438,
      "ĠÐ½ÐµÐ·Ð°Ð²Ð¸ÑģÐ¸": 4439,
      "Ð³Ð¾Ð´Ð¸": 4440,
      "ĠÐ¼Ð°ÐºÑģÐ¸Ð¼Ð°Ð»Ð½Ð¾": 4441,
      "ĠÑģÐ²ÑĬÑĢÐ·Ð°Ð½": 4442,
      "ÑĤÐ¾ÑĩÐºÐ°": 4443,
      "Î³": 4444,
      "ĠÐ²ÑĬÐ¿ÑĢÐ¾ÑģÑĬÑĤ": 4445,
      "ĠÑĤÑĬÑĢÐ³Ð¾Ð²ÑģÐºÐ°": 4446,
      "Ġcpa": 4447,
      "Ġcomm": 4448,
      "Ð±Ð¸ÑĤ": 4449,
      "ĠÐ·Ð°Ð±ÐµÐ»ÐµÐ¶ÐºÐ°": 4450,
      "ĠÑģÐ¾ÑĨÐ¸Ð°Ð»Ð½Ð¾": 4451,
      "ÐºÑģÐ¸Ð´": 4452,
      "ĠÐ°Ð½Ð³Ð»Ð¸Ð¸ÑģÐºÐ¸": 4453,
      "ĠÑĢÐ°Ð·Ð»Ð¸ÑĩÐ½Ð¾": 4454,
      "ĠÐ¾Ð±ÐµÐ·Ð¿ÐµÑĩÐµÐ½Ð¸Ðµ": 4455,
      "ĠÐ´Ð¾Ð²ÐµÐ´Ðµ": 4456,
      "ke": 4457,
      "ĠÑĤÑĢÑĥÐ´": 4458,
      "ĠÐ¿ÑĢÐ¸ÐºÐ»ÑİÑĩ": 4459,
      "ĠÐ¿ÑĢÐ¾Ð¿Ð¾ÑĢÑĨÐ¸Ð¾Ð½Ð°Ð»Ð½Ð¾ÑģÑĤ": 4460,
      "ĠÑĨÐµÐ»Ð¸Ñı": 4461,
      "ĠÐ½ÐµÐ¿ÑĢÐ°Ð²Ð¸Ð»Ð½Ð¾": 4462,
      "ÑĪÐ½Ð¸Ñı": 4463,
      "42": 4464,
      "ĠÐ¿ÑĢÐ¸ÐµÑĤÐ¾": 4465,
      "ĠÐ¿Ð¾Ð´ÑĤÐ¾ÑĩÐºÐ°": 4466,
      "Ġâī¤": 4467,
      "Ġmet": 4468,
      "ÑĨÐ¸Ð¾Ð½Ð½Ð¾": 4469,
      "ĠÐ¾Ð±ÑīÐµÑģÑĤÐ²ÐµÐ½Ð°": 4470,
      "ĠÐ¸Ð·ÑģÐ»ÐµÐ´Ð²Ð°Ð½Ð¸Ñı": 4471,
      "ĠÐµÐ»ÐµÐºÑĤÑĢÐ¸ÑĩÐµÑģÐºÐ¸": 4472,
      "ka": 4473,
      "ĠÐ½Ð°Ð»Ñı": 4474,
      "ĠÑģÐ»ÑĥÐ¶Ð±Ð°ÑĤÐ°": 4475,
      "ĠÑĢÐ°Ð·ÑĥÐ¼": 4476,
      "ĠÐ°Ð´Ð¼Ð¸Ð½Ð¸ÑģÑĤÑĢÐ°ÑĨÐ¸Ñı": 4477,
      "ĠÐ´ÑĬÑĢÐ¶Ð°Ð²Ð½Ð°": 4478,
      "ĠÑĢÐµÐºÐ»Ð°": 4479,
      "Ġee": 4480,
      "ĠÐ¿Ð¾ÑģÑĤÐ¸Ð³": 4481,
      "ĠÐ¿ÐµÑĢÑģÐ¾Ð½Ð°Ð»": 4482,
      "ĠÐ´Ð¸ÑĢÐµÐºÑĤÐ¸Ð²Ð¸": 4483,
      "Î¹Î±": 4484,
      "ĠÐ´Ð¾ÐºÑĥÐ¼ÐµÐ½ÑĤÐ¸ÑĤÐµ": 4485,
      "ĠÐ¾Ð±Ð»Ðµ": 4486,
      "ÑĪÐ°Ð²Ð°ÑĤ": 4487,
      "ĠÑĢÐ°Ð´Ð¸Ð¾": 4488,
      "ĠÐ¼Ð¸ÑĤÐ½Ð¸ÑĩÐµÑģÐºÐ¸ÑĤÐµ": 4489,
      "ĠÐ¾Ð³ÑĢÐ°Ð½Ð¸ÑĩÐ°Ð²Ð°": 4490,
      "Ð»Ð¸Ð²Ð¾": 4491,
      "ĠÐ·Ð½Ð°Ðº": 4492,
      "ĠÐ½Ð°Ð¿ÑĢÐµ": 4493,
      "ĠÐ°Ð¼ÐµÑĢÐ¸ÐºÐ°Ð½ÑģÐºÐ¸": 4494,
      "ĠÑĢÐ°Ð±Ð¾ÑĤÐ½Ð¸": 4495,
      "port": 4496,
      "ĠÑģÑĤÑĢÐ°ÑĤÐµ": 4497,
      "Ġ109": 4498,
      "81": 4499,
      "ĠÐ·Ð°Ð¼ÐµÐ½": 4500,
      "ind": 4501,
      "ĠÐºÐ»ÐµÑĤ": 4502,
      "ÑĩÐµÐ¼": 4503,
      "ĠÑĢÐ°Ð·Ð¿Ð¾Ð»Ð¾Ð¶ÐµÐ½Ð¸Ðµ": 4504,
      "ĠÐ¾Ð·Ð°Ð³Ð»Ð°Ð²ÐµÐ½": 4505,
      "Ð´Ð°Ð²Ð°": 4506,
      "ĠÐ¿Ð»Ð°Ð½Ð¸": 4507,
      "ÑħÐ»Ð¾": 4508,
      "ĠÑģÑĥÐ±ÐµÐºÑĤ": 4509,
      "ĠÐ´Ð¾Ð¿ÑĢÐ¸": 4510,
      "Ġgen": 4511,
      "Ð±ÐµÐ½": 4512,
      "ĠÐ²Ð¿ÑĢÐ¾": 4513,
      "ĠÐ²Ð¿ÑĢÐ¾ÑĩÐµÐ¼": 4514,
      "ĠÐ¼Ð¼Ð¾": 4515,
      "ĠÐ±ÑĬÑĢ": 4516,
      "Ġmed": 4517,
      "ĠÐºÐ¾Ð¼Ð¿ÐµÑĤÐµÐ½ÑĤÐ½Ð¸ÑıÑĤ": 4518,
      "ĠÑĥÐ¿Ð¾ÑĤÑĢÐµÐ±Ð°ÑĤÐ°": 4519,
      "ĠÑĦÐ¸Ð»": 4520,
      "ÑĢÐ¾Ð´ÐµÐ½": 4521,
      "ĠÑĢÐ°Ð·Ð±Ð¸ÑĢÐ°": 4522,
      "Ð´ÐµÐ¸ÑģÑĤÐ²Ð¸": 4523,
      "ĠÐ´ÑıÐ»Ð¾": 4524,
      "ĠÐ¾Ð¿Ð¸ÑĤ": 4525,
      "Ġ250": 4526,
      "ĠÑģÐ²Ð¾Ð¸": 4527,
      "87": 4528,
      "ĠÐ½Ð°Ð¿ÑĢÐ°Ð²ÐµÐ½Ð¾": 4529,
      "Ð»ÑıÐ½ÐµÑĤÐ¾": 4530,
      "Ð´Ð¸ÑĢÐ°Ð½Ðµ": 4531,
      "ĠÑģÑħÐµÐ¼Ð¸": 4532,
      "ĠÑĦÐ°ÐºÑĤÑĥ": 4533,
      "ĠÐ¼Ð¾ÑĢ": 4534,
      "ĠÐ½ÐµÐ¾Ð±ÑħÐ¾Ð´Ð¸Ð¼Ð°": 4535,
      "ĠÐ¿ÑĢÐ¾Ð´Ð°Ð¶Ð±Ð¸": 4536,
      "82": 4537,
      "ÑģÑĤÐ¸ÑĤÐµ": 4538,
      "ĠÐ¾ÑģÑĬÑīÐµÑģÑĤÐ²ÑıÐ²Ð°": 4539,
      "ĠÐ·Ð°Ð²Ð¸ÑģÐ¸": 4540,
      "ĠÐ´Ð¾ÐºÐ°Ð·Ð°ÑĤÐµÐ»ÑģÑĤÐ²Ð¾": 4541,
      "ÑģÑĤÑĬÐ¿Ð°": 4542,
      "ĠÑĤÐ¾ÑĩÐ½Ð¾": 4543,
      "ĠÐ¾Ð±Ð¸ÐºÐ½Ð¾Ð²ÐµÐ½Ð¾": 4544,
      "ĠÐ´Ð¾ÐºÐ°Ð·": 4545,
      "Ġman": 4546,
      "ĠÐ½ÐµÐ¸Ð½Ð¾ÑĤÐ¾": 4547,
      "ĠÐ¾ÑģÐ½Ð¾Ð²Ð½Ð¾": 4548,
      "ĠÑĢÐ°Ð·Ð²Ð¸ÑĤÐ¸ÐµÑĤÐ¾": 4549,
      "ĠÐ²Ð¸ÑģÐ¾ÐºÐ°": 4550,
      "ĠÐ°Ð±ÑģÐ¾": 4551,
      "ĠÑĢÐ°Ð·Ð¿ÑĢÐµÐ´ÐµÐ»ÐµÐ½Ð¸Ðµ": 4552,
      "ĠÐ¿ÑĢÐ°Ð²Ð½Ð¸ÑĤÐµ": 4553,
      "ĠÑģÑĥÑĢÐ¾Ð²Ð¸": 4554,
      "64": 4555,
      "ĠÐ´ÑĬÐ»Ð³Ð¾": 4556,
      "ĠÐ¿ÑĢÐµÐ¼Ð¸Ð½Ð°": 4557,
      "rom": 4558,
      "ĠÐ½Ð°ÑģÐ¾ÐºÐ¸ÑĤÐµ": 4559,
      "ĠÑĥÐ´Ð¾ÑģÑĤÐ¾Ð²ÐµÑĢ": 4560,
      "enz": 4561,
      "one": 4562,
      "Ð±Ð½Ð¸": 4563,
      "Ð±ÑĢÐ¸": 4564,
      "Ġprod": 4565,
      "Ġbo": 4566,
      "51": 4567,
      "ÑĪÐ°Ð²Ð°Ð½ÐµÑĤÐ¾": 4568,
      "ĠÑģÐ²ÐµÐ´": 4569,
      "ĠÐ¼ÑģÑĦÐ¾": 4570,
      "ĠÐ±Ð¸Ð¾Ð»Ð¾Ð³Ð¸": 4571,
      "fr": 4572,
      "ĠÐ¸Ð·Ð¸ÑģÐºÐ²Ð°ÑĤ": 4573,
      "ĠÑĢÐ°Ð·Ð»Ð¸ÑĩÐµÐ½": 4574,
      "ĠÐºÐ¾Ð½ÐºÑĢÐµÑĤÐ½Ð¸": 4575,
      "ĠÑĦÐ°ÐºÑĤÐ¾ÑĢÐ¸": 4576,
      "ĠÐ¿ÑĢÐ¾Ð¸Ð·Ð²ÐµÐ¶Ð´Ð°": 4577,
      "ĠÐ¿Ð¾ÑģÑĤÐ°Ð½Ð¾Ð²ÐµÐ½Ð¾": 4578,
      "Ġgh": 4579,
      "ĠÑĤÑĬÐ»ÐºÑĥÐ²Ð°ÑĤ": 4580,
      "ĠÑģÑĤÐ¾Ð¼Ð°Ð½Ð°": 4581,
      "ĠÐ°Ð½Ð°Ð»Ð¸Ð·Ð°": 4582,
      "ĠÑģÐ¿Ð¸ÑĢÐ°": 4583,
      "ĠÐ¼Ð°Ð¸ÐºÐ°": 4584,
      "ĠÐ¼Ð¸ÐºÑĢÐ¾": 4585,
      "Ð·ÐµÐ½": 4586,
      "ĠÑĢÐ°Ð·Ð³Ð»ÐµÐ¶Ð´Ð°Ð½Ð¾ÑĤÐ¾": 4587,
      "Ð¿Ð»Ð¸": 4588,
      "pr": 4589,
      "int": 4590,
      "ĠÐ²Ð¸Ð½Ð¾": 4591,
      "ĠÐ³Ð»Ð¾Ð±Ð°": 4592,
      "ĠÏĢ": 4593,
      "ĠÐ´ÐµÐ¸ÑģÑĤÐ²Ð¸ÐµÑĤÐ¾": 4594,
      "Ġinternational": 4595,
      "ĠÐ»Ð¸ÐºÐ²Ð¸": 4596,
      "ĠÐºÐ¾Ð¼Ð¿Ð¾Ð½ÐµÐ½ÑĤÐ¸": 4597,
      "Ð¼ÑĥÐ¼": 4598,
      "ĠÑĥÐºÐ°Ð·Ð°Ð½Ð¸Ñı": 4599,
      "ĠÐ¼Ð»Ñı": 4600,
      "acion": 4601,
      "61": 4602,
      "03": 4603,
      "ĠÑĢÐ°Ð²Ð½Ð¸ÑīÐµÑĤÐ¾": 4604,
      "ĠÐ¼Ð¾ÑĢÑģÐºÐ¸": 4605,
      "ĠÐ¾Ð±ÐµÐ´Ð¸Ð½ÐµÐ½Ð¾": 4606,
      "ull": 4607,
      "ĠÐ¿Ð¾Ð´ÑĩÐµÑĢÑĤÐ°Ð²Ð°": 4608,
      "ĠÐ¸Ð·ÑĩÐµÑĢ": 4609,
      "92": 4610,
      "ĠÐ²ÑĬÑĢÑħÐ¾": 4611,
      "ÑıÐ³": 4612,
      "ĠÐºÐ¾Ð½ÑĨÐµÐ½ÑĤÑĢÐ°": 4613,
      "ÑĥÑģÑĤÐ°Ð½Ð¾": 4614,
      "Ð·Ð°ÑģÑĤÑĢÐ°ÑħÐ¾": 4615,
      "ĠÐ¸Ð·Ð»Ð¸": 4616,
      "ĠÐ²ÑĬÐ²ÐµÐ¶Ð´Ð°Ð½Ðµ": 4617,
      "ĠÐ½Ð¾ÑĢÐ¼Ð¸": 4618,
      "ĠÐ¸Ð·ÐºÐ»ÑİÑĩÐ²Ð°": 4619,
      "ĠÑĢÐ°Ð¸Ð¾Ð½": 4620,
      "ĠÐ¿ÑĢÐµÑĤÑĬÑĢ": 4621,
      "ÐµÐ½ÑĤÐ°": 4622,
      "Ġjp": 4623,
      "ĠÐµÐ»ÐµÐºÑĤÑĢÐ¾ÐµÐ½ÐµÑĢÐ³Ð¸Ñı": 4624,
      "ĠÐ¿ÑĢÐ¾Ð³ÑĢÐ°Ð¼Ð°ÑĤÐ°": 4625,
      "ĠÐ¾ÑĤÐ´ÐµÐ»Ð½Ð¸": 4626,
      "ÑĦÐ¾ÑĢÐ¼Ð°": 4627,
      "Ġserv": 4628,
      "ister": 4629,
      "ĠÑģÐ²ÑĬÑĢÐ·Ð°Ð½Ð¸ÑĤÐµ": 4630,
      "ĠÎº": 4631,
      "ĠÐ¿ÑĢÐ¾Ð¼Ð¸ÑĪÐ»ÐµÐ½Ð¾ÑģÑĤ": 4632,
      "Ð²ÐºÐ¸ÑĤÐµ": 4633,
      "ĠÐ¿Ð¾ÑģÐ»ÐµÐ´Ð¸ÑĨÐ¸ÑĤÐµ": 4634,
      "ĠÑģÐ»ÐµÐ´Ð½Ð°ÑĤÐ°": 4635,
      "ure": 4636,
      "ĠÑģÑĤÑĬÐº": 4637,
      "ĠÐ¾ÐºÐ¾Ð»Ð¾": 4638,
      "ĠÐ´ÑĬÐ»Ð¶Ð¸Ð½Ð°": 4639,
      "ĠÑģÐ°Ð½ÐºÑĨÐ¸Ð¸": 4640,
      "ĠÐ¸Ð·Ð¼ÐµÐ½ÐµÐ½Ð°": 4641,
      "Ð°ÑĤÐ¸": 4642,
      "ĠÐ´Ð¾ÐºÐ»Ð°Ð´Ð°": 4643,
      "ĠÑģÐ°Ð¼Ð¾ÑģÑĤÐ¾ÑıÑĤÐµÐ»Ð½Ð¾": 4644,
      "ĠÐ¾Ð±Ð¸ÑĩÐ°Ð¸": 4645,
      "ĠÐ¾ÑĤÐ¼ÐµÐ½Ñı": 4646,
      "ĠÐ¿ÑĢÐ¾Ð´ÑĬÐ»Ð¶Ð¸ÑĤÐµÐ»Ð½Ð¾ÑģÑĤ": 4647,
      "ĠÐºÐ°ÐºÐ²Ð°": 4648,
      "ĠÐ²Ð»Ð¸Ð·Ð°Ð½ÐµÑĤÐ¾": 4649,
      "ĠÑĥÑģÑĤÐ°Ð½Ð¾Ð²ÐµÐ½": 4650,
      "ĠÐ²ÑĬÐ¿ÑĢÐ¾ÑģÐ½Ð°ÑĤÐ°": 4651,
      "ĠÐ½ÐµÐ¸Ð½Ð¸ÑĤÐµ": 4652,
      "ĠÐ¾Ð±ÑģÐ»ÑĥÐ¶Ð²Ð°Ð½Ðµ": 4653,
      "ĠÐ½Ð°Ð»Ð¸ÑĩÐ¸Ðµ": 4654,
      "ĠÐ½ÐµÐ´Ð¾Ð¿ÑĥÑģÑĤÐ¸Ð¼Ð¾": 4655,
      "Ġ138": 4656,
      "ĠÐ¿ÑĢÑĬ": 4657,
      "ÑĩÐµÐ²Ð¸": 4658,
      "ĠÐ¿Ð¾ÑģÑĤÐ°Ð²Ð¸": 4659,
      "na": 4660,
      "ÑīÐµÐ½Ð¸Ðµ": 4661,
      "ĠÐ¼ÐµÑģÑĤÐ°": 4662,
      "ĠÐ´Ð¾ÑģÑĤÑĬÐ¿Ð°": 4663,
      "ĠÐ¿ÑĢÐ¾ÑģÑĤÑĢÐ°Ð½ÑģÑĤÐ²Ð¾": 4664,
      "ĠÐ±Ð°Ð·": 4665,
      "ĠÐ¿Ð¾Ð²Ð´Ð¸": 4666,
      "ĠÑĤÐµÑħÐ½Ð¸ÑĩÐµÑģÐºÐ¸ÑĤÐµ": 4667,
      "Ð»ÐµÐºÑĤÑĥ": 4668,
      "ĠÐ¿Ð¾ÑģÐ¾ÑĩÐ²Ð°ÑĤ": 4669,
      "ÑĤÐ¾Ð¼": 4670,
      "sa": 4671,
      "ĠÐ¿Ð¾Ð»Ð¾Ð¶ÐµÐ½Ð¸Ñı": 4672,
      "ĠÑģÑĬÑīÐµÑģÑĤÐ²ÑĥÐ²Ð°Ð½ÐµÑĤÐ¾": 4673,
      "ÑĪÐ½Ð°ÑĤÐ°": 4674,
      "Ġ070": 4675,
      "ĠÐ¿Ð¾ÑģÐ»ÐµÐ´Ð½Ð¾ÑĤÐ¾": 4676,
      "ĠÑĤÑĢÐµÑĤÐ¾ÑĤÐ¾": 4677,
      "ĠÐ¿ÑĢÐµÐ½Ð¾": 4678,
      "ĠÐ¿ÑĢÐ¾Ð´ÑĬÐ»Ð¶Ð°Ð²Ð°": 4679,
      "ĠÐ¸Ð·ÑĤÐ¾ÑĩÐ½Ð¸ÑĨÐ¸": 4680,
      "ĠÑģÑĢÐµÐ´Ð½Ð¾": 4681,
      "Ġ127": 4682,
      "ĠÐ»ÐµÐºÐ°ÑĢÑģÑĤÐ²ÐµÐ½Ð¸": 4683,
      "ĠÐ¿Ð¾Ð´Ð¿Ð¾Ð·Ð¸": 4684,
      "ĠÐºÐ»Ð¸ÐµÐ½ÑĤÐ¸": 4685,
      "Ð»Ð°Ð½Ð´": 4686,
      "ĠÑĦÐ°ÐºÑĤÑĬÑĤ": 4687,
      "ÑģÑĤÐ²ÐµÐ½Ð°ÑĤÐ°": 4688,
      "ĠÐ¿ÑĢÐ¸ÑĤÐµÐ¶Ð°Ð²Ð°": 4689,
      "ĠÐ¸Ð·Ð³Ð¾ÑĤÐ²Ñı": 4690,
      "ĠÐ³ÐµÑĢÐ¼Ð°Ð½": 4691,
      "ĠÐ¾ÑĤÐºÐ°Ð·Ð°": 4692,
      "ĠÐ½ÐµÐ³Ð¾Ð²Ð¸Ñı": 4693,
      "ĠÑģÑĬÐ¾ÑĢÑĬÐ¶ÐµÐ½Ð¸Ñı": 4694,
      "Ð¿Ð¾Ð¼ÐµÐ½Ð°": 4695,
      "ĠÐ½Ð¸Ð´ÐµÑĢÐ»Ð°Ð½Ð´": 4696,
      "ĠÐ·Ð°Ð¿Ð¾Ð²ÐµÐ´": 4697,
      "ĠÐ½Ð¸ÐºÐ¾": 4698,
      "Ð¼ÐµÑĢÐ½Ð¾": 4699,
      "ĠÐ¸ÑģÐºÐ¾": 4700,
      "ĠÐ¿Ð¾Ñĩ": 4701,
      "ĠÐ¸ÑīÐµÑĨ": 4702,
      "Ð¿ÑĢÐ¾ÑĤÐ¸": 4703,
      "ks": 4704,
      "ĠÑĢÐ°Ð·ÑĢÐµÑĪÐµÐ½Ð¸ÐµÑĤÐ¾": 4705,
      "ĠÐ³Ð°ÑĢÐ°Ð½ÑĨÐ¸Ð¸": 4706,
      "ÑģÑĤÐ°Ð½Ð¸": 4707,
      "Ð»Ð¾Ð½": 4708,
      "ĠÐ¿Ð¾ÑģÑĤÐ¸Ð³Ð°Ð½ÐµÑĤÐ¾": 4709,
      "Ð¿ÑĢ": 4710,
      "ĠÐ¾Ð¿ÑĢÐ¾": 4711,
      "ĠÐ¿ÑĢÐµÐ´Ð²Ð¸Ð´ÐµÐ½Ð¾ÑĤÐ¾": 4712,
      "ĠÐ¿ÑĢÐµÐ´Ð¿Ð°Ð·": 4713,
      "ĠÑĦÑĥÐ½ÐºÑĨÐ¸Ð¸": 4714,
      "Ð±ÑĢÐµ": 4715,
      "ĠÐºÐ°ÐºÐ²Ð¸": 4716,
      "gr": 4717,
      "ĠÐ¾Ð±Ð¾ÑģÐ½Ð¾Ð²Ð°": 4718,
      "ĠÐ·Ð¾": 4719,
      "ĠÐ¾ÑĢÐ³Ð°Ð½ÑĬÑĤ": 4720,
      "ÐµÑĢÐ°": 4721,
      "ĠÐºÐ¾Ð½ÑģÑĤÑĢÑĥ": 4722,
      "ĠÐ±Ð»Ð¸": 4723,
      "ĠÐ¿ÑĢÐµÐ´Ð²Ð¸Ð´ÐµÐ½": 4724,
      "ĠÐºÐ°Ð½Ð´Ð¸Ð´Ð°ÑĤ": 4725,
      "ĠÐ²ÑĬÐ²Ðµ": 4726,
      "ĠÐ¿Ð¾Ð¿Ð°Ð´Ð°ÑĤ": 4727,
      "ĠÐ½Ð°ÑĨÐ¸Ð¾Ð½Ð°Ð»ÐµÐ½": 4728,
      "Ð½Ð°ÑĨÐ¸Ñı": 4729,
      "ĠÐ¾ÑĤÐ½Ð°ÑģÑıÑīÐ¸": 4730,
      "ĠÐ³ÑĢÐ¸": 4731,
      "ÑĪÐ½Ð¾ÑĤÐ¾": 4732,
      "ĠÐ·Ð°Ð¿": 4733,
      "ĠÑĥÐ²ÑĢÐµ": 4734,
      "iff": 4735,
      "Ġtel": 4736,
      "Ġob": 4737,
      "ĠÑĪÐµÑģÑĤÐ°": 4738,
      "Ð¼Ð¸Ð´": 4739,
      "ĠÑĢÐµÐ·ÑĥÐ»ÑĤÐ°ÑĤÐ¸": 4740,
      "ĠÐ½ÐµÐ¾ÑģÐ½Ð¾": 4741,
      "ĠÐ½ÐµÐ¿ÑĢÐµÐ²Ð¸ÑĪÐ°Ð²Ð°ÑīÐ°": 4742,
      "Ñĸ": 4743,
      "Ġ210": 4744,
      "89": 4745,
      "ĠÐ²Ð½ÐµÑģ": 4746,
      "ĠÐ¾Ð³ÑĢÐ°Ð½Ð¸ÑĩÐ¸ÑĤÐµÐ»Ð½Ð¸": 4747,
      "ĠÐ²Ð»Ð¸ÑıÐ½Ð¸Ðµ": 4748,
      "ÐºÑĢÐµÐ¿": 4749,
      "ĠÐ¶ÐµÐ»Ð°": 4750,
      "ĠÐ¾Ð¿Ð°Ð·Ð²Ð°Ð½Ðµ": 4751,
      "ĠÐ¿ÑĢÐµÐ´Ð»Ð¾Ð¶ÐµÐ½Ð¸ÐµÑĤÐ¾": 4752,
      "ĠÐ½Ð¾Ð¼ÐµÐ½ÐºÐ»Ð°ÑĤÑĥÑĢÐ°": 4753,
      "ĠÑģÐµÐ²ÐµÑĢ": 4754,
      "ĠÑģÐµÐ´Ð¼Ð¸": 4755,
      "ĠÐ¾ÑģÑĤ": 4756,
      "ĠÐ¿Ð¾ÑģÑĤÐ¸Ð³Ð°Ð½Ðµ": 4757,
      "ÑīÐµÐ½": 4758,
      "ĠÐ¿ÑĢÐ¸ÑĩÐ¸Ð½Ð°": 4759,
      "ĠÑĥÐ²Ð°": 4760,
      "ert": 4761,
      "Ð³Ð½Ð¸": 4762,
      "ĠÐ¾ÑĤÑĤÐµÐ³": 4763,
      "ĠÑĨÐ¸Ðº": 4764,
      "ĠÑĤÐµÐ¶ÐµÑģÑĤ": 4765,
      "Ð¼Ð¸Ð½Ð¾": 4766,
      "ĠÐ¿ÑĢÐµÑİÐ´Ð¸ÑĨÐ¸Ð°Ð»Ð½Ð¸": 4767,
      "Ġ267": 4768,
      "ĠÐ¾Ð±ÑĬÑĢ": 4769,
      "ĠÐ¿ÑĢÐ¾ÑĨÐµÑģÐ°": 4770,
      "ĠÑĢÐ°Ð±Ð¾ÑĤÐ½Ð¸Ðº": 4771,
      "bon": 4772,
      "ĠÐ½ÐµÐ¿ÑĢÐ°Ð²Ð¾": 4773,
      "ĠÐ½Ð°ÑĨÐ¸Ð¾Ð½Ð°Ð»Ð½Ð¸Ñı": 4774,
      "ĠÐ¾Ð±ÑħÐ²Ð°Ð½Ð°ÑĤÐ¸": 4775,
      "ĠÐ¾Ð±ÐµÐ·ÑīÐµÑĤÐµÐ½Ð¸Ñı": 4776,
      "ĠÐµÐ»ÐµÐºÑĤÑĢÐ¾Ð½Ð½Ð¸": 4777,
      "ĠÐ¿Ð¾Ð´ÑħÐ¾Ð´ÑıÑīÐ¾": 4778,
      "ĠÑĦÐ°ÐºÑĤÐ¸ÑĩÐµÑģÐºÐ¸": 4779,
      "Ð¸ÑģÐºÐ°ÑĤÐ°": 4780,
      "ĠÐ¿Ð»Ð°ÑĤÐµÐ¶": 4781,
      "ĠÐ½ÐµÐ¿": 4782,
      "ai": 4783,
      "ĠÑĢÐ°Ð±Ð¾ÑĤÐ¾Ð´Ð°ÑĤÐµÐ»": 4784,
      "Ġspp": 4785,
      "ĠÐ¿Ð¾Ð»Ð·Ð²Ð°ÑĤ": 4786,
      "ĠÐ¿ÑĢÐ¾Ð´Ð°Ð²Ð°": 4787,
      "ĠÑĢÑĥÐ¼ÑĬ": 4788,
      "Ġ230": 4789,
      "ĠÑĤÐµÐ¼Ð¿ÐµÑĢÐ°ÑĤÑĥÑĢÐ°": 4790,
      "ĠÑĥÐ¿ÑĢÐ°Ð²Ð»ÑıÐ²Ð°": 4791,
      "ĠÐ´Ð²Ð¾": 4792,
      "ĠÐ¸ÑģÐºÐ°Ð½Ð¸ÑıÑĤÐ°": 4793,
      "ĠÐ¼Ð¾Ð»Ð±Ð°ÑĤÐ°": 4794,
      "ĠÐ²ÑģÑıÐºÐ°ÐºÐ²Ð¸": 4795,
      "ĠÑģÑĬÑīÐµÐ²ÑĢÐµÐ¼ÐµÐ½Ð½Ð¾": 4796,
      "ato": 4797,
      "Ġhk": 4798,
      "ĠÐºÐ¾Ð½ÑĨÐµ": 4799,
      "Ġ114": 4800,
      "ÑĢÐ½Ð°ÑĤÐ°": 4801,
      "pe": 4802,
      "ÑĤÑĢÐ¾": 4803,
      "ost": 4804,
      "ĠÑĤÑĬÐºÐ°Ð½Ð¸": 4805,
      "ĠÐ½Ð°ÑĩÐ°Ð»Ð¾ÑĤÐ¾": 4806,
      "Ð¼ÐµÐ½Ð¸ÑĤÐµ": 4807,
      "ĠÐ¿ÑĢÐ¸Ð½ÑĨÐ¸Ð¿ÑĬÑĤ": 4808,
      "ĠÐ¿ÑĢÐµÐ´Ð¼Ðµ": 4809,
      "Ð»ÑĬÑĤ": 4810,
      "ĠÑĥÑģÑĤÐ°Ð½Ð¾Ð²ÐµÐ½Ð°": 4811,
      "ĠÐ¼ÐµÐ¶Ð´Ð¸Ð½": 4812,
      "ĠÐ½Ð°Ð¿Ð¸ÑĤ": 4813,
      "ĠÐ¼ÐµÑĤÐ°Ð»Ð¸": 4814,
      "ĠÐ¿ÑĢÐ°Ð²Ð¾Ð¾ÑĤÐ½Ð¾": 4815,
      "ĠÐ°Ð³ÐµÐ½ÑĨÐ¸Ñı": 4816,
      "ĠÐ¾Ð±Ð²Ð¸": 4817,
      "ĠÐ½Ð°Ð¼ÐµÑĢ": 4818,
      "ĠÑĦÐ¸Ð½": 4819,
      "ĠÐ½ÐµÐ²ÑĬÐ·": 4820,
      "ĠÐ¿ÑĢÐ¸ÑģÑĤÐ°Ð½Ð¸": 4821,
      "ĠÑĤÑĥÑĢ": 4822,
      "ĠÐ¸Ð·Ð»Ð¾Ð¶ÐµÐ½Ð¾ÑĤÐ¾": 4823,
      "ĠÐºÑĥÐ»ÑĤÑĥÑĢÐ¸": 4824,
      "Ð¿ÑĢÐµÐ¿ÑıÑĤ": 4825,
      "ĠÐ¸Ð½Ð¸ÑĨÐ¸": 4826,
      "Ð¶ÐµÐ½Ð¸ÐµÑĤÐ¾": 4827,
      "Ð´ÐµÑģÐµÑĤ": 4828,
      "ĠÐ¿ÑĬÑĢÐ²Ð¾Ð¸Ð½ÑģÑĤÐ°Ð½ÑĨÐ¸Ð¾Ð½Ð½Ð¸ÑıÑĤ": 4829,
      "for": 4830,
      "ĠÑĦÐ¾Ð½Ð´Ð¾Ð²Ðµ": 4831,
      "ĠÐ¿ÑĢÐµÐ´Ð°Ð²Ð°Ð½Ðµ": 4832,
      "Ð¼ÑģÐºÐ¸": 4833,
      "Ġdu": 4834,
      "ĠÐ¸Ð·ÑģÐ»ÑĥÑĪ": 4835,
      "ĠÐ²Ð·Ð°Ð¸Ð¼Ð¾": 4836,
      "ÑĢÐ°Ð¶Ð´Ð°": 4837,
      "ĠÐ¾Ð¿Ð¸ÑģÐ°Ð½Ð¸": 4838,
      "ĠÑĦÑĢÐµÐ½ÑģÐºÐ¸": 4839,
      "ĠÐ°ÑĢÑĤÐ¸ÐºÑĥÐ»Ð¸": 4840,
      "Ð´Ð½Ð¾ÑģÑĤÑĤÐ°": 4841,
      "990": 4842,
      "ĠÐ¿ÑĢÐ¾ÐµÐºÑĤÐ°": 4843,
      "ĠÐ²ÑĬÐ·Ð½Ð°Ð³ÑĢÐ°Ð¶Ð´ÐµÐ½Ð¸Ðµ": 4844,
      "ĠÐ¸Ð·ÑĩÐ¸ÑģÐ»ÑıÐ²Ð°Ð½ÐµÑĤÐ¾": 4845,
      "ÑıÑģ": 4846,
      "Ġ{": 4847,
      "ĠÐ¼Ð¾Ð»Ð¸": 4848,
      "ĠÐµÐ´Ð½Ð¾Ð²ÑĢÐµÐ¼ÐµÐ½Ð½Ð¾": 4849,
      "ĠÐ¼Ð°ÑģÐ»Ð°": 4850,
      "ĠÐ¿Ð¾ÐµÐ¼Ð°": 4851,
      "ĠÐ¿ÑĢÐµÐ¿ÑĢÐ°ÑīÐ°": 4852,
      "Ġ}": 4853,
      "ĠÐ¿Ð¾ÑĤÑĢÐµÐ±Ð¸ÑĤÐµÐ»Ñı": 4854,
      "ÐµÐ¼Ð¸ÑĤÐµ": 4855,
      "ĠÐ¾ÑĤÐ³Ð¾Ð²Ð¾ÑĢÐ½Ð¾ÑģÑĤÑĤÐ°": 4856,
      "ĠÐ¿ÑĢÐµÑİÐ´Ð¸ÑĨÐ¸Ð°Ð»ÐµÐ½": 4857,
      "Ġ123": 4858,
      "ĠÐ´Ð°Ð½ÑĬÑĩÐ½Ð¸": 4859,
      "ĠÑģÑĬÑħÑĢÐ°": 4860,
      "ĠÐ¸Ð·Ð¿Ð¸ÑĤÐ²Ð°Ð½Ð¸Ñı": 4861,
      "ĠÐ¿Ð¾ÑģÐ»ÐµÐ´Ð¾Ð²Ð°": 4862,
      "ĠÐ¾ÑħÐ»Ð°": 4863,
      "Ġ136": 4864,
      "ĠÑĪÐ²ÐµÐ¸ÑĨÐ°ÑĢÐ¸Ñı": 4865,
      "010": 4866,
      "ĠÐ¿Ð¸ÑģÐ¼ÐµÐ½Ð¾": 4867,
      "ĠÐºÐ°ÑĢÑĤÐ¾": 4868,
      "ĠÑģÑĤÐ°ÑĤÑĥÑĤ": 4869,
      "ĠÐ²Ð¾Ð´": 4870,
      "ione": 4871,
      "ĠÐ¼Ð°Ð·Ð½Ð¸Ð½Ð¸": 4872,
      "Ð»Ð½Ð¸ÑĤÐµ": 4873,
      "ĠÐ¿Ð¾Ð»Ð·Ð²Ð°Ð½Ðµ": 4874,
      "ĠÐ½Ð°Ð¼Ðµ": 4875,
      "ĠÐ´ÐµÑģÐµ": 4876,
      "ĠÐ°Ð²ÑĤÐ¾Ð¼Ð¾Ð±Ð¸": 4877,
      "enc": 4878,
      "ĠÑģÑħÐµÐ¼Ð°ÑĤÐ°": 4879,
      "ĠÐ½Ð°Ð¿Ð¾Ð¼": 4880,
      "iqu": 4881,
      "ĠÑĪÐ²ÐµÑĨÐ¸Ñı": 4882,
      "ĠÐ¿ÐµÑĩÐ°Ð»Ð±Ð°": 4883,
      "Ġpet": 4884,
      "ĠÑĤÐ²ÑĬÑĢÐ´Ñı": 4885,
      "iation": 4886,
      "ĠÐºÐ³": 4887,
      "Ð²Ð°ÑĤÐµÐ»Ð½Ð¾": 4888,
      "ĠÐ´Ð°Ð½ÑĬÑĨÐ¸": 4889,
      "ĠÃ": 4890,
      "ĠÐ¿Ð°ÑĢÑĤÐ¸": 4891,
      "ĠÐ·Ð°ÑģÐµÐ³Ð½Ð°ÑĤÐ¸": 4892,
      "ĠÐ¼ÐµÑĤÐ¾Ð´Ð°": 4893,
      "Ð¶Ð½Ð°": 4894,
      "istr": 4895,
      "ĠÑĩÐ°ÑģÑĤÐ½Ð¾": 4896,
      "ĠÐ¸Ð½Ð²ÐµÑģÑĤ": 4897,
      "ĠÐµÐ²ÑĢÐ¾Ð¿ÐµÐ¸ÑģÐºÐ¸ÑıÑĤ": 4898,
      "ĠÐ´Ð°Ð½ÑĬÑĩÐ½Ð°": 4899,
      "ĠÑĥÐ¼ÐµÑģÑĤ": 4900,
      "ĠÐ½ÐµÐ´ÐµÐ¸ÑģÑĤÐ²Ð¸": 4901,
      "Ġ540": 4902,
      "ĠÐ¸Ð·Ð²ÑĬÑĢÑĪÐµÐ½Ð¾": 4903,
      "Ð»Ð¾Ð²Ð°": 4904,
      "ĠÐ¿Ð»Ð¾Ñī": 4905,
      "ĠÐ¾ÑĤÐ½Ð¾Ð²Ð¾": 4906,
      "ĠÑģÑĤÐ°Ð²ÐºÐ°": 4907,
      "ÑĢÐµÐ½Ðµ": 4908,
      "ument": 4909,
      "ĠÐ²ÑĬÐ¿ÑĢÐ¾ÑģÐ¸ÑĤÐµ": 4910,
      "ere": 4911,
      "ĠÐ¿Ð¾Ð³": 4912,
      "Ð½Ð¸Ð¸": 4913,
      "ĠÑģÑĬÐ³Ð»Ð°ÑģÐ¸Ðµ": 4914,
      "ĠÑĩÐ°ÑģÐ°": 4915,
      "Ġ050": 4916,
      "ĠÐ¿ÑĢÐ¾Ð¼ÐµÐ½Ð»Ð¸": 4917,
      "Ġed": 4918,
      "ata": 4919,
      "ĠÐ¿Ð¸ÑģÐ¼ÐµÐ½Ð°ÑĤÐ°": 4920,
      "ĠÐºÐ¾Ð½ÑģÐ¾": 4921,
      "Ġ600": 4922,
      "ĠÐ²Ð¾Ð´Ð¾": 4923,
      "Ð¸Ð»": 4924,
      "Ġ117": 4925,
      "ĠÐ´ÑĬÑĢÐ¶Ð°Ð²Ð½Ð¸": 4926,
      "ĠÐ´ÐµÑĦÐ¸Ð½Ð¸": 4927,
      "ĠÑĤÐ²ÑĬÑĢÐ´ÐµÐ½Ð¸Ðµ": 4928,
      "ĠÑĢÐ°Ð·ÐºÑĢÐ¸": 4929,
      "Ġhe": 4930,
      "ĠÐ½ÐµÑģÑĬÐ²": 4931,
      "ĠÐµÐºÑģÑĤÑĢÐ°": 4932,
      "ĠÐ¾ÑĩÐµÐ²Ð¸": 4933,
      "ĠÐºÐ¾Ð¼Ñĥ": 4934,
      "ĠÐ¾Ð±ÑīÐ½Ð¾ÑģÑĤÐ½Ð¾ÑĤÐ¾": 4935,
      "Ð¿Ð°Ð·Ð²Ð°Ð½ÐµÑĤÐ¾": 4936,
      "ĠÑĢÐµÐ¶Ð¸Ð¼Ð°": 4937,
      "ĠÑĤÐµÐ¶": 4938,
      "83": 4939,
      "Ð²Ð»ÐµÐ½Ð¸ÑıÑĤÐ°": 4940,
      "ĠÑĢÐ°Ð¶Ð´Ð°Ð½Ðµ": 4941,
      "ĠÐ°ÐºÑĨÐ¸Ð¾": 4942,
      "ĠÐ¿ÑĢÐ°Ð²Ð¸ÑĤÐµÐ»ÑģÑĤÐ²Ð°": 4943,
      "ĠÐ¸Ð½Ð²ÐµÑģÑĤÐ¸ÑĤÐ¾": 4944,
      "ĠÎµ": 4945,
      "ÑĨÐ¸Ð¾Ð½Ð½Ð¸Ñı": 4946,
      "ĠÐ¿ÑĢÐµÐ´ÑģÑĤÐ°Ð²ÐµÐ½Ð¾": 4947,
      "ĠÐ´Ð°Ð½Ð¸Ñı": 4948,
      "ĠÐ²ÑĬÐ²ÐµÐ¶Ð´Ð°Ð½ÐµÑĤÐ¾": 4949,
      "ĠÑĥÑģÐ¸": 4950,
      "ĠÑģÑĤÑĢÐ¾": 4951,
      "ÑĢÑĤÐ½Ð¸": 4952,
      "ith": 4953,
      "ĠÑģÑĢÐ°Ð²Ð½Ð¸": 4954,
      "Ġtrib": 4955,
      "Ġ620": 4956,
      "ĠÐ¿ÑĢÐµÐ´ÑģÐµÐ´Ð°ÑĤÐµÐ»Ñı": 4957,
      "ĠÑĦÐ¾ÑĢÐ¼ÑĥÐ»Ñı": 4958,
      "ats": 4959,
      "ĠÐ°Ð¿ÐµÐ»Ð°ÑĤÐ¸Ð²ÐµÐ½": 4960,
      "ĠÐ¿ÑĢÐ¾ÑĤÐ¾ÐºÐ¾Ð»Ð°": 4961,
      "Ġlimit": 4962,
      "ĠÑĤÐµÐºÑģÑĤÐ¸Ð»Ð½Ð¸": 4963,
      "Ġna": 4964,
      "ĠÑĤÐ°ÐºÑģÐ°": 4965,
      "Ġ119": 4966,
      "ĠÑĢÐ¾Ð´Ð¸": 4967,
      "ĠÐ³Ð°ÑĢÐ°Ð½ÑĤÐ¸ÑĢÐ°Ð½Ðµ": 4968,
      "ÐºÐ²Ð°ÑĤ": 4969,
      "ĠÐ±Ð°Ð·Ð°": 4970,
      "ĠÐ¼ÑģÑģ": 4971,
      "ĠÐ¿ÑĢÐ¸Ð½Ñĥ": 4972,
      "ĠÐ½ÐµÑĢÐ°Ð·": 4973,
      "ĠÐ·Ð°Ð³ÑĥÐ±Ð°": 4974,
      "Ð²Ð°ÑīÐ¸ÑĤÐµ": 4975,
      "ĠÑģÐ»ÑĥÐ¶Ðµ": 4976,
      "ĠÐ¸Ð·ÑĤÐ¾ÑĩÐ½Ð¸Ðº": 4977,
      "roc": 4978,
      "ĠÐ¾ÑĤÑĩÐ¸ÑĤÐ°ÑĤ": 4979,
      "Ġta": 4980,
      "ĠÐ¿Ð¾ÐºÐ°Ð·Ð²Ð°": 4981,
      "ros": 4982,
      "ĠÂ±": 4983,
      "Ġund": 4984,
      "iet": 4985,
      "ĠÐ¿ÑĢÐµÐ¾Ð±ÑĢÐ°Ð·Ñĥ": 4986,
      "ĠÐ¸Ð·Ð¼ÐµÑĢÐ²Ð°Ð½Ðµ": 4987,
      "ÑĨÐº": 4988,
      "ĠÐ½ÐµÐ¸Ð·Ð²ÐµÑģÑĤ": 4989,
      "ĠÑĩÐ°ÑģÑĤÐ½Ð¾ÑģÑĤ": 4990,
      "ĠÐºÐ¾ÑĢÐ°Ð±": 4991,
      "ĠÐ²ÑĬÐ·Ð½Ð°Ð³ÑĢÐ°Ð¶Ð´": 4992,
      "ther": 4993,
      "ĠÐ¾Ð³ÑĢÐ°Ð½Ð¸ÑĩÐ°Ð²Ð°Ð½Ðµ": 4994,
      "ĠÐ´Ð¾Ð¼Ð°ÐºÐ¸": 4995,
      "ĠÐ¸Ð½ÑĤÐµÐ»ÐµÐºÑĤÑĥ": 4996,
      "ĠÐ²ÐµÑĢÐ¸": 4997,
      "ĠÐ°ÐºÑĨÐ¸Ð¸": 4998,
      "ĠÐ½ÐµÐ·Ð°ÐºÐ¾Ð½": 4999,
      "ĠÐ¾ÑĤÑĩÐµÑĤ": 5000,
      "ĠÐ²ÑĬÐ·Ð¿ÑĢÐµÐ¿ÑıÑĤ": 5001,
      "ĠÑĤÐ¸Ð¿Ð¾": 5002,
      "Ð²Ð¸Ð½": 5003,
      "ĠÐ¿ÑĢÐµÐºÑĢÐ°ÑĤÑıÐ²Ð°Ð½Ðµ": 5004,
      "Ð¼ÐµÑĤÑĬÑĢ": 5005,
      "ĠÐ¸Ð·ÑĤÐ¸ÑĩÐ°Ð½ÐµÑĤÐ¾": 5006,
      "ĠÑģÐµÐºÑĢÐµÑĤÐ°ÑĢÐ¸": 5007,
      "ĠÐ°ÑģÐ¿ÐµÐºÑĤÐ¸": 5008,
      "ĠÐ¿Ð¾Ð·Ð²Ð¾Ð»ÑıÐ²Ð°ÑĤ": 5009,
      "ĠÐ´ÑĢÑĥÐ¶ÐµÑģÑĤÐ²Ð°ÑĤÐ°": 5010,
      "ĠÐ´Ð¾Ð¼Ð°ÑĪÐ½Ð¸": 5011,
      "ĠÑĤÐµÐºÑĥ": 5012,
      "Ġ2574": 5013,
      "ĠÐ¿Ð¾ÑĢÐ°Ð¶Ð´Ð°": 5014,
      "ĠÐ¼Ð»Ðµ": 5015,
      "ĠÐ¿Ð»Ð°ÑģÑĤ": 5016,
      "Ð´Ð²Ð¸Ð¶": 5017,
      "ĠÐ½Ð°ÑģÐ¾ÐºÐ¸": 5018,
      "Ġpol": 5019,
      "Ġdo": 5020,
      "ĠÐ·Ð°Ð³": 5021,
      "Ð»Ð¾Ð³": 5022,
      "ĠÐ½ÐµÐ´Ð¾Ð¿ÑĥÑģÑĤÐ¸": 5023,
      "Ð¿Ñĩ": 5024,
      "ĠÐ²Ð°ÑĢÐ¸": 5025,
      "ĠÐºÐ°ÐºÑĬÐ²": 5026,
      "ĠÐºÐ°Ð»Ð¸": 5027,
      "ĠÑī": 5028,
      "ĠÑģÐµÐºÑĢÐµÑĤÐ°ÑĢ": 5029,
      "Ġcps": 5030,
      "ĠÐ³ÑĢÑĬ": 5031,
      "ĠÐ¸Ð·Ð¿Ð¾Ð»Ð·Ð²Ð°Ð½": 5032,
      "ĠÑģÑĤÐµÐ¿ÐµÐ½ÑĤÐ°": 5033,
      "ĠÐ½Ð¾ÑĢÐ²Ðµ": 5034,
      "ĠÐµÐ½": 5035,
      "ĠÑĢÐ¸ÑģÐºÐ¾Ð²Ðµ": 5036,
      "ĠÐ´Ð¾ÐºÐ°Ð·Ð°ÑĤÐµÐ»ÑģÑĤÐ²Ð°ÑĤÐ°": 5037,
      "ĠÐ¿ÑĢÐ¸Ð·Ð½Ð°Ð²Ð°": 5038,
      "ĠÐ°Ð·": 5039,
      "ĠÐ¿ÑĢÐ¾Ð¸Ð·Ð²ÐµÐ´ÐµÐ½Ð¸": 5040,
      "Ġdoc": 5041,
      "Ġ2022": 5042,
      "Ð²Ð°Ð½Ð°ÑĤÐ°": 5043,
      "ĠÐºÐ¾Ð¼Ð°": 5044,
      "ĠÐ¼Ð¾Ð½Ð¸": 5045,
      "ĠÐ½Ð°Ð±Ð»ÑİÐ´ÐµÐ½Ð¸Ðµ": 5046,
      "ĠÐ´Ð½Ðµ": 5047,
      "ĠÐºÑĢÐµÐ´Ð¸ÑĤÐ¾": 5048,
      "ĠÐ²ÑĬÐ·ÑģÑĤÐ°Ð½Ð¾Ð²ÑıÐ²Ð°Ð½ÐµÑĤÐ¾": 5049,
      "ĠÐ¿ÑĢÐ¸Ð»Ð¾Ð¶Ð¸Ð¼Ð¸ÑĤÐµ": 5050,
      "ĠÐ´Ð²Ð¸Ð³Ð°ÑĤÐµÐ»": 5051,
      "Ð½ÑģÐºÐ¸Ñı": 5052,
      "ark": 5053,
      "ĠÐ³ÑĬ": 5054,
      "Ð¿Ð¾ÑģÐ¾": 5055,
      "ero": 5056,
      "ÑģÑĢÐµÐ´": 5057,
      "ĠÐ³Ð¾Ð»ÑıÐ¼Ð¾": 5058,
      "ĠÑģÑĬÐ´ÐµÐ¸ÑģÑĤÐ²Ð¸Ðµ": 5059,
      "ĠÐ·Ð°Ð²ÑĬÑĢÑĪ": 5060,
      "ĠÑĥÐ½Ð³Ð°ÑĢÐ¸Ñı": 5061,
      "ÑĤÐ¸ÑĩÐ½Ð¾": 5062,
      "ĠÐ¿ÑĢÐ¸Ð»Ð¾Ð¶Ð¸Ð¼": 5063,
      "ĠÐ½ÐµÑĢÐ°": 5064,
      "ĠÐ¾Ð¿ÐµÑĢÐ°ÑĤÐ¾ÑĢÐ¸ÑĤÐµ": 5065,
      "ĠÐ½ÐµÐ·Ð°ÐºÐ¾Ð½Ð¾": 5066,
      "ĠÐ¸Ð½ÑĦÐ¾ÑĢÐ¼Ð¸ÑĢÐ°": 5067,
      "ĠÐ´Ð²Ð¸Ð³Ð°ÑĤÐµÐ»Ð¸": 5068,
      "ĠÑģÑĤÐ¾Ð¿Ð°Ð½ÑģÑĤÐ²Ð¾": 5069,
      "ĠÐ¿ÑĢÐµÐ´Ð¸Ð·": 5070,
      "Ġ160": 5071,
      "ĠÐ´ÐµÐ¸ÑģÑĤÐ²Ð¸ÑıÑĤÐ°": 5072,
      "ĠÑģÑĥÐ»": 5073,
      "Ġ320": 5074,
      "ĠÐ´Ð¾ÑģÑĤÐ°ÑĤÑĬÑĩÐ½Ð°": 5075,
      "ĠÐ³Ñĥ": 5076,
      "ĠÐ¾ÑĢÐ¸Ð³Ð¸": 5077,
      "ĠÑĢÐ°Ð·ÑģÑĤÐ¾Ñı": 5078,
      "ĠÑģÑĤÐ°ÑĤÑĥÑĤÐ°": 5079,
      "ĠÐ¾Ð±ÑģÑĬ": 5080,
      "ĠÐ¿ÑĢÐµÑİÐ´Ð¸ÑĨÐ¸Ð°Ð»Ð½Ð¾ÑĤÐ¾": 5081,
      "ĠÐ½ÐµÐ²ÑĬÐ·Ð¼Ð¾Ð¶": 5082,
      "ĠÑĦÐ»Ñĥ": 5083,
      "Ġsal": 5084,
      "ĠÐ¾ÑĤÐ¿ÑĥÑģÐº": 5085,
      "ĠÐ°Ð¿ÐµÐ»Ð°ÑĤÐ¸Ð²Ð½Ð¸ÑıÑĤ": 5086,
      "ĠÑĦÑĥÑĢÐ°": 5087,
      "ÑĩÐ¸Ðº": 5088,
      "ĠÐ¿Ð¾ÑģÐµ": 5089,
      "ĠÐ´ÐµÑģ": 5090,
      "ĠÐ¼Ð¸Ð½Ð¸Ð¼Ð°": 5091,
      "ĠÐ¾Ð±ÑīÐµÑģÑĤÐ²ÐµÐ½Ð¾": 5092,
      "Ð½ÑıÑĤ": 5093,
      "Ġcons": 5094,
      "ĠÐ¸Ð·Ð½Ð¾ÑģÐ°": 5095,
      "ĠÐ´Ð¾Ð¿ÑĥÑģÑĤÐ¸Ð¼Ð¸": 5096,
      "ĠÐ²ÑĢÐµÐ´Ð°ÑĤÐ°": 5097,
      "ĠÐ¿ÑĥÐ±Ð»Ð¸ÑĩÐ½Ð°ÑĤÐ°": 5098,
      "ĠÐ·Ð»Ð¾ÑĥÐ¿Ð¾ÑĤÑĢÐµÐ±Ð°": 5099,
      "ĠÐºÐ²Ð¾ÑĤÐ°": 5100,
      "ĠÑĥÐ²ÐµÐ´Ð¾Ð¼ÑıÐ²Ð°": 5101,
      "ĠÐ¸ÐºÐ¾Ð½Ð¾Ð¼Ð¸ÑĩÐµÑģÐºÐ¸ÑĤÐµ": 5102,
      "ĠÐ¿Ð¾Ð´Ð³Ð¾ÑĤ": 5103,
      "ĠÐ¿ÑĢÐ°Ð²Ð¸ÑĤÐµÐ»ÑģÑĤÐ²Ð¾ÑĤÐ¾": 5104,
      "ĠÐ¸ÐºÐ¾Ð½Ð¾Ð¼Ð¸ÑĩÐµÑģÐºÐ¾": 5105,
      "ĠÐµÐºÐ¾Ð»Ð¾Ð³Ð¸": 5106,
      "ĠÐ¿ÑĢÐµÐ·ÑĥÐ¼": 5107,
      "48": 5108,
      "ĠÐ´ÐµÐ¼Ð¾": 5109,
      "ĠÐ°ÑĦ": 5110,
      "ĠÐ·Ð°Ð±Ð°": 5111,
      "ĠÐ¿Ð¾Ð´Ð»ÐµÐ¶Ð¸": 5112,
      "ĠÐ¿ÑĢÐµÐ·ÑĥÐ¼Ð¿": 5113,
      "Ġ113": 5114,
      "ĠÐºÐ¾ÐµÑĦÐ¸ÑĨÐ¸ÐµÐ½ÑĤ": 5115,
      "gericht": 5116,
      "ĠÐ¿Ð°ÑĤÐµÐ½": 5117,
      "ĠÐ½ÐµÐ·Ð°ÐºÐ¾Ð½Ð¾ÑģÑĬÐ¾Ð±ÑĢÐ°Ð·": 5118,
      "ĠÐ¸Ð·Ð½Ð¾ÑģÐ¸ÑĤÐµÐ»": 5119,
      "ĠÐ¾Ð½": 5120,
      "ĠÑĩÐ¸ÑģÑĤÐ¾": 5121,
      "ĠÐ¿ÑĬÑĤÑĥ": 5122,
      "ÑĦÐ¾ÑĢ": 5123,
      "ĠÐ¿ÑĢÐ¾Ð¿Ñĥ": 5124,
      "Ġol": 5125,
      "ĠÐ¸Ð½Ð´ÐµÐºÑģ": 5126,
      "ĠÑĥÐ»ÐµÑģ": 5127,
      "Ġ611": 5128,
      "ĠÐ±Ð»Ð¾": 5129,
      "ÐµÑģÑĤ": 5130,
      "ĠÐ·Ð°ÑĩÐ¸ÑĤÐ°": 5131,
      "Ð½Ð¸Ð»": 5132,
      "ĠÑĢÐ°Ð·Ð´Ðµ": 5133,
      "ĠÐ´Ð°Ð½ÑĬÑĩÐ½Ð°ÑĤÐ°": 5134,
      "ĠÑıÐ²Ð½Ð¾": 5135,
      "ĠÐ¿Ð¾Ð½ÑıÑĤÐ¸Ðµ": 5136,
      "ĠÑģÐºÐ¾ÑĢÐ¾ÑģÑĤ": 5137,
      "Ġpri": 5138,
      "Ð¼ÐµÑģÐµ": 5139,
      "97": 5140,
      "ĠÑģÑĤÑĢÑĥÐºÑĤÑĥÑĢÐ°": 5141,
      "ĠÑıÐ´": 5142,
      "Ġbl": 5143,
      "ĠÐ·Ð°ÐºÐ»ÑİÑĩÐ¸": 5144,
      "ĠÐ²ÐµÑĢÐ¾ÑıÑĤÐ½Ð¾ÑģÑĤ": 5145,
      "ĠÐ¼Ð¾Ð½Ð¸ÑĤÐ¾ÑĢÐ¸": 5146,
      "ĠÐ³ÐµÐ½ÐµÑĢÐ°Ð»ÐµÐ½": 5147,
      "ĠÐ¾Ð¾Ð½": 5148,
      "ĠÐ¿ÑĥÐ½": 5149,
      "ĠÑģÑĬÑīÐµÑģÑĤÐ²ÑĥÐ²Ð°ÑīÐ¸ÑĤÐµ": 5150,
      "ÑĤÐ°Ð½Ðµ": 5151,
      "ĠÑĥÐºÑĢÐ°": 5152,
      "ĠÐ¾Ð´Ð¾Ð±ÑĢÐµÐ½Ð¸ÐµÑĤÐ¾": 5153,
      "ĠÐ¼Ð¾Ð´ÐµÐ»Ð¸": 5154,
      "Ġgu": 5155,
      "ĠÐ´ÑĢÑĥÐ³Ð°ÑĤÐ°": 5156,
      "ÑĢÑģ": 5157,
      "ĠÐ°Ð´Ð¼Ð¸Ð½Ð¸ÑģÑĤÑĢÐ°ÑĤÐ¸Ð²Ð½Ð¸ÑĤÐµ": 5158,
      "Ð»Ð¸ÑĢÐ°Ð½Ðµ": 5159,
      "ÑīÐµÐ½Ð¸Ñı": 5160,
      "ĠÑĤÑĢÐµÑĤÐ¸Ñı": 5161,
      "ĠÐ¿ÑĢÐµÐ¿Ð¸ÑģÐºÐ°": 5162,
      "Ð²Ð»Ð¸": 5163,
      "Ġer": 5164,
      "ĠÐ½ÐµÐ¸Ð½Ð°ÑĤÐ°": 5165,
      "ĠÐ°Ð´ÑĢÐµÑģÐ°": 5166,
      "Ġland": 5167,
      "Ġ400": 5168,
      "any": 5169,
      "ef": 5170,
      "ĠÑĥÐµ": 5171,
      "ĠÐ¸Ð½ÑģÑĤÐ°Ð»Ð°": 5172,
      "ĠÐ¿Ð¾Ð²ÑĬÑĢÑħÐ½Ð¾ÑģÑĤ": 5173,
      "ĠÐµÐºÑģÐ¿Ð¾": 5174,
      "ÐµÐ½Ð¸Ð»": 5175,
      "urg": 5176,
      "ĠÐºÐ¾Ð»": 5177,
      "eto": 5178,
      "ĠÐ¾Ð¿Ð°ÑģÐ½Ð¾ÑģÑĤ": 5179,
      "ĠÐ°Ð±ÑģÐ¾Ð»Ñİ": 5180,
      "ĠÑĢÐ°Ð·Ð³Ð»ÐµÐ¶Ð´Ð°Ð½ÐµÑĤÐ¾": 5181,
      "ĠÐ±ÑĢÑĥ": 5182,
      "ĠÑģÑĢÐ¾ÐºÑĬÑĤ": 5183,
      "ĠÑĦÐ¸Ð½Ð°Ð½ÑģÐ¾Ð²Ð°ÑĤÐ°": 5184,
      "ĠÐ°Ð²ÑĤÐ¾ÑĢ": 5185,
      "ĠÐ½Ð¾Ð²Ð¸ÑĤÐµ": 5186,
      "ĠÐ¿Ð¾Ð´Ð¾Ð±Ð½Ð°": 5187,
      "ĠÐ³ÑĢÐ°Ð¶Ð´Ð°Ð½ÑģÑĤÐ²Ð¾": 5188,
      "ĠÐ½Ð¸ÐºÐ°ÐºÑĬÐ²": 5189,
      "ĠÐ´Ð¾Ð¿ÑĥÑģÐºÐ°ÑĤ": 5190,
      "ĠÐ¿ÑĢÐµÑħÐ²ÑĬÑĢÐ»ÑıÐ½ÐµÑĤÐ¾": 5191,
      "ĠÐ¾Ð±Ð¾Ð±": 5192,
      "ĠÐ²Ð°Ð¶Ð½Ð¾": 5193,
      "ĠÐºÐ¾Ð½ÑĨÐµÐ½ÑĤÑĢÐ°ÑĨÐ¸Ñı": 5194,
      "Ġda": 5195,
      "ÑĢÑĤÐ¸ÑĤÐµ": 5196,
      "ado": 5197,
      "ativ": 5198,
      "ĠÑĥÐ¼ÐµÑģÑĤÐ½Ð¾": 5199,
      "Ġ180": 5200,
      "ĠÐ¿ÑĢÐµÑģÐ½Ð¸": 5201,
      "ĠÐ½ÐµÐ´Ð¾ÑģÑĤÐ°ÑĤÑĬ": 5202,
      "ĠÑģÑĬÐ²Ð¼ÐµÑģÑĤÐ½Ð¾": 5203,
      "ĠÑģÐ¿Ð¾ÑĢÐ½Ð°ÑĤÐ°": 5204,
      "Ð²Ð°ÑīÐ¾": 5205,
      "ĠÐ¿ÑĢÐ¾Ð³Ð½Ð¾": 5206,
      "ĠÑĥÑĩÑĢÐµÐ´": 5207,
      "ĠÐ¿ÑĢÐ¾Ð´ÑĬÐ»Ð¶Ð¸ÑĤÐµÐ»Ð½Ð¾ÑģÑĤÑĤÐ°": 5208,
      "ĠÐ½Ð°Ð»Ð°Ð³Ð°Ð½Ðµ": 5209,
      "Ġinn": 5210,
      "ĠÐ²Ð»Ð°ÑģÑĤ": 5211,
      "els": 5212,
      "Ġaut": 5213,
      "ĠÐ¾Ð¿Ð»Ð°": 5214,
      "ÑĢÐ°Ð½Ð¸Ñı": 5215,
      "ĠÐºÐ¾Ð¼Ð¿Ñİ": 5216,
      "ĠÐ¾Ð±ÑģÑĤÐ¾ÑıÑĤÐµÐ»ÑģÑĤÐ²Ð¾": 5217,
      "ĠÐºÐ¾Ð¼Ð¿Ð»Ðµ": 5218,
      "ĠÐºÐ½ÑĢ": 5219,
      "ĠÐ¼Ð°Ð»ÐºÐ¸": 5220,
      "ĠÐ¸ÑĤÐ°Ð»Ð¸Ð°": 5221,
      "ĠÐ½ÐµÑģÑĬÑģÑĤÐ¾Ñı": 5222,
      "Ġmsc": 5223,
      "ĠÐ¿ÑĢÐ¸Ð´Ð¾Ð±Ð¸Ð²Ð°Ð½Ðµ": 5224,
      "ĠÐºÐ¾Ð½ÑĦ": 5225,
      "ĠÑģÑĬÐ·Ð´Ð°Ð²Ð°Ð½ÐµÑĤÐ¾": 5226,
      "ĠÐ¸Ð·ÑĩÐ¸ÑģÐ»ÑıÐ²Ð°": 5227,
      "ĠÑĥÑģÑĤÐ°Ð½Ð¾Ð²ÑıÐ²Ð°Ð½ÐµÑĤÐ¾": 5228,
      "ĠÐ¾ÑĤÑĩÐ¸ÑĤÐ°Ð½Ðµ": 5229,
      "ĠÑģÐµÐ¼ÐµÐ¸ÑģÑĤÐ²Ð¾ÑĤÐ¾": 5230,
      "ĠÐ¿Ð°ÑĢ": 5231,
      "ĠÐºÐ²Ð°Ð»Ð¸ÑĦÐ¸ÑĨÐ¸": 5232,
      "ÐµÐ¼Ðµ": 5233,
      "ĠÐ¿Ð¾ÑĢÑĤÑĥÐ³Ð°Ð»": 5234,
      "ĠÐ¿ÑĢÐµÐ¿Ð°ÑĢÐ°ÑĤÐ¸": 5235,
      "ĠÐ³Ð°ÑĢÐ°Ð½ÑĨÐ¸Ñı": 5236,
      "ĠÑģÑĬÐ²Ð¼ÐµÑģÑĤÐ¸": 5237,
      "ĠÐ¸Ð·Ð²ÑĬÐ½ÑĢÐµÐ´": 5238,
      "ĠÐ¾ÑĨÐµÐ½ÑıÐ²Ð°Ð½Ðµ": 5239,
      "ĠÑĥÑģÐ²Ð¾": 5240,
      "ĠÐ¼Ð°ÑĢÐ¶": 5241,
      "ĠÐ½Ð¸ÐºÐ°ÐºÐ²Ð¾": 5242,
      "Ġop": 5243,
      "ĠÐ½Ð°ÑĢÑĥÑĪÐ°Ð²Ð°": 5244,
      "Ġgl": 5245,
      "ker": 5246,
      "ĠÑĪÐ°": 5247,
      "ical": 5248,
      "ĠÑĤÐµÐ»ÐµÐ²Ð¸Ð·Ð¸": 5249,
      "ĠÑģÐ¸Ð³ÑĥÑĢÐ½Ð¾ÑģÑĤÑĤÐ°": 5250,
      "ĠÐ¿Ð¾Ð´Ð½Ð¾": 5251,
      "ĠÐ¸Ð½Ð¸ÑĨÐ¸Ð°ÑĤÐ¸": 5252,
      "ÑģÑĤÑĬÑĢÐ°": 5253,
      "Ð¿ÑĢÐ°Ð²Ð½Ð¸": 5254,
      "ĠÐ½ÐµÐ¿Ð¾ÑģÑĢÐµÐ´": 5255,
      "ĠÐ½ÐµÐ¼ÑģÐºÐ¸": 5256,
      "Ð°Ð»Ð½Ð¾ÑģÑĤ": 5257,
      "ba": 5258,
      "Ġtribun": 5259,
      "ĠÐ°Ð½ÑĤÐ¸Ð´ÑĬÐ¼Ð¿Ð¸Ð½Ð³Ð¾Ð²Ð¾": 5260,
      "ĠÐ½ÐµÑĢÐµÐ´": 5261,
      "ĠÐ±ÐµÐ»ÐµÐ¶ÐºÐ¸": 5262,
      "ĠÐ¿Ð¾ÑģÐ»ÐµÐ´Ð½Ð¸Ñı": 5263,
      "ĠÐ½ÐµÐ¿ÑĢÑı": 5264,
      "ĠÑģÑĬÑīÐµÑģÑĤÐ²ÑĥÐ²Ð°ÑĤ": 5265,
      "ĠÑĥÑĤÐ²ÑĬÑĢ": 5266,
      "ĠÐ¼Ð¾Ð½Ð¾": 5267,
      "ÑĢÐ°Ð±Ð¾ÑĤÐµÐ½Ð¸": 5268,
      "ĠÑĩÐµÑĤÐ²ÑĬÑĢÑĤÐ¸": 5269,
      "ĠÐ±Ð»Ð°Ð³Ð¾Ð¿ÑĢÐ¸ÑıÑĤ": 5270,
      "ĠÐ¿ÑĢÐ¸Ð¾": 5271,
      "ĠÑģÑĤÑĬ": 5272,
      "ĠÐºÑĢÐµÐ´Ð¸ÑĤÐ½Ð¾": 5273,
      "ĠÐ¸Ð·Ð¼Ð°": 5274,
      "ĠÐ¿ÐµÑĩÐ°Ð»Ð±Ð°ÑĤÐ°": 5275,
      "ĠÐ°Ð½Ð°Ð»Ð¾Ð³Ð¸Ñı": 5276,
      "ĠÑĦÐµÐ´ÐµÑĢÐ°Ð»Ð½Ð°": 5277,
      "ĠÐ±Ð°Ð½ÐºÐ°": 5278,
      "ÑĢÐ½Ð¾ÑĤÐ¾": 5279,
      "ĠÐ½Ð°Ð»Ð¾Ð¶Ð¸": 5280,
      "Ġnor": 5281,
      "ĠÑĦÑĥÑĢÐ°Ð¶Ð¸": 5282,
      "ĠÐ¸Ð·Ð¼ÐµÐ½ÐµÐ½Ð¸ÐµÑĤÐ¾": 5283,
      "Ġaf": 5284,
      "ĠÐ¿ÑĢÐµÐ´Ð¾ÑĤÐ²ÑĢÐ°ÑĤÑıÐ²Ð°Ð½Ðµ": 5285,
      "ĠÑĤÑĢÐ°Ð½Ð·Ð¸": 5286,
      "ÑģÐ¿Ð¾ÑģÐ¾Ð±Ð½Ð¾ÑģÑĤ": 5287,
      "ĠÐ¸Ð·Ð³ÑĢÐ°": 5288,
      "ĠÐ¾ÑģÐ½Ð¾Ð²Ð½Ð°ÑĤÐ°": 5289,
      "ĠÐºÐ²Ð°Ð»Ð¸ÑĦÐ¸ÑĨÐ¸ÑĢÐ°Ð½Ð¸": 5290,
      "Ġ111": 5291,
      "ÑĢÐµÐ½Ð¸Ðµ": 5292,
      "ĠÐ¾Ð±ÑĢÐ°Ð·ÐµÑĨ": 5293,
      "Ġval": 5294,
      "Ġ135": 5295,
      "Ġ1991": 5296,
      "ĠÐ¸Ð·ÑĤÐ¸ÑĩÐ°Ð½Ðµ": 5297,
      "ÐµÐ´Ð¸": 5298,
      "ĠÐ³Ð°Ð·Ð¾": 5299,
      "ĠÐ°ÑĤ": 5300,
      "ĠÐ¿Ð°Ð·Ð°ÑĢÐ½Ð°": 5301,
      "ĠÐ»Ð°Ð±Ð¾ÑĢÐ°": 5302,
      "Ġ139": 5303,
      "ĠÐ¿Ð»Ð°ÑģÑĤÐ¼Ð°": 5304,
      "Ġhyd": 5305,
      "ĠÐºÐ¾Ð¼ÐµÐ½ÑĤÐ°": 5306,
      "ĠÐ¼Ð»ÑıÐºÐ¾": 5307,
      "Ð³Ð¾Ð´": 5308,
      "ĠÑģÑĬÑħÑĢÐ°Ð½ÐµÐ½Ð¸Ðµ": 5309,
      "ĠÐºÐ°Ð¿Ð¸ÑĤÐ°Ð»Ð¾": 5310,
      "ĠÐ¿ÑĢÐ¸Ð¾ÑĢÐ¸ÑĤÐµ": 5311,
      "ĠÑģÐ»ÐµÐ´Ð²Ð°Ð»Ð¾": 5312,
      "ĠÃĹ": 5313,
      "ÐºÐ¾Ð¼": 5314,
      "Ð½Ð¿": 5315,
      "anz": 5316,
      "ĠÑĦÑĥÑĢÐ°Ð¶": 5317,
      "ĠÑĢÐ°Ð²Ð½Ð¾ÑģÑĤÐ¾Ð¸": 5318,
      "ÐµÐ¼Ð¾": 5319,
      "ĠÑģÐ²ÐµÑĤÐ»Ð¸Ð½Ð°ÑĤÐ°": 5320,
      "9900": 5321,
      "ĠÑĤÐµÐ¶ÐµÑģÑĤÑĤÐ°": 5322,
      "Ġ116": 5323,
      "Ð»Ð¸Ð½Ð¸": 5324,
      "ĠÐ¿Ð¾ÐºÐ°Ð·Ð°ÑĤÐµÐ»Ð¸": 5325,
      "Ð¸ÑģÐºÐ¾ÑĤÐ¾": 5326,
      "aw": 5327,
      "ĠÑģÑĬÐ¼Ð½ÐµÐ½Ð¸Ðµ": 5328,
      "ÑĤÐ¾Ð²Ð°ÑĢÐ²Ð°Ð½Ðµ": 5329,
      "Ð·Ð¸ÑĢÐ°Ð½Ð°": 5330,
      "ÑĢÐ¸Ð½": 5331,
      "Ġ263": 5332,
      "ĠÐ¿ÑĢÐµÑĥÑģÑĤÐ°Ð½Ð¾": 5333,
      "Ġ870": 5334,
      "ĠÐ´Ð¾ÑħÐ¾Ð´": 5335,
      "ĠÐ¿ÑĢÐµÐ¿Ð¸ÑģÐºÐ°ÑĤÐ°": 5336,
      "73": 5337,
      "ĠÐ½Ð°ÑĤÑĢÐ¸": 5338,
      "Ġem": 5339,
      "ite": 5340,
      "ino": 5341,
      "ĠÐ¼Ð¾Ð³Ð»Ð°": 5342,
      "ĠÐ·Ð°ÑıÐ²ÐºÐ°": 5343,
      "ĠÐ¿ÑĢÐ¸ÐµÐ¼Ð°ÑīÐ°ÑĤÐ°": 5344,
      "ĠÐºÐ¾ÑĢÐµÐºÑĨÐ¸Ñı": 5345,
      "ĠÐ¼Ð¾ÑĢÐµ": 5346,
      "ĠÐ¿ÑĢÐ¸Ð³Ð¾ÑĤ": 5347,
      "ĠÐ¸Ð·Ð´Ð°Ð²Ð°": 5348,
      "ĠÑģÑĬÐ´ÑĬÑĢÐ¶Ð°Ñī": 5349,
      "ĠÑĦÑĥÐ½ÐºÑĨÐ¸Ñı": 5350,
      "Ġexcl": 5351,
      "ĠÑģÐµÐ»ÑģÐºÐ¾ÑģÑĤÐ¾Ð¿Ð°Ð½ÑģÐºÐ¸": 5352,
      "ĠÑĤÐ¾Ð¿": 5353,
      "ÑĤÐµÐ»Ð°": 5354,
      "Ġgem": 5355,
      "ĠÐ¸ÑģÐ¿Ð°Ð½": 5356,
      "ĠÑĤÐµÑħÐ½Ð¸Ñı": 5357,
      "ĠÐ¼Ð¾Ð³ÑĬÐ»": 5358,
      "ĠÐºÐ¾Ð½ÑĤÐ°ÐºÑĤ": 5359,
      "ĠÐ¸Ð·Ð´Ð°Ð²Ð°Ð½ÐµÑĤÐ¾": 5360,
      "ĠÐºÐ¾Ð½ÑģÑĥÐ»ÑĤÐ°ÑĨÐ¸Ð¸": 5361,
      "ĠÑģÐ²ÐµÑĤÐ¾": 5362,
      "uz": 5363,
      "ÑģÐ½Ð°ÑĤÐ¾": 5364,
      "Ġest": 5365,
      "Ġ025": 5366,
      "ish": 5367,
      "ÑĢÐ°ÑĤÐ¾Ð¼": 5368,
      "Ġbel": 5369,
      "ĠÐ²ÑĬÐ·Ð¼Ð¾Ð¶Ð½Ð¾ÑģÑĤÐ¸": 5370,
      "ĠÐ´Ð²Ð°ÑĤÐ°": 5371,
      "ĠÐ¶Ð¸Ð²Ð¾ÑĤÐ½Ð¾": 5372,
      "Ð·Ð°ÐºÐ¾Ð½Ð¾": 5373,
      "ĠÐ¿ÑĢÐ°Ð²Ð¾Ð¼Ð¾ÑīÐ¸ÑıÑĤÐ°": 5374,
      "Ġass": 5375,
      "ĠÑĤÐ¾ÐºÑģÐ¸": 5376,
      "ÑĪÐ°ÑĤ": 5377,
      "ĠÑģÑĬÑĤÑĢÑĥÐ´Ð½Ð¸ÑĩÐµÑģÑĤÐ²Ð¾ÑĤÐ¾": 5378,
      "ĠÐµÑĦÐ¸ÐºÐ°": 5379,
      "ĠÐ½Ð°ÐºÐ°Ð·Ð°ÑĤÐµÐ»Ð½Ð¾": 5380,
      "ĠÐ¿ÑĬÑĢÐ²Ð¾Ð½Ð°ÑĩÐ°Ð»Ð½Ð¾ÑĤÐ¾": 5381,
      "Ð½Ð¸ÑĤÐµÐ»ÐµÐ½": 5382,
      "Ð¶Ð°Ð²Ð°ÑĤ": 5383,
      "ÐºÐ°Ð·Ð²Ð°ÑĤ": 5384,
      "ĠÑģÐ´ÑĢÑĥ": 5385,
      "Ġindust": 5386,
      "Ð´ÑĢÑĬÐ¶ÐºÐ°": 5387,
      "pa": 5388,
      "Ð´Ð¶Ð¸": 5389,
      "ater": 5390,
      "ÑĤÐ¸ÑĩÐµÐ½": 5391,
      "ÑģÐ¸ÐµÑĤÐ¾": 5392,
      "ĠÑĥÐ¿ÑĬÐ»Ð½Ð¾": 5393,
      "ĠÑģÐ¼ÐµÑģÐ¸": 5394,
      "ĠÐ°ÑģÐ¾ÑĨÐ¸Ð¸": 5395,
      "ĠÐ´Ð¾ÑģÑĤÐ°Ð²ÐºÐ°ÑĤÐ°": 5396,
      "ĠÐºÐ¾Ð¼Ð¿ÐµÐ½ÑģÐ°": 5397,
      "ations": 5398,
      "ĠÑģÐµÐ´Ð°Ð»Ð¸ÑīÐµ": 5399,
      "Ġ121": 5400,
      "Ð½Ð°Ð±": 5401,
      "ea": 5402,
      "Ġother": 5403,
      "ĠÑģÐ¿ÐµÑĨÐ¸ÑĦÐ¸ÑĩÐ½Ð¸ÑĤÐµ": 5404,
      "ĠÑģÑĩÐ¸ÑĤÐ°Ð¼": 5405,
      "Ġ1234": 5406,
      "ĠÐ½ÐµÐ¿ÑĢÐ¾": 5407,
      "Ð½ÐµÐ¼Ð°": 5408,
      "ĠÐ½ÐµÑĦ": 5409,
      "Ð¼ÐµÐ·": 5410,
      "ĠÐ²ÑĬÐ·ÑĢÐ°Ð¶ÐµÐ½Ð¸ÐµÑĤÐ¾": 5411,
      "ĠÑĤÐµÑħÐ½Ð¸ÑĩÐµÑģÐºÐ°": 5412,
      "ĠÐ·Ð°ÑĤÑĢÑĥ": 5413,
      "ĠÑģÐµÐ¼ÐµÐ½Ð°": 5414,
      "Ġart": 5415,
      "Ð¿Ñģ": 5416,
      "Ġod": 5417,
      "ÑĢÐ¾Ð·": 5418,
      "ĠÐ·Ð°ÑĤÑĢÑĥÐ´": 5419,
      "Ð°ÑĢ": 5420,
      "Ġ145": 5421,
      "ĠÑĤÐ°Ð¼": 5422,
      "ĠÐµÑĦÐµÐºÑĤÐ¸Ð²Ð½Ð¾": 5423,
      "ĠÐ¿ÑĢÐµÐ´Ð¿ÑĢÐ¸ÐµÐ¼Ð°ÑĤ": 5424,
      "ĠÐ¾ÑĤÐºÐ»Ð¾Ð½ÐµÐ½Ð¸Ðµ": 5425,
      "ĠÐ½ÐµÑĢÐ°Ð²Ð½Ð¾": 5426,
      "ĠÐ¿ÑĢÐµÑİÐ´Ð¸ÑĨÐ¸Ð°Ð»Ð½Ð¸ÑĤÐµ": 5427,
      "Ġwh": 5428,
      "ĠÐ¿ÐµÑĢÑģÐ¾Ð½Ð°Ð»Ð°": 5429,
      "ĠÐ¿Ð¾Ð´Ð·Ð°ÐºÐ¾Ð½Ð¾": 5430,
      "eder": 5431,
      "ÐºÑĤÐ¾ÑĢÐ¸ÑĤÐµ": 5432,
      "ĠÐ¼ÐµÑħÐ°Ð½Ð¸Ð·ÑĬÐ¼": 5433,
      "ĠÑĥÐ´Ð¾ÑģÑĤÐ¾Ð²Ðµ": 5434,
      "ĠÐ½Ð°ÑĩÐ¸Ð½Ð°": 5435,
      "ĠÑģÐ¸Ð»Ð¸": 5436,
      "ĠÐ¿ÑĢÐµÑĨÐµÐ½ÑıÐ²Ð°": 5437,
      "ĠÐ½ÐµÐ´": 5438,
      "ĠÐ»Ñĥ": 5439,
      "ĠÐµÐ²ÑĢÐ°ÑĤÐ¾Ð¼": 5440,
      "ĠÐ¿ÐµÐ½ÑģÐ¸Ð¾Ð½": 5441,
      "ĠÐ¿Ð¾ÑģÑĤÐ¾ÑıÐ½Ð½Ð¾": 5442,
      "ĠÐ¿Ð¾ÑģÑĤÑĬÐ¿Ð¸": 5443,
      "ĠÐ½Ð¾Ð²": 5444,
      "ĠÐ¿ÑĥÑģÐºÐ°Ð½ÐµÑĤÐ¾": 5445,
      "Ð·Ð¸ÑĢÐ°Ð½ÐµÑĤÐ¾": 5446,
      "ĠÐ¾ÑĤÐ´Ð°": 5447,
      "ĠÐ¿ÑĢÐ¾Ð²Ð¸Ð½": 5448,
      "ĠÑĤÐµÑħÐ½Ð¾Ð»Ð¾Ð³Ð¸Ð¸": 5449,
      "ĠÐ±ÑĢÐ°": 5450,
      "ĠÐºÐ¾Ð¼ÑĥÐ½Ð¸ÐºÐ°": 5451,
      "ĠÑģÑĤÑĢÐ¾Ð¸ÑĤÐµÐ»ÑģÑĤÐ²Ð¾": 5452,
      "ĠÐ¿ÑĢÐ¾Ð´Ð°Ð¶Ð±Ð°ÑĤÐ°": 5453,
      "ĠÐ¾ÑĤÐ±ÐµÐ»ÑıÐ·Ð°": 5454,
      "ĠÑĦÐ¸Ð½Ð°Ð½ÑģÐ¾Ð²": 5455,
      "Ð»Ð°ÑĤ": 5456,
      "ĠÐ²ÑģÐ¸Ñĩ": 5457,
      "ÑĢÐ°Ñģ": 5458,
      "Ġbank": 5459,
      "ĠÐ³Ð¾ÑĢÐµÐ¿Ð¾ÑģÐ¾": 5460,
      "ÑĢÐ¸ÑĢÐ°Ð½Ð¸": 5461,
      "ines": 5462,
      "ĠÐ±ÑĬÐ»Ð³Ð°ÑĢÐ¸Ñı": 5463,
      "ĠÐ¼ÐµÑģÐµÑĨ": 5464,
      "Ð¼Ð½Ð¸": 5465,
      "001": 5466,
      "ĠÐ°ÐºÑĤÐ¸Ð²Ð¸ÑĤÐµ": 5467,
      "ĠÐ³Ð»Ð°Ð²Ð½Ð¾": 5468,
      "79": 5469,
      "Ð½ÐµÐ½Ð°": 5470,
      "ĠÑħÐ¸Ð¼Ð¸ÐºÐ°": 5471,
      "ĠÑģÑħÐ¾Ð´Ð½Ð¸": 5472,
      "ĠÐ»Ð¸ÑĩÐ½Ð¾": 5473,
      "ĠÐ²ÑĬÐ·Ð¿ÑĢÐµÐ¿ÑıÑĤÑģÑĤÐ²Ð°": 5474,
      "ĠÐ¿ÑĢÐ¾Ð²ÐµÑĢÑıÐ²Ð°": 5475,
      "Ġsoc": 5476,
      "ĠÐ²Ð½Ð°ÑģÑı": 5477,
      "Ġnr": 5478,
      "ĠÐ³ÑĢÐ°Ð¶Ð´Ð°Ð½Ð¸ÑĤÐµ": 5479,
      "ĠÐ¾ÑĤÑĩÐµÑĤÐ¸": 5480,
      "ÑĢÐ°Ð½Ð¾ÑĤÐ¾": 5481,
      "ĠÐ¶Ð¸Ð²Ð¾ÑĤ": 5482,
      "ĠÐ°Ð¼Ð¾": 5483,
      "ĠÐ´Ð¾Ð±Ð°Ð²ÐµÐ½Ð°ÑĤÐ°": 5484,
      "ĠÑĥÐ¿ÑĢÐ°Ð²Ð¸ÑĤÐµÐ»Ð½Ð¸Ñı": 5485,
      "Ð¶Ð´Ð°Ð½ÐµÑĤÐ¾": 5486,
      "ĠÑĢÐºÐ¸": 5487,
      "Ġ124": 5488,
      "ĠÑģÐ¸Ð½ÑĤÐµÑĤÐ¸ÑĩÐ½Ð¸": 5489,
      "Ġ129": 5490,
      "ĠÐ¿Ð¾ÑĢÑĤÑĥÐ³Ð°Ð»Ð¸Ñı": 5491,
      "Ð¼ÐµÑĤÐ¸Ð»": 5492,
      "ĠÑĤÑİ": 5493,
      "ĠÐ¸Ð·ÑģÐ»ÐµÐ´Ð²Ð°Ð½Ðµ": 5494,
      "ĠÐ¸Ð·Ð±ÑıÐ³": 5495,
      "Ġ520": 5496,
      "ĠÐ¿ÑĢÐµÐ³Ð¾Ð²Ð¾": 5497,
      "ĠÐ·Ð½Ð¿": 5498,
      "kt": 5499,
      "ĠÐ¿Ð¾Ð»ÑĥÑĩÐµÐ½": 5500,
      "ĠÐ¸Ð·Ð»Ð°Ð³Ð°": 5501,
      "ĠÐ¿Ð¾Ð»ÑĥÑĩÐ°Ð²Ð°Ð½ÐµÑĤÐ¾": 5502,
      "ĠÐ¿ÑĢÐ¾ÑĤÐ¸Ð²Ð¾Ð¿Ð¾": 5503,
      "ÑģÑĤÐ²Ð¸Ñı": 5504,
      "ĠÑĢÐµÐ³Ð¸ÑģÑĤÑĢÐ°ÑĨÐ¸ÑıÑĤÐ°": 5505,
      "ĠÐ¿ÑĢÐ¸Ð»Ð¾Ð¶Ð¸Ð¼Ð°": 5506,
      "ĠÐ´Ð¾ÑģÑĤÐ°Ð²ÑĩÐ¸ÑĨÐ¸ÑĤÐµ": 5507,
      "ÑĢÐ¸Ð·Ð¾Ð½": 5508,
      "ĠÐ¿Ð¾Ð¿ÑĬÐ»": 5509,
      "ĠÐ²Ð·Ð°Ð¸Ð¼Ð½Ð¾": 5510,
      "ĠÐ±Ð¾ÑĢÐ´Ð°": 5511,
      "Ġbund": 5512,
      "ĠÐ°Ð²ÑĤÐ¾Ð¼Ð°ÑĤÐ¸ÑĩÐ½Ð¾": 5513,
      "Ð¸ÑģÐºÐ¸ÑĤÐµ": 5514,
      "ĠÑĢÐ°Ð¼ÐºÐ¾Ð²Ð¾": 5515,
      "ĠÑĢÐ°Ð·Ð¿Ð¾Ð»Ð°Ð³Ð°ÑĤ": 5516,
      "ĠÑĨÐµÐ½Ð¾": 5517,
      "ĠÐ¼ÑĬ": 5518,
      "ĠÑĦÐ¸Ð·Ð¸ÑĩÐµÑģÐºÐ¾": 5519,
      "ings": 5520,
      "Ġpow": 5521,
      "ĠÐ½Ð°Ð»ÑıÐ³Ð°Ð½Ðµ": 5522,
      "ĠÑĤÐ¾Ð½": 5523,
      "ĠÐ²ÐµÑĢÐ¾ÑıÑĤÐ½Ð¾": 5524,
      "erm": 5525,
      "ĠÑĢÐ°Ð·ÑĤÐ²Ð¾ÑĢÐ¸": 5526,
      "ĠÑħÑĢÐ°Ð½Ð¸ÑĤÐµÐ»Ð½Ð¸": 5527,
      "ĠÐ¿ÑĢÐ¾ÑĥÑĩ": 5528,
      "ĠÑĢÐ°Ð·ÑĢÐµÑĪÐ°Ð²Ð°": 5529,
      "ĠÐºÐ¾Ð½ÑģÑĤÐ¸ÑĤÑĥ": 5530,
      "ĠÐ¿ÑĢÐ¾Ð±Ð»Ðµ": 5531,
      "ĠÐ½Ð°Ð¸Ð¼ÐµÐ½Ð¾Ð²Ð°Ð½Ð¸ÐµÑĤÐ¾": 5532,
      "ĠÐ²ÐµÑĢÐ¸Ð³Ð°": 5533,
      "ĠÐ¾ÑĤÐ´ÐµÐ»ÐµÐ½": 5534,
      "ĠÐ´ÐµÑĢÐ¸": 5535,
      "ĠÐ´Ð°ÑĤ": 5536,
      "ĠÐºÐ¾Ð¾ÑĢÐ´Ð¸Ð½Ð¸": 5537,
      "Ġmut": 5538,
      "ĠÐºÐ»Ñİ": 5539,
      "ĠÑĤÑĢÑĬÐ±Ð¸": 5540,
      "ĠÐ·Ð°Ð±ÑĢÐ°Ð½ÑıÐ²Ð°": 5541,
      "ĠÑģÐ»Ð¾Ð²Ð°": 5542,
      "ĠÏĥ": 5543,
      "ĠÐ¿ÑĢÐµÐ´Ð²Ð¸Ð¶Ð´Ð°ÑĤ": 5544,
      "ĠÑĪÐ¸ÑĢÐ¾ÐºÐ¾": 5545,
      "Ġgov": 5546,
      "ĠÐ¾ÑĤÐ½Ð¾ÑĪÐµÐ½Ð¸Ñı": 5547,
      "Ð½Ð°Ð»Ð¾": 5548,
      "ano": 5549,
      "Ġgener": 5550,
      "ĠÑĥÐ½Ð¸Ð²ÐµÑĢ": 5551,
      "ĠÑĥÐ´ÑĬÐ»": 5552,
      "ĠÐ¿Ð¾Ð»ÑĥÑĩÐµÐ½Ð°": 5553,
      "ĠÐ´Ð¾Ð¼Ð°ÐºÐ¸Ð½": 5554,
      "Ġ134": 5555,
      "ĠÐ¾Ð±Ð²ÑĬÑĢÐ·Ð°": 5556,
      "ĠÐ¼Ð¾Ð´Ñĥ": 5557,
      "Ġhtt": 5558,
      "ĠÑģÑĢÐ¾ÐºÐ¾Ð²Ðµ": 5559,
      "ĠÐºÐ°Ð½Ð´Ð¸Ð´Ð°": 5560,
      "ĠÐ¼ÐµÑģÑĤÐ¾Ð½Ð°Ð·Ð½Ð°": 5561,
      "ÐµÐ½ÑĤÐ¸ÑĤÐµ": 5562,
      "ĠÐ´Ð²Ð¸Ð³Ð°ÑĤÐµÐ»Ñı": 5563,
      "olog": 5564,
      "ĠÑĤÐ°Ð±Ð»Ð¸ÑĨÐ°ÑĤÐ°": 5565,
      "ĠÐ½Ð°Ð´Ðµ": 5566,
      "ĠÐ¿ÑĢÐµÐ¶Ð´Ð¸": 5567,
      "ĠÐ¿Ð¾ÑĤÐ¾ÑĨÐ¸": 5568,
      "ÑģÐ»Ð¾": 5569,
      "Ð»ÐµÑĤÐ°": 5570,
      "ĠÐ¿ÑĢÐ¾ÑĤÐ¸Ð²Ð¾ÑĢÐµÑĩÐ¸Ðµ": 5571,
      "ĠÑģÑĥÑħÐ¾": 5572,
      "Ġ122": 5573,
      "ĠÑģÐ½Ð°Ð±": 5574,
      "ĠÐµÐ¾Ð±Ñħ": 5575,
      "Ð¿ÑĢÑĥ": 5576,
      "ĠÐ°ÐºÑĤÐ¸Ð²Ð½Ð¾": 5577,
      "ĠÐºÐ¾Ð»Ð¸ÑĩÐµÑģÑĤÐ²Ð¾ÑĤÐ¾": 5578,
      "ĠÐ½ÐµÐ¾ÑĤ": 5579,
      "ĠÐ°ÐºÑĨÐ¸": 5580,
      "ĠÐ½Ð°Ð¿Ð¸ÑĤÐºÐ¸": 5581,
      "ĠÐºÑĥÐ¿Ñĥ": 5582,
      "ĠÐ²Ð·ÐµÑĤÐ¾": 5583,
      "Ð¼Ð°ÑĢ": 5584,
      "ĠÑĤÐ¾ÐµÑģÑĤ": 5585,
      "ĠÐ¾ÑĤÐ¼ÑıÐ½Ð°ÑĤÐ°": 5586,
      "ĠÐ¼Ð¸Ð½Ð¸ÑģÑĤÐµÑĢ": 5587,
      "ĠÐ¾ÑĩÐµÐ²Ð¸Ð´Ð½Ð¾": 5588,
      "ÐºÑĬÑĢ": 5589,
      "ĠÐ¿ÑĢÐµÑĤÐµÐ³": 5590,
      "ĠÑĦÐ°ÑĢÐ¼Ð°": 5591,
      "ÐºÑģÐ¾": 5592,
      "erc": 5593,
      "ĠÑħÐ¾ÑĢÐ¸Ð·Ð¾Ð½": 5594,
      "ĠÐ¾ÑĤÑĢÐ°Ð·ÑıÐ²Ð°": 5595,
      "ĠÐ¿ÑĢÐµÐ²Ð¾Ð´": 5596,
      "ĠÐµÐºÐ¸": 5597,
      "Ġ126": 5598,
      "Ġtiff": 5599,
      "Î¹Îº": 5600,
      "ĠÐºÐ°ÑĢÑĤÐµÐ»Ð°": 5601,
      "ĠÑģÑĬÐ·Ð´Ð°Ð²Ð°": 5602,
      "ÐºÑĨÐ¸Ð¸ÑĤÐµ": 5603,
      "ĠÐ·Ð½Ð°ÑĩÐ¸ÑĤÐµÐ»Ð½Ð¸": 5604,
      "ĠÐ¸Ð·Ð±ÐµÐ³Ð½Ðµ": 5605,
      "ĠÐ¼Ð¸Ð½Ñĥ": 5606,
      "ĠÐ¾ÑģÐ²Ð¾Ð±Ð¾Ð¶Ð´Ð°Ð²Ð°Ð½ÐµÑĤÐ¾": 5607,
      "ĠÐ¿Ð¾Ð´ÑħÐ¾Ð´ÑıÑī": 5608,
      "ĠÑģÑĤÑĢÐ°ÑĤÐµÐ³Ð¸": 5609,
      "ĠÐ¸Ð½Ð´Ñĥ": 5610,
      "ĠÑģÐ²ÑĬÑĢÐ·": 5611,
      "ĠÐ¿ÑĢÐ¾Ð´ÑĬÐ»Ð¶ÐµÐ½Ð¸Ðµ": 5612,
      "ĠÐ¸Ð·Ð²Ð¾Ð´Ð°": 5613,
      "we": 5614,
      "Ġconc": 5615,
      "Ġcour": 5616,
      "ĠÐ¸Ð¼Ð°Ð»Ð¾": 5617,
      "ĠÐ´ÐµÑģÑĤÐ¸": 5618,
      "Î´": 5619,
      "ĠÐ¾ÑĤÐ´ÐµÐ»Ð½Ð¾": 5620,
      "ĠÐ¶Ð°Ð»Ð±Ð¾Ð¿Ð¾Ð´Ð°ÑĤÐµÐ»ÐºÐ°ÑĤÐ°": 5621,
      "Ð²Ð°ÑĤÐ¸": 5622,
      "ĠÑĥÐ±ÐµÐ¶Ð¸": 5623,
      "Ð´ÐµÐ½Ð¸ÑĤÐµ": 5624,
      "ĠÐ±ÐµÐ·ÑģÐ¿Ð¾": 5625,
      "ĠÑĥÑģÑĤÐ°Ð½Ð¾Ð²ÐµÐ½Ð¸ÑĤÐµ": 5626,
      "ĠÐ¿ÑĢÐ°Ñħ": 5627,
      "ĠÑģÐ¿Ð¾ÑĢÐ½Ð¸ÑĤÐµ": 5628,
      "ĠÐ²ÑĢÑĬÑīÐ°Ð½Ðµ": 5629,
      "ĠÐ´Ð¾ÐºÐ»Ð°Ð´ÑĩÐ¸Ðº": 5630,
      "ĠÑĦÑĥÐ½ÐºÑĨÐ¸Ð¾Ð½Ð°Ð»": 5631,
      "ĠÑĥÐ±ÐµÐ¶Ð¸ÑīÐµ": 5632,
      "ĠÐ¿Ð¾Ð»Ð¾Ð¶Ð¸": 5633,
      "ĠÐ½Ð¸ÐºÐ°ÐºÐ²Ð¸": 5634,
      "ĠÐ°Ð²Ð¸": 5635,
      "ÏģÎ±": 5636,
      "ĠÐ¿Ð¾ÑĤÑĢÐµÐ±Ð»ÐµÐ½Ð¸Ðµ": 5637,
      "Ġ350": 5638,
      "Ð¾Ð±Ð¸": 5639,
      "ÑĦÐ¸ÐºÐ°ÑĨÐ¸ÑıÑĤÐ°": 5640,
      "Ð²ÑģÑĤÐ²Ð¸": 5641,
      "ĠÐ´ÐµÐºÐ»Ð°ÑĢÐ°ÑĨÐ¸ÑıÑĤÐ°": 5642,
      "ĠÑĦÐ¸Ð½Ð°Ð½ÑģÐ¾Ð²Ð¸Ñı": 5643,
      "Ġ016": 5644,
      "ĠÐ½Ð¸ÐºÐ°ÐºÐ²Ð°": 5645,
      "ĠÐ½Ð°ÑĥÑĩÐ½Ð¸": 5646,
      "ĠÐºÐ¾Ð½ÑģÐ¾Ð»Ð¸": 5647,
      "ĠÐ·Ð°Ð¼ÐµÑģÑĤ": 5648,
      "00000": 5649,
      "ĠÑĤÑĢÐ°Ð½ÑģÐ³ÑĢÐ°Ð½Ð¸": 5650,
      "ÐºÐ¸Ñı": 5651,
      "ĠÐ¿ÑĢÐ¸ÑģÑĬÐµÐ´Ð¸Ð½ÑıÐ²Ð°Ð½Ðµ": 5652,
      "oll": 5653,
      "ĠÐ½Ð¸ÑĤ": 5654,
      "ĠÑģÐ³ÑĢÐ°": 5655,
      "ĠÑĤÐ²ÑĬÑĢÐ´ÐµÐ½Ð¸ÑıÑĤÐ°": 5656,
      "Ð»ÐµÐ½Ð¸ÑĤÐµ": 5657,
      "ĠÐ´Ð²Ð¸Ð¶ÐµÐ½Ð¸ÐµÑĤÐ¾": 5658,
      "ĠÐ²ÑĬÐ»": 5659,
      "ĠÐ¼Ð¾ÑĤÐ¸Ð²Ð¸ÑĢÐ°Ð½Ðµ": 5660,
      "ĠÑģÐµÐ»ÑģÐºÐ¸ÑĤÐµ": 5661,
      "ĠÑģÐ²ÐµÐ´ÐµÐ½Ð¸Ñı": 5662,
      "ĠÐ¸Ð·Ð´Ð°Ð´ÐµÐ½Ð¸": 5663,
      "ĠÐ½Ð°ÑĩÐ°Ð»": 5664,
      "ĠÐ»Ð¸ÑħÐ²Ð¸": 5665,
      "ĠÐ²Ð·ÐµÐ¼Ð°Ð½ÐµÑĤÐ¾": 5666,
      "ĠÑħÐ°ÑĢÐ¼Ð¾Ð½Ð¸Ð·Ð°ÑĨÐ¸Ñı": 5667,
      "ĠÐºÐ¸ÑĤÐ°Ð¸": 5668,
      "ĠÐ¿Ð°ÑĢÐ»Ð°Ð¼ÐµÐ½ÑĤÐ°": 5669,
      "err": 5670,
      "ĠÐ¿Ð»Ð°ÑīÐ°Ð½ÐµÑĤÐ¾": 5671,
      "ĠÐ·Ð°ÐµÑĤÐ¾ÑģÑĤ": 5672,
      "ĠÐ½Ð°Ð¿ÑĢ": 5673,
      "ĠÐ¸Ð·Ð¿ÑĬÐ»Ð½ÑıÐ²Ð°ÑĤ": 5674,
      "ĠÐ´Ð¾Ð±Ð°Ð²ÐºÐ¸": 5675,
      "ĠÑĢÐ°Ð·ÑģÐ»ÐµÐ´Ð²Ð°Ð½Ð¸Ñı": 5676,
      "Ð¼ÐµÐ½Ð°ÑĤÐ°": 5677,
      "ĠÐ·Ð°Ð±ÑĢÐ°Ð½Ð°ÑĤÐ°": 5678,
      "ĠÐ³ÑĢÐ¾Ð·": 5679,
      "ĠÐ¿ÐµÑĩÐ°": 5680,
      "56": 5681,
      "ĠÐ³Ð¾ÑĢÐµÐ¸Ð·": 5682,
      "ĠÐµÐ´Ð²Ð°": 5683,
      "Ġdell": 5684,
      "ĠÐ½Ð¸ÑģÐºÐ°": 5685,
      "ĠÑĥÑģÑĤÐ¾Ð¸ÑĩÐ¸Ð²Ð¾": 5686,
      "ĠÑģÑĬÐ²ÐºÑĥÐ¿": 5687,
      "Ġcat": 5688,
      "ĠÐºÑĢÐ°Ð¸Ð½Ð°": 5689,
      "Ġ850": 5690,
      "ÑĢÐ°Ð¶ÐµÐ½Ð¸Ðµ": 5691,
      "ĠÐ´Ð¸Ð¾": 5692,
      "ĠÑģÑĬÐ±Ð¸ÑĢÐ°Ð½ÐµÑĤÐ¾": 5693,
      "ĠÐ¸Ð·Ð²Ð°Ð´ÐºÐ°ÑĤÐ°": 5694,
      "78": 5695,
      "ÑģÐµÐ¼": 5696,
      "ĠÑĢÐ°Ð·ÑĤÐ²Ð¾ÑĢ": 5697,
      "ĠÐ¸Ð·Ð±Ð¸": 5698,
      "ĠÑĢÐ°Ð·Ð³Ð»ÐµÐ¶Ð´Ð°ÑĤ": 5699,
      "ĠÑĢÑĬÐºÐ¾Ð²Ð¾Ð´Ð¸": 5700,
      "ĠÐ¾Ð¿Ð¾Ð²ÐµÑģÑĤÑıÐ²Ð°Ð½Ðµ": 5701,
      "ĠÑģÐ»ÑĥÐ¶Ð¸ÑĤÐµÐ»": 5702,
      "ĠÑĢÐ°Ð¼ÐºÐ¾Ð²Ð¾ÑĤÐ¾": 5703,
      "ĠÐ¿Ð°ÑĢÐ¸ÑĩÐ½Ð¸": 5704,
      "ĠÐ¾Ð±Ð»Ð°ÑģÑĤÐ¸": 5705,
      "ions": 5706,
      "ĠÑĦÐ¸Ð½Ð°Ð½ÑģÐ¾Ð²Ð¾": 5707,
      "ÑĢÐ¾Ð²ÐºÐ°": 5708,
      "ĠÐ¸Ð·ÑĩÐµÑĢÐ¿Ð°": 5709,
      "eh": 5710,
      "ÐºÐ¾Ð²": 5711,
      "ond": 5712,
      "ias": 5713,
      "ĠÐ½Ð¸Ð²Ð¾ÑĤÐ¾": 5714,
      "Ð·Ð¾Ð»": 5715,
      "ĠÑĨÐ¸ÐºÑĬÐ»": 5716,
      "ĠÐ²ÐºÐ»ÑİÑĩÐ²Ð°Ð½Ðµ": 5717,
      "ĠÐ¾Ð±Ð¾ÑģÐ½Ð¾Ð²Ð°Ð½Ð¾": 5718,
      "ÑĢÐ¾Ð´Ð½Ð°": 5719,
      "ĠÐ±ÐµÐ»Ð³Ð¸": 5720,
      "ĠÐ¾Ð¿Ð°ÐºÐ¾Ð²ÐºÐ¸": 5721,
      "ev": 5722,
      "ĠÐ¼ÑĢÐµÐ¶Ð°ÑĤÐ°": 5723,
      "ĠÐ¾Ð±ÑĢÐ°Ð·Ð¾Ð²Ð°Ð½Ð¸Ðµ": 5724,
      "ĠÑģÐµÐºÑĢÐµÑĤÐ°ÑĢÐ¸Ð°ÑĤÐ°": 5725,
      "ĠÑģÐ¿Ð¸ÑĢÐ°Ð½Ðµ": 5726,
      "ĠÐ´Ð¾Ð¿ÑĥÑģÐ½Ð°Ð»": 5727,
      "ĠÐ²ÑĬÑĤÑĢÐµÑĪÐ½Ð¸": 5728,
      "ĠÐ¸Ð¼ÑĥÑīÐµÑģÑĤ": 5729,
      "ĠÐ±ÑĬÑĢÐ·Ð¾": 5730,
      "ĠÑİÑĢÐ¸ÑģÐ´Ð¸ÐºÑĨÐ¸Ð¸": 5731,
      "ÐºÑĢÐ°ÑĤÐ¸": 5732,
      "Ġ141": 5733,
      "ĠÐ¾Ð±ÑĢÐ°Ð·ÑĥÐ²Ð°Ð½Ð¸Ñı": 5734,
      "ĠÐ²ÑĬÐ¿ÑĢÐ¾ÑģÐ½Ð¾ÑĤÐ¾": 5735,
      "ĠÐ´ÑĬÑĢÐ¶Ð°Ð²Ð½Ð¸ÑĤÐµ": 5736,
      "ĠÐ¾ÑĩÐ°ÐºÐ²Ð°Ð½Ð¸Ñı": 5737,
      "Ġ440": 5738,
      "ĠÐ½Ð°Ð¿Ñĥ": 5739,
      "ĠÐ½ÑıÐ¼Ð°ÑĤ": 5740,
      "ĠÐ¾Ð±ÑĢÐ°Ð·ÑĥÐ²Ð°": 5741,
      "Ġef": 5742,
      "ong": 5743,
      "ĠÐ·Ð°Ð¿Ð¾ÑĩÐ²Ð°": 5744,
      "ĠÐ¿ÑĢÐµÐ´Ð¾ÑģÑĤÐ°Ð²ÐµÐ½Ð¾": 5745,
      "Ð¿ÑĬÑĢ": 5746,
      "ÑĦÑĥ": 5747,
      "ĠÐ¿Ð°ÑĢÑĤÐ½ÑĮÐ¾ÑĢ": 5748,
      "ĠÐ¸Ð·ÑĢÐ°Ð·ÑıÐ²Ð°": 5749,
      "ĠÑĤÑĢÐµÑĤÐ°ÑĤÐ°": 5750,
      "ĠÐ¸Ð·Ð¿Ð¾Ð»Ð·Ð²Ð°Ð½Ð°": 5751,
      "ĠÐ¿ÑĢÐµÑĢÐ°Ð±Ð¾ÑĤÐºÐ°": 5752,
      "ĠÑģÐ¿Ð¾Ð³Ð¾Ð´": 5753,
      "Ġlab": 5754,
      "ĠÑģÑĥÑĢÐ¾": 5755,
      "ĠÑĥÐµÐ±": 5756,
      "ÑĢÐ²Ð¸": 5757,
      "ĠÑĥÑģÐ»Ð¾Ð²Ð¸ÐµÑĤÐ¾": 5758,
      "ĠÐ¾ÑĤÐ²Ð¾": 5759,
      "Ġ132": 5760,
      "Ġ610": 5761,
      "utsch": 5762,
      "ĠÑĦÐ¾ÑĤÐ¾": 5763,
      "Ð¸ÑģÐºÐ¸Ñı": 5764,
      "ĠÐµÐ²ÐµÐ½ÑĤÑĥÐ°Ð»Ð½Ð¾ÑģÑĤ": 5765,
      "ĠÐ¿Ð¾ÑģÐ¾ÑĩÐµÐ½Ð¸ÑıÑĤ": 5766,
      "ĠÐ°Ð»Ñĥ": 5767,
      "ĠÐ´ÑĢÑĥÐ³Ð°Ð´Ðµ": 5768,
      "ĠÑĢÐ°Ð·Ð»Ð¸ÐºÐ°ÑĤÐ°": 5769,
      "Ġbundes": 5770,
      "ĠÐ¿Ð¾ÐºÐ°": 5771,
      "Ġviii": 5772,
      "ĠÐ»Ñİ": 5773,
      "Ġtrans": 5774,
      "ÑĩÐ»ÐµÐ½": 5775,
      "ĠÐ¾ÑĦÐµÑĢÐµÐ½": 5776,
      "ÑĩÐºÐ°ÑĤÐ°": 5777,
      "Ġid": 5778,
      "ix": 5779,
      "ĠÑĥÐ²ÐµÐ´Ð¾Ð¼Ð¸": 5780,
      "ĠÐ·Ð°ÑģÐµÐ³Ð½Ð°ÑĤÐ¸ÑĤÐµ": 5781,
      "ĠÐ¾Ð±ÑıÐ²ÑıÐ²Ð°Ð½Ðµ": 5782,
      "96": 5783,
      "ĠÐ¿ÑĢÐ°Ð²Ð½Ð¾ÑĤÐ¾": 5784,
      "ĠÐ¿Ð¾ÑĢÐµÐ´": 5785,
      "ĠÑİÑĢÐ¸Ð´Ð¸ÑĩÐµÑģÐºÐ¸": 5786,
      "Ġ170": 5787,
      "ĠÑģÑĬÐ´Ð¸Ð¸": 5788,
      "Ġkw": 5789,
      "ĠÐ¿ÑĢÐ¾Ð¼ÐµÐ½Ñı": 5790,
      "ĠÐ¿Ð°Ð¼Ñĥ": 5791,
      "ĠÑĢÐ°Ð±Ð¾ÑĤÐ°ÑĤÐ°": 5792,
      "ĠÐ·Ð°ÑıÐ²Ð»ÐµÐ½Ð¸Ñı": 5793,
      "ĠÐ¼Ð¸Ð½Ð¸Ð¼ÑĥÐ¼": 5794,
      "ĠÑģÑĬÐ¾Ð±ÑīÐµÐ½Ð¸Ðµ": 5795,
      "ĠÐ¿Ð¾Ð·Ð½Ð°": 5796,
      "Ġ529900": 5797,
      "ĠÑģÑĬÑģÑĤÐ°Ð²Ð»ÑıÐ²Ð°": 5798,
      "ÑĢÐ¾Ð´Ð¸": 5799,
      "ĠÐ°ÑĢÐ±Ð¸ÑĤ": 5800,
      "ĠÐ´ÐµÐ±Ðµ": 5801,
      "Ð¼Ð¿Ð¸": 5802,
      "ĠÐ½ÐµÐ¾Ð±ÑħÐ¾Ð´Ð¸Ð¼Ð¾ÑĤÐ¾": 5803,
      "ÑĤÐ¸ÑĢÐ°Ð½ÐµÑĤÐ¾": 5804,
      "ĠÐ¿ÑĥÐ±Ð»Ð¸ÐºÑĥÐ²Ð°": 5805,
      "ĠÐ´Ð¾ÑģÑĤÐ°Ð²ÑĩÐ¸ÐºÐ°": 5806,
      "ĠÐ´Ð»ÑĬÐ¶Ð½Ð°": 5807,
      "ĠÐ³ÑĢÐµÑĪÐºÐ¸": 5808,
      "ĠÑİÑĢÐ¸Ð´Ð¸ÑĩÐµÑģÐºÐ¾": 5809,
      "ÑĤÐºÐ°": 5810,
      "ĠÑĢÐµÐ·ÐµÑĢÐ²Ð¸": 5811,
      "ÏīÎ½": 5812,
      "ĠÐ½Ð°ÑģÐ»ÐµÐ´": 5813,
      "ÑĦÐ»Ñĥ": 5814,
      "Ð¼Ð¸Ñģ": 5815,
      "ĠÐ¼Ð¸ÑĤÐ½Ð¸ÑĩÐµÑģÐºÐ°ÑĤÐ°": 5816,
      "Ð»Ð½Ð¾ÑĤÐ¾": 5817,
      "ile": 5818,
      "ĠÐ¾ÑĤÐ»Ð¸ÑĩÐ¸": 5819,
      "ĠÐ¿ÑĢÐ¸Ð¿Ð¾Ð¼Ð½Ñı": 5820,
      "ĠÑĤÐ¸ÑĤÑĥ": 5821,
      "ĠÑģÐ¿Ð°": 5822,
      "ĠÐ·Ð°Ð¿Ð¾ÑĩÐ²Ð°Ð½Ðµ": 5823,
      "Ð²ÑĬÑĢÐ·Ð²Ð°": 5824,
      "ÏĦÎ±": 5825,
      "ĠÑģÐ»Ð¾Ð¶": 5826,
      "ÑĨÐ¸Ð¾Ð½Ð½Ð°ÑĤÐ°": 5827,
      "ĠÐ´ÐµÑĤÐµÑĤÐ¾": 5828,
      "ĠÐ½Ð°Ð»Ð¾Ð¶ÐµÐ½Ð¸": 5829,
      "ĠÐºÐ¾Ð¸": 5830,
      "ĠÐ¾Ð´Ð¾Ð±ÑĢÑıÐ²Ð°Ð½Ðµ": 5831,
      "Ġ1990": 5832,
      "ÑĤÑİ": 5833,
      "ĠÐ¿ÑĢÐ¸Ð½Ð°Ð´Ð»ÐµÐ¶": 5834,
      "ĠÐºÐ°ÑĢÐ±Ð¾": 5835,
      "ĠÑĢÐµÐ½": 5836,
      "ÑģÑĥÐ»": 5837,
      "ĠÐ¿ÑĢÐ¸ÑĤÐµÐ¶Ð°ÑĤÐµÐ»Ñı": 5838,
      "ĠÐ·Ð°ÑıÐ²Ð¸ÑĤÐµÐ»Ñı": 5839,
      "ita": 5840,
      "ĠÑĤÐ¸ÑĤÑĥÐ»Ñı": 5841,
      "ĠÐ¾ÑĤÐ³Ð¾Ð²Ð¾ÑĢÐ°": 5842,
      "ĠÑģÑĬÐ²Ð¼ÐµÑģÑĤÐ½Ð¸Ñı": 5843,
      "ĠÑģÑĤÐ¾Ð¿Ð°Ð½ÑģÐºÐ°": 5844,
      "ĠÐ½Ð°ÑģÑĤÑĬÐ¿": 5845,
      "Ġml": 5846,
      "ĠÐºÐ°Ð¿Ð¸ÑĤÐ°Ð»Ð°": 5847,
      "ĠÐ¿Ð¾ÐºÑĥÐ¿": 5848,
      "ĠÑĢÐ°ÑģÑĤÐ¸ÑĤÐµÐ»Ð½Ð°": 5849,
      "ĠÐ¿ÑĢÐµÐ´ÑģÑĤÐ°Ð²ÐµÐ½Ð¸ÑĤÐµ": 5850,
      "ĠÑĢÐ°Ð±Ð¾ÑĤÐ½Ð¾": 5851,
      "Ġsup": 5852,
      "ĠÑĥÑģÐ²Ð¾ÐµÐ½": 5853,
      "ĠÐ·Ð°Ð³ÑĥÐ±": 5854,
      "ÐºÑĢÐ°ÑĤÐ½Ð¾": 5855,
      "ĠÑĥÑĩÐ°ÑģÑĤÐ²Ð°ÑĤ": 5856,
      "ĠÐ½Ð°ÐºÑĬÑĢ": 5857,
      "ĠÑĢÐ°Ð·ÑĢÐµÑĪÐµÐ½Ð¸Ñı": 5858,
      "ĠÐ´Ð¸ÑĢÐµÐºÑĨÐ¸Ñı": 5859,
      "ĠÑĥÑĢÐµÐ´Ð¸": 5860,
      "ĠÑģÐ²Ð¾Ðµ": 5861,
      "ĠÐ½Ð¾Ð¼ÐµÑĢÐ°": 5862,
      "Ð±Ð¸Ñı": 5863,
      "ĠÐ¾ÑĤÐºÑĢÐ¸Ð²Ð°Ð½Ðµ": 5864,
      "Ġsan": 5865,
      "ĠÐ³ÐµÑĢÐ¼Ð°Ð½ÑģÐºÐ¾ÑĤÐ¾": 5866,
      "ett": 5867,
      "ĠÑģÐ¿Ð¾ÑĢÐ¾Ð²Ðµ": 5868,
      "ĠÐ¾ÑĢÐ¸Ð³Ð¸Ð½Ð°Ð»": 5869,
      "ĠÐ°Ð¿Ð°": 5870,
      "ĠÐ¿ÑĢÐ°Ð²": 5871,
      "Ð»ÐºÐ¾Ð²Ð°": 5872,
      "Ġcont": 5873,
      "ĠÐ¸Ð½ÑĦÑĢÐ°ÑģÑĤÑĢÑĥÐºÑĤÑĥÑĢÐ°": 5874,
      "ĠÐ¿Ð»Ð°ÑĤÐ¸": 5875,
      "ÑģÐ»Ð°": 5876,
      "ĠÑģÐ²Ð¸Ð½Ðµ": 5877,
      "yc": 5878,
      "Ð»ÐµÐ½Ð´Ð°": 5879,
      "ĠÐ´Ð»ÑĬÐ¶ÐµÐ½": 5880,
      "ym": 5881,
      "ĠÑģÑĬÐ¾Ð±ÑĢÐ°Ð¶ÐµÐ½Ð¸ÑıÑĤÐ°": 5882,
      "Ġdocument": 5883,
      "ĠÐ´Ð¾Ð¿ÑĥÑģÑĤÐ¸Ð¼Ð¾ÑģÑĤÑĤÐ°": 5884,
      "ĠÐµÑĦÐµÐºÑĤÐ¸Ð²Ð½Ð°": 5885,
      "ĠÐ¾Ð¿ÑĢÐµÐ´ÐµÐ»ÐµÐ½Ð¸ÑĤÐµ": 5886,
      "Ð½ÑĤÐ¸": 5887,
      "ĠÑĤÑİÑĤÑİ": 5888,
      "ĠÑĥÐ¿ÑĢÐµ": 5889,
      "ĠÐ´ÐµÐºÑĢÐµ": 5890,
      "Ġ1049": 5891,
      "ĠÐ½Ð°Ð¼Ð°Ð»ÐµÐ½Ð¸Ðµ": 5892,
      "ĠÐ¾Ð´Ñĥ": 5893,
      "ĠÐ¿ÑĢÐ¸Ð·Ð½Ð°Ð²Ð°Ð½ÐµÑĤÐ¾": 5894,
      "ÑĤÐ°ÑĤ": 5895,
      "ws": 5896,
      "Ġ270": 5897,
      "ĠÑģÑĬÐ¿ÑĢÑĥ": 5898,
      "ĠÐ½Ð°ÑģÑĤÑĬÐ¿Ð¸": 5899,
      "ĠÐ¿ÑĢÐ¸ÑĩÐ¸Ð½Ð¸ÑĤÐµ": 5900,
      "ĠÐ»Ð¸ÑĨÐµÐ½Ð·Ð¸Ð¸": 5901,
      "Ġdan": 5902,
      "Ġavoc": 5903,
      "ĠÐ²Ð¼Ðµ": 5904,
      "Ġhold": 5905,
      "ĠÐ°ÐºÑĥ": 5906,
      "ĠÐ°ÑĢÐ¾": 5907,
      "ÐµÑĢÐ¸": 5908,
      "ĠÐºÐ°Ð»ÐµÐ½Ð´Ð°": 5909,
      "gen": 5910,
      "ĠÐ´ÑĬÐ»Ð³Ð¾ÑģÑĢÐ¾": 5911,
      "ĠÐ¿ÑĢÐµÐ´Ð¸Ð·Ð²Ð¸": 5912,
      "ĠÐ¼Ð¾Ð´Ð¸": 5913,
      "ĠÐ¾ÑģÐ½Ð¾Ð²Ð°Ð½Ð¸ÑıÑĤÐ°": 5914,
      "ĠÐ¸Ð½ÑĤÐµÑĢÐµÑģÐ¸ÑĤÐµ": 5915,
      "ĠÐ»Ð°ÑĤ": 5916,
      "Ð¼Ð¸Ð½Ð°Ð»": 5917,
      "ĠÐ¾ÑĤÐ²ÐµÑĤÐ½Ð¸ÐºÐ°": 5918,
      "ĠÑĢÐµÐ³ÑĥÐ»Ð°ÑĤÐ¾ÑĢ": 5919,
      "ĠÐ¾ÑĤÐ´ÐµÐ»Ð½Ð¸ÑĤÐµ": 5920,
      "ÑģÑĤÐ¾Ð²Ðµ": 5921,
      "ĠÑģÐ°Ð½ÐºÑĨÐ¸Ñı": 5922,
      "ĠÐ¿Ð¾Ð²ÐµÐ´ÐµÐ½Ð¸ÐµÑĤÐ¾": 5923,
      "ire": 5924,
      "Ġ721": 5925,
      "ĠÐºÐ¾Ð¼Ð¿ÐµÑĤÐµÐ½ÑĤÐ½Ð¸": 5926,
      "ĠÐ´ÐµÐ¿Ð¾Ð·Ð¸": 5927,
      "Ġghs": 5928,
      "ĠÐ¾ÐºÐ¾Ð½ÑĩÐ°ÑĤÐµÐ»ÐµÐ½": 5929,
      "ĠÑģÑĬÐ´Ð¸Ð»Ð¸ÑīÐ°": 5930,
      "ĠÐµÐ²ÑĢÐ¾Ð¿Ð°": 5931,
      "ĠÐ¿ÑĢÐµÐ´Ð²Ð¸Ð´ÐµÐ½Ð°ÑĤÐ°": 5932,
      "ĠÑĤÑĬÑĢÐ³Ñĥ": 5933,
      "ĠÑĩÐµÑĢÐµÐ½": 5934,
      "ona": 5935,
      "ĠÑħÐ°ÑĢÑĤÐ¸Ñı": 5936,
      "ft": 5937,
      "ĠÐ¾Ð³ÑĢÐ°Ð½Ð¸ÑĩÐµÐ½": 5938,
      "ĠÑģÑĤÐ¸Ð³Ð°": 5939,
      "ĠÐ±Ð°Ð·Ð¸Ñģ": 5940,
      "Ð¶ÐµÐ½Ð¾": 5941,
      "ĠÐ´ÐµÐ¸ÑģÑĤÐ²Ð¸ÑĤÐµÐ»Ð½Ð¾ÑģÑĤ": 5942,
      "Ð·Ð¸ÑĢÐ°ÑĤ": 5943,
      "ĠÑģÑĤÐ¾ÐºÐ°": 5944,
      "ĠÐ´Ð¾ÑħÐ¾Ð´Ð¸ÑĤÐµ": 5945,
      "ĠÑģÐ»ÑĥÐ¶Ð¸ÑĤÐµÐ»Ð¸ÑĤÐµ": 5946,
      "ĠÐ³ÑĢÐ°Ð½Ð¸ÑĨÐ¸ÑĤÐµ": 5947,
      "ĠÐµÐºÑģÐ¿Ð¾Ð·Ð¸ÑĨÐ¸Ñı": 5948,
      "ĠÐ¿Ð¾Ð´ÑħÐ¾Ð´ÑıÑīÐ°": 5949,
      "ÑĢÐ°Ð±Ð¾ÑĤÐ¸": 5950,
      "ĠÐ¿ÑĢÐµÐ·Ð°ÑģÑĤÑĢÐ°ÑħÐ¾": 5951,
      "ĠÐ¿ÑĢÐ¾ÑĦÐ¸": 5952,
      "Ġll": 5953,
      "ĠÑĥÑģÐºÐ¾": 5954,
      "Ġ730": 5955,
      "iny": 5956,
      "ĠÐ´Ð¾Ð¿ÑĬÐ»Ð½Ð¸ÑĤÐµÐ»Ð½Ð¸ÑĤÐµ": 5957,
      "ĠÑģÑĬÑģÑĤÐ¾ÑıÑī": 5958,
      "ĠÐ¿ÑĥÐ±Ð»Ð¸ÑĩÐ½Ð¸": 5959,
      "rr": 5960,
      "ĠÐ·ÐµÐ¼ÐµÐ´ÐµÐ»Ð¸": 5961,
      "ĠÐ³ÑĢÐ°Ð½Ð¸ÑĨÐ°": 5962,
      "ĠÑĤÑĢÑĥÐ´Ð¾Ð²Ð¸": 5963,
      "ĠÐ½ÐµÐ½Ð°": 5964,
      "Ġ128": 5965,
      "ĠÐ¿ÑĢÐ¾Ð²ÐµÑĢÐºÐ¸ÑĤÐµ": 5966,
      "ÑĢÐ¾Ð²ÐµÑĤÐµ": 5967,
      "ĠÐ¿ÑĥÑģÐºÐ°Ð½Ðµ": 5968,
      "Ġww": 5969,
      "Ð³Ð°Ð²Ð°": 5970,
      "Ð½Ð¸ÑĤÐ°": 5971,
      "Ġdeutsch": 5972,
      "ĠÐ¿ÑĢÐ¸ÐµÑĤ": 5973,
      "ĠÐºÐ¾Ð»Ð¸ÑĩÐµÑģÑĤÐ²Ð°ÑĤÐ°": 5974,
      "ĠÐ¿Ð¾Ð´ÐºÑĢÐµÐ¿Ñı": 5975,
      "Ð³ÑĢÐµ": 5976,
      "ĠÐ·Ð½Ð°ÑĩÐ¸ÑĤÐµÐ»Ð½Ð°": 5977,
      "ĠÑĢÐµÐ²Ð¾Ð»": 5978,
      "ungs": 5979,
      "ĠÐ¿ÑĢÐ¸Ð·": 5980,
      "ĠÑģÑĬÐ¾ÑĤÐ½Ð¾": 5981,
      "ĠÑĨÐ°": 5982,
      "ĠÑģÐ´ÐµÐ»ÐºÐ°": 5983,
      "ĠÐ³ÐµÐ¾Ð³ÑĢÐ°ÑĦÑģÐºÐ¸": 5984,
      "ĠÐ¿ÑĢÐ°Ð²Ð¾Ð¾ÑĤÐ½Ð¾ÑĪÐµÐ½Ð¸Ðµ": 5985,
      "ÑĦÐµÑĢÐµÐ½ÑĨÐ¸": 5986,
      "ĠÑħÐ¾Ð´": 5987,
      "ĠÑĢÐ°Ð·Ð¿ÑĢÐ¾ÑģÑĤÑĢÐ°Ð½ÐµÐ½Ð¸Ðµ": 5988,
      "ĠÐ²Ð¸Ð·": 5989,
      "ĠÐ¼Ð¸Ð½Ðµ": 5990,
      "ĠÐ¸Ð·ÑģÐ»ÑĥÑĪÐ°": 5991,
      "ÑĢÐ¾Ð±Ð½Ð¾": 5992,
      "ĠÑģÑĬÑīÐ¸": 5993,
      "ĠÐ¼Ð´": 5994,
      "Ġuk": 5995,
      "ĠÐ¾Ð±Ð¸ÑĩÐ°Ð¸Ð½Ð¾": 5996,
      "ĠÑĥÐ²ÐµÐ»Ð¸ÑĩÐ¸": 5997,
      "ĠÐ½Ð°ÑģÐµ": 5998,
      "ĠÐ³ÑĢÐ°Ð´": 5999,
      "ĠÐ¿Ð°ÑģÐ¸Ð²Ð¸": 6000,
      "ĠÐºÐ²Ð°Ð»Ð¸ÑĦÐ¸ÐºÐ°ÑĨÐ¸Ñı": 6001,
      "ĠÐ¿Ð»Ðµ": 6002,
      "ĠÐºÐ»ÑİÑĩ": 6003,
      "ĠÑĤÐµÐºÑģÑĤÑĬÑĤ": 6004,
      "ĠÑĢÐ¸ÑģÐºÐ¾Ð²ÐµÑĤÐµ": 6005,
      "ĠÑĥÐ²ÐµÐ»Ð¸ÑĩÐµÐ½Ð¸Ðµ": 6006,
      "ĠÐ²ÑĬÐ·Ð½Ð°Ð¼Ðµ": 6007,
      "ĠÑĥÐ»Ð¾Ð²": 6008,
      "ĠÐ¿ÑĢÐ¸Ð½ÑĥÐ´Ð¸": 6009,
      "ĠÑģÐ¿Ð°Ð·Ð²Ð°ÑĤ": 6010,
      "Ġ340": 6011,
      "ĠÐºÐ°ÑĤÐ°": 6012,
      "ĠÐ¾ÑģÑĤÐ°Ð²Ð°": 6013,
      "ĠÐµÑĦÐµÐºÑĤÐ¸Ð²Ð½Ð¾ÑģÑĤÑĤÐ°": 6014,
      "ĠÐ¾Ð±Ð»Ð¸": 6015,
      "ĠÐ´Ð¾Ð±ÑĢÐ°": 6016,
      "ministr": 6017,
      "ĠÐ³ÑĢÑĬÑĨ": 6018,
      "ĠÐ´ÐµÐºÑĢÐµÑĤ": 6019,
      "ĠÐ»Ð¾Ð³Ð¸": 6020,
      "Ð¿ÐºÐ¸": 6021,
      "Ġce": 6022,
      "aft": 6023,
      "Î¸": 6024,
      "ÑģÐ½Ð°ÑĤÐ°": 6025,
      "ÑĤÐ¸Ð²Ð½Ð¸": 6026,
      "ĠÑĩÑĥÐ²ÑģÑĤÐ²Ð¸": 6027,
      "ĠÐ·Ð°Ð´": 6028,
      "ĠÐ²Ð¼ÐµÑģÑĤÐ¾": 6029,
      "ÑģÑĤÐ°Ð²Ð¸": 6030,
      "ĠÐ¿Ð¾Ð´Ð¿Ð¾Ð¼Ð°Ð³Ð°": 6031,
      "Ġcpc": 6032,
      "Ġ131": 6033,
      "ĠÐ²ÐºÐ»ÑİÑĩÐ²Ð°Ð½ÐµÑĤÐ¾": 6034,
      "Ġ414": 6035,
      "ĠÑĢÐµÐ²Ð¾Ð»Ð²Ð¸": 6036,
      "uss": 6037,
      "berg": 6038,
      "ĠÐ±ÐµÐ·ÑģÐ¿Ð¾ÑĢÐ½Ð¾": 6039,
      "ĠÑĦÑĥÐ½ÐºÑĨÐ¸Ð¾Ð½Ð¸ÑĢÐ°Ð½Ðµ": 6040,
      "ĠÑĢÐµÐ´Ð¸ÑĨÐ°": 6041,
      "ĠÑĢÐµÐ³Ð¸ÑģÑĤÑĬÑĢ": 6042,
      "Ġ390": 6043,
      "ĠÐ¿ÑĢÐ¸Ð»Ð¾Ð¶Ð¸Ð¼Ð¾ÑĤÐ¾": 6044,
      "ĠÐ¿ÑĢÐ¾Ð¸Ð·Ð²Ð¾Ð´Ð¸ÑĤÐµÐ»ÑıÑĤ": 6045,
      "idae": 6046,
      "ÑģÑĤÐµ": 6047,
      "ĠÐ¸Ð»": 6048,
      "ÑĤÐ¾ÑĢÐ¸ÑĤÐµ": 6049,
      "Ġaviation": 6050,
      "ĠÐ¿ÑĢÐµÑģÑĤÐ°": 6051,
      "ĠÐ¿Ð¾Ð³ÑĢÐµÑĪ": 6052,
      "ĠÑĢÑĥÐ¼ÑĬÐ½Ð¸Ñı": 6053,
      "ĠÐ½Ð°Ð»Ð°Ð³Ð°Ð½ÐµÑĤÐ¾": 6054,
      "Ġkon": 6055,
      "ack": 6056,
      "ÏģÎ¿": 6057,
      "Ð¶Ð°Ð²Ð°Ð½ÐµÑĤÐ¾": 6058,
      "ĠÑĤÑĢÑĥÐ´Ð¾Ð²": 6059,
      "ĠÐ¸Ð·ÐºÑĥÑģÑĤÐ²ÐµÐ½Ð¸": 6060,
      "Ġproduc": 6061,
      "ĠÑģÑĢÐµÐ´ÑģÑĤÐ²Ð°ÑĤÐ°": 6062,
      "ĠÐ¿Ð¾Ð´ÑĢÐ¾Ð±Ð½Ð¾": 6063,
      "Ġgas": 6064,
      "pt": 6065,
      "ĠÐ²Ð»Ðµ": 6066,
      "ĠÑĥÐ¿Ð¾Ð¼ÐµÐ½Ð°": 6067,
      "ĠÑħÑĢÐ°Ð½Ð°": 6068,
      "Ġ133": 6069,
      "ĠÐºÐ»Ð°ÑĥÐ·Ð¸": 6070,
      "ĠÐ¸Ð´ÐµÐ½ÑĤÐ¸ÑĦÐ¸ÐºÐ°ÑĨÐ¸Ð¾Ð½ÐµÐ½": 6071,
      "Ð½ÑĤÐ°": 6072,
      "ĠÐ³ÑĢÐ°Ð¶Ð´Ð°Ð½ÑģÐºÐ¸": 6073,
      "ĠÐ¿ÑĢÐµÐ´ÑģÑĤÐ°Ð²ÑıÐ½ÐµÑĤÐ¾": 6074,
      "ĠÑĥÐ¿ÑĬÐ»Ð½Ð¾Ð¼Ð¾Ñī": 6075,
      "Ð´ÐµÐ½Ð°ÑĤÐ°": 6076,
      "ĠÑģÑĬÐ¾ÑĤÐ²ÐµÑĤÑģÑĤÐ²Ð°ÑĤ": 6077,
      "Ġ021": 6078,
      "ĠÐ²ÐºÐ»ÑİÑĩÐµÐ½": 6079,
      "ĠÑĥÐºÑĢÐ°Ð¸Ð½Ð°": 6080,
      "ĠÐºÐ¾Ð½ÑĦÐ»Ð¸": 6081,
      "ĠÑģÐ°Ð¼Ð¸": 6082,
      "ĠÑĢÐ°Ð²ÐµÐ½": 6083,
      "ĠÑĢÐµÐ³Ð¸ÑģÑĤÑĢÐ¸ÑĢÐ°Ð½Ð¸": 6084,
      "ĠÐ½Ð°ÑĨÐ¸Ð¾Ð½Ð°Ð»Ð½Ð¸ÑıÑĤ": 6085,
      "echn": 6086,
      "Ġha": 6087,
      "ĠÐ¿ÑĬÑĢÐ²Ð¸ÑĤÐµ": 6088,
      "ĠÐ¿Ð¾ÑĤÐ²ÑĬÑĢÐ´Ð¸": 6089,
      "ÑĬÐ³ÑĬÐ»": 6090,
      "Ġ@": 6091,
      "ĠÐ²ÑĬÐ·Ð¾Ð±": 6092,
      "ĠÑħÐ¾ÑĢÐ°": 6093,
      "ĠÐ¸Ð·ÐºÐ»ÑİÑĩÐ²Ð°Ð½Ðµ": 6094,
      "ĠÐ¿ÑĬÐ»Ð½Ð°": 6095,
      "ci": 6096,
      "72": 6097,
      "ĠÐ½Ð°ÑģÑĬÑĢÑĩÐ°Ð²Ð°Ð½Ðµ": 6098,
      "ĠÐ²Ð¾ÐµÐ½": 6099,
      "ĠÑħÐ¸Ð´ÑĢÐ¾ÐºÑģÐ¸": 6100,
      "ĠÑģÐ¿ÑĢÐµ": 6101,
      "ĠÐ¿ÑĢÐ¸Ð±Ð»Ð¸": 6102,
      "ĠÐ¸Ð·Ð¿Ð¸ÑĤÐ²Ð°": 6103,
      "ĠÐ½ÐµÑģÑĬÑģÑĤÐ¾ÑıÑĤÐµÐ»Ð½Ð¾ÑģÑĤ": 6104,
      "Ġso": 6105,
      "ĠÑĦÐ¸Ð½Ð»Ð°Ð½Ð´Ð¸Ñı": 6106,
      "ĠÑĤÐ°Ð¸": 6107,
      "ĠÐ¿Ð¾Ð´Ð¾Ð±ÐµÐ½": 6108,
      "Ð¿ÑĥÑĤÐ°": 6109,
      "ĠÑģÐ±Ð»Ð¸": 6110,
      "ĠÐ¿Ð¾Ð´Ð³Ð¾ÑĤÐ¾": 6111,
      "ĠÐ·Ð°ÐºÑĥ": 6112,
      "Ġeg": 6113,
      "ĠÐ³Ð¾Ð²Ðµ": 6114,
      "hof": 6115,
      "Ð»ÐµÐ¶Ð°": 6116,
      "ĠÐºÑĥÐ¿ÑĥÐ²Ð°": 6117,
      "ĠÐ¸Ð´ÐµÐ½ÑĤÐ¸ÑĦÐ¸ÐºÐ°ÑĨÐ¸Ñı": 6118,
      "ĠÐºÐ¾Ð½ÑģÐµ": 6119,
      "ÑĩÐ½Ð¸ÑıÑĤ": 6120,
      "ĠÐ³Ð¾ÑĢÐµÐ¸Ð·Ð»Ð¾Ð¶": 6121,
      "ĠÑģÐ°Ð¼Ð°ÑĤÐ°": 6122,
      "ĠÑģÑĤÐ°Ð½Ð¾Ð²Ð¸ÑīÐ°ÑĤÐ°": 6123,
      "ĠÑĨÐµÐ½ÑĤÑĬÑĢ": 6124,
      "ĠÐ´Ð¾ÐºÑĥÐ¼ÐµÐ½ÑĤÐ°ÑĨÐ¸Ñı": 6125,
      "ĠÐ±Ð°Ð·Ð¾": 6126,
      "ĠÐ·Ð°Ð¿Ð¾ÑĩÐ½Ð°": 6127,
      "Ð»ÐºÐ¸": 6128,
      "ĠÐ¿ÑĢÐµÐ²Ð¾Ð·Ð²Ð°Ñĩ": 6129,
      "ĠÐ¿ÑĢÐµÐºÑĬÑģ": 6130,
      "ĠÐ¾Ð±Ð¾ÑģÐ½Ð¾Ð²Ðµ": 6131,
      "Ġ157": 6132,
      "ĠÐ¾Ð±ÑīÐµÑģÑĤÐ²ÐµÐ½": 6133,
      "ĠÑģÑĤÐ°Ð±Ð¸": 6134,
      "ĠÐ´Ð¾ÑģÑĤÐ°Ð²ÑĩÐ¸ÑĨÐ¸": 6135,
      "ĠÐºÐ¾Ð½ÑģÑĥÐ»": 6136,
      "ĠÑĨÐ¸ÑĦÑĢÐ¾": 6137,
      "ĠÐ·Ð°Ð¿Ð°Ð·Ð²Ð°Ð½Ðµ": 6138,
      "ĠÐ¿Ð¾Ð³Ð°": 6139,
      "ĠÑĦÑĢÐµÐ½ÑģÐºÐ°ÑĤÐ°": 6140,
      "ĠÐ¼ÐµÐ´Ð¸ÑĨÐ¸Ð½ÑģÐºÐ¸": 6141,
      "ĠÐ»ÐµÐ½ÑĤÐ¸": 6142,
      "ĠÐºÐ¾Ð¼Ð°Ð½Ð´Ð¸": 6143,
      "ĠÑĢÐ¸Ð±Ð°ÑĢ": 6144,
      "ĠÐ´Ð¾Ð±Ð°Ð²ÐºÐ°": 6145,
      "ĠÐ¿Ð¾ÑīÐµÐ½": 6146,
      "ĠÑĢÐµÐ³Ð¸Ð¾Ð½": 6147,
      "ĠÑģÐºÐ°": 6148,
      "ĠÐ¸Ð½ÑĤÐµÐ»ÐµÐºÑĤÑĥÐ°Ð»Ð½Ð°": 6149,
      "ĠÐ¼Ð¸ÑĤÐ½Ð¸ÑĩÐµÑģÐºÐ°": 6150,
      "Ð¿ÑĢÐ°Ð²Ð½Ð¸ÑĤÐµ": 6151,
      "ĠÐ¿Ð¾Ð»Ð¸ÑĤÐ¸ÐºÐ°ÑĤÐ°": 6152,
      "Ð²ÐµÑĤÐ¸": 6153,
      "ÏģÎ¹": 6154,
      "ĠÐ»ÐµÑĤÐ¸ÑīÐµ": 6155,
      "Ġte": 6156,
      "Ġli": 6157,
      "ĠÑĢÐ°Ð·ÑģÑĤÐ¾ÑıÐ½Ð¸Ðµ": 6158,
      "ade": 6159,
      "ÑĢÑıÐ·Ð°": 6160,
      "Ð½Ð¸ÐµÐ²": 6161,
      "ĠÐ¸Ð·Ð´Ð°Ð´ÐµÐ½Ð¾": 6162,
      "ĠÑĤÑĬÑĢÐ³Ð¾Ð²Ðµ": 6163,
      "ĠÐ½Ð°ÑĢÐ¸ÑĩÐ°Ð½Ð¸": 6164,
      "ĠÐ¿Ð¾Ð´Ð¾Ð±ÑĢÑıÐ²Ð°Ð½Ðµ": 6165,
      "Ġ2150": 6166,
      "ĠÐ´Ð¸Ð·Ð°Ð¸Ð½Ð¸": 6167,
      "ĠÐ¿ÑĢÐµÑĩÐºÐ°": 6168,
      "ĠÐ¼Ð°ÐºÑģÐ¸Ð¼Ð°": 6169,
      "ĠÐ¿ÑĢÐ°Ð²Ð¾Ð¼Ð¾ÑīÐ¸ÐµÑĤÐ¾": 6170,
      "Ġpre": 6171,
      "Ġ148": 6172,
      "ĠÑĢÐµÐ³ÑĥÐ»Ð¸ÑĢÐ°Ð½Ðµ": 6173,
      "Ð³Ð½Ð°ÑĤ": 6174,
      "ĠÐ³Ð¾ÑĤÐ¾": 6175,
      "ler": 6176,
      "ÑıÑīÐ¸": 6177,
      "ĠÐ¿Ð¾Ð´Ð¿Ð¸ÑģÐ°": 6178,
      "ĠÐ½Ð¾ÑĢÐ¼Ð°Ð»Ð½Ð°ÑĤÐ°": 6179,
      "ĠÑģÐ¸ÑģÑĤÐµÐ¼Ð¸ÑĤÐµ": 6180,
      "ĠÑĦÐ¸Ð½Ð°Ð½ÑģÐ¸ÑĢÐ°Ð½ÐµÑĤÐ¾": 6181,
      "ÑĤÐµÐ½Ð¾": 6182,
      "ÑĢÐ¾Ð´Ð½Ð¾": 6183,
      "ĠÐ¸Ð·ÑģÐ»ÑĥÑĪÐ²Ð°Ð½Ðµ": 6184,
      "ĠÐ¿ÑĢÐµÐºÐ¾": 6185,
      "ĠÐ²ÐµÐ»Ð¸": 6186,
      "be": 6187,
      "ĠÐ³Ð»Ð¾Ð±Ð¸": 6188,
      "ĠÐ²ÑĬÐ·Ð´ÑĥÑħÐ¾Ð¿Ð»Ð°Ð²Ð°ÑĤÐµÐ»Ð½Ð¸": 6189,
      "ĠÑħÐ°ÑĢÐ°ÐºÑĤÐµÑĢÐ¸ÑģÑĤÐ¸ÐºÐ¸ÑĤÐµ": 6190,
      "ĠÐ´Ð°Ð½ÑĬÑĩÐ½Ð¾Ð·Ð°Ð´ÑĬÐ»Ð¶ÐµÐ½Ð¾ÑĤÐ¾": 6191,
      "ĠÐ¼ÐµÐ¶Ð´ÑĥÐ½Ð°ÑĢÐ¾Ð´Ð½Ð°ÑĤÐ°": 6192,
      "Ġ167": 6193,
      "ĠÐ²ÑĬÐ·ÑģÑĤÐ°Ð½Ð¾Ð²Ñı": 6194,
      "ĠÐ·Ð°Ð¿Ð°ÑģÐ¸": 6195,
      "ĠÑĤÑĢÐ°Ð½ÑģÐ¿Ð¾ÑĢÑĤÐ¸": 6196,
      "ĠÐ¾ÑĤÐºÐ¾Ð»ÐºÐ¾ÑĤÐ¾": 6197,
      "ĠÐ³ÐµÐ½ÐµÑĢÐ°Ð»Ð½Ð¸ÑıÑĤ": 6198,
      "ute": 6199,
      "ĠÐ¿Ð¾Ð»ÑĥÑĩÐ°Ð²Ð°ÑĤ": 6200,
      "ĠÐ¸Ð·Ð´ÐµÐ»Ð¸": 6201,
      "eng": 6202,
      "ĠÑģÐµÐ»ÑģÐºÐ¾ÑģÑĤÐ¾Ð¿Ð°Ð½ÑģÐºÐ¸ÑĤÐµ": 6203,
      "ĠÑģÐ¸Ð³Ð½Ð°Ð»Ð¸": 6204,
      "Ġ143": 6205,
      "amm": 6206,
      "ĠÑĢÐµÐ³Ð¸ÑģÑĤÑĬÑĢÐ°": 6207,
      "ĠÐ½ÐµÐ¿ÑĢÐµÐ²Ð¸ÑĪÐ°Ð²Ð°ÑīÐ¾": 6208,
      "ĠÐ·Ð²Ñĥ": 6209,
      "ĠÐ¿Ð¾Ð²ÑĤÐ¾ÑĢÐ½Ð¾": 6210,
      "ĠÐ³Ð¾Ð´Ð¸ÑĪÐµÐ½": 6211,
      "ĠÐ¸Ð·Ð²ÑĬÑĢÑĪÐµÐ½Ð°": 6212,
      "ĠÐ·Ð°Ð¿Ð¸ÑĤÐ²Ð°ÑīÐ°": 6213,
      "Ġâī¥": 6214,
      "ĠÐ¼Ð¸ÑĤÐ½Ð¸ÑĩÐµÑģÐºÐ¸Ñı": 6215,
      "ÐµÑĤÐ¸ÑĤÐµ": 6216,
      "ĠÐ¿ÑĢÐ¸ÑħÐ¾Ð´Ð¸ÑĤÐµ": 6217,
      "ĠÐ°ÐºÑĤÐ¸Ð²Ð½Ð¾ÑĤÐ¾": 6218,
      "ÑĢÐµÑī": 6219,
      "Ð´Ð¾Ð²Ð¾": 6220,
      "ĠÑģÐºÐ»ÑİÑĩÐ²Ð°Ð½ÐµÑĤÐ¾": 6221,
      "ĠÑģÑĬÑīÐµÑģÑĤÐ²ÐµÐ½Ð¸": 6222,
      "ĠÐ¼ÑıÑĢÐºÐ°ÑĤÐ°": 6223,
      "Ġiec": 6224,
      "att": 6225,
      "ĠÐ·Ð°ÑīÐ¾ÑĤÐ¾": 6226,
      "ĠÐ¾Ð¿ÑĢÐ¾ÑģÑĤ": 6227,
      "Ġspa": 6228,
      "ĠÐ¿Ð»Ð°Ð½Ð¾Ð²Ðµ": 6229,
      "Ð¿Ð¸ÑģÐ¸": 6230,
      "ĠÐ¾ÑģÐ½Ð¾Ð²Ð°Ð²Ð°ÑĤ": 6231,
      "Ð¿Ð¿Ñģ": 6232,
      "Ġrep": 6233,
      "ÑģÑĤÐ¸Ð½Ð°": 6234,
      "ĠÑģÑĬÐ¾Ð±ÑīÐ¸": 6235,
      "Ð²Ð»ÐµÑĤÐ²Ð¾": 6236,
      "ĠÑĤÐ¾ÑĢ": 6237,
      "ĠÐ¾ÑĤÑģÑĬ": 6238,
      "ĠÐ¿ÑĢÐµÐ²Ð¸": 6239,
      "ĠÑĤÐ¾Ð²Ð°ÑĢÐ¸": 6240,
      "eth": 6241,
      "rocar": 6242,
      "ĠÐ½Ð°ÑĩÐ¸Ñģ": 6243,
      "ĠÐ°Ð²ÑĤÐ¾Ð½Ð¾": 6244,
      "ĠÐ´Ð°Ð½ÑĬÑĩÐµÐ½": 6245,
      "ĠÐ±Ð»Ð°Ð³Ð¾": 6246,
      "ĠÐ¿Ð¾ÑģÐ»ÐµÐ´Ð½Ð¸ÑıÑĤ": 6247,
      "ĠÐ°ÐºÑĤÐ¾Ð²ÐµÑĤÐµ": 6248,
      "ĠÐµÐºÑģÐ¿Ð¾ÑĢÑĤ": 6249,
      "Ġ142": 6250,
      "ĠÑĩÐ¸ÑģÐ»Ð¾": 6251,
      "itt": 6252,
      "ĠÐ´Ð¾Ð²ÐµÐ»Ð¾": 6253,
      "ĠÐ½Ð°Ð¼Ð¸ÑĢÐ°ÑĤ": 6254,
      "ĠÂ§": 6255,
      "ĠÑģÑĬÐ´Ð¸Ð»Ð¸ÑīÐ°ÑĤÐ°": 6256,
      "ĠÐ°ÐºÑĤÐ¸Ð²": 6257,
      "ĠÐ²ÑĬÑĤÑĢÐµÑĪÐ½Ð¸ÑĤÐµ": 6258,
      "ĠÐ´ÐµÑĨÐ°": 6259,
      "ĠÐ²Ð°Ð»Ð¸Ð´Ð½Ð¾ÑģÑĤÑĤÐ°": 6260,
      "fin": 6261,
      "ÑĩÐ¸ÑĤÐµ": 6262,
      "ĠÐ»ÐµÐ³Ð¸": 6263,
      "ĠÐ¸ÑīÐµÑĨÐ°": 6264,
      "ĠÐ±Ð¸Ð²": 6265,
      "ÑĦÐ¸ÑĨÐ¸ÑĢÐ°Ð½ÐµÑĤÐ¾": 6266,
      "ÑħÐ¸Ð´ÑĢÐ¾": 6267,
      "bl": 6268,
      "ĠÐ¾Ð²Ð¿Ð¿Ñģ": 6269,
      "are": 6270,
      "ux": 6271,
      "ĠÐºÑĢÐ°ÑĤÐºÐ¾": 6272,
      "ĠÐºÐ»Ð°ÑģÐ¾Ð²Ðµ": 6273,
      "ood": 6274,
      "ĠÐ½Ð°ÑĢÐ¾Ð´Ð½Ð°": 6275,
      "Ð»ÐµÐ½Ð°ÑĤÐ°": 6276,
      "ĠÐ´Ð°Ð½ÑĬÑĩÐ½Ð¾Ð·Ð°Ð´ÑĬÐ»Ð¶ÐµÐ½Ð¾": 6277,
      "ĠÐ¾ÐºÐ°Ð·Ð°": 6278,
      "Ġ147": 6279,
      "ĠÐ½Ð°ÑģÐ¾ÑĩÐµÐ½Ð¸": 6280,
      "ĠÑĦÐ¾Ñģ": 6281,
      "ĠÑıÐ²Ð½Ð°": 6282,
      "ĠÑģÑĬÐ¾ÑĤÐ½Ð¾ÑĪÐµÐ½Ð¸Ðµ": 6283,
      "ĠÐ¿ÑĢÐµÐ´ÑħÐ¾Ð´Ð½Ð°ÑĤÐ°": 6284,
      "Ð±Ð¸Ð»Ð½Ð¾ÑģÑĤ": 6285,
      "ĠÑĢÐ°Ð·Ð¼ÐµÑĢÐ¸": 6286,
      "ĠÐ¸Ð·Ð²ÐµÑģÑĤÐ¸ÐµÑĤÐ¾": 6287,
      "Ġ380": 6288,
      "ĠÐ¸ÐºÐ¾Ð½Ð¾Ð¼Ð¸ÑĩÐµÑģÐºÐ°ÑĤÐ°": 6289,
      "ĠÐ½Ð°Ð»Ð°Ð³Ð°ÑĤ": 6290,
      "ÑĢÐµÑģÑĤ": 6291,
      "uh": 6292,
      "ÑģÐ¸ÑģÑĤÐµ": 6293,
      "Ġ290": 6294,
      "ĠÑģÑĤÑĬÐºÐ»Ð¾": 6295,
      "ĠÐ¿ÑĢÐµÐ´ÑħÐ¾Ð¶Ð´Ð°": 6296,
      "ĠÐ¿Ð¾Ð´ÑĢÐ°Ð·": 6297,
      "ĠÑĤÑĬÑĢÐ³Ð¾Ð²ÑģÐºÐ¸ÑĤÐµ": 6298,
      "ĠÐ½Ð°ÑĥÑĩÐ½Ð¾": 6299,
      "ĠÑĥÐµÐ±ÑģÐ°": 6300,
      "Ð²Ð¾Ð´Ð½Ð¸": 6301,
      "ĠÐ¼Ð°Ð»ÑĬÐº": 6302,
      "Ġ137": 6303,
      "ĠÐ²Ð·ÐµÐ¼Ð°Ð½Ð¸Ñı": 6304,
      "ĠÐ¿ÑĢÑıÐºÐ°": 6305,
      "ĠÐ¿ÑĢÐ¾ÑĤÐµ": 6306,
      "ĠÐºÐ°Ð»": 6307,
      "ĠÐºÐ¾Ð½ÐºÑĢÐµÑĤÐµÐ½": 6308,
      "ĠÑĤÐ²ÑĬÑĢÐ´ÑıÑĤ": 6309,
      "ÑħÐµ": 6310,
      "Ġ1068": 6311,
      "ĠÑĢÐ°Ð²Ð½Ð°": 6312,
      "ĠÐºÐ°ÑģÐ°": 6313,
      "ĠÐ²Ð¸Ð´Ð¸": 6314,
      "ĠÐ»Ð¸ÑģÑĤÐ°": 6315,
      "ÑĢÐ¸ÑĤÐµÐ»ÐµÐ½": 6316,
      "ĠÐ´ÑĢÐ¾Ð±": 6317,
      "ĠÐ¿ÑĢÐ¸ÐµÐ»Ð°": 6318,
      "ĠÐ½Ð°ÑĩÐ°Ð»Ð¾": 6319,
      "ĠÐºÐ¾ÑĢÐµÐºÑĨÐ¸Ð¸": 6320,
      "ĠÑĢÐ°Ð±Ð¾ÑĤÐµ": 6321,
      "ĠÐ¸Ð½ÑĤÐµÐ³ÑĢÐ¸": 6322,
      "ĠÑģÐ¾Ð±ÑģÑĤÐ²ÐµÐ½Ð¸ÑĤÐµ": 6323,
      "ĠÐ´Ð¾Ð¿ÑĥÑģÑĤÐ¸Ð¼Ð¸ÑĤÐµ": 6324,
      "ĠÑĢÐµÐ²Ð¾Ð»Ð²Ð¸ÑĢÐ°ÑīÐ¸": 6325,
      "ĠÐ·Ð°Ð´Ð°ÑĩÐ°": 6326,
      "ĠÐ¾ÑģÐ½Ð¾Ð²Ð½Ð°": 6327,
      "ĠÐ·Ð°ÑģÐ¸": 6328,
      "Ġ168": 6329,
      "ĠÐ¼ÐµÑģÑĤÐ¾Ð¿Ð¾": 6330,
      "ÑĬÑĢÑĤ": 6331,
      "ÑĨÐ¸Ðº": 6332,
      "ĠÐ¸Ð¼Ð¾ÑĤ": 6333,
      "Ġ630": 6334,
      "ĠÑĢÐ°Ð·Ð´ÐµÐ»Ð¸": 6335,
      "Ġenerg": 6336,
      "Ġech": 6337,
      "ĠÑģÑĥÐ¼Ð¸ÑĤÐµ": 6338,
      "Ġtribunal": 6339,
      "ĠÐ½Ð¸ÑģÐºÐ¾": 6340,
      "ĠÐ½Ð°ÑĢÑĥÑĪÐ°Ð²Ð°Ð½Ðµ": 6341,
      "Ġ182": 6342,
      "ĠÐ¿ÑĢÐ¸Ð±Ð°": 6343,
      "ĠÐ´ÑıÐ»Ð¾Ð²Ðµ": 6344,
      "Ð¶ÐµÐ½": 6345,
      "no": 6346,
      "ĠÐºÐ°ÑĢÐ°Ð½": 6347,
      "bo": 6348,
      "ĠÐ·Ð°ÑıÐ²Ð»ÐµÐ½Ð¸ÑıÑĤÐ°": 6349,
      "ĠÐ¿Ð¾ÑģÑĤÐ°Ð½Ð¾Ð²ÑıÐ²Ð°": 6350,
      "ĠÐ¾Ð³ÑĢÐ°Ð½Ð¸ÑĩÐµÐ½Ð¸ÑıÑĤÐ°": 6351,
      "ĠÐ´Ð¾Ð³Ð¾Ð²Ð¾ÑĢÐµÐ½Ð¾": 6352,
      "ĠÐ´Ð»ÑĬÐ¶Ð½Ð¾ÑģÑĤÐ½Ð¸ÑĤÐµ": 6353,
      "ÑģÐ½Ð¾Ð²ÐµÐ½": 6354,
      "ĠÐ·Ð°Ð´ÑĬÑĢÐ¶Ð°Ð½Ðµ": 6355,
      "ĠÑĤÐµÐ»ÐµÑĦ": 6356,
      "ĠÑģÐµÑĢÑĤÐ¸ÑĦÐ¸ÐºÐ°ÑĤÐ¸": 6357,
      "Ġmor": 6358,
      "ĠÐ´ÑĬÑĢÐ¶Ð°Ð²Ð½Ð¾": 6359,
      "ĠÑģÑĬÐµÐ´Ð¸Ð½ÐµÐ½Ð¸Ñı": 6360,
      "Ġra": 6361,
      "Ð¼ÐµÑģÑĤÐ¸Ð¼Ð¾": 6362,
      "ĠÐºÐ¾Ð¼Ð¿ÐµÐ½ÑģÐ¸": 6363,
      "Ġ720": 6364,
      "ĠÑĢÐµÐ·Ð¾": 6365,
      "ĠÑģÐ¾ÑĨÐ¸Ð°Ð»Ð½Ð°": 6366,
      "ĠÐ´Ð¾ÐºÐ°Ð·Ð²Ð°Ð½Ðµ": 6367,
      "ĠÑĥÐ´Ð¾Ð²Ð»ÐµÑĤÐ²Ð¾": 6368,
      "ĠÐ¿ÑĢÐ¾ÑĦÐµÑģÐ¸Ð¾Ð½Ð°Ð»Ð½Ð°": 6369,
      "ĠÑħÑĢÐ¾": 6370,
      "Ġrq": 6371,
      "ĠÐ¾Ð¿ÑĢÐ°": 6372,
      "Ð»ÑıÑĤÐ°": 6373,
      "ĠÐ¿ÑĢÐ¾Ð²ÐµÐ¶Ð´Ð°Ð½Ðµ": 6374,
      "ÑĢÐ¸ÑģÑĤÐ¸": 6375,
      "ĠÐ¿Ð¾ÐºÑĢÐ¸ÑĤÐ¸Ðµ": 6376,
      "ĠÐ´Ð¾Ð¿ÑĬÐ»Ð½Ð¸ÑĤÐµÐ»ÐµÐ½": 6377,
      "ÑĦÑĤÑĥ": 6378,
      "ÑĢÑıÐ½Ðµ": 6379,
      "ĠÑģÑĤp": 6380,
      "ĠÐ·Ð°Ð´ÑĬÐ»Ð¶Ð°Ð²Ð°": 6381,
      "ĠÐ·Ð°ÑıÐ²ÐºÐ°ÑĤÐ°": 6382,
      "ÑĮÐ¾ÑĢÐ¸": 6383,
      "Ġport": 6384,
      "ĠÐ·Ð°Ð¸Ð½ÑĤÐµÑĢÐµÑģÐ¾Ð²Ð°Ð½Ð¸": 6385,
      "ĠÑĢÐ°Ð½Ð½Ð°ÑĤÐ°": 6386,
      "br": 6387,
      "ĠÐ¼Ð¾Ð¶ÐµÐ»Ð¾": 6388,
      "ĠÐ±ÐµÐ·Ð²ÑĬÐ·": 6389,
      "ÑĨÐ¸Ð´Ð¸": 6390,
      "ĠÐ¿ÑĬÑĤÐ½Ð¸ÑĨÐ¸": 6391,
      "ĠÐ¾ÑĤÐ½ÐµÐ¼Ð°": 6392,
      "ÐµÑĤÐ°": 6393,
      "ĠÐ±ÑĢÐ¾ÑıÑĤ": 6394,
      "ior": 6395,
      "Ġwww": 6396,
      "Ð¿ÑĢÐ¸Ð»Ð¾Ð¶ÐµÐ½Ð¸Ðµ": 6397,
      "Ð¾ÑĤÐ²ÐµÑĤ": 6398,
      "ĠÐ¸Ð·Ð¼ÐµÐ½ÐµÐ½Ð¾": 6399,
      "Ð¼Ð½Ð°": 6400,
      "Ġza": 6401,
      "ÐºÐ°ÑĤÐ¸": 6402,
      "ĠÐ¸Ð·Ð»ÑĬ": 6403,
      "ĠÑĥÐ¿ÑĢÐ°Ð¶Ð½Ð¸": 6404,
      "ĠÐ¿Ð¾ÑģÑĤÐ°Ð²ÐµÐ½Ð¸": 6405,
      "ĠoÑģÐ½Ð¾Ð²ÐµÐ½": 6406,
      "ĠÑģÑĬÑģÑĤÐ¾ÑıÐ½Ð¸ÐµÑĤÐ¾": 6407,
      "ĠÑĥÐºÐ°Ð·Ð°Ð½Ð¸Ðµ": 6408,
      "ĠÐ¿ÑĢÐµÐ´Ð¾ÑģÑĤÐ°Ð²ÐµÐ½Ð¸ÑĤÐµ": 6409,
      "ĠÐ²Ñı": 6410,
      "ĠÑħÐ¾ÑĢÐ¸Ð·Ð¾Ð½ÑĤÐ°": 6411,
      "Ġlin": 6412,
      "ĠÐ¸Ð½Ð²ÐµÑģÑĤÐ¸ÑĨÐ¸Ð¾Ð½Ð½Ð¸": 6413,
      "ĠÐ´ÑĬÑīÐµÑĢÐ½Ð¾": 6414,
      "ĠÐ²Ð»Ð¾": 6415,
      "ĠÐ·Ð°ÑīÐ¸ÑĤÐµÐ½Ð¾": 6416,
      "ĠÐºÐ°ÐºÐ²Ð°ÑĤÐ¾": 6417,
      "Ð»Ð¾Ð¶ÐµÐ½Ð¾": 6418,
      "ĠÐ¼ÐµÐ¶Ð´ÑĥÐ½Ð°ÑĢÐ¾Ð´Ð½Ð¸ÑĤÐµ": 6419,
      "ĠÐ²ÑģÐ¸ÑĩÐºÐ¾": 6420,
      "ĠÐ½Ð°Ð¼Ð°Ð»Ð¸": 6421,
      "Ġindustri": 6422,
      "ĠÑģÑĤÐµ": 6423,
      "ĠÑģÐ¾ÑĦÑĤÑĥ": 6424,
      "ĠÐ²ÑĬÐ·Ð¾Ð±Ð½Ð¾": 6425,
      "ÑĨÐ¸Ð½": 6426,
      "ÑĪÑĢÑĥ": 6427,
      "ĠÑĢÐµÐ¿ÑĥÑĤÐ°": 6428,
      "ĠÐ²Ð°ÑĢÐ¸Ð°Ð½": 6429,
      "ĠÐ´Ð¾Ð²Ð¾Ð´Ð°": 6430,
      "ĠÐ·Ð°ÑĤÐ²Ð¾": 6431,
      "ĠÑĢÐ¾Ð´Ð¸ÑĤÐµÐ»": 6432,
      "Î¿ÏĤ": 6433,
      "ĠÐ·Ð°Ð¼ÑĢÐ°Ð·ÐµÐ½Ð¸": 6434,
      "ĠÑģÑĬÐ¾Ð±ÑĢÐ°Ð·Ð½Ð¾": 6435,
      "Ġge": 6436,
      "Ġvol": 6437,
      "ĠÐ½ÐµÐ¿Ð¾ÑģÑĢÐµÐ´ÑģÑĤÐ²ÐµÐ½Ð¾": 6438,
      "Ð»Ð¸Ð²Ð¸": 6439,
      "Ġ0805": 6440,
      "ĠÐ¿ÑĢÐµÐ´Ð¼ÐµÑĤÐ°": 6441,
      "ĠÐ¾ÑģÑĤÑĢÐ¾Ð²Ð¸": 6442,
      "yz": 6443,
      "Ġqr": 6444,
      "Ġ178": 6445,
      "uf": 6446,
      "ĠÐ¿ÑĢÐ¸Ð±Ð»Ð¸Ð·Ð¸": 6447,
      "Ġur": 6448,
      "ĠÐ²ÐµÑĢÑģÐ¸": 6449,
      "Ġgminy": 6450,
      "yst": 6451,
      "ĠÑģÐµÐºÑĤÐ¾ÑĢÐ¸": 6452,
      "ĠÐ»ÐµÑĤÐ°": 6453,
      "ĠÐ½Ð°Ð±Ð»ÑİÐ´Ð°": 6454,
      "ĠÐ´Ð¾ÐºÐ»Ð°Ð´Ð¸": 6455,
      "ĠÐ¾Ð±ÑīÐµÑģÑĤÐ²ÐµÐ½Ð¸ÑĤÐµ": 6456,
      "ĠÐ¼ÐµÑģÑĤÐ½Ð¸": 6457,
      "ĠÑģÑĬÑīÐ°": 6458,
      "ĠÑĤÑĢÐ°Ð´Ð¸": 6459,
      "ĠÐ½Ð°Ð¿Ð¾Ð¼Ð½Ð¸": 6460,
      "hm": 6461,
      "ĠÐ·Ð°Ð¿Ð¾ÑĩÐ½Ðµ": 6462,
      "ÑĢÐ¸ÑĤÐ¸": 6463,
      "ÑĩÐ°ÑģÑĤÐ¸": 6464,
      "ĠÐ¿ÑĢÐ¾Ð¸Ð·Ð²Ð¾Ð´ÑģÑĤÐ²ÐµÐ½Ð¸": 6465,
      "ĠÐ¿Ð¾Ð´Ð°Ð´ÐµÐ½Ð¸": 6466,
      "ĠÐ´ÐµÑĢÐ¸Ð²Ð°ÑĤÐ¸": 6467,
      "ĠÐ°ÑĢÐ±Ð¸ÑĤÑĢÐ°Ð¶": 6468,
      "ĠÐ°Ð´Ð¼Ð¸Ð½Ð¸ÑģÑĤÑĢÐ°ÑĤÐ¸Ð²Ð½Ð¾": 6469,
      "Ġdem": 6470,
      "ĠÐ¼ÐµÑħÐ°Ð½Ð¸Ð·Ð¼Ð¸": 6471,
      "ĠÐ´Ð¸ÑĢÐµÐºÑĤÐ½Ð¾": 6472,
      "ÐºÐ¾Ð²Ð¾": 6473,
      "0010": 6474,
      "Ġ310": 6475,
      "Ġfrance": 6476,
      "ĠÐ¿Ð¾Ð´Ð¿Ð¾Ð·Ð¸ÑĨÐ¸Ñı": 6477,
      "Ġ0003": 6478,
      "ĠÑģÐ»ÑĥÑĩÐ°ÑıÑĤ": 6479,
      "ĠÐ±ÐµÐ·Ð²ÑĬÐ·Ð¼ÐµÐ·": 6480,
      "ĠÐ¸Ð³ÑĢÐ°": 6481,
      "ĠÐºÐ¾Ð´ÐµÐºÑģÐ°": 6482,
      "ĠÐ¾ÑĢÐ¸": 6483,
      "ĠÑĤÐ¾Ð»ÐºÐ¾Ð²Ð°": 6484,
      "ĠÐ²ÑĬÐ·Ð¼Ð¾Ð¶Ð½Ð¾ÑģÑĤÐ¸ÑĤÐµ": 6485,
      "ĠÑģÐ»Ð°Ð´": 6486,
      "ĠÐ¸Ð·Ð¿Ð¾Ð»Ð·Ð²Ð°Ð½Ð¸ÑĤÐµ": 6487,
      "ĠÐ½Ð¾Ð¼Ð¸Ð½Ð°Ð»": 6488,
      "ĠÐ¼Ð¾Ð´ÐµÐ»": 6489,
      "ĠÐ°ÑĨÐµ": 6490,
      "ĠÐºÐ¾ÑĢÐ°Ð±Ð°": 6491,
      "ĠÐ·Ð°Ð¿Ð°Ð·Ð¸": 6492,
      "ĠÐ½ÑĥÐ¶": 6493,
      "ĠÐ¾Ð¿ÑĢÐ°Ð²Ð¾": 6494,
      "ĠÑģÐ¸Ð¼": 6495,
      "ĠÐ¾Ð¿ÐµÑĢÐ°ÑĤÐ¾ÑĢÐ°": 6496,
      "ĠÑģÑĬÐ¼Ð½ÐµÐ½Ð¸Ñı": 6497,
      "ĠÐ½ÐµÑģÑĬÐ¾ÑĤÐ²ÐµÑĤ": 6498,
      "Ð¿ÐµÐ½Ð¸": 6499,
      "ĠÐ½Ð°ÐµÐ¼Ð°": 6500,
      "Ġme": 6501,
      "ÑģÑĤÑĢÐ¾": 6502,
      "ĠÐ·Ð°ÐµÐ¼Ð°": 6503,
      "ĠÑģÑĬÐ¿Ð¾": 6504,
      "ott": 6505,
      "ĠÐ¾ÑĤÐºÐ°Ð¶Ðµ": 6506,
      "ĠÐ¾Ð±ÑĬÑĢÐºÐ²Ð°Ð½Ðµ": 6507,
      "ĠÐ½Ð°Ð¼ÐµÑģÐ°": 6508,
      "ss": 6509,
      "sms": 6510,
      "ĠÐ¾Ð¿ÐµÑĢÐ°ÑĨÐ¸Ñı": 6511,
      "ĠÐ¿ÑĢÐ¾Ð¼ÐµÐ½Ð¸ÑĤÐµ": 6512,
      "Ð¾Ð²Ð¸": 6513,
      "ĠÑĥÑĩÐ°ÑģÑĤÐ½Ð¸ÑĨÐ¸": 6514,
      "ĠÐ·Ð°Ð³ÑĥÐ±Ð°ÑĤÐ°": 6515,
      "Ġsec": 6516,
      "ĠÐ³Ð¾ÑĢÐ¸Ð²Ð°": 6517,
      "ĠÐ²Ð½Ð¾ÑģÐ½Ð¸": 6518,
      "ĠÐ¿ÑĢÐ¾Ð¼Ð¸ÑĪÐ»ÐµÐ½Ð¸": 6519,
      "ĠÐ¿ÑĢÐ°Ð²Ð¸Ð»Ð½Ð¾ÑĤÐ¾": 6520,
      "Ġcal": 6521,
      "ĠÐ¿ÑĢÐ¸Ð·Ð½Ð°ÑĤÐ¸": 6522,
      "ĠÐ¾Ð±ÐµÐºÑĤÐ¸Ð²Ð½Ð¸": 6523,
      "ont": 6524,
      "ĠÐºÐ°Ð½Ð°": 6525,
      "ĠÐ¾ÑĤÑģÑĤÑĢÐ°Ð½ÑıÐ²Ð°Ð½Ðµ": 6526,
      "ĠÐ¿ÑĢÐµÑĩÐ¸": 6527,
      "ĠÐµÑĦ": 6528,
      "uk": 6529,
      "ĠÐ¿Ð¾Ð´Ð°Ð²Ð°Ð½ÐµÑĤÐ¾": 6530,
      "ĠÐ½Ð°ÑĤÑĢÑĥ": 6531,
      "ĠÐ²ÑĢÑĬÐ·ÐºÐ¸": 6532,
      "ĠÐ¸Ð·Ð¾Ð±ÑīÐ¾": 6533,
      "ĠÐ°Ð´Ð¼Ð¸Ð½Ð¸ÑģÑĤÑĢÐ°ÑĤÐ¾ÑĢ": 6534,
      "ĠÐ´Ð»ÑĬÐ¶Ð½Ð¸": 6535,
      "ĠÐ¿ÑĢÐ¾ÐµÐºÑĤÐ¸ÑĢÐ°Ð½Ð¸": 6536,
      "ĠÐµÐ°": 6537,
      "ÏĨ": 6538,
      "Ġ1987": 6539,
      "ĠÐµÐ²ÑĢÐ¾Ð¿ÐµÐ¸ÑģÐºÐ¾ÑĤÐ¾": 6540,
      "ĠÑģÑĬÑī": 6541,
      "Ð¼ÐµÑĤÐ¸": 6542,
      "ĠÑħÑĥÐ¼Ð°": 6543,
      "ĠÐ¼ÐµÑģÑĤÐ¾Ð¾Ð±": 6544,
      "Ġdist": 6545,
      "ene": 6546,
      "ĠÑĩÐ¾Ð²ÐµÑĪ": 6547,
      "Ġ152": 6548,
      "Ġrsms": 6549,
      "ĠÑĢÐµÐ·Ð¾Ð»Ñİ": 6550,
      "ĠÐ´Ð¸Ð·Ð°Ð¸Ð½": 6551,
      "ĠÐ¼ÐµÑģÑĤÐ¾Ð¾Ð±Ð¸ÑĤÐ°": 6552,
      "ĠÐ²Ð¾Ð´Ð¸ÑĤÐµ": 6553,
      "ha": 6554,
      "Ġsmot": 6555,
      "Ġreto": 6556,
      "ĠÐ¿Ð»Ð°Ð½Ð°": 6557,
      "oss": 6558,
      "ĠÑĥÐ²ÐµÐ»Ð¸ÑĩÐ°Ð²Ð°Ð½Ðµ": 6559,
      "ĠÐ²Ð¿Ð¸ÑģÐ²Ð°Ð½Ðµ": 6560,
      "ĠÑģÑĤÑĢÑĥÐºÑĤÑĥÑĢÐ°ÑĤÐ°": 6561,
      "Ġrqrr": 6562,
      "Ġqrre": 6563,
      "ĠÐ·Ð°Ð¿Ð»Ð°ÑīÐ°Ð½Ðµ": 6564,
      "ny": 6565,
      "ÐºÑĤÐ¸Ð²Ð½Ð¸": 6566,
      "ide": 6567,
      "ĠÐ¿ÑĢÐ¾ÑģÑĤÐ¾": 6568,
      "ĠÐ¸Ð·Ð»Ð¸ÑĤÐ°Ð½Ðµ": 6569,
      "ÏĥÎ·": 6570,
      "ĠÐ½ÑĥÐ¶Ð´Ð°": 6571,
      "ĠÐºÐ¾Ð¼Ð±Ð¸Ð½Ð°ÑĨÐ¸Ñı": 6572,
      "Ġchem": 6573,
      "la": 6574,
      "ĠÐ²Ð¸ÑģÐ¾ÐºÐ¸": 6575,
      "Ð²ÑĬÐ´": 6576,
      "Ġ155": 6577,
      "ĠÐ¿ÑĢÐµÐ´Ð¾ÑģÑĤÐ°Ð²ÐµÐ½Ð°ÑĤÐ°": 6578,
      "ĠÐ²Ð°Ð»ÑĥÑĤÐ°": 6579,
      "Î¿Î½": 6580,
      "ĠÐ¾ÑĤÐºÐ°Ð·Ð²Ð°": 6581,
      "Ġpart": 6582,
      "Ð¼Ð°Ð³Ð°": 6583,
      "Ġpp": 6584,
      "ĠÐ¿Ð¾Ð»ÑĥÑĩÐ°ÑĤ": 6585,
      "ĠÐ¼Ð¾Ð´Ðµ": 6586,
      "ĠÐ½Ð°Ð²": 6587,
      "ĠÐ´ÑĬÐ»Ð¶Ð¸Ð¼Ð¸": 6588,
      "Ġden": 6589,
      "Ġnot": 6590,
      "ĠÑĢÐ¾Ð´Ð°": 6591,
      "ĠÑģÐµÐ²ÐµÑĢÐ½Ð°": 6592,
      "ĠÐ¾Ð±ÑīÐµÑģÑĤÐ²ÐµÐ½Ð¸Ñı": 6593,
      "Ġ151": 6594,
      "ÑĤÐµÐ·Ð°": 6595,
      "ĠÐ¿ÑĢÐ¾ÑĤÐ¸Ð²Ð½Ð¾": 6596,
      "ĠÐ°ÐºÑĤÑĥÐ°Ð»Ð¸Ð·Ð¸ÑĢÐ°": 6597,
      "ĠÐ¿ÑĢÐµÐ¾": 6598,
      "ĠÑģÑĬÐ´ÑĬÑĢÐ¶Ð°ÑīÐ°": 6599,
      "ĠÐºÐ¾Ð¿Ð¸Ðµ": 6600,
      "ĠÐ¿ÑĢÐ¸Ð´Ð¾Ð±Ð¸Ð²Ð°Ð½ÐµÑĤÐ¾": 6601,
      "ÑĥÐ»Ð¸": 6602,
      "ĠÐ¿Ð¾ÑĤÐ¾Ðº": 6603,
      "ÑĢÑĤÐ¸ÐºÐ°": 6604,
      "ĠÑĢÐ°Ð½Ð¾": 6605,
      "ĠÐºÐ°Ñĥ": 6606,
      "ĠÑģÐ¿ÐµÑĨÐ¸ÑĦÐ¸ÐºÐ°ÑĨÐ¸Ð¸": 6607,
      "ÐµÐ¼Ð¾ÑģÑĤ": 6608,
      "ĠÐ½Ð°Ð¼Ð°Ð»ÑıÐ²Ð°": 6609,
      "ĠÑĦÐ¸Ð·Ð¸ÑĩÐµÑģÐºÐ¸ÑĤÐµ": 6610,
      "ĠÐ¿ÑĢÐ°ÑħÐ¾": 6611,
      "ole": 6612,
      "Ð±Ñı": 6613,
      "ĠÐºÐ¾Ð½ÐºÑĢÐµÑĤÐ½Ð¸ÑĤÐµ": 6614,
      "Ġpetro": 6615,
      "Ġ156": 6616,
      "ĠÐ¿ÐµÑĤÐ¸": 6617,
      "ĠÐ¼ÐµÑģÑĤÐ¾Ð¶Ð¸": 6618,
      "ÑģÑĤÐµÐ½": 6619,
      "form": 6620,
      "ĠÐºÐ°Ð¿Ð¸ÑĤÐ°Ð»Ð¾Ð²Ð¸": 6621,
      "Ġcap": 6622,
      "ĠÑģÑĤÐ¾Ð¸Ð½Ð¾ÑģÑĤÐ¸ÑĤÐµ": 6623,
      "ĠÐ´ÑĥÐ¼Ð°": 6624,
      "ĠÐ¸Ð½Ð²ÐµÑģÑĤÐ¸ÑĨÐ¸Ð¸ÑĤÐµ": 6625,
      "Ïĩ": 6626,
      "Ġplc": 6627,
      "ĠÐµÑģÑĤÐ¾": 6628,
      "ĠÐ³Ð¾Ð´Ð¸ÑĪÐ½Ð¾": 6629,
      "ĠÑĥÐ²ÐµÐ´Ð¾Ð¼Ð»ÐµÐ½Ð¸Ðµ": 6630,
      "ĠÐ¸Ð½Ð¸ÑĨÐ¸Ð°ÑĤÐ¸Ð²Ð°": 6631,
      "Ġ149": 6632,
      "ĠÐ²ÑĬÐ·Ð´ÑĥÑħ": 6633,
      "ĠÐ¿ÑĢÐ¾ÑĨÐµÑģÑĥÐ°Ð»Ð½Ð¾": 6634,
      "ĠÐ¾ÑģÑĬÑīÐµÑģÑĤÐ²ÑıÐ²Ð°Ð½ÐµÑĤÐ¾": 6635,
      "ĠÑĥÐ¿ÑĢÐ°Ð¶Ð½ÑıÐ²Ð°ÑĤ": 6636,
      "ski": 6637,
      "ĠÑģÐµÑĢÐ¸Ð¾Ð·Ð½Ð¸": 6638,
      "ĠÐ°ÐºÑĨÐ¸Ð¾Ð½Ðµ": 6639,
      "ĠÐ·Ð°Ð¼ÐµÐ½ÑıÑĤ": 6640,
      "ena": 6641,
      "ĠÐ¿ÑĢÐ°Ð²ÑıÑĤ": 6642,
      "Ġservic": 6643,
      "its": 6644,
      "ÑģÑĤÐ²Ð°ÑĤ": 6645,
      "ĠÐ²ÐµÑĢÑĤÐ¸ÐºÐ°": 6646,
      "ĠÐ¼ÐµÑģÑĤÐ½Ð¾": 6647,
      "ĠÐ¸ÑĤÐ°Ð»Ð¸Ð°Ð½ÑģÐºÐ°ÑĤÐ°": 6648,
      "ĠÐ²ÑĬÐ·Ð»Ð¾Ð¶Ð¸": 6649,
      "Ġ343": 6650,
      "ĠÐ½ÐµÑģÑĬÐ²Ð¼ÐµÑģÑĤÐ¸": 6651,
      "ĠÐºÐ¾Ð½ÑģÐ¾Ð»Ð¸Ð´Ð¸": 6652,
      "ĠÑģÑĤÑĥ": 6653,
      "ĠÐ°Ðµ": 6654,
      "ĠÐ¾Ð±ÐµÐ¼Ð°": 6655,
      "Ġev": 6656,
      "ĠÐ·Ð°Ð¸Ð½ÑĤÐµÑĢÐµÑģÐ¾Ð²Ð°Ð½Ð¾ÑĤÐ¾": 6657,
      "ĠÐ½Ð°ÐµÐ¼": 6658,
      "ĠÐ²ÑĬÑĢÑħÐ¾Ð²ÐµÐ½": 6659,
      "ĠÑģÑĢÐµÐ´Ð½Ð°ÑĤÐ°": 6660,
      "ĠÐ²ÑĬÐ·ÑĢÐ°Ð¶ÐµÐ½Ð¸ÑıÑĤÐ°": 6661,
      "ĠÐ¿Ð°Ð·Ð°ÑĢÐ¸ÑĤÐµ": 6662,
      "ĠÐ¾ÐºÐ¾Ð½ÑĩÐ°ÑĤÐµÐ»Ð½Ð¾ÑĤÐ¾": 6663,
      "Ġbio": 6664,
      "ĠÐ¸Ð·Ð¿ÑĬÐ»Ð½ÐµÐ½Ð¾": 6665,
      "Ð»Ð¾Ð½Ð¸": 6666,
      "ĠÑĦÐ¾ÑĢÐ¼Ð°ÑĤ": 6667,
      "ĠÐ½ÐµÐ´Ð¾Ð¿ÑĥÑģÑĤÐ¸Ð¼Ð¾ÑģÑĤ": 6668,
      "ĠÑģÑĤÐ¾ÐºÐ°ÑĤÐ°": 6669,
      "Ġ299": 6670,
      "ĠoÐ²": 6671,
      "Ġminister": 6672,
      "ĠÐ¸Ð¼Ð°Ð»": 6673,
      "ĠÐ¿Ð¾Ð´Ð´ÑĬÑĢÐ¶Ð°ÑĤ": 6674,
      "ĠÑģÐºÐ»ÑİÑĩÐµÐ½Ð¸": 6675,
      "ĠÐ¿ÑĢÐ¸ÐµÑĤÐ°": 6676,
      "ĠÐ·Ð°ÑıÐ²Ð¸ÑĤÐµÐ»ÑıÑĤ": 6677,
      "ĠÐ¿ÐµÑĤÐ¾": 6678,
      "ĠÑĦÑĥÐ½ÐºÑĨÐ¸Ð¸ÑĤÐµ": 6679,
      "ĠÐ½ÑĥÐ¶Ð´Ð¸": 6680,
      "ĠÐ¼Ð°ÑĢÑĪÑĢÑĥ": 6681,
      "ĠÐ¾ÑģÐ½Ð¾Ð²Ð°Ð½Ð°": 6682,
      "ĠÐ²ÑĬÑĤÑĢÐµÑĪÐµÐ½": 6683,
      "Ġ1001": 6684,
      "ĠÐ¿Ð¾Ð·Ð¸ÑĨÐ¸ÑıÑĤÐ°": 6685,
      "ĠÑĥÐ½Ð³Ð°ÑĢ": 6686,
      "ĠÐºÐ¾Ð¼Ð±Ð¸Ð½Ð¸ÑĢÐ°Ð½Ð°ÑĤÐ°": 6687,
      "ĠÑģÐµÐº": 6688,
      "ĠÑĩÐµÑģÑĤÐ¾ÑĤÐ°": 6689,
      "ÑĢÐ¾Ð½": 6690,
      "ĠÐ²Ð°Ð¶Ð½Ð°": 6691,
      "Ġ560": 6692,
      "08": 6693,
      "Ð¿Ð¸ÑģÐ°Ð½Ð¸": 6694,
      "Ġ234": 6695,
      "ĠÑģÐ±Ð¾": 6696,
      "yt": 6697,
      "ĠÐ²Ð¸Ð½Ð°Ð³Ð¸": 6698,
      "eck": 6699,
      "ĠÑĢÐ°Ð±Ð¾ÑĤÐµÐ½": 6700,
      "age": 6701,
      "ĠÑĢÐ°Ð·Ñĥ": 6702,
      "Ġtra": 6703,
      "Ġ261": 6704,
      "ĠÐ°ÑĢÐµÑģÑĤ": 6705,
      "da": 6706,
      "ola": 6707,
      "ĠÐ¿Ð¾ÑģÑĤÐ¸Ð³Ð½Ðµ": 6708,
      "ĠÐ·Ð°ÑģÑĤÑĢÐ°": 6709,
      "Ð´ÐµÐºÐ²Ð°ÑĤ": 6710,
      "ĠÐ¾Ð±ÑıÑģÐ½Ð¸": 6711,
      "igh": 6712,
      "ĠÐ¼ÐµÑĤÐ¾Ð´Ð¸ÑĤÐµ": 6713,
      "ĠÐ²ÑĢÐµÐ¼ÐµÐ½Ð½Ð¸": 6714,
      "Ð³Ð¾Ð²Ð¸Ñı": 6715,
      "Ġ1989": 6716,
      "Ð¼ÐµÑĤÐ¾": 6717,
      "ĠÐ±ÑİÐ´Ð¶ÐµÑĤÐ°": 6718,
      "ÐºÑĥÐ»": 6719,
      "ĠÐ½ÐµÐ´ÐµÐ¸ÑģÑĤÐ²Ð¸ÑĤÐµÐ»Ð½Ð¾ÑģÑĤ": 6720,
      "Ð¿ÑĥÐ²Ð°Ð½Ðµ": 6721,
      "ĠÐ»ÐµÐºÐ°ÑĢÑģÑĤÐ²ÐµÐ½": 6722,
      "ĠÐ·Ð°ÐºÑĢÐµÐ¿": 6723,
      "ĠÐ¿ÑĢÐµÐ´Ñĥ": 6724,
      "ĠÐ½Ð°Ð»Ð¸ÑĩÐ½Ð¸ÑĤÐµ": 6725,
      "ĠÑĥÑģÑĤÐ°Ð½Ð¾Ð²ÑıÑĤ": 6726,
      "ĠÑģÐµÑĢÐ¸Ð¾Ð·Ð½Ð¾": 6727,
      "ied": 6728,
      "ĠÐ¿Ð¾Ð»Ð¾Ð²Ð¸": 6729,
      "Ġ2694": 6730,
      "ĠÐ¿ÑĥÐ±Ð»Ð¸ÐºÑĥÐ²Ð°Ð½Ðµ": 6731,
      "ÑĦÐ¸ÐºÐ°ÑĤÐ°": 6732,
      "ĠÐºÐ¾Ð½ÑĤÑĢÐ¾Ð»Ð¸ÑĢÐ°": 6733,
      "ĠÑĢÐ°Ð·Ð¿ÑĢÐµÐ´ÐµÐ»ÑıÐ½Ðµ": 6734,
      "Ð²Ð¸Ð³Ð°": 6735,
      "ĠÑĤÐ²ÑĬÑĢÐ´ÐµÐ½Ð¸Ñı": 6736,
      "ĠÐ·ÐµÐ¼": 6737,
      "ÑĤÐ¸Ð½": 6738,
      "ĠÐ±Ð¸Ð·": 6739,
      "ĠÐ²Ð¸Ð¶": 6740,
      "ĠÐ¸Ð½Ð´Ð¸Ñı": 6741,
      "Ð³ÑĢÐ°ÑĦÐ¸": 6742,
      "Ġ144": 6743,
      "ĠÑĤÑĢÐ°Ð½ÑģÐ¿Ð¾Ð½Ð¸ÑĢÐ°Ð½Ðµ": 6744,
      "ĠÐ¸Ð½ÑģÑĤÐ°Ð»Ð°ÑĨÐ¸Ð¸": 6745,
      "ĠÐ·Ð°Ð²ÐµÐ´": 6746,
      "lex": 6747,
      "ĠÐ·Ð°ÐºÐ¾Ð½Ð¾ÑģÑĬÐ¾Ð±ÑĢÐ°Ð·Ð½Ð¾ÑģÑĤÑĤÐ°": 6748,
      "ĠÐ¾Ð³ÑĢÐ°Ð½Ð¸ÑĩÐµÐ½Ð°": 6749,
      "Ġorg": 6750,
      "ĠÐ¾ÑĨÐµÐ½ÑıÐ²Ð°": 6751,
      "ĠÐºÐ¾ÑĢÐ¿Ð¾": 6752,
      "Ġvo": 6753,
      "ĠÑģÑĤÐ°ÑĤÐ¸ÑģÑĤÐ¸ÑĩÐµÑģÐºÐ¸": 6754,
      "ĠÐ¼Ð¾Ð½Ð¸ÑĤÐ¾ÑĢÐ¸Ð½Ð³": 6755,
      "ĠÐ¶ÐµÐ»Ñı": 6756,
      "ĠÐ·Ð°ÑĤÐ¾Ð²Ð°": 6757,
      "ĠÐ½Ð°Ð¸ÑģÑĤÐ¸Ð½Ð°": 6758,
      "Ġnace": 6759,
      "ĠÐ¾Ð´Ð¾Ð±ÑĢÐµÐ½": 6760,
      "Ġ0207": 6761,
      "ĠÑģÐ»": 6762,
      "ĠÐ¿Ð°ÐºÐµ": 6763,
      "ĠÑģÑĤÑĢÐµ": 6764,
      "ĠÑĥÑĤÐ¾ÑĩÐ½Ð¸": 6765,
      "ĠÐ½Ð°ÑģÑĢÐµÑī": 6766,
      "ĠÐ¸Ð½Ð´ÑĥÑģÑĤÑĢÐ¸": 6767,
      "Ġáĥ": 6768,
      "ĠÑĤÑĥÑĢÑĨÐ¸Ñı": 6769,
      "ise": 6770,
      "ĠÑĩÐµÑĤÐ²ÑĬÑĢÑĤÐ¾ÑĤÐ¾": 6771,
      "ĠÑģÑĬÐ¾ÑĤÐ²ÐµÑĤÐ½Ð¸": 6772,
      "ĠÑĢÐ°Ð·ÑĢÐµÑĪÐ°Ð²Ð°Ð½Ðµ": 6773,
      "ĠÐ¿ÑĥÐ±Ð»Ð¸ÑĩÐ½Ð°": 6774,
      "ĠÐ²ÑĬÐ¿ÑĢÐ¾ÑģÐ½Ð¸Ñı": 6775,
      "Ġrev": 6776,
      "ÑĦÐ°ÑĤ": 6777,
      "ÑģÑĤÐ¾Ð²ÐµÑĤÐµ": 6778,
      "ĠÐ´Ð¾Ð±ÑĢÐµ": 6779,
      "ĠÐ¿Ð¾Ð½Ð°ÑģÑı": 6780,
      "ĠÑĤÐµÑħÐ½Ð¸ÑĩÐµÑģÐºÐ°ÑĤÐ°": 6781,
      "Ġsr": 6782,
      "Ġtex": 6783,
      "Ġsv": 6784,
      "ĠÐºÐ»Ð°ÑģÐ¸ÑĦÐ¸ÐºÐ°ÑĨÐ¸Ñı": 6785,
      "Ġ510": 6786,
      "Ð»Ð¾Ð²Ðµ": 6787,
      "76": 6788,
      "Ð¾ÑĢÐ³Ð°Ð½Ð¸": 6789,
      "ron": 6790,
      "ĠÐ¿ÑĢÐµÐ½Ð°": 6791,
      "ĠÐ·Ð°ÑīÐ¸ÑĤÐµÐ½Ð¸": 6792,
      "ĠÐ¿ÑĢÐ¾Ð·ÑĢÐ°ÑĩÐ½Ð¾ÑģÑĤ": 6793,
      "Ġ330": 6794,
      "ament": 6795,
      "ĠÐ¿Ð¾Ð»ÐµÑĤÐ¸": 6796,
      "ĠÐ½ÑıÐºÐ¾Ñı": 6797,
      "Ġ1107": 6798,
      "ĠÑĥÑĩÐ°ÑģÑĤÐ½Ð¸ÑĨÐ¸ÑĤÐµ": 6799,
      "Ġwe": 6800,
      "ĠÐ¸ÑīÐµÑĨÑĬÑĤ": 6801,
      "ĠÐ¼ÐµÐ´Ð¸": 6802,
      "ĠÐ¾Ð±ÑıÐ²Ð¸": 6803,
      "ĠÐ¿Ð¾Ð¿Ð°Ð´Ð°ÑīÐ¸": 6804,
      "ÑĤÐ°Ð¶Ð½Ð¸": 6805,
      "ator": 6806,
      "ĠÐºÐ¾Ð¼Ð¿ÑİÑĤÑĬÑĢ": 6807,
      "ĠÐ»Ð¸Ð¿ÑģÐ²Ð°": 6808,
      "Ġ146": 6809,
      "Ġ184": 6810,
      "ĠÐ·Ð°ÐºÐ¾Ð½Ð¾Ð´Ð°ÑĤÐµÐ»ÑıÑĤ": 6811,
      "ĠÑĢÐµÐ¼Ð¾": 6812,
      "ĠÐµÑĦÐµÐºÑĤÐ¸Ð²Ð½Ð¸": 6813,
      "Ġpowi": 6814,
      "ĠÑĢÐ°Ð·Ð³ÑĢÐ°Ð½Ð¸ÑĩÐµÐ½Ð¸Ðµ": 6815,
      "ĠÐ½Ð¸ÑīÐ¾": 6816,
      "ĠÐ»Ð°Ð±Ð¾ÑĢÐ°ÑĤÐ¾ÑĢÐ¸": 6817,
      "ĠÐ´Ð¾Ð³Ð¾Ð²Ð¾ÑĢÑĬÑĤ": 6818,
      "ĠÐ´ÑĥÐ¼Ð¸": 6819,
      "ĠÐ¿ÑĢÐµÑĢÐ°Ð±Ð¾ÑĤÐµÐ½Ð¸": 6820,
      "ĠÑģÑĬÐ²Ð¼ÐµÑģÑĤÐ¸Ð¼Ð¾ÑģÑĤÑĤÐ°": 6821,
      "Ġby": 6822,
      "ĠÑģÑĢÐµÑīÐ°": 6823,
      "ĠÐ´Ð¸Ð°Ð¼ÐµÑĤÑĬÑĢ": 6824,
      "ĠÑĢÐ°Ð·ÑĢÐµÑĪÐµÐ½Ð¾": 6825,
      "ĠÑĢÐ¸Ð±Ð¾Ð»Ð¾Ð²Ð½Ð¸": 6826,
      "ĠÕ": 6827,
      "ĠÐ´ÐµÐ±ÐµÐ»Ð¸Ð½Ð°": 6828,
      "ĠÐ¼Ð´Ð³Ð¾Ð²": 6829,
      "ĠÐ¾Ð¿ÐµÑĢÐ°ÑĤÐ¾ÑĢÑĬÑĤ": 6830,
      "ĠÐ¾ÑģÐ¸Ð³ÑĥÑĢÑıÐ²Ð°ÑĤ": 6831,
      "ÑĢÐµÐ²Ð¸": 6832,
      "ĠÐ²ÐºÐ»ÑİÑĩÐµÐ½Ð°": 6833,
      "ax": 6834,
      "ari": 6835,
      "Ð´ÐµÑģÐµÑĤÐ¸Ñı": 6836,
      "ĠÐ²ÑĬÐ·Ð½Ð°Ð¼ÐµÑĢÑıÐ²Ð°": 6837,
      "Ġ700": 6838,
      "ÑģÐ½Ð°ÑĤÐ¸": 6839,
      "ĠÐ±ÐµÐ¶Ð°": 6840,
      "Ġapp": 6841,
      "ĠÐ¿ÑĢÐ¾Ð²Ð¸Ð½ÑĨÐ¸Ñı": 6842,
      "ĠÑĩÐ°ÑģÑĤÐ½Ð¸": 6843,
      "ĠÐ¿Ð¸ÑģÐ¼Ð¾ÑĤÐ¾": 6844,
      "ĠÑĪÐ¸ÑĢÐ¾ÑĩÐ¸Ð½Ð°": 6845,
      "ada": 6846,
      "Ġ800": 6847,
      "ĠÐ½ÐµÑĤÐ½Ð¾": 6848,
      "Ð½Ð¾Ð»": 6849,
      "ĠÐµÐ»ÐµÐºÑĤÑĢÐ¾Ð½ÐµÐ½": 6850,
      "Ġrn": 6851,
      "ĠÑģÑĤÐ¾Ð¿Ð°Ð½Ð¸": 6852,
      "Ġxx": 6853,
      "amp": 6854,
      "ĠÐ¸Ð½Ð¾Ð²Ð°": 6855,
      "ĠÐ°Ð»ÐºÐ¾ÑħÐ¾Ð»": 6856,
      "Ġ161": 6857,
      "ĠÐ·Ð¾Ð½Ð°ÑĤÐ°": 6858,
      "ĠÐ¿Ð°Ð·Ð°ÑĢÐµÐ½": 6859,
      "ÑģÑıÐ²Ð°Ð½ÐµÑĤÐ¾": 6860,
      "ĠÐ¼Ð¾ÑĤÐ¾ÑĢÐ½Ð¸": 6861,
      "ĠÑģÐµÑĢÑĤÐ¸ÑĦÐ¸ÐºÐ°ÑĤÐ°": 6862,
      "ĠÑģÑĬÑģÑĤÐ°Ð²Ð°": 6863,
      "ÑĤÑĬÑĢÐ°": 6864,
      "eld": 6865,
      "ĠÐ¸Ð·Ð»Ð¾Ð¶ÐµÐ½Ð¸ÐµÑĤÐ¾": 6866,
      "ĠÐ¸Ñī": 6867,
      "Ġwith": 6868,
      "ĠÐ°Ð²ÑģÑĤÑĢÐ¸": 6869,
      "ĠÑĩÐ°ÑģÑĤÐ¸ÑĨÐ¸": 6870,
      "ĠÐ»Ð¸ÑĤÐ²Ð°": 6871,
      "Ð¼ÑĥÐ»Ð¸": 6872,
      "ÐºÐ¾Ð·Ð°": 6873,
      "ĠÑĢÐ°Ð·Ð³Ð»Ð°": 6874,
      "ĠÐ¾ÑĤÐ¿Ð°Ð´ÑĬÑĨÐ¸ÑĤÐµ": 6875,
      "ĠÐ·Ð°Ð¾Ð±Ð¸": 6876,
      "orf": 6877,
      "ĠÐºÐ°ÑĥÑĩÑĥ": 6878,
      "ĠÐ¿Ð¾Ð´Ð±Ð¾ÑĢ": 6879,
      "ĠÑģÐ¼ÐµÑĤÐºÐ¸": 6880,
      "Ġadministr": 6881,
      "ĠÐºÑĢÐ¸ÑĤÐµÑĢÐ¸Ñı": 6882,
      "ĠÐºÐ¾Ð¼Ð¿Ð¾Ð½ÐµÐ½ÑĤ": 6883,
      "walt": 6884,
      "ÑģÑĤÑĢÐ¸Ð±Ñĥ": 6885,
      "ĠÐ¿ÑĢÐ¾Ð´ÑĥÐºÑĤÐ¾": 6886,
      "ĠÑĤÑĢÐ¸ÐºÐ¾": 6887,
      "ĠÐ¾ÑĦÐ¸ÑĨÐ¸Ð°Ð»Ð½Ð¾": 6888,
      "Ġ550": 6889,
      "ĠÐ¸Ð½ÑĤÐµÑĢÐ²ÐµÐ½": 6890,
      "ĠÐ±Ð¾ÑĢÐ±Ð°": 6891,
      "ÑĨÐ¸Ð°": 6892,
      "atic": 6893,
      "Ð¿Ð»Ñı": 6894,
      "Ġpa": 6895,
      "ĠÐ·Ð°ÐµÐ¼": 6896,
      "ĠÐ¾Ð±ÐµÐºÑĤÐ¸Ð²Ð½Ð¾": 6897,
      "ĠÐ¸ÑĤÐ°Ð»Ð¸Ð°Ð½ÑģÐºÐ¸": 6898,
      "Ġgeneral": 6899,
      "ĠÐ²ÑĬÐ·Ð´ÑĥÑĪÐµÐ½": 6900,
      "ĠÐ¾Ð´Ð¾Ð±ÑĢÐµÐ½Ð¸": 6901,
      "ĠÑģÐ¾Ð»Ð¸Ð´Ð°": 6902,
      "ĠÐ¸Ð·ÐºÐ»ÑİÑĩÐµÐ½Ð¸Ñı": 6903,
      "ĠÐ°Ð´ÐµÐºÐ²Ð°ÑĤ": 6904,
      "ĠÐ¾Ð±ÑĢÐ°Ð·ÑĥÐ²Ð°Ð½Ð¸Ðµ": 6905,
      "ĠÑĸ": 6906,
      "ĠÑĥÐ²ÑĢÐµÐ¶Ð´Ð°": 6907,
      "ni": 6908,
      "ÑĤÐ¸Ð¸": 6909,
      "ĠÑĢÐ°Ð·Ð»Ð¸ÑĩÐ¸": 6910,
      "ĠÐ¾ÑģÐ¿Ð¾": 6911,
      "ĠÐ´Ð¸ÑģÑĤÑĢÐ¸Ð±Ñĥ": 6912,
      "Ġxi": 6913,
      "Ð½ÑģÐºÐ°": 6914,
      "ĠÐ¿ÑĢÐ¸Ð½Ð¾": 6915,
      "Ġ165": 6916,
      "ĠÑĥÑģÐ»ÑĥÐ³Ð°ÑĤÐ°": 6917,
      "ĠÐ´ÑĬÑĢÐ²Ðµ": 6918,
      "ose": 6919,
      "ĠÐ¿ÑĢÐµÐ´Ð»Ð¾Ð¶ÐµÐ½Ð¸Ñı": 6920,
      "ĠÑģÑĬÑİÐ·ÑĬÑĤ": 6921,
      "les": 6922,
      "ĠÐ·Ð°ÐµÐ¼Ð¸": 6923,
      "ĠÐºÐ¾Ð¼ÐµÐ½ÑĤÐ°ÑĢÐ¸": 6924,
      "ĠÑģÐ»ÑĥÐ¶Ð±Ð¸": 6925,
      "Ð´Ð¸Ð·": 6926,
      "ĠÑĢÐ°Ð·Ð¿Ð¾ÑĢÐµÐ¶Ð´Ð°": 6927,
      "Ġtechn": 6928,
      "ĠÐºÐ°Ð¿Ð¸ÑĤÐ°Ð»Ð¸": 6929,
      "Ġ2138": 6930,
      "ĠÐ´Ð°Ð½ÑĬÑĩÐ½Ð¸ÑĤÐµ": 6931,
      "Ġ015": 6932,
      "ĠÐ½ÐµÐ±Ð»Ð°Ð³Ð¾Ð¿ÑĢÐ¸ÑıÑĤÐ½Ð¾": 6933,
      "ÐºÑĬÑģÐ½Ð°ÑĤÐ¾": 6934,
      "ĠÐºÐ°ÐºÐ²Ð¾ÑĤÐ¾": 6935,
      "ĠÐ´Ð°Ð²Ð°ÑĤ": 6936,
      "ÑīÐµÑģÑĤÐ²Ð¸": 6937,
      "ĠÑħÐµÑĢ": 6938,
      "ĠÐ´Ð°Ð½ÑĬÑĩÐ½Ð¾ÑĤÐ¾": 6939,
      "ĠÐ¾Ð±Ð¾ÑĢÐ¾ÑĤÐ°": 6940,
      "ĠÐ¾ÑĤÐ³Ð¾Ð²Ð¾ÑĢÑĬÑĤ": 6941,
      "ĠÑĢÐµÐ°Ð»Ð¸Ð·Ð¸ÑĢÐ°": 6942,
      "ĠÐ²ÑģÑĤÑĬÐ¿Ð¸Ð»Ð°ÑĤÐ°": 6943,
      "ĠÐ¾Ð±ÑīÐµÑģÑĤÐ²ÐµÐ½Ð°ÑĤÐ°": 6944,
      "Ð½ÐµÐ½Ð¸ÑıÑĤÐ°": 6945,
      "ĠÐ·Ð½Ð°ÑĩÐµÐ½Ð¸ÐµÑĤÐ¾": 6946,
      "ĠÐ¾ÑĤÑħÐ²ÑĬÑĢÐ»ÐµÐ½Ð¾": 6947,
      "ĠÑĢÐµÐ´Ð¾Ð²Ð½Ð¾": 6948,
      "ĠÐ½Ð°ÑĢÐµ": 6949,
      "ĠÐ¿Ð¾ÑģÑĤÐ°Ð²ÐµÐ½Ð¸ÑĤÐµ": 6950,
      "ĠÐ²Ð¾Ð´ÑıÑĤ": 6951,
      "Ð²ÐµÐ´ÐµÐ½": 6952,
      "ÐµÑĤ": 6953,
      "ĠÐµÐ´Ð½Ð°ÐºÐ²Ð¾": 6954,
      "ÑĢÐ°Ð±Ð¾ÑĤÐµÐ½": 6955,
      "ĠÐ¸ÐºÐ¾Ð½Ð¾Ð¼Ð¸ÐºÐ°": 6956,
      "Ġ260": 6957,
      "ja": 6958,
      "ĠÑĢÐ°Ð·Ð¿Ð¾ÑĢÐµÐ´Ð±Ð°ÑĤÐ°": 6959,
      "ins": 6960,
      "Ġ722": 6961,
      "Ġ153": 6962,
      "ĠÎºÎ±": 6963,
      "ĠÐ·Ð°Ð³Ð»Ð°": 6964,
      "ĠÑģÑĬÑĢ": 6965,
      "ly": 6966,
      "ĠÐ¿ÑĢÐ¾ÑĥÑĩÐ²Ð°Ð½Ðµ": 6967,
      "ĠÐ·Ð°ÑģÑĤÑĢÐ°ÑħÐ¾Ð²Ð°Ð½Ðµ": 6968,
      "ĠÐ½Ð¸ÑģÐºÐ¸": 6969,
      "ĠÑĢÐµÐ°Ð»Ð½Ð¾": 6970,
      "ĠÐ¸Ð·Ð¿Ð»Ð°ÑīÐ°": 6971,
      "ĠÎ¿": 6972,
      "Ġrws": 6973,
      "ĠÑĨÐ°ÑĢÐµÐ²Ð¸": 6974,
      "ĠÐ¿Ð¾Ð²Ð¸ÑĪÐ°Ð²Ð°Ð½Ðµ": 6975,
      "ĠÐ»ÐµÑģÐ½Ð¾": 6976,
      "ated": 6977,
      "ĠÑĢÐµÐ»ÐµÐ²Ð°Ð½ÑĤÐ½Ð¸": 6978,
      "ĠÐ¾ÑģÐ½Ð¾Ð²Ð°ÑĤÐµÐ»Ð½Ð¾": 6979,
      "ĠÐ¼Ð¸ÑĤÐ½Ð¸ÑĩÐµÑģÐºÐ¾": 6980,
      "ĠÑĦÐ¸Ð³ÑĥÑĢÐ°ÑĤÐ¸": 6981,
      "Ġgemein": 6982,
      "ĠÐ¿Ð»Ð°ÑĤÐµÐ½": 6983,
      "ĠÐ¿ÑĬÐ»ÐµÐ½": 6984,
      "Ġ154": 6985,
      "Ġty": 6986,
      "ĠÐ°ÑģÐ¾ÑĨÐ¸Ð¸ÑĢÐ°Ð½Ðµ": 6987,
      "Ð±ÐµÐ»Ð¸": 6988,
      "ĠÐ¿Ð¾ÑģÑĤÐ°Ð½Ð¾Ð²Ð¸Ð»": 6989,
      "Ð¶ÐµÑģÑĤÐ²Ð¾": 6990,
      "ĠÐ²Ð¾Ð´Ð½Ð¸": 6991,
      "ĠÐ²ÑĬÐ½ÑĪÐ½Ð¸": 6992,
      "ĠÑģÑĬÐ¾Ð±ÑīÐµÐ½Ð¸Ñı": 6993,
      "ĠÐ¿Ð¾ÑģÐ»ÐµÐ´Ð¸ÑĨÐ°": 6994,
      "ĠÑģÑĬÐ²Ð¼ÐµÑģÑĤÐ¸Ð¼Ð¾ÑģÑĤ": 6995,
      "Ð¿ÐµÑĩÐ°ÑĤ": 6996,
      "ĠÐ¿ÑĢÐ¸Ð½Ð°Ð´Ð»ÐµÐ¶Ð½Ð¾ÑģÑĤÐ¸": 6997,
      "ĠÐ¾ÐºÐ°Ð¶Ðµ": 6998,
      "Ġvon": 6999,
      "ĠÐ¾ÑĢÑĬ": 7000,
      "Ð±Ð¸Ð»Ð½Ð¾ÑģÑĤÑĤÐ°": 7001,
      "ĠÑĥÐ¼": 7002,
      "Ġix": 7003,
      "ĠÑĦÑĢÐ°Ð½ÐºÐ¾": 7004,
      "ĠÐ¿Ð¾Ð²Ð¾Ð´": 7005,
      "ĠÑĥÑģÐ¿Ðµ": 7006,
      "ĠÐ¿ÑĢÐ¸ÑĤÐµÐ¶Ð°Ð²Ð°ÑĤ": 7007,
      "ĠÐ°Ð´Ð°Ð¿ÑĤÐ¸ÑĢÐ°Ð½Ðµ": 7008,
      "Ð¿ÑĢÐ¾ÑĤÐ¸Ð²": 7009,
      "ÑĨÐ¸Ð¾Ð½Ð½Ð¾ÑĤÐ¾": 7010,
      "ĠpoÅĤ": 7011,
      "ĠÑĤÑĬÑĢÐ³Ð¾Ð²ÑģÐºÐ¾": 7012,
      "Ġact": 7013,
      "Ġ480": 7014,
      "Ġital": 7015,
      "ĠÐ¼Ð¸Ð½Ð¸Ð¼Ð°Ð»Ð½Ð°": 7016,
      "ĠÐ½Ð°Ð¿ÑĢÐ¾ÑĤÐ¸Ð²": 7017,
      "ĠÐ¾Ð±ÑĢÐ°": 7018,
      "Ġ1000": 7019,
      "ĠÐ½Ð°Ð¿ÑĢÐµÐ¶ÐµÐ½Ð¸Ðµ": 7020,
      "ĠÐ°Ð²Ð°Ð½": 7021,
      "ĠÐ´Ð°Ð»Ðµ": 7022,
      "ĠÐ½Ð°ÑĤÑĢÐ¸ÐµÐ²": 7023,
      "ĠÐ¿Ð¸ÑģÐ¼ÐµÐ½Ð¸": 7024,
      "ĠÐºÐ°ÐºÐ²Ð¸ÑĤÐ¾": 7025,
      "ĠÐ¼Ð°ÑĤÐµÑĢÐ¸Ð°Ð»Ð¸ÑĤÐµ": 7026,
      "ĠÐºÑĥÐ¼": 7027,
      "ĠÐ²Ð¸Ð·Ñĥ": 7028,
      "ĠÐ¸Ð·Ð¼ÐµÐ½ÐµÐ½Ð¸ÑıÑĤÐ°": 7029,
      "ĠÑģÐ¿Ð°Ð·Ð²Ð°": 7030,
      "ĠÐ¸Ð½Ð´Ð¾": 7031,
      "ĠÑģÑĬÐ¾ÑĤÐ²ÐµÑĤÐ½Ð¸ÑıÑĤ": 7032,
      "ĠÐµÐ»ÐµÐ¼ÐµÐ½ÑĤÐ¸ÑĤÐµ": 7033,
      "ĠÐºÐ¸Ð¿ÑĬÑĢ": 7034,
      "ĠÐ¼Ð¸Ð½Ð¸Ð¼Ð°Ð»Ð½Ð¸": 7035,
      "Ð·ÐµÐ¼Ð¿Ð»Ñı": 7036,
      "ĠÐ¾Ð±ÑĢÐ°Ð±Ð¾ÑĤÐµÐ½Ð¸": 7037,
      "Ð³Ð¾Ð²Ð¸ÑĤÐµ": 7038,
      "ĠÐ¿ÑĢÐµÐ´Ð½Ð°Ð·Ð½Ð°ÑĩÐµÐ½": 7039,
      "ĠÐ¾Ð¿Ð°Ð·Ð²Ð°Ð½ÐµÑĤÐ¾": 7040,
      "ĠÐºÐ°ÐºÑĬÐ²ÑĤÐ¾": 7041,
      "ĠÐ¾ÑģÑĬÑīÐµÑģÑĤÐ²ÑıÐ²Ð°Ð½Ðµ": 7042,
      "ĠÐ¿ÐµÐ½ÑģÐ¸Ñı": 7043,
      "ĠÑģÑĬÑīÐ¸ÑıÑĤ": 7044,
      "ĠÐ´Ð°Ð²Ð½Ð¾ÑģÑĤ": 7045,
      "ĠÐµÐ»ÐµÐºÑĤÑĢÐ¾Ð½Ð½Ð°": 7046,
      "ĠÐ¿Ð»ÑĬÑĤ": 7047,
      "Ġ1515": 7048,
      "Ġleg": 7049,
      "ĠÐºÐ¾Ð¶Ð°": 7050,
      "ĠÑĪÐµÐ½": 7051,
      "Ġ0001": 7052,
      "me": 7053,
      "ĠÐ¾ÐºÐ°Ð·Ð²Ð°": 7054,
      "ĠÐ½Ð¾ÑĢÐ²ÐµÐ³Ð¸Ñı": 7055,
      "ĠÐµÐºÐ·ÐµÐ¼Ð¿Ð»Ñı": 7056,
      "ĠÐºÐ¾Ð½ÑĨÐµÐ½ÑĤÑĢÐ°ÑĨÐ¸ÑıÑĤÐ°": 7057,
      "ĠÑģÑĬÑīÐµÑģÑĤÐ²ÑĥÐ²Ð°ÑīÐ¸": 7058,
      "ĠÐ±Ð¸Ñģ": 7059,
      "ĠÑĢÐ¸Ð±Ð¸": 7060,
      "ĠÐ¼Ð¸Ð½Ð¸ÑģÑĤÑĬÑĢ": 7061,
      "ĠÑģÐ¿Ð»Ð°": 7062,
      "ĠÐ¸Ð·ÑĤÐµÐ³": 7063,
      "Ġ640": 7064,
      "Ð¾ÑģÐ¸Ð³Ñĥ": 7065,
      "ĠÐ¿Ð¾Ð´Ð°Ð´ÐµÐ½Ð¾": 7066,
      "ĠÐºÐ¾ÑĢÐ°Ð±Ð¸ÑĤÐµ": 7067,
      "ĠÐ°Ð¼Ð¸Ð½Ð¾": 7068,
      "Ð¾Ð²Ð°ÑĤÐµÐ»": 7069,
      "ĠÐ¶Ð¸Ð»Ð¸": 7070,
      "ĠÐ½ÐµÐ¿ÑĬÐ»Ð½Ð¾": 7071,
      "ĠÐ¿Ð¾ÑĢÑĤÑĦÐµ": 7072,
      "vo": 7073,
      "Ġje": 7074,
      "ĠÐ¿Ð¾Ð´Ð´ÑĬÑĢÐ¶Ð°Ð½Ðµ": 7075,
      "burg": 7076,
      "ĠÐ¸ÑĢÐ°Ð½": 7077,
      "ĠÐ½ÐµÑĤÐ¾": 7078,
      "Ġdro": 7079,
      "ĠÐ²Ð°Ð»Ð¸Ð´Ð½Ð¾ÑģÑĤ": 7080,
      "ĠÑģÐ¿ÐµÑĨÐ¸Ð°Ð»Ð½Ð°": 7081,
      "Ġ175": 7082,
      "ĠÑĤÑĢÐ¸ÑĤÐµ": 7083,
      "Ġ999": 7084,
      "ĠÐ¿Ð¾ÑģÑĤÐ°Ð²ÑıÑĤ": 7085,
      "ÑĦÑĤÐ°": 7086,
      "ĠÑĤÐ°ÐºÑģ": 7087,
      "ura": 7088,
      "ĠÐ½ÐµÐ²ÑĬÐ·Ð¼Ð¾Ð¶Ð½Ð¾": 7089,
      "ĠÑĥÑģÑĤÐ°Ð½Ð¾Ð²ÑıÐ²Ð°ÑĤ": 7090,
      "ĠÐ³Ð¾ÑģÐ¿Ð¾": 7091,
      "ĠÐ¿Ð¾Ð´ÑĩÐ¸Ð½": 7092,
      "Ġdir": 7093,
      "ĠÐ¿ÑĢ": 7094,
      "Ġ1988": 7095,
      "ĠÐ²Ð½Ð¾ÑģÑĬÑĤ": 7096,
      "Ġsu": 7097,
      "ĠÐ½ÐµÐ¾Ð±ÑħÐ¾Ð´Ð¸Ð¼Ð°ÑĤÐ°": 7098,
      "ĠÑĢÐµÑĦÐµÑĢÐµÐ½ÑĤÐµÐ½": 7099,
      "Ð»Ð¾Ð²Ð¾": 7100,
      "Ð¿ÐµÑĢ": 7101,
      "ĠÐ¸Ð·Ð²ÐµÑģÑĤÐµÐ½": 7102,
      "Ġ158": 7103,
      "ĠÑģÐ¿ÐµÑĨÐ¸Ð°Ð»Ð½Ð¸ÑĤÐµ": 7104,
      "ĠÑģÑĥÑĢÐ¾Ð²Ð¸Ð½Ð¸": 7105,
      "ĠÐ¾Ð¿ÐµÑĢÐ°ÑĨÐ¸Ð¸ÑĤÐµ": 7106,
      "Ġ204": 7107,
      "ĠÐ½Ð°ÑģÐ¸": 7108,
      "ĠÐ²Ð¿Ð¸ÑģÐ²Ð°Ð½ÐµÑĤÐ¾": 7109,
      "ĠÐ¾ÑģÐ¸Ð³ÑĥÑĢÑıÑĤ": 7110,
      "ĠÐ²ÑĢÐµÐ¼ÐµÐ½Ð½Ð¸ÑĤÐµ": 7111,
      "ges": 7112,
      "ÑģÑĬÐ´Ð¸": 7113,
      "ĠÐ°ÑĢÐ°": 7114,
      "ĠÐ¸Ð·ÐºÐ»ÑİÑĩÐ¸ÑĤÐµÐ»Ð½Ð¸": 7115,
      "Ġllc": 7116,
      "ĠÑģÑĬÐ±Ð¸ÑĤÐ¸Ñı": 7117,
      "ĠÐ±Ð¸Ð·Ð½ÐµÑģ": 7118,
      "ĠÑģÐ¿Ð¾ÑĢÐ°Ð·ÑĥÐ¼ÐµÐ½Ð¸ÑıÑĤÐ°": 7119,
      "ĠÑĤÑĢÐµÑĤÐ¸ÑĢÐ°Ð½ÐµÑĤÐ¾": 7120,
      "ĠÐ¿ÑĢÐµÐ´Ð²Ð¸Ð´ÑıÑĤ": 7121,
      "ĠÐ¼Ð°ÑĢÐºÐ¸ÑĤÐµ": 7122,
      "ĠÐ¾ÑĤÑĩÐ°ÑģÑĤÐ¸": 7123,
      "ĠÑĪÐµÐ½Ð³ÐµÐ½": 7124,
      "ane": 7125,
      "ĠÐºÐ°ÑĢÑĤÐ°": 7126,
      "ĠÐ½ÐµÑīÐ¾": 7127,
      "ĠÐºÐ¾Ð¼Ð¿ÐµÑĤÐµÐ½ÑĤÐ½Ð°ÑĤÐ°": 7128,
      "ĠÑĤÐ°ÐºÑģÐ¸ÑĤÐµ": 7129,
      "ĠÑħÑĬÑĢ": 7130,
      "ÐµÐ½ÐµÑĤÐ¾": 7131,
      "ĠÐ³Ð»Ð°Ð²Ð¸": 7132,
      "ĠÐ¿Ð¾ÑĤÑĢÐµÐ±Ð»ÐµÐ½Ð¸ÐµÑĤÐ¾": 7133,
      "ĠÐ¸Ð·Ð´Ð°Ð´ÐµÐ½": 7134,
      "ĠÐºÐ°ÑĢÑĤÐ¸": 7135,
      "ĠÐµÐ·Ð¸ÑĨÐ¸": 7136,
      "ÏĢÎ¿": 7137,
      "ĠÐ¼ÐµÐ¶Ð´ÑĥÐ½Ð°ÑĢÐ¾Ð´Ð½Ð¾": 7138,
      "ĠÐ¿ÑĢÐµÐ²Ð¾Ð·Ð½Ð¸ÑĤÐµ": 7139,
      "ĠÐºÐ°ÑĤÐµÐ³Ð¾ÑĢÐ¸ÑıÑĤÐ°": 7140,
      "ĠÑģÐ¿Ð¾ÑĢÐ¾Ð²ÐµÑĤÐµ": 7141,
      "ĠÐ¸Ð·Ð³Ð¾ÑĤÐ²ÑıÐ½ÐµÑĤÐ¾": 7142,
      "ĠÐ½ÐµÐ¿ÑĢÐµÐºÑĬÑģÐ½Ð°ÑĤÐ¾": 7143,
      "Ð¶Ð´Ñĥ": 7144,
      "ĠÐ¸Ð·Ð²ÐµÑģÑĤÐ¸Ðµ": 7145,
      "ĠÐ²Ð¾Ð´Ðµ": 7146,
      "ska": 7147,
      "Ð¼Ð¾ÑģÑĤÑĤÐ°": 7148,
      "ĠÐ½ÐµÐ¿ÑĢÐ°Ð²Ð¾Ð¼ÐµÑĢ": 7149,
      "ĠÐ¿Ð°Ð·Ð°ÑĢÐ½Ð¸": 7150,
      "ĠÐ¿ÑĢÐ¸ÑģÑĤÐ¸": 7151,
      "ĠÐ¼ÐµÑģÑĤÐ½Ð¸ÑĤÐµ": 7152,
      "inc": 7153,
      "ĠÐ´Ð¾Ð±Ð¸ÑĤ": 7154,
      "ĠÐ½ÐµÐ¿ÑĢÑıÐºÐ¾": 7155,
      "ĠÐ½Ð°Ð¸Ð¼ÐµÐ½Ð¾Ð²Ð°Ð½Ð¸Ñı": 7156,
      "Ð¼Ð°ÑĤÐ¸ÑĩÐ½Ð¸": 7157,
      "ĠÐºÐ»ÐµÑĤÐºÐ°": 7158,
      "ĠÐ¼ÐµÐ´": 7159,
      "ĠÑģÑĬÐ¾Ð±ÑīÐµÐ½Ð¸ÐµÑĤÐ¾": 7160,
      "ĠÐ¿Ð¾Ð»ÐµÑĤ": 7161,
      "ĠÐ¾ÑģÑĬÑīÐµÑģÑĤÐ²Ð¸": 7162,
      "ĠÐ¸Ð·Ð¿Ð¸ÑĤÐ²Ð°Ð½Ð¸ÑıÑĤÐ°": 7163,
      "ĠÑĨÐµÐ½ÑĤÑĢÐ°Ð»Ð½Ð°": 7164,
      "Ġ1408": 7165,
      "ĠÑģÑĬÑģÑĤÐµÐ·Ð°": 7166,
      "wer": 7167,
      "ĠÑĤÐµÑħÐ½Ð¸ÑĩÐµÑģÐºÐ¾": 7168,
      "Ġ213800": 7169,
      "ĠÐ¾ÑģÐ²Ð¾Ð±Ð¾Ð´ÐµÐ½Ð¸": 7170,
      "ĠÐ¾Ð±Ð¾ÑĢÑĥÐ´Ð²Ð°Ð½ÐµÑĤÐ¾": 7171,
      "ĠÑģÐ¸ÑĤÑĥÐ°ÑĨÐ¸Ñı": 7172,
      "ĠÑģÐµÐ³": 7173,
      "ÑĨÑĥ": 7174,
      "ĠÐ°Ð´Ð¼Ð¸Ð½Ð¸ÑģÑĤÑĢÐ°ÑĤÐ¸Ð²Ð½Ð°": 7175,
      "ĠÐ¾ÑģÑĤÐ°Ð½Ð°": 7176,
      "Ð²Ð¾Ð´Ð¾ÑĢÐ¾": 7177,
      "Ġoff": 7178,
      "ĠÐ¿ÑĢÐ¾Ð´ÑĥÐºÑĤÑĬÑĤ": 7179,
      "ĠÑĢÐµÑĦÐµÑĢÐµÐ½ÑĤÐ½Ð°ÑĤÐ°": 7180,
      "Ġcompany": 7181,
      "ĠÐ±Ð¾Ð»ÐµÑģÑĤ": 7182,
      "ĠÐ¿ÑĢÐ°Ð²Ð½Ð¸Ñı": 7183,
      "ĠÐ±ÑĢÐµ": 7184,
      "ĠÐ¿Ð»Ð°ÑīÐ°Ð½Ð¸ÑıÑĤÐ°": 7185,
      "ĠÐ¾Ð±Ð»Ð¸Ð³Ð°": 7186,
      "ĠÐµÑĤÐ¸Ð»": 7187,
      "ĠÐ¾Ð±ÑħÐ²Ð°ÑĤÑĬÑĤ": 7188,
      "mann": 7189,
      "ĠÐ¸Ð¼ÑĥÑīÐµÑģÑĤÐ²Ð¾": 7190,
      "ĠÐ¿ÑĪÐµÐ½Ð¸": 7191,
      "ĠÐ¿Ð°ÑĢÐ½Ð¸": 7192,
      "ĠÑģÐµÐ·Ð¸ÑĢÐ°": 7193,
      "ĠÑĢÐ¾Ð»Ñı": 7194,
      "ĠÐµÐºÐ¿Ñĩ": 7195,
      "ĠÑĤÐµÑĢÐ¸ÑĤÐ¾ÑĢÐ¸Ð¸": 7196,
      "ĠÐ¾ÑĤÐ³Ð»ÐµÐ¶Ð´Ð°Ð½Ð¸": 7197,
      "ĠÐ¶ÐµÐ»ÑıÐ·Ð¾": 7198,
      "ĠÑģÑĤÑĢÑĥ": 7199,
      "ĠÐ´Ð¾Ð¿ÑĥÑģÑĤÐ¸Ð¼Ð°": 7200,
      "Ð²Ð¸ÑıÑĤ": 7201,
      "ĠÐ¿Ð°Ð¼ÑĥÐº": 7202,
      "Ġ164": 7203,
      "ĠÐ½Ð°ÑĢ": 7204,
      "ĠÐ³Ð¾Ð´Ð¸Ð½Ð°ÑĤÐ°": 7205,
      "ĠÐ·Ð°ÐºÐ¾Ð½Ð¾Ð´Ð°ÑĤÐµÐ»ÑģÑĤÐ²Ð°ÑĤÐ°": 7206,
      "ĠÑĢÐ°ÑģÑĤÐ¸ÑĤÐµÐ»Ð½Ð¸": 7207,
      "ĠÐ´Ð¸Ð½Ð°": 7208,
      "ÑĦÐµÐ½Ð¸Ð»": 7209,
      "ĠÐ¸Ð·Ð¼ÐµÐ½ÑıÑĤ": 7210,
      "ÑĤÐ°ÑĢÐ¸": 7211,
      "Ġ190": 7212,
      "ĠÐ±ÑĢÐ¸": 7213,
      "aria": 7214,
      "ĠÑĢÐµÐ½ÑĤÐ°": 7215,
      "ĠÐ½Ð°Ð»Ð¸ÑĩÐ½Ð¸": 7216,
      "Ð¼Ð¿Ð°": 7217,
      "ary": 7218,
      "ÑĢÐ¾Ð²ÐºÐ°ÑĤÐ°": 7219,
      "ĠÑĤÐµÑģÑĤ": 7220,
      "ĠÐ¶Ð°Ð»Ð±Ð¸ÑĤÐµ": 7221,
      "ĠÐ¿ÑĢÐµÐ³Ð¾Ð²Ð¾ÑĢÐ¸": 7222,
      "ĠÑģÐ¿Ð¾ÑĢÑĬÑĤ": 7223,
      "ĠÑģÑĬÑģÑĤÐ°Ð²Ñı": 7224,
      "ĠÑĤÑĢÑĥÐ´Ð½Ð¾": 7225,
      "ĠÐ¸ÑģÐºÐ°ÑĤ": 7226,
      "ĠÑĨÐ¸ÑĢ": 7227,
      "ÐºÐ°Ð¾": 7228,
      "Ġdec": 7229,
      "Ð»Ð¸Ð²Ð°": 7230,
      "ĠÑģÐ°Ñī": 7231,
      "ĠÐºÐ¾ÑģÐ¼Ð¸": 7232,
      "fc": 7233,
      "ĠÑģÑĬÐ±Ð¸ÑĤÐ¸Ðµ": 7234,
      "ĠÐ±ÑĥÑĤÐ¸Ð»": 7235,
      "ĠÐ¸Ð·ÑĢÐ°Ð·Ð¸": 7236,
      "ĠÐ¿ÑĢÐµÐ²Ð¸ÑĪÐ°Ð²Ð°ÑīÐ¾": 7237,
      "ÑĢÑĬÑĤ": 7238,
      "ĠÐ¿ÑĢÐ¾Ð²ÐµÐ¶Ð´Ð°Ð½ÐµÑĤÐ¾": 7239,
      "Ġinv": 7240,
      "ve": 7241,
      "ĠÑĤÐ¾Ð³Ð°Ð²Ð°": 7242,
      "rid": 7243,
      "ĠÐµÐ½ÐµÑĢÐ³Ð¸Ð¸": 7244,
      "ĠÐ´Ð¾Ð±Ð°Ð²ÐºÐ°ÑĤÐ°": 7245,
      "ĠÐ¿ÑĢÐ¾ÐºÑĥ": 7246,
      "ĠÐ¿ÑĢÐ¸Ð¼ÐµÑĢ": 7247,
      "Ġ166": 7248,
      "Ð¿Ð°Ð½ÑģÐºÐ°": 7249,
      "ĠÐ¿ÑĢÐ¾Ð¸Ð·Ð²Ð¾Ð´Ð½Ð¸": 7250,
      "Ð½Ð¸ÐºÐ²Ð°": 7251,
      "per": 7252,
      "ico": 7253,
      "ĠÐºÐ¾Ð½ÑģÐµÑĢÐ²Ð¸": 7254,
      "ĠÐ°Ð´Ð¼Ð¸Ð½Ð¸ÑģÑĤÑĢÐ°ÑĤÐ¸Ð²Ð½Ð¾ÑĤÐ¾": 7255,
      "ĠÐ¿ÑĢÐ¾Ð¼Ð¸ÑĪÐ»ÐµÐ½": 7256,
      "Ð´ÐµÐ»Ð½Ð¾": 7257,
      "ĠÐ·Ð½Ð°ÑĨÐ¸": 7258,
      "ĠÑĤÑĢÐ°Ð½ÑģÑĦÐµ": 7259,
      "Ġ347": 7260,
      "ĠÐ¸Ð·Ð²Ð»Ðµ": 7261,
      "ĠÑģÑĢÐµÐ´Ð½Ð°": 7262,
      "ĠÐ´Ð¾Ð±Ð°Ð²ÑıÑĤ": 7263,
      "ĠÐ½Ð¾ÑĢÐ¼Ð°ÑĤÐ¸": 7264,
      "ĠÐºÐ»Ð¾": 7265,
      "Ġsz": 7266,
      "ĠÑĢÐ°Ð·Ð¿Ð¾ÑĢÐµÐ´Ð¸": 7267,
      "ĠÐ½Ð¸Ð²Ð°": 7268,
      "ĠÐ´Ð¾ÑģÑĤÐ°ÑĤÑĬÑĩÐ½Ð¸": 7269,
      "ĠÐ¼ÐµÐ¶Ð´ÑĥÐ½Ð°ÑĢÐ¾Ð´Ð½Ð¾ÑĤÐ¾": 7270,
      "ĠÐ³ÐµÐ½ÐµÑĢÐ°Ð»Ð½Ð°": 7271,
      "ĠÑģÐ¿Ð°Ð·ÐµÐ½Ð¸": 7272,
      "Ġdom": 7273,
      "ĠÑģÑĩÐµÑĤÐ¾Ð²Ð¾Ð´Ð½Ð¸": 7274,
      "ĠÐ°ÐºÑĤÑĥÐ°Ð»Ð¸": 7275,
      "ĠÐ°Ð½ÑĤÐ¸Ð´ÑĬÐ¼Ð¿Ð¸Ð½Ð³Ð¾Ð²Ð¸": 7276,
      "esc": 7277,
      "ĠÑĤÐ¾Ð¿Ð»Ð¸Ð½": 7278,
      "ĠÐ½ÐµÐ¾Ð±ÐµÐ·": 7279,
      "Ġ171": 7280,
      "Ð»Ð¾Ð¶ÐµÐ½Ð°": 7281,
      "ĠÐµÐºÐ¸Ð¿Ð°": 7282,
      "ĠÐ¿Ð¾Ð´Ð°Ð´Ðµ": 7283,
      "ĠÐ¾Ð±ÑīÐµÑģÑĤÐ²ÐµÐ½Ð¾ÑĤÐ¾": 7284,
      "ĠÑĨÑıÐ»Ð¾ÑĤÐ¾": 7285,
      "ĠÐ¸Ð·Ð¼ÐµÐ½Ð¸": 7286,
      "onom": 7287,
      "ĠÐ¿ÑĬÑĢÐ²Ð¾Ð¸Ð½ÑģÑĤÐ°Ð½ÑĨÐ¸Ð¾Ð½Ð½Ð¾ÑĤÐ¾": 7288,
      "ĠÐºÐ¾ÑĢÐ¿Ð¾ÑĢÐ°ÑĤÐ¸": 7289,
      "ĠÐ½ÐµÐ¸Ð·Ð²ÐµÑģÑĤÐ½Ð°": 7290,
      "ĠÐ²ÑĬÐ·ÑģÑĤÐ°Ð½Ð¾Ð²Ð¸": 7291,
      "ĠÐ¾ÑĤÐ¿ÑĥÑģÐºÐ°": 7292,
      "ĠÐ¿Ð»Ð°Ð²Ð°": 7293,
      "ĠÐºÐ¾Ð½ÐºÑĢÐµÑĤÐ½Ð°": 7294,
      "400": 7295,
      "sen": 7296,
      "ĠÐ´ÐµÑı": 7297,
      "ini": 7298,
      "ĠÑģÑĬÐ²Ð¼ÐµÑģÑĤÐ½Ð¾ÑĤÐ¾": 7299,
      "ĠÐ´ÑĬÑĢÐ²ÐµÐ½": 7300,
      "ĠÐºÐ¸ÑĤÐ°Ð¸ÑģÐºÐ°ÑĤÐ°": 7301,
      "ĠÐ¾Ð±Ð¶Ð°Ð»Ð²Ð°Ð½Ð¸Ñı": 7302,
      "ÑīÐµÑģÑĤÐ²Ð¾ÑĤÐ¾": 7303,
      "Ð²Ð»Ð¸ÑĩÐ°": 7304,
      "Ġ211": 7305,
      "Ġcorpor": 7306,
      "ret": 7307,
      "ĠÑıÐ¸ÑĨÐ°": 7308,
      "ĠÐ¾ÑĤÐ³Ð¾Ð²Ð°ÑĢÑıÑīÐ¸": 7309,
      "ĠÐ¼Ð»ÐµÑĩÐ½Ð¸": 7310,
      "ĠÐ·Ð°Ð´ÐµÐ¸": 7311,
      "ĠÐ·Ð°ÐºÐ»ÑİÑĩÐµÐ½Ð¸ÑıÑĤÐ°": 7312,
      "310": 7313,
      "ign": 7314,
      "Ð±Ð¸Ð½Ð°": 7315,
      "ĠÐ´Ð²Ð°Ð´ÐµÑģÐµÑĤÐ¸Ñı": 7316,
      "ĠÐ²ÑĬÐ²ÐµÐ´ÐµÐ½Ð¸": 7317,
      "ĠÐ¾Ð½Ðµ": 7318,
      "ĠÐ¾ÑĤÑģÑĤÑĬÐ¿": 7319,
      "ĠÐ´Ð¸ÑģÑĨÐ¸": 7320,
      "ĠÐ¾ÑģÑĤÐ°ÑĤÑĬÑĩÐ½Ð¸": 7321,
      "ĠÐ¿ÑĢÐ¸ÑģÑĬÐµÐ´Ð¸Ð½ÑıÐ²Ð°Ð½ÐµÑĤÐ¾": 7322,
      "ĠÐºÐ²Ð°Ð»Ð¸ÑĦÐ¸ÑĨÐ¸ÑĢÐ°": 7323,
      "ÑĨÐ¾": 7324,
      "ĠÐ·Ð°Ð´Ð²Ð¸Ð¶": 7325,
      "ĠÐ¸Ð·Ð²ÐµÑģÑĤÐ½Ð¾": 7326,
      "Ġ900": 7327,
      "ĠÑıÐ²ÑıÐ²Ð°ÑĤ": 7328,
      "ÑĢÐ°Ð»Ð½Ð¸": 7329,
      "Ð²ÐµÐ´Ðµ": 7330,
      "ĠÐ¶Ð°Ð»Ð±Ð¸": 7331,
      "ĠÐ¾Ð³ÑĢÐ°Ð½Ð¸ÑĩÐµÐ½Ð¾": 7332,
      "ĠÑĥÐ²ÐµÐ´Ð¾Ð¼ÑıÐ²Ð°Ð½Ðµ": 7333,
      "ÑģÑĤÐ²Ð°ÑīÐ¾": 7334,
      "Ð¶ÐµÐ½Ð¸Ñı": 7335,
      "ĠÐ¸Ð·Ð¿Ð¾Ð»Ð·Ð²Ð°Ñī": 7336,
      "ĠÐ¼ÐµÑģÑĤÐ¾Ð½Ð°Ð·Ð½Ð°ÑĩÐµÐ½Ð¸Ðµ": 7337,
      "ĠÐ·Ð³Ñĥ": 7338,
      "ĠÑĨÐ²ÐµÑĤ": 7339,
      "ember": 7340,
      "ĠÑĩÐµÑĤÐ²ÑĬÑĢÑĤÐ°": 7341,
      "ÐºÐ»ÑİÑĩÐ°ÑĤ": 7342,
      "ĠÑĩÐµÑĪÐºÐ°ÑĤÐ°": 7343,
      "ĠÑĢÐ°Ð·ÑĢÐµÑĪÐ¸ÑĤÐµÐ»Ð½Ð¾": 7344,
      "ĠÐ¾Ð±Ð¾ÑĢÐ¾ÑĤ": 7345,
      "ĠÑģÐ±": 7346,
      "ĠÐ¾ÑĤÑħÐ²ÑĬÑĢÐ»ÑıÐ½Ðµ": 7347,
      "ĠÐ¿Ð»Ð°Ð²Ð°ÑĤÐµÐ»Ð½Ð¸": 7348,
      "ĠÐ¾ÑĢÐ¸Ð·": 7349,
      "ĠÑģÐºÐ»ÑİÑĩÐ²Ð°Ð½Ðµ": 7350,
      "ĠÑĢÐµÐ³Ð¸ÑģÑĤÑĢÐ¸ÑĢÐ°Ð½Ð°": 7351,
      "Ġcarbon": 7352,
      "Ġ169": 7353,
      "Ġofc": 7354,
      "ĠÐ¿ÑĢÐµÐ´Ð»Ð°Ð³Ð°Ð¼": 7355,
      "ĠÐ½Ð°ÐµÑĤÐ¸": 7356,
      "ĠÐ·ÑĬÑĢÐ½ÐµÐ½Ð¸": 7357,
      "ĠÐ¸Ð¼Ð°ÑīÐ¸": 7358,
      "ÑħÑĢÐ°Ð½": 7359,
      "ĠÐ¿ÑĢÐµÐ·ÑĥÐ¼Ð¿ÑĨÐ¸Ñı": 7360,
      "ĠÐºÐ¾Ð½ÑĦÐ»Ð¸ÐºÑĤ": 7361,
      "itor": 7362,
      "Ġho": 7363,
      "ĠÐºÐ°Ð¿Ð°ÑĨÐ¸ÑĤÐµÑĤÐ°": 7364,
      "ĠÐ¼Ð¸Ð³ÑĢÐ°": 7365,
      "ĠÑģÐ°Ð¼": 7366,
      "Ð¶ÐµÐ½Ð¸": 7367,
      "ĠÐµÐ¼Ð¸ÑĤÐµÐ½": 7368,
      "ĠÐ¿Ð¾Ð»ÑĥÑĩÐµÐ½Ð¸ÑĤÐµ": 7369,
      "ics": 7370,
      "ĠÐ²ÑĬÐ·Ð½Ð¸ÐºÐ²Ð°": 7371,
      "ĠÐ»Ð¸ÑĩÐ½Ð¸ÑĤÐµ": 7372,
      "ĠÐºÑĢÐ°Ð¸Ð½Ð¸Ñı": 7373,
      "ĠÐ½ÐµÐ¾Ð¿ÑĢÐµÐ´Ðµ": 7374,
      "ĠÑģÑĦÐµ": 7375,
      "itz": 7376,
      "ĠÐ¿ÑĢÐµÐ¼ÐµÑģÑĤ": 7377,
      "Ġpin": 7378,
      "ĠÐ±ÑİÐ´Ð¶ÐµÑĤ": 7379,
[...]
