{
  "version": "1.0",
  "truncation": null,
  "padding": null,
  "added_tokens": [
    {
      "id": 0,
      "content": "<pad>",
      "single_word": false,
      "lstrip": false,
      "rstrip": false,
      "normalized": false,
      "special": true
    },
    {
      "id": 1,
      "content": "<s>",
      "single_word": false,
      "lstrip": false,
      "rstrip": false,
      "normalized": false,
      "special": true
    },
    {
      "id": 2,
      "content": "</s>",
      "single_word": false,
      "lstrip": false,
      "rstrip": false,
      "normalized": false,
      "special": true
    },
    {
      "id": 3,
      "content": "<unk>",
      "single_word": false,
      "lstrip": false,
      "rstrip": false,
      "normalized": false,
      "special": true
    },
    {
      "id": 4,
      "content": "<mask>",
      "single_word": false,
      "lstrip": false,
      "rstrip": false,
      "normalized": false,
      "special": true
    }
  ],
  "normalizer": {
    "type": "Sequence",
    "normalizers": [
      {
        "type": "NFKD"
      },
      {
        "type": "BertNormalizer",
        "clean_text": true,
        "handle_chinese_chars": true,
        "strip_accents": null,
        "lowercase": true
      }
    ]
  },
  "pre_tokenizer": {
    "type": "Sequence",
    "pretokenizers": [
      {
        "type": "BertPreTokenizer"
      },
      {
        "type": "ByteLevel",
        "add_prefix_space": true,
        "trim_offsets": true,
        "use_regex": true
      }
    ]
  },
  "post_processor": {
    "type": "RobertaProcessing",
    "sep": [
      "</s>",
      2
    ],
    "cls": [
      "<s>",
      1
    ],
    "trim_offsets": true,
    "add_prefix_space": true
  },
  "decoder": {
    "type": "ByteLevel",
    "add_prefix_space": true,
    "trim_offsets": true,
    "use_regex": true
  },
  "model": {
    "type": "BPE",
    "dropout": null,
    "unk_token": "<unk>",
    "continuing_subword_prefix": null,
    "end_of_word_suffix": null,
    "fuse_unk": false,
    "vocab": {
      "<pad>": 0,
      "<s>": 1,
      "</s>": 2,
      "<unk>": 3,
      "<mask>": 4,
      "!": 5,
      "\"": 6,
      "#": 7,
      "$": 8,
      "%": 9,
      "&": 10,
      "'": 11,
      "(": 12,
      ")": 13,
      "*": 14,
      "+": 15,
      ",": 16,
      "-": 17,
      ".": 18,
      "/": 19,
      "0": 20,
      "1": 21,
      "2": 22,
      "3": 23,
      "4": 24,
      "5": 25,
      "6": 26,
      "7": 27,
      "8": 28,
      "9": 29,
      ":": 30,
      ";": 31,
      "<": 32,
      "=": 33,
      ">": 34,
      "?": 35,
      "@": 36,
      "[": 37,
      "\\": 38,
      "]": 39,
      "^": 40,
      "_": 41,
      "`": 42,
      "a": 43,
      "b": 44,
      "c": 45,
      "d": 46,
      "e": 47,
      "f": 48,
      "g": 49,
      "h": 50,
      "i": 51,
      "j": 52,
      "k": 53,
      "l": 54,
      "m": 55,
      "n": 56,
      "o": 57,
      "p": 58,
      "q": 59,
      "r": 60,
      "s": 61,
      "t": 62,
      "u": 63,
      "v": 64,
      "w": 65,
      "x": 66,
      "y": 67,
      "z": 68,
      "{": 69,
      "|": 70,
      "}": 71,
      "~": 72,
      "¡": 73,
      "¢": 74,
      "£": 75,
      "¤": 76,
      "¥": 77,
      "¦": 78,
      "§": 79,
      "¨": 80,
      "©": 81,
      "ª": 82,
      "«": 83,
      "¬": 84,
      "®": 85,
      "¯": 86,
      "°": 87,
      "±": 88,
      "²": 89,
      "³": 90,
      "´": 91,
      "µ": 92,
      "¶": 93,
      "·": 94,
      "¸": 95,
      "¹": 96,
      "º": 97,
      "»": 98,
      "¼": 99,
      "½": 100,
      "¾": 101,
      "¿": 102,
      "Â": 103,
      "Ã": 104,
      "Ä": 105,
      "Å": 106,
      "Æ": 107,
      "Ç": 108,
      "È": 109,
      "É": 110,
      "Ê": 111,
      "Ë": 112,
      "Î": 113,
      "Ï": 114,
      "Ð": 115,
      "Ñ": 116,
      "Ó": 117,
      "Õ": 118,
      "Ö": 119,
      "×": 120,
      "Ø": 121,
      "Ù": 122,
      "Ú": 123,
      "Û": 124,
      "ß": 125,
      "à": 126,
      "á": 127,
      "â": 128,
      "ã": 129,
      "ä": 130,
      "å": 131,
      "æ": 132,
      "ç": 133,
      "è": 134,
      "é": 135,
      "ê": 136,
      "ï": 137,
      "ð": 138,
      "Ġ": 139,
      "Ģ": 140,
      "ģ": 141,
      "Ĥ": 142,
      "ĥ": 143,
      "Ħ": 144,
      "ħ": 145,
      "Ĩ": 146,
      "ĩ": 147,
      "Ī": 148,
      "ī": 149,
      "Ĭ": 150,
      "ĭ": 151,
      "Į": 152,
      "į": 153,
      "İ": 154,
      "ı": 155,
      "Ĳ": 156,
      "ĳ": 157,
      "Ĵ": 158,
      "ĵ": 159,
      "Ķ": 160,
      "ķ": 161,
      "ĸ": 162,
      "Ĺ": 163,
      "ĺ": 164,
      "Ļ": 165,
      "ļ": 166,
      "Ľ": 167,
      "ľ": 168,
      "Ŀ": 169,
      "ŀ": 170,
      "Ł": 171,
      "ł": 172,
      "Ń": 173,
      "en": 174,
      "er": 175,
      "Ġd": 176,
      "ch": 177,
      "un": 178,
      "ei": 179,
      "Ġa": 180,
      "ie": 181,
      "Ġ.": 182,
      "Ġ,": 183,
      "es": 184,
      "ung": 185,
      "Ġv": 186,
      "Ġs": 187,
      "in": 188,
      "Ġb": 189,
      "Ġdie": 190,
      "Ġder": 191,
      "ge": 192,
      "st": 193,
      "on": 194,
      "an": 195,
      "ich": 196,
      "ein": 197,
      "ur": 198,
      "at": 199,
      "or": 200,
      "sch": 201,
      "Ġ1": 202,
      "Ġun": 203,
      "Ġf": 204,
      "Ġz": 205,
      "Ġw": 206,
      "Ġm": 207,
      "el": 208,
      "Ġ2": 209,
      "ss": 210,
      "Ġn": 211,
      "Ġk": 212,
      "Ġau": 213,
      "it": 214,
      "Ġein": 215,
      "Ġr": 216,
      "ar": 217,
      "ten": 218,
      "Ġver": 219,
      "gen": 220,
      "Ġin": 221,
      "Ġi": 222,
      "Ġund": 223,
      "al": 224,
      "der": 225,
      "ti": 226,
      "Ġ)": 227,
      "Ġan": 228,
      "tr": 229,
      "hr": 230,
      "te": 231,
      "Ġge": 232,
      "Ġg": 233,
      "Ġh": 234,
      "den": 235,
      "Ġ(": 236,
      "em": 237,
      "om": 238,
      "Ġda": 239,
      "lich": 240,
      "Ġzu": 241,
      "Ġdes": 242,
      "Ġ-": 243,
      "Ġbe": 244,
      "Ġp": 245,
      "ts": 246,
      "Ġer": 247,
      "Ġ/": 248,
      "la": 249,
      "Ġe": 250,
      "ter": 251,
      "ion": 252,
      "ach": 253,
      "men": 254,
      "ber": 255,
      "Ġo": 256,
      "Ġu": 257,
      "icht": 258,
      "ol": 259,
      "Ġ0": 260,
      "Ġden": 261,
      "Ġauf": 262,
      "Ġâ": 263,
      "ĠâĢ": 264,
      "Ġ3": 265,
      "le": 266,
      "Ġ20": 267,
      "Ġvon": 268,
      "de": 269,
      "ech": 270,
      "isch": 271,
      "Ġab": 272,
      "ÃŁ": 273,
      "Ġaus": 274,
      "Ġmit": 275,
      "and": 276,
      "Ġar": 277,
      "ig": 278,
      "af": 279,
      "Ġvor": 280,
      "au": 281,
      "Ġfur": 282,
      "ungen": 283,
      "ent": 284,
      "Ġdies": 285,
      "eit": 286,
      "Ġbes": 287,
      "ungs": 288,
      "Ġt": 289,
      "Ġl": 290,
      "Ġ4": 291,
      "tz": 292,
      "ell": 293,
      "Ġ5": 294,
      "ah": 295,
      "ab": 296,
      "eh": 297,
      "ahr": 298,
      "tra": 299,
      "Ġim": 300,
      "iss": 301,
      "Ġc": 302,
      "ir": 303,
      "Ġj": 304,
      "Ġ:": 305,
      "eil": 306,
      "am": 307,
      "Ġal": 308,
      "Ġuber": 309,
      "ischen": 310,
      "Ġdem": 311,
      "is": 312,
      "Ġ19": 313,
      "Ġdas": 314,
      "ff": 315,
      "pr": 316,
      "eich": 317,
      "ck": 318,
      "lie": 319,
      "schaf": 320,
      "Ġoder": 321,
      "Ġpr": 322,
      "Ġrech": 323,
      "ier": 324,
      "Ġvom": 325,
      "fu": 326,
      "Ġgem": 327,
      "Ġunter": 328,
      "Ġnicht": 329,
      "Ġst": 330,
      "Ġist": 331,
      "tik": 332,
      "il": 333,
      "Ġ9": 334,
      "Ġkom": 335,
      "Ġbei": 336,
      "Ġent": 337,
      "ver": 338,
      "zu": 339,
      "tikel": 340,
      "Ġ6": 341,
      "Ġwer": 342,
      "Ġnach": 343,
      "est": 344,
      "trag": 345,
      "Ġartikel": 346,
      "Ġ8": 347,
      "Ġ200": 348,
      "atz": 349,
      "Ġsch": 350,
      "eu": 351,
      "gr": 352,
      "ien": 353,
      "ben": 354,
      "Ġ7": 355,
      "Ġkomm": 356,
      "ission": 357,
      "dung": 358,
      "Ġdass": 359,
      "ang": 360,
      "uss": 361,
      "Ġkommission": 362,
      "Ġzur": 363,
      "hal": 364,
      "op": 365,
      "kt": 366,
      "Ġdur": 367,
      "teil": 368,
      "Ġeine": 369,
      "ger": 370,
      "aÃŁ": 371,
      "satz": 372,
      "00": 373,
      "Ġwir": 374,
      "und": 375,
      "Ġeur": 376,
      "aat": 377,
      "Ġgr": 378,
      "lichen": 379,
      "nung": 380,
      "Ġdurch": 381,
      "Ġwerden": 382,
      "ind": 383,
      "ann": 384,
      "ation": 385,
      "Ġkon": 386,
      "Ġre": 387,
      "fuhr": 388,
      "ord": 389,
      "Ġum": 390,
      "be": 391,
      "Ġso": 392,
      "eis": 393,
      "uf": 394,
      "ri": 395,
      "oll": 396,
      "Ġgemein": 397,
      "Ġsich": 398,
      "Ġger": 399,
      "mm": 400,
      "fahr": 401,
      "tig": 402,
      "schei": 403,
      "Ġber": 404,
      "Ġhat": 405,
      "Ġeurop": 406,
      "Ġ201": 407,
      "ne": 408,
      "Ġnr": 409,
      "ges": 410,
      "Ġ%": 411,
      "Ġfr": 412,
      "wer": 413,
      "Ġzw": 414,
      "Ġges": 415,
      "nah": 416,
      "Ġbesch": 417,
      "Ġde": 418,
      "etz": 419,
      "Ġeuropa": 420,
      "Ġals": 421,
      "Ġsie": 422,
      "Ġihr": 423,
      "Ġeiner": 424,
      "itt": 425,
      "Ġander": 426,
      "schaft": 427,
      "sten": 428,
      "stell": 429,
      "for": 430,
      "glie": 431,
      "end": 432,
      "lin": 433,
      "as": 434,
      "Ġ10": 435,
      "uch": 436,
      "Ġkla": 437,
      "nen": 438,
      "Ġ;": 439,
      "ĠâĢĶ": 440,
      "ordnung": 441,
      "staat": 442,
      "br": 443,
      "Ġmitglie": 444,
      "och": 445,
      "Ġam": 446,
      "Ġrechts": 447,
      "he": 448,
      "all": 449,
      "ul": 450,
      "utz": 451,
      "fahren": 452,
      "Ġsind": 453,
      "Ġ\"": 454,
      "Ġentschei": 455,
      "os": 456,
      "liche": 457,
      "ik": 458,
      "Ġbetr": 459,
      "Ġeuropaischen": 460,
      "Ġmitglied": 461,
      "Ġgen": 462,
      "Ġes": 463,
      "Ġ199": 464,
      "et": 465,
      "Ġwird": 466,
      "Ġange": 467,
      "uck": 468,
      "anz": 469,
      "lung": 470,
      "Ġpro": 471,
      "ommen": 472,
      "ĠâĢĵ": 473,
      "gt": 474,
      "neh": 475,
      "igen": 476,
      "keit": 477,
      "Ġdieser": 478,
      "Ġgegen": 479,
      "Ġmar": 480,
      "luss": 481,
      "Ġricht": 482,
      "Ġmitgliedstaat": 483,
      "ass": 484,
      "bar": 485,
      "abe": 486,
      "Ġart": 487,
      "timm": 488,
      "Ġverordnung": 489,
      "bl": 490,
      "Ġdiese": 491,
      "enden": 492,
      "linie": 493,
      "Ġabsatz": 494,
      "ehr": 495,
      "enn": 496,
      "Ġsein": 497,
      "Ġentscheidung": 498,
      "ho": 499,
      "ess": 500,
      "Ġje": 501,
      "tung": 502,
      "ichts": 503,
      "eits": 504,
      "lass": 505,
      "aben": 506,
      "Ġwur": 507,
      "Ġrichtlinie": 508,
      "Ġur": 509,
      "ern": 510,
      "Ġdar": 511,
      "Ġrecht": 512,
      "lei": 513,
      "me": 514,
      "ers": 515,
      "ische": 516,
      "Ġen": 517,
      "pf": 518,
      "str": 519,
      "mitt": 520,
      "Ġrat": 521,
      "Ġeg": 522,
      "um": 523,
      "weis": 524,
      "Ġwar": 525,
      "ort": 526,
      "stand": 527,
      "Ġbestimm": 528,
      "Ġ12": 529,
      "ing": 530,
      "art": 531,
      "rei": 532,
      "Ġsei": 533,
      "onder": 534,
      "hang": 535,
      "Ġzum": 536,
      "off": 537,
      "Ġ11": 538,
      "rif": 539,
      "zeu": 540,
      "aus": 541,
      "Ġfol": 542,
      "Ġverw": 543,
      "ĠâĢŀ": 544,
      "sam": 545,
      "Ġgew": 546,
      "Ġwie": 547,
      "Ġeines": 548,
      "Ġvertrag": 549,
      "bes": 550,
      "ĠâĢľ": 551,
      "wie": 552,
      "iel": 553,
      "oh": 554,
      "Ġher": 555,
      "tet": 556,
      "Ġ15": 557,
      "mittel": 558,
      "ag": 559,
      "forder": 560,
      "Ġhin": 561,
      "Ġfest": 562,
      "eiten": 563,
      "orden": 564,
      "Ġeinem": 565,
      "auf": 566,
      "ende": 567,
      "Ġew": 568,
      "kti": 569,
      "Ġ*": 570,
      "ahl": 571,
      "nehmen": 572,
      "Ġsp": 573,
      "Ġeinen": 574,
      "Ġverfahren": 575,
      "kommen": 576,
      "aÃŁnah": 577,
      "og": 578,
      "land": 579,
      "ache": 580,
      "Ġla": 581,
      "ank": 582,
      "Ġauch": 583,
      "Ġins": 584,
      "iv": 585,
      "ap": 586,
      "ehen": 587,
      "Ġgerichts": 588,
      "Ġfor": 589,
      "Ġle": 590,
      "Ġklager": 591,
      "Ġ13": 592,
      "ot": 593,
      "Ġgrund": 594,
      "Ġgel": 595,
      "schrif": 596,
      "Ġabs": 597,
      "leich": 598,
      "Ġ|": 599,
      "Ġwenn": 600,
      "mer": 601,
      "Ġunion": 602,
      "ilf": 603,
      "reich": 604,
      "Ġkein": 605,
      "qu": 606,
      "re": 607,
      "Ġall": 608,
      "niss": 609,
      "Ġbis": 610,
      "gel": 611,
      "Ġmitgliedstaaten": 612,
      "genden": 613,
      "her": 614,
      "Ġ14": 615,
      "Ġgemeinschaf": 616,
      "Ġkann": 617,
      "Ġewg": 618,
      "rech": 619,
      "sp": 620,
      "spr": 621,
      "tre": 622,
      "ĠgemaÃŁ": 623,
      "zeug": 624,
      "us": 625,
      "Ġfall": 626,
      "ander": 627,
      "Ġrates": 628,
      "ienst": 629,
      "ht": 630,
      "ad": 631,
      "ierung": 632,
      "ic": 633,
      "Ġabl": 634,
      "ut": 635,
      "grund": 636,
      "ige": 637,
      "igkeit": 638,
      "lage": 639,
      "iff": 640,
      "Ġfin": 641,
      "Ġste": 642,
      "vor": 643,
      "alt": 644,
      "Ġurteil": 645,
      "halt": 646,
      "enz": 647,
      "Ġse": 648,
      "Ġ16": 649,
      "Ġ17": 650,
      "hilf": 651,
      "Ġko": 652,
      "aten": 653,
      "heit": 654,
      "Ġ25": 655,
      "sammen": 656,
      "ĠmaÃŁnah": 657,
      "gan": 658,
      "ember": 659,
      "du": 660,
      "fer": 661,
      "iz": 662,
      "Ġstr": 663,
      "igung": 664,
      "hen": 665,
      "Ġzwischen": 666,
      "Ġdieses": 667,
      "hof": 668,
      "Ġbeh": 669,
      "nis": 670,
      "Ġteil": 671,
      "lieÃŁ": 672,
      "Ġwurde": 673,
      "Ġbeschluss": 674,
      "pflich": 675,
      "Ġeu": 676,
      "alen": 677,
      "Ġtat": 678,
      "Ġzusammen": 679,
      "geben": 680,
      "estell": 681,
      "age": 682,
      "zug": 683,
      "Ġbr": 684,
      "halten": 685,
      "Ġ18": 686,
      "Ġanw": 687,
      "sich": 688,
      "Ġsowie": 689,
      "prech": 690,
      "Ġnur": 691,
      "Ġstell": 692,
      "ĠdaÃŁ": 693,
      "wi": 694,
      "leg": 695,
      "Ġverein": 696,
      "Ġunternehmen": 697,
      "kl": 698,
      "arb": 699,
      "Ġ30": 700,
      "Ġverb": 701,
      "Ġinter": 702,
      "andel": 703,
      "nahme": 704,
      "sen": 705,
      "gem": 706,
      "Ġkr": 707,
      "Ġdr": 708,
      "Ġgemeinschaft": 709,
      "eff": 710,
      "Ġ00": 711,
      "Ġjahr": 712,
      "Ġarb": 713,
      "ak": 714,
      "Ġreg": 715,
      "ist": 716,
      "schriften": 717,
      "Ġtr": 718,
      "Ġ21": 719,
      "unde": 720,
      "Ġanhang": 721,
      "Ġ198": 722,
      "Ġgesch": 723,
      "ahmen": 724,
      "ondere": 725,
      "ok": 726,
      "lu": 727,
      "Ġstaat": 728,
      "Ġmuss": 729,
      "Ġ>": 730,
      "Ġausg": 731,
      "Ġklagerin": 732,
      "bie": 733,
      "Ġma": 734,
      "Ġanderen": 735,
      "erson": 736,
      "Ġdiesem": 737,
      "Ġhabe": 738,
      "tigen": 739,
      "acht": 740,
      "unden": 741,
      "Ġob": 742,
      "wir": 743,
      "artei": 744,
      "Ġ22": 745,
      "stellen": 746,
      "Ġbetreff": 747,
      "form": 748,
      "ner": 749,
      "aft": 750,
      "fol": 751,
      "Ġgerichtshof": 752,
      "att": 753,
      "ktion": 754,
      "Ġmehr": 755,
      "Ġ31": 756,
      "lan": 757,
      "endung": 758,
      "Ġoff": 759,
      "oÃŁ": 760,
      "itat": 761,
      "Ġkonnen": 762,
      "zi": 763,
      "pu": 764,
      "eiter": 765,
      "leist": 766,
      "Ġte": 767,
      "verfahren": 768,
      "eg": 769,
      "Ġpruf": 770,
      "fall": 771,
      "elle": 772,
      "Ġ29": 773,
      "Ġrahmen": 774,
      "Ġperson": 775,
      "lassen": 776,
      "Ġworden": 777,
      "ek": 778,
      "dr": 779,
      "Ġrechtss": 780,
      "uer": 781,
      "Ġpar": 782,
      "Ġents": 783,
      "ub": 784,
      "Ġbuch": 785,
      "Ġ23": 786,
      "Ġgericht": 787,
      "legen": 788,
      "Ġinsbes": 789,
      "uar": 790,
      "nisse": 791,
      "Ġinsbesondere": 792,
      "ĠmaÃŁnahmen": 793,
      "zeich": 794,
      "dem": 795,
      "lo": 796,
      "ĠÂ": 797,
      "Ġgenann": 798,
      "Ġbeihilf": 799,
      "Ġklage": 800,
      "beh": 801,
      "lag": 802,
      "ĠâĢĲ": 803,
      "eigen": 804,
      "aum": 805,
      "Ġwaren": 806,
      "Ġii": 807,
      "Ġ27": 808,
      "Ġrand": 809,
      "Ġsoll": 810,
      "stem": 811,
      "Ġfinanz": 812,
      "publ": 813,
      "Ġ[": 814,
      "Ġ]": 815,
      "amen": 816,
      "Ġihrer": 817,
      "Ġdienst": 818,
      "Ġrandn": 819,
      "ov": 820,
      "ant": 821,
      "Ġmarkt": 822,
      "Ġkosten": 823,
      "Ġwirt": 824,
      "eck": 825,
      "ystem": 826,
      "Ġ28": 827,
      "licher": 828,
      "Ġihre": 829,
      "ale": 830,
      "Ġex": 831,
      "Ġkeine": 832,
      "gefuhr": 833,
      "Ġaussch": 834,
      "publik": 835,
      "Ġerw": 836,
      "Ġ24": 837,
      "Ġgewahr": 838,
      "Ġgelten": 839,
      "kehr": 840,
      "Ġbegr": 841,
      "Ġ26": 842,
      "Ġnation": 843,
      "Ġbuchst": 844,
      "gestell": 845,
      "eut": 846,
      "áĥ": 847,
      "kr": 848,
      "ding": 849,
      "itz": 850,
      "ital": 851,
      "stellung": 852,
      "ition": 853,
      "Ġsol": 854,
      "Ġhaben": 855,
      "Ġeinz": 856,
      "id": 857,
      "Ġerst": 858,
      "Ġabkommen": 859,
      "20": 860,
      "Ġor": 861,
      "gemein": 862,
      "tragen": 863,
      "ater": 864,
      "Ġch": 865,
      "umen": 866,
      "sicht": 867,
      "ationen": 868,
      "teilung": 869,
      "Ġrechtssache": 870,
      "pp": 871,
      "Ġerforder": 872,
      "gesch": 873,
      "Ġsin": 874,
      "Ġandere": 875,
      "bs": 876,
      "Ġfolgen": 877,
      "Ġvorlie": 878,
      "Ġdeut": 879,
      "ett": 880,
      "Ġdez": 881,
      "Ġhandel": 882,
      "Ġverpflich": 883,
      "len": 884,
      "uber": 885,
      "Ġjed": 886,
      "Ġwurden": 887,
      "uhr": 888,
      "fen": 889,
      "Ġalle": 890,
      "weise": 891,
      "iger": 892,
      "iert": 893,
      "Ġdezember": 894,
      "Ġ197": 895,
      "ken": 896,
      "tier": 897,
      "ingen": 898,
      "amt": 899,
      "Ġrandnr": 900,
      "schie": 901,
      "pun": 902,
      "Ġwe": 903,
      "unf": 904,
      "utzt": 905,
      "ogen": 906,
      "setz": 907,
      "gesehen": 908,
      "stan": 909,
      "Ġsicher": 910,
      "mach": 911,
      "Ġgleich": 912,
      "mar": 913,
      "gabe": 914,
      "trage": 915,
      "Ġgemeinschaften": 916,
      "gaben": 917,
      "Ġzeit": 918,
      "Ġ90": 919,
      "Ġzustand": 920,
      "ed": 921,
      "Ġdeutsch": 922,
      "Ġbeste": 923,
      "fr": 924,
      "Ġweiter": 925,
      "legt": 926,
      "Ġsinne": 927,
      "Ġdurchfuhr": 928,
      "Ġentsprech": 929,
      "ia": 930,
      "Ġneu": 931,
      "richt": 932,
      "Ġinform": 933,
      "Ġbel": 934,
      "auch": 935,
      "Ġ'": 936,
      "assung": 937,
      "tigt": 938,
      "Ġgest": 939,
      "gesetz": 940,
      "gelung": 941,
      "Ġrepublik": 942,
      "offen": 943,
      "gl": 944,
      "Ġerzeug": 945,
      "ischer": 946,
      "che": 947,
      "Ġgenannten": 948,
      "im": 949,
      "angs": 950,
      "Ġverst": 951,
      "essen": 952,
      "agen": 953,
      "Ġeinsch": 954,
      "Ġamts": 955,
      "arteien": 956,
      "if": 957,
      "Ġeigen": 958,
      "lagen": 959,
      "halb": 960,
      "hand": 961,
      "ssen": 962,
      "Ġbezug": 963,
      "hor": 964,
      "ke": 965,
      "Ġ40": 966,
      "Ġlie": 967,
      "bewer": 968,
      "Ġanwendung": 969,
      "Ġbek": 970,
      "od": 971,
      "net": 972,
      "recht": 973,
      "such": 974,
      "Ġqu": 975,
      "geb": 976,
      "klar": 977,
      "keiten": 978,
      "Ġwahr": 979,
      "ler": 980,
      "oglich": 981,
      "Ġgemeinschafts": 982,
      "Ġkap": 983,
      "Ġvereinbar": 984,
      "Ġantrag": 985,
      "treten": 986,
      "eist": 987,
      "ate": 988,
      "io": 989,
      "lieÃŁlich": 990,
      "ib": 991,
      "Ġnie": 992,
      "Ġih": 993,
      "umm": 994,
      "ehm": 995,
      "Ġdiesen": 996,
      "Ġzwei": 997,
      "Ġdaher": 998,
      "halts": 999,
      "Ġoffent": 1000,
      "ÃŁer": 1001,
      "Ġdenen": 1002,
      "01": 1003,
      "Ġjedoch": 1004,
      "amm": 1005,
      "ust": 1006,
      "pruf": 1007,
      "genommen": 1008,
      "Ġschw": 1009,
      "Ġland": 1010,
      "uni": 1011,
      "tem": 1012,
      "brauch": 1013,
      "uÃŁ": 1014,
      "ĠÂ§": 1015,
      "ucksich": 1016,
      "hin": 1017,
      "Ġeinzel": 1018,
      "igten": 1019,
      "Ġthe": 1020,
      "mit": 1021,
      "Ġprodu": 1022,
      "achen": 1023,
      "Ġeinfuhr": 1024,
      "tigung": 1025,
      "ochten": 1026,
      "Ġfrei": 1027,
      "bung": 1028,
      "bei": 1029,
      "arbeit": 1030,
      "Ġoh": 1031,
      "Ġof": 1032,
      "Ġabsch": 1033,
      "blatt": 1034,
      "Ġel": 1035,
      "maÃŁ": 1036,
      "ial": 1037,
      "Ġzoll": 1038,
      "Ġ=": 1039,
      "zw": 1040,
      "Ġberucksich": 1041,
      "Ġjuni": 1042,
      "ettbewer": 1043,
      "Ġangef": 1044,
      "eise": 1045,
      "uli": 1046,
      "Ġangefochten": 1047,
      "spruch": 1048,
      "Ġsteuer": 1049,
      "Ġeinge": 1050,
      "weit": 1051,
      "Ġem": 1052,
      "Ġohne": 1053,
      "Ġwettbewer": 1054,
      "Ġmon": 1055,
      "Ġjuli": 1056,
      "fug": 1057,
      "schafts": 1058,
      "21": 1059,
      "ac": 1060,
      "lamen": 1061,
      "Ġderen": 1062,
      "tens": 1063,
      "eile": 1064,
      "dingungen": 1065,
      "Ġgrundsatz": 1066,
      "Ġet": 1067,
      "wick": 1068,
      "Ġbeteil": 1069,
      "Ġ50": 1070,
      "chn": 1071,
      "chen": 1072,
      "Ġho": 1073,
      "Ġbest": 1074,
      "tige": 1075,
      "rist": 1076,
      "Ġvorgesehen": 1077,
      "Ġparlamen": 1078,
      "Ġamtsblatt": 1079,
      "gestellt": 1080,
      "Ġverfahrens": 1081,
      "tragt": 1082,
      "falls": 1083,
      "Ġbestimmungen": 1084,
      "Ġzug": 1085,
      "Ġseiner": 1086,
      "Ġfolgenden": 1087,
      "Ġinner": 1088,
      "zie": 1089,
      "lauf": 1090,
      "ange": 1091,
      "Ġgebie": 1092,
      "igt": 1093,
      "tion": 1094,
      "ĠauÃŁer": 1095,
      "Ġfes": 1096,
      "Ġallgemein": 1097,
      "min": 1098,
      "Ġ2003": 1099,
      "vorschriften": 1100,
      "kte": 1101,
      "weisen": 1102,
      "ammer": 1103,
      "Ġwirk": 1104,
      "olle": 1105,
      "Ġfrage": 1106,
      "Ġrn": 1107,
      "Ġ_": 1108,
      "Ġ2002": 1109,
      "Ġzuruck": 1110,
      "eig": 1111,
      "Ġgesetz": 1112,
      "Ġgenehm": 1113,
      "gelegt": 1114,
      "Ġschutz": 1115,
      "Ġbef": 1116,
      "Ġvoll": 1117,
      "gefuhrt": 1118,
      "Ġ2004": 1119,
      "Ġ85": 1120,
      "Ġzahl": 1121,
      "Ġ2009": 1122,
      "Ġjan": 1123,
      "nungs": 1124,
      "Ġbetrie": 1125,
      "Ġsel": 1126,
      "Ġform": 1127,
      "Ġ35": 1128,
      "legung": 1129,
      "Ġmussen": 1130,
      "Ġ2001": 1131,
      "Ġmitt": 1132,
      "se": 1133,
      "Ġtats": 1134,
      "ober": 1135,
      "Ġ2006": 1136,
      "pro": 1137,
      "besch": 1138,
      "Ġausfuhr": 1139,
      "punkt": 1140,
      "upp": 1141,
      "Ġfahr": 1142,
      "kauf": 1143,
      "Ġgestutzt": 1144,
      "Ġaufgrund": 1145,
      "Ġtechn": 1146,
      "orde": 1147,
      "Ġarbeits": 1148,
      "ktor": 1149,
      "Ġjanuar": 1150,
      "sk": 1151,
      "Ġ39": 1152,
      "Ġnoch": 1153,
      "Ġbetreffenden": 1154,
      "Ġnov": 1155,
      "entschei": 1156,
      "Ġerfu": 1157,
      "elt": 1158,
      "Ġmarz": 1159,
      "30": 1160,
      "voll": 1161,
      "Ġregel": 1162,
      "det": 1163,
      "Ġco": 1164,
      "samen": 1165,
      "Ġital": 1166,
      "Ġpo": 1167,
      "altungs": 1168,
      "Ġvorliegenden": 1169,
      "Ġzweck": 1170,
      "ill": 1171,
      "Ġdienstleist": 1172,
      "Ġuberein": 1173,
      "Ġkonig": 1174,
      "lg": 1175,
      "Ġfuhr": 1176,
      "ium": 1177,
      "auss": 1178,
      "iden": 1179,
      "ations": 1180,
      "Ġbeschwer": 1181,
      "Ġnieder": 1182,
      "Ġcom": 1183,
      "Ġ000": 1184,
      "Ġvorschriften": 1185,
      "euer": 1186,
      "ierungs": 1187,
      "nehmer": 1188,
      "Ġokt": 1189,
      "Ġkontr": 1190,
      "Ġstand": 1191,
      "Ġ38": 1192,
      "Ġbehorden": 1193,
      "Ġseien": 1194,
      "ĠverstoÃŁ": 1195,
      "Ġdaten": 1196,
      "Ġkonn": 1197,
      "Ġoktober": 1198,
      "wert": 1199,
      "Ġerwag": 1200,
      "ven": 1201,
      "Ġwes": 1202,
      "Ġfe": 1203,
      "ierten": 1204,
      "Ġbeschr": 1205,
      "bur": 1206,
      "stoff": 1207,
      "Ġbeihilfe": 1208,
      "Ġ33": 1209,
      "Ġverwende": 1210,
      "Ġ32": 1211,
      "ktur": 1212,
      "Ġsep": 1213,
      "Ġurspr": 1214,
      "Ġkonigreich": 1215,
      "Ġmoglich": 1216,
      "Ġpreis": 1217,
      "0000": 1218,
      "annt": 1219,
      "Ġsonder": 1220,
      "ummer": 1221,
      "letz": 1222,
      "unter": 1223,
      "Ġersten": 1224,
      "Ġausge": 1225,
      "Ġnationalen": 1226,
      "Ġorgan": 1227,
      "Ġpersonen": 1228,
      "Ġmittel": 1229,
      "ellen": 1230,
      "Ġruck": 1231,
      "undung": 1232,
      "Ġ2000": 1233,
      "Ġ34": 1234,
      "Ġerlassen": 1235,
      "Ġ36": 1236,
      "lossen": 1237,
      "gangen": 1238,
      "zahl": 1239,
      "eitr": 1240,
      "Ġbuchstabe": 1241,
      "Ġgeander": 1242,
      "Ġitalien": 1243,
      "Ġpol": 1244,
      "Ġware": 1245,
      "Ġdarauf": 1246,
      "Ġmai": 1247,
      "verkehr": 1248,
      "Ġvertragsp": 1249,
      "Ġvgl": 1250,
      "ieren": 1251,
      "igkeiten": 1252,
      "dungs": 1253,
      "Ġauszu": 1254,
      "Ġstellung": 1255,
      "Ġapr": 1256,
      "machtig": 1257,
      "Ġ37": 1258,
      "Ġ1999": 1259,
      "Ġgemeinsamen": 1260,
      "aterial": 1261,
      "grunde": 1262,
      "wirk": 1263,
      "Ġ2008": 1264,
      "Ġarbeit": 1265,
      "utzung": 1266,
      "fern": 1267,
      "Ġentwick": 1268,
      "Ġhoh": 1269,
      "itel": 1270,
      "Ġregelung": 1271,
      "Ġbean": 1272,
      "Ġwirtschaft": 1273,
      "deu": 1274,
      "Ġbeschwerde": 1275,
      "Ġinformationen": 1276,
      "Ġverwaltungs": 1277,
      "Ġerklar": 1278,
      "11": 1279,
      "tember": 1280,
      "Ġapril": 1281,
      "gegen": 1282,
      "Ġben": 1283,
      "ativ": 1284,
      "Ġwirtschafts": 1285,
      "Ġforder": 1286,
      "Ġumf": 1287,
      "Ġhatte": 1288,
      "ick": 1289,
      "erung": 1290,
      "Ġmind": 1291,
      "Ġnovember": 1292,
      "Ġvorauss": 1293,
      "Ġangefochtenen": 1294,
      "Ġfolgende": 1295,
      "zogen": 1296,
      "Ġseine": 1297,
      "schieden": 1298,
      "bringen": 1299,
      "Ġ196": 1300,
      "jahr": 1301,
      "Ġberech": 1302,
      "Ġpf": 1303,
      "Ġerg": 1304,
      "Ġvertrags": 1305,
      "Ġseptember": 1306,
      "Ġrechtsmittel": 1307,
      "per": 1308,
      "Ġdrit": 1309,
      "Ġ84": 1310,
      "steh": 1311,
      "Ġabkommens": 1312,
      "Ġx": 1313,
      "ug": 1314,
      "Ġ44": 1315,
      "bst": 1316,
      "eitraum": 1317,
      "dienst": 1318,
      "iter": 1319,
      "Ġnam": 1320,
      "uktur": 1321,
      "Ġdeutschland": 1322,
      "schen": 1323,
      "Ġparteien": 1324,
      "schrei": 1325,
      "Ġ41": 1326,
      "Ġ2013": 1327,
      "ko": 1328,
      "Ġsystem": 1329,
      "Ġcon": 1330,
      "atur": 1331,
      "Ġbeur": 1332,
      "heits": 1333,
      "wiesen": 1334,
      "Ġabge": 1335,
      "Ġ2011": 1336,
      "anw": 1337,
      "Ġ48": 1338,
      "aup": 1339,
      "Ġ43": 1340,
      "Ġfebr": 1341,
      "imm": 1342,
      "Ġfebruar": 1343,
      "Ġmen": 1344,
      "bil": 1345,
      "ds": 1346,
      "wirt": 1347,
      "osition": 1348,
      "Ġgeltend": 1349,
      "ĠgroÃŁ": 1350,
      "ens": 1351,
      "vollmachtig": 1352,
      "gleich": 1353,
      "sichtlich": 1354,
      "Ġanzu": 1355,
      "fin": 1356,
      "Ġwesent": 1357,
      "erk": 1358,
      "druck": 1359,
      "Ġdurchfuhrung": 1360,
      "Ġberuf": 1361,
      "plan": 1362,
      "Ġprufung": 1363,
      "Ġ45": 1364,
      "Ġslg": 1365,
      "Ġdamit": 1366,
      "Ġdi": 1367,
      "gramm": 1368,
      "Ġ49": 1369,
      "Ġgeschaf": 1370,
      "bens": 1371,
      "Ġhaus": 1372,
      "Ġid": 1373,
      "Ġnor": 1374,
      "wor": 1375,
      "Ġgegeben": 1376,
      "Ġ42": 1377,
      "Ġ94": 1378,
      "geleg": 1379,
      "Ġhier": 1380,
      "Ġvoraussetz": 1381,
      "Ġparlaments": 1382,
      "Ġ2014": 1383,
      "Ġvertr": 1384,
      "mel": 1385,
      "prechung": 1386,
      "Ġkl": 1387,
      "ellschaft": 1388,
      "Ġhohe": 1389,
      "sel": 1390,
      "az": 1391,
      "ste": 1392,
      "Ġ01": 1393,
      "entr": 1394,
      "ilt": 1395,
      "Ġhoch": 1396,
      "Ġ2007": 1397,
      "Ġihren": 1398,
      "setzung": 1399,
      "ec": 1400,
      "Ġartikels": 1401,
      "Ġregion": 1402,
      "schutz": 1403,
      "Ġbereich": 1404,
      "unst": 1405,
      "Ġrechtsprechung": 1406,
      "Ġ87": 1407,
      "Ġ2012": 1408,
      "Ġgilt": 1409,
      "Ġwert": 1410,
      "ichtig": 1411,
      "woh": 1412,
      "Ġ60": 1413,
      "Ġ2010": 1414,
      "Ġwieder": 1415,
      "lang": 1416,
      "Ġanderung": 1417,
      "ere": 1418,
      "Ġbetroffen": 1419,
      "kunf": 1420,
      "Ġzulass": 1421,
      "ud": 1422,
      "schrift": 1423,
      "messen": 1424,
      "steuer": 1425,
      "ibt": 1426,
      "Ġ2005": 1427,
      "asiden": 1428,
      "Ġ46": 1429,
      "tern": 1430,
      "kon": 1431,
      "Ġziel": 1432,
      "Ġangaben": 1433,
      "Ġ95": 1434,
      "Ġ93": 1435,
      "Ġaber": 1436,
      "ta": 1437,
      "Ġerho": 1438,
      "ce": 1439,
      "Ġinnerhalb": 1440,
      "ichtet": 1441,
      "Ġ92": 1442,
      "Ġmin": 1443,
      "Ġzusatz": 1444,
      "stat": 1445,
      "standen": 1446,
      "Ġbedingungen": 1447,
      "Ġerful": 1448,
      "Ġ51": 1449,
      "Ġerfol": 1450,
      "Ġgesamt": 1451,
      "schuss": 1452,
      "Ġgener": 1453,
      "ĠeinschlieÃŁlich": 1454,
      "Ġ91": 1455,
      "Ġwegen": 1456,
      "ider": 1457,
      "teile": 1458,
      "Ġverm": 1459,
      "schaften": 1460,
      "Ġ55": 1461,
      "Ġverkauf": 1462,
      "Ġnot": 1463,
      "Ġwahrend": 1464,
      "Ġintern": 1465,
      "nitt": 1466,
      "altung": 1467,
      "000": 1468,
      "Ġvers": 1469,
      "Ġproz": 1470,
      "Ġbeim": 1471,
      "Ġprot": 1472,
      "Ġgetr": 1473,
      "itu": 1474,
      "Ġzusammenhang": 1475,
      "bau": 1476,
      "tzu": 1477,
      "Ġtran": 1478,
      "wirtschaft": 1479,
      "aden": 1480,
      "andlung": 1481,
      "Ġfranz": 1482,
      "Ġsitz": 1483,
      "Ġleist": 1484,
      "estens": 1485,
      "Ġgrundlage": 1486,
      "Ġzeitpunkt": 1487,
      "Ġsollte": 1488,
      "Ġ75": 1489,
      "bo": 1490,
      "Ġausschuss": 1491,
      "Ġanwend": 1492,
      "licht": 1493,
      "Ġung": 1494,
      "forderungen": 1495,
      "material": 1496,
      "Ġbeihilfen": 1497,
      "Ġtatsach": 1498,
      "Ġeinger": 1499,
      "Ġbund": 1500,
      "Ġspe": 1501,
      "Ġgrunde": 1502,
      "Ġselbst": 1503,
      "Ġfranzos": 1504,
      "gebie": 1505,
      "Ġhatten": 1506,
      "anken": 1507,
      "tungen": 1508,
      "uft": 1509,
      "Ġkammer": 1510,
      "Ġsach": 1511,
      "ip": 1512,
      "Ġman": 1513,
      "Ġeuropaische": 1514,
      "Ġir": 1515,
      "zeit": 1516,
      "Ġregierung": 1517,
      "Ġand": 1518,
      "kten": 1519,
      "ies": 1520,
      "ziel": 1521,
      "Ġwas": 1522,
      "ire": 1523,
      "alle": 1524,
      "esen": 1525,
      "Ġwel": 1526,
      "innen": 1527,
      "lungen": 1528,
      "Ġausgangs": 1529,
      "okoll": 1530,
      "Ġaller": 1531,
      "tif": 1532,
      "Ġinternation": 1533,
      "gesetzt": 1534,
      "Ġkenn": 1535,
      "Ġbedeu": 1536,
      "Ġbeschlusses": 1537,
      "rift": 1538,
      "tur": 1539,
      "Ġenthalten": 1540,
      "keits": 1541,
      "Ġerhe": 1542,
      "Ġschrei": 1543,
      "Ġub": 1544,
      "offent": 1545,
      "Ġwider": 1546,
      "Ġkraft": 1547,
      "Ġgeandert": 1548,
      "ierte": 1549,
      "Ġ61": 1550,
      "ichter": 1551,
      "prache": 1552,
      "Ġlu": 1553,
      "Ġ54": 1554,
      "Ġveroffent": 1555,
      "Ġverkehr": 1556,
      "Ġnamlich": 1557,
      "Ġzuge": 1558,
      "steller": 1559,
      "Ġinv": 1560,
      "Ġ96": 1561,
      "Ġ80": 1562,
      "Ġtier": 1563,
      "von": 1564,
      "ks": 1565,
      "rigen": 1566,
      "Ġerforderlich": 1567,
      "Ġflu": 1568,
      "Ġsolche": 1569,
      "teilt": 1570,
      "Ġ47": 1571,
      "ster": 1572,
      "Ġ99": 1573,
      "Ġne": 1574,
      "fur": 1575,
      "ow": 1576,
      "Ġerzeugnisse": 1577,
      "Ġumw": 1578,
      "Ġ65": 1579,
      "okumen": 1580,
      "Ġ53": 1581,
      "pl": 1582,
      "Ġbeklag": 1583,
      "Ġbzw": 1584,
      "schluss": 1585,
      "ma": 1586,
      "oc": 1587,
      "Ġbundes": 1588,
      "Ġaufzu": 1589,
      "Ġ59": 1590,
      "heiten": 1591,
      "Ġempf": 1592,
      "Ġfern": 1593,
      "Ġunterst": 1594,
      "hn": 1595,
      "Ġstat": 1596,
      "burg": 1597,
      "Ġspan": 1598,
      "verfahrens": 1599,
      "Ġ56": 1600,
      "Ġbewer": 1601,
      "bereich": 1602,
      "22": 1603,
      "Ġbereits": 1604,
      "inn": 1605,
      "Ġzustandigen": 1606,
      "trags": 1607,
      "Ġdrei": 1608,
      "Ġbestimmt": 1609,
      "olog": 1610,
      "Ġgemeinsam": 1611,
      "gelegten": 1612,
      "Ġend": 1613,
      "Ġsozi": 1614,
      "Ġverbrauch": 1615,
      "yp": 1616,
      "asser": 1617,
      "fassung": 1618,
      "Ġsom": 1619,
      "Ġ100": 1620,
      "richtung": 1621,
      "Ġwettbewerbs": 1622,
      "han": 1623,
      "Ġhinsichtlich": 1624,
      "markt": 1625,
      "Ġson": 1626,
      "Ġzeitraum": 1627,
      "03": 1628,
      "Ġvorgesehenen": 1629,
      "yl": 1630,
      "ele": 1631,
      "rat": 1632,
      "Ġ2015": 1633,
      "Ġfestzu": 1634,
      "dur": 1635,
      "Ġbesonder": 1636,
      "Ġsoweit": 1637,
      "Ġsofern": 1638,
      "ser": 1639,
      "Ġbeg": 1640,
      "iste": 1641,
      "weil": 1642,
      "Ġhaushalts": 1643,
      "ktiv": 1644,
      "henden": 1645,
      "linien": 1646,
      "Ġ98": 1647,
      "Ġdienstleistungen": 1648,
      "ast": 1649,
      "dern": 1650,
      "luÃŁ": 1651,
      "Ġ57": 1652,
      "wider": 1653,
      "nissen": 1654,
      "uppe": 1655,
      "Ġ88": 1656,
      "Ġind": 1657,
      "Ġ89": 1658,
      "Ġvorab": 1659,
      "wach": 1660,
      "ichte": 1661,
      "zuweisen": 1662,
      "eitung": 1663,
      "Ġzweiten": 1664,
      "lt": 1665,
      "entscheidung": 1666,
      "Ġsa": 1667,
      "Ġgeschafts": 1668,
      "Ġmet": 1669,
      "wend": 1670,
      "Ġerla": 1671,
      "mal": 1672,
      "Ġno": 1673,
      "Ġ97": 1674,
      "ahn": 1675,
      "Ġkapitel": 1676,
      "Ġto": 1677,
      "Ġrechtsvorschriften": 1678,
      "Ġfeh": 1679,
      "Ġdann": 1680,
      "schlag": 1681,
      "wa": 1682,
      "ehmen": 1683,
      "betr": 1684,
      "Ġschluss": 1685,
      "frei": 1686,
      "Ġbestimmung": 1687,
      "Ġfassung": 1688,
      "Ġubereinkommen": 1689,
      "nahmen": 1690,
      "02": 1691,
      "lichkeit": 1692,
      "Ġposition": 1693,
      "Ġ52": 1694,
      "Ġprotokoll": 1695,
      "Ġgeneral": 1696,
      "Ġdessen": 1697,
      "sicher": 1698,
      "Ġunver": 1699,
      "eicht": 1700,
      "sst": 1701,
      "ha": 1702,
      "Ġ73": 1703,
      "Ġmitgliedstaats": 1704,
      "kraft": 1705,
      "we": 1706,
      "ektr": 1707,
      "Ġ64": 1708,
      "dungen": 1709,
      "handlung": 1710,
      "Ġis": 1711,
      "teilen": 1712,
      "Ġbelg": 1713,
      "Ġ58": 1714,
      "Ġnamen": 1715,
      "Ġuntersuch": 1716,
      "to": 1717,
      "Ġprasiden": 1718,
      "wohl": 1719,
      "materialien": 1720,
      "Ġgegenuber": 1721,
      "maÃŁnah": 1722,
      "Ġbestimmte": 1723,
      "Ġgar": 1724,
      "Ġgeld": 1725,
      "ine": 1726,
      "stande": 1727,
      "Ġverfug": 1728,
      "Ġverpflichtungen": 1729,
      "Ġdritt": 1730,
      "Ġkriter": 1731,
      "geber": 1732,
      "Ġoffentlichen": 1733,
      "Ġstellen": 1734,
      "Ġurteils": 1735,
      "Ġdavon": 1736,
      "Ġ?": 1737,
      "Ġ1998": 1738,
      "Ġergeb": 1739,
      "Ġru": 1740,
      "Ġbestimmten": 1741,
      "Ġbegriff": 1742,
      "erzeug": 1743,
      "Ġtex": 1744,
      "Ġjeder": 1745,
      "Ġihm": 1746,
      "Ġbil": 1747,
      "struktur": 1748,
      "ussel": 1749,
      "Ġliefer": 1750,
      "ze": 1751,
      "ĠmaÃŁnahme": 1752,
      "org": 1753,
      "Ġ71": 1754,
      "Ġschreiben": 1755,
      "war": 1756,
      "rechts": 1757,
      "sa": 1758,
      "ieben": 1759,
      "andern": 1760,
      "Ġstrei": 1761,
      "Ġsatz": 1762,
      "baren": 1763,
      "asst": 1764,
      "Ġvormaterialien": 1765,
      "haf": 1766,
      "Ġoben": 1767,
      "Ġbeschaf": 1768,
      "amten": 1769,
      "Ġ68": 1770,
      "ateg": 1771,
      "iqu": 1772,
      "igte": 1773,
      "Ġvoraussetzungen": 1774,
      "des": 1775,
      "Ġ77": 1776,
      "Ġ+": 1777,
      "Ġqual": 1778,
      "Ġherr": 1779,
      "Ġgebiet": 1780,
      "ahlung": 1781,
      "Ġsomit": 1782,
      "zeichnung": 1783,
      "Ġentwicklung": 1784,
      "Ġfrist": 1785,
      "ii": 1786,
      "haltnis": 1787,
      "Ġwo": 1788,
      "los": 1789,
      "fugt": 1790,
      "ĠmaÃŁ": 1791,
      "achten": 1792,
      "Ġiii": 1793,
      "Ġangefuhr": 1794,
      "ohn": 1795,
      "Ġgeeig": 1796,
      "Ġro": 1797,
      "Ġoffen": 1798,
      "Ġunions": 1799,
      "arif": 1800,
      "Ġdan": 1801,
      "Ġ70": 1802,
      "stehen": 1803,
      "Ġdokumen": 1804,
      "zif": 1805,
      "Ġuberpruf": 1806,
      "Ġverlang": 1807,
      "Ġbezie": 1808,
      "Ġelektr": 1809,
      "Ġunmittel": 1810,
      "Ġ81": 1811,
      "Ġ2016": 1812,
      "esse": 1813,
      "Ġewr": 1814,
      "Ġumwelt": 1815,
      "Ġinvest": 1816,
      "Ġern": 1817,
      "gefuhrten": 1818,
      "Ġfallen": 1819,
      "Ġanspruch": 1820,
      "Ġlebens": 1821,
      "issen": 1822,
      "Ġit": 1823,
      "Ġauss": 1824,
      "ack": 1825,
      "Ġschaden": 1826,
      "Ġkontroll": 1827,
      "Ġjeweil": 1828,
      "04": 1829,
      "Ġzie": 1830,
      "Ġzugang": 1831,
      "Ġorganis": 1832,
      "Ġflug": 1833,
      "haltung": 1834,
      "treff": 1835,
      "Ġihrem": 1836,
      "Ġsondern": 1837,
      "Ġubrigen": 1838,
      "je": 1839,
      "blick": 1840,
      "Ġsonst": 1841,
      "Ġzwar": 1842,
      "Ġjur": 1843,
      "tiger": 1844,
      "05": 1845,
      "Ġ76": 1846,
      "ister": 1847,
      "mitteln": 1848,
      "Ġ04": 1849,
      "Ġbrussel": 1850,
      "Ġkonnte": 1851,
      "Ġ79": 1852,
      "Ġtag": 1853,
      "Ġpl": 1854,
      "Ġstellt": 1855,
      "Ġinst": 1856,
      "Ġanforderungen": 1857,
      "fah": 1858,
      "Ġverschieden": 1859,
      "Ġth": 1860,
      "vollmachtigte": 1861,
      "igungs": 1862,
      "Ġ69": 1863,
      "Ġmil": 1864,
      "Ġfinanziel": 1865,
      "Ġzusammenarbeit": 1866,
      "Ġstellungnahme": 1867,
      "Ġliste": 1868,
      "Ġdazu": 1869,
      "erg": 1870,
      "richtungen": 1871,
      "Ġhand": 1872,
      "Ġ2017": 1873,
      "gemeinschaft": 1874,
      "Ġnatur": 1875,
      "mon": 1876,
      "Ġ86": 1877,
      "Ġ1997": 1878,
      "av": 1879,
      "Ġangemessen": 1880,
      "isik": 1881,
      "Ġ02": 1882,
      "Ġ63": 1883,
      "Ġwen": 1884,
      "Ġnotwend": 1885,
      "etzung": 1886,
      "Ġhaup": 1887,
      "Ġschrift": 1888,
      "Ġ1994": 1889,
      "lungs": 1890,
      "Ġstaats": 1891,
      "Ġgegebenen": 1892,
      "08": 1893,
      "Ġnummer": 1894,
      "Ġerforderlichen": 1895,
      "Ġaeu": 1896,
      "Ġkor": 1897,
      "Ġmindestens": 1898,
      "Ġaufge": 1899,
      "ifft": 1900,
      "Ġpriv": 1901,
      "Ġihnen": 1902,
      "fuhrer": 1903,
      "Ġvorbringen": 1904,
      "Ġverwendung": 1905,
      "Ġ67": 1906,
      "Ġvertragsparteien": 1907,
      "Ġgegenstand": 1908,
      "maÃŁnahmen": 1909,
      "Ġauslegung": 1910,
      "behorde": 1911,
      "Ġallgemeinen": 1912,
      "Ġbehorde": 1913,
      "hung": 1914,
      "Ġhinblick": 1915,
      "Ġzuwider": 1916,
      "Ġverbind": 1917,
      "Ġgrunden": 1918,
      "Ġvertreten": 1919,
      "Î±": 1920,
      "stimm": 1921,
      "Ġdel": 1922,
      "unternehmen": 1923,
      "Ġjede": 1924,
      "Ġ1996": 1925,
      "Ġprogramm": 1926,
      "Ġ07": 1927,
      "Ġ66": 1928,
      "Ġletz": 1929,
      "Ġ62": 1930,
      "Ġfestgestellt": 1931,
      "Ġentgegen": 1932,
      "Ġindu": 1933,
      "Ġgewahrt": 1934,
      "Ġluft": 1935,
      "Ġ72": 1936,
      "dit": 1937,
      "Ġ78": 1938,
      "Ġursprung": 1939,
      "Ġuberwach": 1940,
      "Ġdurchfuhrungs": 1941,
      "wort": 1942,
      "ment": 1943,
      "Ġaeuv": 1944,
      "Ġad": 1945,
      "Ġunternehmens": 1946,
      "Ġlux": 1947,
      "Ġbetroffenen": 1948,
      "Ġprozess": 1949,
      "Ġdis": 1950,
      "ard": 1951,
      "Ġtab": 1952,
      "Ġersuch": 1953,
      "forderung": 1954,
      "nungen": 1955,
      "ob": 1956,
      "echt": 1957,
      "ichten": 1958,
      "Ġfun": 1959,
      "ark": 1960,
      "Ġarg": 1961,
      "Ġverletz": 1962,
      "durch": 1963,
      "Ġbetreffend": 1964,
      "Ġres": 1965,
      "Ġgenehmigung": 1966,
      "Ġsech": 1967,
      "Ġfestzustellen": 1968,
      "itik": 1969,
      "nehm": 1970,
      "abhang": 1971,
      "Ð°": 1972,
      "ay": 1973,
      "Ġ1995": 1974,
      "Ġinso": 1975,
      "Ġvors": 1976,
      "Ġvorliegen": 1977,
      "oren": 1978,
      "Ġwort": 1979,
      "Ġbeein": 1980,
      "Ġgewesen": 1981,
      "Ġ05": 1982,
      "Ġten": 1983,
      "Ġbetrag": 1984,
      "Ġbo": 1985,
      "Ġvergleich": 1986,
      "Ġhandels": 1987,
      "Ġeuro": 1988,
      "Ġhervor": 1989,
      "Ġausdruck": 1990,
      "Ġauffassung": 1991,
      "06": 1992,
      "itats": 1993,
      "ausch": 1994,
      "bracht": 1995,
      "angehor": 1996,
      "gebiet": 1997,
      "Ġ2018": 1998,
      "eitet": 1999,
      "Ġmarke": 2000,
      "Ġac": 2001,
      "Ġgegebenenfalls": 2002,
      "Ġbesteht": 2003,
      "pol": 2004,
      "Ġunterschie": 2005,
      "Ġeben": 2006,
      "kosten": 2007,
      "Ġant": 2008,
      "eid": 2009,
      "Ġ74": 2010,
      "Ġentsprechend": 2011,
      "Ġgesund": 2012,
      "Ġdort": 2013,
      "eln": 2014,
      "anwalt": 2015,
      "wirkungen": 2016,
      "gerung": 2017,
      "organ": 2018,
      "Ġargumen": 2019,
      "vis": 2020,
      "Ġ03": 2021,
      "Ġbeantragt": 2022,
      "Ġweise": 2023,
      "Ġfrag": 2024,
      "Ġgeb": 2025,
      "Ġunmittelbar": 2026,
      "Ġ83": 2027,
      "Ġfunf": 2028,
      "assen": 2029,
      "schein": 2030,
      "itaten": 2031,
      "til": 2032,
      "ssprache": 2033,
      "Ġgeldb": 2034,
      "Ġverwendet": 2035,
      "Ġspezif": 2036,
      "Ġbau": 2037,
      "Ġport": 2038,
      "Ġergibt": 2039,
      "ert": 2040,
      "indung": 2041,
      "lanz": 2042,
      "Ġursprungs": 2043,
      "Ġsollten": 2044,
      "eite": 2045,
      "Ġbeiden": 2046,
      "Ġdarf": 2047,
      "Ġat": 2048,
      "Ġluxem": 2049,
      "co": 2050,
      "Ġunabhang": 2051,
      "Ġ08": 2052,
      "Ġfragen": 2053,
      "alten": 2054,
      "Ġdahin": 2055,
      "Ġsicherheit": 2056,
      "stelle": 2057,
      "Ġgu": 2058,
      "Ġhinaus": 2059,
      "Ġerhalten": 2060,
      "enzen": 2061,
      "Ġerreich": 2062,
      "port": 2063,
      "folge": 2064,
      "tragung": 2065,
      "Ġabschnitt": 2066,
      "Ġmacht": 2067,
      "Ġbeurteilung": 2068,
      "Ġerm": 2069,
      "tum": 2070,
      "utter": 2071,
      "Ġkapital": 2072,
      "Ġberucksichtigung": 2073,
      "Ġamt": 2074,
      "Ġiv": 2075,
      "eichen": 2076,
      "hebung": 2077,
      "Ġerwagung": 2078,
      "Ġfrank": 2079,
      "Ġsiehe": 2080,
      "Ġgeh": 2081,
      "Ġaut": 2082,
      "Ġvorge": 2083,
      "Ġec": 2084,
      "Ġbeschrank": 2085,
      "Ġschiff": 2086,
      "bh": 2087,
      "Ġwissen": 2088,
      "eren": 2089,
      "Ġdurfen": 2090,
      "Ġvollstand": 2091,
      "wand": 2092,
      "Ġbedeutung": 2093,
      "uh": 2094,
      "ausschuss": 2095,
      "Ġhar": 2096,
      "Ġweil": 2097,
      "ĠauÃŁerdem": 2098,
      "Ġbetriebs": 2099,
      "Ġverwendeten": 2100,
      "Ġherstellen": 2101,
      "Ġgerichtshofes": 2102,
      "Ġkonnten": 2103,
      "Ġfestgelegt": 2104,
      "ĠÐ": 2105,
      "Î¹": 2106,
      "Ġverfahrenssprache": 2107,
      "Ġtragt": 2108,
      "Ġindustr": 2109,
      "Ġabw": 2110,
      "Ġeinzu": 2111,
      "Ġfischer": 2112,
      "Ġrisik": 2113,
      "Ġtatigkeit": 2114,
      "bedingungen": 2115,
      "Ġarbeitnehmer": 2116,
      "Ġprufen": 2117,
      "onnen": 2118,
      "Ġverhalten": 2119,
      "Ġbinnen": 2120,
      "Ġy": 2121,
      "Ġanlage": 2122,
      "Ġ1993": 2123,
      "Ġinvestition": 2124,
      "redit": 2125,
      "Î¿": 2126,
      "Ġverbunden": 2127,
      "Ġetwa": 2128,
      "laub": 2129,
      "Ġmitteilung": 2130,
      "zei": 2131,
      "Ġsache": 2132,
      "Ġentsprechen": 2133,
      "Ġbekannt": 2134,
      "Ġbestat": 2135,
      "pe": 2136,
      "ou": 2137,
      "Ġkriterien": 2138,
      "Ġfi": 2139,
      "Ġweder": 2140,
      "Ġfolgt": 2141,
      "Ġbegrundung": 2142,
      "gesellschaft": 2143,
      "stellt": 2144,
      "einbar": 2145,
      "Ġkennt": 2146,
      "07": 2147,
      "Ġvorlage": 2148,
      "Ġneuen": 2149,
      "haben": 2150,
      "Ġvereinbarung": 2151,
      "ktionen": 2152,
      "Ġeingereicht": 2153,
      "ellschaften": 2154,
      "Ġmod": 2155,
      "Ġkontrolle": 2156,
      "Ġentscheidungen": 2157,
      "arbeitung": 2158,
      "bestimm": 2159,
      "Ġauszulegen": 2160,
      "Ġerheb": 2161,
      "eisen": 2162,
      "eiz": 2163,
      "Ġlage": 2164,
      "Ġkonne": 2165,
      "Ġmoglichkeit": 2166,
      "Ġtatigkeiten": 2167,
      "Ġkg": 2168,
      "33": 2169,
      "ft": 2170,
      "Ġwettbewerb": 2171,
      "Ġenerg": 2172,
      "leisch": 2173,
      "Ġ06": 2174,
      "ssystem": 2175,
      "aler": 2176,
      "igungen": 2177,
      "gar": 2178,
      "geschlossen": 2179,
      "Ġgestell": 2180,
      "yn": 2181,
      "annten": 2182,
      "Ġgefahr": 2183,
      "Ġlauf": 2184,
      "Ġeinheit": 2185,
      "gewiesen": 2186,
      "Ġph": 2187,
      "Ġproduktion": 2188,
      "Ġverpflichtung": 2189,
      "Ġwesentlichen": 2190,
      "Ġ82": 2191,
      "Ġjahre": 2192,
      "Ġwerde": 2193,
      "Ġseinen": 2194,
      "Ġgrundung": 2195,
      "99": 2196,
      "gew": 2197,
      "dienste": 2198,
      "stimmung": 2199,
      "Ġbur": 2200,
      "Ġrechnungs": 2201,
      "Ġstelle": 2202,
      "fon": 2203,
      "stellungs": 2204,
      "Ġklagegrund": 2205,
      "Ġass": 2206,
      "Ġluxemburg": 2207,
      "Ġahn": 2208,
      "Ġerster": 2209,
      "Ġentspr": 2210,
      "cht": 2211,
      "Ġjahres": 2212,
      "Ġrechte": 2213,
      "Ġnationale": 2214,
      "Ġweniger": 2215,
      "Ġgerichtshofs": 2216,
      "Ġinsoweit": 2217,
      "Ġ1992": 2218,
      "trach": 2219,
      "Ġfeststellung": 2220,
      "Ġme": 2221,
      "Ġdu": 2222,
      "Ġbetrifft": 2223,
      "Ġdritten": 2224,
      "Ġausgenommen": 2225,
      "zeuge": 2226,
      "neten": 2227,
      "Ġaug": 2228,
      "ters": 2229,
      "Ġstaatliche": 2230,
      "tisch": 2231,
      "Ġ&": 2232,
      "Ġstaaten": 2233,
      "selben": 2234,
      "Ġdadurch": 2235,
      "Ġort": 2236,
      "ement": 2237,
      "Ġverpflichtet": 2238,
      "vention": 2239,
      "Ġsan": 2240,
      "Ġauswirkungen": 2241,
      "fe": 2242,
      "istr": 2243,
      "rechte": 2244,
      "urs": 2245,
      "Ġeinzelnen": 2246,
      "Ġgm": 2247,
      "Ġbestand": 2248,
      "Ġleit": 2249,
      "ĠgeldbuÃŁ": 2250,
      "Ġallen": 2251,
      "Ġlandwirtschaft": 2252,
      "Ġuberschrei": 2253,
      "Ġpun": 2254,
      "Ġdafur": 2255,
      "Ġvorgesch": 2256,
      "Ġwerk": 2257,
      "Ġihres": 2258,
      "alis": 2259,
      "Ġsolchen": 2260,
      "Ġtransp": 2261,
      "Ġprasident": 2262,
      "Ġerste": 2263,
      "Ġdauer": 2264,
      "hol": 2265,
      "Ġkons": 2266,
      "Ġhilf": 2267,
      "gestellten": 2268,
      "Ġ2019": 2269,
      "Ġdaruber": 2270,
      "Ġgemacht": 2271,
      "hilfe": 2272,
      "Ġunzu": 2273,
      "Ġmehrwert": 2274,
      "one": 2275,
      "wur": 2276,
      "ite": 2277,
      "Ġerwagungs": 2278,
      "Ġsachver": 2279,
      "bt": 2280,
      "Ġtext": 2281,
      "Ġschwer": 2282,
      "fuhren": 2283,
      "zeichnet": 2284,
      "ÅĤ": 2285,
      "ats": 2286,
      "Ġaugust": 2287,
      "Ġgas": 2288,
      "ca": 2289,
      "Ġbeeintrach": 2290,
      "Ġprozessbe": 2291,
      "Ġ09": 2292,
      "anger": 2293,
      "frist": 2294,
      "Ġfrankreich": 2295,
      "Ġmo": 2296,
      "Ġbem": 2297,
      "schlieÃŁ": 2298,
      "Ġverhaltnis": 2299,
      "Ġnichtig": 2300,
      "Ð¸": 2301,
      "Ġrechtsstr": 2302,
      "weg": 2303,
      "Ġgemeinsame": 2304,
      "Ġvereinigten": 2305,
      "Ġag": 2306,
      "Ġausub": 2307,
      "Ġvorschlag": 2308,
      "inder": 2309,
      "achst": 2310,
      "cher": 2311,
      "Ġter": 2312,
      "Ġmitglieder": 2313,
      "Ġunterab": 2314,
      "Ġneue": 2315,
      "Ġjeden": 2316,
      "itten": 2317,
      "Ġausnahme": 2318,
      "Ġober": 2319,
      "emen": 2320,
      "Ġvol": 2321,
      "Ġspanien": 2322,
      "Ġansicht": 2323,
      "sterreich": 2324,
      "eine": 2325,
      "Ġausschusses": 2326,
      "kammer": 2327,
      "Ġjahren": 2328,
      "klarung": 2329,
      "inen": 2330,
      "leistungen": 2331,
      "Ġanges": 2332,
      "verkehrs": 2333,
      "Ġhersteller": 2334,
      "Ġubermittel": 2335,
      "wahl": 2336,
      "ieb": 2337,
      "Ġanderer": 2338,
      "Ġmio": 2339,
      "Ġzun": 2340,
      "Ġpflanz": 2341,
      "lichung": 2342,
      "Ġendg": 2343,
      "Ġberucksichtigt": 2344,
      "stehender": 2345,
      "bre": 2346,
      "Ġanhangs": 2347,
      "vers": 2348,
      "Ġgrie": 2349,
      "Ġferner": 2350,
      "Ġvertragspartei": 2351,
      "09": 2352,
      "griff": 2353,
      "Ġgesellschaft": 2354,
      "Ġnutz": 2355,
      "Ġmachen": 2356,
      "Ġmarken": 2357,
      "12": 2358,
      "Ġverbindung": 2359,
      "Ġper": 2360,
      "ax": 2361,
      "Ġerhoben": 2362,
      "Ġkur": 2363,
      "ategor": 2364,
      "verordnung": 2365,
      "haber": 2366,
      "aly": 2367,
      "Ġerlass": 2368,
      "ande": 2369,
      "reibung": 2370,
      "Ġsicherheits": 2371,
      "tungs": 2372,
      "are": 2373,
      "Ġbeteiligung": 2374,
      "rimin": 2375,
      "alte": 2376,
      "Ġkeinen": 2377,
      "Ġausgaben": 2378,
      "sweise": 2379,
      "Ġdefin": 2380,
      "ĠÎ": 2381,
      "Ġnachstehender": 2382,
      "Ġhaf": 2383,
      "Ġosterreich": 2384,
      "Ġunterschied": 2385,
      "uld": 2386,
      "Ġdenn": 2387,
      "Ġord": 2388,
      "Ġwirksam": 2389,
      "Ġunterlie": 2390,
      "Ġeigenen": 2391,
      "Ġbetrieb": 2392,
      "Ġgmbh": 2393,
      "Ġumsatz": 2394,
      "Ġbestehen": 2395,
      "Ġinteresse": 2396,
      "schr": 2397,
      "Ġfort": 2398,
      "fel": 2399,
      "Ġsor": 2400,
      "gang": 2401,
      "Ġtreff": 2402,
      "regel": 2403,
      "Ġerwer": 2404,
      "itts": 2405,
      "Ġerganz": 2406,
      "Ġfuhren": 2407,
      "zn": 2408,
      "Ġerfullt": 2409,
      "Ġstoff": 2410,
      "nisses": 2411,
      "Ġportug": 2412,
      "Ġverwaltung": 2413,
      "Ġseinem": 2414,
      "Ġstreit": 2415,
      "13": 2416,
      "Ġklagerinnen": 2417,
      "Ġti": 2418,
      "Ġbelgien": 2419,
      "stuck": 2420,
      "anten": 2421,
      "cl": 2422,
      "ique": 2423,
      "Ġser": 2424,
      "Ġzuwiderhandlung": 2425,
      "Ġzugelassen": 2426,
      "Ġtechnischen": 2427,
      "Ġwelche": 2428,
      "Ġvorgelegt": 2429,
      "Ġbereit": 2430,
      "Ġtragen": 2431,
      "Ġkenntnis": 2432,
      "ĠmuÃŁ": 2433,
      "Ġhandelt": 2434,
      "ald": 2435,
      "Ġverant": 2436,
      "Ġparlament": 2437,
      "Ġfischerei": 2438,
      "Ġeigentum": 2439,
      "cker": 2440,
      "ive": 2441,
      "Ġlin": 2442,
      "Ġgeht": 2443,
      "Ġkanz": 2444,
      "sicherungs": 2445,
      "Ġ2020": 2446,
      "Ġbg": 2447,
      "Ġverbraucher": 2448,
      "Ġ1990": 2449,
      "apier": 2450,
      "Ġagr": 2451,
      "streck": 2452,
      "Ġmed": 2453,
      "Ġrandnrn": 2454,
      "Ġdurchgefuhrt": 2455,
      "gericht": 2456,
      "Ġwobei": 2457,
      "Ġgeltenden": 2458,
      "bezogen": 2459,
      "uchen": 2460,
      "Ġplan": 2461,
      "Ġverbess": 2462,
      "Ġfahrzeug": 2463,
      "ekte": 2464,
      "Ġeinfuhren": 2465,
      "verw": 2466,
      "Ġunbe": 2467,
      "Ġvertre": 2468,
      "Ġvertrages": 2469,
      "Ġurteile": 2470,
      "Ġtatsachlich": 2471,
      "abil": 2472,
      "eim": 2473,
      "ure": 2474,
      "elev": 2475,
      "Ġzentr": 2476,
      "Ġangegeben": 2477,
      "Ġunterstutzung": 2478,
      "glich": 2479,
      "dar": 2480,
      "Ġ1991": 2481,
      "zen": 2482,
      "Ġsozial": 2483,
      "maÃŁig": 2484,
      "Ġberucksichtigen": 2485,
      "Ġfunktion": 2486,
      "Ġbeteiligten": 2487,
      "Ġallein": 2488,
      "ose": 2489,
      "tifiz": 2490,
      "iffer": 2491,
      "mun": 2492,
      "vertrag": 2493,
      "marke": 2494,
      "republik": 2495,
      "Ġerhalt": 2496,
      "Ġrichter": 2497,
      "Ġwohn": 2498,
      "Ġbank": 2499,
      "entscheidungs": 2500,
      "Ġharmon": 2501,
      "ultig": 2502,
      "gemaÃŁ": 2503,
      "jen": 2504,
      "bare": 2505,
      "Ġausreich": 2506,
      "Ġanmel": 2507,
      "Ġkonk": 2508,
      "Ġergeben": 2509,
      "Ġsub": 2510,
      "Ġsowohl": 2511,
      "Ġniederlan": 2512,
      "stehenden": 2513,
      "zustellen": 2514,
      "Ġfestlegung": 2515,
      "zun": 2516,
      "Ġvorlauf": 2517,
      "hende": 2518,
      "Ġhol": 2519,
      "Ġfestgelegten": 2520,
      "10": 2521,
      "handel": 2522,
      "Ġubereinkommens": 2523,
      "Ġsteht": 2524,
      "aren": 2525,
      "ian": 2526,
      "Ġaufhebung": 2527,
      "Ġinternationalen": 2528,
      "Ġwasser": 2529,
      "Ġpart": 2530,
      "Ġenthalt": 2531,
      "Ġkonz": 2532,
      "Ġangebo": 2533,
      "tim": 2534,
      "Ġvorlegen": 2535,
      "Ġindem": 2536,
      "Ġon": 2537,
      "Ġtabelle": 2538,
      "ator": 2539,
      "Ġeinkl": 2540,
      "eter": 2541,
      "Ġeinrichtungen": 2542,
      "gram": 2543,
      "Ġbeschwerdekammer": 2544,
      "Ġeinklang": 2545,
      "liches": 2546,
      "Ġziele": 2547,
      "Ġkauf": 2548,
      "einigung": 2549,
      "ro": 2550,
      "Ġforsch": 2551,
      "Ġbegrunde": 2552,
      "Ġumsetzung": 2553,
      "punkte": 2554,
      "Ġseit": 2555,
      "Ġas": 2556,
      "Ġbesitz": 2557,
      "Ġvertrau": 2558,
      "Ġfalle": 2559,
      "Ġkart": 2560,
      "Ġharmonis": 2561,
      "Ġak": 2562,
      "Ġwiderspruch": 2563,
      "Ġgerichtet": 2564,
      "inger": 2565,
      "Ġkoh": 2566,
      "regelung": 2567,
      "Ġbeweis": 2568,
      "auer": 2569,
      "tsetzung": 2570,
      "krimin": 2571,
      "Ġdabei": 2572,
      "Ġbas": 2573,
      "Ġkn": 2574,
      "ve": 2575,
      "zunehmen": 2576,
      "Ġweitere": 2577,
      "Ġschaf": 2578,
      "feh": 2579,
      "Ġentspricht": 2580,
      "Ġmindest": 2581,
      "Ġagen": 2582,
      "Ġannahme": 2583,
      "zt": 2584,
      "Ġbericht": 2585,
      "Ġzin": 2586,
      "Ġvorbeh": 2587,
      "Ġvier": 2588,
      "Ġverfugung": 2589,
      "ÃŁen": 2590,
      "Ġhoheits": 2591,
      "Ġtenor": 2592,
      "ankt": 2593,
      "sse": 2594,
      "leisten": 2595,
      "Ġfraglichen": 2596,
      "gu": 2597,
      "Ġgruppe": 2598,
      "Ġantrage": 2599,
      "Ġbestimmter": 2600,
      "verb": 2601,
      "Ġwirkung": 2602,
      "sehen": 2603,
      "Ġverbindlich": 2604,
      "Ġenergie": 2605,
      "stoffe": 2606,
      "Ġwortla": 2607,
      "ra": 2608,
      "ĠâĢĺ": 2609,
      "Ġforderung": 2610,
      "Ġdeshalb": 2611,
      "cken": 2612,
      "Ġpersonal": 2613,
      "Ġumstanden": 2614,
      "Ġvorgenommen": 2615,
      "Ġvorzu": 2616,
      "best": 2617,
      "ative": 2618,
      "oten": 2619,
      "Ġausgleich": 2620,
      "pflicht": 2621,
      "Ġentsprechenden": 2622,
      "ina": 2623,
      "19": 2624,
      "Ġdire": 2625,
      "Ġbetreffende": 2626,
      "ump": 2627,
      "Ġchem": 2628,
      "Ġumfang": 2629,
      "Ðµ": 2630,
      "Ġrei": 2631,
      "Ġtra": 2632,
      "betrag": 2633,
      "Ġordnungs": 2634,
      "tigten": 2635,
      "Ġbeitr": 2636,
      "Ġfolglich": 2637,
      "asse": 2638,
      "Ġgetroffen": 2639,
      "Ġverschiedenen": 2640,
      "ij": 2641,
      "erzeugnisse": 2642,
      "Ġstaatsangehor": 2643,
      "Ġvorhaben": 2644,
      "Ġbewertung": 2645,
      "Ġausubung": 2646,
      "tat": 2647,
      "bring": 2648,
      "wirkung": 2649,
      "Ġprotokolls": 2650,
      "ice": 2651,
      "nete": 2652,
      "grenz": 2653,
      "Ġabschluss": 2654,
      "Ð¾": 2655,
      "Ġhaupt": 2656,
      "Ġerfolgt": 2657,
      "oglichen": 2658,
      "Ġrechnung": 2659,
      "25": 2660,
      "Ġstra": 2661,
      "Ġtarif": 2662,
      "gangs": 2663,
      "setzen": 2664,
      "organis": 2665,
      "gesamt": 2666,
      "barkeit": 2667,
      "Ġmehrwertsteuer": 2668,
      "Ġstatt": 2669,
      "Ġdarin": 2670,
      "Ġunterlagen": 2671,
      "Ġbeklagte": 2672,
      "Ġstraf": 2673,
      "Ġlt": 2674,
      "Ġfla": 2675,
      "Ġtreffen": 2676,
      "Ġvi": 2677,
      "14": 2678,
      "Ġbesonderen": 2679,
      "Ġzwecke": 2680,
      "Ġrechtsmittelfuhrer": 2681,
      "rank": 2682,
      "Ġauftrag": 2683,
      "pack": 2684,
      "Ġleg": 2685,
      "Ġstreitigen": 2686,
      "Ġeinschlag": 2687,
      "Ġkredit": 2688,
      "mittlung": 2689,
      "Ġhab": 2690,
      "bestimmungen": 2691,
      "achtet": 2692,
      "Ġfa": 2693,
      "Ġzunachst": 2694,
      "krafttreten": 2695,
      "gut": 2696,
      "klart": 2697,
      "gruppe": 2698,
      "Ġveroffentlicht": 2699,
      "Ġmilch": 2700,
      "Ġwirtschaftsgemeinschaft": 2701,
      "ĠausschlieÃŁlich": 2702,
      "uppen": 2703,
      "uster": 2704,
      "gehen": 2705,
      "Ġbl": 2706,
      "Ġwissenschaft": 2707,
      "Ġangewand": 2708,
      "Ġgewahrleisten": 2709,
      "Ġmetho": 2710,
      "Ġvan": 2711,
      "Ġrelev": 2712,
      "erken": 2713,
      "Ġblei": 2714,
      "maÃŁigkeit": 2715,
      "etzt": 2716,
      "ity": 2717,
      "Ġinsgesamt": 2718,
      "break": 2719,
      "kom": 2720,
      "Ġgehor": 2721,
      "Ġfuhrt": 2722,
      "15": 2723,
      "erlegen": 2724,
      "Ġverkehrs": 2725,
      "Ġzahlung": 2726,
      "Ġerf": 2727,
      "behorden": 2728,
      "gend": 2729,
      "Ġeingegangen": 2730,
      "haus": 2731,
      "Ġwirtschaftlichen": 2732,
      "fertigt": 2733,
      "Ġmus": 2734,
      "Ġanderungen": 2735,
      "Ġzweite": 2736,
      "Ġwortlaut": 2737,
      "Ġleitlinien": 2738,
      "Ġangeb": 2739,
      "ochen": 2740,
      "ĠÃ": 2741,
      "merk": 2742,
      "Ġausgefuhrt": 2743,
      "Ġáĥ": 2744,
      "Ġuberschreitet": 2745,
      "Ġlang": 2746,
      "uts": 2747,
      "behandlung": 2748,
      "kenn": 2749,
      "Ġkunden": 2750,
      "23": 2751,
      "Ġdat": 2752,
      "Ġstahl": 2753,
      "bildung": 2754,
      "Ġinkrafttreten": 2755,
      "beschluss": 2756,
      "last": 2757,
      "ferenz": 2758,
      "ari": 2759,
      "Ġaufgaben": 2760,
      "ĠâĢĻ": 2761,
      "Ġbie": 2762,
      "ordin": 2763,
      "kunft": 2764,
      "Ġmund": 2765,
      "abkommen": 2766,
      "Ġunge": 2767,
      "Ġbeamten": 2768,
      "raum": 2769,
      "nach": 2770,
      "Ġbefug": 2771,
      "Ġerstat": 2772,
      "fuhrung": 2773,
      "Ġnah": 2774,
      "Ġumstande": 2775,
      "Ġunterschei": 2776,
      "leistung": 2777,
      "Ġergebnis": 2778,
      "strumen": 2779,
      "Ġangesehen": 2780,
      "Ġunzulass": 2781,
      "Ġausgangsverfahren": 2782,
      "man": 2783,
      "Ġvorabentscheidungs": 2784,
      "Ġrede": 2785,
      "Ġgesetzes": 2786,
      "Ġverletzung": 2787,
      "fal": 2788,
      "Ġerklarung": 2789,
      "24": 2790,
      "Ġeff": 2791,
      "dig": 2792,
      "Ġgestellt": 2793,
      "fl": 2794,
      "Ġanhand": 2795,
      "Ġklar": 2796,
      "darf": 2797,
      "werte": 2798,
      "einander": 2799,
      "Ġanp": 2800,
      "por": 2801,
      "produ": 2802,
      "Ġindustrie": 2803,
      "ĠâĢļ": 2804,
      "Ġregeln": 2805,
      "Ġentschieden": 2806,
      "Ġanerk": 2807,
      "Ġleistungen": 2808,
      "anden": 2809,
      "Ġargumente": 2810,
      "Ġerklart": 2811,
      "wenden": 2812,
      "Ġwahl": 2813,
      "Ġumstruktur": 2814,
      "ufen": 2815,
      "immt": 2816,
      "tt": 2817,
      "ÏĦ": 2818,
      "Ġhal": 2819,
      "ci": 2820,
      "Ġmm": 2821,
      "zo": 2822,
      "igkeits": 2823,
      "ĠschlieÃŁlich": 2824,
      "Ġberechnung": 2825,
      "Ġnord": 2826,
      "gelt": 2827,
      "Ġlos": 2828,
      "Ġimport": 2829,
      "fallen": 2830,
      "Ġaufgefuhrten": 2831,
      "Ġiden": 2832,
      "Ġgeschlossen": 2833,
      "Ġzer": 2834,
      "inst": 2835,
      "Ġgewahrung": 2836,
      "Ġvorschrift": 2837,
      "ersuchen": 2838,
      "Ġwon": 2839,
      "aut": 2840,
      "Ġfrau": 2841,
      "Ġabzu": 2842,
      "17": 2843,
      "Ġus": 2844,
      "Ġermach": 2845,
      "16": 2846,
      "politik": 2847,
      "ativen": 2848,
      "Ġinteressen": 2849,
      "echsel": 2850,
      "Ġaufzuerlegen": 2851,
      "frage": 2852,
      "akte": 2853,
      "zeugen": 2854,
      "ont": 2855,
      "mitglie": 2856,
      "grei": 2857,
      "Ġaufent": 2858,
      "Ġsitu": 2859,
      "Ġviel": 2860,
      "Ġangefochtene": 2861,
      "ampf": 2862,
      "preis": 2863,
      "Ġop": 2864,
      "Ġoffentliche": 2865,
      "Ġanaly": 2866,
      "letzt": 2867,
      "fung": 2868,
      "Ġzuletzt": 2869,
      "Ġbundesrepublik": 2870,
      "Ġgleichen": 2871,
      "Ġ1988": 2872,
      "Ġfalls": 2873,
      "ult": 2874,
      "Ġfranzosischen": 2875,
      "Ġchar": 2876,
      "Ġ1989": 2877,
      "Ġgeeignet": 2878,
      "Ġverfol": 2879,
      "Ġwonach": 2880,
      "Ġdiskrimin": 2881,
      "Ġallgemeine": 2882,
      "jenigen": 2883,
      "ct": 2884,
      "Ġjedes": 2885,
      "Ġfranzosische": 2886,
      "Ġende": 2887,
      "Ġklagegrunde": 2888,
      "Ġnorm": 2889,
      "zweck": 2890,
      "digung": 2891,
      "Ġpflanzen": 2892,
      "hel": 2893,
      "Ġrechtswi": 2894,
      "Ġjeweiligen": 2895,
      "Ġbeige": 2896,
      "Ġanzuwenden": 2897,
      "ase": 2898,
      "Ġhabm": 2899,
      "Ġseines": 2900,
      "ogr": 2901,
      "Ġgef": 2902,
      "bringung": 2903,
      "eiber": 2904,
      "oper": 2905,
      "Ġsen": 2906,
      "ktoren": 2907,
      "ret": 2908,
      "Ġfer": 2909,
      "Ġsieht": 2910,
      "Ġerwagungsgrund": 2911,
      "Ġpage": 2912,
      "Ġvoraus": 2913,
      "amte": 2914,
      "haft": 2915,
      "uben": 2916,
      "50": 2917,
      "Ġhoheitsgebiet": 2918,
      "isten": 2919,
      "Ġgenau": 2920,
      "Ġpreises": 2921,
      "Ġkoordin": 2922,
      "Ġfleisch": 2923,
      "Ġgepruf": 2924,
      "Ġbew": 2925,
      "Ġteile": 2926,
      "ys": 2927,
      "langen": 2928,
      "Ġganz": 2929,
      "Ġablauf": 2930,
      "ungsan": 2931,
      "Ġhe": 2932,
      "Ġwesentliche": 2933,
      "Ġnetz": 2934,
      "sei": 2935,
      "heben": 2936,
      "our": 2937,
      "Ġpagebreak": 2938,
      "endet": 2939,
      "Ġpartei": 2940,
      "Ġ2021": 2941,
      "Ġbegunst": 2942,
      "Ġkategor": 2943,
      "Ġsamt": 2944,
      "ĠverstoÃŁen": 2945,
      "Ġangesichts": 2946,
      "bank": 2947,
      "Ġfreien": 2948,
      "Ġanwendungs": 2949,
      "arten": 2950,
      "Ġspr": 2951,
      "Ġraum": 2952,
      "Ġsk": 2953,
      "Ġstruktur": 2954,
      "Ġfru": 2955,
      "ĠbeschluÃŁ": 2956,
      "Ġanteil": 2957,
      "fonds": 2958,
      "Ġengl": 2959,
      "Ġausgangsverfahrens": 2960,
      "Ġol": 2961,
      "ifiz": 2962,
      "Ġstehenden": 2963,
      "Ġgerecht": 2964,
      "Ġuberprufung": 2965,
      "Ġentscheiden": 2966,
      "Ġpa": 2967,
      "vereinbar": 2968,
      "Ġinstanz": 2969,
      "Ð½": 2970,
      "las": 2971,
      "eiÃŁ": 2972,
      "Ġsal": 2973,
      "Ġunterr": 2974,
      "Ġgewer": 2975,
      "Ġdaraus": 2976,
      "Ġsu": 2977,
      "Ġgesamten": 2978,
      "Ġerklarungen": 2979,
      "Ġnachweis": 2980,
      "29": 2981,
      "Ġversch": 2982,
      "Ġherstellung": 2983,
      "18": 2984,
      "Ġfam": 2985,
      "Ġbehandlung": 2986,
      "Ġvorabentscheidung": 2987,
      "ief": 2988,
      "Ġuntersuchung": 2989,
      "schinen": 2990,
      "ĠgeldbuÃŁe": 2991,
      "kap": 2992,
      "Ġminister": 2993,
      "Ġstehen": 2994,
      "atom": 2995,
      "Ġged": 2996,
      "ichtiger": 2997,
      "Ġfinanziellen": 2998,
      "lehen": 2999,
      "Ġledig": 3000,
      "Ġgibt": 3001,
      "Ġapp": 3002,
      "Ġeinf": 3003,
      "Ġklein": 3004,
      "setzt": 3005,
      "landern": 3006,
      "Ġslo": 3007,
      "sicherung": 3008,
      "Ġbesondere": 3009,
      "Ġagentur": 3010,
      "Ġbegrenz": 3011,
      "Ġpreise": 3012,
      "Ġlediglich": 3013,
      "Ġumstand": 3014,
      "Ġbegrundet": 3015,
      "Ġtyp": 3016,
      "Ġtechnische": 3017,
      "kraf": 3018,
      "ka": 3019,
      "Ġprozessbevollmachtigte": 3020,
      "Ġendgul": 3021,
      "Ġunterabsatz": 3022,
      "ikation": 3023,
      "Ġniederland": 3024,
      "Ġubertragen": 3025,
      "Ġveran": 3026,
      "legenden": 3027,
      "Ġbevollmachtigte": 3028,
      "Ġschr": 3029,
      "Ġsollen": 3030,
      "Ġakten": 3031,
      "stehend": 3032,
      "Ġfestsetzung": 3033,
      "berg": 3034,
      "Ġersuchen": 3035,
      "ote": 3036,
      "Ġlassen": 3037,
      "Ġberu": 3038,
      "Ġmehrere": 3039,
      "prufung": 3040,
      "Ġzuruckzuweisen": 3041,
      "Ġmerk": 3042,
      "Ġvermogen": 3043,
      "Ġ107": 3044,
      "ÑĢ": 3045,
      "system": 3046,
      "tigungs": 3047,
      "handlungen": 3048,
      "Ġdien": 3049,
      "ans": 3050,
      "Ġpu": 3051,
      "fra": 3052,
      "ost": 3053,
      "Ġvereinbarungen": 3054,
      "Ġdeutschen": 3055,
      "teten": 3056,
      "Ġtel": 3057,
      "ica": 3058,
      "44": 3059,
      "etzen": 3060,
      "Ġversicherungs": 3061,
      "zuglich": 3062,
      "Ġverantwort": 3063,
      "Ġest": 3064,
      "wurf": 3065,
      "Î½": 3066,
      "Ġerklaren": 3067,
      "Ġinhalt": 3068,
      "Ġstrom": 3069,
      "Ġkont": 3070,
      "Ġartikeln": 3071,
      "Ġfehler": 3072,
      "Ġalso": 3073,
      "Ġprodukt": 3074,
      "Ġbehaup": 3075,
      "ance": 3076,
      "Ġlandes": 3077,
      "ultur": 3078,
      "Ġzahlen": 3079,
      "Ġkommen": 3080,
      "lieÃŁen": 3081,
      "ock": 3082,
      "Ġeuratom": 3083,
      "netz": 3084,
      "Ġ104": 3085,
      "Ġnutzung": 3086,
      "vo": 3087,
      "Ġmitge": 3088,
      "va": 3089,
      "lands": 3090,
      "Ġsteuerpflich": 3091,
      "Ġuberwachung": 3092,
      "Ġgrundsatze": 3093,
      "Ġverhin": 3094,
      "Ġef": 3095,
      "Ġliegt": 3096,
      "weisung": 3097,
      "Ġgrenz": 3098,
      "arn": 3099,
      "Ġtonnen": 3100,
      "rieben": 3101,
      "onen": 3102,
      "hend": 3103,
      "Ġvertreter": 3104,
      "met": 3105,
      "Ġjurid": 3106,
      "Ġavis": 3107,
      "staatlichen": 3108,
      "Ġzucker": 3109,
      "ozi": 3110,
      "Ġbinnenmarkt": 3111,
      "Ġgenommen": 3112,
      "Ġrichtlinien": 3113,
      "bel": 3114,
      "stausch": 3115,
      "ilien": 3116,
      "Ġkunst": 3117,
      "Ġfolgendes": 3118,
      "Ġeinrichtung": 3119,
      "ana": 3120,
      "Ġmax": 3121,
      "koh": 3122,
      "Ġgut": 3123,
      "Ġuberwachungs": 3124,
      "Ġmel": 3125,
      "Ġflughaf": 3126,
      "Ġniederlande": 3127,
      "Ġschad": 3128,
      "Ġlandern": 3129,
      "antwor": 3130,
      "Ġrechtsanwalt": 3131,
      "tegr": 3132,
      "Ġans": 3133,
      "Ġpunkt": 3134,
      "Ġfolge": 3135,
      "Ġnehmen": 3136,
      "Ġergebnisse": 3137,
      "Ġanwendbar": 3138,
      "Ġdritte": 3139,
      "Ġimportant": 3140,
      "Ġgesundheits": 3141,
      "atze": 3142,
      "53": 3143,
      "leitung": 3144,
      "Ġjuridique": 3145,
      "genannten": 3146,
      "Ġmein": 3147,
      "Ġverr": 3148,
      "gesellschaften": 3149,
      "Ġdaran": 3150,
      "Ġrechtfer": 3151,
      "Ġangenommen": 3152,
      "izien": 3153,
      "Ġkurz": 3154,
      "Ġmark": 3155,
      "programm": 3156,
      "Ġhinzuweisen": 3157,
      "Ġebenfalls": 3158,
      "Ġgezahl": 3159,
      "znei": 3160,
      "Ġgenu": 3161,
      "ome": 3162,
      "erseits": 3163,
      "arbeitet": 3164,
      "Ġunabhangig": 3165,
      "ionen": 3166,
      "Ġauswahl": 3167,
      "Ġitalienischen": 3168,
      "Ġhochst": 3169,
      "uter": 3170,
      "Ġbi": 3171,
      "Ġelektron": 3172,
      "Ġanhor": 3173,
      "uhren": 3174,
      "Ġfinn": 3175,
      "timmen": 3176,
      "Ġmonaten": 3177,
      "unsten": 3178,
      "Ġgenannt": 3179,
      "omat": 3180,
      "Ġcomp": 3181,
      "spiel": 3182,
      "gesetzten": 3183,
      "Ġstoffe": 3184,
      "gest": 3185,
      "Ġermessen": 3186,
      "Îµ": 3187,
      "Ġhinweis": 3188,
      "isches": 3189,
      "Ġzahlungs": 3190,
      "fehler": 3191,
      "Ġmengen": 3192,
      "Ġrechtsstreit": 3193,
      "Ġanlagen": 3194,
      "zb": 3195,
      "zip": 3196,
      "Ġschwier": 3197,
      "irk": 3198,
      "ĠÂ°": 3199,
      "Ġvorabentscheidungsersuchen": 3200,
      "Ġbefin": 3201,
      "Ġdo": 3202,
      "Ġlebensmittel": 3203,
      "Ġeurope": 3204,
      "Ġubermittelt": 3205,
      "Ġerziel": 3206,
      "ĠordnungsgemaÃŁ": 3207,
      "Ġherrn": 3208,
      "Ġbeklagten": 3209,
      "staats": 3210,
      "deten": 3211,
      "Ġalter": 3212,
      "Ġspater": 3213,
      "hoben": 3214,
      "ph": 3215,
      "mass": 3216,
      "ign": 3217,
      "angen": 3218,
      "stens": 3219,
      "lassung": 3220,
      "Ġteilweise": 3221,
      "Ġerteilt": 3222,
      "Ġstad": 3223,
      "Ġaktiv": 3224,
      "Ġsituation": 3225,
      "Ġeinschlagigen": 3226,
      "Ġjedem": 3227,
      "Ġgenehmigt": 3228,
      "Ġsonstigen": 3229,
      "Ġsehr": 3230,
      "ox": 3231,
      "tiert": 3232,
      "uman": 3233,
      "Ġbar": 3234,
      "fragen": 3235,
      "Ġfinanzierung": 3236,
      "ausschusses": 3237,
      "Ġzustandige": 3238,
      "ordnungen": 3239,
      "Ġhierzu": 3240,
      "Ïģ": 3241,
      "Ġgenannte": 3242,
      "Ġqualitat": 3243,
      "ied": 3244,
      "Ġra": 3245,
      "Ġeinhaltung": 3246,
      "Ġdir": 3247,
      "Ġvert": 3248,
      "ions": 3249,
      "umping": 3250,
      "iti": 3251,
      "Ġjurist": 3252,
      "Ġabsatze": 3253,
      "Ġschwe": 3254,
      "Ġ1983": 3255,
      "Ġbefrei": 3256,
      "schnitt": 3257,
      "Ġangemel": 3258,
      "Ġseite": 3259,
      "Ġhaushaltsjahr": 3260,
      "Ġ1987": 3261,
      "zahlung": 3262,
      "hungen": 3263,
      "Ġltd": 3264,
      "Ġausdrucklich": 3265,
      "Ġintegr": 3266,
      "Ġgesundheit": 3267,
      "Ġdarlehen": 3268,
      "Ġwor": 3269,
      "ile": 3270,
      "Ġtur": 3271,
      "fordert": 3272,
      "Ġtrag": 3273,
      "Ġabweich": 3274,
      "Ġjeweils": 3275,
      "beteil": 3276,
      "Ġangewandt": 3277,
      "Ġempfeh": 3278,
      "Ġbegrund": 3279,
      "Ġvorher": 3280,
      "handen": 3281,
      "Ġrisiko": 3282,
      "Ġangefuhrte": 3283,
      "rechtlichen": 3284,
      "27": 3285,
      "liefer": 3286,
      "Ġorganisation": 3287,
      "Ġverarbeitung": 3288,
      "Ġliz": 3289,
      "Ġgepruft": 3290,
      "dex": 3291,
      "Ġtatsachlichen": 3292,
      "eiben": 3293,
      "zeuger": 3294,
      "Ġroh": 3295,
      "dert": 3296,
      "Ġitalienische": 3297,
      "dien": 3298,
      "tic": 3299,
      "bahn": 3300,
      "39": 3301,
      "stoffen": 3302,
      "zur": 3303,
      "Ġeinfuhrung": 3304,
      "zeichen": 3305,
      "Ġcar": 3306,
      "itte": 3307,
      "bin": 3308,
      "erkennung": 3309,
      "Ġbestatigt": 3310,
      "Ġangabe": 3311,
      "Ġtechnolog": 3312,
      "Ġ1986": 3313,
      "Ġproj": 3314,
      "Ġweiteren": 3315,
      "Ġnachdem": 3316,
      "ollen": 3317,
      "sche": 3318,
      "Ġmill": 3319,
      "Ġinfolge": 3320,
      "gramme": 3321,
      "Ġemission": 3322,
      "falle": 3323,
      "Ġvorhanden": 3324,
      "Ġvo": 3325,
      "Ġverbr": 3326,
      "Ġmangel": 3327,
      "Ġassozi": 3328,
      "zep": 3329,
      "Ġzustandigkeit": 3330,
      "ochter": 3331,
      "Ġzulassung": 3332,
      "ossen": 3333,
      "Ġausser": 3334,
      "moglich": 3335,
      "Ġzudem": 3336,
      "Ġanti": 3337,
      "Ġzugunsten": 3338,
      "kontr": 3339,
      "ÑĤ": 3340,
      "Ġnichts": 3341,
      "Ġmog": 3342,
      "zer": 3343,
      "Ġha": 3344,
      "Ġanmeldung": 3345,
      "mann": 3346,
      "tarif": 3347,
      "Ġhinreich": 3348,
      "Ġcor": 3349,
      "kor": 3350,
      "akter": 3351,
      "Ġantrags": 3352,
      "Ġfruher": 3353,
      "Ġtritt": 3354,
      "Ġpra": 3355,
      "iges": 3356,
      "Ġsitzung": 3357,
      "Ġeroff": 3358,
      "Ġveroffentlichung": 3359,
      "Ġtochter": 3360,
      "Ġbegrundungs": 3361,
      "Ġexcl": 3362,
      "zeitraum": 3363,
      "mus": 3364,
      "Ġaufnahme": 3365,
      "Ġverlu": 3366,
      "Ġvorgesehene": 3367,
      "Ġhy": 3368,
      "Ġgebiete": 3369,
      "Ġrandnummer": 3370,
      "Ġrechtssachen": 3371,
      "Ġ500": 3372,
      "28": 3373,
      "ps": 3374,
      "Ġgrundsatzlich": 3375,
      "zufuhren": 3376,
      "fla": 3377,
      "arbeiten": 3378,
      "Ġren": 3379,
      "echan": 3380,
      "utzen": 3381,
      "Ġabgabe": 3382,
      "Ġsolcher": 3383,
      "Ġentstanden": 3384,
      "Ġlit": 3385,
      "orgung": 3386,
      "Ġgerechtfertigt": 3387,
      "Ġziv": 3388,
      "Ġfinanzielle": 3389,
      "tischen": 3390,
      "Ġberufs": 3391,
      "atten": 3392,
      "stellungen": 3393,
      "Ġkonigreichs": 3394,
      "fahrt": 3395,
      "Ġakt": 3396,
      "ren": 3397,
      "Ġzugrunde": 3398,
      "Ġsonstige": 3399,
      "Ġprivat": 3400,
      "axis": 3401,
      "Ġslow": 3402,
      "Ġunterliegen": 3403,
      "Ġanwendungsbereich": 3404,
      "Ġihn": 3405,
      "Ġrechtlichen": 3406,
      "Ġtitel": 3407,
      "Ġstaatlichen": 3408,
      "fugen": 3409,
      "Ġneben": 3410,
      "ungsverfahren": 3411,
      "Ġev": 3412,
      "ekten": 3413,
      "Ġta": 3414,
      "Ġspat": 3415,
      "ufung": 3416,
      "Ġstatuts": 3417,
      "gegeben": 3418,
      "Ġhalt": 3419,
      "grundlage": 3420,
      "Ġnotwendig": 3421,
      "Ġbetreffen": 3422,
      "Ġeingefuhrt": 3423,
      "Ġfestgesetzt": 3424,
      "lor": 3425,
      "Ġ1980": 3426,
      "Ġwirtschaftliche": 3427,
      "Ġdienstleistungs": 3428,
      "Ġecu": 3429,
      "Ġ<": 3430,
      "Ġmuster": 3431,
      "Ġzusatzliche": 3432,
      "Ġnational": 3433,
      "Ġbehandel": 3434,
      "Ġderar": 3435,
      "Ġinhaber": 3436,
      "ue": 3437,
      "Ġ1977": 3438,
      "Ġverur": 3439,
      "leistet": 3440,
      "Ġpost": 3441,
      "Ġreferenz": 3442,
      "opp": 3443,
      "achte": 3444,
      "Ġregul": 3445,
      "auftrag": 3446,
      "Ġeinst": 3447,
      "Ġnichtiger": 3448,
      "Ġsektor": 3449,
      "Ġerzeugnissen": 3450,
      "Ġegks": 3451,
      "ummern": 3452,
      "icher": 3453,
      "Ġhinter": 3454,
      "Ġbeschrankt": 3455,
      "Ġschweiz": 3456,
      "ingt": 3457,
      "Ġrechtsanw": 3458,
      "Ġkommun": 3459,
      "Ġgebrauch": 3460,
      "halte": 3461,
      "Ġschul": 3462,
      "Ġwurdigung": 3463,
      "lex": 3464,
      "Ġeisen": 3465,
      "Ġhoher": 3466,
      "male": 3467,
      "Ġermoglichen": 3468,
      "Ġlo": 3469,
      "Ġbeschrieben": 3470,
      "Ġgultig": 3471,
      "Ġich": 3472,
      "Ġschla": 3473,
      "36": 3474,
      "Ġbeispiel": 3475,
      "griffen": 3476,
      "iellen": 3477,
      "zugs": 3478,
      "Ġ1985": 3479,
      "Ġnichtigerklarung": 3480,
      "gehalt": 3481,
      "Ġunbesch": 3482,
      "Ġobje": 3483,
      "Ġlasst": 3484,
      "dauer": 3485,
      "Ġverhandlung": 3486,
      "po": 3487,
      "Î¿Ï": 3488,
      "Ġantragsteller": 3489,
      "Ġvollstandig": 3490,
      "Ġleistungs": 3491,
      "par": 3492,
      "Ġ207": 3493,
      "Ġzweitens": 3494,
      "Ñģ": 3495,
      "kunfte": 3496,
      "na": 3497,
      "Ġ195": 3498,
      "achtung": 3499,
      "Ġausland": 3500,
      "Ġinformations": 3501,
      "Ġverteid": 3502,
      "Ġtatig": 3503,
      "Ġvorlegende": 3504,
      "itischen": 3505,
      "finanz": 3506,
      "Ġanhorung": 3507,
      "Ġarbeiten": 3508,
      "fahigkeit": 3509,
      "Ġzulassig": 3510,
      "Ġbetrage": 3511,
      "Ġarten": 3512,
      "ikations": 3513,
      "geht": 3514,
      "Ġvorbehalt": 3515,
      "Ġaktion": 3516,
      "áĥĶ": 3517,
      "Ġvii": 3518,
      "Ġdatum": 3519,
      "ktiven": 3520,
      "ehn": 3521,
      "laus": 3522,
      "Ġgeschehen": 3523,
      "Ġerstens": 3524,
      "Ġmonate": 3525,
      "waren": 3526,
      "Ġvorgelegten": 3527,
      "cen": 3528,
      "Ġles": 3529,
      "Ġ1979": 3530,
      "eide": 3531,
      "als": 3532,
      "gerichts": 3533,
      "int": 3534,
      "vollmachtigter": 3535,
      "Ġerfuell": 3536,
      "Ġkartell": 3537,
      "steil": 3538,
      "deck": 3539,
      "Ġweiterhin": 3540,
      "Ġanbie": 3541,
      "tigte": 3542,
      "Ġprasidenten": 3543,
      "Ġanerkennung": 3544,
      "iebs": 3545,
      "Ġprodukte": 3546,
      "Ġderselben": 3547,
      "Ġcz": 3548,
      "drig": 3549,
      "Ġarznei": 3550,
      "Ġantwor": 3551,
      "Ġverpack": 3552,
      "di": 3553,
      "64": 3554,
      "Ġsicherzustellen": 3555,
      "hem": 3556,
      "dings": 3557,
      "inter": 3558,
      "Ġbeschrankungen": 3559,
      "gas": 3560,
      "Ġbestehenden": 3561,
      "31": 3562,
      "Ġvermogens": 3563,
      "Ġbedarf": 3564,
      "reg": 3565,
      "antie": 3566,
      "Ġcr": 3567,
      "Ġrund": 3568,
      "Ġzolltarif": 3569,
      "Ġanderes": 3570,
      "genehm": 3571,
      "Ġbestr": 3572,
      "Ġliegen": 3573,
      "klage": 3574,
      "ograf": 3575,
      "angt": 3576,
      "Ġziffer": 3577,
      "Ġausgleichs": 3578,
      "ierungen": 3579,
      "Ġspatestens": 3580,
      "nahm": 3581,
      "nummer": 3582,
      "Ġbetracht": 3583,
      "eiger": 3584,
      "Ġstar": 3585,
      "ker": 3586,
      "kts": 3587,
      "anspruch": 3588,
      "Ġvoraussetzung": 3589,
      "Ġsud": 3590,
      "onom": 3591,
      "Ġkomp": 3592,
      "Ġverfahrensordnung": 3593,
      "Ġgemeinschaftsrecht": 3594,
      "Ġabhang": 3595,
      "Ġberat": 3596,
      "Ġkeiner": 3597,
      "Ġasp": 3598,
      "Ġpri": 3599,
      "yr": 3600,
      "00000000": 3601,
      "blem": 3602,
      "Ġfir": 3603,
      "Ġsamm": 3604,
      "Ġletzten": 3605,
      "Ġvergabe": 3606,
      "Ġebene": 3607,
      "Ġflughafen": 3608,
      "Ġlieferung": 3609,
      "frastruktur": 3610,
      "ivi": 3611,
      "Ġkapaz": 3612,
      "Ġgriech": 3613,
      "Ġinvestitionen": 3614,
      "Ġverbundenen": 3615,
      "Ġgefuhr": 3616,
      "89": 3617,
      "sitz": 3618,
      "Ġzusammenschluss": 3619,
      "Ġvertrage": 3620,
      "Ġkommt": 3621,
      "26": 3622,
      "Ġzeichen": 3623,
      "hy": 3624,
      "Ġfach": 3625,
      "strich": 3626,
      "Ġmass": 3627,
      "alts": 3628,
      "Ġmaterial": 3629,
      "teilungs": 3630,
      "Ġumfasst": 3631,
      "Ġentsprechende": 3632,
      "Ġverbesserung": 3633,
      "Ġkontrollen": 3634,
      "alter": 3635,
      "Ġmitgeteilt": 3636,
      "Ġinformation": 3637,
      "lieÃŁt": 3638,
      "Ġgerichte": 3639,
      "Ġmie": 3640,
      "Ġfon": 3641,
      "Ġvorteil": 3642,
      "Ġirland": 3643,
      "Ġou": 3644,
      "Ġfamilien": 3645,
      "Ġbezuglich": 3646,
      "pa": 3647,
      "mitglied": 3648,
      "Î·": 3649,
      "ipo": 3650,
      "dienstleistungen": 3651,
      "Ġbeschreibung": 3652,
      "eger": 3653,
      "Ġgeanderten": 3654,
      "sm": 3655,
      "kunfts": 3656,
      "ade": 3657,
      "Ġklagers": 3658,
      "kannt": 3659,
      "Ġtatsache": 3660,
      "hyl": 3661,
      "Ġausgeschlossen": 3662,
      "Ġersetzt": 3663,
      "Ġandererseits": 3664,
      "kund": 3665,
      "Ġoper": 3666,
      "bestand": 3667,
      "Ġmiss": 3668,
      "lander": 3669,
      "ym": 3670,
      "mehr": 3671,
      "abilitat": 3672,
      "Ġdanem": 3673,
      "Ġbul": 3674,
      "leiten": 3675,
      "Ġ1975": 3676,
      "leh": 3677,
      "Ġdarstellt": 3678,
      "bor": 3679,
      "Ġerzeugnis": 3680,
      "Ġportugies": 3681,
      "Ġdefinition": 3682,
      "ĠmaÃŁgabe": 3683,
      "die": 3684,
      "Ġweit": 3685,
      "Ġna": 3686,
      "standigen": 3687,
      "Ġbezeichnung": 3688,
      "Ġrel": 3689,
      "Ġkanzlei": 3690,
      "Ġsh": 3691,
      "Ġmess": 3692,
      "kret": 3693,
      "47": 3694,
      "Ġregistr": 3695,
      "Ġ1982": 3696,
      "Ġrein": 3697,
      "Ġvorgeschrieben": 3698,
      "Ġaufzuheben": 3699,
      "antrage": 3700,
      "Ġbesei": 3701,
      "ide": 3702,
      "buch": 3703,
      "Ġezb": 3704,
      "ege": 3705,
      "ole": 3706,
      "Ġberichter": 3707,
      "Ġgesellschaften": 3708,
      "Ġangefuhrt": 3709,
      "Ġantwort": 3710,
      "Ġhergestellt": 3711,
      "Ġhor": 3712,
      "Ġwit": 3713,
      "greifen": 3714,
      "Ġobwohl": 3715,
      "Ġmutter": 3716,
      "Ġ108": 3717,
      "Ġleistung": 3718,
      "Ġandern": 3719,
      "eiden": 3720,
      "schw": 3721,
      "Ġnachstehend": 3722,
      "Ġlau": 3723,
      "Ġsechs": 3724,
      "Ġvorsitz": 3725,
      "oss": 3726,
      "Ġausgestell": 3727,
      "hilfen": 3728,
      "Ġbeteiligt": 3729,
      "Ġzentral": 3730,
      "Ġgeltungs": 3731,
      "papier": 3732,
      "Ġsc": 3733,
      "Ġstud": 3734,
      "Ġtransport": 3735,
      "Ġwoh": 3736,
      "vereinbarung": 3737,
      "Ġverbot": 3738,
      "Ġbegangen": 3739,
      "position": 3740,
      "Ġdrittlandern": 3741,
      "Ġgebiets": 3742,
      "Ġzuber": 3743,
      "ĠauÃŁerhalb": 3744,
      "Ġach": 3745,
      "weder": 3746,
      "Ġton": 3747,
      "Ġstreithel": 3748,
      "Ġabgaben": 3749,
      "ividu": 3750,
      "heim": 3751,
      "uk": 3752,
      "machung": 3753,
      "Ġerfolgen": 3754,
      "Ġersatz": 3755,
      "Ġgeneralanwalt": 3756,
      "ea": 3757,
      "da": 3758,
      "Ġindividu": 3759,
      "seits": 3760,
      "Ġkonkre": 3761,
      "áĥĲ": 3762,
      "Ġdeutsche": 3763,
      "34": 3764,
      "Ġwein": 3765,
      "ise": 3766,
      "regeln": 3767,
      "Ġbezieht": 3768,
      "Ġvorgeschlagen": 3769,
      "nehmern": 3770,
      "Ġbeforderung": 3771,
      "Ġbestimmen": 3772,
      "Ġeuipo": 3773,
      "Ġvorlegenden": 3774,
      "verletz": 3775,
      "Ġfl": 3776,
      "Ġ300": 3777,
      "Ġbeschlossen": 3778,
      "Ġanf": 3779,
      "Ġsystems": 3780,
      "Ġtro": 3781,
      "lichten": 3782,
      "Ġansass": 3783,
      "áĥĺ": 3784,
      "Ġkop": 3785,
      "vol": 3786,
      "Ġerstattung": 3787,
      "37": 3788,
      "Ġdokument": 3789,
      "Ġpflicht": 3790,
      "Ð²": 3791,
      "Ġbeginn": 3792,
      "Ġdarstellen": 3793,
      "Ġverwirk": 3794,
      "Ġmenschen": 3795,
      "Ġdruck": 3796,
      "Ġentscheidungs": 3797,
      "Ġil": 3798,
      "Ġentweder": 3799,
      "Ġsechsten": 3800,
      "ette": 3801,
      "inar": 3802,
      "Ġrechtsmittelfuhrerin": 3803,
      "Ġmot": 3804,
      "Ġmal": 3805,
      "orf": 3806,
      "Ġ1981": 3807,
      "bene": 3808,
      "Ġschwierigkeiten": 3809,
      "iven": 3810,
      "Ġbedienste": 3811,
      "Ġbuchstaben": 3812,
      "Ġberichterstat": 3813,
      "Ġarbeitgeber": 3814,
      "Ġubertragung": 3815,
      "Ġanzusehen": 3816,
      "organisation": 3817,
      "Ġvereinbarkeit": 3818,
      "Ġwil": 3819,
      "nie": 3820,
      "Ġeingetragen": 3821,
      "Ġerschein": 3822,
      "Ġhochstens": 3823,
      "Ġja": 3824,
      "annte": 3825,
      "Ġumstrukturierungs": 3826,
      "Ġerwahn": 3827,
      "Ġstreithelfer": 3828,
      "Ġprogramms": 3829,
      "fahrzeuge": 3830,
      "Ġanzahl": 3831,
      "schad": 3832,
      "ino": 3833,
      "rust": 3834,
      "Ġkm": 3835,
      "Ġ1984": 3836,
      "Ġeinerseits": 3837,
      "Ġpat": 3838,
      "Ġzustimmung": 3839,
      "Ġpoly": 3840,
      "Ġregelungen": 3841,
      "Ġklagesch": 3842,
      "leitet": 3843,
      "Ġpe": 3844,
      "Ġubergangs": 3845,
      "Ġwelt": 3846,
      "tigkeit": 3847,
      "ampfung": 3848,
      "Ġlander": 3849,
      "Ġverlangen": 3850,
      "Ġforschungs": 3851,
      "Ġerfullen": 3852,
      "Ġfil": 3853,
      "Ġcons": 3854,
      "eitungen": 3855,
      "Ġmun": 3856,
      "ziehen": 3857,
      "Ġjedenfalls": 3858,
      "Ġstark": 3859,
      "Ġdokumente": 3860,
      "Ġallerdings": 3861,
      "ins": 3862,
      "gestellte": 3863,
      "Ġav": 3864,
      "iums": 3865,
      "Ġanbetr": 3866,
      "eisten": 3867,
      "Ġverander": 3868,
      "Ġbeantwor": 3869,
      "Ġerzeuger": 3870,
      "kur": 3871,
      "Ġholz": 3872,
      "Ġaktu": 3873,
      "Ġaf": 3874,
      "mo": 3875,
      "Ġmitwirkung": 3876,
      "Ġpartner": 3877,
      "ga": 3878,
      "Ġfinden": 3879,
      "56": 3880,
      "wegen": 3881,
      "Ġdoch": 3882,
      "eitig": 3883,
      "Ġstaates": 3884,
      "tete": 3885,
      "Ġerweiter": 3886,
      "stands": 3887,
      "Ġkal": 3888,
      "adet": 3889,
      "Ġdirekt": 3890,
      "Ġgasp": 3891,
      "indest": 3892,
      "ucht": 3893,
      "Ġlizenz": 3894,
      "els": 3895,
      "200": 3896,
      "Ġhandlungen": 3897,
      "Ġ125": 3898,
      "Ġempfanger": 3899,
      "Ġkorper": 3900,
      "Ġed": 3901,
      "Ġunterzeich": 3902,
      "ĠÂ»": 3903,
      "Ġnormal": 3904,
      "Ġanbetracht": 3905,
      "Ġerlauter": 3906,
      "Ġ101": 3907,
      "Ġvereinigte": 3908,
      "Ġgriechen": 3909,
      "Ġunzulassig": 3910,
      "Ġvis": 3911,
      "Ġklageschrift": 3912,
      "Ġku": 3913,
      "ierter": 3914,
      "Ġbeitrag": 3915,
      "Ġbezeich": 3916,
      "Ġerfolg": 3917,
      "Ġinland": 3918,
      "Ġerleich": 3919,
      "Ġverz": 3920,
      "Ġsyn": 3921,
      "derung": 3922,
      "Ġbezeichnet": 3923,
      "Ġaufgehoben": 3924,
      "Ġmenge": 3925,
      "Ġgarantie": 3926,
      "Ġpersonenbezogen": 3927,
      "Ġbesteuer": 3928,
      "Ġdanemark": 3929,
      "alitaten": 3930,
      "Ġantworten": 3931,
      "Ġfahrzeuge": 3932,
      "lager": 3933,
      "Ġmusse": 3934,
      "Ġvollstreck": 3935,
      "menge": 3936,
      "tische": 3937,
      "prasiden": 3938,
      "Ġverhang": 3939,
      "Ġveter": 3940,
      "Ġteilen": 3941,
      "bericht": 3942,
      "Ġermoglich": 3943,
      "Ġnimmt": 3944,
      "Ġ1978": 3945,
      "Ġmul": 3946,
      "verkauf": 3947,
      "aph": 3948,
      "Ġfehl": 3949,
      "Ġgaran": 3950,
      "Ġklasse": 3951,
      "Ġaufgefuhrt": 3952,
      "Ġca": 3953,
      "Ġreihe": 3954,
      "anteil": 3955,
      "Ġsozialen": 3956,
      "Ġeinige": 3957,
      "Ġval": 3958,
      "Ġserv": 3959,
      "Ġtrans": 3960,
      "Ġrechtsmittelgrund": 3961,
      "Ġzumindest": 3962,
      "plans": 3963,
      "Ġwest": 3964,
      "Ġkrank": 3965,
      "ute": 3966,
      "cie": 3967,
      "Ġabgeschlossen": 3968,
      "tieren": 3969,
      "jekt": 3970,
      "Ġgl": 3971,
      "alitat": 3972,
      "Ġgedanken": 3973,
      "ling": 3974,
      "Ġ112": 3975,
      "Ġunvereinbar": 3976,
      "ubt": 3977,
      "Ġuni": 3978,
      "Ġeindeu": 3979,
      "Ġaufgenommen": 3980,
      "Ġangebot": 3981,
      "versicherung": 3982,
      "Ġbesonders": 3983,
      "Ġerfullung": 3984,
      "Ġversand": 3985,
      "Ġsamtliche": 3986,
      "Ġwichtig": 3987,
      "67": 3988,
      "Ġaufrech": 3989,
      "staaten": 3990,
      "Ġzivil": 3991,
      "Ġschweden": 3992,
      "Ġschlussfol": 3993,
      "Ġpolen": 3994,
      "Ġei": 3995,
      "Ġbeschrankung": 3996,
      "Ġgegensei": 3997,
      "Ġlegt": 3998,
      "Ġkund": 3999,
      "Ġuner": 4000,
      "fass": 4001,
      "Ġklaeger": 4002,
      "laufen": 4003,
      "Ġanpassung": 4004,
      "tes": 4005,
      "Ġversehen": 4006,
      "Ġintervention": 4007,
      "Ġerteilung": 4008,
      "Ġ1976": 4009,
      "Ġunbeschadet": 4010,
      "fte": 4011,
      "flu": 4012,
      "Ġanalyse": 4013,
      "Ġbv": 4014,
      "Ġuk": 4015,
      "ĠgroÃŁe": 4016,
      "Ġaufenthalts": 4017,
      "Ġoffentlicher": 4018,
      "Ġkanzler": 4019,
      "ischem": 4020,
      "ender": 4021,
      "sc": 4022,
      "sichts": 4023,
      "Ġschon": 4024,
      "Ġerzeugnisses": 4025,
      "Ġcommun": 4026,
      "go": 4027,
      "ches": 4028,
      "Ġmerkmale": 4029,
      "Ġbeforder": 4030,
      "ba": 4031,
      "kan": 4032,
      "Ġgeben": 4033,
      "Ġwiderspruchs": 4034,
      "Ġerreicht": 4035,
      "richtlinie": 4036,
      "tin": 4037,
      "Ġschriftlichen": 4038,
      "Ġkonsult": 4039,
      "Ġhandeln": 4040,
      "Ġbeitritts": 4041,
      "Ġmarktes": 4042,
      "zuber": 4043,
      "Ġ106": 4044,
      "steht": 4045,
      "Ġproblem": 4046,
      "Ġgewahrleistet": 4047,
      "Ġsee": 4048,
      "Ġkar": 4049,
      "Ġrad": 4050,
      "Ġabgewiesen": 4051,
      "ammen": 4052,
      "ungsbe": 4053,
      "Ġleben": 4054,
      "Ġbeeintrachtigen": 4055,
      "Ġcharakter": 4056,
      "Ġname": 4057,
      "Ġorganisationen": 4058,
      "ruf": 4059,
      "Ġrechnungshof": 4060,
      "ĠÏ": 4061,
      "35": 4062,
      "Ð»": 4063,
      "Ġfal": 4064,
      "Ġkan": 4065,
      "Ġverordnungen": 4066,
      "tsatz": 4067,
      "ums": 4068,
      "Ġruman": 4069,
      "verbrauch": 4070,
      "stein": 4071,
      "Ġentwicklungs": 4072,
      "fun": 4073,
      "Ġnachzu": 4074,
      "Ġproduktions": 4075,
      "Ġstre": 4076,
      "Ġauftraggeber": 4077,
      "Ġberechtigt": 4078,
      "Ġnormen": 4079,
      "werk": 4080,
      "Ġbet": 4081,
      "Ġubereinstimmung": 4082,
      "Ġtatsachen": 4083,
      "Ġband": 4084,
      "Ġneuer": 4085,
      "301": 4086,
      "Ġverlangt": 4087,
      "Ġhinreichend": 4088,
      "Ġair": 4089,
      "Ġermachtigt": 4090,
      "Ġnachgewiesen": 4091,
      "Ġgefuhrt": 4092,
      "Ġrelevanten": 4093,
      "Ġspeziel": 4094,
      "Ġdienste": 4095,
      "Ġgleichzei": 4096,
      "Ġfo": 4097,
      "Ġruge": 4098,
      "Ġ109": 4099,
      "Ġfang": 4100,
      "Ġentr": 4101,
      "Ġerbringung": 4102,
      "Ġallem": 4103,
      "auÃŁer": 4104,
      "Ġkategorie": 4105,
      "Ġentwurf": 4106,
      "Ġverlangerung": 4107,
      "Ġtiere": 4108,
      "Ġerstatt": 4109,
      "agement": 4110,
      "Ġprivaten": 4111,
      "wicklung": 4112,
      "Ġgeschaft": 4113,
      "yc": 4114,
      "Ġinstrumen": 4115,
      "Ġerwerb": 4116,
      "nommen": 4117,
      "Ġmundlichen": 4118,
      "Ġrechtsanwalte": 4119,
      "Ġanders": 4120,
      "osen": 4121,
      "Ġeng": 4122,
      "agn": 4123,
      "Ġdeleg": 4124,
      "ore": 4125,
      "Ġinternational": 4126,
      "Ġverfolg": 4127,
      "wirken": 4128,
      "Ġspezifischen": 4129,
      "mals": 4130,
      "Ġanerkannt": 4131,
      "Ġhinzu": 4132,
      "till": 4133,
      "Ġfindet": 4134,
      "izin": 4135,
      "Ġprufungen": 4136,
      "Ġgebieten": 4137,
      "Ġanderem": 4138,
      "ÃŁe": 4139,
      "Ġtrib": 4140,
      "ielt": 4141,
      "Ġjetzt": 4142,
      "Ġgedankenstrich": 4143,
      "Ġmer": 4144,
      "Ġgerate": 4145,
      "Ġ115": 4146,
      "Ġverkaufs": 4147,
      "ons": 4148,
      "Ġeinsatz": 4149,
      "Ġantid": 4150,
      "Ġenthaltenen": 4151,
      "Ġstatist": 4152,
      "Ġzustandig": 4153,
      "gruppen": 4154,
      "Ġstandigen": 4155,
      "use": 4156,
      "Ġlim": 4157,
      "Ġschen": 4158,
      "Ġgriechenland": 4159,
      "Ġverfugt": 4160,
      "Ġcp": 4161,
      "licherweise": 4162,
      "Ġod": 4163,
      "Ġgehort": 4164,
      "mission": 4165,
      "Ġgemisch": 4166,
      "fleisch": 4167,
      "dire": 4168,
      "Ġverhaltens": 4169,
      "45": 4170,
      "Ġwill": 4171,
      "Ġgren": 4172,
      "uc": 4173,
      "Ġinvestitions": 4174,
      "Ġarbeitsweise": 4175,
      "Ġgmin": 4176,
      "Ġtele": 4177,
      "Ġmehreren": 4178,
      "Ġwahrung": 4179,
      "Ġsod": 4180,
      "Ġsteu": 4181,
      "Ġvorliegende": 4182,
      "ieht": 4183,
      "Ġgehalten": 4184,
      "Ġorgane": 4185,
      "tien": 4186,
      "Ġschuld": 4187,
      "berech": 4188,
      "Ġpapier": 4189,
      "Ġtsch": 4190,
      "Ġgehoren": 4191,
      "schn": 4192,
      "Ġebens": 4193,
      "Ġsec": 4194,
      "Ġarzneimittel": 4195,
      "Ġantidumping": 4196,
      "Ġgemeinschaftsmarke": 4197,
      "Ġkombin": 4198,
      "gutung": 4199,
      "Ġhohen": 4200,
      "eigerung": 4201,
      "ĠheiÃŁ": 4202,
      "Ġinverkehr": 4203,
      "Ġbulgar": 4204,
      "Ġprakti": 4205,
      "Ġautomat": 4206,
      "akt": 4207,
      "zy": 4208,
      "Ġgewinn": 4209,
      "Ġhaftung": 4210,
      "Ġzahlungen": 4211,
      "Ġpos": 4212,
      "schutzes": 4213,
      "Ġhilfe": 4214,
      "Ġkoordinierung": 4215,
      "Ġdurchschnitt": 4216,
      "Ġregional": 4217,
      "Ġauftrags": 4218,
      "Ġzweifel": 4219,
      "Ġinverkehrbringen": 4220,
      "schuld": 4221,
      "Ġvorbehaltlich": 4222,
      "Ġbeziehen": 4223,
      "Ġpoten": 4224,
      "Ġerd": 4225,
      "Ġteilnahme": 4226,
      "Ġgo": 4227,
      "Ġadr": 4228,
      "gehend": 4229,
      "Ġunverzuglich": 4230,
      "einen": 4231,
      "dete": 4232,
      "amp": 4233,
      "gelegte": 4234,
      "69": 4235,
      "Ġberechnet": 4236,
      "ismus": 4237,
      "Ġeintragung": 4238,
      "wasser": 4239,
      "iere": 4240,
      "Ġweist": 4241,
      "Ġburger": 4242,
      "Ġap": 4243,
      "Ġgelegen": 4244,
      "arenz": 4245,
      "erzeugnissen": 4246,
      "ĠmaÃŁgeb": 4247,
      "kriter": 4248,
      "Ġgemeinde": 4249,
      "Ġmethode": 4250,
      "herr": 4251,
      "Ġby": 4252,
      "Ġfallt": 4253,
      "Ġverwaltungsvorschriften": 4254,
      "ano": 4255,
      "Ġgleichwer": 4256,
      "kapital": 4257,
      "ziehung": 4258,
      "agung": 4259,
      "Ġkinder": 4260,
      "grundet": 4261,
      "Ġschn": 4262,
      "steu": 4263,
      "98": 4264,
      "Ġterr": 4265,
      "Ġangefuhrten": 4266,
      "Ġgesamte": 4267,
      "ausgabe": 4268,
      "Ġwohnsitz": 4269,
      "Ġargument": 4270,
      "Ġspinn": 4271,
      "Ġtage": 4272,
      "Ġbetragt": 4273,
      "Ġinn": 4274,
      "Ġunterrichtet": 4275,
      "Ġnotifiz": 4276,
      "Ġschadenser": 4277,
      "Ġkol": 4278,
      "Ġhergestellten": 4279,
      "Ġbetreiber": 4280,
      "97": 4281,
      "Ġdiesel": 4282,
      "58": 4283,
      "Ġpubl": 4284,
      "Ġinternationale": 4285,
      "Ġvern": 4286,
      "Ġmann": 4287,
      "Ġportugal": 4288,
      "Ġerhebung": 4289,
      "Ġbetroffene": 4290,
      "Ġrestr": 4291,
      "ieden": 4292,
      "beihilfen": 4293,
      "stucke": 4294,
      "ao": 4295,
      "Ġerreichen": 4296,
      "gefuhrte": 4297,
      "Ġtschech": 4298,
      "Ġagrar": 4299,
      "Ġnichtigkeits": 4300,
      "absich": 4301,
      "Ġausschreibung": 4302,
      "Ġmillionen": 4303,
      "Ġveterinar": 4304,
      "icherheit": 4305,
      "Ġgewahren": 4306,
      "Ġinstitu": 4307,
      "utzten": 4308,
      "Ġverurs": 4309,
      "schreiben": 4310,
      "Ġschlussantrage": 4311,
      "Ġzuruckgewiesen": 4312,
      "Ġefta": 4313,
      "Ġeinleitung": 4314,
      "ther": 4315,
      "tlich": 4316,
      "Ġableh": 4317,
      "Ġprov": 4318,
      "ott": 4319,
      "Ġbevor": 4320,
      "Ġstrateg": 4321,
      "Ġermoglicht": 4322,
      "Ġunterstutzt": 4323,
      "Ġverzeich": 4324,
      "fahrzeug": 4325,
      "arbeiter": 4326,
      "fa": 4327,
      "Ġstandiger": 4328,
      "Ġgesichts": 4329,
      "Ġfehlen": 4330,
      "Ġbeurteilen": 4331,
      "Ġgemeinschaftlichen": 4332,
      "Ġklaus": 4333,
      "Ġprojekt": 4334,
      "Ġaustausch": 4335,
      "Ġstreitige": 4336,
      "Ġgere": 4337,
      "Ġbefugnis": 4338,
      "les": 4339,
      "Ġeinver": 4340,
      "anc": 4341,
      "gb": 4342,
      "will": 4343,
      "Ġbeschlusse": 4344,
      "Ġregionen": 4345,
      "Ġvorzulegen": 4346,
      "rahmen": 4347,
      "asern": 4348,
      "Ġcas": 4349,
      "áĥĶáĥ": 4350,
      "mengen": 4351,
      "Ġangemessenen": 4352,
      "ĠgeldbuÃŁen": 4353,
      "Ġberufen": 4354,
      "Ġvie": 4355,
      "Ġschadensersatz": 4356,
      "Ġce": 4357,
      "Ġ030": 4358,
      "Ġdienstleistung": 4359,
      "Ġaz": 4360,
      "Ġunterbr": 4361,
      "risten": 4362,
      "Ġebenso": 4363,
      "Ġneg": 4364,
      "Ġgeplan": 4365,
      "Ġherstell": 4366,
      "Ġerwagungen": 4367,
      "Ġfinanzierungs": 4368,
      "Ġdagegen": 4369,
      "Ġght": 4370,
      "Ġfonds": 4371,
      "Ġdom": 4372,
      "lam": 4373,
      "dition": 4374,
      "ordnet": 4375,
      "orben": 4376,
      "Ġernen": 4377,
      "Ġteils": 4378,
      "kont": 4379,
      "Ġ118": 4380,
      "arta": 4381,
      "Ġli": 4382,
      "Ġhafen": 4383,
      "Ġbegriffs": 4384,
      "Ġausreichend": 4385,
      "Ġbekampfung": 4386,
      "Ġbemerk": 4387,
      "ish": 4388,
      "Ġjust": 4389,
      "Ġprof": 4390,
      "ona": 4391,
      "lech": 4392,
      "Ġtribun": 4393,
      "hangen": 4394,
      "Ġ1968": 4395,
      "institu": 4396,
      "Ġ103": 4397,
      "arbeitungs": 4398,
      "sektor": 4399,
      "Ġversuch": 4400,
      "Ġoffensichtlich": 4401,
      "Ġkonzentr": 4402,
      "bungs": 4403,
      "driger": 4404,
      "wechsel": 4405,
      "Ġberich": 4406,
      "Ġinfrastruktur": 4407,
      "Ġsprache": 4408,
      "Ġbereichen": 4409,
      "Ġgeograf": 4410,
      "Ġ102": 4411,
      "Ġbasis": 4412,
      "iveau": 4413,
      "Ġstandpunkt": 4414,
      "emente": 4415,
      "Ġbelast": 4416,
      "Ġubermitteln": 4417,
      "Ġverfugen": 4418,
      "eller": 4419,
      "Ġverd": 4420,
      "ktions": 4421,
      "Ġbenutzung": 4422,
      "Ġunivers": 4423,
      "Ġzusatzlichen": 4424,
      "lichem": 4425,
      "Ġfar": 4426,
      "Ġermittel": 4427,
      "Ġgewahrten": 4428,
      "Ġgeeignete": 4429,
      "Ġmaschinen": 4430,
      "Ġrechtfertigen": 4431,
      "za": 4432,
      "assten": 4433,
      "Ġwirtschaftsteil": 4434,
      "Ġtagen": 4435,
      "its": 4436,
      "Ġgeist": 4437,
      "Ġstammen": 4438,
      "ias": 4439,
      "grenze": 4440,
      "wagen": 4441,
      "Ġabgegeben": 4442,
      "ktien": 4443,
      "90": 4444,
      "Ġangemessene": 4445,
      "freiheit": 4446,
      "Ġwettbewerber": 4447,
      "Ġzeitraums": 4448,
      "Ġfisch": 4449,
      "kohol": 4450,
      "ĠheiÃŁt": 4451,
      "Ġerfuellt": 4452,
      "Ġkultur": 4453,
      "Ġie": 4454,
      "bescheinigung": 4455,
      "person": 4456,
      "Ġstor": 4457,
      "Ġbeabsich": 4458,
      "Ġgleichbehandlung": 4459,
      "Ġbild": 4460,
      "Ġausnahmen": 4461,
      "Ġgebracht": 4462,
      "Ġbewerber": 4463,
      "Ġgek": 4464,
      "ĠÃĹ": 4465,
      "daten": 4466,
      "Ġhaupts": 4467,
      "Ġ105": 4468,
      "Ġsammlung": 4469,
      "ochte": 4470,
      "Ġwebs": 4471,
      "Ġboden": 4472,
      "Ġglaub": 4473,
      "Ġzuschuss": 4474,
      "fahig": 4475,
      "Ġplatz": 4476,
      "Ġdokumenten": 4477,
      "worfen": 4478,
      "Ġpass": 4479,
      "ĠÃ°": 4480,
      "Ġmissbrauch": 4481,
      "Ġfordern": 4482,
      "Ġgesell": 4483,
      "Ġzinsen": 4484,
      "Ġbaum": 4485,
      "ja": 4486,
      "Ġmensch": 4487,
      "Ġbefreiung": 4488,
      "Ġdec": 4489,
      "Ġdiskriminierung": 4490,
      "gerate": 4491,
      "Ġvorsch": 4492,
      "46": 4493,
      "tenden": 4494,
      "Ġmechan": 4495,
      "Ġlicht": 4496,
      "41": 4497,
      "Ġkranken": 4498,
      "itar": 4499,
      "Ġaltern": 4500,
      "Ġschadens": 4501,
      "abschluss": 4502,
      "Ġ1972": 4503,
      "Ġgewerb": 4504,
      "olv": 4505,
      "Ġgleicher": 4506,
      "bezeichnung": 4507,
      "ments": 4508,
      "ahrungs": 4509,
      "Ġunrecht": 4510,
      "Ġmr": 4511,
      "Ġ119": 4512,
      "Ġbestandteil": 4513,
      "li": 4514,
      "Ġmail": 4515,
      "aktik": 4516,
      "hnt": 4517,
      "Ġgemeinschaftsrechts": 4518,
      "Ġverhindern": 4519,
      "mess": 4520,
      "Ġcode": 4521,
      "Ġerhohung": 4522,
      "Ġspiel": 4523,
      "Ġzehn": 4524,
      "Ġverwenden": 4525,
      "Ġimmer": 4526,
      "Ġforschung": 4527,
      "Ġinnerstaatlichen": 4528,
      "Ġkunf": 4529,
      "Ġmochte": 4530,
      "Ġverteidigungs": 4531,
      "Ġpflichten": 4532,
      "maÃŁigen": 4533,
      "ekom": 4534,
      "Ġbegunstigten": 4535,
      "Ġpraxis": 4536,
      "Ġkriterium": 4537,
      "Ġerkannt": 4538,
      "Ġverfal": 4539,
      "Ġangeboten": 4540,
      "ors": 4541,
      "Ġvorstehenden": 4542,
      "ikationen": 4543,
      "Ġvierten": 4544,
      "Ġzollfrei": 4545,
      "Ġgebuhren": 4546,
      "Ġeinnahmen": 4547,
      "Ġbeitritt": 4548,
      "Ġsonderausgabe": 4549,
      "ssatz": 4550,
      "Ġusw": 4551,
      "Ġuberwachungsbehorde": 4552,
      "einrichtungen": 4553,
      "Ġsicht": 4554,
      "Ġberuht": 4555,
      "ita": 4556,
      "Ġdeck": 4557,
      "Ġgruppen": 4558,
      "Ġverwirklichung": 4559,
      "spro": 4560,
      "tiv": 4561,
      "Ġerbr": 4562,
      "ufe": 4563,
      "Ġselb": 4564,
      "Ġehem": 4565,
      "zin": 4566,
      "isierung": 4567,
      "platz": 4568,
      "Ġendgultigen": 4569,
      "Ġakte": 4570,
      "Ġwissenschaftlichen": 4571,
      "Ġbele": 4572,
      "Ġstadt": 4573,
      "Ġhaft": 4574,
      "Îº": 4575,
      "Ġbeweise": 4576,
      "Ġbeschaftigungs": 4577,
      "instrumen": 4578,
      "Ġadmin": 4579,
      "Ġiso": 4580,
      "rang": 4581,
      "Ġgewe": 4582,
      "Ġschweine": 4583,
      "hange": 4584,
      "Ġwa": 4585,
      "Ġprogramme": 4586,
      "ĠauÃŁen": 4587,
      "Ġreise": 4588,
      "Ġdurchzufuhren": 4589,
      "49": 4590,
      "Ðº": 4591,
      "indern": 4592,
      "Ġenglisch": 4593,
      "etten": 4594,
      "Ġverschiedene": 4595,
      "Ġguter": 4596,
      "atoren": 4597,
      "zoll": 4598,
      "Ġnachzukommen": 4599,
      "iens": 4600,
      "Ġuberschr": 4601,
      "Ġmater": 4602,
      "Ġ721": 4603,
      "75": 4604,
      "Ġbefr": 4605,
      "Ġvorber": 4606,
      "Ġfutter": 4607,
      "Ġqualifiz": 4608,
      "Ġnaturlichen": 4609,
      "Ġahnliche": 4610,
      "uhrt": 4611,
      "Ġfolgender": 4612,
      "wohn": 4613,
      "Ġsi": 4614,
      "38": 4615,
      "tex": 4616,
      "Ġprufungs": 4617,
      "Ġaufsichts": 4618,
      "Ġunionsrecht": 4619,
      "Ġnutzen": 4620,
      "alisierung": 4621,
      "Ġgleichzeitig": 4622,
      "nu": 4623,
      "satze": 4624,
      "betrieb": 4625,
      "Ġzustellungs": 4626,
      "tragungs": 4627,
      "Ġbeurteilungs": 4628,
      "gesetzes": 4629,
      "Ġpausch": 4630,
      "Ġrechtliche": 4631,
      "Ġmonat": 4632,
      "ato": 4633,
      "Ġausfuhrung": 4634,
      "Ġeinzelheiten": 4635,
      "Ġfranzosisch": 4636,
      "Ġgrenzuber": 4637,
      "peratur": 4638,
      "essour": 4639,
      "Ġbeantrag": 4640,
      "Ġerkenn": 4641,
      "Ġsatzung": 4642,
      "Ġermittlung": 4643,
      "Ġvolks": 4644,
      "ÏĤ": 4645,
      "zess": 4646,
      "Ġerzeugung": 4647,
      "Ġeinschrank": 4648,
      "Ġadministr": 4649,
      "utung": 4650,
      "eigt": 4651,
      "Ġkostenentscheidung": 4652,
      "wein": 4653,
      "Ġtelekom": 4654,
      "gerech": 4655,
      "einigungen": 4656,
      "ĠstraÃŁe": 4657,
      "Ġ400": 4658,
      "Ġpolitik": 4659,
      "ennt": 4660,
      "Ġinternen": 4661,
      "Ġziff": 4662,
      "ekret": 4663,
      "Ġhandlung": 4664,
      "Ġwege": 4665,
      "Ġwelcher": 4666,
      "Ġbleiben": 4667,
      "Ġeinstufung": 4668,
      "Ġausfuhrer": 4669,
      "itr": 4670,
      "Ġanhangigen": 4671,
      "Ġverhandlungen": 4672,
      "Ġgenehmigungs": 4673,
      "ĠâĢ¢": 4674,
      "Ġbeob": 4675,
      "gerungen": 4676,
      "Ġerfasst": 4677,
      "Ġhu": 4678,
      "gleichung": 4679,
      "Ġbetrieben": 4680,
      "Ġdurchfuhrungsverordnung": 4681,
      "itut": 4682,
      "Î»": 4683,
      "Ġju": 4684,
      "Ġts": 4685,
      "cia": 4686,
      "Ġrichtung": 4687,
      "Ġsysteme": 4688,
      "Ġaktien": 4689,
      "Ġerrichtung": 4690,
      "ahrung": 4691,
      "Ġeindeutig": 4692,
      "Ġuberst": 4693,
      "77": 4694,
      "Ġnett": 4695,
      "tritt": 4696,
      "43": 4697,
      "schung": 4698,
      "Ġkonform": 4699,
      "ssp": 4700,
      "Ġbescheinigung": 4701,
      "Ġerbracht": 4702,
      "Ġgrenzen": 4703,
      "Ġjen": 4704,
      "verwaltung": 4705,
      "Ġstandard": 4706,
      "inzip": 4707,
      "Ġzugelassenen": 4708,
      "Ġangehor": 4709,
      "Ġ150": 4710,
      "ĠausschuÃŁ": 4711,
      "uten": 4712,
      "Ġuns": 4713,
      "Ġzolltarifs": 4714,
      "ata": 4715,
      "Ġaufer": 4716,
      "Ġverwaltungsrat": 4717,
      "minister": 4718,
      "umul": 4719,
      "ielle": 4720,
      "Ġzwangs": 4721,
      "Ġff": 4722,
      "Ġ126": 4723,
      "42": 4724,
      "Ġdm": 4725,
      "dri": 4726,
      "eld": 4727,
      "Ġschiffe": 4728,
      "Ġvollstandige": 4729,
      "itische": 4730,
      "ika": 4731,
      "ull": 4732,
      "genehmigung": 4733,
      "teilungen": 4734,
      "Ġsachverhalt": 4735,
      "Ġgenugt": 4736,
      "Ġzulassigkeit": 4737,
      "Ġwechsel": 4738,
      "Ġbefinden": 4739,
      "Ġ113": 4740,
      "Ġleits": 4741,
      "Ġschwere": 4742,
      "Ġlange": 4743,
      "Ġwal": 4744,
      "Ġgetat": 4745,
      "Ġvorsieht": 4746,
      "Ġcharta": 4747,
      "Ġarbeitsver": 4748,
      "essourcen": 4749,
      "Ġgewonnen": 4750,
      "Ġvoruber": 4751,
      "Ġreis": 4752,
      "Ġwith": 4753,
      "Ġstaatsangehorigkeit": 4754,
      "Ġungarn": 4755,
      "Ġerheblich": 4756,
      "Ġqualitats": 4757,
      "Ġsim": 4758,
      "Ġaufgabe": 4759,
      "bungen": 4760,
      "ustr": 4761,
      "wind": 4762,
      "Ġgebau": 4763,
      "ikti": 4764,
      "schul": 4765,
      "pen": 4766,
      "Ġvorlaufige": 4767,
      "Ġspa": 4768,
      "ektiv": 4769,
      "Ġzuzu": 4770,
      "the": 4771,
      "Ġrolle": 4772,
      "ĠpoÅĤ": 4773,
      "preise": 4774,
      "Ġbleibt": 4775,
      "Ġhoech": 4776,
      "Ġbeherr": 4777,
      "Ġfestzulegen": 4778,
      "Ġ120": 4779,
      "abri": 4780,
      "Ġsetzt": 4781,
      "Ġberichterstatter": 4782,
      "Ġbeschaftigung": 4783,
      "Ġheraus": 4784,
      "Ġentschad": 4785,
      "Ġ020": 4786,
      "ĠverhaltnismaÃŁigkeit": 4787,
      "Ġerworben": 4788,
      "Ġausgesetzt": 4789,
      "Ġsr": 4790,
      "ink": 4791,
      "aume": 4792,
      "Ġcal": 4793,
      "ada": 4794,
      "Ġlautet": 4795,
      "Ġeinkommen": 4796,
      "ione": 4797,
      "Ġumfass": 4798,
      "oppel": 4799,
      "Ġbeeintrachtigt": 4800,
      "Ġmedizin": 4801,
      "Ġgetreide": 4802,
      "00000": 4803,
      "inhaber": 4804,
      "samm": 4805,
      "Ġstellte": 4806,
      "Ġzufolge": 4807,
      "ierenden": 4808,
      "Ġstellver": 4809,
      "Ġ1974": 4810,
      "Ġdritter": 4811,
      "Ġslowak": 4812,
      "Ġsur": 4813,
      "Ġliqu": 4814,
      "61": 4815,
      "48": 4816,
      "Ġhydr": 4817,
      "Ġrisiken": 4818,
      "Ġmad": 4819,
      "Ġoffentlichkeit": 4820,
      "Ġpal": 4821,
      "abel": 4822,
      "Ġumfassen": 4823,
      "rechnung": 4824,
      "Ġvorzunehmen": 4825,
      "ych": 4826,
      "industr": 4827,
      "gange": 4828,
      "anst": 4829,
      "kriterien": 4830,
      "Ġban": 4831,
      "Ġlager": 4832,
      "Ġmoglicherweise": 4833,
      "fluss": 4834,
      "gef": 4835,
      "Ġletzter": 4836,
      "burger": 4837,
      "áĥĿ": 4838,
      "Ġabfalle": 4839,
      "Ġangebote": 4840,
      "Ġbezogen": 4841,
      "Ġderartige": 4842,
      "Ġ!": 4843,
      "Ġluftfahrt": 4844,
      "Ġgminy": 4845,
      "Ġerheben": 4846,
      "no": 4847,
      "attet": 4848,
      "Ġhoechst": 4849,
      "itor": 4850,
      "Ġbelgischen": 4851,
      "Ġwirkungen": 4852,
      "Ġzuvor": 4853,
      "Ġleitsatze": 4854,
      "Ġniedriger": 4855,
      "Ġwirksamkeit": 4856,
      "Ġbezugs": 4857,
      "erklarung": 4858,
      "Ġherab": 4859,
      "Ġkonkur": 4860,
      "Ġbediensteten": 4861,
      "Ġorig": 4862,
      "standige": 4863,
      "weite": 4864,
      "Ġeingest": 4865,
      "Ġeinzur": 4866,
      "55": 4867,
      "zentr": 4868,
      "Ġbefugnisse": 4869,
      "Ġmol": 4870,
      "Ġbereitstellung": 4871,
      "Ġlandwirtschaftlichen": 4872,
      "Ġbeklagter": 4873,
      "ico": 4874,
      "Ġmetall": 4875,
      "Ġcm": 4876,
      "Ġstunden": 4877,
      "teilten": 4878,
      "ĠfuÃŁ": 4879,
      "kontingen": 4880,
      "Ġbedeutet": 4881,
      "Ġvertragsverletz": 4882,
      "Ġbay": 4883,
      "Ġ117": 4884,
      "áĥĲáĥ": 4885,
      "Ġverk": 4886,
      "Ġoffentlich": 4887,
      "Ġgrundsatzes": 4888,
      "Ġeingefuhrten": 4889,
      "Ġnotwendigkeit": 4890,
      "Ġ177": 4891,
      "Ġdef": 4892,
      "Ġeingeraum": 4893,
      "kra": 4894,
      "Ġerforderliche": 4895,
      "geschaf": 4896,
      "Ġangegebenen": 4897,
      "omen": 4898,
      "Ġwiederhol": 4899,
      "Ġverletzt": 4900,
      "Â°": 4901,
      "Ġeisenbahn": 4902,
      "schlieÃŁung": 4903,
      "Ġbeide": 4904,
      "sko": 4905,
      "Ġbehandelt": 4906,
      "sekret": 4907,
      "uren": 4908,
      "Ġubermittlung": 4909,
      "ennung": 4910,
      "part": 4911,
      "handels": 4912,
      "Ġfinnland": 4913,
      "Ġmitteln": 4914,
      "Ġaufrechter": 4915,
      "ieg": 4916,
      "lege": 4917,
      "Ġkind": 4918,
      "Ã¸": 4919,
      "Ġhilfsweise": 4920,
      "Ġaqu": 4921,
      "Ġ1971": 4922,
      "gewicht": 4923,
      "Ġersch": 4924,
      "Ġfallenden": 4925,
      "Ġverringer": 4926,
      "Ġlok": 4927,
      "nimmt": 4928,
      "Ġeinzigen": 4929,
      "Ġangleichung": 4930,
      "ards": 4931,
      "Ġvorlaufigen": 4932,
      "empf": 4933,
      "ese": 4934,
      "seh": 4935,
      "Ġausrust": 4936,
      "ĠâĪ": 4937,
      "Ġbeschwerdepunkte": 4938,
      "Ġkohlen": 4939,
      "ane": 4940,
      "Ïī": 4941,
      "Ġsteuerpflichtigen": 4942,
      "Ġgunst": 4943,
      "tifik": 4944,
      "Ġbestehende": 4945,
      "Ġoffensicht": 4946,
      "Ġbefugt": 4947,
      "Ġvielmehr": 4948,
      "Ġergangen": 4949,
      "anlagen": 4950,
      "Ġbestell": 4951,
      "Ġuntersuchungen": 4952,
      "100": 4953,
      "Ġhtt": 4954,
      "Ġfluss": 4955,
      "Ġspanischen": 4956,
      "Ġgleiche": 4957,
      "Ġdanach": 4958,
      "porte": 4959,
      "ĠverstoÃŁe": 4960,
      "Ġcol": 4961,
      "Ġnun": 4962,
      "302": 4963,
      "aumen": 4964,
      "abkommens": 4965,
      "Ġabhangig": 4966,
      "Ġtatsachliche": 4967,
      "Ġvierte": 4968,
      "Ġtem": 4969,
      "metho": 4970,
      "get": 4971,
      "Ġersucht": 4972,
      "Ġgultigkeit": 4973,
      "ati": 4974,
      "Ġempfehlung": 4975,
      "betreiber": 4976,
      "Ġdurchgefuhrten": 4977,
      "Ġspezifische": 4978,
      "Ġzollbehorden": 4979,
      "Ġsteuern": 4980,
      "eigenschaft": 4981,
      "Ġhingewiesen": 4982,
      "Ġkooper": 4983,
      "olf": 4984,
      "opol": 4985,
      "Ġniederlandischen": 4986,
      "Ġdiv": 4987,
      "Ġdeutlich": 4988,
      "olid": 4989,
      "Ġmitgliedern": 4990,
      "Ġtun": 4991,
      "Ġgewin": 4992,
      "Ġehemal": 4993,
      "Ġextra": 4994,
      "Ġbeantragen": 4995,
      "Ġverantwortlich": 4996,
      "Ġgeschaffen": 4997,
      "Ġsitzungen": 4998,
      "ichen": 4999,
      "Ġvertriebs": 5000,
      "Ġturk": 5001,
      "Ġausschluss": 5002,
      "Ġweg": 5003,
      "dorf": 5004,
      "Ġrechtsakte": 5005,
      "nehmers": 5006,
      "euchen": 5007,
      "Ġbeamte": 5008,
      "Ġausfuhrungen": 5009,
      "Ġharmonisierung": 5010,
      "erw": 5011,
      "Ġ720": 5012,
      "uchte": 5013,
      "Ġdargelegt": 5014,
      "Ġrechtsstreits": 5015,
      "Ġgab": 5016,
      "Ġmethoden": 5017,
      "stattung": 5018,
      "industrie": 5019,
      "81": 5020,
      "atzung": 5021,
      "Ġzuruckzu": 5022,
      "schluÃŁ": 5023,
      "Ġ110": 5024,
      "hafte": 5025,
      "Ġbgh": 5026,
      "heber": 5027,
      "Ġanschluss": 5028,
      "Ġcour": 5029,
      "ĠâĪĴ": 5030,
      "Ġunterliegt": 5031,
      "treffend": 5032,
      "Ġvergutung": 5033,
      "Ð´": 5034,
      "Ġ1408": 5035,
      "Ġgeneralsekret": 5036,
      "Ġ1973": 5037,
      "Ġdienen": 5038,
      "Ġinnergemeinschaft": 5039,
      "ame": 5040,
      "Ġ250": 5041,
      "Ġlosung": 5042,
      "ix": 5043,
      "Ġnotwendigen": 5044,
      "ifferenz": 5045,
      "Ġsofor": 5046,
      "Ġmarkte": 5047,
      "othe": 5048,
      "Ġfragliche": 5049,
      "Ġamtlichen": 5050,
      "arm": 5051,
      "Ġukra": 5052,
      "uchten": 5053,
      "zueg": 5054,
      "Ġabsicht": 5055,
      "32": 5056,
      "Ġausgestellt": 5057,
      "Ġerstreck": 5058,
      "Ġee": 5059,
      "Ġeinstellung": 5060,
      "Ġbeizu": 5061,
      "iken": 5062,
      "Ġanschrift": 5063,
      "Ġerken": 5064,
      "Ġschaffung": 5065,
      "Ġbrief": 5066,
      "Ġbeschranken": 5067,
      "Ġkern": 5068,
      "Ġschritt": 5069,
      "Ġnationaler": 5070,
      "Ġetwaige": 5071,
      "Ġbefind": 5072,
      "Ġprozessbevollmachtigter": 5073,
      "Ġeigentums": 5074,
      "Ġgebur": 5075,
      "Ġ600": 5076,
      "Ġendgultige": 5077,
      "Ġbenach": 5078,
      "bild": 5079,
      "Ġbanken": 5080,
      "schlieÃŁen": 5081,
      "statigkeit": 5082,
      "Ġverurteilen": 5083,
      "Ġstehende": 5084,
      "Ġalledem": 5085,
      "Ġsynthe": 5086,
      "Ġeinheitlichen": 5087,
      "ologischen": 5088,
      "Ġeinmal": 5089,
      "maÃŁige": 5090,
      "Ġgehalt": 5091,
      "Ġverlangert": 5092,
      "ante": 5093,
      "terung": 5094,
      "Ġbeihilfere": 5095,
      "nor": 5096,
      "Ġdrittens": 5097,
      "Ġamer": 5098,
      "Ġbeding": 5099,
      "Ġ145": 5100,
      "Ġuberprufen": 5101,
      "Ġschlacht": 5102,
      "Ġrestrikti": 5103,
      "Ġfirma": 5104,
      "Ġgemass": 5105,
      "Ġaspekte": 5106,
      "Ġaussetzung": 5107,
      "Ġernst": 5108,
      "ersystem": 5109,
      "Ġbutter": 5110,
      "Ġ1970": 5111,
      "Ġmaxim": 5112,
      "zone": 5113,
      "Ġfaktoren": 5114,
      "ux": 5115,
      "grunden": 5116,
      "Ġpour": 5117,
      "Ġfruheren": 5118,
      "mark": 5119,
      "Ġmussten": 5120,
      "Ġabges": 5121,
      "Ġgeneraldire": 5122,
      "86": 5123,
      "Ġrechtsfehler": 5124,
      "endungen": 5125,
      "Ġerscheint": 5126,
      "Ġeingehalten": 5127,
      "Ġalters": 5128,
      "Ġ114": 5129,
      "drigen": 5130,
      "Ġinteress": 5131,
      "Ġfre": 5132,
      "Ġzugangs": 5133,
      "Ġrom": 5134,
      "entu": 5135,
      "Ġtrotz": 5136,
      "leit": 5137,
      "Ġgeliefer": 5138,
      "izont": 5139,
      "Ġbeziehungen": 5140,
      "uz": 5141,
      "Ġfrance": 5142,
      "Ġunbegrundet": 5143,
      "Ġbetriebe": 5144,
      "Ġklagegrundes": 5145,
      "Ġmand": 5146,
      "igtes": 5147,
      "Ġunterschiedliche": 5148,
      "gunst": 5149,
      "ond": 5150,
      "Ġformul": 5151,
      "Ġgezahlt": 5152,
      "Ġalkohol": 5153,
      "Ġlen": 5154,
      "Ġ169": 5155,
      "Ġfolgendem": 5156,
      "Ġbez": 5157,
      "Ġmodelle": 5158,
      "ennen": 5159,
      "Ġerganzt": 5160,
      "Ġdiejenigen": 5161,
      "Ġerlasst": 5162,
      "anforderungen": 5163,
      "usion": 5164,
      "ski": 5165,
      "altungen": 5166,
      "Ġbringen": 5167,
      "wirkt": 5168,
      "Ġurheber": 5169,
      "Ġproduc": 5170,
      "Ġfunktionieren": 5171,
      "jahres": 5172,
      "Ġstutzt": 5173,
      "schiff": 5174,
      "Ġnaturliche": 5175,
      "Ġbeigefugt": 5176,
      "Ġprovin": 5177,
      "Ġeinheitliche": 5178,
      "geld": 5179,
      "Ġernennung": 5180,
      "Ġbeispielsweise": 5181,
      "Ġhalten": 5182,
      "Ġposit": 5183,
      "Ġverstehen": 5184,
      "Ġtelekommun": 5185,
      "Ġbrauch": 5186,
      "Ġentlast": 5187,
      "ful": 5188,
      "Ġehe": 5189,
      "rechtliche": 5190,
      "isse": 5191,
      "Ġstellungnahmen": 5192,
      "Ġobjektiv": 5193,
      "Ġkennzeichnung": 5194,
      "Ġerreichung": 5195,
      "Ġabsatzes": 5196,
      "Ġvorlagefragen": 5197,
      "Ġgeringer": 5198,
      "Ġmodalitaten": 5199,
      "maschinen": 5200,
      "Ġlitau": 5201,
      "59": 5202,
      "ulver": 5203,
      "Ġangemeldeten": 5204,
      "zeiten": 5205,
      "ĠstraÃŁen": 5206,
      "igter": 5207,
      "Ġbeauf": 5208,
      "lehnt": 5209,
      "Ġbio": 5210,
      "áĥĺáĥ": 5211,
      "Ġeffizien": 5212,
      "Ġdemnach": 5213,
      "sg": 5214,
      "Ġq": 5215,
      "betrags": 5216,
      "ete": 5217,
      "Ġpara": 5218,
      "78": 5219,
      "Ïĥ": 5220,
      "kunden": 5221,
      "opa": 5222,
      "moglichkeiten": 5223,
      "Ġursprunglichen": 5224,
      "affen": 5225,
      "ĠrechtmaÃŁigkeit": 5226,
      "Ġgrundverordnung": 5227,
      "Ġnachfol": 5228,
      "aatgut": 5229,
      "Ġlinie": 5230,
      "umin": 5231,
      "Ġham": 5232,
      "Ġgeltungsbereich": 5233,
      "Ġbetrachtet": 5234,
      "Ġfeststellungen": 5235,
      "Ġergreifen": 5236,
      "Ġhorizont": 5237,
      "Ġverantwor": 5238,
      "Ġeigene": 5239,
      "losen": 5240,
      "Ġalt": 5241,
      "Ġlabor": 5242,
      "Ġ139": 5243,
      "eidung": 5244,
      "Ġstreithelferin": 5245,
      "up": 5246,
      "ĠgroÃŁen": 5247,
      "Ġinc": 5248,
      "Ġbrenn": 5249,
      "Ġstich": 5250,
      "Ġerstellt": 5251,
      "Ġeingesetzt": 5252,
      "fach": 5253,
      "verm": 5254,
      "Ġmich": 5255,
      "Ġausgegangen": 5256,
      "grad": 5257,
      "Ġgeschaftsordnung": 5258,
      "orgungs": 5259,
      "Ġliquid": 5260,
      "Ġrest": 5261,
      "agt": 5262,
      "erer": 5263,
      "nehmung": 5264,
      "Ġwahrschein": 5265,
      "Ġjahrlichen": 5266,
      "Ġeinr": 5267,
      "Ġjap": 5268,
      "tis": 5269,
      "83": 5270,
      "beihilfe": 5271,
      "hall": 5272,
      "Ġanmerk": 5273,
      "Ġhr": 5274,
      "dernis": 5275,
      "bach": 5276,
      "Ġstill": 5277,
      "aux": 5278,
      "Ġinterne": 5279,
      "Ġentnehmen": 5280,
      "ager": 5281,
      "Ġfordert": 5282,
      "Ġanpass": 5283,
      "Ġausgelegt": 5284,
      "Ġunionsrechts": 5285,
      "Ġbemerkungen": 5286,
      "ace": 5287,
      "Ġburg": 5288,
      "zeugt": 5289,
      "Ġaktenzeichen": 5290,
      "olvenz": 5291,
      "ution": 5292,
      "Ġsinn": 5293,
      "Ġverlust": 5294,
      "Ġ520": 5295,
      "Ġschrif": 5296,
      "Ġmarktanteil": 5297,
      "Ġstoffen": 5298,
      "Ġgrenzuberschrei": 5299,
      "techn": 5300,
      "Ġrent": 5301,
      "ars": 5302,
      "Ġmitarbeiter": 5303,
      "Ġausschrei": 5304,
      "urg": 5305,
      "acion": 5306,
      "durf": 5307,
      "Ġnew": 5308,
      "befrei": 5309,
      "Ġkategorien": 5310,
      "40": 5311,
      "ingerung": 5312,
      "abt": 5313,
      "Ġanbieter": 5314,
      "th": 5315,
      "Ġeigenschaften": 5316,
      "eten": 5317,
      "Ġwebsite": 5318,
      "Ġ1969": 5319,
      "eichung": 5320,
      "schuÃŁ": 5321,
      "Ġnachhal": 5322,
      "Ġbrei": 5323,
      "Ġglo": 5324,
      "Ġhierfur": 5325,
      "Ġharmonisierungs": 5326,
      "Ġdefiniert": 5327,
      "Ġsil": 5328,
      "Ġjahrlich": 5329,
      "Ġdirektor": 5330,
      "Ġerfahr": 5331,
      "Ġleisten": 5332,
      "ĠanschlieÃŁ": 5333,
      "Ġberichtigung": 5334,
      "Ġverantwortung": 5335,
      "Ġentgelt": 5336,
      "Ġanhange": 5337,
      "Ġbezugnahme": 5338,
      "Ġerkennen": 5339,
      "Ġzweiter": 5340,
      "beschlusses": 5341,
      "Ġoblie": 5342,
      "bildungs": 5343,
      "prochen": 5344,
      "ĠentschlieÃŁung": 5345,
      "Ġrechtsgrundlage": 5346,
      "dat": 5347,
      "Ġanst": 5348,
      "sammlung": 5349,
      "52": 5350,
      "anne": 5351,
      "Ġunterabs": 5352,
      "Ġeinfluss": 5353,
      "Ġverbreitung": 5354,
      "Ġiniti": 5355,
      "grundsatz": 5356,
      "101": 5357,
      "takt": 5358,
      "vertrags": 5359,
      "Ġruss": 5360,
      "Ġversicher": 5361,
      "Ġdoppel": 5362,
      "Ġgran": 5363,
      "Ġrechtlicher": 5364,
      "Ġstimm": 5365,
      "Ġproben": 5366,
      "ska": 5367,
      "Ġacc": 5368,
      "Ġwirtschaftszw": 5369,
      "Ġaufenthalt": 5370,
      "Ġfestgesetzten": 5371,
      "Ġbeteiligte": 5372,
      "Ġverboten": 5373,
      "eral": 5374,
      "Ġbeherrsch": 5375,
      "geg": 5376,
      "Ġka": 5377,
      "Ġbesol": 5378,
      "ings": 5379,
      "Ġ388": 5380,
      "Ġ116": 5381,
      "landes": 5382,
      "Ġtochtergesellschaft": 5383,
      "prot": 5384,
      "Ġlieferungen": 5385,
      "ware": 5386,
      "Ġbon": 5387,
      "Ġmalt": 5388,
      "Ġgegenwar": 5389,
      "Ġdifferenz": 5390,
      "Ġgebunden": 5391,
      "Ġunterzeichnet": 5392,
      "Ġsetzen": 5393,
      "ient": 5394,
      "Ġnorwegen": 5395,
      "richter": 5396,
      "Ġfunfte": 5397,
      "Ġalteren": 5398,
      "Ġpre": 5399,
      "Ġther": 5400,
      "Ġabteilung": 5401,
      "Ġtermin": 5402,
      "Ġgeeigneten": 5403,
      "beauftrag": 5404,
      "ĠausschlieÃŁ": 5405,
      "Ġmusste": 5406,
      "Ġverfahrensbeteil": 5407,
      "Ġgewahrte": 5408,
      "Ġmag": 5409,
      "Ġ127": 5410,
      "Ġverab": 5411,
      "Ġvertrauens": 5412,
      "Ġgesetzlichen": 5413,
      "Ġven": 5414,
      "Ġhinsicht": 5415,
      "Ġ148": 5416,
      "aht": 5417,
      "austausch": 5418,
      "Ġ130": 5419,
      "tende": 5420,
      "utzte": 5421,
      "Ġzwecken": 5422,
      "Ġgul": 5423,
      "Ġlangfrist": 5424,
      "beschrank": 5425,
      "Ġisland": 5426,
      "Ġangebracht": 5427,
      "Ġtieren": 5428,
      "ĠverauÃŁer": 5429,
      "Ġcen": 5430,
      "Ġdk": 5431,
      "aktiken": 5432,
      "programms": 5433,
      "Ġbeschriebenen": 5434,
      "Ġemissionen": 5435,
      "Ġ111": 5436,
      "Ġtextil": 5437,
      "Ġfortschr": 5438,
      "Ġausbildung": 5439,
      "zeigt": 5440,
      "mod": 5441,
      "Ġbefrist": 5442,
      "gefahr": 5443,
      "handler": 5444,
      "Ġvir": 5445,
      "grammen": 5446,
      "Ġkam": 5447,
      "Ġbefindet": 5448,
      "Ġbetragen": 5449,
      "ect": 5450,
      "Ġregionalen": 5451,
      "Ġluftverkehrs": 5452,
      "Ġabfall": 5453,
      "Ġbeachtung": 5454,
      "eng": 5455,
      "Ġgewohn": 5456,
      "Ġsanktionen": 5457,
      "Ġhervorgeht": 5458,
      "Ġgewicht": 5459,
      "angehorigen": 5460,
      "Ġinsolvenz": 5461,
      "bunden": 5462,
      "Ġsodann": 5463,
      "utzungs": 5464,
      "versorgung": 5465,
      "Ġberg": 5466,
      "Ġ320": 5467,
      "Ġerstattungs": 5468,
      "echs": 5469,
      "ĠabschluÃŁ": 5470,
      "wendet": 5471,
      "Ġtransparenz": 5472,
      "Ġberichts": 5473,
      "eres": 5474,
      "Ġkonsolid": 5475,
      "Ġba": 5476,
      "Ġdig": 5477,
      "Ġtribunal": 5478,
      "Ġ156": 5479,
      "antrag": 5480,
      "Ġeag": 5481,
      "Ġdoc": 5482,
      "Ġwertpapier": 5483,
      "54": 5484,
      "Ġprop": 5485,
      "usse": 5486,
      "Ġuberpruft": 5487,
      "zusammen": 5488,
      "Ġfristen": 5489,
      "Ġumstrukturierung": 5490,
      "blat": 5491,
      "Ġcoun": 5492,
      "fahrzeugen": 5493,
      "Ġubernahme": 5494,
      "Ġbestehe": 5495,
      "ssystems": 5496,
      "ima": 5497,
      "Ġassoziations": 5498,
      "Ġangelegen": 5499,
      "Ġabgelehnt": 5500,
      "Ġeinreich": 5501,
      "Ġ123": 5502,
      "Ġvereinigtes": 5503,
      "Ġgi": 5504,
      "ong": 5505,
      "Ġbewert": 5506,
      "Ġredu": 5507,
      "Ġvermarkt": 5508,
      "Ġsachverstandigen": 5509,
      "Ġvermeiden": 5510,
      "Ġverringerung": 5511,
      "mere": 5512,
      "Ġforderungen": 5513,
      "Ð¸Ñ": 5514,
      "Ġverbie": 5515,
      "Ġorigin": 5516,
      "komm": 5517,
      "Ġgestr": 5518,
      "Ġbisher": 5519,
      "stru": 5520,
      "Ġverarbeitungs": 5521,
      "Ġubersetzung": 5522,
      "Ġerneuer": 5523,
      "Ġausuben": 5524,
      "Ġbeno": 5525,
      "Ġrichtig": 5526,
      "ific": 5527,
      "ester": 5528,
      "Ġerhaltung": 5529,
      "Ġ1964": 5530,
      "Ġarzt": 5531,
      "nupf": 5532,
      "Ġschein": 5533,
      "tain": 5534,
      "Ġmrd": 5535,
      "Ġmisch": 5536,
      "behel": 5537,
      "Ġ129": 5538,
      "Ġfernseh": 5539,
      "Ġ1967": 5540,
      "Ġsign": 5541,
      "Ġbeforderungs": 5542,
      "fassungs": 5543,
      "Ġrechtsak": 5544,
      "Ġgrundrechte": 5545,
      "atte": 5546,
      "Ġ121": 5547,
      "Ġbor": 5548,
      "Ġausnah": 5549,
      "haushalts": 5550,
      "Ġvorgetragen": 5551,
      "Ġunterscheidungs": 5552,
      "Ġteilnehmer": 5553,
      "lassungs": 5554,
      "Ġdatenschutz": 5555,
      "Ġeinzige": 5556,
      "Ġumgesetzt": 5557,
      "Ġmarkten": 5558,
      "Ġverweiger": 5559,
      "Ġinternet": 5560,
      "esch": 5561,
      "Ġerwar": 5562,
      "Ġempfehlungen": 5563,
      "Ġrumanien": 5564,
      "barer": 5565,
      "stri": 5566,
      "Ġ267": 5567,
      "Ġpflanzenschutz": 5568,
      "ova": 5569,
      "68": 5570,
      "sachen": 5571,
      "einrichtung": 5572,
      "ly": 5573,
      "laden": 5574,
      "gebiete": 5575,
      "Ġprojekte": 5576,
      "Ġpt": 5577,
      "Ġgekenn": 5578,
      "Ġtest": 5579,
      "Ġtrager": 5580,
      "Î¹Î±": 5581,
      "Ġschriftlich": 5582,
      "Ġcer": 5583,
      "Ġkammerprasiden": 5584,
      "Ġ189": 5585,
      "bleiben": 5586,
      "Ġausfuhren": 5587,
      "Ġappar": 5588,
      "Ġfrauen": 5589,
      "Ġcpc": 5590,
      "Ġbeitrage": 5591,
      "Ġdurchfuhrungsbestimmungen": 5592,
      "Ġsechste": 5593,
      "ĠschlieÃŁen": 5594,
      "Ġprior": 5595,
      "krafte": 5596,
      "iar": 5597,
      "Ġdeta": 5598,
      "Ġvorhabens": 5599,
      "Ġbin": 5600,
      "Ġech": 5601,
      "iele": 5602,
      "gende": 5603,
      "Ġjuristische": 5604,
      "Ġerbringen": 5605,
      "aktion": 5606,
      "Ġanzugeben": 5607,
      "Ĥ¬": 5608,
      "Ġschlussel": 5609,
      "gehenden": 5610,
      "Ġrechtsbehel": 5611,
      "Ġgemachten": 5612,
      "Ġniederlanden": 5613,
      "Ġexport": 5614,
      "Î¼": 5615,
      "Ġinnov": 5616,
      "arzt": 5617,
      "Ġkorre": 5618,
      "line": 5619,
      "flachen": 5620,
      "Ġverzeichnis": 5621,
      "Ġmotor": 5622,
      "Ġrec": 5623,
      "anischen": 5624,
      "korper": 5625,
      "arbeite": 5626,
      "werke": 5627,
      "Ġvertret": 5628,
      "51": 5629,
      "Ġbehinder": 5630,
      "Ġbulgarien": 5631,
      "Ġtransa": 5632,
      "Ġother": 5633,
      "Ġjung": 5634,
      "eige": 5635,
      "Ġshall": 5636,
      "produkte": 5637,
      "Ġ137": 5638,
      "Ġeinw": 5639,
      "usst": 5640,
      "Ġgrundsatzen": 5641,
      "Ġnormalen": 5642,
      "Ġbeitragen": 5643,
      "aul": 5644,
      "Ġjuristischen": 5645,
      "Ġgegenstande": 5646,
      "Ġlast": 5647,
      "vollmachtigten": 5648,
      "Ġhalb": 5649,
      "Ġvorgenannten": 5650,
      "Ġ138": 5651,
      "fs": 5652,
      "Ġque": 5653,
      "Ġvorgehen": 5654,
      "Ġvorteile": 5655,
      "Ġpap": 5656,
      "Ġmission": 5657,
      "ehl": 5658,
      "Ġletzt": 5659,
      "Ġlog": 5660,
      "anschrift": 5661,
      "Ġukraine": 5662,
      "Ġmont": 5663,
      "Ġmittler": 5664,
      "behalten": 5665,
      "Ġkontakt": 5666,
      "Ġverlei": 5667,
      "Ġrepr": 5668,
      "Ġzusatzlich": 5669,
      "Ġausserdem": 5670,
      "ests": 5671,
      "tierten": 5672,
      "pt": 5673,
      "Ġmilitar": 5674,
      "einheiten": 5675,
      "Ġnahrungs": 5676,
      "ado": 5677,
      "Ġmik": 5678,
      "Ġbesoldungs": 5679,
      "Ġfahrzeugs": 5680,
      "Ġost": 5681,
      "Ġwies": 5682,
      "Ġuberschreiten": 5683,
      "Ġgrou": 5684,
      "Ġvorgeschriebenen": 5685,
      "Ġkontingen": 5686,
      "erlaub": 5687,
      "eute": 5688,
      "Ġerlaubt": 5689,
      "Ġsolches": 5690,
      "zahlungen": 5691,
      "Ġrechtssicherheit": 5692,
      "ĠverstoÃŁes": 5693,
      "Ġklass": 5694,
      "Ġrohr": 5695,
      "Ġ178": 5696,
      "fahigen": 5697,
      "Ġexter": 5698,
      "Ġgeworden": 5699,
      "kodex": 5700,
      "Ġlaufzeit": 5701,
      "Ġanspruche": 5702,
      "Ġbewill": 5703,
      "Ġkapitels": 5704,
      "gesund": 5705,
      "formen": 5706,
      "versicherungs": 5707,
      "Ġslowen": 5708,
      "ahigkeit": 5709,
      "Ġschwed": 5710,
      "Ġgezogen": 5711,
      "Ġverstar": 5712,
      "Ġok": 5713,
      "Ġaufzunehmen": 5714,
      "ola": 5715,
      "Ġwirtschaftsteilnehmer": 5716,
      "Ġerhebliche": 5717,
      "ces": 5718,
      "spol": 5719,
      "Ġbegrunden": 5720,
      "Ġgewahl": 5721,
      "Ġermachtigung": 5722,
      "Ġrechtlich": 5723,
      "Ġgeburts": 5724,
      "Ġgering": 5725,
      "Ġpotenziel": 5726,
      "Ġbesteuerung": 5727,
      "Ġartic": 5728,
      "Ġimm": 5729,
      "stellungsbehorde": 5730,
      "ipp": 5731,
      "utt": 5732,
      "Ġgeschul": 5733,
      "Ġzwingen": 5734,
      "dis": 5735,
      "Ġkohle": 5736,
      "oÃŁe": 5737,
      "Ġkonkreten": 5738,
      "cke": 5739,
      "lose": 5740,
      "Ġidentifiz": 5741,
      "Ġbesser": 5742,
      "Ġentstehen": 5743,
      "leun": 5744,
      "Ġursprungseigenschaft": 5745,
      "Ġstreichung": 5746,
      "Ġherkunfts": 5747,
      "Ġumsatze": 5748,
      "Ġangep": 5749,
      "Ġgeschlossenen": 5750,
      "stim": 5751,
      "Ġsystemat": 5752,
      "Ġvorlagefrage": 5753,
      "vertrage": 5754,
      "Ġsl": 5755,
      "Ġbeachten": 5756,
      "Ġstabil": 5757,
      "Ġstutzen": 5758,
      "Ġkonsultationen": 5759,
      "Ġsorgen": 5760,
      "umme": 5761,
      "ep": 5762,
      "Ġerfordernis": 5763,
      "Ġeinzelne": 5764,
      "Ġry": 5765,
      "Ġruhe": 5766,
      "Ġablehnung": 5767,
      "Ġ136": 5768,
      "Ġinnergemeinschaftlichen": 5769,
      "Ġgelangt": 5770,
      "Ġfrisch": 5771,
      "Ġgehabt": 5772,
      "Ġuberw": 5773,
      "Ġnachteil": 5774,
      "bew": 5775,
      "Ġmonte": 5776,
      "Ġstatus": 5777,
      "ssysteme": 5778,
      "Ġverfugbaren": 5779,
      "Ġeinander": 5780,
      "ebene": 5781,
      "iu": 5782,
      "Ġeingestuft": 5783,
      "gewohn": 5784,
      "Ġ620": 5785,
      "altet": 5786,
      "Ġ234": 5787,
      "streit": 5788,
      "Ġunterzeichnung": 5789,
      "gelassen": 5790,
      "Ġvorsteuer": 5791,
      "Ġstaatsangehorigen": 5792,
      "áĥĿáĥ": 5793,
      "Ġwiderruf": 5794,
      "Ġungebunden": 5795,
      "teuer": 5796,
      "Ġvorgeschlagenen": 5797,
      "Ġemissions": 5798,
      "Ġmittels": 5799,
      "ologische": 5800,
      "Ġforst": 5801,
      "saure": 5802,
      "57": 5803,
      "dies": 5804,
      "Ġkonzern": 5805,
      "Ġversorgung": 5806,
      "ichtete": 5807,
      "Ġbeschrei": 5808,
      "Ġbestimmungs": 5809,
      "kapaz": 5810,
      "Ġeinzelstaatlichen": 5811,
      "indungen": 5812,
      "Ġschweizer": 5813,
      "Ġunterschiedlichen": 5814,
      "liesst": 5815,
      "wo": 5816,
      "liz": 5817,
      "Ġ218": 5818,
      "Ġerheblichen": 5819,
      "Ġerh": 5820,
      "Ġhauptsach": 5821,
      "Ġjustiz": 5822,
      "scht": 5823,
      "Ġbeend": 5824,
      "Ġklassen": 5825,
      "Ġnahe": 5826,
      "effizien": 5827,
      "Ġentstandenen": 5828,
      "Ġagre": 5829,
      "anlage": 5830,
      "feld": 5831,
      "Ġmineral": 5832,
      "Ġerneut": 5833,
      "66": 5834,
      "Ġflachen": 5835,
      "ads": 5836,
      "ĠregelmaÃŁig": 5837,
      "lasse": 5838,
      "Ġmor": 5839,
      "ĠâĤ¬": 5840,
      "Ġzielen": 5841,
      "Ġbilden": 5842,
      "Ġnrn": 5843,
      "Ġarch": 5844,
      "ession": 5845,
      "Ġmg": 5846,
      "odes": 5847,
      "Ġzollkontingen": 5848,
      "ema": 5849,
      "Ġangeht": 5850,
      "Ġfuhrte": 5851,
      "Ġziehen": 5852,
      "Ġbeseitigung": 5853,
      "Ġvorrang": 5854,
      "Ġportugiesische": 5855,
      "bek": 5856,
      "Ġunser": 5857,
      "tzus": 5858,
      "Ġkreis": 5859,
      "Ġbegrundungspflicht": 5860,
      "Ġnachge": 5861,
      "aufnahme": 5862,
      "Ġthis": 5863,
      "Ġgewahrleistung": 5864,
      "Ġregionale": 5865,
      "Ġerzielt": 5866,
      "Ġgebe": 5867,
      "Ġerlang": 5868,
      "ara": 5869,
      "Ġlieferanten": 5870,
      "heb": 5871,
      "prozess": 5872,
      "Ġmundliche": 5873,
      "eichten": 5874,
      "vorhaben": 5875,
      "Ġakp": 5876,
      "Ġwh": 5877,
      "Ġgrun": 5878,
      "hungs": 5879,
      "ĠmaÃŁgeblichen": 5880,
      "Ġtrifft": 5881,
      "any": 5882,
      "Ġbekanntmachung": 5883,
      "achter": 5884,
      "Ġsau": 5885,
      "ologie": 5886,
      "Ġsteuerpflichtige": 5887,
      "Ġzustellungsanschrift": 5888,
      "Ġgemuse": 5889,
      "Ġauftrage": 5890,
      "Ġpor": 5891,
      "urch": 5892,
      "Ġbu": 5893,
      "Ġglas": 5894,
      "Ġnummern": 5895,
      "wertung": 5896,
      "Ġmassnahmen": 5897,
      "Ġschie": 5898,
      "ex": 5899,
      "verpflich": 5900,
      "Ġergriffen": 5901,
      "afen": 5902,
      "Ġereig": 5903,
      "Ġnetto": 5904,
      "Ġunregel": 5905,
      "flache": 5906,
      "Ġeuropean": 5907,
      "Ġverwechs": 5908,
      "res": 5909,
      "Ġausnahmere": 5910,
      "Ġunmittelbaren": 5911,
      "lasst": 5912,
      "Ġ149": 5913,
      "Ġunzur": 5914,
      "Ġ135": 5915,
      "Ġermittelt": 5916,
      "legten": 5917,
      "Ġgrundstuck": 5918,
      "Ġxx": 5919,
      "Ġbgb": 5920,
      "Ġ140": 5921,
      "Ġvertrieb": 5922,
      "Ġ173": 5923,
      "Ġwahrnehmung": 5924,
      "Î¿Ïħ": 5925,
      "fugten": 5926,
      "Ġnachstehenden": 5927,
      "ical": 5928,
      "Ġgestellten": 5929,
      "Ġklagen": 5930,
      "kreis": 5931,
      "Ġ160": 5932,
      "Ġerlassenen": 5933,
      "rede": 5934,
      "Ġleiter": 5935,
      "Ġelemente": 5936,
      "Ġ128": 5937,
      "Ġgetroffenen": 5938,
      "sprech": 5939,
      "Ġmarktorganisation": 5940,
      "Ġgeflu": 5941,
      "verlass": 5942,
      "Ġgeregelt": 5943,
      "wesen": 5944,
      "verhaltnis": 5945,
      "Ġwich": 5946,
      "Ġzeu": 5947,
      "drigkeit": 5948,
      "Ġtelefon": 5949,
      "Ġgesetzt": 5950,
      "Ġpauschal": 5951,
      "Ġubermittelten": 5952,
      "nr": 5953,
      "iertes": 5954,
      "Ġverteidigungsrechte": 5955,
      "Ġubernommen": 5956,
      "Ġaufnahm": 5957,
      "Ġglob": 5958,
      "stimmen": 5959,
      "Ġ1962": 5960,
      "Ġluftfahrtunternehmen": 5961,
      "Ġparall": 5962,
      "erlaubnis": 5963,
      "Ġfrem": 5964,
      "Ġmat": 5965,
      "Ġbevollmachtigten": 5966,
      "Ġcl": 5967,
      "ungsgrundlage": 5968,
      "Ġeinigen": 5969,
      "Ġpic": 5970,
      "amin": 5971,
      "mil": 5972,
      "geschr": 5973,
      "Ġvorsehen": 5974,
      "lern": 5975,
      "ungsmaÃŁnahmen": 5976,
      "Ġtor": 5977,
      "Ġhaushaltsordnung": 5978,
      "Ġhauf": 5979,
      "Ġkir": 5980,
      "Ġerstellung": 5981,
      "Ġstein": 5982,
      "Ġrechtswidrig": 5983,
      "Ġbestanden": 5984,
      "Ġtot": 5985,
      "Ġbeschleun": 5986,
      "anen": 5987,
      "Ġpram": 5988,
      "verbot": 5989,
      "ierende": 5990,
      "Ġregulierungs": 5991,
      "zuge": 5992,
      "vision": 5993,
      "Ġunterscheiden": 5994,
      "60": 5995,
      "peten": 5996,
      "ini": 5997,
      "ruck": 5998,
      "tierung": 5999,
      "Ġ124": 6000,
      "Ġabschn": 6001,
      "cc": 6002,
      "rid": 6003,
      "Ġrechtsakt": 6004,
      "Ġpreisen": 6005,
      "Ġweich": 6006,
      "Ġgutachten": 6007,
      "Ġps": 6008,
      "Ġangeordnet": 6009,
      "Ġlegen": 6010,
      "Ġversp": 6011,
      "Ġ185": 6012,
      "Ġza": 6013,
      "Ġsport": 6014,
      "vel": 6015,
      "Ġpak": 6016,
      "73": 6017,
      "Ġverhaltensweisen": 6018,
      "Ġrh": 6019,
      "Ġbestandteile": 6020,
      "dokumen": 6021,
      "Ġverschluss": 6022,
      "Ġmonats": 6023,
      "ros": 6024,
      "maÃŁnahme": 6025,
      "skon": 6026,
      "ines": 6027,
      "bedarf": 6028,
      "Ġ900": 6029,
      "Ġverjahr": 6030,
      "affin": 6031,
      "prop": 6032,
      "Ġ700": 6033,
      "wendungen": 6034,
      "Ġmitglieds": 6035,
      "Ġ159": 6036,
      "Ġ190": 6037,
      "ften": 6038,
      "Ġbegrundungserw": 6039,
      "datum": 6040,
      "Ġaufteilung": 6041,
      "Ġanwenden": 6042,
      "gesetzte": 6043,
      "Ġzeich": 6044,
      "Ġvorliegt": 6045,
      "Ġanwendbaren": 6046,
      "Ġwichtigsten": 6047,
      "88": 6048,
      "Ġangebots": 6049,
      "Ġsat": 6050,
      "ited": 6051,
      "oz": 6052,
      "Ġbran": 6053,
      "Ġvollstreckung": 6054,
      "Ġoperation": 6055,
      "Ġangewendet": 6056,
      "agentur": 6057,
      "grenzen": 6058,
      "Ġros": 6059,
      "Ġunternehmer": 6060,
      "Ġunabhangigen": 6061,
      "Ġfabri": 6062,
      "Ġchina": 6063,
      "Ġanordnung": 6064,
      "zahlen": 6065,
      "Ġausstellung": 6066,
      "gebe": 6067,
      "Ġbeendigung": 6068,
      "Ġbetrug": 6069,
      "Ġseiten": 6070,
      "Ġinhalts": 6071,
      "Ġherange": 6072,
      "Ġwenig": 6073,
      "Ġgezahlten": 6074,
      "Ġobst": 6075,
      "Ġcy": 6076,
      "Ġzuganglich": 6077,
      "Ġunmittelbare": 6078,
      "Ġbilater": 6079,
      "uche": 6080,
      "Ġdarlehens": 6081,
      "elles": 6082,
      "Ġ134": 6083,
      "Ġconc": 6084,
      "Ġesp": 6085,
      "Ġret": 6086,
      "ala": 6087,
      "Ġzuverlass": 6088,
      "63": 6089,
      "Ġgestattet": 6090,
      "weist": 6091,
      "lichkeits": 6092,
      "ziplin": 6093,
      "Ġlett": 6094,
      "Ġuntersuchungs": 6095,
      "Ġbezweck": 6096,
      "Ġzusammensetzung": 6097,
      "Ġzuruckweisung": 6098,
      "bewertung": 6099,
      "ĠschluÃŁ": 6100,
      "Ġverkauft": 6101,
      "Ġeventu": 6102,
      "Ġbeweismittel": 6103,
      "Ġbeschwerdefuhrer": 6104,
      "Ġanstellungsbehorde": 6105,
      "Ġtabak": 6106,
      "Ġverluste": 6107,
      "glichen": 6108,
      "gn": 6109,
      "anwalts": 6110,
      "Ġkontex": 6111,
      "Ġerleichtern": 6112,
      "71": 6113,
      "Ġniederlandische": 6114,
      "Ġliber": 6115,
      "echn": 6116,
      "Ġressourcen": 6117,
      "Ġlegte": 6118,
      "Ġbill": 6119,
      "Ġfestgestellten": 6120,
      "Ġunterrichten": 6121,
      "Ġbej": 6122,
      "Ġvorlegendes": 6123,
      "Ġsoziale": 6124,
      "Ġnachfrage": 6125,
      "wiecie": 6126,
      "Ġpras": 6127,
      "Ġsorten": 6128,
      "iegel": 6129,
      "sspiel": 6130,
      "Ġerfassten": 6131,
      "Ġsprach": 6132,
      "zeitraums": 6133,
      "andelt": 6134,
      "Ġzubereitungen": 6135,
      "kontrolle": 6136,
      "anteile": 6137,
      "ĠÂ«": 6138,
      "Ġverteilung": 6139,
      "Ġ122": 6140,
      "Ġveranst": 6141,
      "Ġdiesbe": 6142,
      "Ġberichtig": 6143,
      "Ġderzeit": 6144,
      "Ġvin": 6145,
      "Ġ414": 6146,
      "Ġschlussfolgerungen": 6147,
      "verhalt": 6148,
      "Ġproducts": 6149,
      "ectr": 6150,
      "uhl": 6151,
      "Ġeingeraumt": 6152,
      "Ġausger": 6153,
      "Ġpowiecie": 6154,
      "Ġgewebe": 6155,
      "ĠerlaÃŁ": 6156,
      "Ġarticle": 6157,
      "Ġstudien": 6158,
      "Ġ133": 6159,
      "Ġdung": 6160,
      "Ġgerichtlichen": 6161,
      "fil": 6162,
      "Ġgriechischen": 6163,
      "zueglich": 6164,
      "vi": 6165,
      "Ġ180": 6166,
      "Ġgerat": 6167,
      "Ġfahrzeugen": 6168,
      "bestimmung": 6169,
      "Ġdipl": 6170,
      "pflanz": 6171,
      "werten": 6172,
      "Ġrandnummern": 6173,
      "Ġmoglichkeiten": 6174,
      "Ġ263": 6175,
      "Ġhergestellte": 6176,
      "Ġvertritt": 6177,
      "ule": 6178,
      "Ġwahrungs": 6179,
      "Ġnationen": 6180,
      "Ġunterschiede": 6181,
      "Ġspateren": 6182,
      "emit": 6183,
      "94": 6184,
      "Ġgemessen": 6185,
      "Ġerkennt": 6186,
      "Ġmob": 6187,
      "Ġbeistand": 6188,
      "Ġschutzes": 6189,
      "cial": 6190,
      "Ġkomplex": 6191,
      "Ġreduz": 6192,
      "Ïħ": 6193,
      "Ġpositionen": 6194,
      "Ġdient": 6195,
      "Ġvermogenswerte": 6196,
      "Ġrenten": 6197,
      "Ġentschadigung": 6198,
      "Ġkro": 6199,
      "Ġviii": 6200,
      "sor": 6201,
      "Ġberichte": 6202,
      "Ġfeld": 6203,
      "Ġtelekommunikations": 6204,
      "Ġfusion": 6205,
      "Ġzuruckge": 6206,
      "istenz": 6207,
      "Ġservic": 6208,
      "neter": 6209,
      "Ġschlussfolgerung": 6210,
      "Ġww": 6211,
      "ienen": 6212,
      "Ġunzureich": 6213,
      "Ġauszugehen": 6214,
      "Ġvereinbart": 6215,
      "Ġzit": 6216,
      "chem": 6217,
      "Ġsekret": 6218,
      "angeb": 6219,
      "lausel": 6220,
      "schnitts": 6221,
      "Ġvereinten": 6222,
      "Ġdrittstaats": 6223,
      "Ġerhoht": 6224,
      "Ġwun": 6225,
      "zahlt": 6226,
      "65": 6227,
      "erho": 6228,
      "Ġzuschlag": 6229,
      "Ġkeinem": 6230,
      "Ġlv": 6231,
      "Ġadress": 6232,
      "Ġregister": 6233,
      "Ġderzei": 6234,
      "Ġerwahnten": 6235,
      "Ġbos": 6236,
      "ekts": 6237,
      "Ġfreiwill": 6238,
      "Ġermitteln": 6239,
      "Ġpunkte": 6240,
      "ilie": 6241,
      "lichkeiten": 6242,
      "Ġnl": 6243,
      "Ġmoglichen": 6244,
      "Ġ141": 6245,
      "Ġmobil": 6246,
      "Ġbein": 6247,
      "Ġsti": 6248,
      "Ġhauptsachlich": 6249,
      "ites": 6250,
      "werts": 6251,
      "Ġunterstutzen": 6252,
      "Ġwerte": 6253,
      "Ġ1963": 6254,
      "inge": 6255,
      "Ġsorg": 6256,
      "Ġcap": 6257,
      "ular": 6258,
      "Ġzuwiderhandlungen": 6259,
      "gh": 6260,
      "teilte": 6261,
      "haften": 6262,
      "Ġbegrenzt": 6263,
      "Ġergebe": 6264,
      "mobil": 6265,
      "Ġfran": 6266,
      "Ġvereinbarten": 6267,
      "Ġauskunfte": 6268,
      "illa": 6269,
      "Ġverarbeitet": 6270,
      "inform": 6271,
      "Ġbeantwortung": 6272,
      "cs": 6273,
      "Ġsaatgut": 6274,
      "Ġeingelegt": 6275,
      "Ġberufung": 6276,
      "Ġwerbung": 6277,
      "Ġneun": 6278,
      "Ġul": 6279,
      "fes": 6280,
      "sicherheit": 6281,
      "Ġahnlichen": 6282,
      "Ġherangezogen": 6283,
      "Ġprobleme": 6284,
      "ibil": 6285,
      "Ġabgestimm": 6286,
      "Ġbord": 6287,
      "Ġpay": 6288,
      "Ġnormaler": 6289,
      "Ġeror": 6290,
      "deckt": 6291,
      "Ġliegenden": 6292,
      "Ġunber": 6293,
      "Ġkommer": 6294,
      "Ġverfolgt": 6295,
      "Ġnachprufung": 6296,
      "Ġerfuellen": 6297,
      "bald": 6298,
      "Ġfunften": 6299,
      "drige": 6300,
      "uropa": 6301,
      "Ġgross": 6302,
      "Ġgerade": 6303,
      "Ġeinreichung": 6304,
      "iebe": 6305,
      "Ġbeschliesst": 6306,
      "Ġdarunter": 6307,
      "Ġstuck": 6308,
      "Ġmehrheit": 6309,
      "ĠschlieÃŁt": 6310,
      "Ġeagfl": 6311,
      "Ġkammerprasidenten": 6312,
      "Ġsaint": 6313,
      "pliz": 6314,
      "Ġ230": 6315,
      "Ġ208": 6316,
      "Ġparagr": 6317,
      "Ġteilt": 6318,
      "Ġpolitischen": 6319,
      "ichteten": 6320,
      "Ġverwend": 6321,
      "Ġbeurteilungsfehler": 6322,
      "Ġbaumw": 6323,
      "straÃŁ": 6324,
      "Ġindir": 6325,
      "Ġschiffs": 6326,
      "Ġep": 6327,
      "Ġ132": 6328,
      "punkten": 6329,
      "Ġsubvention": 6330,
      "Ġdocumen": 6331,
      "Ġhandler": 6332,
      "Ġparallel": 6333,
      "stad": 6334,
      "tzusetzen": 6335,
      "Ġjam": 6336,
      "ize": 6337,
      "Ġ1966": 6338,
      "Ġermitt": 6339,
      "Ġunterscheidungskraft": 6340,
      "med": 6341,
      "Ġgerichten": 6342,
      "Ġbezeichneten": 6343,
      "Ġgarantien": 6344,
      "Ġkeines": 6345,
      "Ġbedingung": 6346,
      "Ġdurfte": 6347,
      "Ġstellvertreten": 6348,
      "Ġrechtsschutz": 6349,
      "Ġverweist": 6350,
      "Ġ131": 6351,
      "Ġfeuer": 6352,
      "Ġlasten": 6353,
      "Ġaufforderung": 6354,
      "Ġverwaltungsverfahren": 6355,
      "Ġvollstandigen": 6356,
      "Ġreich": 6357,
      "bas": 6358,
      "Ġatom": 6359,
      "Ġkaufer": 6360,
      "Ġetik": 6361,
      "ierend": 6362,
      "Ġursprunglich": 6363,
      "Ġkumul": 6364,
      "Ġanfang": 6365,
      "Ġbemess": 6366,
      "Ġkommerziel": 6367,
      "abteilung": 6368,
      "Ġgd": 6369,
      "Ġzertifiz": 6370,
      "err": 6371,
      "Ġ800": 6372,
      "Ġstamm": 6373,
      "Ġverweis": 6374,
      "Ġuberwie": 6375,
      "Ġdemselben": 6376,
      "Ġautonom": 6377,
      "protokoll": 6378,
      "Ġberlin": 6379,
      "hm": 6380,
      "92": 6381,
      "Ġparis": 6382,
      "satzes": 6383,
      "Ġspezi": 6384,
      "Ġvar": 6385,
      "orts": 6386,
      "Ġakzep": 6387,
      "fasern": 6388,
      "Ġwirtschaftsraum": 6389,
      "Ġauftreten": 6390,
      "Ġmach": 6391,
      "72": 6392,
      "ela": 6393,
      "Ġquellen": 6394,
      "Ġeingang": 6395,
      "Ġruckzahlung": 6396,
      "Ġernannt": 6397,
      "ipal": 6398,
      "Ġniedergelassen": 6399,
      "Ġinspe": 6400,
      "Ġbelegen": 6401,
      "Ġlisten": 6402,
      "pest": 6403,
      "Ġdumping": 6404,
      "denken": 6405,
      "Ġsachverhalts": 6406,
      "stechn": 6407,
      "hren": 6408,
      "Ġteilnehmen": 6409,
      "Ġbriefwechsel": 6410,
      "ĠÏĦ": 6411,
      "Ġwarenverkehrs": 6412,
      "Ġsehen": 6413,
      "untersuch": 6414,
      "able": 6415,
      "Ġfile": 6416,
      "Ġumge": 6417,
      "Ġgesam": 6418,
      "schreibung": 6419,
      "atri": 6420,
      "verwaltungs": 6421,
      "erzeugung": 6422,
      "steuern": 6423,
      "Ġverfassungs": 6424,
      "abgaben": 6425,
      "widerung": 6426,
      "Ġbeihilferegelung": 6427,
      "kar": 6428,
      "Ġempfang": 6429,
      "folg": 6430,
      "rats": 6431,
      "Ġsogar": 6432,
      "Ġnet": 6433,
      "Ġsubst": 6434,
      "ĠermaÃŁ": 6435,
      "Ġverpackung": 6436,
      "ĠÎµ": 6437,
      "Ġwei": 6438,
      "Ġinkrafttretens": 6439,
      "Ġbegl": 6440,
      "Ġauskunfts": 6441,
      "Ġherkunft": 6442,
      "Ġrot": 6443,
      "beziehung": 6444,
      "Ġgesonder": 6445,
      "Ġlandwirtschaftliche": 6446,
      "Ġmut": 6447,
      "Ġlaufe": 6448,
      "vereinbarungen": 6449,
      "Ġkundigung": 6450,
      "Ġkos": 6451,
      "Ġausbildungs": 6452,
      "Ġverstand": 6453,
      "esc": 6454,
      "betrage": 6455,
      "Ġverh": 6456,
      "Ġtemperatur": 6457,
      "Ġwesentlich": 6458,
      "Ġmoglichst": 6459,
      "strom": 6460,
      "Ġml": 6461,
      "Ġkommunikations": 6462,
      "ki": 6463,
      "ÏĢ": 6464,
      "Ġbeantragte": 6465,
      "Ġschengen": 6466,
      "okrat": 6467,
      "losung": 6468,
      "Ġschriftliche": 6469,
      "eizen": 6470,
      "Ġspezifikationen": 6471,
      "halter": 6472,
      "Ġvergeben": 6473,
      "izitat": 6474,
      "Ġvorlaufig": 6475,
      "Ġbieter": 6476,
      "Ġkroat": 6477,
      "Ġveroffentlich": 6478,
      "Ġbesitzt": 6479,
      "Ġbelauf": 6480,
      "Ġfinanzhilfe": 6481,
      "Ġnichtigkeitsklage": 6482,
      "Ġeigentumer": 6483,
      "Ġ1049": 6484,
      "Ġvertragen": 6485,
      "izei": 6486,
      "skim": 6487,
      "Ġcentr": 6488,
      "Ġdenselben": 6489,
      "Ġuberschritten": 6490,
      "ban": 6491,
      "Ġminim": 6492,
      "Ġgebo": 6493,
      "ated": 6494,
      "Ġbesonderer": 6495,
      "Ġsn": 6496,
      "Ġsobald": 6497,
      "ms": 6498,
      "Ġgeneralanwalts": 6499,
      "Ġrinder": 6500,
      "Ġaufbau": 6501,
      "Ġ722": 6502,
      "Ġunzulassigkeit": 6503,
      "Ġacht": 6504,
      "Ġ142": 6505,
      "legungs": 6506,
      "Ġlaufenden": 6507,
      "Ġaktualis": 6508,
      "Ġspanische": 6509,
      "Ġerhobenen": 6510,
      "Ġausreichende": 6511,
      "Ġtank": 6512,
      "Ġbesoldungsgruppe": 6513,
      "Ġzugewiesen": 6514,
      "Ġprodukten": 6515,
      "Ġentscheidungsgrunde": 6516,
      "Ġgroup": 6517,
      "Ġgefahren": 6518,
      "Ġwelchen": 6519,
      "Ġmarket": 6520,
      "Ġident": 6521,
      "Ġprivate": 6522,
      "Ġabsol": 6523,
      "folgt": 6524,
      "gebiets": 6525,
      "000000000000": 6526,
      "Ġdrittland": 6527,
      "fordern": 6528,
      "Ġcomun": 6529,
      "Ġgefr": 6530,
      "Ġtechnologie": 6531,
      "sagen": 6532,
      "Ġzutreffend": 6533,
      "Ġquoten": 6534,
      "Ġbrem": 6535,
      "Ġ158": 6536,
      "Ġunmoglich": 6537,
      "Ġbeitrags": 6538,
      "Ġverbundene": 6539,
      "Ġ147": 6540,
      "lieben": 6541,
      "0001": 6542,
      "Ġeingefugt": 6543,
      "systems": 6544,
      "icke": 6545,
      "Ġausgest": 6546,
      "Ġgriechische": 6547,
      "Ġzentralbank": 6548,
      "Ġausgewahl": 6549,
      "Ġwirtschaftszweig": 6550,
      "Ġbestatigen": 6551,
      "303": 6552,
      "liess": 6553,
      "Ġ226": 6554,
      "ĠÎº": 6555,
      "Ġirgend": 6556,
      "Ġhilfs": 6557,
      "Ġbrand": 6558,
      "Ġwissenschaftliche": 6559,
      "Ġhellen": 6560,
      "emaÃŁnah": 6561,
      "Ġzusammenschlusses": 6562,
      "Ġgb": 6563,
      "Ġgesamthaushalts": 6564,
      "Ġauswahlverfahren": 6565,
      "Ġerfordert": 6566,
      "Ġtages": 6567,
      "ĠweiÃŁ": 6568,
      "Ġrugen": 6569,
      "Ġkonkurr": 6570,
      "do": 6571,
      "cao": 6572,
      "mens": 6573,
      "tions": 6574,
      "Ġspalte": 6575,
      "Ġgenehmigen": 6576,
      "Ġanteils": 6577,
      "Ġenglische": 6578,
      "dessen": 6579,
      "Ġniederlassung": 6580,
      "Ġgekennzeichnet": 6581,
      "Ġeinwande": 6582,
      "Ġom": 6583,
      "Ġkat": 6584,
      "Ġvorbehalten": 6585,
      "gerichtshof": 6586,
      "Ġcan": 6587,
      "Ġkommunikation": 6588,
      "Ġaufgefordert": 6589,
      "Ġverfolgten": 6590,
      "Ġ143": 6591,
      "Ġklausel": 6592,
      "Ġvoraussicht": 6593,
      "isk": 6594,
      "Ġgeplanten": 6595,
      "Ġverpflichten": 6596,
      "Ġquant": 6597,
      "ariat": 6598,
      "Ġnv": 6599,
      "Ġreser": 6600,
      "Ġergebenden": 6601,
      "vermogen": 6602,
      "Ġvertragsverletzung": 6603,
      "ĠabschlieÃŁ": 6604,
      "ieÃŁ": 6605,
      "ĠanschlieÃŁend": 6606,
      "eder": 6607,
      "Ġphase": 6608,
      "zeichnungen": 6609,
      "inner": 6610,
      "eien": 6611,
      "Ġ157": 6612,
      "milch": 6613,
      "utzer": 6614,
      "ille": 6615,
      "Ġwirksamen": 6616,
      "ossenschaft": 6617,
      "Ñĥ": 6618,
      "Ġjo": 6619,
      "glied": 6620,
      "tert": 6621,
      "Ġentgegensteht": 6622,
      "klus": 6623,
      "ni": 6624,
      "stellten": 6625,
      "ĠschutzmaÃŁnahmen": 6626,
      "Ġbeeintrachtigung": 6627,
      "zung": 6628,
      "stahl": 6629,
      "Ġruckforderung": 6630,
      "leben": 6631,
      "Ġjederzeit": 6632,
      "Ġbefreit": 6633,
      "Ġbildung": 6634,
      "Ġkeinerlei": 6635,
      "Ġgetragen": 6636,
      "dingt": 6637,
      "Ġeigenschaft": 6638,
      "praxis": 6639,
      "Ġwiederher": 6640,
      "aute": 6641,
      "Ġgesp": 6642,
      "schafter": 6643,
      "Ġgrad": 6644,
      "Ġhttp": 6645,
      "Ġeig": 6646,
      "kung": 6647,
      "Ġbege": 6648,
      "Ġzweig": 6649,
      "programme": 6650,
      "Ġgesetzgeber": 6651,
      "niveau": 6652,
      "Î¹Îº": 6653,
      "Ġmitzu": 6654,
      "Ġmuttergesellschaft": 6655,
      "Ġgesichtspunkte": 6656,
      "ergeb": 6657,
      "Ġhel": 6658,
      "asen": 6659,
      "Ġsichergestellt": 6660,
      "Ġsieb": 6661,
      "ĠÎ±": 6662,
      "schub": 6663,
      "Ġerteilen": 6664,
      "Ġgebuhr": 6665,
      "Ġwiedergegeben": 6666,
      "Ġanrei": 6667,
      "quellen": 6668,
      "masse": 6669,
      "ikal": 6670,
      "Ġnordir": 6671,
      "Ġderjenigen": 6672,
      "Ġanteile": 6673,
      "Ġphys": 6674,
      "Ġ168": 6675,
      "Ġinstrumente": 6676,
      "Ġhoheren": 6677,
      "Ġgemischten": 6678,
      "tlichen": 6679,
      "Ġole": 6680,
      "Ġ204": 6681,
      "Ġvogel": 6682,
      "Ġvalle": 6683,
      "ypern": 6684,
      "Ġerr": 6685,
      "Ġberuflichen": 6686,
      "Ġpersonenbezogener": 6687,
      "Ġbf": 6688,
      "Ġaustr": 6689,
      "Ġpil": 6690,
      "Ġzwecks": 6691,
      "Ġstutzung": 6692,
      "Ġaufweisen": 6693,
      "pfer": 6694,
      "Ġgenutzt": 6695,
      "Ġblo": 6696,
      "brachten": 6697,
      "Ġdemokrat": 6698,
      "quenz": 6699,
      "rechtlich": 6700,
      "Ġ175": 6701,
      "Ġmt": 6702,
      "Ġgelegt": 6703,
      "Ġfalsch": 6704,
      "Ġcommunity": 6705,
      "Ġgelegenheit": 6706,
      "Ġact": 6707,
      "Ġ268": 6708,
      "91": 6709,
      "Ġwirksame": 6710,
      "mack": 6711,
      "Ġbenachteil": 6712,
      "Ġansassigen": 6713,
      "Ġeroffnung": 6714,
      "Ġzypern": 6715,
      "Ġgene": 6716,
      "Ġkw": 6717,
      "Ġvermie": 6718,
      "Ġlitauen": 6719,
      "Ġerlaub": 6720,
      "Ġsofort": 6721,
      "Ã¦": 6722,
      "fang": 6723,
      "Ġafri": 6724,
      "Ġeinzelfall": 6725,
      "vg": 6726,
      "inu": 6727,
      "Ġkrankheit": 6728,
      "Ġbehauptung": 6729,
      "Ġ155": 6730,
      "uhe": 6731,
      "Ġ146": 6732,
      "Ġzolle": 6733,
      "Ġrechtswidrigkeit": 6734,
      "Ġverbleiben": 6735,
      "Ġ184": 6736,
      "Ġkonstru": 6737,
      "was": 6738,
      "ision": 6739,
      "Ġkraftstoff": 6740,
      "Ġtreten": 6741,
      "Ġ167": 6742,
      "Ġschriftsatz": 6743,
      "osla": 6744,
      "que": 6745,
      "Ġelektronische": 6746,
      "iesen": 6747,
      "Ġneues": 6748,
      "Ġordnung": 6749,
      "iten": 6750,
      "Ġeinschrankung": 6751,
      "Ġklaegerin": 6752,
      "Ġrev": 6753,
      "Ġinsofern": 6754,
      "Ġvorsteuerab": 6755,
      "Ġvoor": 6756,
      "rufen": 6757,
      "Ġrechtz": 6758,
      "vertr": 6759,
      "marken": 6760,
      "Ġeb": 6761,
      "Î³": 6762,
      "Ġhingegen": 6763,
      "Ġ187": 6764,
      "Ġverbindungen": 6765,
      "Ġzr": 6766,
      "Ġeintragungs": 6767,
      "Ġalumin": 6768,
      "Ġniederlassungs": 6769,
      "Ġverl": 6770,
      "Ġanlass": 6771,
      "zerr": 6772,
      "risik": 6773,
      "note": 6774,
      "Ġhyp": 6775,
      "Ġstaatlicher": 6776,
      "schuldner": 6777,
      "gien": 6778,
      "Ġwild": 6779,
      "chten": 6780,
      "Ġdarstellung": 6781,
      "gehende": 6782,
      "hersteller": 6783,
      "eland": 6784,
      "Ġamm": 6785,
      "itann": 6786,
      "Ġprozen": 6787,
      "lassungen": 6788,
      "Ġgenehmigten": 6789,
      "Ġcommission": 6790,
      "Ġmogliche": 6791,
      "Ġerwahnt": 6792,
      "Ġ220": 6793,
      "gerufen": 6794,
      "Ġelektronischen": 6795,
      "Ġkak": 6796,
      "Ġ151": 6797,
      "pon": 6798,
      "Ġix": 6799,
      "bogen": 6800,
      "spreis": 6801,
      "Ġzweit": 6802,
      "Ġsocie": 6803,
      "abgabe": 6804,
      "Ġwarm": 6805,
      "Ġexper": 6806,
      "Ġendgultig": 6807,
      "Ġrind": 6808,
      "estand": 6809,
      "Ġassoc": 6810,
      "Ġbevol": 6811,
      "Ġdeckung": 6812,
      "Ġgegenstanden": 6813,
      "treter": 6814,
      "Ġerganzung": 6815,
      "Ġabzuweisen": 6816,
      "sein": 6817,
      "Ġwww": 6818,
      "afer": 6819,
      "icipal": 6820,
      "Ġunterzogen": 6821,
      "Ġlaut": 6822,
      "Ġleicht": 6823,
      "Ġmehrerer": 6824,
      "Ġ3199": 6825,
      "zusetzen": 6826,
      "Ġaufsicht": 6827,
      "Ġaufeinander": 6828,
      "finanzierung": 6829,
      "ios": 6830,
      "tierte": 6831,
      "mitgliedstaat": 6832,
      "62": 6833,
      "staatliche": 6834,
      "druckt": 6835,
      "Ġverbessern": 6836,
      "Ġstarke": 6837,
      "ime": 6838,
      "Ġholding": 6839,
      "Ġ1965": 6840,
      "Ġdienststellen": 6841,
      "ĠauÃŁergewohn": 6842,
      "Ġportugiesischen": 6843,
      "Ġbrut": 6844,
      "Ġzertifik": 6845,
      "oxy": 6846,
      "eÃŁ": 6847,
      "Ġmodell": 6848,
      "anke": 6849,
      "Ġnordirland": 6850,
      "leger": 6851,
      "Ġstrecken": 6852,
      "Ġpraz": 6853,
      "Ġimmobil": 6854,
      "Ġvermarktung": 6855,
      "Ġ211": 6856,
      "Ġgrenze": 6857,
      "Ġdroh": 6858,
      "Ġwachst": 6859,
      "Ġaktivitaten": 6860,
      "Ġhandele": 6861,
      "meldung": 6862,
      "opf": 6863,
      "Ġlettland": 6864,
      "isiert": 6865,
      "Ġgegenleistung": 6866,
      "Ġgewalt": 6867,
      "ires": 6868,
      "Ġextract": 6869,
      "banken": 6870,
      "gerechnet": 6871,
      "Ġwettbewerbsver": 6872,
      "Ġmulti": 6873,
      "ĠgroÃŁer": 6874,
      "ault": 6875,
      "Ġschutzen": 6876,
      "tran": 6877,
      "Ġflag": 6878,
      "sta": 6879,
      "Ġ161": 6880,
      "Ġproc": 6881,
      "Ġungeachtet": 6882,
      "Ġeingestellt": 6883,
      "ielten": 6884,
      "Ġgeltungsdauer": 6885,
      "instrumente": 6886,
      "Ġberuhrt": 6887,
      "Ġbeschaftigten": 6888,
      "holz": 6889,
      "mechan": 6890,
      "Ġpoln": 6891,
      "Ġeingesetzten": 6892,
      "lau": 6893,
      "Ġox": 6894,
      "einheit": 6895,
      "isen": 6896,
      "Ġauferlegt": 6897,
      "Ġverschaf": 6898,
      "Ġanhalts": 6899,
      "Ġ2022": 6900,
      "Ġaufstellung": 6901,
      "Ġgerichtliche": 6902,
      "Ġkontext": 6903,
      "Ġverzo": 6904,
      "Ġkommissions": 6905,
      "Ġ209": 6906,
      "Ġbetrags": 6907,
      "Ġherstellern": 6908,
      "urlaub": 6909,
      "Ġglaubiger": 6910,
      "zogt": 6911,
      "Ġenth": 6912,
      "Ġausgeubt": 6913,
      "Ġnormalerweise": 6914,
      "osph": 6915,
      "Ġeinkunfte": 6916,
      "Ġarbeitsplatz": 6917,
      "Ġvollem": 6918,
      "gangenen": 6919,
      "Ġwollen": 6920,
      "Ġzulassungs": 6921,
      "Ġabstimmung": 6922,
      "prachen": 6923,
      "istan": 6924,
      "Ġcommer": 6925,
      "Ġharmonisierungsamt": 6926,
      "Ġeltern": 6927,
      "ures": 6928,
      "Ġfu": 6929,
      "Ġgetreten": 6930,
      "Ġversorgungs": 6931,
      "Ġsens": 6932,
      "eku": 6933,
      "Ġgestrichen": 6934,
      "instanz": 6935,
      "Ġbewertet": 6936,
      "Ġauslagen": 6937,
      "Ġrue": 6938,
      "Ġnachpruf": 6939,
      "Ġdetaill": 6940,
      "Ġdurchfuhren": 6941,
      "Ġverwendungs": 6942,
      "Ġerl": 6943,
      "tionen": 6944,
      "Ġbegrundungserwagung": 6945,
      "Ġtsi": 6946,
      "ales": 6947,
      "Ġallgemeiner": 6948,
      "Ġgenehmigungen": 6949,
      "versammlung": 6950,
      "organe": 6951,
      "Ġelectr": 6952,
      "Ġlanger": 6953,
      "rate": 6954,
      "Ġkalen": 6955,
      "Ġfinanziert": 6956,
      "artikel": 6957,
      "Ġ215": 6958,
      "Ġgesamtheit": 6959,
      "Ġ152": 6960,
      "Ġgro": 6961,
      "Ġziels": 6962,
      "Ġindik": 6963,
      "Ġfuhrer": 6964,
      "oche": 6965,
      "Ġturkei": 6966,
      "Ġzins": 6967,
      "auftrage": 6968,
      "Ġ730": 6969,
      "Ġanpassungen": 6970,
      "Ġarti": 6971,
      "Ġgeografischen": 6972,
      "einkommen": 6973,
      "haltungs": 6974,
      "Ġzollkodex": 6975,
      "Ġtre": 6976,
      "Ġpres": 6977,
      "Ġmw": 6978,
      "herzogt": 6979,
      "ordneten": 6980,
      "Ġsrl": 6981,
      "Ġangepasst": 6982,
      "Ġeingeleitet": 6983,
      "Ġwirkstoff": 6984,
      "steuersystem": 6985,
      "Ġâī": 6986,
      "Ġabsatzen": 6987,
      "Ġantragstell": 6988,
      "Ġmanagement": 6989,
      "windigkeit": 6990,
      "Ġeinfach": 6991,
      "Ġkapazitaten": 6992,
      "anspruchnahme": 6993,
      "Ġkapazitat": 6994,
      "Ġprobe": 6995,
      "Ġsy": 6996,
      "Ġwy": 6997,
      "gebung": 6998,
      "unterlagen": 6999,
      "befreiung": 7000,
      "Ġbreite": 7001,
      "Ġ217": 7002,
      "Ġbedenken": 7003,
      "Ġfeststellen": 7004,
      "Ġidentitat": 7005,
      "Ġkreditinstitu": 7006,
      "Ġinnen": 7007,
      "Ġrefer": 7008,
      "Ġausgesch": 7009,
      "Ġeinheiten": 7010,
      "ĠbeschlieÃŁen": 7011,
      "Ġschadigung": 7012,
      "Ġvorgelegte": 7013,
      "Ġ144": 7014,
      "Ġgeschutzt": 7015,
      "emitglied": 7016,
      "Ġgeschatz": 7017,
      "Ġfarb": 7018,
      "Ġverabschie": 7019,
      "forderten": 7020,
      "Ġthat": 7021,
      "britann": 7022,
      "Ġstraft": 7023,
      "ĠauszuschlieÃŁen": 7024,
      "gehalten": 7025,
      "Ġersetzen": 7026,
      "Ġmiteinander": 7027,
      "Ġonline": 7028,
      "jon": 7029,
      "laÃŁ": 7030,
      "Ġerhohen": 7031,
      "Ġ165": 7032,
      "Ġare": 7033,
      "rechnungs": 7034,
      "nieder": 7035,
      "Ġzahlreich": 7036,
      "Ġausnahmeregelung": 7037,
      "Ġstren": 7038,
      "Ġagreement": 7039,
      "statigkeiten": 7040,
      "Ġunionsburger": 7041,
      "Ġ170": 7042,
      "Ġvertretern": 7043,
      "Ġschatz": 7044,
      "Ġentscheidet": 7045,
      "Ġnutzer": 7046,
      "ktiver": 7047,
      "Ġschaffen": 7048,
      "Ġnachtrag": 7049,
      "Ġzwolf": 7050,
      "ku": 7051,
      "Ġmeisten": 7052,
      "massig": 7053,
      "Ġ228": 7054,
      "ary": 7055,
      "Ġqualif": 7056,
      "Ġ319": 7057,
      "oge": 7058,
      "Ġsar": 7059,
      "Ġrechtsakts": 7060,
      "entwicklung": 7061,
      "Ġungleich": 7062,
      "ulf": 7063,
      "Ġprodukts": 7064,
      "Ġumweltschutz": 7065,
      "Ġvolksrepublik": 7066,
      "Ġeinbezogen": 7067,
      "deration": 7068,
      "erten": 7069,
      "Ġjahrliche": 7070,
      "Ġdisziplin": 7071,
      "Ġflache": 7072,
      "Ġinanspruchnahme": 7073,
      "afe": 7074,
      "kredit": 7075,
      "gebuhren": 7076,
      "Ġvorherige": 7077,
      "Ġagenturen": 7078,
      "Ġwaffen": 7079,
      "orte": 7080,
      "Ġtilg": 7081,
      "ordnen": 7082,
      "Ġspec": 7083,
      "Ġneder": 7084,
      "traege": 7085,
      "Ġdividen": 7086,
      "Ġos": 7087,
      "geschrankt": 7088,
      "Ġpla": 7089,
      "Ġspeich": 7090,
      "Ġnovads": 7091,
      "Ġtatigen": 7092,
      "aj": 7093,
      "ania": 7094,
      "Ġregierungen": 7095,
      "Ġkooperations": 7096,
      "Ġexeku": 7097,
      "Ġausrustung": 7098,
      "Ġkonzep": 7099,
      "osp": 7100,
      "arbeits": 7101,
      "britannien": 7102,
      "Ġerwagungsgrunden": 7103,
      "Ġrundfun": 7104,
      "Ġvorhandenen": 7105,
      "Ġ611": 7106,
      "Ġerlautert": 7107,
      "Ġmir": 7108,
      "Ġherstellers": 7109,
      "rechtlicher": 7110,
      "Ġeffektiv": 7111,
      "hre": 7112,
      "Ġfunktionen": 7113,
      "Ġverband": 7114,
      "Ġsv": 7115,
      "Ġjapan": 7116,
      "Ġgetrennt": 7117,
      "Ġchlor": 7118,
      "Ġ4064": 7119,
      "anair": 7120,
      "Ġmeeres": 7121,
      "Ġstichpro": 7122,
      "arz": 7123,
      "Ġtechnischer": 7124,
      "Ġabweichung": 7125,
      "Ġryanair": 7126,
      "Ġlag": 7127,
      "flug": 7128,
      "Ġbereiche": 7129,
      "Ġfreizug": 7130,
      "bestande": 7131,
      "Ġraffin": 7132,
      "Ġwiederein": 7133,
      "skontr": 7134,
      "krank": 7135,
      "Ġtragung": 7136,
      "1000": 7137,
      "Ġ191": 7138,
      "Ġmais": 7139,
      "Ġcompu": 7140,
      "Ġgemeinsamer": 7141,
      "Ġnachweisen": 7142,
      "gelte": 7143,
      "Ġeconom": 7144,
      "gegenstand": 7145,
      "regelungen": 7146,
      "partei": 7147,
      "Ġweiterer": 7148,
      "Ġpersonlichen": 7149,
      "Ġentlastung": 7150,
      "Ġdau": 7151,
      "Ġetwaigen": 7152,
      "fehl": 7153,
      "Ġkonformitats": 7154,
      "ugosla": 7155,
      "Ġgenaue": 7156,
      "Ġinwie": 7157,
      "Ġverkaufe": 7158,
      "igh": 7159,
      "eitete": 7160,
      "Ġmunicipal": 7161,
      "Ġwiderspruchsverfahren": 7162,
      "Ġprze": 7163,
      "Ġerlauterungen": 7164,
      "Ġ337": 7165,
      "Ġgefordert": 7166,
      "organisationen": 7167,
      "emission": 7168,
      "Ġzeigt": 7169,
      "greich": 7170,
      "Ġmenschlichen": 7171,
      "Ġnahrungsmittel": 7172,
      "Ġtrei": 7173,
      "Ġ176": 7174,
      "Ġvorbereitung": 7175,
      "Ġbeigefugten": 7176,
      "ohlen": 7177,
      "markte": 7178,
      "diensten": 7179,
      "Ġbehalt": 7180,
      "Ġimmobilien": 7181,
      "kre": 7182,
      "Ġverschiedener": 7183,
      "Ġvorstehend": 7184,
      "stehende": 7185,
      "Ġmem": 7186,
      "splan": 7187,
      "gerat": 7188,
      "Ġwohl": 7189,
      "ction": 7190,
      "Ġfac": 7191,
      "Î¿ÏĤ": 7192,
      "genannte": 7193,
      "Ġstrategie": 7194,
      "Ġwochen": 7195,
      "hers": 7196,
      "Ġgeltende": 7197,
      "nern": 7198,
      "Ġmasse": 7199,
      "Ġtochtergesellschaften": 7200,
      "Ġgehen": 7201,
      "Ġkennzeich": 7202,
      "Ġbegrenzung": 7203,
      "nes": 7204,
      "methode": 7205,
      "iÃŁ": 7206,
      "azione": 7207,
      "Ġ278": 7208,
      "Ġerstattungsfahig": 7209,
      "Ġog": 7210,
      "Ġ166": 7211,
      "Ġjeg": 7212,
      "Ġberuhen": 7213,
      "Ġrub": 7214,
      "ahme": 7215,
      "Ġmak": 7216,
      "own": 7217,
      "Ġarbeitnehmern": 7218,
      "Ġformen": 7219,
      "Ġdurchfuhrungsbeschluss": 7220,
      "Ġrelevant": 7221,
      "Ġverbrauchsteuer": 7222,
      "Ġanerkannten": 7223,
      "endes": 7224,
      "Ġkreu": 7225,
      "kunde": 7226,
      "Ġwirtschaftlich": 7227,
      "Ġrichtet": 7228,
      "Ġgleichar": 7229,
      "Ġ193": 7230,
      "empfanger": 7231,
      "Ġinteroper": 7232,
      "Ġlei": 7233,
      "Ġgewinne": 7234,
      "Ġrentabilitat": 7235,
      "79": 7236,
      "Ġsolange": 7237,
      "iation": 7238,
      "opfung": 7239,
      "Ġaluminium": 7240,
      "Ġsteuerlichen": 7241,
      "aÃŁt": 7242,
      "Ġlebensmitteln": 7243,
      "Ġschnell": 7244,
      "Ġsteigen": 7245,
      "Ġeinvernehmen": 7246,
      "Ġschwellen": 7247,
      "Ġirr": 7248,
      "icherung": 7249,
      "Ġaufgestellten": 7250,
      "Ġsah": 7251,
      "Ġnav": 7252,
      "omo": 7253,
      "dau": 7254,
      "gehalts": 7255,
      "Ġunr": 7256,
      "frs": 7257,
      "Ġvorschlage": 7258,
      "Ġkas": 7259,
      "Ġwoll": 7260,
      "Ġerzielten": 7261,
      "Ġwahlen": 7262,
      "Ġklin": 7263,
      "befug": 7264,
      "Ġdam": 7265,
      "Ġ258": 7266,
      "zwecken": 7267,
      "Ġbeschaffen": 7268,
      "Ġprozent": 7269,
      "Ġmethyl": 7270,
      "Ġabbau": 7271,
      "Ġmitzuteilen": 7272,
      "Ġbefah": 7273,
      "Ġgatt": 7274,
      "ted": 7275,
      "Ġschm": 7276,
      "Ġfot": 7277,
      "kerung": 7278,
      "Ġpersonenbezogenen": 7279,
      "vorschrift": 7280,
      "Ġslowenien": 7281,
      "Ġeingefuhrte": 7282,
      "normen": 7283,
      "ĠÑģ": 7284,
      "Ġhintergrund": 7285,
      "Ġverwechslungs": 7286,
      "band": 7287,
      "Ġimo": 7288,
      "aw": 7289,
      "Ġoffiz": 7290,
      "Ġvermutung": 7291,
      "Ġuhr": 7292,
      "ziehungen": 7293,
      "ĠfuÃŁnote": 7294,
      "Ġausbr": 7295,
      "Ġsac": 7296,
      "ai": 7297,
      "Ġgewerblichen": 7298,
      "Ġangemeldete": 7299,
      "Ġapparate": 7300,
      "Ġbegriffe": 7301,
      "Ġtechnologien": 7302,
      "ners": 7303,
      "Ġvit": 7304,
      "Ġequ": 7305,
      "statt": 7306,
      "Ġestland": 7307,
      "Ġ188": 7308,
      "Ġbieten": 7309,
      "Ġverkaufen": 7310,
      "fre": 7311,
      "ĠÏĢ": 7312,
      "Ġgefolgt": 7313,
      "Ġprimar": 7314,
      "tro": 7315,
      "Ġmalta": 7316,
      "uth": 7317,
      "stab": 7318,
      "ities": 7319,
      "Ġanwendbarkeit": 7320,
      "ella": 7321,
      "Ġeuropaischer": 7322,
      "Ġsorge": 7323,
      "Ġanmerkung": 7324,
      "Ġtreu": 7325,
      "Ġvergleichbar": 7326,
      "Ġimporte": 7327,
      "alz": 7328,
      "Ġgesellschafts": 7329,
      "Ġeinreise": 7330,
      "Ġrestriktive": 7331,
      "let": 7332,
      "tiere": 7333,
      "Ġpaischen": 7334,
      "ae": 7335,
      "messer": 7336,
      "entgelt": 7337,
      "management": 7338,
      "Ġdarstelle": 7339,
      "Ġbeurteilt": 7340,
      "Ġfestzusetzen": 7341,
      "Ġzuges": 7342,
      "Ġschweinepest": 7343,
      "Ġhohere": 7344,
      "Ġinstitut": 7345,
      "elten": 7346,
      "Ġgeboten": 7347,
      "Ġmaterialien": 7348,
      "Ġdim": 7349,
      "Ġniveau": 7350,
      "ichtung": 7351,
      "Ġker": 7352,
      "Ġverwechslungsgefahr": 7353,
      "Ġisol": 7354,
      "Ġwelchem": 7355,
      "Ġmarktwirtschaft": 7356,
      "Ġaufrechterhaltung": 7357,
      "Ġobjektiven": 7358,
      "Ġsalz": 7359,
      "Ġgemel": 7360,
      "Ġverbindlichkeiten": 7361,
      "Ġsicherstellen": 7362,
      "Ġvermeidung": 7363,
      "Ġbewertungs": 7364,
      "Ġsz": 7365,
      "Ġpersonals": 7366,
      "Ġtradition": 7367,
      "Ġubergang": 7368,
      "app": 7369,
      "ry": 7370,
      "besteuer": 7371,
      "Ġcontain": 7372,
      "Ġschieds": 7373,
      "Ġsym": 7374,
      "Ġanspruchs": 7375,
      "assern": 7376,
      "Ġbud": 7377,
      "Ġinformiert": 7378,
      "ausschuÃŁ": 7379,
      "Ġnationales": 7380,
      "kontrollen": 7381,
      "hs": 7382,
      "trager": 7383,
      "Ġvolker": 7384,
      "Ġlich": 7385,
      "anderung": 7386,
      "Ġ253": 7387,
      "Ġdurchschnitts": 7388,
      "Ġzustandigkeiten": 7389,
      "Ġfreiheit": 7390,
      "Ġgeliefert": 7391,
      "falt": 7392,
      "Ġwien": 7393,
      "Ġ171": 7394,
      "Ġwettbewerbswi": 7395,
      "tific": 7396,
      "ograph": 7397,
      "amb": 7398,
      "Ġverwiesen": 7399,
      "andlungs": 7400,
      "Ġtar": 7401,
      "verband": 7402,
      "Ġbhm": 7403,
      "geheim": 7404,
      "legte": 7405,
      "Ġbot": 7406,
      "aca": 7407,
      "Ġbehandeln": 7408,
      "ektiven": 7409,
      "bem": 7410,
      "Ġheiz": 7411,
      "Ġ$": 7412,
      "igem": 7413,
      "Ġtexti": 7414,
      "straÃŁe": 7415,
      "Ġunabhangigkeit": 7416,
      "icy": 7417,
      "old": 7418,
      "euche": 7419,
      "Ġmehrwertsteuersystem": 7420,
      "Ġintegration": 7421,
      "achsen": 7422,
      "pflichten": 7423,
      "Ġbewirtschaft": 7424,
      "Ġeingereichten": 7425,
      "Ġdell": 7426,
      "Ġrichterin": 7427,
      "Ġspeziell": 7428,
      "Ġbegrundetheit": 7429,
      "Ġnon": 7430,
      "Ġ210": 7431,
      "strager": 7432,
      "leitungs": 7433,
      "Ġkre": 7434,
      "Ġerklarte": 7435,
      "ftware": 7436,
      "Ġgekommen": 7437,
      "Ġberatenden": 7438,
      "Ġabzug": 7439,
      "Ġerwiderung": 7440,
      "leidung": 7441,
      "210": 7442,
      "Ġpan": 7443,
      "Ġbeeinfluss": 7444,
      "Ġregistrierung": 7445,
      "ĠrechtmaÃŁig": 7446,
      "Ġsanktion": 7447,
      "Ġsieben": 7448,
      "vest": 7449,
      "Ġverkaufer": 7450,
      "vern": 7451,
      "tres": 7452,
      "betriebe": 7453,
      "Ġ221": 7454,
      "Ġinfolgedessen": 7455,
      "zinsen": 7456,
      "Ġlohn": 7457,
      "Ġwind": 7458,
      "Ġtu": 7459,
      "Ġvorgenommenen": 7460,
      "geschaft": 7461,
      "Ġentwickelt": 7462,
      "Ġbestatigung": 7463,
      "Ġangelegenheiten": 7464,
      "Ġwto": 7465,
      "ave": 7466,
      "Ġwarme": 7467,
      "Ġliege": 7468,
      "con": 7469,
      "Ġeingetreten": 7470,
      "jahrigen": 7471,
      "Ġubertragenen": 7472,
      "ingenden": 7473,
      "Ġteilte": 7474,
      "auben": 7475,
      "unn": 7476,
      "urteil": 7477,
      "Ġerweiterung": 7478,
      "Ġprovinz": 7479,
      "Ġjugosla": 7480,
      "Ġuberdies": 7481,
      "ĠÐ¿": 7482,
      "Ġimmater": 7483,
      "Ġinstand": 7484,
      "Ġenthaltene": 7485,
      "Ġmu": 7486,
      "Ġgeschutzten": 7487,
      "Ġvorsitzende": 7488,
      "Ġterritor": 7489,
      "Ġwettbewerbsregeln": 7490,
      "rates": 7491,
      "Ġunverhaltnis": 7492,
      "Ġschriftstuck": 7493,
      "Ġhamburg": 7494,
      "Ġinitiative": 7495,
      "gebieten": 7496,
      "Ġ239": 7497,
      "Ġbrit": 7498,
      "ĠÂ±": 7499,
      "Ġliefern": 7500,
      "Ð°Ð½": 7501,
      "Ġkorperschaft": 7502,
      "Ġbefindlichen": 7503,
      "Ġnamentlich": 7504,
      "Ġkunststoff": 7505,
      "ain": 7506,
      "Ġds": 7507,
      "Ġbekanntgabe": 7508,
      "asent": 7509,
      "Ġosterreichischen": 7510,
      "izeprasiden": 7511,
      "Ġcourt": 7512,
      "onenten": 7513,
      "Ġgegenseitige": 7514,
      "Ġschwerwie": 7515,
      "Ġerfolgte": 7516,
      "Ġtiergesund": 7517,
      "Ġabwicklung": 7518,
      "Ġ261": 7519,
      "Ġerlasses": 7520,
      "Ġzy": 7521,
      "fallt": 7522,
      "Ġ153": 7523,
      "Ġxii": 7524,
      "Ġhierbei": 7525,
      "Ġdella": 7526,
      "Ġeingegangenen": 7527,
      "Ġbelie": 7528,
      "Ġhuman": 7529,
      "blatts": 7530,
      "Ġhon": 7531,
      "Ġamtes": 7532,
      "herzogtum": 7533,
      "Ġinformationsaustausch": 7534,
      "Ġgg": 7535,
      "Ġhervorge": 7536,
      "Ġjugoslaw": 7537,
      "Ġ213": 7538,
      "Ġservice": 7539,
      "Ġharmonisierten": 7540,
      "Ġdividenden": 7541,
      "Ġfreizugigkeit": 7542,
      "Ġbescheid": 7543,
      "abl": 7544,
      "Ġzuruckzufuhren": 7545,
      "Ġrechten": 7546,
      "aktiv": 7547,
      "Ġstif": 7548,
      "Ġstehe": 7549,
      "so": 7550,
      "Ġpartnerschaft": 7551,
      "Ġ182": 7552,
      "planung": 7553,
      "kehrungen": 7554,
      "Ġve": 7555,
      "Ġanne": 7556,
      "Ġverfugbar": 7557,
      "Ġverhangt": 7558,
      "grenzung": 7559,
      "Ġprozentsatz": 7560,
      "ijke": 7561,
      "Ġausarbeitung": 7562,
      "Ġselben": 7563,
      "dam": 7564,
      "Ġunterposition": 7565,
      "iertem": 7566,
      "Ġpublic": 7567,
      "Ġstarken": 7568,
      "Ġ248": 7569,
      "Ġangeblich": 7570,
      "Ġbestritten": 7571,
      "andt": 7572,
      "Ġnachzuweisen": 7573,
      "Ġrechtfertigung": 7574,
      "ali": 7575,
      "Ġgeschafte": 7576,
      "Ġrechnungshofs": 7577,
      "Ġkontinu": 7578,
      "rente": 7579,
      "gelungen": 7580,
      "Ġinternationaler": 7581,
      "Ġvorzusehen": 7582,
      "weisungen": 7583,
      "werks": 7584,
      "Ġ163": 7585,
      "Ġehemaligen": 7586,
      "Ġprzez": 7587,
      "Ġfestgelegte": 7588,
      "fir": 7589,
      "Ġubernehmen": 7590,
      "Ġautomatisch": 7591,
      "Ġministerium": 7592,
      "Ġfehlende": 7593,
      "ĠÎ¼": 7594,
      "Ġpens": 7595,
      "Ġmittelbar": 7596,
      "Ġvergleichs": 7597,
      "Ġkonkrete": 7598,
      "Ġsteig": 7599,
      "Ġnomen": 7600,
      "Ġzucht": 7601,
      "Ġentfer": 7602,
      "Ġumwel": 7603,
      "Ġtv": 7604,
      "rechten": 7605,
      "Ġverpflichtungs": 7606,
      "ĠgroÃŁbritannien": 7607,
      "Ġstandort": 7608,
      "ĠordnungsgemaÃŁen": 7609,
      "Ġgeneralsekretar": 7610,
      "tiges": 7611,
      "klatur": 7612,
      "Ġexekutiv": 7613,
      "led": 7614,
      "iell": 7615,
      "verfolg": 7616,
      "ĠprozeÃŁ": 7617,
      "Ġreprasent": 7618,
      "Ġeigenmittel": 7619,
      "Ġgerech": 7620,
      "gesetzgeber": 7621,
      "Ġchr": 7622,
      "Ġ659": 7623,
      "jo": 7624,
      "legungen": 7625,
      "ktors": 7626,
      "xx": 7627,
      "ior": 7628,
      "Ġeid": 7629,
      "ehe": 7630,
      "Ġtschechischen": 7631,
      "tritts": 7632,
      "Ġtour": 7633,
      "Ġchemischen": 7634,
      "setzungs": 7635,
      "Ġbenutzt": 7636,
      "Ġgesamthaushaltsplan": 7637,
      "akten": 7638,
      "spolitik": 7639,
      "droh": 7640,
      "leiter": 7641,
      "Ġbal": 7642,
      "Ġgefroren": 7643,
      "Ġentf": 7644,
      "Ġsav": 7645,
      "Ġaktionen": 7646,
      "Ġpatent": 7647,
      "Ġbedurf": 7648,
      "mot": 7649,
      "Ġbringt": 7650,
      "Ġverursacht": 7651,
      "Ġbut": 7652,
      "Ġuntersucht": 7653,
      "Ġkmu": 7654,
      "Ġverank": 7655,
      "Ġbeweg": 7656,
      "produktion": 7657,
      "Ġint": 7658,
      "Ġrechtzeitig": 7659,
      "unt": 7660,
      "ussen": 7661,
      "Ġgetatigten": 7662,
      "frieden": 7663,
      "Ġkapazitats": 7664,
      "Ġeinbeziehung": 7665,
      "Ġflucht": 7666,
      "ameter": 7667,
      "verbraucher": 7668,
      "Ġreicht": 7669,
      "Ġherstellungs": 7670,
      "Ġmitteilungen": 7671,
      "Ġnorweg": 7672,
      "Ġrindfleisch": 7673,
      "Ġschiffen": 7674,
      "Ġahnlichkeit": 7675,
      "Ġdefault": 7676,
      "Ġsatell": 7677,
      "Ð¼": 7678,
      "ehrt": 7679,
      "Ġgenugen": 7680,
      "Ġkartells": 7681,
      "Ġvizeprasiden": 7682,
      "zed": 7683,
      "ones": 7684,
      "Ġabgesehen": 7685,
      "Ġmarktanteile": 7686,
      "tischer": 7687,
      "Ġerwagungsgrunde": 7688,
      "Ġrelativ": 7689,
      "Ġdieselbe": 7690,
      "Ġvollig": 7691,
      "Ġrepubl": 7692,
      "Ġ174": 7693,
      "Ġminder": 7694,
      "Ġunerheb": 7695,
      "Ġgesamtbetrag": 7696,
      "Ġgemeinsames": 7697,
      "punkts": 7698,
      "Ġpolitische": 7699,
      "Ġobliegt": 7700,
      "Ġ203": 7701,
      "Ġerstreckt": 7702,
      "Ġmay": 7703,
      "Ġausgewiesen": 7704,
      "ots": 7705,
      "Ġbananen": 7706,
      "ams": 7707,
      "Ġstudie": 7708,
      "kunften": 7709,
      "Ġsm": 7710,
      "Ġkil": 7711,
      "wirtschafts": 7712,
      "zwecke": 7713,
      "spar": 7714,
      "oli": 7715,
      "Ġsynthetischen": 7716,
      "Ġcontr": 7717,
      "Ġermessens": 7718,
      "Ġdenjenigen": 7719,
      "zurech": 7720,
      "mitglieder": 7721,
      "agne": 7722,
      "Ġfolgend": 7723,
      "ani": 7724,
      "Ġfracht": 7725,
      "Ġgewichts": 7726,
      "richtungs": 7727,
      "Ġelektrische": 7728,
      "Ġwald": 7729,
      "Ġvertrauen": 7730,
      "autsch": 7731,
      "Ġbeauftrag": 7732,
      "Ġbeteiligen": 7733,
      "oph": 7734,
      "Ġerforderlichenfalls": 7735,
      "ements": 7736,
      "Ġzinssatz": 7737,
      "Ġunterliegende": 7738,
      "Ġrich": 7739,
      "Ġprufverfahren": 7740,
      "Ġfruh": 7741,
      "Ġitalienisch": 7742,
      "spe": 7743,
      "Ġauswirken": 7744,
      "Ġreeder": 7745,
      "idad": 7746,
      "arbon": 7747,
      "Ġversicherung": 7748,
      "ismen": 7749,
      "Ġquelle": 7750,
      "tzahl": 7751,
      "Ġ154": 7752,
      "2000": 7753,
      "Ġsektoren": 7754,
      "Ġzukunft": 7755,
      "Ġausubt": 7756,
      "Ġbenannten": 7757,
      "zucker": 7758,
      "Ġusa": 7759,
      "Ġaltere": 7760,
      "ÐµÐ½": 7761,
      "Ġpel": 7762,
      "Ġobl": 7763,
      "baus": 7764,
      "Ġentfern": 7765,
      "Ġmassen": 7766,
      "Ġhs": 7767,
      "Ġ202": 7768,
      "loss": 7769,
      "Ġbewirkt": 7770,
      "Ġgla": 7771,
      "Ġfuttermittel": 7772,
      "Ġcc": 7773,
      "Ġ212": 7774,
      "Ġbahn": 7775,
      "iques": 7776,
      "Ġauslandischen": 7777,
      "Ġkroatien": 7778,
      "Ġverhalt": 7779,
      "renten": 7780,
      "Ġmateriellen": 7781,
      "kette": 7782,
      "Ġrechtsmittelfuhrerinnen": 7783,
      "85": 7784,
      "Ġflex": 7785,
      "haup": 7786,
      "Ġzustandigkeits": 7787,
      "of": 7788,
      "Ġstufe": 7789,
      "Ġbeteiligter": 7790,
      "Ġberufungs": 7791,
      "Ġlehr": 7792,
      "vergabe": 7793,
      "sspielraum": 7794,
      "Ġhc": 7795,
      "Ġverlauf": 7796,
      "Ġ172": 7797,
      "Ġursprungserzeugnisse": 7798,
      "Ġeintragungshin": 7799,
      "ates": 7800,
      "Ġkabel": 7801,
      "asste": 7802,
      "kommt": 7803,
      "Ġ249": 7804,
      "finden": 7805,
      "iver": 7806,
      "Ġ164": 7807,
      "Ġtragweite": 7808,
      "Ġschweizerischen": 7809,
      "Ġmos": 7810,
      "arischen": 7811,
      "macksm": 7812,
      "Ġunabhangige": 7813,
      "Ġauszusetzen": 7814,
      "Ġsant": 7815,
      "Ġstets": 7816,
      "egung": 7817,
      "Ġkraftfahrzeug": 7818,
      "Ġangemeldet": 7819,
      "Ġnutzungs": 7820,
      "Ġentgegenstehen": 7821,
      "Ġhinweise": 7822,
      "Ġspur": 7823,
      "produkten": 7824,
      "Ġrichters": 7825,
      "tatigkeit": 7826,
      "gegner": 7827,
      "Ġ820": 7828,
      "Ġunberuhrt": 7829,
      "Ġ194": 7830,
      "Ġunterrichtung": 7831,
      "beauftragten": 7832,
      "Ġpraktiken": 7833,
      "Ġbehauptet": 7834,
      "Ġoffensichtlichen": 7835,
      "Ġgebaude": 7836,
      "Ġ179": 7837,
      "Ġeigenkapital": 7838,
      "zehn": 7839,
      "Ġsem": 7840,
      "preises": 7841,
      "standig": 7842,
      "Ġintens": 7843,
      "ungsanspruch": 7844,
      "ders": 7845,
      "Ġrab": 7846,
      "Ġeroffnet": 7847,
      "Ġatomgemeinschaft": 7848,
      "Ġ302": 7849,
      "Ġschied": 7850,
      "Ġ3200": 7851,
      "Ġ224": 7852,
      "Ġdieselben": 7853,
      "Ġbetreffe": 7854,
      "Ġaufnahmemitglied": 7855,
      "erecht": 7856,
      "Ð³": 7857,
      "fungs": 7858,
      "Ġadressaten": 7859,
      "Ġbeider": 7860,
      "Ġschriftstucke": 7861,
      "Ġabweichend": 7862,
      "Ġwirtschaftlicher": 7863,
      "Ġzuteilung": 7864,
      "Ġselektiv": 7865,
      "Ġ205": 7866,
      "Ġkopie": 7867,
      "Ġhaushaltsplans": 7868,
      "Ġmachte": 7869,
      "Ġnomenklatur": 7870,
      "Ġsumme": 7871,
      "Ġtal": 7872,
      "genossenschaft": 7873,
      "Ġprojekts": 7874,
      "Ġcompany": 7875,
      "Ġamerika": 7876,
      "Ġbelastung": 7877,
      "Ġbilanz": 7878,
      "Ġerwerbs": 7879,
      "tive": 7880,
      "ĠverhaltnismaÃŁig": 7881,
      "Ġauswirkung": 7882,
      "arke": 7883,
      "eihen": 7884,
      "Ġmilcherzeugnisse": 7885,
      "Ġbrb": 7886,
      "wicklungs": 7887,
      "Ġerinner": 7888,
      "Ġvorherigen": 7889,
      "fahige": 7890,
      "Ġgemeinschaftliche": 7891,
      "liste": 7892,
      "Ġhalfte": 7893,
      "vertragen": 7894,
      "Ġubermittelte": 7895,
      "Ġgetrenn": 7896,
      "gebaut": 7897,
      "achtens": 7898,
      "Ġmain": 7899,
      "Ġdennoch": 7900,
      "erhebung": 7901,
      "Ġansatz": 7902,
      "Ġ225": 7903,
      "Ġamtliche": 7904,
      "pulver": 7905,
      "ieh": 7906,
      "Ġdist": 7907,
      "Ġup": 7908,
      "Ġkonsul": 7909,
      "arma": 7910,
      "Ġvornehmen": 7911,
      "Ġhypothe": 7912,
      "gelten": 7913,
      "tene": 7914,
      "Ġguy": 7915,
      "Ġsteigschub": 7916,
      "Ġbesten": 7917,
      "Ġgetrock": 7918,
      "Ġvorsitzenden": 7919,
      "Ġgegenseitigen": 7920,
      "Ġseitens": 7921,
      "Ġweiteres": 7922,
      "Ġangezeigt": 7923,
      "schau": 7924,
      "Ġdrittlander": 7925,
      "kurs": 7926,
      "Ġ181": 7927,
      "Ġstimmen": 7928,
      "Ġheim": 7929,
      "Ġbetreiben": 7930,
      "Ġplh": 7931,
      "Ġfund": 7932,
      "ais": 7933,
      "Ġwahrscheinlich": 7934,
      "Ġauto": 7935,
      "Ġtox": 7936,
      "Ġgesellschafter": 7937,
      "verlu": 7938,
      "achs": 7939,
      "chtenstein": 7940,
      "igr": 7941,
      "gast": 7942,
      "Ġinlandischen": 7943,
      "verhalten": 7944,
      "etzungen": 7945,
      "Ġvertretung": 7946,
      "Ġkonformitat": 7947,
      "ausgleich": 7948,
      "Ġeinzufuhren": 7949,
      "pel": 7950,
      "Ġchen": 7951,
      "Ġbitte": 7952,
      "personen": 7953,
      "Ġbeschreiben": 7954,
      "Ġtrocken": 7955,
      "Ġ235": 7956,
      "Ġ355": 7957,
      "ips": 7958,
      "haupt": 7959,
      "Ġdienstes": 7960,
      "Ġberechtigten": 7961,
      "ÏīÎ½": 7962,
      "Ġdisziplinar": 7963,
      "Ġverhindert": 7964,
      "sport": 7965,
      "Ġeintritt": 7966,
      "Ġiran": 7967,
      "Ġzustellung": 7968,
      "Ġgestatten": 7969,
      "innern": 7970,
      "Ġglu": 7971,
      "Ġliechtenstein": 7972,
      "Ġbeabsichtigt": 7973,
      "ival": 7974,
      "Ġ247": 7975,
      "Ġbeschaftigt": 7976,
      "Ġlinii": 7977,
      "Ġdrittstaaten": 7978,
      "Ġangemessener": 7979,
      "Ġpie": 7980,
      "Ġwarenbezeichnung": 7981,
      "ura": 7982,
      "aktionen": 7983,
      "Ġrichten": 7984,
      "Ġvari": 7985,
      "Ġrindern": 7986,
      "Ġferr": 7987,
      "ĠordnungsgemaÃŁe": 7988,
      "Ġgeflugel": 7989,
      "geschafte": 7990,
      "Ġwohnhaft": 7991,
      "Ġmarketing": 7992,
      "Ġgelangen": 7993,
      "Ġzwischenstreit": 7994,
      "Ġausbau": 7995,
      "Ġziffern": 7996,
      "erte": 7997,
      "Ġseg": 7998,
      "kel": 7999,
      "Ġanalys": 8000,
      "Ġbenz": 8001,
      "Ġservices": 8002,
      "berichts": 8003,
      "Ġexistenz": 8004,
      "Ð¾Ð²": 8005,
      "Ġbelgische": 8006,
      "iki": 8007,
      "Ġverwendete": 8008,
      "Ġ192": 8009,
      "Ġsuch": 8010,
      "Ġabbildung": 8011,
      "laufig": 8012,
      "Ġflach": 8013,
      "Ġkontrolliert": 8014,
      "Ġbesitzen": 8015,
      "netze": 8016,
      "ĠmaÃŁe": 8017,
      "Ġbir": 8018,
      "cr": 8019,
      "Ġnegativ": 8020,
      "Ġstillschw": 8021,
      "Ġgehe": 8022,
      "Ġhist": 8023,
      "Ġbriefwechsels": 8024,
      "Ġfen": 8025,
      "Ġerinnern": 8026,
      "Ġbeauftragt": 8027,
      "Ġbestands": 8028,
      "Ġformlichen": 8029,
      "Ġabgelaufen": 8030,
      "entscheidungen": 8031,
      "Ġmiet": 8032,
      "Ġautor": 8033,
      "rad": 8034,
      "Ġdargelegten": 8035,
      "gefunden": 8036,
      "Ġ243": 8037,
      "Ġbietet": 8038,
      "een": 8039,
      "Ġbus": 8040,
      "kategor": 8041,
      "meer": 8042,
      "Ġtatigkeits": 8043,
      "Ġvorgange": 8044,
      "Ġruckwirk": 8045,
      "Ġeheg": 8046,
      "amter": 8047,
      "kreise": 8048,
      "Ġ375": 8049,
      "Ġvergleichbaren": 8050,
      "Ġgehandelt": 8051,
      "Ġmehrwertsteuerrichtlinie": 8052,
      "Ġclass": 8053,
      "Ġbefasst": 8054,
      "Ġtschechische": 8055,
      "Ġmangels": 8056,
      "Ġnaher": 8057,
      "klausel": 8058,
      "Ġrio": 8059,
      "interesse": 8060,
      "Ġkolle": 8061,
      "Ġhaushalt": 8062,
      "Ġoriginal": 8063,
      "bstat": 8064,
      "ils": 8065,
      "ielen": 8066,
      "Ġgeheim": 8067,
      "Ġzweckdien": 8068,
      "schine": 8069,
      "Ġetwas": 8070,
      "Ġbeanstande": 8071,
      "esa": 8072,
      "Ġbs": 8073,
      "Ġverf": 8074,
      "Ġxi": 8075,
      "Ġsubs": 8076,
      "Ġulg": 8077,
      "Ġfrom": 8078,
      "Ġantragen": 8079,
      "Ġpack": 8080,
      "Ġ206": 8081,
      "Ġ162": 8082,
      "Ġhorizontale": 8083,
      "Ġbaumwolle": 8084,
      "strateg": 8085,
      "Ġvorgenommene": 8086,
      "Ġjahresabschluss": 8087,
      "Ġdurchschnittlichen": 8088,
      "Ġoliven": 8089,
      "Ġgeistiges": 8090,
      "Ġvernunf": 8091,
      "Ġvolumen": 8092,
      "partner": 8093,
      "Ġbraucht": 8094,
      "Ġcomputer": 8095,
      "zurechnen": 8096,
      "Ġilleg": 8097,
      "lasten": 8098,
      "fertigung": 8099,
      "furt": 8100,
      "Ġstick": 8101,
      "Ġbegunstigte": 8102,
      "orten": 8103,
      "Ġaufmerk": 8104,
      "Ġangestre": 8105,
      "Ġunterhalts": 8106,
      "Ġcam": 8107,
      "Ġdecken": 8108,
      "Ġunterlegen": 8109,
      "Ġsyr": 8110,
      "olution": 8111,
      "Ġanbau": 8112,
      "statten": 8113,
      "Ġstattgefunden": 8114,
      "gleichen": 8115,
      "znac": 8116,
      "Ġverspat": 8117,
      "ansass": 8118,
      "onien": 8119,
      "ĠverstoÃŁt": 8120,
      "worter": 8121,
      "Ġwolle": 8122,
      "artner": 8123,
      "Ġsuper": 8124,
      "Ġbefordert": 8125,
      "Ġ183": 8126,
      "Ġ305": 8127,
      "ĠbeschlieÃŁt": 8128,
      "Ġbemu": 8129,
      "Ġsoftware": 8130,
      "Ġumstrukturierungsplan": 8131,
      "Ġkenntnisse": 8132,
      "Ġauszuuben": 8133,
      "Ġstatut": 8134,
      "Ġstaatsangehorige": 8135,
      "diskrimin": 8136,
      "Ġtests": 8137,
      "Ġfertig": 8138,
      "Ġmeinung": 8139,
      "Ġtarifnummer": 8140,
      "Ġunterworfen": 8141,
      "antwortung": 8142,
      "andte": 8143,
      "Ġcorpor": 8144,
      "Ġangefugt": 8145,
      "Ġlam": 8146,
      "Ġbp": 8147,
      "informationen": 8148,
      "Ġstandards": 8149,
      "Ġniedrig": 8150,
      "ziele": 8151,
      "ministerium": 8152,
      "Ġunterschiedlich": 8153,
      "Ġerzielen": 8154,
      "Ġmarok": 8155,
      "Ġbat": 8156,
      "ario": 8157,
      "Ġzufrieden": 8158,
      "Ġberechnungs": 8159,
      "Ġindustri": 8160,
      "Ġerfuellung": 8161,
      "ekt": 8162,
      "Ġmunicipality": 8163,
      "skosten": 8164,
      "Ġerlitten": 8165,
      "quenzen": 8166,
      "Ġinval": 8167,
      "Ġunein": 8168,
      "Ġerdgas": 8169,
      "Ġverfahrensbeteiligte": 8170,
      "Ġdanischen": 8171,
      "sagt": 8172,
      "Ġmarktteil": 8173,
      "Ġneutr": 8174,
      "Ġidentisch": 8175,
      "Ġantidumpingzoll": 8176,
      "Ġrettungs": 8177,
      "union": 8178,
      "Ġberuft": 8179,
      "Ġ296": 8180,
      "gebuhr": 8181,
      "Ġschulden": 8182,
      "Ġ630": 8183,
      "Ġubersteigen": 8184,
      "Ġ270": 8185,
      "Ġfirmen": 8186,
      "Ġbegriffsbestimmungen": 8187,
      "Ġeinzureihen": 8188,
      "Ġpruft": 8189,
      "Ġbeitrittsakte": 8190,
      "Ġaan": 8191,
      "ucken": 8192,
      "Ġtto": 8193,
      "kapazitat": 8194,
      "Ġermachtig": 8195,
      "Ġrechtsmittelgrundes": 8196,
      "beziehungen": 8197,
      "ĠmaÃŁgeben": 8198,
      "74": 8199,
      "Ġpolizei": 8200,
      "Ġzweignieder": 8201,
      "emitt": 8202,
      "Ġkrankenhaus": 8203,
      "kommission": 8204,
      "enne": 8205,
      "Ġchemische": 8206,
      "Ġverantwortlichen": 8207,
      "Ġtierischen": 8208,
      "Ġtiers": 8209,
      "Ġvorsteuerabzug": 8210,
      "Ġbayer": 8211,
      "Ġsecret": 8212,
      "stufen": 8213,
      "Ġging": 8214,
      "Ġwenden": 8215,
      "weiten": 8216,
      "Ġdesselben": 8217,
      "Ġtol": 8218,
      "Ġbestreitet": 8219,
      "Ġ233": 8220,
      "ynam": 8221,
      "ĠunregelmaÃŁ": 8222,
      "Ġregionaler": 8223,
      "see": 8224,
      "Ġeffizienz": 8225,
      "Ġ288": 8226,
      "era": 8227,
      "Ġhauptz": 8228,
      "Ġabfallen": 8229,
      "Ġgegenteil": 8230,
      "Ġangewandten": 8231,
      "Ġgeburtsdatum": 8232,
      "Ġwendet": 8233,
      "Ġvertrauensschutzes": 8234,
      "lecht": 8235,
      "Ġ186": 8236,
      "untersuchung": 8237,
      "ÃŁern": 8238,
      "Ġczesc": 8239,
      "Ġnunmehr": 8240,
      "Ġgegenstands": 8241,
      "arbeiteten": 8242,
      "viel": 8243,
      "Ġbritish": 8244,
      "Ġschau": 8245,
      "Ġgrundlegenden": 8246,
      "frem": 8247,
      "Ġnachweise": 8248,
      "tigter": 8249,
      "Ġletztgenannten": 8250,
      "Ġgeltung": 8251,
      "Ġcast": 8252,
      "Ġverhinderung": 8253,
      "Ġ^": 8254,
      "Ġwesentlicher": 8255,
      "Ġprinzip": 8256,
      "ollam": 8257,
      "Ġbeachtet": 8258,
      "Ġabnehmer": 8259,
      "analy": 8260,
      "Ġschreibens": 8261,
      "Ġachten": 8262,
      "Ġunterzeichneten": 8263,
      "Ġkunde": 8264,
      "Ġmedien": 8265,
      "vorauss": 8266,
      "Ġausgangsrechts": 8267,
      "Ġkusten": 8268,
      "Ġniederlassungsfreiheit": 8269,
      "Ġansassig": 8270,
      "Ġderzeitigen": 8271,
      "Ġquantitat": 8272,
      "Ġabziel": 8273,
      "Ġalternative": 8274,
      "Ġentrichten": 8275,
      "alog": 8276,
      "stellte": 8277,
      "Ġverwertung": 8278,
      "beitrag": 8279,
      "Ġpp": 8280,
      "Ġ875": 8281,
      "otte": 8282,
      "ĠunregelmaÃŁigkeiten": 8283,
      "streitig": 8284,
      "Ġmiej": 8285,
      "ĠbloÃŁe": 8286,
      "Ġdirekten": 8287,
      "Ġschnitt": 8288,
      "bezogene": 8289,
      "Ġverringern": 8290,
      "Ġ232": 8291,
      "Ġuntersagt": 8292,
      "ĠverauÃŁerung": 8293,
      "Ġkalender": 8294,
      "Ġanhangen": 8295,
      "Ġzulassigen": 8296,
      "Ġziegen": 8297,
      "Ġtir": 8298,
      "Ġweigerung": 8299,
      "Ġ321": 8300,
      "istischen": 8301,
      "Ġherz": 8302,
      "df": 8303,
      "ungsantrag": 8304,
      "ques": 8305,
      "ahlen": 8306,
      "ethyl": 8307,
      "ĠgroÃŁherzogtum": 8308,
      "Ġgal": 8309,
      "Ġtaf": 8310,
      "ovo": 8311,
      "beschaf": 8312,
      "wirtschaftlichen": 8313,
      "Ġast": 8314,
      "020": 8315,
      "Ġgleichwohl": 8316,
      "Ġunbedingt": 8317,
      "infrastruktur": 8318,
      "Ð·": 8319,
      "markts": 8320,
      "Ġ1605": 8321,
      "wal": 8322,
      "Ġ350": 8323,
      "Ġ219": 8324,
      "Ġsas": 8325,
      "Ġeinrede": 8326,
      "Ġ287": 8327,
      "kontroll": 8328,
      "Ġverzugs": 8329,
      "Ġkonferenz": 8330,
      "Ġfremd": 8331,
      "institut": 8332,
      "Ġzugute": 8333,
      "behor": 8334,
      "berechtigten": 8335,
      "register": 8336,
      "Ġzuzuglich": 8337,
      "Ġbetrachten": 8338,
      "Ġrichtigkeit": 8339,
      "Ġenthalte": 8340,
      "tenor": 8341,
      "Ġentsprechender": 8342,
      "Ġbinden": 8343,
      "Ġhellenische": 8344,
      "ylen": 8345,
      "anmeldung": 8346,
      "ents": 8347,
      "bres": 8348,
      "Ġerwarten": 8349,
      "oxid": 8350,
      "schlage": 8351,
      "Ġ299": 8352,
      "Ġ701": 8353,
      "Ġrahmenvereinbarung": 8354,
      "Ġ260": 8355,
      "ez": 8356,
      "ausgaben": 8357,
      "Ġ280": 8358,
      "hafen": 8359,
      "Ġmodernis": 8360,
      "emaÃŁnahmen": 8361,
      "Ġanbel": 8362,
      "rahmens": 8363,
      "Ġherabsetzung": 8364,
      "Ġbevollmachtigter": 8365,
      "Ġrevision": 8366,
      "Ġoblig": 8367,
      "Ġnum": 8368,
      "Ġnahm": 8369,
      "Ġfuhrerschein": 8370,
      "Ġkonvention": 8371,
      "kohlen": 8372,
      "Ġeib": 8373,
      "Ġquart": 8374,
      "Ġfestlegen": 8375,
      "Ġaccord": 8376,
      "Ġagric": 8377,
      "Ġzugleich": 8378,
      "Ġlizenzen": 8379,
      "ĠerlieÃŁ": 8380,
      "Ġaufwendungen": 8381,
      "Ġsamtlicher": 8382,
      "Ġinteroperabilitat": 8383,
      "Ġphil": 8384,
      "systeme": 8385,
      "Ġauslandische": 8386,
      "Ġblu": 8387,
      "Ġkorr": 8388,
      "Ġauswahlverfahrens": 8389,
      "bindung": 8390,
      "Ġbeeinflussen": 8391,
      "Ġstate": 8392,
      "Ġess": 8393,
      "serv": 8394,
      "Ġschlusselworter": 8395,
      "84": 8396,
      "Ġbrutto": 8397,
      "Ġcs": 8398,
      "isierungs": 8399,
      "Ġsw": 8400,
      "lad": 8401,
      "Ġungultig": 8402,
      "Ġweshalb": 8403,
      "Ġterror": 8404,
      "Ġerlauben": 8405,
      "Ġdol": 8406,
      "beding": 8407,
      "iox": 8408,
      "Ġwyznac": 8409,
      "Ġverpackungs": 8410,
      "Ġkonsultation": 8411,
      "Ġhistor": 8412,
      "Ġgelte": 8413,
      "unternehmens": 8414,
      "Ġschienen": 8415,
      "char": 8416,
      "Ġkonkret": 8417,
      "Ġubersteigt": 8418,
      "Ġmaur": 8419,
      "Ġunterlassen": 8420,
      "Ġ281": 8421,
      "Ġubereinstimmen": 8422,
      "igar": 8423,
      "Ġga": 8424,
      "beschrankungen": 8425,
      "Ġbelege": 8426,
      "Ġmy": 8427,
      "Ġerteilten": 8428,
      "Ġgrundlegen": 8429,
      "Ġrechnungsabschluss": 8430,
      "lizenzen": 8431,
      "val": 8432,
      "Ġip": 8433,
      "pflege": 8434,
      "Ġ216": 8435,
      "visions": 8436,
      "Ġpsych": 8437,
      "lied": 8438,
      "áĥł": 8439,
      "Ġprin": 8440,
      "verarbeitung": 8441,
      "jenige": 8442,
      "zonej": 8443,
      "Ġindividuell": 8444,
      "Ġverfalschen": 8445,
      "markten": 8446,
      "Ġerstattet": 8447,
      "Ġvorkehrungen": 8448,
      "ystems": 8449,
      "Î´": 8450,
      "reck": 8451,
      "erkennen": 8452,
      "Ġimpf": 8453,
      "Ġeingangs": 8454,
      "Ġprogrammen": 8455,
      "Ġ335": 8456,
      "Ġwertes": 8457,
      "Ġgrei": 8458,
      "sendung": 8459,
      "Ġpraktisch": 8460,
      "Ġfast": 8461,
      "Ġrd": 8462,
      "Ġola": 8463,
      "Ġumsatzes": 8464,
      "Ġlet": 8465,
      "Ġverschlusssachen": 8466,
      "Ġdun": 8467,
      "Ġ214": 8468,
      "Ġjugend": 8469,
      "weizen": 8470,
      "Ġicao": 8471,
      "Ġbegleit": 8472,
      "Ġlagen": 8473,
      "guter": 8474,
      "Ġcentre": 8475,
      "qualitat": 8476,
      "Ġbeantragten": 8477,
      "Ġsetz": 8478,
      "Ġ318": 8479,
      "Ġpartie": 8480,
      "Ġstrukturfonds": 8481,
      "Ġverweigert": 8482,
      "Ġbb": 8483,
      "Ġfalles": 8484,
      "Ġvorubergehend": 8485,
      "Ġdiskriminierungs": 8486,
      "Ġarm": 8487,
      "Ġlib": 8488,
      "ĠÐ½": 8489,
      "Ġ275": 8490,
      "Ġgesetzlich": 8491,
      "Î¹Î½": 8492,
      "fg": 8493,
      "kostenentscheidung": 8494,
      "Ġschiffes": 8495,
      "kostenentscheidungtenor": 8496,
      "Ġcodes": 8497,
      "Ġfamilienangehorigen": 8498,
      "Ġgrem": 8499,
      "Ġtatbestand": 8500,
      "plane": 8501,
      "Ġeidgenossenschaft": 8502,
      "Ġinstall": 8503,
      "Ġdigit": 8504,
      "bereiche": 8505,
      "konzep": 8506,
      "Ġklauseln": 8507,
      "Ġvorschlags": 8508,
      "Ġlagerung": 8509,
      "Ġfehlerhaft": 8510,
      "ĠausschlieÃŁliche": 8511,
      "Ġalban": 8512,
      "maÃŁen": 8513,
      "Ġ236": 8514,
      "handelt": 8515,
      "Ġunfall": 8516,
      "olo": 8517,
      "Ġgemeinden": 8518,
      "Ġ255": 8519,
      "Ġrechtswidrigen": 8520,
      "Ġvereinbaren": 8521,
      "Ġzollsatz": 8522,
      "Ġindividuellen": 8523,
      "Ġbereitgestellt": 8524,
      "organismen": 8525,
      "Ġzwangslaufig": 8526,
      "gerecht": 8527,
      "Ġausgabe": 8528,
      "Ġgeneraldirektion": 8529,
      "Ġkant": 8530,
      "Ġgewiss": 8531,
      "Ġwyznaczonej": 8532,
      "Ġvermerk": 8533,
      "Ġdocument": 8534,
      "berichte": 8535,
      "Ġ303": 8536,
      "Ġerwerben": 8537,
      "Ġbewahr": 8538,
      "oms": 8539,
      "Ġvorange": 8540,
      "Ġwillen": 8541,
      "aferenz": 8542,
      "Ġrhein": 8543,
      "Ġlebenden": 8544,
      "Ġerhoh": 8545,
      "Ġkombination": 8546,
      "Ġerwerber": 8547,
      "Ġargumentation": 8548,
      "Ġbelegt": 8549,
      "pos": 8550,
      "Ġzielsetzung": 8551,
      "ativer": 8552,
      "Ġbla": 8553,
      "Ġinterventionen": 8554,
      "igsten": 8555,
      "Ġnichtdiskrimin": 8556,
      "Ġdargestellt": 8557,
      "Ġhinzuge": 8558,
      "Ġreal": 8559,
      "rk": 8560,
      "dernisse": 8561,
      "Ġubertragungs": 8562,
      "faden": 8563,
      "Ġerhielt": 8564,
      "Ġuntersuchen": 8565,
      "Ġwiderrufs": 8566,
      "Ġeiniger": 8567,
      "Ġsolv": 8568,
      "ants": 8569,
      "gemessen": 8570,
      "Ġaufmerksam": 8571,
      "Ġauthor": 8572,
      "Ġrechnungen": 8573,
      "Ġkraftfahrzeuge": 8574,
      "Ġpunkten": 8575,
      "beteiligung": 8576,
      "Ġhaltbar": 8577,
      "gibt": 8578,
      "befehl": 8579,
      "Ġ621": 8580,
      "Ġcir": 8581,
      "Ġangegriffen": 8582,
      "Ġdokuments": 8583,
      "oni": 8584,
      "Ġrats": 8585,
      "Ġdirekte": 8586,
      "Ġspinnstoffen": 8587,
      "sky": 8588,
      "Ġausgedruckt": 8589,
      "Ġkonto": 8590,
      "Ġbevolkerung": 8591,
      "Ġerhob": 8592,
      "skap": 8593,
      "mitgliedstaats": 8594,
      "Ġtilgung": 8595,
      "Ġanstr": 8596,
      "Ġbemessungsgrundlage": 8597,
      "Ġoffenkund": 8598,
      "Ġerwerbstat": 8599,
      "vom": 8600,
      "Ġverla": 8601,
      "cy": 8602,
      "Ġmager": 8603,
      "Ġkunstlichen": 8604,
      "Ġabweichungen": 8605,
      "Ġverhangten": 8606,
      "inkel": 8607,
      "Ġ240": 8608,
      "Ġaufgestellt": 8609,
      "Ġchrist": 8610,
      "zahlten": 8611,
      "Ġirre": 8612,
      "Ġ308": 8613,
      "isl": 8614,
      "Ġentwicklungen": 8615,
      "Ġerb": 8616,
      "Ġgewasser": 8617,
      "volumen": 8618,
      "Ġsgb": 8619,
      "Ġif": 8620,
      "Ġteilgenommen": 8621,
      "Ġkunftigen": 8622,
      "Ġmarktz": 8623,
      "tm": 8624,
      "Ġdurften": 8625,
      "Ġfreie": 8626,
      "tausch": 8627,
      "Ġflo": 8628,
      "Ġdicke": 8629,
      "veranst": 8630,
      "esti": 8631,
      "leistungs": 8632,
      "Ġgebietsansass": 8633,
      "entscheidungsgrunde": 8634,
      "eischen": 8635,
      "ero": 8636,
      "ics": 8637,
      "ssicherung": 8638,
      "uchs": 8639,
      "Ġcu": 8640,
      "schusses": 8641,
      "estr": 8642,
      "Ġnenn": 8643,
      "prinzip": 8644,
      "Ġ330": 8645,
      "uberwach": 8646,
      "Ġdos": 8647,
      "Ġcote": 8648,
      "Ġunerheblich": 8649,
      "Ġrelevante": 8650,
      "dens": 8651,
      "Ġgetatigt": 8652,
      "Ġpulver": 8653,
      "entwurf": 8654,
      "Ġeinstweil": 8655,
      "Ġcook": 8656,
      "bescheinigungen": 8657,
      "Ġalten": 8658,
      "Ġhygien": 8659,
      "isu": 8660,
      "zustand": 8661,
      "Ġ295": 8662,
      "Ġtechnik": 8663,
      "fut": 8664,
      "Ġkorrektur": 8665,
      "passen": 8666,
      "griffs": 8667,
      "Ġkindes": 8668,
      "issbrauch": 8669,
      "Ġannex": 8670,
      "Ġ347": 8671,
      "Ġerachtet": 8672,
      "Ġschrittweise": 8673,
      "Ġ229": 8674,
      "Ġklagebe": 8675,
      "Ġerlau": 8676,
      "Ġsorgfal": 8677,
      "Ġ245": 8678,
      "entscheidungsgrundekostenentscheidungtenor": 8679,
      "methoden": 8680,
      "zeugnisse": 8681,
      "Ġhaut": 8682,
      "skie": 8683,
      "hun": 8684,
      "yt": 8685,
      "Ġster": 8686,
      "Ġverringert": 8687,
      "Ġerhobene": 8688,
      "Ġmartin": 8689,
      "Ġklaren": 8690,
      "021": 8691,
      "ozona": 8692,
      "Ġderiv": 8693,
      "standards": 8694,
      "Ġwod": 8695,
      "Ġsicherung": 8696,
      "Ġmeldung": 8697,
      "Ġdefiz": 8698,
      "press": 8699,
      "Ġ222": 8700,
      "Ġvorgeworfen": 8701,
      "Ġpetr": 8702,
      "leiteten": 8703,
      "phase": 8704,
      "Ġcur": 8705,
      "Ġpays": 8706,
      "Ġwirtschaftsjahr": 8707,
      "ĠpoÅĤozona": 8708,
      "hylen": 8709,
      "macht": 8710,
      "Ġdb": 8711,
      "Ġtierarzt": 8712,
      "Ġerfahrungen": 8713,
      "ukle": 8714,
      "Ġwichtige": 8715,
      "ergie": 8716,
      "Ġkonzentration": 8717,
      "Ġvide": 8718,
      "Ġberechnen": 8719,
      "Ġbeamtenstat": 8720,
      "Ġlas": 8721,
      "Ġbeleg": 8722,
      "Ġrechtsbehelf": 8723,
      "ods": 8724,
      "fo": 8725,
      "Ġresolution": 8726,
      "regierung": 8727,
      "Ġnichtein": 8728,
      "Ġalias": 8729,
      "Ġletzte": 8730,
      "Ġ301": 8731,
      "Ġbearbeitung": 8732,
      "wiat": 8733,
      "Ġdans": 8734,
      "Ġspinnfasern": 8735,
[...]
