{
  "version": "1.0",
  "truncation": null,
  "padding": null,
  "added_tokens": [
    {
      "id": 0,
      "content": "<pad>",
      "single_word": false,
      "lstrip": false,
      "rstrip": false,
      "normalized": false,
      "special": true
    },
    {
      "id": 1,
      "content": "<s>",
      "single_word": false,
      "lstrip": false,
      "rstrip": false,
      "normalized": false,
      "special": true
    },
    {
      "id": 2,
      "content": "</s>",
      "single_word": false,
      "lstrip": false,
      "rstrip": false,
      "normalized": false,
      "special": true
    },
    {
      "id": 3,
      "content": "<unk>",
      "single_word": false,
      "lstrip": false,
      "rstrip": false,
      "normalized": false,
      "special": true
    },
    {
      "id": 4,
      "content": "<mask>",
      "single_word": false,
      "lstrip": false,
      "rstrip": false,
      "normalized": false,
      "special": true
    }
  ],
  "normalizer": {
    "type": "Sequence",
    "normalizers": [
      {
        "type": "NFKD"
      },
      {
        "type": "BertNormalizer",
        "clean_text": true,
        "handle_chinese_chars": true,
        "strip_accents": null,
        "lowercase": true
      }
    ]
  },
  "pre_tokenizer": {
    "type": "Sequence",
    "pretokenizers": [
      {
        "type": "BertPreTokenizer"
      },
      {
        "type": "ByteLevel",
        "add_prefix_space": true,
        "trim_offsets": true,
        "use_regex": true
      }
    ]
  },
  "post_processor": {
    "type": "RobertaProcessing",
    "sep": [
      "</s>",
      2
    ],
    "cls": [
      "<s>",
      1
    ],
    "trim_offsets": true,
    "add_prefix_space": true
  },
  "decoder": {
    "type": "ByteLevel",
    "add_prefix_space": true,
    "trim_offsets": true,
    "use_regex": true
  },
  "model": {
    "type": "BPE",
    "dropout": null,
    "unk_token": "<unk>",
    "continuing_subword_prefix": null,
    "end_of_word_suffix": null,
    "fuse_unk": false,
    "vocab": {
      "<pad>": 0,
      "<s>": 1,
      "</s>": 2,
      "<unk>": 3,
      "<mask>": 4,
      "!": 5,
      "\"": 6,
      "#": 7,
      "$": 8,
      "%": 9,
      "&": 10,
      "'": 11,
      "(": 12,
      ")": 13,
      "*": 14,
      "+": 15,
      ",": 16,
      "-": 17,
      ".": 18,
      "/": 19,
      "0": 20,
      "1": 21,
      "2": 22,
      "3": 23,
      "4": 24,
      "5": 25,
      "6": 26,
      "7": 27,
      "8": 28,
      "9": 29,
      ":": 30,
      ";": 31,
      "<": 32,
      "=": 33,
      ">": 34,
      "?": 35,
      "@": 36,
      "[": 37,
      "\\": 38,
      "]": 39,
      "^": 40,
      "_": 41,
      "`": 42,
      "a": 43,
      "b": 44,
      "c": 45,
      "d": 46,
      "e": 47,
      "f": 48,
      "g": 49,
      "h": 50,
      "i": 51,
      "j": 52,
      "k": 53,
      "l": 54,
      "m": 55,
      "n": 56,
      "o": 57,
      "p": 58,
      "q": 59,
      "r": 60,
      "s": 61,
      "t": 62,
      "u": 63,
      "v": 64,
      "w": 65,
      "x": 66,
      "y": 67,
      "z": 68,
      "{": 69,
      "|": 70,
      "}": 71,
      "~": 72,
      "¡": 73,
      "¢": 74,
      "£": 75,
      "¤": 76,
      "¥": 77,
      "¦": 78,
      "§": 79,
      "¨": 80,
      "©": 81,
      "ª": 82,
      "«": 83,
      "¬": 84,
      "®": 85,
      "¯": 86,
      "°": 87,
      "±": 88,
      "²": 89,
      "³": 90,
      "´": 91,
      "µ": 92,
      "¶": 93,
      "·": 94,
      "¸": 95,
      "¹": 96,
      "º": 97,
      "»": 98,
      "¼": 99,
      "½": 100,
      "¾": 101,
      "¿": 102,
      "Â": 103,
      "Ã": 104,
      "Ä": 105,
      "Å": 106,
      "Æ": 107,
      "É": 108,
      "Ê": 109,
      "Ë": 110,
      "Î": 111,
      "Ï": 112,
      "Ð": 113,
      "Ñ": 114,
      "Ò": 115,
      "Ó": 116,
      "Õ": 117,
      "Ö": 118,
      "Ø": 119,
      "Ù": 120,
      "Ú": 121,
      "Û": 122,
      "ß": 123,
      "à": 124,
      "á": 125,
      "â": 126,
      "ã": 127,
      "ä": 128,
      "å": 129,
      "æ": 130,
      "ç": 131,
      "è": 132,
      "é": 133,
      "ð": 134,
      "Ġ": 135,
      "Ģ": 136,
      "ģ": 137,
      "Ĥ": 138,
      "ĥ": 139,
      "Ħ": 140,
      "ħ": 141,
      "Ĩ": 142,
      "ĩ": 143,
      "Ī": 144,
      "ī": 145,
      "Ĭ": 146,
      "ĭ": 147,
      "Į": 148,
      "į": 149,
      "İ": 150,
      "ı": 151,
      "Ĳ": 152,
      "ĳ": 153,
      "Ĵ": 154,
      "ĵ": 155,
      "Ķ": 156,
      "ķ": 157,
      "ĸ": 158,
      "Ĺ": 159,
      "ĺ": 160,
      "Ļ": 161,
      "ļ": 162,
      "Ľ": 163,
      "ľ": 164,
      "Ŀ": 165,
      "ŀ": 166,
      "Ł": 167,
      "ł": 168,
      "Ń": 169,
      "er": 170,
      "en": 171,
      "Ġa": 172,
      "de": 173,
      "Ġ,": 174,
      "Ġf": 175,
      "Ġs": 176,
      "Ġi": 177,
      "Ġ.": 178,
      "or": 179,
      "el": 180,
      "ti": 181,
      "in": 182,
      "Ġo": 183,
      "Ġd": 184,
      "et": 185,
      "an": 186,
      "Ã¦": 187,
      "ed": 188,
      "ing": 189,
      "Ġfor": 190,
      "Ġaf": 191,
      "st": 192,
      "Ġ1": 193,
      "Ġm": 194,
      "Ã¸": 195,
      "Ġb": 196,
      "Ġp": 197,
      "ar": 198,
      "is": 199,
      "Ġh": 200,
      "Ġr": 201,
      "Ġk": 202,
      "es": 203,
      "Ġde": 204,
      "Ġ2": 205,
      "on": 206,
      "ke": 207,
      "ig": 208,
      "om": 209,
      "Ġv": 210,
      "al": 211,
      "til": 212,
      "nd": 213,
      "ning": 214,
      "ag": 215,
      "Ġ)": 216,
      "Ġog": 217,
      "Ġe": 218,
      "Ġtil": 219,
      "els": 220,
      "Ġden": 221,
      "em": 222,
      "Ġu": 223,
      "Ġ-": 224,
      "kke": 225,
      "Ġ(": 226,
      "ter": 227,
      "Ġikke": 228,
      "Ġn": 229,
      "ende": 230,
      "Ġl": 231,
      "Ġat": 232,
      "ev": 233,
      "Ġt": 234,
      "Ġ/": 235,
      "ol": 236,
      "Ã¸r": 237,
      "Ġg": 238,
      "at": 239,
      "Ġen": 240,
      "Ġer": 241,
      "Ġder": 242,
      "ne": 243,
      "ra": 244,
      "Ġ0": 245,
      "te": 246,
      "Ġan": 247,
      "Ġom": 248,
      "Ġ3": 249,
      "re": 250,
      "lig": 251,
      "Ġmed": 252,
      "Ġdet": 253,
      "ler": 254,
      "ro": 255,
      "ens": 256,
      "Ġpa": 257,
      "Ġc": 258,
      "ver": 259,
      "Ġar": 260,
      "Ġst": 261,
      "ant": 262,
      "Ġâ": 263,
      "Ġ20": 264,
      "else": 265,
      "Ġsom": 266,
      "Ġrel": 267,
      "ĠâĢ": 268,
      "sk": 269,
      "si": 270,
      "se": 271,
      "Ġrelev": 272,
      "eg": 273,
      "Ġud": 274,
      "and": 275,
      "del": 276,
      "Ġrelevant": 277,
      "ik": 278,
      "ord": 279,
      "tion": 280,
      "Ġ4": 281,
      "Ġ5": 282,
      "Ġ_": 283,
      "kel": 284,
      "it": 285,
      "mis": 286,
      "ab": 287,
      "old": 288,
      "ru": 289,
      "Ġ9": 290,
      "hed": 291,
      "il": 292,
      "Ġsa": 293,
      "Ġved": 294,
      "ede": 295,
      "Ġarti": 296,
      "ordning": 297,
      "Ġind": 298,
      "der": 299,
      "Ġartikel": 300,
      "Ġ:": 301,
      "Ã¦r": 302,
      "Ġsk": 303,
      "Ġef": 304,
      "Ã¦l": 305,
      "est": 306,
      "Ġ7": 307,
      "Ġel": 308,
      "Ġeu": 309,
      "ri": 310,
      "Ġ19": 311,
      "od": 312,
      "rÃ¦": 313,
      "Ġop": 314,
      "Ġ8": 315,
      "hold": 316,
      "ent": 317,
      "Ġkom": 318,
      "Ġ6": 319,
      "Ġfa": 320,
      "Ġeller": 321,
      "ĠÂ": 322,
      "Ġnr": 323,
      "det": 324,
      "kt": 325,
      "Ġhar": 326,
      "un": 327,
      "Ġforordning": 328,
      "nder": 329,
      "sion": 330,
      "sp": 331,
      "ĠâĢĶ": 332,
      "le": 333,
      "Ġsag": 334,
      "gi": 335,
      "Ġhv": 336,
      "Ġin": 337,
      "mission": 338,
      "id": 339,
      "Ġ10": 340,
      "ninger": 341,
      "Ġkommission": 342,
      "Ġvar": 343,
      "ger": 344,
      "Ã¦g": 345,
      "Ġ200": 346,
      "Ġj": 347,
      "Ġret": 348,
      "Ġal": 349,
      "ris": 350,
      "Ġunder": 351,
      "Ġpro": 352,
      "Ġover": 353,
      "la": 354,
      "ur": 355,
      "ering": 356,
      "Ġkon": 357,
      "les": 358,
      "fÃ¸r": 359,
      "ve": 360,
      "ort": 361,
      "lem": 362,
      "Ġet": 363,
      "ir": 364,
      "Ġfast": 365,
      "iske": 366,
      "Ġhen": 367,
      "eret": 368,
      "Ġra": 369,
      "for": 370,
      "ul": 371,
      "Ġsam": 372,
      "Ġfr": 373,
      "Ġ*": 374,
      "ation": 375,
      "Ġdenne": 376,
      "emm": 377,
      "Ġfra": 378,
      "tt": 379,
      "Ġstk": 380,
      "ks": 381,
      "kti": 382,
      "ĠâĢĵ": 383,
      "elser": 384,
      "lag": 385,
      "ci": 386,
      "Ġbl": 387,
      "Ġskal": 388,
      "sÃ¸": 389,
      "um": 390,
      "ej": 391,
      "ov": 392,
      "ng": 393,
      "sm": 394,
      "ret": 395,
      "ft": 396,
      "dende": 397,
      "Ġand": 398,
      "ater": 399,
      "Ġkommissionen": 400,
      "00": 401,
      "end": 402,
      "art": 403,
      "Ġmod": 404,
      "lige": 405,
      "iko": 406,
      "Ġdom": 407,
      "Ġkan": 408,
      "gÃ¸r": 409,
      "ud": 410,
      "skab": 411,
      "ere": 412,
      "Ġsp": 413,
      "rop": 414,
      "Ġ201": 415,
      "du": 416,
      "Ġbest": 417,
      "sa": 418,
      "ist": 419,
      "Ġanv": 420,
      "Ġgen": 421,
      "sst": 422,
      "Ġbe": 423,
      "Ġeurop": 424,
      "Ġ11": 425,
      "delse": 426,
      "ff": 427,
      "ighed": 428,
      "risiko": 429,
      "Ã¸l": 430,
      "tning": 431,
      "tag": 432,
      "erne": 433,
      "sÃ¦": 434,
      "ge": 435,
      "Ġdel": 436,
      "ling": 437,
      "ale": 438,
      "Ġma": 439,
      "pp": 440,
      "Ġbet": 441,
      "Ġdi": 442,
      "Ã¦lles": 443,
      "ber": 444,
      "Ġefter": 445,
      "gende": 446,
      "Ġ12": 447,
      "ĠfÃ¦lles": 448,
      "giv": 449,
      "Ġbes": 450,
      "sat": 451,
      "ĠÂ»": 452,
      "elsen": 453,
      "ĠÂ«": 454,
      "Ã¦nd": 455,
      "red": 456,
      "Ġmedlem": 457,
      "as": 458,
      "ring": 459,
      "av": 460,
      "kab": 461,
      "ic": 462,
      "hand": 463,
      "Ġanvende": 464,
      "Ġfrem": 465,
      "ige": 466,
      "lu": 467,
      "rund": 468,
      "Ġ199": 469,
      "Ġreg": 470,
      "Ġ00": 471,
      "ers": 472,
      "ktiv": 473,
      "Ġsm": 474,
      "ode": 475,
      "isse": 476,
      "Ġprodu": 477,
      "ker": 478,
      "ss": 479,
      "Ġforb": 480,
      "holdt": 481,
      "elskab": 482,
      "tid": 483,
      "ligt": 484,
      "og": 485,
      "Ã¦v": 486,
      "Ġmedlemsst": 487,
      "ang": 488,
      "rag": 489,
      "kter": 490,
      "Ġre": 491,
      "Ġ;": 492,
      "tig": 493,
      "ly": 494,
      "ĠprÃ¦": 495,
      "ting": 496,
      "Ġblev": 497,
      "Ġandre": 498,
      "ĠfÃ¸l": 499,
      "dels": 500,
      "Ġ\"": 501,
      "Ġgrund": 502,
      "Ġdire": 503,
      "oer": 504,
      "vis": 505,
      "ste": 506,
      "yn": 507,
      "Ã¸j": 508,
      "Ġbestemm": 509,
      "ĠfÃ¦llesskab": 510,
      "ĠeuropÃ¦": 511,
      "ske": 512,
      "Ġim": 513,
      "Ġhvor": 514,
      "igt": 515,
      "Ġ'": 516,
      "Ġ15": 517,
      "bej": 518,
      "yl": 519,
      "ĠeuropÃ¦iske": 520,
      "di": 521,
      "Ġ13": 522,
      "var": 523,
      "alt": 524,
      "ion": 525,
      "srisiko": 526,
      "Ġselskab": 527,
      "ten": 528,
      "elses": 529,
      "ligholdt": 530,
      "Ġikkemis": 531,
      "ĠafgÃ¸r": 532,
      "Ġ17": 533,
      "Ġek": 534,
      "Ġikkemisligholdt": 535,
      "ets": 536,
      "Ġbeg": 537,
      "Ġ14": 538,
      "af": 539,
      "Ġbil": 540,
      "eb": 541,
      "ind": 542,
      "edes": 543,
      "enter": 544,
      "Ġher": 545,
      "Ã¸b": 546,
      "fter": 547,
      "tal": 548,
      "nem": 549,
      "Ġ%": 550,
      "ĠsagsÃ¸": 551,
      "sÃ¦tt": 552,
      "lÃ¦g": 553,
      "ok": 554,
      "ĠeÃ¸": 555,
      "Ġkun": 556,
      "ch": 557,
      "Ġform": 558,
      "ĠfÃ¸r": 559,
      "Ġ16": 560,
      "Ġsamm": 561,
      "bl": 562,
      "rin": 563,
      "Ġhenhold": 564,
      "Ġgennem": 565,
      "Ġ30": 566,
      "ktion": 567,
      "elle": 568,
      "Ġvir": 569,
      "Ġdisse": 570,
      "Ġfin": 571,
      "Ġlev": 572,
      "tte": 573,
      "ven": 574,
      "Ġsal": 575,
      "Ġad": 576,
      "Ġbilag": 577,
      "Ã¦vn": 578,
      "Ã¦ldende": 579,
      "Ġpar": 580,
      "Ġmar": 581,
      "ad": 582,
      "Ġhens": 583,
      "Ġdirektiv": 584,
      "Ġ|": 585,
      "ĠeÃ¸f": 586,
      "fat": 587,
      "Ġmet": 588,
      "tr": 589,
      "enest": 590,
      "am": 591,
      "Ġdette": 592,
      "io": 593,
      "let": 594,
      "Ġ21": 595,
      "Ġ90": 596,
      "Ġkommissionens": 597,
      "ek": 598,
      "rÃ¸": 599,
      "lse": 600,
      "ĠsagsÃ¸ger": 601,
      "nes": 602,
      "val": 603,
      "itet": 604,
      "Ġ50": 605,
      "Ġradet": 606,
      "ksom": 607,
      "Ġeksp": 608,
      "ĠvÃ¦": 609,
      "rÃ¸r": 610,
      "Ã¸d": 611,
      "tit": 612,
      "Ġ18": 613,
      "Ġeur": 614,
      "mer": 615,
      "blik": 616,
      "10": 617,
      "ksomhed": 618,
      "Ġ198": 619,
      "iver": 620,
      "ko": 621,
      "ĠÃ¦nd": 622,
      "Ġhvis": 623,
      "Ġ=": 624,
      "Ġtra": 625,
      "rug": 626,
      "Ġforel": 627,
      "gar": 628,
      "Ġ>": 629,
      "ga": 630,
      "des": 631,
      "ember": 632,
      "Ġmel": 633,
      "Ġ25": 634,
      "Ġ23": 635,
      "Ġimp": 636,
      "ĠvedrÃ¸r": 637,
      "Ġpaa": 638,
      "Ġeft": 639,
      "ĠÃ¸": 640,
      "os": 641,
      "yr": 642,
      "ynd": 643,
      "Ġkred": 644,
      "sÃ¸g": 645,
      "Ġall": 646,
      "Ġ22": 647,
      "stol": 648,
      "Ġir": 649,
      "eri": 650,
      "Ġ29": 651,
      "unkt": 652,
      "Ġafs": 653,
      "Ġvarer": 654,
      "ap": 655,
      "ene": 656,
      "sb": 657,
      "Ġii": 658,
      "land": 659,
      "anst": 660,
      "Ġinter": 661,
      "ĠafgÃ¸relse": 662,
      "Ġ31": 663,
      "Ġdomstol": 664,
      "Ġalle": 665,
      "Ġsu": 666,
      "Ġoply": 667,
      "Ġsik": 668,
      "ser": 669,
      "ut": 670,
      "ĠprÃ¦mis": 671,
      "Ġkredit": 672,
      "sninger": 673,
      "Ġpag": 674,
      "ningen": 675,
      "op": 676,
      "Ġun": 677,
      "us": 678,
      "Ġend": 679,
      "ked": 680,
      "lede": 681,
      "im": 682,
      "gsm": 683,
      "eci": 684,
      "Ġmellem": 685,
      "isk": 686,
      "ĠnÃ¦vn": 687,
      "Ġlevering": 688,
      "Ġ27": 689,
      "Ġvil": 690,
      "Ġti": 691,
      "Ġomhand": 692,
      "Ġinden": 693,
      "Ġimport": 694,
      "Ġselskaber": 695,
      "Ġproc": 696,
      "yndighed": 697,
      "emÃ¦r": 698,
      "Ġsig": 699,
      "ce": 700,
      "Ġfastsat": 701,
      "Ġlan": 702,
      "ĠfÃ¸lgende": 703,
      "Ġ26": 704,
      "Ġmedlemsstat": 705,
      "Ġvirksomhed": 706,
      "pro": 707,
      "hver": 708,
      "Ġlov": 709,
      "20": 710,
      "Ġ28": 711,
      "Ġbesk": 712,
      "Ġy": 713,
      "Ġspeci": 714,
      "Ã¦ng": 715,
      "Ġradets": 716,
      "ken": 717,
      "riv": 718,
      "Ġtilf": 719,
      "Ġbestemmelser": 720,
      "Ġbetrag": 721,
      "idt": 722,
      "Ġsaledes": 723,
      "ls": 724,
      "Ġbeslu": 725,
      "iv": 726,
      "Ġ24": 727,
      "Ġmetode": 728,
      "Ġforbin": 729,
      "Ġhensyn": 730,
      "nings": 731,
      "Ġhav": 732,
      "Ġse": 733,
      "Ġber": 734,
      "Ġmio": 735,
      "elles": 736,
      "part": 737,
      "arbej": 738,
      "Ġ100": 739,
      "Ġkra": 740,
      "givning": 741,
      "min": 742,
      "Ġmedlemsstater": 743,
      "hol": 744,
      "Ġbel": 745,
      "Ġlit": 746,
      "Ġoff": 747,
      "anstalt": 748,
      "Ġsamt": 749,
      "idler": 750,
      "Ġ]": 751,
      "ies": 752,
      "Ġnation": 753,
      "Ġmarked": 754,
      "Ġfri": 755,
      "Ġ[": 756,
      "Ġmen": 757,
      "stil": 758,
      "tet": 759,
      "Ġhver": 760,
      "ati": 761,
      "Ġoplysninger": 762,
      "fÃ¸rt": 763,
      "jenest": 764,
      "Ġda": 765,
      "vÃ¦r": 766,
      "anstaltninger": 767,
      "Ġirb": 768,
      "irb": 769,
      "gsmal": 770,
      "ef": 771,
      "Ġforbindelse": 772,
      "Ġkonk": 773,
      "Ġsmv": 774,
      "Ġgod": 775,
      "Ġinde": 776,
      "van": 777,
      "ĠvedrÃ¸rende": 778,
      "Ġkreditrisiko": 779,
      "ket": 780,
      "Ġw": 781,
      "kon": 782,
      "Ġhan": 783,
      "Ġfre": 784,
      "Ġoverens": 785,
      "Ġapp": 786,
      "res": 787,
      "Ġned": 788,
      "mm": 789,
      "Ġland": 790,
      "Ġtid": 791,
      "Ġtr": 792,
      "erson": 793,
      "Ġrep": 794,
      "Ġhenvis": 795,
      "Ġomfat": 796,
      "under": 797,
      "Ġunion": 798,
      "Ġanden": 799,
      "Ġmu": 800,
      "ĠvÃ¦re": 801,
      "tede": 802,
      "Ġlitra": 803,
      "Ġfort": 804,
      "tes": 805,
      "ier": 806,
      "Ġmodpart": 807,
      "heder": 808,
      "kost": 809,
      "emmelse": 810,
      "Ġha": 811,
      "Ġfree": 812,
      "ytt": 813,
      "Ġ197": 814,
      "ĠpagÃ¦ldende": 815,
      "Ġhvil": 816,
      "ĠfÃ¸rste": 817,
      "Ġsin": 818,
      "Ġdeliver": 819,
      "Ġmodpartsrisiko": 820,
      "Ġleveringsrisiko": 821,
      "Ġdeliveries": 822,
      "rÃ¦n": 823,
      "ot": 824,
      "Ġtold": 825,
      "Ġres": 826,
      "Ġperson": 827,
      "ĠgennemfÃ¸r": 828,
      "Ġuden": 829,
      "Ġanvendelse": 830,
      "ĠstÃ¸": 831,
      "ec": 832,
      "40": 833,
      "handling": 834,
      "Ġty": 835,
      "ĠsÃ¦r": 836,
      "dan": 837,
      "pligt": 838,
      "eren": 839,
      "run": 840,
      "kom": 841,
      "Ġtrakt": 842,
      "Ġforsk": 843,
      "Ġsel": 844,
      "gang": 845,
      "Ġhavde": 846,
      "Ġjf": 847,
      "Ġlig": 848,
      "je": 849,
      "Ġoffent": 850,
      "Ġderes": 851,
      "trol": 852,
      "Ġanm": 853,
      "sag": 854,
      "Ġarbej": 855,
      "stÃ¦nd": 856,
      "ĠvÃ¦r": 857,
      "Ġandet": 858,
      "ien": 859,
      "tra": 860,
      "Ġoverensst": 861,
      "ution": 862,
      "Ġtraktat": 863,
      "ade": 864,
      "stand": 865,
      "Ġund": 866,
      "gen": 867,
      "nit": 868,
      "Ġrating": 869,
      "Ġretten": 870,
      "kende": 871,
      "kostninger": 872,
      "Ġto": 873,
      "kker": 874,
      "emt": 875,
      "Ġtidende": 876,
      "gift": 877,
      "Ġans": 878,
      "Ġbeslutning": 879,
      "Ġex": 880,
      "fin": 881,
      "kes": 882,
      "Ġoverensstemmelse": 883,
      "ug": 884,
      "Ġ02": 885,
      "den": 886,
      "ansi": 887,
      "Ġtred": 888,
      "Ġstat": 889,
      "age": 890,
      "Ġgrundlag": 891,
      "dt": 892,
      "deling": 893,
      "net": 894,
      "lan": 895,
      "kning": 896,
      "vend": 897,
      "org": 898,
      "Ġ000": 899,
      "ĠtilfÃ¦l": 900,
      "cent": 901,
      "Ġtjenest": 902,
      "if": 903,
      "alis": 904,
      "Ġanf": 905,
      "Ġforanstaltninger": 906,
      "aer": 907,
      "Ġ01": 908,
      "Ġogsa": 909,
      "Ġ<": 910,
      "ĠsagsÃ¸geren": 911,
      "Ġmyndighed": 912,
      "ive": 913,
      "Ġkg": 914,
      "Ġanvendes": 915,
      "lagt": 916,
      "ici": 917,
      "Ġlu": 918,
      "Ġeuropa": 919,
      "Ġbeting": 920,
      "Ġx": 921,
      "Ã¦ss": 922,
      "sÃ¦ttelse": 923,
      "Ġsamme": 924,
      "Ġkomp": 925,
      "ceret": 926,
      "Ġvidt": 927,
      "reg": 928,
      "Ġ40": 929,
      "Ġforhold": 930,
      "ĠnÃ¦vnte": 931,
      "ans": 932,
      "fr": 933,
      "Ġudst": 934,
      "spro": 935,
      "Ġselv": 936,
      "ĠspÃ¸r": 937,
      "eringer": 938,
      "Ġpo": 939,
      "Ġdat": 940,
      "Ġhenvisning": 941,
      "ael": 942,
      "Ġblevet": 943,
      "titution": 944,
      "Ġprodukter": 945,
      "elt": 946,
      "be": 947,
      "Ġskat": 948,
      "endt": 949,
      "gifter": 950,
      "Ġej": 951,
      "Ġkunne": 952,
      "vi": 953,
      "delser": 954,
      "Ã¦gt": 955,
      "tik": 956,
      "Ġfaelles": 957,
      "Ġnar": 958,
      "ren": 959,
      "ĠtilfÃ¦lde": 960,
      "Ġforet": 961,
      "Ġderfor": 962,
      "Ġhenblik": 963,
      "yg": 964,
      "ds": 965,
      "Ġerhver": 966,
      "Ġkor": 967,
      "agt": 968,
      "Ġpris": 969,
      "rinci": 970,
      "Ġopf": 971,
      "Ġoprin": 972,
      "Ġkap": 973,
      "ĠbÃ¸r": 974,
      "ĠtrÃ¦": 975,
      "ande": 976,
      "Ġvi": 977,
      "Ġbev": 978,
      "Ġappel": 979,
      "Ġsadan": 980,
      "Ġpunkt": 981,
      "Ġ+": 982,
      "ĠhÃ¸j": 983,
      "sent": 984,
      "Ġ85": 985,
      "kl": 986,
      "rift": 987,
      "hÃ¸r": 988,
      "ĠspÃ¸rgsmal": 989,
      "Ġman": 990,
      "so": 991,
      "Ġerhverv": 992,
      "erende": 993,
      "uld": 994,
      "Ġsagen": 995,
      "Ġavan": 996,
      "Ġparter": 997,
      "ublik": 998,
      "Ġla": 999,
      "erede": 1000,
      "yd": 1001,
      "Ġ39": 1002,
      "organ": 1003,
      "ust": 1004,
      "avn": 1005,
      "Ġangar": 1006,
      "stÃ¦ndighed": 1007,
      "Ġbas": 1008,
      "ges": 1009,
      "Ġ33": 1010,
      "aliseret": 1011,
      "Ġkontrol": 1012,
      "Ġmind": 1013,
      "Ġairb": 1014,
      "ĠnÃ¸d": 1015,
      "ages": 1016,
      "ĠomstÃ¦ndighed": 1017,
      "Ġth": 1018,
      "Ġvisse": 1019,
      "Ġavanceret": 1020,
      "telse": 1021,
      "ment": 1022,
      "ĠstÃ¸tte": 1023,
      "led": 1024,
      "Ġ32": 1025,
      "orp": 1026,
      "ak": 1027,
      "Ġ35": 1028,
      "Ġspecialiseret": 1029,
      "Ġct": 1030,
      "fÃ¸l": 1031,
      "qu": 1032,
      "Ġdec": 1033,
      "som": 1034,
      "Ġfors": 1035,
      "givet": 1036,
      "Ġlangivning": 1037,
      "Ġdomstolen": 1038,
      "sta": 1039,
      "Ġhave": 1040,
      "urder": 1041,
      "raks": 1042,
      "ĠgÃ¦ldende": 1043,
      "yst": 1044,
      "jort": 1045,
      "vist": 1046,
      "Ġomhandlede": 1047,
      "ĠbemÃ¦r": 1048,
      "Ġ99": 1049,
      "jer": 1050,
      "Ġnationale": 1051,
      "Ġtilb": 1052,
      "ĠundersÃ¸g": 1053,
      "Ġekspon": 1054,
      "Ġgener": 1055,
      "me": 1056,
      "Ġopfyl": 1057,
      "Ġhel": 1058,
      "Ġna": 1059,
      "Ġforpligt": 1060,
      "ĠnÃ¸dvend": 1061,
      "Ġomra": 1062,
      "Ġdecember": 1063,
      "Ġfo": 1064,
      "Ġny": 1065,
      "aler": 1066,
      "aling": 1067,
      "lighed": 1068,
      "Ġ38": 1069,
      "fik": 1070,
      "ac": 1071,
      "Ġjun": 1072,
      "Ġ07": 1073,
      "men": 1074,
      "Ġval": 1075,
      "Ġdes": 1076,
      "30": 1077,
      "Ġforelig": 1078,
      "ĠgÃ¦l": 1079,
      "Ġfremstil": 1080,
      "Ġ91": 1081,
      "Ġsammen": 1082,
      "oved": 1083,
      "Ġcorp": 1084,
      "ĠÃ¦ndring": 1085,
      "Ġfran": 1086,
      "sÃ¦ttes": 1087,
      "Ġbru": 1088,
      "Ġomkostninger": 1089,
      "endom": 1090,
      "Ġap": 1091,
      "Ġbegrun": 1092,
      "idlertid": 1093,
      "Ġpr": 1094,
      "Ġ36": 1095,
      "Ġ37": 1096,
      "Ġeksport": 1097,
      "Ġforen": 1098,
      "Ġafsnit": 1099,
      "Ġjuni": 1100,
      "Ġte": 1101,
      "Ġfaellesskab": 1102,
      "Ġfasts": 1103,
      "Ġhoved": 1104,
      "Ġoven": 1105,
      "Ã¸n": 1106,
      "bet": 1107,
      "okum": 1108,
      "rig": 1109,
      "konom": 1110,
      "und": 1111,
      "bring": 1112,
      "raksis": 1113,
      "Ġbetingelser": 1114,
      "Ġkapit": 1115,
      "Ġ75": 1116,
      "sel": 1117,
      "form": 1118,
      "stat": 1119,
      "Ġz": 1120,
      "Ġidet": 1121,
      "ie": 1122,
      "yk": 1123,
      "ail": 1124,
      "Ġfortol": 1125,
      "Ġejendom": 1126,
      "of": 1127,
      "eten": 1128,
      "Ġ95": 1129,
      "Ġtils": 1130,
      "sret": 1131,
      "Ġbereg": 1132,
      "Ġsit": 1133,
      "Ġeksponeringer": 1134,
      "istr": 1135,
      "Ġmin": 1136,
      "Ġundtag": 1137,
      "Ġenkel": 1138,
      "Ġaftal": 1139,
      "lov": 1140,
      "brug": 1141,
      "Ġproced": 1142,
      "Ġvurder": 1143,
      "Ġ92": 1144,
      "ateg": 1145,
      "Ġstil": 1146,
      "len": 1147,
      "Ġeg": 1148,
      "ĠanfÃ¦g": 1149,
      "edt": 1150,
      "Ġ84": 1151,
      "rincipp": 1152,
      "vir": 1153,
      "Ġherunder": 1154,
      "Ġch": 1155,
      "las": 1156,
      "Ġmeddel": 1157,
      "Ġmedlemsstaterne": 1158,
      "Ġbetragtning": 1159,
      "ystem": 1160,
      "Ġanvendels": 1161,
      "riter": 1162,
      "Ġanmod": 1163,
      "Ġris": 1164,
      "Ġmarkeds": 1165,
      "Ġsmec": 1166,
      "ligere": 1167,
      "Ġhj": 1168,
      "Ġformal": 1169,
      "trÃ¦": 1170,
      "Ġnavn": 1171,
      "aterede": 1172,
      "Ġ34": 1173,
      "Ġ80": 1174,
      "prÃ¸": 1175,
      "ald": 1176,
      "off": 1177,
      "Ġtran": 1178,
      "uli": 1179,
      "delses": 1180,
      "Ġfinder": 1181,
      "krÃ¦": 1182,
      "ĠindfÃ¸r": 1183,
      "ĠÃ¸konom": 1184,
      "Ġrepublik": 1185,
      "Ġsenest": 1186,
      "ast": 1187,
      "ĠnÃ¦r": 1188,
      "Ġnog": 1189,
      "ager": 1190,
      "delsen": 1191,
      "ure": 1192,
      "elig": 1193,
      "rid": 1194,
      "Ġof": 1195,
      "eder": 1196,
      "na": 1197,
      "Ġjuli": 1198,
      "Ġkompeten": 1199,
      "ĠvaremÃ¦r": 1200,
      "dere": 1201,
      "Ã¸de": 1202,
      "Ġ60": 1203,
      "ansielle": 1204,
      "eres": 1205,
      "Ġmaj": 1206,
      "ateri": 1207,
      "side": 1208,
      "Ġforud": 1209,
      "Ġ08": 1210,
      "Ġforskel": 1211,
      "ĠfÃ¦llesskabers": 1212,
      "Ġ2009": 1213,
      "Ġoffentlig": 1214,
      "Ġperi": 1215,
      "Ġtab": 1216,
      "kninger": 1217,
      "ktor": 1218,
      "ĠbelÃ¸b": 1219,
      "Ġab": 1220,
      "set": 1221,
      "esk": 1222,
      "Ġproduktion": 1223,
      "smÃ¦ss": 1224,
      "ore": 1225,
      "ĠanfÃ¸rt": 1226,
      "arts": 1227,
      "au": 1228,
      "Ġins": 1229,
      "tninger": 1230,
      "Ġudv": 1231,
      "Ġanbring": 1232,
      "Ġ87": 1233,
      "Ġkontra": 1234,
      "Ġtilside": 1235,
      "kte": 1236,
      "mar": 1237,
      "Ġdetail": 1238,
      "pe": 1239,
      "Ġ93": 1240,
      "Ġrets": 1241,
      "Ġunions": 1242,
      "Ġvedtag": 1243,
      "Ġkonkur": 1244,
      "Ġ70": 1245,
      "Ġtilla": 1246,
      "iddel": 1247,
      "Ġdokum": 1248,
      "ĠvÃ¦gt": 1249,
      "Ġ41": 1250,
      "pt": 1251,
      "Ġno": 1252,
      "orter": 1253,
      "drag": 1254,
      "Ġeo": 1255,
      "Ġapr": 1256,
      "Ġopret": 1257,
      "Ġende": 1258,
      "Ġ2003": 1259,
      "spunkt": 1260,
      "ĠgÃ¦lder": 1261,
      "Ġid": 1262,
      "kto": 1263,
      "Ġ2001": 1264,
      "lÃ¦ggende": 1265,
      "Ġjan": 1266,
      "ĠvÃ¦rdi": 1267,
      "Ġcom": 1268,
      "ĠÃ¦ndret": 1269,
      "ategor": 1270,
      "ĠgrundlÃ¦ggende": 1271,
      "Ġ05": 1272,
      "lament": 1273,
      "Ġ94": 1274,
      "21": 1275,
      "Ġeoef": 1276,
      "Ġeut": 1277,
      "Ã¦rd": 1278,
      "Ġ96": 1279,
      "Ġ2006": 1280,
      "ĠsÃ¸": 1281,
      "ib": 1282,
      "uar": 1283,
      "ĠanfÃ¦gtede": 1284,
      "Ġdem": 1285,
      "Ġ010": 1286,
      "ia": 1287,
      "rik": 1288,
      "Ġbef": 1289,
      "Ġfakti": 1290,
      "Ġomhandlet": 1291,
      "Ġproces": 1292,
      "Ġrelaterede": 1293,
      "Ġ04": 1294,
      "lere": 1295,
      "Ġtredj": 1296,
      "ĠÂ§": 1297,
      "Ġled": 1298,
      "Ġudf": 1299,
      "Ġregler": 1300,
      "Ġokto": 1301,
      "Ġ73": 1302,
      "Ġ71": 1303,
      "Ġparlament": 1304,
      "Ġklag": 1305,
      "iget": 1306,
      "Ġtjeneste": 1307,
      "get": 1308,
      "ult": 1309,
      "over": 1310,
      "Ġafdeling": 1311,
      "Ġordning": 1312,
      "Ġoktober": 1313,
      "Ġann": 1314,
      "Ġsi": 1315,
      "Ġkrav": 1316,
      "Ġsvar": 1317,
      "gum": 1318,
      "yld": 1319,
      "oden": 1320,
      "isering": 1321,
      "sen": 1322,
      "Ġpol": 1323,
      "saet": 1324,
      "Ġ45": 1325,
      "Ġ42": 1326,
      "sik": 1327,
      "Ġso": 1328,
      "Ġbeskytt": 1329,
      "Ġjanuar": 1330,
      "Ġ51": 1331,
      "ĠgÃ¸r": 1332,
      "Ġsagens": 1333,
      "Ġfar": 1334,
      "aget": 1335,
      "sg": 1336,
      "Ġ2004": 1337,
      "Ġbrug": 1338,
      "Ġec": 1339,
      "ob": 1340,
      "Ġ43": 1341,
      "Ġmodtag": 1342,
      "ĠomstÃ¦ndigheder": 1343,
      "lerede": 1344,
      "ster": 1345,
      "ĠgennemfÃ¸relses": 1346,
      "stru": 1347,
      "Ġpos": 1348,
      "ĠâĢĻ": 1349,
      "Ġ2013": 1350,
      "Ġenkelt": 1351,
      "Ġadmin": 1352,
      "ekt": 1353,
      "Ġafgift": 1354,
      "Ġargum": 1355,
      "ma": 1356,
      "Ġ1999": 1357,
      "Ġ48": 1358,
      "cer": 1359,
      "Ġomfattet": 1360,
      "Ġ44": 1361,
      "Ġ55": 1362,
      "Ã¦n": 1363,
      "Ġ2002": 1364,
      "Ġfremgar": 1365,
      "Ġregistr": 1366,
      "forordning": 1367,
      "fÃ¸lge": 1368,
      "Ġ61": 1369,
      "Ġsml": 1370,
      "Ġmarts": 1371,
      "procent": 1372,
      "Ġ89": 1373,
      "Ġ72": 1374,
      "Ġital": 1375,
      "Ġsid": 1376,
      "Ġ2008": 1377,
      "ender": 1378,
      "Ġannul": 1379,
      "vok": 1380,
      "Ġpal": 1381,
      "Ġ59": 1382,
      "atur": 1383,
      "ha": 1384,
      "Ġakti": 1385,
      "Ġthe": 1386,
      "Ġ03": 1387,
      "vent": 1388,
      "vention": 1389,
      "Ġ79": 1390,
      "01": 1391,
      "istra": 1392,
      "Ġ77": 1393,
      "Ġ98": 1394,
      "Ġ54": 1395,
      "Ġref": 1396,
      "Ġkn": 1397,
      "ĠÎ": 1398,
      "po": 1399,
      "Ġ97": 1400,
      "sition": 1401,
      "med": 1402,
      "Ġkv": 1403,
      "Ġco": 1404,
      "Ġ52": 1405,
      "Ġsikker": 1406,
      "Ġva": 1407,
      "ĠvÃ¦sent": 1408,
      "Ġville": 1409,
      "bart": 1410,
      "dukter": 1411,
      "Ġ76": 1412,
      "sÃ¦tning": 1413,
      "Ġkl": 1414,
      "Ġ2000": 1415,
      "Ġkonger": 1416,
      "Ġorgan": 1417,
      "Ġprodukt": 1418,
      "holder": 1419,
      "inger": 1420,
      "Ġfun": 1421,
      "tens": 1422,
      "Ġtek": 1423,
      "Ġkraft": 1424,
      "Ġ88": 1425,
      "ĠifÃ¸lge": 1426,
      "Ġnet": 1427,
      "tor": 1428,
      "Ġ81": 1429,
      "udici": 1430,
      "ĠansÃ¸g": 1431,
      "ĠmedfÃ¸r": 1432,
      "Ġgjort": 1433,
      "Ġsikre": 1434,
      "rincippet": 1435,
      "ĠudgÃ¸r": 1436,
      "Ġnov": 1437,
      "Ġben": 1438,
      "Ġum": 1439,
      "erettig": 1440,
      "Ġdog": 1441,
      "iti": 1442,
      "Ġ2011": 1443,
      "Ġkar": 1444,
      "gere": 1445,
      "Ġtraktatens": 1446,
      "Ġeks": 1447,
      "Ġstand": 1448,
      "Ġ68": 1449,
      "Ġudtr": 1450,
      "Ġtraktaten": 1451,
      "gt": 1452,
      "rivelse": 1453,
      "uation": 1454,
      "tige": 1455,
      "Ġkategor": 1456,
      "Ġudel": 1457,
      "Ġangiv": 1458,
      "tter": 1459,
      "Ġ49": 1460,
      "Ġ2007": 1461,
      "Ġ040": 1462,
      "Ġforenede": 1463,
      "Ġadministra": 1464,
      "ĠudfÃ¸r": 1465,
      "ĠfÃ¸lge": 1466,
      "Ġ57": 1467,
      "sd": 1468,
      "Ġhvad": 1469,
      "ĠprÃ¸": 1470,
      "Ġbestemmelse": 1471,
      "delige": 1472,
      "Ġ0106": 1473,
      "Ġord": 1474,
      "Ġhand": 1475,
      "kedet": 1476,
      "ĠbegrÃ¦n": 1477,
      "Ġ46": 1478,
      "Ġbevis": 1479,
      "raf": 1480,
      "prÃ¸ve": 1481,
      "ĠfÃ¸lger": 1482,
      "Ġter": 1483,
      "Ġton": 1484,
      "Ġ78": 1485,
      "rÃ¦k": 1486,
      "Ġsikkerhed": 1487,
      "ĠforelÃ¦g": 1488,
      "Ġtilst": 1489,
      "ner": 1490,
      "soeg": 1491,
      "Ġstik": 1492,
      "ikling": 1493,
      "sf": 1494,
      "Ġkval": 1495,
      "ĠfastsÃ¦ttes": 1496,
      "Ġproduc": 1497,
      "ingen": 1498,
      "Ġmyndigheder": 1499,
      "Ġheraf": 1500,
      "Ġimidlertid": 1501,
      "ante": 1502,
      "Ġapril": 1503,
      "sig": 1504,
      "Ġ06": 1505,
      "Ġko": 1506,
      "Ġkonklu": 1507,
      "Ġanmodning": 1508,
      "Ġlandbrug": 1509,
      "Ġudl": 1510,
      "Ġudelu": 1511,
      "Ġtredjel": 1512,
      "Ġfjer": 1513,
      "valtning": 1514,
      "lation": 1515,
      "Ġbed": 1516,
      "Ġ53": 1517,
      "riterier": 1518,
      "sikring": 1519,
      "ĠsÃ¦rlig": 1520,
      "Ġkonkurren": 1521,
      "Ġ86": 1522,
      "Ġindga": 1523,
      "Ġ65": 1524,
      "offer": 1525,
      "fic": 1526,
      "Ġarbejd": 1527,
      "Ġju": 1528,
      "ĠfÃ¦llesskabet": 1529,
      "Ġanses": 1530,
      "Ġnovember": 1531,
      "Ġsine": 1532,
      "per": 1533,
      "teg": 1534,
      "Ġinteres": 1535,
      "skon": 1536,
      "kendt": 1537,
      "ys": 1538,
      "Ġerstat": 1539,
      "Ġ56": 1540,
      "Ġlo": 1541,
      "ĠfÃ¦llesskaber": 1542,
      "Ġdomstolens": 1543,
      "foer": 1544,
      "gÃ¸relse": 1545,
      "nation": 1546,
      "fo": 1547,
      "Ġgar": 1548,
      "Ġhovedsag": 1549,
      "Ġtru": 1550,
      "Ġnavnlig": 1551,
      "Ġsept": 1552,
      "rev": 1553,
      "02": 1554,
      "Ġtjenestey": 1555,
      "Ġnor": 1556,
      "86": 1557,
      "Ġudb": 1558,
      "Ġcr": 1559,
      "ĠnÃ¦vnt": 1560,
      "Ġseptember": 1561,
      "ich": 1562,
      "Ġgiv": 1563,
      "Ġluft": 1564,
      "Ġoprindelse": 1565,
      "sport": 1566,
      "Ġ2014": 1567,
      "Ġdan": 1568,
      "Ġ74": 1569,
      "arif": 1570,
      "Ġtysk": 1571,
      "Ġfoel": 1572,
      "Ġskul": 1573,
      "Ġmon": 1574,
      "Ġhere": 1575,
      "Ġvirksomheder": 1576,
      "ĠÃ¸konomiske": 1577,
      "best": 1578,
      "Ġgodt": 1579,
      "Ġherefter": 1580,
      "ard": 1581,
      "ette": 1582,
      "ĠhenhÃ¸r": 1583,
      "Ġ47": 1584,
      "Ġanbringende": 1585,
      "Ġaktiv": 1586,
      "Ġbestemt": 1587,
      "Ġanvendelsen": 1588,
      "Ġsafr": 1589,
      "Ġlovgivning": 1590,
      "Ġskulle": 1591,
      "Ġsafremt": 1592,
      "Ġudtal": 1593,
      "etÃ¸j": 1594,
      "Ġudstedt": 1595,
      "Ġart": 1596,
      "Î±": 1597,
      "giver": 1598,
      "Ġtredje": 1599,
      "Ġstore": 1600,
      "Ġfastsatte": 1601,
      "Ġkapitel": 1602,
      "andt": 1603,
      "judici": 1604,
      "ĠvÃ¦gtprocent": 1605,
      "ĠmÃ¦ng": 1606,
      "Ġiii": 1607,
      "Ġfrist": 1608,
      "mb": 1609,
      "Ġmal": 1610,
      "omra": 1611,
      "tiske": 1612,
      "Ġcc": 1613,
      "Ġsituation": 1614,
      "ved": 1615,
      "Ġregering": 1616,
      "Ġfeb": 1617,
      "Ġveg": 1618,
      "Ġdommen": 1619,
      "goer": 1620,
      "Ġspan": 1621,
      "Î¿": 1622,
      "elÃ¸b": 1623,
      "tiv": 1624,
      "our": 1625,
      "Ġag": 1626,
      "ruar": 1627,
      "Ġfebruar": 1628,
      "Ġfirb": 1629,
      "ĠkÃ¸r": 1630,
      "Ġkorn": 1631,
      "Ġ67": 1632,
      "ator": 1633,
      "vokat": 1634,
      "vÃ¦rende": 1635,
      "Ġsukker": 1636,
      "Ġ09": 1637,
      "Ġ2012": 1638,
      "Ġmo": 1639,
      "Ġinv": 1640,
      "gra": 1641,
      "behandling": 1642,
      "Ġnational": 1643,
      "Ġnogen": 1644,
      "Ġmateri": 1645,
      "ĠprÃ¦judici": 1646,
      "tifik": 1647,
      "Ġhvilket": 1648,
      "Ġdefin": 1649,
      "Ġcon": 1650,
      "lo": 1651,
      "Ġrelevante": 1652,
      "endte": 1653,
      "Ġ82": 1654,
      "Ġmuligt": 1655,
      "Ġumiddel": 1656,
      "Ġ69": 1657,
      "Ġgra": 1658,
      "adet": 1659,
      "tive": 1660,
      "tigheder": 1661,
      "Ġver": 1662,
      "Ġlic": 1663,
      "Ġmulighed": 1664,
      "Ġmang": 1665,
      "Ġalmin": 1666,
      "Ġ58": 1667,
      "Ġkonst": 1668,
      "Ġdirekte": 1669,
      "Ġbestemmelserne": 1670,
      "Ġ83": 1671,
      "Ġ2005": 1672,
      "Ġfis": 1673,
      "Ġskatte": 1674,
      "tale": 1675,
      "Ġomrade": 1676,
      "Ġpastand": 1677,
      "hÃ¦ng": 1678,
      "Ġ62": 1679,
      "Ġac": 1680,
      "Ġkende": 1681,
      "egn": 1682,
      "grund": 1683,
      "nÃ¦vn": 1684,
      "Ġlist": 1685,
      "to": 1686,
      "akter": 1687,
      "Ġkompetente": 1688,
      "ĠstÃ¸r": 1689,
      "Ġbrux": 1690,
      "rÃ¦kkel": 1691,
      "ktioner": 1692,
      "Ġbin": 1693,
      "sfor": 1694,
      "Ġdag": 1695,
      "sek": 1696,
      "Ġforvaltning": 1697,
      "Ġpant": 1698,
      "Ġforskellige": 1699,
      "Ġbruxelles": 1700,
      "emmelser": 1701,
      "Ġsalg": 1702,
      "ump": 1703,
      "aeldende": 1704,
      "Ġ66": 1705,
      "Ġmindst": 1706,
      "Ġenhver": 1707,
      "iner": 1708,
      "Ġpersoner": 1709,
      "Ġbetaling": 1710,
      "Ġbehandling": 1711,
      "Ġfly": 1712,
      "mon": 1713,
      "Ġindb": 1714,
      "aal": 1715,
      "05": 1716,
      "ĠtrÃ¦ff": 1717,
      "Ġudtryk": 1718,
      "Ġbetragtninger": 1719,
      "Ġforeliggende": 1720,
      "Ġarbejds": 1721,
      "ire": 1722,
      "ĠstikprÃ¸ve": 1723,
      "vr": 1724,
      "Ġ196": 1725,
      "Ġfremstilling": 1726,
      "erer": 1727,
      "94": 1728,
      "Ã¦kke": 1729,
      "rupp": 1730,
      "Ġgodkende": 1731,
      "Ġtekn": 1732,
      "komst": 1733,
      "ĠfastsÃ¦ttelse": 1734,
      "Ġperiode": 1735,
      "Ġindhold": 1736,
      "Ġtidspunkt": 1737,
      "aet": 1738,
      "Ġovenfor": 1739,
      "ves": 1740,
      "Ġindeholder": 1741,
      "evn": 1742,
      "ationer": 1743,
      "elige": 1744,
      "Ġprocedur": 1745,
      "Ġoph": 1746,
      "efter": 1747,
      "Ġyder": 1748,
      "Ġsamarbej": 1749,
      "Ġol": 1750,
      "iens": 1751,
      "stande": 1752,
      "Ġramm": 1753,
      "ium": 1754,
      "Ġomfatter": 1755,
      "satte": 1756,
      "09": 1757,
      "Ġpart": 1758,
      "Ġpra": 1759,
      "ep": 1760,
      "Ġumiddelbart": 1761,
      "Ġbilaget": 1762,
      "Ã¦re": 1763,
      "ĠsÃ¦rlige": 1764,
      "ta": 1765,
      "ts": 1766,
      "ension": 1767,
      "Ġudgifter": 1768,
      "Ġvan": 1769,
      "Ġinternation": 1770,
      "Ġansvar": 1771,
      "Ġ2015": 1772,
      "Ġhvilke": 1773,
      "videre": 1774,
      "Ġ2010": 1775,
      "Ġfl": 1776,
      "08": 1777,
      "Ġru": 1778,
      "han": 1779,
      "Ġ63": 1780,
      "ĠÃ¸vr": 1781,
      "Ġdato": 1782,
      "Ġis": 1783,
      "Ġflere": 1784,
      "Ġtages": 1785,
      "Ġendvidere": 1786,
      "Ġparlamentets": 1787,
      "Ġ2016": 1788,
      "Ġbetale": 1789,
      "Ġbindende": 1790,
      "Ġfastsla": 1791,
      "Ġmil": 1792,
      "Ġimportaf": 1793,
      "Ġforpligtelser": 1794,
      "Ġudeluk": 1795,
      "Ġ64": 1796,
      "Ġkr": 1797,
      "Ġkarakter": 1798,
      "vÃ¦rdi": 1799,
      "Ġplan": 1800,
      "Ġfuld": 1801,
      "Ġoffentlige": 1802,
      "ĠkrÃ¦": 1803,
      "Ġor": 1804,
      "ĠvedrÃ¸rer": 1805,
      "Ġkode": 1806,
      "04": 1807,
      "ced": 1808,
      "Ġtidligere": 1809,
      "Ġudvikling": 1810,
      "Ġretsp": 1811,
      "Ġiden": 1812,
      "Ġlc": 1813,
      "11": 1814,
      "Ġ?": 1815,
      "ĠudÃ¸": 1816,
      "ĠovertrÃ¦": 1817,
      "eng": 1818,
      "Ġvis": 1819,
      "Ġhvilken": 1820,
      "fang": 1821,
      "met": 1822,
      "Ġpraksis": 1823,
      "uf": 1824,
      "Ġvegne": 1825,
      "ĠsÃ¸gsmal": 1826,
      "ĠtillÃ¦g": 1827,
      "Ġevent": 1828,
      "Ġproducenter": 1829,
      "dede": 1830,
      "ĠanfÃ¸r": 1831,
      "Ġgeneral": 1832,
      "Ġdeltag": 1833,
      "anden": 1834,
      "ny": 1835,
      "Ġnem": 1836,
      "Ġaftale": 1837,
      "ĠreprÃ¦": 1838,
      "spris": 1839,
      "aret": 1840,
      "Ġelekt": 1841,
      "Ġmere": 1842,
      "ĠbemÃ¦rkes": 1843,
      "Ġtre": 1844,
      "Ġeventu": 1845,
      "Ġmade": 1846,
      "Ġsadanne": 1847,
      "umping": 1848,
      "Ġbort": 1849,
      "Ġfaktiske": 1850,
      "Ġneder": 1851,
      "Ġstilling": 1852,
      "Ġsagsoeg": 1853,
      "Ġsamlede": 1854,
      "ĠtilstrÃ¦kkel": 1855,
      "Ġnu": 1856,
      "Ġnye": 1857,
      "Ġskade": 1858,
      "Ġforarbej": 1859,
      "Ġob": 1860,
      "aende": 1861,
      "nÃ¦vnte": 1862,
      "vs": 1863,
      "Ġblive": 1864,
      "Ġrest": 1865,
      "Ġdels": 1866,
      "lin": 1867,
      "fe": 1868,
      "Ġbag": 1869,
      "Ġopfat": 1870,
      "ĠberÃ¸r": 1871,
      "Ġtilbag": 1872,
      "Ġingen": 1873,
      "ative": 1874,
      "Ġkonklusion": 1875,
      "Ġretsa": 1876,
      "ttet": 1877,
      "03": 1878,
      "sning": 1879,
      "Ġfordel": 1880,
      "Ġtyskland": 1881,
      "Ġvurdering": 1882,
      "Ġfinansielle": 1883,
      "Ġside": 1884,
      "Ġecu": 1885,
      "iteter": 1886,
      "Ġinvest": 1887,
      "Ġdens": 1888,
      "are": 1889,
      "Ġkonstater": 1890,
      "Ġsoci": 1891,
      "Ġnemlig": 1892,
      "Ã¦rer": 1893,
      "Ġes": 1894,
      "yder": 1895,
      "Ġrettens": 1896,
      "Ġper": 1897,
      "Ġ2017": 1898,
      "Ġcent": 1899,
      "varende": 1900,
      "Ġgiver": 1901,
      "Ġbasis": 1902,
      "Ġresult": 1903,
      "Ġadgang": 1904,
      "Ġfisker": 1905,
      "Ġdokumenter": 1906,
      "Ġport": 1907,
      "ĠfastsÃ¦": 1908,
      "iveau": 1909,
      "pris": 1910,
      "Ġaner": 1911,
      "50": 1912,
      "ffet": 1913,
      "ĠkÃ¸retÃ¸j": 1914,
      "Ġinstitution": 1915,
      "lic": 1916,
      "Î¹": 1917,
      "Ġkontrakt": 1918,
      "Ġnorm": 1919,
      "kast": 1920,
      "Ġgr": 1921,
      "gelse": 1922,
      "reak": 1923,
      "Ġtri": 1924,
      "Ġargumenter": 1925,
      "Ġhovedsagen": 1926,
      "Ġinst": 1927,
      "Ġundtagen": 1928,
      "Ġomfang": 1929,
      "99": 1930,
      "Ġsv": 1931,
      "ity": 1932,
      "Ġtjenesteydelser": 1933,
      "mere": 1934,
      "ĠhÃ¸jest": 1935,
      "emb": 1936,
      "Ġoprettelse": 1937,
      "07": 1938,
      "Ġbr": 1939,
      "varer": 1940,
      "Ġanlagt": 1941,
      "holde": 1942,
      "sti": 1943,
      "Ġdyr": 1944,
      "tighed": 1945,
      "Ġraadet": 1946,
      "mÃ¦g": 1947,
      "Ġafsagt": 1948,
      "Ġforeligger": 1949,
      "Ġbud": 1950,
      "Ġalene": 1951,
      "Ġsch": 1952,
      "ĠlÃ¦g": 1953,
      "Ġnederland": 1954,
      "Ġaftalen": 1955,
      "Ġafsk": 1956,
      "uden": 1957,
      "ebreak": 1958,
      "Ġpagebreak": 1959,
      "produkter": 1960,
      "Ġopna": 1961,
      "Ġsammens": 1962,
      "Ġforslag": 1963,
      "Ġretspraksis": 1964,
      "Ġtv": 1965,
      "Ġtransport": 1966,
      "Ġfrit": 1967,
      "Ġrestitution": 1968,
      "Ġ0086": 1969,
      "Ġsol": 1970,
      "Ġ1995": 1971,
      "Ġtale": 1972,
      "Ġrev": 1973,
      "sprog": 1974,
      "06": 1975,
      "Ġvin": 1976,
      "Ġbefuld": 1977,
      "Ġsystem": 1978,
      "mÃ¦gtig": 1979,
      "Ġligel": 1980,
      "Ġfoer": 1981,
      "ĠprÃ¸v": 1982,
      "Ġfej": 1983,
      "oc": 1984,
      "Ġlande": 1985,
      "Ġantal": 1986,
      "Ġposition": 1987,
      "Ġbyg": 1988,
      "finansielle": 1989,
      "Ġtruffet": 1990,
      "Ġforh": 1991,
      "Ġ1992": 1992,
      "Ġikkefinansielle": 1993,
      "Ġharmon": 1994,
      "mun": 1995,
      "atte": 1996,
      "kra": 1997,
      "Ġ1998": 1998,
      "Ġudtalelse": 1999,
      "lende": 2000,
      "Ġendelig": 2001,
      "par": 2002,
      "Ġselskabet": 2003,
      "Ġlign": 2004,
      "Ġaut": 2005,
      "Ġligeledes": 2006,
      "Ġprocedure": 2007,
      "Ġhele": 2008,
      "Ġopfattelse": 2009,
      "Ġsted": 2010,
      "ĠrÃ¦kke": 2011,
      "ĠvÃ¦ret": 2012,
      "Ġdesuden": 2013,
      "artÃ¸j": 2014,
      "Ġgivet": 2015,
      "Ġkin": 2016,
      "ummer": 2017,
      "Ġge": 2018,
      "eget": 2019,
      "ite": 2020,
      "Ġhin": 2021,
      "Ġrettigheder": 2022,
      "Ġsupp": 2023,
      "13": 2024,
      "Ġhandel": 2025,
      "titut": 2026,
      "Ġfradrag": 2027,
      "12": 2028,
      "Ġfortolkes": 2029,
      "Ġyderligere": 2030,
      "Ġprincippet": 2031,
      "skri": 2032,
      "Ġreferen": 2033,
      "nskab": 2034,
      "Ġbeskyttelse": 2035,
      "Ġantag": 2036,
      "itets": 2037,
      "Ġgro": 2038,
      "Ġmindre": 2039,
      "Ġbo": 2040,
      "ĠudfÃ¦rd": 2041,
      "Ġban": 2042,
      "ĠhenhÃ¸rende": 2043,
      "ement": 2044,
      "ĠsagsÃ¸gerens": 2045,
      "ĠvaremÃ¦rke": 2046,
      "iet": 2047,
      "sim": 2048,
      "Ġtredjelande": 2049,
      "ĠnÃ¸dvendigt": 2050,
      "ĠtilsidesÃ¦ttelse": 2051,
      "ĠnÃ¸dvendige": 2052,
      "Ġarbejdst": 2053,
      "ĠlÃ¸b": 2054,
      "pa": 2055,
      "snit": 2056,
      "eligt": 2057,
      "Ġtage": 2058,
      "Ġmak": 2059,
      "Ġsub": 2060,
      "Ġsyn": 2061,
      "Ġ1994": 2062,
      "ktur": 2063,
      "Ġannullation": 2064,
      "15": 2065,
      "Ġbetyd": 2066,
      "Ġdrift": 2067,
      "gaende": 2068,
      "emte": 2069,
      "skud": 2070,
      "Ġfinansi": 2071,
      "ativ": 2072,
      "Ġprocessprog": 2073,
      "Ġdu": 2074,
      "Ġ1996": 2075,
      "Ġvirkning": 2076,
      "Ġenkeltheder": 2077,
      "Ġro": 2078,
      "gjort": 2079,
      "ĠhÃ¸jesteret": 2080,
      "uler": 2081,
      "ces": 2082,
      "Ġanal": 2083,
      "Ġregion": 2084,
      "oej": 2085,
      "Ġvare": 2086,
      "Ġmom": 2087,
      "ĠnÃ¦rvÃ¦rende": 2088,
      "Ġvand": 2089,
      "kar": 2090,
      "evnte": 2091,
      "Ã¸mm": 2092,
      "ĠbemÃ¦rkninger": 2093,
      "Ġlt": 2094,
      "virksomhed": 2095,
      "Ġrisiko": 2096,
      "Ġallerede": 2097,
      "ĠsÃ¦": 2098,
      "elighed": 2099,
      "Ġfandt": 2100,
      "Ġindled": 2101,
      "anstal": 2102,
      "Ġforetages": 2103,
      "ytte": 2104,
      "runde": 2105,
      "onom": 2106,
      "Ġangivet": 2107,
      "Ã¦ring": 2108,
      "Ġle": 2109,
      "Ġhos": 2110,
      "ate": 2111,
      "lant": 2112,
      "Ġdokument": 2113,
      "idrag": 2114,
      "ine": 2115,
      "Ġpass": 2116,
      "ĠreprÃ¦sent": 2117,
      "iteten": 2118,
      "Ġ1993": 2119,
      "Ġindgivet": 2120,
      "Ġiv": 2121,
      "ĠgennemfÃ¸relsesforordning": 2122,
      "ĠbefuldmÃ¦gtig": 2123,
      "Ġteuf": 2124,
      "Ġtilsvarende": 2125,
      "Ġomt": 2126,
      "Ġdata": 2127,
      "ox": 2128,
      "indre": 2129,
      "Ġaug": 2130,
      "Ġkol": 2131,
      "ĠtrÃ¦der": 2132,
      "Ġvedro": 2133,
      "Ġpriv": 2134,
      "sende": 2135,
      "ourg": 2136,
      "Ġ2018": 2137,
      "Ġ1997": 2138,
      "22": 2139,
      "aterne": 2140,
      "anstaltning": 2141,
      "vej": 2142,
      "terne": 2143,
      "ĠforelÃ¦ggende": 2144,
      "Ġpla": 2145,
      "okol": 2146,
      "ĠfÃ¸de": 2147,
      "Ġanvendt": 2148,
      "Ġrad": 2149,
      "Ġcomp": 2150,
      "skil": 2151,
      "Ġforsikring": 2152,
      "Ġluftf": 2153,
      "ĠsagsÃ¸gerne": 2154,
      "Ġfald": 2155,
      "Ġsikret": 2156,
      "ato": 2157,
      "Ġregistrering": 2158,
      "Ġitaliens": 2159,
      "gÃ¸relsen": 2160,
      "undet": 2161,
      "Ġhvede": 2162,
      "Ġsager": 2163,
      "Ġaugust": 2164,
      "Ġkapital": 2165,
      "ÏĦ": 2166,
      "su": 2167,
      "Ġhvert": 2168,
      "Ġgenstand": 2169,
      "hyl": 2170,
      "yre": 2171,
      "ĠophÃ¦v": 2172,
      "sretten": 2173,
      "enskab": 2174,
      "ĠudfÃ¦rdiget": 2175,
      "Ġpaag": 2176,
      "eff": 2177,
      "Ġeffe": 2178,
      "Ġforbud": 2179,
      "Ġpaagaeldende": 2180,
      "Ġfunktion": 2181,
      "Ġbesvar": 2182,
      "ban": 2183,
      "Ġcer": 2184,
      "smÃ¦ssige": 2185,
      "rer": 2186,
      "Ġnatur": 2187,
      "Ġhvori": 2188,
      "otor": 2189,
      "Ġhvorefter": 2190,
      "Ġtabel": 2191,
      "ĠskÃ¸n": 2192,
      "co": 2193,
      "tigt": 2194,
      "iz": 2195,
      "Ġvalut": 2196,
      "eiske": 2197,
      "ĠpalÃ¦g": 2198,
      "Ġmarkedet": 2199,
      "Ġindtil": 2200,
      "Ġadres": 2201,
      "aeg": 2202,
      "lutning": 2203,
      "000": 2204,
      "Ġbegre": 2205,
      "Ġmidlertid": 2206,
      "áĥ": 2207,
      "Ġtjenestem": 2208,
      "Ġpastande": 2209,
      "Ġderover": 2210,
      "Ġca": 2211,
      "Ġindust": 2212,
      "ktive": 2213,
      "Ġerkl": 2214,
      "ĠprÃ¦judiciel": 2215,
      "Ġfoelgende": 2216,
      "sbelÃ¸b": 2217,
      "ĠgrÃ¦n": 2218,
      "Ġgive": 2219,
      "Ġlux": 2220,
      "lÃ¸": 2221,
      "sten": 2222,
      "Ġalt": 2223,
      "ruger": 2224,
      "Ġintervention": 2225,
      "18": 2226,
      "Ġrepublikken": 2227,
      "Ġportug": 2228,
      "Ġcentr": 2229,
      "sted": 2230,
      "Ã¸rer": 2231,
      "dom": 2232,
      "Ġdis": 2233,
      "ales": 2234,
      "Ġeuropaeiske": 2235,
      "ations": 2236,
      "Ġenhed": 2237,
      "tisk": 2238,
      "cy": 2239,
      "Ġkongerige": 2240,
      "fi": 2241,
      "tokol": 2242,
      "Ġvedtaget": 2243,
      "dre": 2244,
      "ĠanlÃ¦g": 2245,
      "Ġser": 2246,
      "Ġregnskab": 2247,
      "ĠbekrÃ¦": 2248,
      "Ġpriser": 2249,
      "Ġrej": 2250,
      "gte": 2251,
      "pport": 2252,
      "yttet": 2253,
      "Ġbegrundelse": 2254,
      "somkostninger": 2255,
      "holdet": 2256,
      "Ġudval": 2257,
      "Ġopfylder": 2258,
      "Ġdele": 2259,
      "Ġkorre": 2260,
      "Ġegne": 2261,
      "Ġgennemsnit": 2262,
      "Ġmaksim": 2263,
      "Ġvej": 2264,
      "Ġharmonisering": 2265,
      "Ġsy": 2266,
      "17": 2267,
      "veks": 2268,
      "jor": 2269,
      "Ġbetydning": 2270,
      "Ġomtvist": 2271,
      "Ġjurid": 2272,
      "selskab": 2273,
      "bestemmelser": 2274,
      "dning": 2275,
      "16": 2276,
      "Ġadministrative": 2277,
      "Ġbehand": 2278,
      "Ġcar": 2279,
      "Ġbi": 2280,
      "ron": 2281,
      "bin": 2282,
      "Ġudbet": 2283,
      "vet": 2284,
      "Ġful": 2285,
      "Ġgyld": 2286,
      "ĠvÃ¦sentlig": 2287,
      "rede": 2288,
      "leres": 2289,
      "Ã¦lp": 2290,
      "aft": 2291,
      "Ġjus": 2292,
      "Ġbaggrund": 2293,
      "oder": 2294,
      "ĠundersÃ¸gelse": 2295,
      "14": 2296,
      "embourg": 2297,
      "Ġomtvistede": 2298,
      "93": 2299,
      "stra": 2300,
      "stof": 2301,
      "peri": 2302,
      "Ġ2019": 2303,
      "Ġalmindelige": 2304,
      "Ġspanien": 2305,
      "Ġberettig": 2306,
      "Ġopfyldt": 2307,
      "yde": 2308,
      "ern": 2309,
      "skriterier": 2310,
      "ĠfastlÃ¦g": 2311,
      "Ġforetaget": 2312,
      "ition": 2313,
      "ĠopkrÃ¦": 2314,
      "anset": 2315,
      "Ġbidrag": 2316,
      "Ġindre": 2317,
      "Ġfremstillet": 2318,
      "que": 2319,
      "emp": 2320,
      "kam": 2321,
      "Ġste": 2322,
      "tific": 2323,
      "Ġunderret": 2324,
      "haver": 2325,
      "Ġaend": 2326,
      "Ġuanset": 2327,
      "mÃ¦ss": 2328,
      "Ġadvokat": 2329,
      "Ġetab": 2330,
      "ific": 2331,
      "Ġanvendelses": 2332,
      "Ġhjemm": 2333,
      "abil": 2334,
      "enser": 2335,
      "Ġsen": 2336,
      "Ġkendelse": 2337,
      "Ġfaktisk": 2338,
      "Ġmeddelelse": 2339,
      "Ġdvs": 2340,
      "oli": 2341,
      "Ġindeb": 2342,
      "Ġsan": 2343,
      "az": 2344,
      "Ġlignende": 2345,
      "Ġtarif": 2346,
      "ands": 2347,
      "ĠafgÃ¸relser": 2348,
      "Ġsaal": 2349,
      "Ġluxembourg": 2350,
      "ebet": 2351,
      "Ġgrupp": 2352,
      "Ġforbund": 2353,
      "mark": 2354,
      "ligning": 2355,
      "dele": 2356,
      "pas": 2357,
      "Ġsaaledes": 2358,
      "Ïģ": 2359,
      "ĠindfÃ¸rsel": 2360,
      "atet": 2361,
      "Ġmilj": 2362,
      "Ġindustri": 2363,
      "Ġ020": 2364,
      "ĠfÃ¸rst": 2365,
      "Ġklas": 2366,
      "Ġ1990": 2367,
      "Ġsuppler": 2368,
      "ĠansÃ¸": 2369,
      "sbor": 2370,
      "anti": 2371,
      "ĠfÃ¦llesskabets": 2372,
      "Ð°": 2373,
      "Ġdirektivets": 2374,
      "Ġoprindelses": 2375,
      "ond": 2376,
      "aff": 2377,
      "sordning": 2378,
      "Ġbestemmer": 2379,
      "Ġaffat": 2380,
      "Ġenheder": 2381,
      "Ġbetingelserne": 2382,
      "ĠnÃ¦rmere": 2383,
      "Ġufor": 2384,
      "Ġbeh": 2385,
      "Ġkategorisering": 2386,
      "27": 2387,
      "Ġfjerde": 2388,
      "Ġfranske": 2389,
      "Ġfrug": 2390,
      "cis": 2391,
      "Ġafvis": 2392,
      "abrik": 2393,
      "19": 2394,
      "Ġbar": 2395,
      "Ġequ": 2396,
      "Ġforret": 2397,
      "Ġforanstaltning": 2398,
      "Ġparterne": 2399,
      "lsc": 2400,
      "Ġkategoriseringskriterier": 2401,
      "Ġforst": 2402,
      "Ġtransa": 2403,
      "Ġslsc": 2404,
      "gaar": 2405,
      "Ġinstans": 2406,
      "Ġfejl": 2407,
      "kningen": 2408,
      "Ġmanglende": 2409,
      "idu": 2410,
      "Ġindberet": 2411,
      "Ġ1991": 2412,
      "Ġanfoer": 2413,
      "tin": 2414,
      "Ġprogra": 2415,
      "lerne": 2416,
      "skiner": 2417,
      "Ġtel": 2418,
      "Ġorganis": 2419,
      "Ġpat": 2420,
      "urs": 2421,
      "Ġbaseret": 2422,
      "mÃ¦r": 2423,
      "ĠvaremÃ¦rker": 2424,
      "Ġ1987": 2425,
      "ses": 2426,
      "Ġmedlemsstaternes": 2427,
      "Ġfastsaet": 2428,
      "Ġrammerne": 2429,
      "Ġudelukkende": 2430,
      "Ġbortset": 2431,
      "sist": 2432,
      "Ġ0094": 2433,
      "Ġmm": 2434,
      "Ġ&": 2435,
      "ung": 2436,
      "Ġjeg": 2437,
      "Ġsaer": 2438,
      "Ġvid": 2439,
      "saf": 2440,
      "Ġdets": 2441,
      "Ġfrank": 2442,
      "ĠÃ¦ndringer": 2443,
      "Ġappelkam": 2444,
      "san": 2445,
      "Ġprotokol": 2446,
      "Ġbelgi": 2447,
      "restitution": 2448,
      "Ġvedroerende": 2449,
      "ringer": 2450,
      "Ġli": 2451,
      "Ġproducent": 2452,
      "Ġperioden": 2453,
      "Ġnedlagt": 2454,
      "ii": 2455,
      "jorde": 2456,
      "Ġunionen": 2457,
      "rivende": 2458,
      "Ġbem": 2459,
      "ĠvÃ¦sentlige": 2460,
      "23": 2461,
      "Ġfortolkning": 2462,
      "este": 2463,
      "bev": 2464,
      "toret": 2465,
      "port": 2466,
      "veksling": 2467,
      "Ġforetage": 2468,
      "Ġhans": 2469,
      "ĠgennemfÃ¸relse": 2470,
      "plig": 2471,
      "Ġargument": 2472,
      "ĠanfÃ¸rte": 2473,
      "Ġerstatning": 2474,
      "Ġvist": 2475,
      "gelig": 2476,
      "Ġtilpligt": 2477,
      "ĠÃ¸n": 2478,
      "agen": 2479,
      "Ġindiv": 2480,
      "Ġmaneder": 2481,
      "Ġraadets": 2482,
      "Ġkriterier": 2483,
      "revet": 2484,
      "tarif": 2485,
      "ou": 2486,
      "we": 2487,
      "Ġ1985": 2488,
      "ktu": 2489,
      "Ġsj": 2490,
      "komm": 2491,
      "Ġoper": 2492,
      "Ġtilpligtes": 2493,
      "Ġhal": 2494,
      "Ġrim": 2495,
      "ograf": 2496,
      "ell": 2497,
      "Ġ1989": 2498,
      "Ġliste": 2499,
      "Ġ1988": 2500,
      "ementer": 2501,
      "Ġafgoer": 2502,
      "Ġsidste": 2503,
      "Ġmarkedsordning": 2504,
      "Ġskrift": 2505,
      "Ġmis": 2506,
      "Ġltd": 2507,
      "ps": 2508,
      "Ġfaellesskabet": 2509,
      "dann": 2510,
      "Ġby": 2511,
      "Ġjustit": 2512,
      "Ġindsig": 2513,
      "Ã¸der": 2514,
      "holdelse": 2515,
      "Ġinteresser": 2516,
      "sma": 2517,
      "teret": 2518,
      "vil": 2519,
      "ĠlÃ¸n": 2520,
      "lagte": 2521,
      "Ġimportafgifter": 2522,
      "Ġpaber": 2523,
      "Ġpaberab": 2524,
      "inst": 2525,
      "Ġsto": 2526,
      "rit": 2527,
      "Ġaktiver": 2528,
      "Ġsh": 2529,
      "sager": 2530,
      "Ġmaned": 2531,
      "ĠgÃ¸re": 2532,
      "Ġhold": 2533,
      "stiger": 2534,
      "Ġtekniske": 2535,
      "no": 2536,
      "Ġbeslutningen": 2537,
      "Ġitalienske": 2538,
      "meret": 2539,
      "ĠÃ¸st": 2540,
      "rincip": 2541,
      "Ġhinder": 2542,
      "myndighed": 2543,
      "ĠstÃ¸rr": 2544,
      "Ġstrid": 2545,
      "Ġred": 2546,
      "gsmaal": 2547,
      "Ġil": 2548,
      "Ġaff": 2549,
      "Ġmotor": 2550,
      "Ġbist": 2551,
      "Ġindividu": 2552,
      "Ġulov": 2553,
      "mmer": 2554,
      "Ġvareb": 2555,
      "Ġkongeriget": 2556,
      "ĠtrÃ¦ffe": 2557,
      "ssystem": 2558,
      "Ġsupplerende": 2559,
      "ca": 2560,
      "Ġeftersom": 2561,
      "Ġug": 2562,
      "Ġerhvervsg": 2563,
      "Ġoverstiger": 2564,
      "sidi": 2565,
      "ĠÐ": 2566,
      "Ġtons": 2567,
      "sam": 2568,
      "Ġkonkurrenc": 2569,
      "laeg": 2570,
      "Ġfindes": 2571,
      "rÃ¦nd": 2572,
      "Ġfal": 2573,
      "itation": 2574,
      "Î¿Ï": 2575,
      "ĠoverfÃ¸r": 2576,
      "oergsmaal": 2577,
      "ĠafgÃ¸relsen": 2578,
      "Ġtilladelse": 2579,
      "titutter": 2580,
      "Ġlige": 2581,
      "Ġendelige": 2582,
      "Ġkompetence": 2583,
      "Ġ106": 2584,
      "ktoren": 2585,
      "ĠmÃ¦ngder": 2586,
      "kla": 2587,
      "Ġtildel": 2588,
      "Ġvedt": 2589,
      "Ġpension": 2590,
      "Ġgenerelle": 2591,
      "Î½": 2592,
      "Ġminim": 2593,
      "ran": 2594,
      "Ġforbruger": 2595,
      "hen": 2596,
      "vidt": 2597,
      "Ġlok": 2598,
      "Ġfaste": 2599,
      "Ã¸tte": 2600,
      "Ġbetragtes": 2601,
      "sch": 2602,
      "Ġadresse": 2603,
      "Ġba": 2604,
      "Ġtoldtarif": 2605,
      "dire": 2606,
      "Ġlang": 2607,
      "Ġus": 2608,
      "sker": 2609,
      "Ġproje": 2610,
      "fÃ¦rd": 2611,
      "Ġdanmark": 2612,
      "ĠansÃ¸gning": 2613,
      "ĠudlÃ¸b": 2614,
      "Ã¦k": 2615,
      "sÃ¦ttelsen": 2616,
      "all": 2617,
      "Ġstoffer": 2618,
      "Ġfordi": 2619,
      "svis": 2620,
      "Ġaty": 2621,
      "ĠprÃ¦cis": 2622,
      "Ġindgaet": 2623,
      "Ġerhvervsgren": 2624,
      "Ġkonvention": 2625,
      "ĠkÃ¸b": 2626,
      "ĠstÃ¸tt": 2627,
      "Ġequity": 2628,
      "Ġfortsat": 2629,
      "anske": 2630,
      "eringen": 2631,
      "Ġpri": 2632,
      "Ġhvorvidt": 2633,
      "Ġappellant": 2634,
      "Ġfrankrig": 2635,
      "Ġ1975": 2636,
      "Ġindgiv": 2637,
      "Ġ104": 2638,
      "unkter": 2639,
      "lade": 2640,
      "Ġstandard": 2641,
      "ĠmÃ¦ngde": 2642,
      "indhold": 2643,
      "Ġmcy": 2644,
      "Ġspoergsmaal": 2645,
      "Ġam": 2646,
      "Ġemb": 2647,
      "Ġeffektiv": 2648,
      "ĠberÃ¸rte": 2649,
      "Ġinteresse": 2650,
      "skrift": 2651,
      "Ġeksporter": 2652,
      "Ġindkomst": 2653,
      "alen": 2654,
      "25": 2655,
      "tem": 2656,
      "ĠspÃ¸rgsmalet": 2657,
      "Ġkons": 2658,
      "Ġitalien": 2659,
      "Ġhandels": 2660,
      "lev": 2661,
      "Ġetabler": 2662,
      "Ġretning": 2663,
      "menter": 2664,
      "ĠÂ°": 2665,
      "31": 2666,
      "Ġfol": 2667,
      "Ġfil": 2668,
      "Ġsund": 2669,
      "Ġhvorved": 2670,
      "sprodukter": 2671,
      "Ġcentral": 2672,
      "Ġuaf": 2673,
      "Îµ": 2674,
      "Ġretsm": 2675,
      "Ġdirektivet": 2676,
      "produ": 2677,
      "Ġhensigt": 2678,
      "sselskab": 2679,
      "tagen": 2680,
      "Ġnaevnte": 2681,
      "Ġmoms": 2682,
      "iven": 2683,
      "position": 2684,
      "elserne": 2685,
      "ign": 2686,
      "Ġtype": 2687,
      "Ġ2020": 2688,
      "Ġkal": 2689,
      "Ġinstru": 2690,
      "vel": 2691,
      "ings": 2692,
      "man": 2693,
      "sdrivende": 2694,
      "Ġtilsidesat": 2695,
      "enten": 2696,
      "Ġfastslas": 2697,
      "peg": 2698,
      "Ġforskels": 2699,
      "85": 2700,
      "Ġparlamentet": 2701,
      "Ġhjem": 2702,
      "Ġretlige": 2703,
      "Ġeng": 2704,
      "Ġsjette": 2705,
      "ĠÃ¸vrige": 2706,
      "ĠmiljÃ¸": 2707,
      "Ġren": 2708,
      "Ġsagsoegeren": 2709,
      "77": 2710,
      "ĠmÃ¦l": 2711,
      "Ġsaa": 2712,
      "alitet": 2713,
      "sprincippet": 2714,
      "riske": 2715,
      "Ġstra": 2716,
      "Ġfu": 2717,
      "mil": 2718,
      "he": 2719,
      "ose": 2720,
      "staende": 2721,
      "Ġmaterialer": 2722,
      "Ġon": 2723,
      "ĠÃ¸vrigt": 2724,
      "sÃ¦tte": 2725,
      "omrade": 2726,
      "Ġkem": 2727,
      "Ġforpligtelse": 2728,
      "Ġmaa": 2729,
      "34": 2730,
      "Ġdomm": 2731,
      "delen": 2732,
      "keligt": 2733,
      "Ġvirkninger": 2734,
      "ĠbefuldmÃ¦gtigede": 2735,
      "Ġherom": 2736,
      "ĠeÃ¸s": 2737,
      "smÃ¦ssigt": 2738,
      "one": 2739,
      "ider": 2740,
      "Ġsidst": 2741,
      "Ġdermed": 2742,
      "Ġtilfael": 2743,
      "Ġsvarer": 2744,
      "Ġcy": 2745,
      "Ġinternationale": 2746,
      "Ġsamarbejde": 2747,
      "ĠhÃ¸jst": 2748,
      "advokat": 2749,
      "24": 2750,
      "Ġindg": 2751,
      "Ġantid": 2752,
      "Ġordly": 2753,
      "Ġpl": 2754,
      "ledning": 2755,
      "saft": 2756,
      "Ġforkast": 2757,
      "sigt": 2758,
      "foranstaltninger": 2759,
      "Ġerhvervsdrivende": 2760,
      "Ġnaar": 2761,
      "ns": 2762,
      "Ġbegrebet": 2763,
      "Ġantidumping": 2764,
      "ĠÃ¸konomisk": 2765,
      "Ġderunder": 2766,
      "Ġarbejdstag": 2767,
      "Ġass": 2768,
      "Ġaftaler": 2769,
      "nede": 2770,
      "rÃ¸n": 2771,
      "imod": 2772,
      "Ġprincip": 2773,
      "ĠhÃ¸r": 2774,
      "ins": 2775,
      "Ġbestar": 2776,
      "ĠansÃ¸ger": 2777,
      "Ġtilsyn": 2778,
      "ka": 2779,
      "Ġudarbej": 2780,
      "fra": 2781,
      "igheden": 2782,
      "Ġniveau": 2783,
      "oeb": 2784,
      "Ġvaere": 2785,
      "Ġtaget": 2786,
      "sstat": 2787,
      "Ġblot": 2788,
      "sorgan": 2789,
      "Ġproceduren": 2790,
      "Ġforskelsbehandling": 2791,
      "Ġgeneraladvokat": 2792,
      "33": 2793,
      "Ġmeget": 2794,
      "Ġsundhed": 2795,
      "Ġfys": 2796,
      "staend": 2797,
      "log": 2798,
      "gelses": 2799,
      "Ġtilpas": 2800,
      "Ġklagep": 2801,
      "Ġanaly": 2802,
      "Ġhense": 2803,
      "Ġfabrik": 2804,
      "ĠfastsÃ¦tter": 2805,
      "ĠÃ¦ndres": 2806,
      "lik": 2807,
      "Ġafg": 2808,
      "Ġdoms": 2809,
      "dte": 2810,
      "ĠgrÃ¦": 2811,
      "agelse": 2812,
      "Ġfoder": 2813,
      "Ġham": 2814,
      "Ġgodkendelse": 2815,
      "kstil": 2816,
      "60": 2817,
      "Ġkvo": 2818,
      "kommende": 2819,
      "Ð¸": 2820,
      "Ġdefinition": 2821,
      "told": 2822,
      "ice": 2823,
      "Ġaktiviteter": 2824,
      "skat": 2825,
      "Ġanvendte": 2826,
      "ĠtÃ¸r": 2827,
      "publik": 2828,
      "Ġsubsidi": 2829,
      "uren": 2830,
      "Ġmedlemsstats": 2831,
      "speri": 2832,
      "Ġvarebesk": 2833,
      "lement": 2834,
      "olog": 2835,
      "sÃ¦ttelses": 2836,
      "Ġfremm": 2837,
      "kommer": 2838,
      "skra": 2839,
      "Ġstor": 2840,
      "Ġydelser": 2841,
      "aring": 2842,
      "Ġkart": 2843,
      "Ġundtagelse": 2844,
      "Ġkategori": 2845,
      "Ġkonkurrence": 2846,
      "ry": 2847,
      "Ġau": 2848,
      "arater": 2849,
      "Ġminimum": 2850,
      "ister": 2851,
      "ari": 2852,
      "Ġgrundforordning": 2853,
      "Ġlicitation": 2854,
      "Ġsmer": 2855,
      "Ġkriter": 2856,
      "Ġkina": 2857,
      "Ġbelgien": 2858,
      "Ġhverken": 2859,
      "ydro": 2860,
      "linger": 2861,
      "74": 2862,
      "Ġparti": 2863,
      "35": 2864,
      "Ĥ¬": 2865,
      "ĠfremlÃ¦g": 2866,
      "smÃ¦ssig": 2867,
      "Ġske": 2868,
      "Ġrestrik": 2869,
      "sv": 2870,
      "Ġhertil": 2871,
      "Ġfremsat": 2872,
      "Ġkvalific": 2873,
      "Ġlever": 2874,
      "ĠâĤ¬": 2875,
      "Ġhenseende": 2876,
      "Ġinternational": 2877,
      "ĠtiltrÃ¦": 2878,
      "ĠmarkedsfÃ¸r": 2879,
      "Ġalminde": 2880,
      "Ġeksportrestitution": 2881,
      "Ġantages": 2882,
      "pon": 2883,
      "Ġtekstil": 2884,
      "vende": 2885,
      "Ġkonkret": 2886,
      "hj": 2887,
      "Ġskab": 2888,
      "Ã¦f": 2889,
      "hoer": 2890,
      "holdes": 2891,
      "Ġsaad": 2892,
      "Ġhu": 2893,
      "sats": 2894,
      "mindre": 2895,
      "splig": 2896,
      "29": 2897,
      "Ġsamlet": 2898,
      "Ġvirksomheden": 2899,
      "ĠgrÃ¸n": 2900,
      "Ġanerkende": 2901,
      "Ġenten": 2902,
      "aerdi": 2903,
      "Ġklart": 2904,
      "kohol": 2905,
      "Ġfoerste": 2906,
      "Ġderaf": 2907,
      "Ġsenere": 2908,
      "ance": 2909,
      "Ġjord": 2910,
      "Ġmedmindre": 2911,
      "her": 2912,
      "ernes": 2913,
      "Ġanmode": 2914,
      "vene": 2915,
      "Ġbetegn": 2916,
      "tel": 2917,
      "Ġudvalg": 2918,
      "emis": 2919,
      "vid": 2920,
      "Ġnoed": 2921,
      "Ġimporten": 2922,
      "ekom": 2923,
      "heden": 2924,
      "Ġdumping": 2925,
      "Ġhensyntagen": 2926,
      "Ġrent": 2927,
      "ĠfÃ¸rer": 2928,
      "66": 2929,
      "Ġne": 2930,
      "Ġforbe": 2931,
      "byr": 2932,
      "ĠforhÃ¸j": 2933,
      "rÃ¸mm": 2934,
      "Ġforordningen": 2935,
      "ftet": 2936,
      "Ġtilfaelde": 2937,
      "ĠfÃ¸lgelig": 2938,
      "Ġskattem": 2939,
      "gave": 2940,
      "Ġfiskeri": 2941,
      "li": 2942,
      "ĠgennemfÃ¸relsen": 2943,
      "Ġpap": 2944,
      "sid": 2945,
      "ĠbedÃ¸mm": 2946,
      "isteri": 2947,
      "Ġtvist": 2948,
      "eskytt": 2949,
      "lovens": 2950,
      "Ġannulleres": 2951,
      "eter": 2952,
      "Ġener": 2953,
      "olie": 2954,
      "Ġheller": 2955,
      "afgift": 2956,
      "Ġvarebeskrivelse": 2957,
      "ĠÏ": 2958,
      "Ġexc": 2959,
      "oeg": 2960,
      "dens": 2961,
      "ĠhjÃ¦lp": 2962,
      "Ġappellerede": 2963,
      "egrÃ¦n": 2964,
      "ĠsagsÃ¸gt": 2965,
      "give": 2966,
      "sh": 2967,
      "Ġudn": 2968,
      "Ġbade": 2969,
      "regning": 2970,
      "Ġ1986": 2971,
      "Ġmer": 2972,
      "alg": 2973,
      "ric": 2974,
      "Ġligger": 2975,
      "Ġlag": 2976,
      "ĠomsÃ¦tning": 2977,
      "45": 2978,
      "Ġberegnet": 2979,
      "Ġdage": 2980,
      "sstÃ¸tte": 2981,
      "Î·": 2982,
      "ĠundersÃ¸gelses": 2983,
      "Ġforelagt": 2984,
      "Ġmidler": 2985,
      "Ġudbud": 2986,
      "sekret": 2987,
      "Ġpassende": 2988,
      "Ġgaranti": 2989,
      "Ġnoedvend": 2990,
      "Ġinform": 2991,
      "ationen": 2992,
      "Ġning": 2993,
      "Ġydes": 2994,
      "ata": 2995,
      "Ġregel": 2996,
      "sikker": 2997,
      "Ġens": 2998,
      "ue": 2999,
      "28": 3000,
      "ĠovennÃ¦vnte": 3001,
      "ekonom": 3002,
      "sbest": 3003,
      "Ġordningen": 3004,
      "Ġ\\": 3005,
      "Ġ125": 3006,
      "ykt": 3007,
      "Ġbor": 3008,
      "Ġpavir": 3009,
      "Ġmalt": 3010,
      "fikke": 3011,
      "Ġafgifter": 3012,
      "Ġmul": 3013,
      "Ġaben": 3014,
      "Ġudligning": 3015,
      "Ġfastslaet": 3016,
      "odtag": 3017,
      "Ġtilbud": 3018,
      "vÃ¦rks": 3019,
      "Ġforl": 3020,
      "Ġjern": 3021,
      "Ġeksist": 3022,
      "Ġstati": 3023,
      "Ġkur": 3024,
      "tingent": 3025,
      "lsen": 3026,
      "sels": 3027,
      "Ġreal": 3028,
      "Ġit": 3029,
      "Ġdk": 3030,
      "ba": 3031,
      "Ġberegningen": 3032,
      "fri": 3033,
      "Ġprincipp": 3034,
      "Ġsat": 3035,
      "rib": 3036,
      "nÃ¸d": 3037,
      "90": 3038,
      "Ġgennemfoer": 3039,
      "Ġforeg": 3040,
      "derne": 3041,
      "erings": 3042,
      "Ġstad": 3043,
      "Ġ500": 3044,
      "Ġly": 3045,
      "lses": 3046,
      "38": 3047,
      "Ġtildeling": 3048,
      "Ġprocent": 3049,
      "ĠÃ¸strig": 3050,
      "int": 3051,
      "igheder": 3052,
      "Ġvedkommende": 3053,
      "Ġforkl": 3054,
      "Ġogsaa": 3055,
      "Ġudvi": 3056,
      "mbh": 3057,
      "Ã¸g": 3058,
      "yb": 3059,
      "kelse": 3060,
      "ĠÃ¦g": 3061,
      "ration": 3062,
      "nu": 3063,
      "Ġboer": 3064,
      "Ġfer": 3065,
      "Ðµ": 3066,
      "Ġbegrundet": 3067,
      "Ġstater": 3068,
      "bar": 3069,
      "publikken": 3070,
      "Ġdennes": 3071,
      "Ġgmbh": 3072,
      "44": 3073,
      "Ġoekonom": 3074,
      "ĠtilstrÃ¦kkeligt": 3075,
      "Ġgodkendt": 3076,
      "Ġstatsbor": 3077,
      "skom": 3078,
      "Ġforordnings": 3079,
      "Ġtilbagebet": 3080,
      "jen": 3081,
      "Ġhr": 3082,
      "ĠsammenhÃ¦ng": 3083,
      "artÃ¸jer": 3084,
      "Ġmennes": 3085,
      "Ġportugal": 3086,
      "Ġvig": 3087,
      "ĠnÃ¸dvendig": 3088,
      "Ġovergang": 3089,
      "Ġ1981": 3090,
      "ktorer": 3091,
      "Ġimportafgift": 3092,
      "Ġgrunde": 3093,
      "proced": 3094,
      "Ġretsakt": 3095,
      "Ġspecifik": 3096,
      "bru": 3097,
      "Ġdelvis": 3098,
      "Ġfamil": 3099,
      "tere": 3100,
      "Ġindehaver": 3101,
      "Ġjuridiske": 3102,
      "smed": 3103,
      "vning": 3104,
      "Ġforordningens": 3105,
      "ow": 3106,
      "ĠindebÃ¦rer": 3107,
      "Ġrapport": 3108,
      "Ġskrivelse": 3109,
      "Ð¾": 3110,
      "Ã¸det": 3111,
      "Ġsamtlige": 3112,
      "Ġ101": 3113,
      "rog": 3114,
      "smyndighed": 3115,
      "Ġav": 3116,
      "Ġlisten": 3117,
      "Ġqu": 3118,
      "Ġforhandling": 3119,
      "Ġprop": 3120,
      "Ġhenholdsvis": 3121,
      "Ġgrad": 3122,
      "ibre": 3123,
      "Ġ2021": 3124,
      "aller": 3125,
      "Ġed": 3126,
      "Ġappelkammeret": 3127,
      "uc": 3128,
      "sproced": 3129,
      "sre": 3130,
      "Ġsaadan": 3131,
      "ridt": 3132,
      "tegn": 3133,
      "styr": 3134,
      "ĠivÃ¦rks": 3135,
      "Ã¦st": 3136,
      "Ġoverdrag": 3137,
      "Ġaffald": 3138,
      "Ġoverv": 3139,
      "Ġgael": 3140,
      "Ġik": 3141,
      "markedet": 3142,
      "ĠmÃ¦r": 3143,
      "Ġsagsomkostninger": 3144,
      "Ġderimod": 3145,
      "Ġrevis": 3146,
      "Ġtyske": 3147,
      "Ġpriserne": 3148,
      "Ġfremgang": 3149,
      "Ġkvalitet": 3150,
      "ĠbefÃ¸j": 3151,
      "ex": 3152,
      "Ġberettiget": 3153,
      "Ġklage": 3154,
      "Ġindt": 3155,
      "80": 3156,
      "Ġ1984": 3157,
      "ital": 3158,
      "Ġbland": 3159,
      "Ġudgang": 3160,
      "Ġforpligtet": 3161,
      "ĠgennemfÃ¸relsesbestemmelser": 3162,
      "Ġafslag": 3163,
      "remt": 3164,
      "Ġfemte": 3165,
      "ĠovertrÃ¦delse": 3166,
      "Ġene": 3167,
      "Ġegenskab": 3168,
      "Ġophold": 3169,
      "Ġ300": 3170,
      "Ġherved": 3171,
      "Ġbank": 3172,
      "Ġafv": 3173,
      "Ġ1982": 3174,
      "Ġgenop": 3175,
      "tidig": 3176,
      "Ġq": 3177,
      "Ġbehov": 3178,
      "Ġanbringender": 3179,
      "Ġanmel": 3180,
      "fa": 3181,
      "ho": 3182,
      "Ġderi": 3183,
      "ĠfastsÃ¦tte": 3184,
      "Ġlicens": 3185,
      "Ġprocedurer": 3186,
      "Ġfi": 3187,
      "ĠindfÃ¸rt": 3188,
      "Ġnederlandene": 3189,
      "Ġ1983": 3190,
      "ĠansÃ¦ttelses": 3191,
      "lor": 3192,
      "Ġeventuelle": 3193,
      "ĠhÃ¦v": 3194,
      "Ġinteg": 3195,
      "tifikat": 3196,
      "Ġlet": 3197,
      "foers": 3198,
      "26": 3199,
      "ĠefterfÃ¸l": 3200,
      "Ġproduktions": 3201,
      "ĠprÃ¦judicielle": 3202,
      "Ġregu": 3203,
      "Ġsammenlig": 3204,
      "Ġdefineret": 3205,
      "Ġ107": 3206,
      "Ġka": 3207,
      "materi": 3208,
      "ĠbrÃ¦nd": 3209,
      "afremt": 3210,
      "olo": 3211,
      "Ġsaafremt": 3212,
      "Ġjust": 3213,
      "omen": 3214,
      "Ġbetingelse": 3215,
      "lar": 3216,
      "Ġopfylde": 3217,
      "ĠbegrÃ¦nset": 3218,
      "Ġserv": 3219,
      "Ġsn": 3220,
      "ulver": 3221,
      "Ġbeviser": 3222,
      "Ġirland": 3223,
      "Ġkommun": 3224,
      "Ġsty": 3225,
      "Ġbetaler": 3226,
      "ĠuafhÃ¦ng": 3227,
      "ĠadfÃ¦rd": 3228,
      "Ġvaluta": 3229,
      "Ġkend": 3230,
      "Ġretsfor": 3231,
      "Ġkombin": 3232,
      "vor": 3233,
      "Ġreguler": 3234,
      "Ġem": 3235,
      "Ġbur": 3236,
      "tering": 3237,
      "ĠbeskÃ¦f": 3238,
      "Ġafgoerelse": 3239,
      "olitik": 3240,
      "ĠfÃ¸devar": 3241,
      "Ġtilk": 3242,
      "Ġspecifikke": 3243,
      "Ġ1977": 3244,
      "ningerne": 3245,
      "Ã¦ngde": 3246,
      "Ġhelt": 3247,
      "Ġreference": 3248,
      "Ġalkohol": 3249,
      "Ġas": 3250,
      "gÃ¸re": 3251,
      "Ġeuro": 3252,
      "Ġfores": 3253,
      "Ġ1976": 3254,
      "Ġselskabets": 3255,
      "Ġtredjeland": 3256,
      "ĠvÃ¦sentligste": 3257,
      "36": 3258,
      "foel": 3259,
      "inde": 3260,
      "stoffer": 3261,
      "Ġudstyr": 3262,
      "Ġformalet": 3263,
      "sstil": 3264,
      "Ġendnu": 3265,
      "39": 3266,
      "edet": 3267,
      "Ġdesign": 3268,
      "skrifter": 3269,
      "Ġga": 3270,
      "54": 3271,
      "ana": 3272,
      "Ġangaende": 3273,
      "ĠundersÃ¸gelsen": 3274,
      "Ġudste": 3275,
      "Ġhenhoer": 3276,
      "Ġoprindelige": 3277,
      "Ġnord": 3278,
      "ĠophÃ¦velse": 3279,
      "Ġgu": 3280,
      "Ġaffattes": 3281,
      "Ġdatoen": 3282,
      "Ġregistreret": 3283,
      "Ġtidspunktet": 3284,
      "Ġpoly": 3285,
      "Ġenkelte": 3286,
      "Ġfinde": 3287,
      "Ġsta": 3288,
      "ĠudfÃ¸rsel": 3289,
      "Ġkravene": 3290,
      "Ġurig": 3291,
      "egt": 3292,
      "sprisen": 3293,
      "Ã¸ren": 3294,
      "Ġforkastes": 3295,
      "landet": 3296,
      "Ġsad": 3297,
      "ĠefterfÃ¸lgende": 3298,
      "Ġvari": 3299,
      "Ġhenvist": 3300,
      "raftt": 3301,
      "belÃ¸b": 3302,
      "Ġstraff": 3303,
      "Ġmedlemmer": 3304,
      "Ġleg": 3305,
      "Ġobje": 3306,
      "Ġstats": 3307,
      "Ġta": 3308,
      "Ġradighed": 3309,
      "Ġafholdt": 3310,
      "Ġprivat": 3311,
      "Ġberegning": 3312,
      "ttede": 3313,
      "Ġbestemmelses": 3314,
      "Ġmatte": 3315,
      "Ġbop": 3316,
      "Ġappellanten": 3317,
      "ĠhenhÃ¸rer": 3318,
      "Ġ400": 3319,
      "Ġgaelder": 3320,
      "Ã¦gter": 3321,
      "Ġlin": 3322,
      "vens": 3323,
      "Ġsusp": 3324,
      "Ġ0406": 3325,
      "Ġstedet": 3326,
      "Ġkommer": 3327,
      "Ġsociale": 3328,
      "grundlag": 3329,
      "Ġverdens": 3330,
      "tind": 3331,
      "Ġartik": 3332,
      "Ġgeograf": 3333,
      "98": 3334,
      "Ġikraftt": 3335,
      "37": 3336,
      "sreg": 3337,
      "Ġstal": 3338,
      "Ġkolon": 3339,
      "Ġho": 3340,
      "ĠopkrÃ¦ves": 3341,
      "Ġstru": 3342,
      "Ġomrader": 3343,
      "Ġakt": 3344,
      "Ġtviv": 3345,
      "Ġlandbrugsprodukter": 3346,
      "Ġdri": 3347,
      "Ġelektron": 3348,
      "Ġtilkommer": 3349,
      "Ġinvestering": 3350,
      "Ġindeholdt": 3351,
      "Ġinterven": 3352,
      "Ġfastslog": 3353,
      "ĠtilstrÃ¦kkelig": 3354,
      "Ġforstand": 3355,
      "Ġgb": 3356,
      "Ġmaeng": 3357,
      "ĠâĢĿ": 3358,
      "Ġidentifik": 3359,
      "Ġretnings": 3360,
      "Ġvilkar": 3361,
      "Ġbeskrivelse": 3362,
      "ĠgrÃ¦nse": 3363,
      "ĠudÃ¸v": 3364,
      "Ġmort": 3365,
      "Ġpost": 3366,
      "Ġansatte": 3367,
      "Ġforny": 3368,
      "Ġfastlagt": 3369,
      "Ġstoette": 3370,
      "Ġ105": 3371,
      "perioden": 3372,
      "Ġbeskat": 3373,
      "Ġmodtager": 3374,
      "ĠsidstnÃ¦vnte": 3375,
      "icht": 3376,
      "ĠforelÃ¸b": 3377,
      "smade": 3378,
      "Ġeventuelt": 3379,
      "Ġbliver": 3380,
      "Ġforesk": 3381,
      "tis": 3382,
      "sede": 3383,
      "ĠoffentliggÃ¸relsen": 3384,
      "Ġhenset": 3385,
      "ĠlÃ¦n": 3386,
      "Ġgaeldende": 3387,
      "ipo": 3388,
      "Ġmodtaget": 3389,
      "Ġforhand": 3390,
      "Ġvol": 3391,
      "Ġsocial": 3392,
      "Ġretsakter": 3393,
      "Ġ115": 3394,
      "Ġsti": 3395,
      "ct": 3396,
      "sekretÃ¦r": 3397,
      "ĠlÃ¸": 3398,
      "Ġak": 3399,
      "Ġkorrekt": 3400,
      "sn": 3401,
      "Ġterm": 3402,
      "Ġrefer": 3403,
      "Ġalvor": 3404,
      "Ġretningslin": 3405,
      "Ġpraemis": 3406,
      "200": 3407,
      "fly": 3408,
      "Ġforretning": 3409,
      "Ã¦ldre": 3410,
      "Ġ120": 3411,
      "ĠkÃ¸d": 3412,
      "58": 3413,
      "Ġgives": 3414,
      "Ġprp": 3415,
      "ĠbÃ¸de": 3416,
      "Ġmens": 3417,
      "struktur": 3418,
      "Ġforvent": 3419,
      "Ġunionens": 3420,
      "Ġub": 3421,
      "pla": 3422,
      "Ġudg": 3423,
      "Ġtilbage": 3424,
      "Ġ136": 3425,
      "effici": 3426,
      "vere": 3427,
      "anter": 3428,
      "tog": 3429,
      "Ġomstaend": 3430,
      "Ġuddann": 3431,
      "Ġrum": 3432,
      "Ġtransaktioner": 3433,
      "Ġelementer": 3434,
      "frit": 3435,
      "Ġsvarende": 3436,
      "Ġ207": 3437,
      "47": 3438,
      "Ġvaerdi": 3439,
      "yrk": 3440,
      "Ġreglerne": 3441,
      "Ġfrie": 3442,
      "Ġ1979": 3443,
      "udval": 3444,
      "gaver": 3445,
      "Ġnoget": 3446,
      "Ġskm": 3447,
      "mi": 3448,
      "smidler": 3449,
      "sbe": 3450,
      "tagelse": 3451,
      "Ġmonet": 3452,
      "Ġinstitutter": 3453,
      "Ġomfatte": 3454,
      "rej": 3455,
      "49": 3456,
      "Ġlej": 3457,
      "ange": 3458,
      "kendte": 3459,
      "Ġsc": 3460,
      "Ġforudsat": 3461,
      "Ġvalgt": 3462,
      "ĠÃ": 3463,
      "Ġfod": 3464,
      "Ã¦kning": 3465,
      "oci": 3466,
      "ĠbeskÃ¦ftig": 3467,
      "Ġviser": 3468,
      "Ġeksporterende": 3469,
      "ay": 3470,
      "eme": 3471,
      "Ġegen": 3472,
      "iteen": 3473,
      "Ġformer": 3474,
      "Ġung": 3475,
      "ĠpalÃ¦gges": 3476,
      "Ġfem": 3477,
      "ĠindlÃ¦g": 3478,
      "Ġreferenc": 3479,
      "Ġtro": 3480,
      "ĠlÃ¦ngere": 3481,
      "Ġtal": 3482,
      "Ġhun": 3483,
      "Ġrug": 3484,
      "stÃ¦ndig": 3485,
      "ĠstatsstÃ¸tte": 3486,
      "Ġhaft": 3487,
      "ip": 3488,
      "Ġbetyde": 3489,
      "Ġhol": 3490,
      "loven": 3491,
      "Ġ1980": 3492,
      "rum": 3493,
      "omradet": 3494,
      "Ġoekonomiske": 3495,
      "Ġberegnes": 3496,
      "Ġbestemmelsen": 3497,
      "Ġkort": 3498,
      "Ġklasse": 3499,
      "hvi": 3500,
      "56": 3501,
      "Ġavis": 3502,
      "Ġaar": 3503,
      "che": 3504,
      "Ġoplysningerne": 3505,
      "Ġeuipo": 3506,
      "Ġekstra": 3507,
      "ide": 3508,
      "Ġbekendt": 3509,
      "emidler": 3510,
      "Ġlovgiv": 3511,
      "Ġluftfart": 3512,
      "Ġfortolkningen": 3513,
      "Ġvo": 3514,
      "Ġkri": 3515,
      "Ġanmodningen": 3516,
      "spe": 3517,
      "hviler": 3518,
      "ader": 3519,
      "Ġeurope": 3520,
      "Ġjuri": 3521,
      "entur": 3522,
      "Ġgav": 3523,
      "kap": 3524,
      "Ġtilg": 3525,
      "Ġdagen": 3526,
      "Ġgrundforordningens": 3527,
      "Ġsavel": 3528,
      "Ġpoliti": 3529,
      "ze": 3530,
      "Ð½": 3531,
      "Ġmulig": 3532,
      "Ġacce": 3533,
      "Ġsammensat": 3534,
      "Ġvia": 3535,
      "vin": 3536,
      "ĠsÃ¸gsmalsg": 3537,
      "Ġangivelse": 3538,
      "Ġvansk": 3539,
      "ragt": 3540,
      "Ġangaar": 3541,
      "kket": 3542,
      "Ġfuldt": 3543,
      "splan": 3544,
      "ben": 3545,
      "omati": 3546,
      "tage": 3547,
      "Ġarbejde": 3548,
      "kal": 3549,
      "Ġare": 3550,
      "Ġdeleg": 3551,
      "Ġanfoert": 3552,
      "smar": 3553,
      "Ġ1978": 3554,
      "Ġparternes": 3555,
      "Ġ148": 3556,
      "Ġsasom": 3557,
      "Ġnormale": 3558,
      "Ã¦d": 3559,
      "ritor": 3560,
      "rifter": 3561,
      "Ġbeskytte": 3562,
      "Ġforbrug": 3563,
      "sc": 3564,
      "kval": 3565,
      "Ġstyr": 3566,
      "Ġdirektivs": 3567,
      "havn": 3568,
      "Ġvarerne": 3569,
      "Ġsket": 3570,
      "Ġforstas": 3571,
      "ioder": 3572,
      "Ġciv": 3573,
      "Ġsyg": 3574,
      "Ġarbejdsgiver": 3575,
      "59": 3576,
      "Ġaa": 3577,
      "ĠindrÃ¸mm": 3578,
      "46": 3579,
      "sto": 3580,
      "ĠophÃ¸r": 3581,
      "Ġ030": 3582,
      "prÃ¦": 3583,
      "Ġve": 3584,
      "ĠkrÃ¦ves": 3585,
      "Ġeksemp": 3586,
      "Ġundga": 3587,
      "oply": 3588,
      "Ġfransk": 3589,
      "Ġtvivl": 3590,
      "sikkerhed": 3591,
      "41": 3592,
      "bon": 3593,
      "Ġbog": 3594,
      "Ġydelse": 3595,
      "pporter": 3596,
      "Ġanvender": 3597,
      "Ġoffici": 3598,
      "Ġtest": 3599,
      "Ġfremlagt": 3600,
      "Ġformand": 3601,
      "Ġsikring": 3602,
      "rom": 3603,
      "Ġassoci": 3604,
      "Ġsamtidig": 3605,
      "jeneste": 3606,
      "kor": 3607,
      "Ġudtrykkeligt": 3608,
      "up": 3609,
      "Ġ108": 3610,
      "Ġ1006": 3611,
      "Ġtun": 3612,
      "Ġarbejdstagere": 3613,
      "slag": 3614,
      "Ġneg": 3615,
      "Ġest": 3616,
      "Ġafgivet": 3617,
      "ĠÃ¦ndre": 3618,
      "arter": 3619,
      "Ġrette": 3620,
      "ema": 3621,
      "Ġgo": 3622,
      "Ġforbundet": 3623,
      "ĠgrÃ¸nt": 3624,
      "Ġnett": 3625,
      "Ġvurderingen": 3626,
      "Ġdatter": 3627,
      "Ġkontrakter": 3628,
      "Ġafgiftsplig": 3629,
      "70": 3630,
      "Ġsamling": 3631,
      "Ġprincipper": 3632,
      "Ġfn": 3633,
      "Ġkil": 3634,
      "ierne": 3635,
      "Ġfire": 3636,
      "ĠvÃ¦rdien": 3637,
      "Ġstof": 3638,
      "Ġugyld": 3639,
      "forhold": 3640,
      "Ġhid": 3641,
      "Ġengels": 3642,
      "Ġoplyst": 3643,
      "ĠprÃ¸velse": 3644,
      "Ġcivil": 3645,
      "kode": 3646,
      "Ġhe": 3647,
      "Ġsker": 3648,
      "foelge": 3649,
      "Ġbemaer": 3650,
      "iges": 3651,
      "ÑĢ": 3652,
      "Ġskriftlige": 3653,
      "Ġgang": 3654,
      "ess": 3655,
      "Ġnummer": 3656,
      "53": 3657,
      "elsens": 3658,
      "Ġvaegt": 3659,
      "Ġspecial": 3660,
      "Ġkendskab": 3661,
      "nen": 3662,
      "Ġkontrah": 3663,
      "ĠerklÃ¦r": 3664,
      "ĠopfÃ¸rt": 3665,
      "Ġbegge": 3666,
      "Ġadskil": 3667,
      "Ġadministrativ": 3668,
      "ordin": 3669,
      "Ġidentific": 3670,
      "Ġforbehold": 3671,
      "Ġ1968": 3672,
      "sform": 3673,
      "57": 3674,
      "Ġ110": 3675,
      "Ġudveksling": 3676,
      "Ã¦rt": 3677,
      "ij": 3678,
      "byg": 3679,
      "Ġpalagt": 3680,
      "Ġafslu": 3681,
      "Ġfik": 3682,
      "amp": 3683,
      "Ġterritor": 3684,
      "fl": 3685,
      "forsikring": 3686,
      "Ġapparater": 3687,
      "kede": 3688,
      "ĠprÃ¦misser": 3689,
      "ĠsÃ¦rligt": 3690,
      "ĠundersÃ¸": 3691,
      "ĠÃ¸j": 3692,
      "rad": 3693,
      "ekan": 3694,
      "Ġvaret": 3695,
      "Ġ1510": 3696,
      "Ġpligt": 3697,
      "ĠprÃ¦m": 3698,
      "yldes": 3699,
      "Ġslag": 3700,
      "Ġnav": 3701,
      "givende": 3702,
      "blem": 3703,
      "Ġskyld": 3704,
      "Ġbesvares": 3705,
      "ydelser": 3706,
      "Ġvidere": 3707,
      "Ġmoder": 3708,
      "Ġtegn": 3709,
      "Ġsec": 3710,
      "Ġfang": 3711,
      "acitet": 3712,
      "Ġtager": 3713,
      "Ġrevision": 3714,
      "ssekretÃ¦r": 3715,
      "Ġifoelge": 3716,
      "umin": 3717,
      "ĠstÃ¸rrelse": 3718,
      "ski": 3719,
      "Ġprojekt": 3720,
      "Ġjuridi": 3721,
      "Ġbesid": 3722,
      "Ġford": 3723,
      "Ġ103": 3724,
      "Ġenergi": 3725,
      "Ġmedfoer": 3726,
      "Ġintegr": 3727,
      "ĠsÃ¦l": 3728,
      "ĠbekrÃ¦ft": 3729,
      "ĠstÃ¸rre": 3730,
      "Ġnetto": 3731,
      "Ġneden": 3732,
      "sse": 3733,
      "Ġok": 3734,
      "Ġsprog": 3735,
      "Ġdist": 3736,
      "Ġoblig": 3737,
      "Ġsiden": 3738,
      "oner": 3739,
      "Ġdommer": 3740,
      "oper": 3741,
      "Ġjuridique": 3742,
      "sfri": 3743,
      "Ġimportant": 3744,
      "ĠforlÃ¦ng": 3745,
      "Ġfrugt": 3746,
      "alet": 3747,
      "Ġramme": 3748,
      "32": 3749,
      "ikation": 3750,
      "hav": 3751,
      "Ġdertil": 3752,
      "ligheden": 3753,
      "iger": 3754,
      "bud": 3755,
      "Ġanledning": 3756,
      "Ġ118": 3757,
      "endes": 3758,
      "ĠstÃ¦v": 3759,
      "Ġprocesreg": 3760,
      "Ġ112": 3761,
      "Ġmeddelt": 3762,
      "omenkl": 3763,
      "ica": 3764,
      "Ġinc": 3765,
      "ĠtilfÃ¸j": 3766,
      "Ġtilkny": 3767,
      "Ġfysiske": 3768,
      "Ġfrifin": 3769,
      "Ġbesluttet": 3770,
      "Ġbol": 3771,
      "ĠudvÃ¦l": 3772,
      "yp": 3773,
      "Ġarter": 3774,
      "ttes": 3775,
      "feren": 3776,
      "erettigede": 3777,
      "Ġfedt": 3778,
      "Ġfusion": 3779,
      "ano": 3780,
      "ĠmedfÃ¸rer": 3781,
      "95": 3782,
      "mel": 3783,
      "Ġharmoniseringskon": 3784,
      "ĠsagsÃ¸gte": 3785,
      "offet": 3786,
      "Ġbestand": 3787,
      "anz": 3788,
      "ĠlÃ¸bende": 3789,
      "Ġforsvar": 3790,
      "Ġindfoers": 3791,
      "Ġschwe": 3792,
      "Ġbestemte": 3793,
      "Ġansoeg": 3794,
      "Ġindholdet": 3795,
      "hÃ¸rende": 3796,
      "oplysninger": 3797,
      "Ġsamhan": 3798,
      "asse": 3799,
      "ĠkrÃ¦ver": 3800,
      "71": 3801,
      "omenklatur": 3802,
      "bef": 3803,
      "Ġovenstaende": 3804,
      "Ġsadant": 3805,
      "Ġangives": 3806,
      "Ġfrat": 3807,
      "fal": 3808,
      "Ġtildelt": 3809,
      "Ġdeltagelse": 3810,
      "Ġliges": 3811,
      "Ġslu": 3812,
      "Ġfinansiering": 3813,
      "Ġnormalt": 3814,
      "Ġklagepunkt": 3815,
      "Ġforekom": 3816,
      "Ġmidlertidig": 3817,
      "Ġforarbejdning": 3818,
      "Ġmindste": 3819,
      "sler": 3820,
      "Ġindfoer": 3821,
      "Ġkolonne": 3822,
      "vede": 3823,
      "Â°": 3824,
      "Ġprocesreglement": 3825,
      "sÃ¦tningsst": 3826,
      "ĠfÃ¦llesskabs": 3827,
      "va": 3828,
      "Ġretlig": 3829,
      "Ġkonkluder": 3830,
      "Ġundersoeg": 3831,
      "Ġindire": 3832,
      "dition": 3833,
      "ortion": 3834,
      "Ġfro": 3835,
      "speriode": 3836,
      "ht": 3837,
      "68": 3838,
      "landske": 3839,
      "Ġgas": 3840,
      "kelig": 3841,
      "ĠÃ¸nsker": 3842,
      "Ġcas": 3843,
      "ĠudfÃ¸res": 3844,
      "Ġ102": 3845,
      "sific": 3846,
      "cion": 3847,
      "dato": 3848,
      "Ġtj": 3849,
      "dvan": 3850,
      "stig": 3851,
      "aden": 3852,
      "orden": 3853,
      "Ġmaskiner": 3854,
      "Ġforbed": 3855,
      "ĠkÃ¸retÃ¸jer": 3856,
      "esent": 3857,
      "Ġarbejdstager": 3858,
      "Ġ1973": 3859,
      "Ġtyrk": 3860,
      "Ġbg": 3861,
      "ĠbopÃ¦l": 3862,
      "Ġvii": 3863,
      "esiske": 3864,
      "Ġtilber": 3865,
      "Ġslet": 3866,
      "Ġtoldmyndighed": 3867,
      "Ġfrugter": 3868,
      "Ġhoej": 3869,
      "evÃ¦r": 3870,
      "fast": 3871,
      "Ġkoncent": 3872,
      "Ġmund": 3873,
      "ĠsÃ¸gsmalsgrunde": 3874,
      "Ġdatterselskab": 3875,
      "Ġkul": 3876,
      "isteriet": 3877,
      "Ġgruppe": 3878,
      "Ġindgar": 3879,
      "Ïĥ": 3880,
      "ladelse": 3881,
      "svirksomhed": 3882,
      "ĠikrafttrÃ¦": 3883,
      "Ġforbundsre": 3884,
      "91": 3885,
      "sskat": 3886,
      "ĠmarkedsfÃ¸ring": 3887,
      "vande": 3888,
      "Ġindirekte": 3889,
      "Ġbistand": 3890,
      "Ġfristen": 3891,
      "42": 3892,
      "55": 3893,
      "Ġtilsat": 3894,
      "rim": 3895,
      "able": 3896,
      "Ġresultat": 3897,
      "Ġforsy": 3898,
      "Ġimportafgifterne": 3899,
      "ĠisÃ¦r": 3900,
      "ĠfornÃ¸d": 3901,
      "bo": 3902,
      "Ġbeskyttelses": 3903,
      "Ġnl": 3904,
      "enske": 3905,
      "ĠhÃ¸jere": 3906,
      "Ġnogle": 3907,
      "Ġprivate": 3908,
      "gelsen": 3909,
      "Ġderefter": 3910,
      "Ġdokumentation": 3911,
      "givelse": 3912,
      "Ġhenhoerende": 3913,
      "Ġorganer": 3914,
      "Ġoplag": 3915,
      "Ġfaet": 3916,
      "Ġfundet": 3917,
      "Ġschweiz": 3918,
      "Ġrx": 3919,
      "Ġpres": 3920,
      "Ġveder": 3921,
      "Ġinterventionsorgan": 3922,
      "teres": 3923,
      "Ġkontraherende": 3924,
      "ann": 3925,
      "undersÃ¸g": 3926,
      "Ġkoncer": 3927,
      "kÃ¸b": 3928,
      "Ġvalg": 3929,
      "ordningen": 3930,
      "Ġ150": 3931,
      "Ġgryn": 3932,
      "Ġkomm": 3933,
      "jerne": 3934,
      "gÃ¸res": 3935,
      "radet": 3936,
      "43": 3937,
      "Ġfed": 3938,
      "ĠfÃ¸re": 3939,
      "ĠfastsÃ¦ttelsen": 3940,
      "titu": 3941,
      "olver": 3942,
      "76": 3943,
      "Ġsl": 3944,
      "Ġkh": 3945,
      "Ġhvorfor": 3946,
      "Ġunderst": 3947,
      "vo": 3948,
      "Ġordlyd": 3949,
      "ÅĤ": 3950,
      "Ġvedtagelsen": 3951,
      "ĠgrÃ¸ntsager": 3952,
      "Ġvederlag": 3953,
      "ologi": 3954,
      "Ġimporter": 3955,
      "Ġmeddelelsen": 3956,
      "ĠretsmÃ¸det": 3957,
      "Î»": 3958,
      "Ġkonstateret": 3959,
      "Ġlav": 3960,
      "Ġbelg": 3961,
      "Ġproduktet": 3962,
      "Ġadministration": 3963,
      "84": 3964,
      "andede": 3965,
      "Ġja": 3966,
      "Ġbetalt": 3967,
      "Ġpt": 3968,
      "ilitet": 3969,
      "Ġrub": 3970,
      "Ġburde": 3971,
      "Ġzz": 3972,
      "Ġmej": 3973,
      "Ġantidumpingtold": 3974,
      "Ġmodel": 3975,
      "ype": 3976,
      "stilling": 3977,
      "Ġ177": 3978,
      "Ġlavere": 3979,
      "ĠudlÃ¸bet": 3980,
      "Ġpahviler": 3981,
      "Ġcm": 3982,
      "tic": 3983,
      "ĠnuvÃ¦rende": 3984,
      "Ġklar": 3985,
      "Ġhermed": 3986,
      "stri": 3987,
      "Ġleverand": 3988,
      "Ġerhvervsgrenen": 3989,
      "Ġsektor": 3990,
      "atorer": 3991,
      "Ġafvist": 3992,
      "Ġsac": 3993,
      "mmet": 3994,
      "da": 3995,
      "Ġforanstaltningerne": 3996,
      "Ġhydro": 3997,
      "hr": 3998,
      "Ġkunder": 3999,
      "Ġtrib": 4000,
      "Ġfarvande": 4001,
      "Î¼": 4002,
      "ktionen": 4003,
      "ĠÃ¦ldre": 4004,
      "Ġcol": 4005,
      "Ġhvidt": 4006,
      "Ġfremme": 4007,
      "Ġ1972": 4008,
      "alte": 4009,
      "Ġsammenholdt": 4010,
      "Ġsil": 4011,
      "Ġtog": 4012,
      "Ġmaksimum": 4013,
      "ĠgennemfÃ¸re": 4014,
      "lagde": 4015,
      "apir": 4016,
      "Ġbearbej": 4017,
      "ĠerklÃ¦ring": 4018,
      "Ġair": 4019,
      "Ġdommerne": 4020,
      "kÃ¸r": 4021,
      "Ġproportion": 4022,
      "lutningen": 4023,
      "Ġemission": 4024,
      "char": 4025,
      "ordninger": 4026,
      "Ġfig": 4027,
      "ÑĤ": 4028,
      "Ġtraeff": 4029,
      "Ġkontor": 4030,
      "Ġbeslutninger": 4031,
      "Ġvider": 4032,
      "lage": 4033,
      "Ġblandt": 4034,
      "Ġmarkedsan": 4035,
      "revne": 4036,
      "sÃ¦tter": 4037,
      "status": 4038,
      "Ġeksisterende": 4039,
      "ĠnedsÃ¦ttes": 4040,
      "Ġtransp": 4041,
      "ĠtrÃ¦ffes": 4042,
      "Ġteknisk": 4043,
      "Ġafvises": 4044,
      "Ġkontoret": 4045,
      "ĠgennemfÃ¸rt": 4046,
      "0000": 4047,
      "Ġgi": 4048,
      "Ġmejeri": 4049,
      "Ġnot": 4050,
      "oris": 4051,
      "Ġadvok": 4052,
      "Ġetableret": 4053,
      "Ġligebehandling": 4054,
      "Ïī": 4055,
      "Ġgjorde": 4056,
      "ĠafgÃ¸rende": 4057,
      "ĠgÃ¸res": 4058,
      "Îº": 4059,
      "ĠmÃ¦lk": 4060,
      "ĠbÃ¦rer": 4061,
      "Ġkonkurr": 4062,
      "jenester": 4063,
      "midler": 4064,
      "lej": 4065,
      "tindhold": 4066,
      "Ġgyldighed": 4067,
      "Ġvidenskab": 4068,
      "Ġoffentliggjort": 4069,
      "gericht": 4070,
      "sbestemmelser": 4071,
      "enterne": 4072,
      "Ġradi": 4073,
      "aerd": 4074,
      "Ġforbundsrepublikken": 4075,
      "Ġproblem": 4076,
      "Ġfastsaettes": 4077,
      "Ġcz": 4078,
      "Ġtilbagebetaling": 4079,
      "Ġtilladt": 4080,
      "Ġskatteplig": 4081,
      "Ġbygge": 4082,
      "Ġabenbart": 4083,
      "reb": 4084,
      "Ġgodtgjort": 4085,
      "Ġnum": 4086,
      "Ġbruger": 4087,
      "emed": 4088,
      "Ġfisk": 4089,
      "Ġpu": 4090,
      "Ġudpeg": 4091,
      "rel": 4092,
      "Ġbom": 4093,
      "Ġtrans": 4094,
      "ĠgodtgÃ¸relse": 4095,
      "Ġportugis": 4096,
      "Ġhelhed": 4097,
      "andsyn": 4098,
      "ina": 4099,
      "smal": 4100,
      "fÃ¸res": 4101,
      "igelse": 4102,
      "skriften": 4103,
      "agning": 4104,
      "Ġformaal": 4105,
      "Ġinterveni": 4106,
      "Ġkonsek": 4107,
      "Ġengelsk": 4108,
      "mp": 4109,
      "Ġfag": 4110,
      "Ġ0402": 4111,
      "Î¿Ïħ": 4112,
      "Ġspil": 4113,
      "Ġalmindelig": 4114,
      "Ġtoldkon": 4115,
      "Ġbio": 4116,
      "Ġ117": 4117,
      "Ġset": 4118,
      "hÃ¦v": 4119,
      "yrdes": 4120,
      "Ġbring": 4121,
      "Ġtilsk": 4122,
      "ĠtilgÃ¦ng": 4123,
      "Ġbudget": 4124,
      "strin": 4125,
      "Ġkartel": 4126,
      "Ġindvir": 4127,
      "81": 4128,
      "Ġindbyrdes": 4129,
      "ae": 4130,
      "Ġsaerlig": 4131,
      "Ġforegaende": 4132,
      "ssi": 4133,
      "regningsk": 4134,
      "Ġkonkrete": 4135,
      "Ġgarn": 4136,
      "Ġrede": 4137,
      "Ġoverenskomst": 4138,
      "Ġstruktur": 4139,
      "sl": 4140,
      "abel": 4141,
      "Ñģ": 4142,
      "Ã¸ber": 4143,
      "taget": 4144,
      "75": 4145,
      "niveau": 4146,
      "emar": 4147,
      "Ġharmoniseringskontoret": 4148,
      "Ġmulti": 4149,
      "Ġnaer": 4150,
      "Ġfaellesskabets": 4151,
      "Ġoliven": 4152,
      "Ġvel": 4153,
      "Ġknyttet": 4154,
      "Ġjuridisk": 4155,
      "str": 4156,
      "Ġhind": 4157,
      "direktiv": 4158,
      "ck": 4159,
      "Ġrespe": 4160,
      "erens": 4161,
      "ĠstÃ¸tten": 4162,
      "Ġutil": 4163,
      "naevnte": 4164,
      "afgÃ¸relse": 4165,
      "Ġ119": 4166,
      "ĠprÃ¦sid": 4167,
      "ledes": 4168,
      "Ġmedlemsstaten": 4169,
      "Ġ130": 4170,
      "Ġgenerelt": 4171,
      "ĠprÃ¸ve": 4172,
      "Ġmethyl": 4173,
      "Ġomradet": 4174,
      "Ġvaren": 4175,
      "Ġ116": 4176,
      "72": 4177,
      "mt": 4178,
      "Ġ1974": 4179,
      "Ġhalv": 4180,
      "Ġsituationen": 4181,
      "Ġindeholde": 4182,
      "Ġcn": 4183,
      "52": 4184,
      "Ġomkost": 4185,
      "Ġhenviser": 4186,
      "Ġpapir": 4187,
      "evÃ¦rdi": 4188,
      "Ġmundt": 4189,
      "Ġbra": 4190,
      "organis": 4191,
      "Ġanerkendt": 4192,
      "ĠtrÃ¦ffer": 4193,
      "Ġteg": 4194,
      "ione": 4195,
      "Ġganske": 4196,
      "Ġdistrib": 4197,
      "ĠfÃ¸devarer": 4198,
      "Ġjo": 4199,
      "Ġme": 4200,
      "sud": 4201,
      "Ġembal": 4202,
      "lemsstat": 4203,
      "Ġseks": 4204,
      "Ġvers": 4205,
      "senter": 4206,
      "Ġopgaver": 4207,
      "Ġ2309": 4208,
      "Ġmateriale": 4209,
      "Ġoverholdelse": 4210,
      "uri": 4211,
      "amin": 4212,
      "Ġusa": 4213,
      "48": 4214,
      "har": 4215,
      "Ġrimelig": 4216,
      "Ã¦gten": 4217,
      "kvalitet": 4218,
      "Ġsamarbejds": 4219,
      "Ġbeskrevet": 4220,
      "car": 4221,
      "Ġrapporter": 4222,
      "Ġstatus": 4223,
      "Ġomstaendigheder": 4224,
      "skontor": 4225,
      "eve": 4226,
      "Ġbu": 4227,
      "Ġbun": 4228,
      "ĠforÃ¦l": 4229,
      "ĠbefuldmÃ¦gtiget": 4230,
      "ĠtjenestemÃ¦nd": 4231,
      "Ġdo": 4232,
      "Ġul": 4233,
      "Ġpen": 4234,
      "Ġbegaet": 4235,
      "ĠansÃ¸gningen": 4236,
      "rives": 4237,
      "regel": 4238,
      "Ġaktind": 4239,
      "Ġ109": 4240,
      "Ġpe": 4241,
      "Ġaktindsigt": 4242,
      "Ġbred": 4243,
      "Ġretsinst": 4244,
      "Ġaendret": 4245,
      "Ġhon": 4246,
      "Ġanalyse": 4247,
      "Ġbemynd": 4248,
      "vilkar": 4249,
      "ĠimportvÃ¦rdi": 4250,
      "Ġhenvises": 4251,
      "Ġgent": 4252,
      "Ġgeografiske": 4253,
      "Ġansat": 4254,
      "ĠbevÃ¦g": 4255,
      "ĠlÃ¦": 4256,
      "prisen": 4257,
      "Ġindividuelle": 4258,
      "Ġdrag": 4259,
      "ktiver": 4260,
      "Ġhinanden": 4261,
      "Ġbul": 4262,
      "sukker": 4263,
      "Ġforord": 4264,
      "evir": 4265,
      "Ġbehandles": 4266,
      "ĠblÃ¸d": 4267,
      "Ġlim": 4268,
      "Ġagentur": 4269,
      "Ġfordeling": 4270,
      "Ġbb": 4271,
      "trae": 4272,
      "Ġungar": 4273,
      "wa": 4274,
      "ĠjustitssekretÃ¦r": 4275,
      "vand": 4276,
      "ĠrÃ¸r": 4277,
      "Ġsandsyn": 4278,
      "satser": 4279,
      "Ġelement": 4280,
      "Ġpunktum": 4281,
      "sour": 4282,
      "ned": 4283,
      "Ġblandede": 4284,
      "safgift": 4285,
      "Ġsikrer": 4286,
      "Ġtribun": 4287,
      "Ġstiv": 4288,
      "stold": 4289,
      "Ġmarkeder": 4290,
      "Ġolie": 4291,
      "ĠansÃ¸geren": 4292,
      "Ġklagen": 4293,
      "Ġselskabe": 4294,
      "kret": 4295,
      "Ġfolk": 4296,
      "Ġkvan": 4297,
      "Ġcompens": 4298,
      "Ġang": 4299,
      "Ġkinesiske": 4300,
      "Ġklassific": 4301,
      "ĠÎº": 4302,
      "ĠtilfÃ¦ldet": 4303,
      "ugle": 4304,
      "ÏĤ": 4305,
      "Ġfaellesskaber": 4306,
      "grupp": 4307,
      "ktÃ¸r": 4308,
      "Ġegenskaber": 4309,
      "bel": 4310,
      "ĠlÃ¸bet": 4311,
      "Ġinterne": 4312,
      "fÃ¸rte": 4313,
      "Ġoprindelsesstatus": 4314,
      "Ġgennemsnitlige": 4315,
      "Ġiso": 4316,
      "ĠgrÃ¦ken": 4317,
      "Ġudtrykt": 4318,
      "Ġsygdom": 4319,
      "Ġce": 4320,
      "Ġsek": 4321,
      "Ġfritagelse": 4322,
      "Ġtilknytning": 4323,
      "ssted": 4324,
      "69": 4325,
      "73": 4326,
      "Ġforvaltningskom": 4327,
      "ĠindfÃ¸relse": 4328,
      "Ġfremgaar": 4329,
      "dyr": 4330,
      "Ġlidt": 4331,
      "Ġidentifikation": 4332,
      "ensen": 4333,
      "Ġsver": 4334,
      "Ġoev": 4335,
      "ĠÏĦ": 4336,
      "ĠudÃ¸ve": 4337,
      "kred": 4338,
      "Ġbestemmes": 4339,
      "Ġhur": 4340,
      "papir": 4341,
      "Ã¦tning": 4342,
      "Ġpersonale": 4343,
      "omkostninger": 4344,
      "Ġstilles": 4345,
      "Ġprisen": 4346,
      "Ġhjemme": 4347,
      "Ġbetales": 4348,
      "Ġtids": 4349,
      "rat": 4350,
      "Ġeneste": 4351,
      "ited": 4352,
      "Ġinvesteringer": 4353,
      "bi": 4354,
      "Ġcp": 4355,
      "ĠfÃ¦llesskabsretten": 4356,
      "Ġoverskriften": 4357,
      "Ġstar": 4358,
      "Ġudtrykket": 4359,
      "Ð²": 4360,
      "Ġstatis": 4361,
      "tioner": 4362,
      "arder": 4363,
      "Ġnomenklatur": 4364,
      "Ġpasta": 4365,
      "raens": 4366,
      "Ġcommun": 4367,
      "Ġspanske": 4368,
      "Ġ5493": 4369,
      "Ġdetal": 4370,
      "ĠfÃ¦rd": 4371,
      "Ġamer": 4372,
      "Ġatte": 4373,
      "Ġfla": 4374,
      "Ġ126": 4375,
      "arer": 4376,
      "Ġgeme": 4377,
      "Ġformanden": 4378,
      "stige": 4379,
      "ĠundersÃ¸ge": 4380,
      "Ġrejse": 4381,
      "ĠÎ´": 4382,
      "Ġbesta": 4383,
      "Ġinstrumenter": 4384,
      "88": 4385,
      "komme": 4386,
      "Ġni": 4387,
      "Ġhus": 4388,
      "ente": 4389,
      "pen": 4390,
      "Ġ{": 4391,
      "dik": 4392,
      "ĠansÃ¸gninger": 4393,
      "Ġrealitets": 4394,
      "Ġflag": 4395,
      "Ġrefererende": 4396,
      "Ġspa": 4397,
      "tende": 4398,
      "Ġ250": 4399,
      "Ã¦nger": 4400,
      "Ġcal": 4401,
      "Ġox": 4402,
      "lser": 4403,
      "79": 4404,
      "risk": 4405,
      "Ġ}": 4406,
      "Ġudgjorde": 4407,
      "odet": 4408,
      "smet": 4409,
      "dÃ¦kning": 4410,
      "Ġkonstateres": 4411,
      "Î³": 4412,
      "Ġ549300": 4413,
      "sagn": 4414,
      "Ġaccep": 4415,
      "Ġalder": 4416,
      "Ġ999": 4417,
      "Ġdre": 4418,
      "Ġforskellen": 4419,
      "Ġkravet": 4420,
      "Ġautomati": 4421,
      "Ġ113": 4422,
      "Ġregnskabs": 4423,
      "89": 4424,
      "slen": 4425,
      "Ġmangel": 4426,
      "Ġcentralban": 4427,
      "Ġvurdere": 4428,
      "plan": 4429,
      "Ġcan": 4430,
      "era": 4431,
      "Ġomraade": 4432,
      "holdige": 4433,
      "Ġanvendelsesomrade": 4434,
      "ktura": 4435,
      "Ġappels": 4436,
      "Ġvalutaer": 4437,
      "Ġcode": 4438,
      "indu": 4439,
      "ĠbenÃ¦vn": 4440,
      "tern": 4441,
      "Ġfortrol": 4442,
      "Ġnat": 4443,
      "Ġafdelingsform": 4444,
      "Ġmetal": 4445,
      "bare": 4446,
      "beskytt": 4447,
      "Ġrubrik": 4448,
      "artet": 4449,
      "Ġreser": 4450,
      "spolitik": 4451,
      "Ġstraks": 4452,
      "Ġ900": 4453,
      "65": 4454,
      "Ġfler": 4455,
      "Ġoevr": 4456,
      "ĠreprÃ¦sentative": 4457,
      "Ġantallet": 4458,
      "Ġindsam": 4459,
      "Ġsacchar": 4460,
      "Ġrekla": 4461,
      "Ġindgivelse": 4462,
      "Ġdob": 4463,
      "yret": 4464,
      "ith": 4465,
      "periode": 4466,
      "Ġgens": 4467,
      "niske": 4468,
      "Ġrig": 4469,
      "Ġfedtindhold": 4470,
      "ĠgennemfÃ¸res": 4471,
      "Ġaftalens": 4472,
      "app": 4473,
      "Ġyde": 4474,
      "saetning": 4475,
      "010": 4476,
      "Ġmajs": 4477,
      "Ġmejeriprodukter": 4478,
      "51": 4479,
      "Ġinformation": 4480,
      "gas": 4481,
      "edte": 4482,
      "ful": 4483,
      "Ġvares": 4484,
      "Ġerstattes": 4485,
      "ĠfÃ¸d": 4486,
      "cia": 4487,
      "ats": 4488,
      "82": 4489,
      "zi": 4490,
      "Ġopstil": 4491,
      "Ġindehold": 4492,
      "83": 4493,
      "sit": 4494,
      "Ġmand": 4495,
      "Ġdru": 4496,
      "Ġansvarlig": 4497,
      "trakt": 4498,
      "spunktet": 4499,
      "Ġforarbejdet": 4500,
      "anser": 4501,
      "Ġtilskud": 4502,
      "Ġtransporter": 4503,
      "lusi": 4504,
      "sol": 4505,
      "ĠÂ£": 4506,
      "Ġopbev": 4507,
      "regnes": 4508,
      "cc": 4509,
      "yttes": 4510,
      "Ġ114": 4511,
      "tenti": 4512,
      "itins": 4513,
      "Ġpolen": 4514,
      "lativ": 4515,
      "Ġfoelge": 4516,
      "Ġmidlertidige": 4517,
      "Ġulovlig": 4518,
      "Ġkompens": 4519,
      "Ġvaegtprocent": 4520,
      "bes": 4521,
      "fÃ¦l": 4522,
      "Ġforesla": 4523,
      "Ġselve": 4524,
      "rivelsen": 4525,
      "oler": 4526,
      "Ġuforen": 4527,
      "Ġvirksomhedens": 4528,
      "Ġsaerlige": 4529,
      "Ġvedlige": 4530,
      "mÃ¦ssige": 4531,
      "Ġmor": 4532,
      "visning": 4533,
      "Ġkontingent": 4534,
      "Ġfon": 4535,
      "urg": 4536,
      "Ġbeloeb": 4537,
      "ologiske": 4538,
      "Ġcertific": 4539,
      "Ġforskrifter": 4540,
      "Ġavs": 4541,
      "Ġsyd": 4542,
      "Ġtjenester": 4543,
      "Ġejendomsret": 4544,
      "ĠindtÃ¦gter": 4545,
      "spligt": 4546,
      "arbejder": 4547,
      "takt": 4548,
      "Ġint": 4549,
      "industri": 4550,
      "inder": 4551,
      "ĠmodsÃ¦tning": 4552,
      "orer": 4553,
      "ĠfjerkrÃ¦": 4554,
      "Ġlyset": 4555,
      "Ġforsta": 4556,
      "als": 4557,
      "Ġretter": 4558,
      "Ġ0207": 4559,
      "Ġinn": 4560,
      "Ġski": 4561,
      "Ġfrifindes": 4562,
      "Ġ129": 4563,
      "Ġnyt": 4564,
      "Ġring": 4565,
      "Ġ600": 4566,
      "lus": 4567,
      "Ġinstitutioner": 4568,
      "istan": 4569,
      "icin": 4570,
      "Ġcif": 4571,
      "Ġkvantit": 4572,
      "Ġomkostningerne": 4573,
      "Ġkvoter": 4574,
      "ĠnÃ¸j": 4575,
      "Ġvedtage": 4576,
      "rapport": 4577,
      "Ġejer": 4578,
      "Ġnettov": 4579,
      "Ġfigur": 4580,
      "Ġger": 4581,
      "agne": 4582,
      "ach": 4583,
      "Ġkhim": 4584,
      "ĠÏĢ": 4585,
      "Ġlandsskat": 4586,
      "Ġsim": 4587,
      "Ġdatab": 4588,
      "Ġjustitskontor": 4589,
      "Ġfiske": 4590,
      "Ã¦nding": 4591,
      "Ġ140": 4592,
      "ever": 4593,
      "Ġvarighed": 4594,
      "ĠindfÃ¸res": 4595,
      "Ġlandsskatteret": 4596,
      "Ġensartet": 4597,
      "za": 4598,
      "ĠlÃ¦gges": 4599,
      "Ġforudgaende": 4600,
      "Ġsamhandelen": 4601,
      "mod": 4602,
      "Ġbord": 4603,
      "rÃ¸m": 4604,
      "its": 4605,
      "ĠbÃ¸d": 4606,
      "ĠsÃ¦dvan": 4607,
      "Ġ123": 4608,
      "Ġnederlandske": 4609,
      "hjÃ¦lp": 4610,
      "Ġomregningsk": 4611,
      "ias": 4612,
      "obil": 4613,
      "ĠudvÃ¦lgelses": 4614,
      "61": 4615,
      "87": 4616,
      "Ġgensid": 4617,
      "Ġfur": 4618,
      "zo": 4619,
      "Ġberettigede": 4620,
      "Ã¸st": 4621,
      "Ġprojekter": 4622,
      "skaber": 4623,
      "Ġkreditins": 4624,
      "Ġforv": 4625,
      "lasse": 4626,
      "Ġtransaktion": 4627,
      "ĠanfÃ¸res": 4628,
      "Ġopnaet": 4629,
      "Ġ169": 4630,
      "Ġforela": 4631,
      "cen": 4632,
      "rider": 4633,
      "Ġtar": 4634,
      "ĠovertrÃ¦delsen": 4635,
      "licenser": 4636,
      "tages": 4637,
      "Ġelektriske": 4638,
      "Ġrol": 4639,
      "Ġbegrunde": 4640,
      "Ġkonventionen": 4641,
      "Ġanim": 4642,
      "th": 4643,
      "ĠvedtÃ¦gt": 4644,
      "Ġindsigelses": 4645,
      "Ġresultatet": 4646,
      "Ġslagte": 4647,
      "ansÃ¸g": 4648,
      "Ġfornyet": 4649,
      "Ġoksek": 4650,
      "Ġsvin": 4651,
      "Ġobligator": 4652,
      "Ġandel": 4653,
      "Ġmennesk": 4654,
      "Ġargumentation": 4655,
      "Ġjernban": 4656,
      "fac": 4657,
      "Ġmuligheden": 4658,
      "Ġkompon": 4659,
      "Ġimportafgiften": 4660,
      "odt": 4661,
      "ĠivÃ¦rksÃ¦": 4662,
      "Ġloven": 4663,
      "ĠudgÃ¸re": 4664,
      "Ð»": 4665,
      "Ġborger": 4666,
      "Ġrealitetsbehandling": 4667,
      "Ġaktivitet": 4668,
      "sy": 4669,
      "beg": 4670,
      "Ġintet": 4671,
      "ĠtiltrÃ¦delse": 4672,
      "Ġkriterierne": 4673,
      "inisteriet": 4674,
      "Ġfine": 4675,
      "instru": 4676,
      "Ġ1001": 4677,
      "Ġbestridt": 4678,
      "ĠfartÃ¸jer": 4679,
      "Ġproportionalitet": 4680,
      "63": 4681,
      "enhed": 4682,
      "Ġmetoder": 4683,
      "ĠoksekÃ¸d": 4684,
      "Ġliv": 4685,
      "Ġstatsborger": 4686,
      "ole": 4687,
      "go": 4688,
      "Ġudnyttet": 4689,
      "trakter": 4690,
      "istrik": 4691,
      "vÃ¦rdien": 4692,
      "Ġmest": 4693,
      "Ġmaan": 4694,
      "Ġherfor": 4695,
      "Ġindfly": 4696,
      "ĠreprÃ¦sentant": 4697,
      "Ġstren": 4698,
      "ĠnedsÃ¦ttelse": 4699,
      "Ġforsyn": 4700,
      "ao": 4701,
      "Ġminer": 4702,
      "Ġkont": 4703,
      "kald": 4704,
      "64": 4705,
      "hu": 4706,
      "Ġ2574": 4707,
      "Ġkontrakten": 4708,
      "Ġtredjem": 4709,
      "Ġsaccharose": 4710,
      "Ġportugisiske": 4711,
      "Ġ0805": 4712,
      "Ġhy": 4713,
      "Ġhjemsted": 4714,
      "kontrol": 4715,
      "Ġhard": 4716,
      "Ġrisik": 4717,
      "Ġcour": 4718,
      "Ġforretnings": 4719,
      "sordningen": 4720,
      "emper": 4721,
      "nummer": 4722,
      "marked": 4723,
      "sforanstaltninger": 4724,
      "Ġeksportrestitutioner": 4725,
      "Ġfibre": 4726,
      "Ġglu": 4727,
      "Ġanmodede": 4728,
      "Ġindlednings": 4729,
      "Ġerhvervsgrenens": 4730,
      "Ġnit": 4731,
      "Ġstoer": 4732,
      "sil": 4733,
      "Ġfuldbyr": 4734,
      "spriser": 4735,
      "Ġbefin": 4736,
      "Ġcor": 4737,
      "Ġegnet": 4738,
      "Ġbetegnelse": 4739,
      "Ġdomin": 4740,
      "astighed": 4741,
      "udvalget": 4742,
      "Ġsum": 4743,
      "Ġudstedelse": 4744,
      "sÃ¸gsmal": 4745,
      "Ġmik": 4746,
      "ĠundersÃ¸gelser": 4747,
      "Ġanerkendelse": 4748,
      "Ġtyrkiet": 4749,
      "Ġprogram": 4750,
      "Ġkop": 4751,
      "Ġpotenti": 4752,
      "Ġfejlag": 4753,
      "Ġetablering": 4754,
      "Ġkarakteris": 4755,
      "Ġorig": 4756,
      "Ġstatsborgere": 4757,
      "ĠhjemmehÃ¸rende": 4758,
      "Ġsverige": 4759,
      "Ġordlyden": 4760,
      "Ġtjek": 4761,
      "Ġdrejer": 4762,
      "Ġgange": 4763,
      "Ġcps": 4764,
      "Ġbomuld": 4765,
      "afdÃ¦kning": 4766,
      "Ġstillet": 4767,
      "ĠdÃ¦k": 4768,
      "Ġ145": 4769,
      "procedure": 4770,
      "Ġ160": 4771,
      "Ġanmodet": 4772,
      "ĠbefÃ¸jelser": 4773,
      "ultur": 4774,
      "Ġkonstru": 4775,
      "Ġudbetaling": 4776,
      "ĠfÃ¸devare": 4777,
      "Ġoplagring": 4778,
      "vest": 4779,
      "ĠvaremÃ¦rket": 4780,
      "kÃ¸retÃ¸j": 4781,
      "Ġregist": 4782,
      "ĠsÃ¦rskil": 4783,
      "Ġordre": 4784,
      "Ġposi": 4785,
      "Ġmt": 4786,
      "Ġfir": 4787,
      "sko": 4788,
      "Ġunderlagt": 4789,
      "holdelsen": 4790,
      "Ġâī": 4791,
      "Ġaktier": 4792,
      "evnt": 4793,
      "ĠtilsÃ¦tningsst": 4794,
      "system": 4795,
      "arbejdet": 4796,
      "Ġbegyn": 4797,
      "Ġmekan": 4798,
      "Ġbek": 4799,
      "ĠbegrÃ¦nsninger": 4800,
      "Ġorganisation": 4801,
      "Ġnormal": 4802,
      "Ġopsta": 4803,
      "Ġstadig": 4804,
      "ita": 4805,
      "Ġtraktatbru": 4806,
      "ĠgrÃ¦kenland": 4807,
      "Ġ139": 4808,
      "Ġlove": 4809,
      "Ġkm": 4810,
      "sektoren": 4811,
      "Ġskyldes": 4812,
      "Ġheri": 4813,
      "Ġresultaterne": 4814,
      "Ġtekst": 4815,
      "Ġarlige": 4816,
      "Ġrasukker": 4817,
      "78": 4818,
      "Ġlovgivningen": 4819,
      "Ġluftfartsselskab": 4820,
      "Ġafgiftspligtige": 4821,
      "Ġfamili": 4822,
      "skrav": 4823,
      "Ġee": 4824,
      "Ġ111": 4825,
      "ĠfartÃ¸j": 4826,
      "vaer": 4827,
      "ada": 4828,
      "Ġproduktionen": 4829,
      "skaff": 4830,
      "Ġrestriktive": 4831,
      "Ġuret": 4832,
      "Ġfersk": 4833,
      "ola": 4834,
      "Ġudvik": 4835,
      "Ġbal": 4836,
      "Ġforplig": 4837,
      "Ġgeb": 4838,
      "Ġaltern": 4839,
      "samm": 4840,
      "materialer": 4841,
      "ĠstÃ¸rrelsen": 4842,
      "Ġindvirkning": 4843,
      "Ġoperation": 4844,
      "Ġstabil": 4845,
      "Ġudviklingen": 4846,
      "Ġudstedes": 4847,
      "Ġbelig": 4848,
      "berg": 4849,
      "ĠstÃ¸ttet": 4850,
      "Ġgeneraldire": 4851,
      "Ġkorrektion": 4852,
      "endrag": 4853,
      "Ġ121": 4854,
      "Ġlager": 4855,
      "ĠbegÃ¦ring": 4856,
      "Ġoverskri": 4857,
      "ĠfremfÃ¸rt": 4858,
      "Ġmener": 4859,
      "Ġfremgangsma": 4860,
      "Ġsammendrag": 4861,
      "ativt": 4862,
      "Ġfaktura": 4863,
      "ĠmÃ¦lke": 4864,
      "Ġdetalj": 4865,
      "ĠsmÃ¸r": 4866,
      "yrer": 4867,
      "Ġstr": 4868,
      "ost": 4869,
      "delserne": 4870,
      "Ġ234": 4871,
      "Ġunderretter": 4872,
      "chlor": 4873,
      "Ġ1408": 4874,
      "Ġkategorier": 4875,
      "Ġbegraens": 4876,
      "Ġ1107": 4877,
      "Ġcir": 4878,
      "bevis": 4879,
      "Ġlagt": 4880,
      "Ġbestaende": 4881,
      "Ġaktion": 4882,
      "Ġforbundne": 4883,
      "Ġmundtlige": 4884,
      "Ġtjenestemand": 4885,
      "Ġimo": 4886,
      "Ġbeskyttelsen": 4887,
      "Ġindledningsvis": 4888,
      "Ġfunktionsmade": 4889,
      "Ġ135": 4890,
      "Ġdanske": 4891,
      "ford": 4892,
      "Ġfremsende": 4893,
      "urdering": 4894,
      "Ġadvokaterne": 4895,
      "Ġses": 4896,
      "ĠmonetÃ¦re": 4897,
      "import": 4898,
      "alske": 4899,
      "orti": 4900,
      "ĠprÃ¦mier": 4901,
      "Ġbegrundelsen": 4902,
      "Ġudgifterne": 4903,
      "ub": 4904,
      "Ġlevende": 4905,
      "ĠoplÃ¸": 4906,
      "belt": 4907,
      "ĠstÃ¸rste": 4908,
      "Ġgl": 4909,
      "Ġbefinder": 4910,
      "Ġkonkurrencen": 4911,
      "ph": 4912,
      "Ġoplysning": 4913,
      "Ġydet": 4914,
      "Ġforordninger": 4915,
      "Ġsr": 4916,
      "elov": 4917,
      "itor": 4918,
      "talt": 4919,
      "Ġbind": 4920,
      "Ġmultip": 4921,
      "Ġpulver": 4922,
      "Ã¦t": 4923,
      "fu": 4924,
      "tingenter": 4925,
      "Ġpet": 4926,
      "ska": 4927,
      "Ġopford": 4928,
      "ĠmedfÃ¸re": 4929,
      "parter": 4930,
      "Ġsg": 4931,
      "telsen": 4932,
      "Ġgeneraladvokaten": 4933,
      "Ġforvaltningskomiteen": 4934,
      "ĠudligningsbelÃ¸b": 4935,
      "Ġfrihed": 4936,
      "Ġ138": 4937,
      "Ġbro": 4938,
      "ino": 4939,
      "ĠtvÃ¦r": 4940,
      "ĠvÃ¦l": 4941,
      "ja": 4942,
      "Ġafh": 4943,
      "Ġcertifikat": 4944,
      "Ġalumin": 4945,
      "ĠoverfÃ¸rsel": 4946,
      "Ġ700": 4947,
      "sÃ¦d": 4948,
      "atom": 4949,
      "agte": 4950,
      "Ġkoeffici": 4951,
      "Ġgun": 4952,
      "tiden": 4953,
      "Ġretningslinjer": 4954,
      "Ġbrev": 4955,
      "Ġtom": 4956,
      "Ġie": 4957,
      "rene": 4958,
      "Ġprakti": 4959,
      "ykke": 4960,
      "Ġ281": 4961,
      "Ġ134": 4962,
      "Ġforsende": 4963,
      "Ġstort": 4964,
      "ular": 4965,
      "ĠbeskÃ¦ftigelse": 4966,
      "Ġgroup": 4967,
      "Ġ1701": 4968,
      "Ġfoelger": 4969,
      "rang": 4970,
      "ulf": 4971,
      "Ġhvoraf": 4972,
      "ĠstÃ¦vningen": 4973,
      "Ġpow": 4974,
      "Ġtariferes": 4975,
      "Ġkvote": 4976,
      "Ġsanktioner": 4977,
      "Ġhvormed": 4978,
      "Ġoverholdt": 4979,
      "genstande": 4980,
      "Ġecb": 4981,
      "Ġsanktion": 4982,
      "Ġopd": 4983,
      "hydro": 4984,
      "ĠudfÃ¸rt": 4985,
      "ĠforhÃ¸jes": 4986,
      "ĠophÃ¦ves": 4987,
      "Ġamerik": 4988,
      "Ġrestitutionen": 4989,
      "Ġarsag": 4990,
      "Ġ320": 4991,
      "Ġkontroller": 4992,
      "utsch": 4993,
      "uel": 4994,
      "67": 4995,
      "Ġeksempel": 4996,
      "Ġmisbrug": 4997,
      "ĠundersÃ¸gelsesperioden": 4998,
      "evis": 4999,
      "Ġelektroniske": 5000,
      "ktivt": 5001,
      "Ġangivne": 5002,
      "pper": 5003,
      "Ġbri": 5004,
      "ĠkrÃ¦n": 5005,
      "smeddel": 5006,
      "Ġfabrikant": 5007,
      "Ġforudfast": 5008,
      "Ġafvisning": 5009,
      "Ġansvarlige": 5010,
      "Ġ180": 5011,
      "Ġbulgar": 5012,
      "Ġregulativ": 5013,
      "Ġzone": 5014,
      "Ġ141": 5015,
      "Ġkonser": 5016,
      "Ġangiver": 5017,
      "Ġkontakt": 5018,
      "Ġregionale": 5019,
      "lles": 5020,
      "eligheder": 5021,
      "hvert": 5022,
      "jour": 5023,
      "Ġspecialud": 5024,
      "Ġbestyr": 5025,
      "ĠvedrÃ¸rte": 5026,
      "Ġeffektive": 5027,
      "Ġ131": 5028,
      "Ġkreditkvalitet": 5029,
      "Ġkla": 5030,
      "Ġ122": 5031,
      "ĠÃ°": 5032,
      "leg": 5033,
      "Ġledsag": 5034,
      "Ġtiden": 5035,
      "Ġfinland": 5036,
      "Ġtor": 5037,
      "ĠsubsidiÃ¦rt": 5038,
      "ummet": 5039,
      "Ġbesiddelse": 5040,
      "Ġpak": 5041,
      "Ġskatteyder": 5042,
      "Ġlyder": 5043,
      "Ġstig": 5044,
      "margen": 5045,
      "Ġoperat": 5046,
      "Ġmg": 5047,
      "ona": 5048,
      "Ġglas": 5049,
      "Ġethvert": 5050,
      "Ġseneste": 5051,
      "Ġvigtig": 5052,
      "ringen": 5053,
      "ĠgodtgÃ¸re": 5054,
      "sr": 5055,
      "Ġartikler": 5056,
      "Ġtelef": 5057,
      "Ġbelgiske": 5058,
      "ĠÎ±": 5059,
      "Ġtilbagek": 5060,
      "rundet": 5061,
      "Ġdesti": 5062,
      "Ġlik": 5063,
      "Ġ0404": 5064,
      "Ġ575": 5065,
      "Ġtyper": 5066,
      "Ġspecialudgave": 5067,
      "92": 5068,
      "Ġev": 5069,
      "Ġgodkendte": 5070,
      "Ġmag": 5071,
      "Ġtilslag": 5072,
      "lad": 5073,
      "tran": 5074,
      "ĠforelÃ¸bige": 5075,
      "Ġmange": 5076,
      "erettiget": 5077,
      "Ġbetydelig": 5078,
      "Ġfnlles": 5079,
      "saettelse": 5080,
      "sop": 5081,
      "syre": 5082,
      "sregler": 5083,
      "tek": 5084,
      "Ġtilbages": 5085,
      "Ġblan": 5086,
      "ĠreprÃ¦senter": 5087,
      "cel": 5088,
      "Ġperioder": 5089,
      "Ġdisk": 5090,
      "Ġmidlertidigt": 5091,
      "ebyg": 5092,
      "Ġsagsomkostningerne": 5093,
      "Ġklagepunkter": 5094,
      "Ġ124": 5095,
      "sproces": 5096,
      "Ġfriske": 5097,
      "erie": 5098,
      "ener": 5099,
      "deligt": 5100,
      "Ġkombinerede": 5101,
      "eld": 5102,
      "emperatur": 5103,
      "spÃ¸r": 5104,
      "cher": 5105,
      "Ġeksf": 5106,
      "hl": 5107,
      "Ġflu": 5108,
      "Ġeventuel": 5109,
      "Ġsaadanne": 5110,
      "vejeb": 5111,
      "ĠÃ¸nske": 5112,
      "Ġvirksomheds": 5113,
      "ĠbegrÃ¦nse": 5114,
      "Ġexport": 5115,
      "skel": 5116,
      "Ġtilvejeb": 5117,
      "mann": 5118,
      "Ġfangst": 5119,
      "Ġurim": 5120,
      "Ġtryk": 5121,
      "Ġsort": 5122,
      "ĠbÃ¸der": 5123,
      "Ġindflydelse": 5124,
      "Ġdyre": 5125,
      "Ġindgang": 5126,
      "ori": 5127,
      "Ġfaktorer": 5128,
      "Ġspecific": 5129,
      "Ġudnytt": 5130,
      "ĠsagsÃ¸gernes": 5131,
      "Ġtrykt": 5132,
      "Ġservice": 5133,
      "sevÃ¦rdi": 5134,
      "frastruktur": 5135,
      "far": 5136,
      "Ġbemaerkes": 5137,
      "Ġ170": 5138,
      "Ġ142": 5139,
      "odkende": 5140,
      "ĠimportvÃ¦rdier": 5141,
      "Ġkreditkvalitetstrin": 5142,
      "Ġomfattede": 5143,
      "oxy": 5144,
      "Ġ620": 5145,
      "Ġ128": 5146,
      "ĠkreditrisikoafdÃ¦kning": 5147,
      "Ġstivelse": 5148,
      "evne": 5149,
      "Ġfrance": 5150,
      "Ġvedtages": 5151,
      "hyd": 5152,
      "Ġlokal": 5153,
      "ws": 5154,
      "Ġplante": 5155,
      "ĠfuldstÃ¦ndig": 5156,
      "hof": 5157,
      "Ġdobbelt": 5158,
      "Ġcl": 5159,
      "Ġ1971": 5160,
      "Ġbundes": 5161,
      "Ġkvinder": 5162,
      "Ġraad": 5163,
      "ĠbegrÃ¦nsning": 5164,
      "Ġudgoer": 5165,
      "eblik": 5166,
      "Ġindgives": 5167,
      "Ġmiddel": 5168,
      "Ġstille": 5169,
      "priser": 5170,
      "Ġkob": 5171,
      "ĠlÃ¦ng": 5172,
      "Ġforklar": 5173,
      "ĠforsÃ¸g": 5174,
      "Ġdrikke": 5175,
      "Ġhandlinger": 5176,
      "put": 5177,
      "ivater": 5178,
      "sprogra": 5179,
      "Ġappellan": 5180,
      "raek": 5181,
      "kodeks": 5182,
      "Ġgev": 5183,
      "Ġordninger": 5184,
      "Ġfysisk": 5185,
      "Ġ2022": 5186,
      "enet": 5187,
      "Ġsej": 5188,
      "ĠprÃ¸vning": 5189,
      "Ġresultater": 5190,
      "Ġstaten": 5191,
      "stÃ¦ndige": 5192,
      "ĠafhÃ¦ng": 5193,
      "ĠbenÃ¦vnt": 5194,
      "Ġovervagning": 5195,
      "Ġhell": 5196,
      "Ġforpligtelsen": 5197,
      "Ġgodkendelses": 5198,
      "Ġ540": 5199,
      "sourcer": 5200,
      "ĠhidrÃ¸r": 5201,
      "Ġindehaveren": 5202,
      "Ġtilsig": 5203,
      "star": 5204,
      "Ġindik": 5205,
      "Ġrund": 5206,
      "Ġhandling": 5207,
      "Ġanfaeg": 5208,
      "Ġph": 5209,
      "ĠfremhÃ¦v": 5210,
      "Ġudfaerd": 5211,
      "beting": 5212,
      "Ġexcl": 5213,
      "Ġmaade": 5214,
      "Ġpassager": 5215,
      "ĠÃ¦ndrede": 5216,
      "Ġkunnet": 5217,
      "Ã¦ssige": 5218,
      "sset": 5219,
      "Ġrisikoen": 5220,
      "Ġligesom": 5221,
      "Ġdistribution": 5222,
      "Ġskatter": 5223,
      "sakter": 5224,
      "lovak": 5225,
      "Ġgrupper": 5226,
      "Ġinteresserede": 5227,
      "esien": 5228,
      "ĠudÃ¸ver": 5229,
      "Ġbetinget": 5230,
      "urer": 5231,
      "Ġlv": 5232,
      "etent": 5233,
      "Ġproduceret": 5234,
      "deler": 5235,
      "ĠÎµ": 5236,
      "Ġlandsretten": 5237,
      "Ġrisici": 5238,
      "Ġspis": 5239,
      "96": 5240,
      "ese": 5241,
      "Ġforbindelser": 5242,
      "Ġindeks": 5243,
      "ĠudÃ¸velsen": 5244,
      "Ġeuratom": 5245,
      "ĠÎ¼": 5246,
      "okument": 5247,
      "Ġbegrundelses": 5248,
      "Ġsynte": 5249,
      "skode": 5250,
      "ordan": 5251,
      "Ġtvisten": 5252,
      "valu": 5253,
      "Ġwe": 5254,
      "ira": 5255,
      "ssen": 5256,
      "Ġafb": 5257,
      "ix": 5258,
      "Ġ230": 5259,
      "Ġ166": 5260,
      "Ġbegreb": 5261,
      "Ġoverholde": 5262,
      "Ġveget": 5263,
      "Ġsma": 5264,
      "Ġgenerel": 5265,
      "Ġforetager": 5266,
      "ĠlÃ¦gemidler": 5267,
      "ĠsÃ¸gsmalet": 5268,
      "krav": 5269,
      "Ġstam": 5270,
      "Ġfordele": 5271,
      "afgifter": 5272,
      "ĠrumÃ¦n": 5273,
      "Ġolivenolie": 5274,
      "Ġfolkere": 5275,
      "fÃ¸relse": 5276,
      "Ġbut": 5277,
      "sor": 5278,
      "Ġovervej": 5279,
      "Ġbrud": 5280,
      "Ġkvalif": 5281,
      "Ġcertifik": 5282,
      "Ġefsa": 5283,
      "Ġmedhold": 5284,
      "Ġjustering": 5285,
      "Ġomfattes": 5286,
      "Ġ190": 5287,
      "Ġmat": 5288,
      "Ġ133": 5289,
      "Ġfrav": 5290,
      "Ġudbetalt": 5291,
      "ĠundersÃ¸ges": 5292,
      "Ġforventning": 5293,
      "Ġaluminium": 5294,
      "Ġudp": 5295,
      "Ġtradition": 5296,
      "Ġkurser": 5297,
      "Ġsituationer": 5298,
      "ĠindfÃ¸re": 5299,
      "Ġff": 5300,
      "Ġ173": 5301,
      "Ġuk": 5302,
      "lelse": 5303,
      "Ġubest": 5304,
      "ansvar": 5305,
      "Ġvest": 5306,
      "Ġindberettes": 5307,
      "facilitet": 5308,
      "Ġomregningskurs": 5309,
      "ekke": 5310,
      "Ġhvordan": 5311,
      "Ġnoedvendigt": 5312,
      "Ġindfoersel": 5313,
      "Ġtribunal": 5314,
      "ĠÃ¦": 5315,
      "Ġdestil": 5316,
      "Ġfare": 5317,
      "Ġkvalificerede": 5318,
      "Ġdeutsch": 5319,
      "Ġska": 5320,
      "relse": 5321,
      "Ġ164": 5322,
      "Ġfodno": 5323,
      "Ġoverf": 5324,
      "ungs": 5325,
      "Ġhellenske": 5326,
      "ĠpatÃ¦n": 5327,
      "Ġdiff": 5328,
      "ĠgÃ¦ld": 5329,
      "sprocedure": 5330,
      "reger": 5331,
      "Ġbeteg": 5332,
      "Ġhvortil": 5333,
      "Ġmarkedsandel": 5334,
      "velse": 5335,
      "Ġbrutt": 5336,
      "terede": 5337,
      "ĠnÃ¦": 5338,
      "Ġcit": 5339,
      "Ġhjemmel": 5340,
      "ĠfÃ¦llesskabsret": 5341,
      "ladt": 5342,
      "Ġunderposition": 5343,
      "sser": 5344,
      "Ġ151": 5345,
      "lemsstaten": 5346,
      "aben": 5347,
      "Ġdesto": 5348,
      "eves": 5349,
      "Ġproducenterne": 5350,
      "ĠnÃ¸dvendigvis": 5351,
      "mo": 5352,
      "Ġfac": 5353,
      "gÃ¸relser": 5354,
      "Ġbehandlet": 5355,
      "Ġpoli": 5356,
      "Ġforenelig": 5357,
      "Ġkontrollen": 5358,
      "Ġ2727": 5359,
      "Ã¦mp": 5360,
      "skontrol": 5361,
      "Ġmoderselskab": 5362,
      "ea": 5363,
      "Ġforven": 5364,
      "betaling": 5365,
      "oliti": 5366,
      "pl": 5367,
      "vise": 5368,
      "Ġdomme": 5369,
      "Ġhk": 5370,
      "river": 5371,
      "burg": 5372,
      "Ġgenind": 5373,
      "Ġrenter": 5374,
      "Ġviii": 5375,
      "Ġtjekk": 5376,
      "Ġje": 5377,
      "Ġbehold": 5378,
      "Ġkommis": 5379,
      "62": 5380,
      "henyl": 5381,
      "ligheder": 5382,
      "Ġlokale": 5383,
      "saftalen": 5384,
      "Ġukra": 5385,
      "Ġforsin": 5386,
      "Ġafdelingsformanden": 5387,
      "Ġtabelposition": 5388,
      "mal": 5389,
      "Ġ267": 5390,
      "Ġudform": 5391,
      "abor": 5392,
      "Ġattest": 5393,
      "ningsgenstande": 5394,
      "Ġintern": 5395,
      "Ġoffentligt": 5396,
      "sfa": 5397,
      "odtageren": 5398,
      "Ġmaengder": 5399,
      "eskat": 5400,
      "oerer": 5401,
      "ogen": 5402,
      "Ġintelle": 5403,
      "Ġbeliggende": 5404,
      "Ġpaberabt": 5405,
      "Ġnoedvendige": 5406,
      "Ġnedsat": 5407,
      "Ġ220": 5408,
      "regler": 5409,
      "Ġ132": 5410,
      "Ġdestination": 5411,
      "ĠbedÃ¸mmelse": 5412,
      "Ġkontrollere": 5413,
      "ĠmÃ¸der": 5414,
      "Ġpaal": 5415,
      "Ġuddannelse": 5416,
      "Ġindsigelse": 5417,
      "ĠmervÃ¦rdi": 5418,
      "cl": 5419,
      "Ġdominerende": 5420,
      "Ġanset": 5421,
      "Ġfrig": 5422,
      "Ġmaengde": 5423,
      "Ġverdensmarkedet": 5424,
      "rium": 5425,
      "stilladelse": 5426,
      "Ġerstatnings": 5427,
      "Ġtypeg": 5428,
      "ikker": 5429,
      "Ġtilstand": 5430,
      "bek": 5431,
      "Ġindlev": 5432,
      "anlÃ¦g": 5433,
      "Ġskattepligtige": 5434,
      "Ġerhvervet": 5435,
      "Ġ137": 5436,
      "Ġ156": 5437,
      "Ġmobil": 5438,
      "sbet": 5439,
      "Ġforsynet": 5440,
      "Ġlighed": 5441,
      "Ġtildeles": 5442,
      "geren": 5443,
      "Ġjp": 5444,
      "Ġkunde": 5445,
      "Ġangive": 5446,
      "Ġorigin": 5447,
      "Ġmetaller": 5448,
      "Ġkoordin": 5449,
      "Ġlog": 5450,
      "Ġ204": 5451,
      "Ġsammenlign": 5452,
      "Ġanfoerte": 5453,
      "Ġuregel": 5454,
      "Ġ730": 5455,
      "Ġ520": 5456,
      "Ġherpa": 5457,
      "Ġprocesreglementets": 5458,
      "ipp": 5459,
      "sbeting": 5460,
      "Ġsammenligning": 5461,
      "Ġpor": 5462,
      "Ġ127": 5463,
      "somra": 5464,
      "Ġproportionalitetsprincippet": 5465,
      "Ġprogrammer": 5466,
      "ĠhÃ¸ring": 5467,
      "Ġfrems": 5468,
      "Ġundtagelser": 5469,
      "Ġbevil": 5470,
      "emiddel": 5471,
      "Ġbearbejdning": 5472,
      "Ġrom": 5473,
      "Ġudbytte": 5474,
      "ĠnettovÃ¦gt": 5475,
      "kelige": 5476,
      "Ġstandarder": 5477,
      "ytter": 5478,
      "Ġkreditfacilitet": 5479,
      "Ġvurderes": 5480,
      "Ġkapacitet": 5481,
      "Ġforbudt": 5482,
      "Ġtraktatbrud": 5483,
      "ĠbrÃ¦ndstof": 5484,
      "Ġbenyttes": 5485,
      "Ġtilsagn": 5486,
      "Ġabsol": 5487,
      "Ġost": 5488,
      "Ġdeltage": 5489,
      "Ġintellektu": 5490,
      "ĠhÃ¸st": 5491,
      "Ġmaksimale": 5492,
      "sbegrÃ¦n": 5493,
      "ĠrÃ¦kkevid": 5494,
      "Ġkolle": 5495,
      "gik": 5496,
      "Ġnetop": 5497,
      "Ġ263": 5498,
      "Ġmyndighederne": 5499,
      "ligvis": 5500,
      "Ġudelukket": 5501,
      "Ġplast": 5502,
      "Ġ143": 5503,
      "Ġ1702": 5504,
      "Ġ1967": 5505,
      "Ġdefinitionen": 5506,
      "Ġtillade": 5507,
      "prÃ¦g": 5508,
      "Ġbeskyttet": 5509,
      "Ġ147": 5510,
      "Ġafsp": 5511,
      "Ġbolig": 5512,
      "undhed": 5513,
      "Ġregnings": 5514,
      "Ġafvikling": 5515,
      "erd": 5516,
      "ĠrestitutionsbelÃ¸b": 5517,
      "Ġudpeget": 5518,
      "Ġkvantitative": 5519,
      "Ġretss": 5520,
      "kapital": 5521,
      "Ġvold": 5522,
      "Ġtilpasning": 5523,
      "Ġkurs": 5524,
      "ĠmotorkÃ¸retÃ¸j": 5525,
      "Ġfalder": 5526,
      "Ġkat": 5527,
      "ĠmÃ¸de": 5528,
      "Ġeuropniske": 5529,
      "Ġ178": 5530,
      "Ġbegrundede": 5531,
      "ank": 5532,
      "Ã¦rm": 5533,
      "Ġretsforskrifter": 5534,
      "formand": 5535,
      "Ġkonkurrenceb": 5536,
      "Ġtrods": 5537,
      "tidige": 5538,
      "orf": 5539,
      "Ġrettet": 5540,
      "ura": 5541,
      "Ġinstitut": 5542,
      "Ġrente": 5543,
      "Ġoverholdes": 5544,
      "Ġwh": 5545,
      "hor": 5546,
      "ĠÃ¸jeblik": 5547,
      "Ġup": 5548,
      "ĠfastlÃ¦gges": 5549,
      "ni": 5550,
      "udgifter": 5551,
      "Ġpassi": 5552,
      "Ġgoer": 5553,
      "Ġudgangspunkt": 5554,
      "ulation": 5555,
      "handel": 5556,
      "forvaltning": 5557,
      "tidspunktet": 5558,
      "tika": 5559,
      "ĠforfÃ¸l": 5560,
      "Ġautonom": 5561,
      "Ġkriterium": 5562,
      "Ġungarn": 5563,
      "lemmer": 5564,
      "Ġ0403": 5565,
      "Ġrod": 5566,
      "Ġsuspension": 5567,
      "Ġrolle": 5568,
      "Ġgran": 5569,
      "ĠfrÃ¸": 5570,
      "Ðº": 5571,
      "sej": 5572,
      "sprodu": 5573,
      "Ġautomatisk": 5574,
      "Ġfunger": 5575,
      "Ġbetyder": 5576,
      "sperioden": 5577,
      "eland": 5578,
      "ĠbehÃ¸r": 5579,
      "Ġ388": 5580,
      "skraft": 5581,
      "Ġ721": 5582,
      "ogt": 5583,
      "ĠhÃ¦vdede": 5584,
      "cering": 5585,
      "Ġappelkammer": 5586,
      "Ġmont": 5587,
      "bas": 5588,
      "ĠbÃ¦r": 5589,
      "Ġza": 5590,
      "maet": 5591,
      "Ġbetalinger": 5592,
      "Ġdeltager": 5593,
      "Ġindgaelse": 5594,
      "Ġ172": 5595,
      "ologisk": 5596,
      "Ġdommens": 5597,
      "ĠikrafttrÃ¦den": 5598,
      "ĠoversÃ¦ttelse": 5599,
      "Ġdags": 5600,
      "Ġanvendelsesomradet": 5601,
      "ise": 5602,
      "center": 5603,
      "dag": 5604,
      "oxid": 5605,
      "Ġeget": 5606,
      "Ġven": 5607,
      "nr": 5608,
      "ĠkrÃ¦ve": 5609,
      "Ġ149": 5610,
      "Ġlandet": 5611,
      "ĠbelÃ¸bet": 5612,
      "Ġitaliensk": 5613,
      "Ġ189": 5614,
      "ĠbÃ¸den": 5615,
      "rukket": 5616,
      "Ġrader": 5617,
      "Ġlandsret": 5618,
      "Ġ050": 5619,
      "Ġindeholdende": 5620,
      "ĠhÃ¦": 5621,
      "Ġfordre": 5622,
      "Ġolier": 5623,
      "institution": 5624,
      "ĠivÃ¦rksat": 5625,
      "delsens": 5626,
      "Ġforarbejd": 5627,
      "ĠnÃ¸jag": 5628,
      "Ġvidenskabelige": 5629,
      "Ġstatistiske": 5630,
      "Ġsats": 5631,
      "ĠindsÃ¦ttes": 5632,
      "distrik": 5633,
      "ydes": 5634,
      "cin": 5635,
      "merne": 5636,
      "Ġajour": 5637,
      "ĠvÃ¦rdier": 5638,
      "ydelige": 5639,
      "aner": 5640,
      "Ġvegetabil": 5641,
      "ĠovertrÃ¦delser": 5642,
      "Ġskib": 5643,
      "taeg": 5644,
      "lusive": 5645,
      "Ġeff": 5646,
      "Ġhjemmemar": 5647,
      "Ġbetragtede": 5648,
      "Ġevalu": 5649,
      "Ġmac": 5650,
      "Ġtoldkodeks": 5651,
      "Ġjap": 5652,
      "ĠudfÃ¸re": 5653,
      "vision": 5654,
      "Ġblo": 5655,
      "srettigheder": 5656,
      "ĠluftfartÃ¸j": 5657,
      "Ġaendring": 5658,
      "Ġforhindre": 5659,
      "sÃ¦tninger": 5660,
      "Ġlette": 5661,
      "licens": 5662,
      "elk": 5663,
      "prÃ¸ven": 5664,
      "ĠtilstrÃ¦kkelige": 5665,
      "Ġudlig": 5666,
      "Ġ175": 5667,
      "Ġpolitik": 5668,
      "Ġarbejder": 5669,
      "Ġlaeg": 5670,
      "Ġalvorlig": 5671,
      "telov": 5672,
      "Ġdr": 5673,
      "ill": 5674,
      "Ġvanskeligheder": 5675,
      "Ġstykker": 5676,
      "vival": 5677,
      "ass": 5678,
      "produktion": 5679,
      "Ġ720": 5680,
      "Ġunderstreg": 5681,
      "ĠsÃ¦rprÃ¦g": 5682,
      "Ġrelation": 5683,
      "Ġvaeret": 5684,
      "etid": 5685,
      "Ġtraeder": 5686,
      "Ġveter": 5687,
      "ova": 5688,
      "Ġsur": 5689,
      "Ġelektronisk": 5690,
      "sdom": 5691,
      "ĠfremlÃ¦gge": 5692,
      "Ġfinansiel": 5693,
      "Ġink": 5694,
      "Ġfinan": 5695,
      "Ġudkast": 5696,
      "Ġbedrift": 5697,
      "Ġvide": 5698,
      "Ġgul": 5699,
      "Ġcoun": 5700,
      "chen": 5701,
      "Ġopretholde": 5702,
      "Ġ404": 5703,
      "Ġsond": 5704,
      "Ġomfanget": 5705,
      "Ġforfat": 5706,
      "Ġdepart": 5707,
      "beskyttelses": 5708,
      "Ġslovak": 5709,
      "stÃ¦ndigt": 5710,
      "Ġderved": 5711,
      "mu": 5712,
      "Ġrespektive": 5713,
      "Ġkemisk": 5714,
      "Ġdm": 5715,
      "Ġskummet": 5716,
      "lÃ¦": 5717,
      "retten": 5718,
      "Ġanbef": 5719,
      "tryk": 5720,
      "ĠvÃ¦rdipapir": 5721,
      "skap": 5722,
      "Ġ800": 5723,
      "ĠberÃ¸rer": 5724,
      "ĠopmÃ¦r": 5725,
      "Ġtillader": 5726,
      "odning": 5727,
      "ĠafgÃ¸re": 5728,
      "Ġ210": 5729,
      "yla": 5730,
      "Ġindien": 5731,
      "Ġudfo": 5732,
      "mÃ¦ssigt": 5733,
      "Ġopkra": 5734,
      "ĠtilgÃ¦ngelige": 5735,
      "Ġleveres": 5736,
      "Ġareal": 5737,
      "Ġur": 5738,
      "salg": 5739,
      "ĠforelÃ¦gge": 5740,
      "ĠsammensÃ¦tning": 5741,
      "ĠfastlÃ¦gge": 5742,
      "Ġstraffes": 5743,
      "Ġkommand": 5744,
      "ĠberÃ¸rt": 5745,
      "Ġsynes": 5746,
      "Ġblandinger": 5747,
      "Ġautor": 5748,
      "ĠpalÃ¦gge": 5749,
      "ktivitet": 5750,
      "kornet": 5751,
      "Ġunderteg": 5752,
      "Ġafsked": 5753,
      "Ġ310": 5754,
      "Ġgennemgang": 5755,
      "fs": 5756,
      "Ġservic": 5757,
      "ĠnÃ¦g": 5758,
      "Ġlovgiver": 5759,
      "aly": 5760,
      "Ġ168": 5761,
      "Ġwith": 5762,
      "Ġartic": 5763,
      "Ġethyl": 5764,
      "Ġtilkende": 5765,
      "Ġ155": 5766,
      "mÃ¦rket": 5767,
      "ĠfremsÃ¦tte": 5768,
      "Ġ440": 5769,
      "Ġovennaevnte": 5770,
      "Ġkommerci": 5771,
      "Ġefterkomme": 5772,
      "foere": 5773,
      "Ġiniti": 5774,
      "Ġafgiften": 5775,
      "ĠÃ¦ndrer": 5776,
      "Ġkoncern": 5777,
      "Ġtredjemand": 5778,
      "ĠbevÃ¦gelighed": 5779,
      "Ġreelt": 5780,
      "Ġ181": 5781,
      "ĠtrÃ¦k": 5782,
      "betegn": 5783,
      "Ġles": 5784,
      "ĠmiljÃ¸et": 5785,
      "Ġafspej": 5786,
      "aterale": 5787,
      "tten": 5788,
      "Ġsalt": 5789,
      "Ġmeddelte": 5790,
      "Ġvit": 5791,
      "ureau": 5792,
      "Ġmit": 5793,
      "ĠÃ¦gte": 5794,
      "Ġtac": 5795,
      "Ġbeskatning": 5796,
      "Î¿ÏĤ": 5797,
      "Ġpre": 5798,
      "Ġgrov": 5799,
      "Ġbehandlingen": 5800,
      "Ġgrove": 5801,
      "ĠÃĹ": 5802,
      "Ġkreditinstitutter": 5803,
      "Ġsalget": 5804,
      "Ġproduktets": 5805,
      "Ġudarbejdet": 5806,
      "Ġvirksomhederne": 5807,
      "godt": 5808,
      "Ġobjektive": 5809,
      "eden": 5810,
      "Ġlandsskatteretten": 5811,
      "nex": 5812,
      "ttende": 5813,
      "Ġ157": 5814,
      "Ġ340": 5815,
      "Ġplanter": 5816,
      "Ïħ": 5817,
      "Ġrimeligt": 5818,
      "klasse": 5819,
      "Ġplader": 5820,
      "Ġpersonlige": 5821,
      "Ġpenge": 5822,
      "Ġmangler": 5823,
      "Ġrejst": 5824,
      "Ġkonklusioner": 5825,
      "Ġnedenfor": 5826,
      "stran": 5827,
      "Ġ154": 5828,
      "Ġforfr": 5829,
      "Ġfond": 5830,
      "Ġdansk": 5831,
      "Ġ1068": 5832,
      "Ġofficielle": 5833,
      "Ã¦kker": 5834,
      "Ġveterin": 5835,
      "Ġnegative": 5836,
      "Ġforholdet": 5837,
      "rr": 5838,
      "Ġtiln": 5839,
      "Ġforuren": 5840,
      "Ġafgifts": 5841,
      "Ġfodnote": 5842,
      "Ġslut": 5843,
      "enes": 5844,
      "Ġudvalget": 5845,
      "Ġbis": 5846,
      "Ġinddrag": 5847,
      "Ġudfaerdiget": 5848,
      "Ġsagerne": 5849,
      "Ġskabe": 5850,
      "Ġudbetales": 5851,
      "ux": 5852,
      "stoffet": 5853,
      "Ġtilsynsmyndighed": 5854,
      "udv": 5855,
      "bil": 5856,
      "Ġarten": 5857,
      "lutninger": 5858,
      "Ġvon": 5859,
      "ado": 5860,
      "walt": 5861,
      "Ġforebyg": 5862,
      "Ġbon": 5863,
      "Ġanmodninger": 5864,
      "ĠtillÃ¦gges": 5865,
      "Ġvaesent": 5866,
      "sprÃ¸": 5867,
      "iserede": 5868,
      "Î¹Î±": 5869,
      "Ġkunst": 5870,
      "ĠvedtÃ¦gtens": 5871,
      "Ġskummetm": 5872,
      "Ġgarantier": 5873,
      "Ġ1104": 5874,
      "goerelsen": 5875,
      "Ġforskelle": 5876,
      "Ġ146": 5877,
      "aftalen": 5878,
      "Ġutilst": 5879,
      "Ġinval": 5880,
      "sbel": 5881,
      "ĠvÃ¦v": 5882,
      "Ġrepra": 5883,
      "ĠvÃ¦sentligt": 5884,
      "Ġgmin": 5885,
      "Ġaz": 5886,
      "Ġ1103": 5887,
      "100": 5888,
      "Ġretsinstanser": 5889,
      "Ġveri": 5890,
      "hus": 5891,
      "Ġep": 5892,
      "spekt": 5893,
      "Ġforbuddet": 5894,
      "Ã¦ringen": 5895,
      "ĠbekrÃ¦f": 5896,
      "Ġ610": 5897,
      "Ġent": 5898,
      "sÃ¦t": 5899,
      "Ġ171": 5900,
      "rup": 5901,
      "Ġlos": 5902,
      "Ġtilstraek": 5903,
      "cereg": 5904,
      "Ġplant": 5905,
      "Ġrettighed": 5906,
      "Ġ167": 5907,
      "Ġindledende": 5908,
      "Ġpaberabe": 5909,
      "Ġdie": 5910,
      "Ġ152": 5911,
      "Ġlevned": 5912,
      "foren": 5913,
      "Ġnoter": 5914,
      "9900": 5915,
      "ĠtilhÃ¸r": 5916,
      "Ġhl": 5917,
      "bruger": 5918,
      "Ġtimer": 5919,
      "instrumenter": 5920,
      "ĠfastlÃ¦ggelse": 5921,
      "att": 5922,
      "Ġminister": 5923,
      "ya": 5924,
      "Ġopsig": 5925,
      "ula": 5926,
      "ĠutilstrÃ¦kkel": 5927,
      "industrien": 5928,
      "ĠprÃ¦par": 5929,
      "Ġ1234": 5930,
      "Ġophav": 5931,
      "Ġretningslinjerne": 5932,
      "Ġretsaf": 5933,
      "Ġtrad": 5934,
      "Ġinspe": 5935,
      "Ġakten": 5936,
      "Ġigen": 5937,
      "97": 5938,
      "yper": 5939,
      "Ġias": 5940,
      "Ġforekommer": 5941,
      "Ġrens": 5942,
      "ton": 5943,
      "Ġmodtage": 5944,
      "Ġcentralbanker": 5945,
      "Ġsyntetiske": 5946,
      "ssel": 5947,
      "cht": 5948,
      "Ġressourcer": 5949,
      "aborator": 5950,
      "venser": 5951,
      "Ġtoldmyndighederne": 5952,
      "Ġudo": 5953,
      "Ġtidsrum": 5954,
      "Ġundtagelses": 5955,
      "rest": 5956,
      "ĠhensigtsmÃ¦ssigt": 5957,
      "Ġbringe": 5958,
      "Ġuddannelses": 5959,
      "Ġfamiliemed": 5960,
      "Ã¦lk": 5961,
      "Ġ153": 5962,
      "Ġafslutning": 5963,
      "sal": 5964,
      "Ġtilbe": 5965,
      "ethyl": 5966,
      "Ġaffattet": 5967,
      "Ġholdes": 5968,
      "Ġkonstaterede": 5969,
      "Ġrevolver": 5970,
      "Ġaus": 5971,
      "emmelses": 5972,
      "Ġafsluttet": 5973,
      "Ġtilvejebring": 5974,
      "Ġsuspender": 5975,
      "Ġstatisti": 5976,
      "ĠprÃ¦feren": 5977,
      "Ġcarbon": 5978,
      "Ġsar": 5979,
      "Ġsamarbejd": 5980,
      "Ġmultiplic": 5981,
      "tilling": 5982,
      "Ġrevolverende": 5983,
      "Ġ2150": 5984,
      "fil": 5985,
      "Ġoverskud": 5986,
      "Ġmarok": 5987,
      "ĠudÃ¸velse": 5988,
      "Ġdispon": 5989,
      "Ġbega": 5990,
      "Ġforventede": 5991,
      "ĠkÃ¸retÃ¸jet": 5992,
      "Ġindividuel": 5993,
      "Ġband": 5994,
      "Ġforslaget": 5995,
      "ĠimÃ¸de": 5996,
      "ĠdÃ¦kke": 5997,
      "belÃ¸bet": 5998,
      "Ġalvorlige": 5999,
      "Ġ144": 6000,
      "ĠbekrÃ¦ftende": 6001,
      "Ġprincipi": 6002,
      "Ġundergivet": 6003,
      "Ġlanddistrik": 6004,
      "emyndighed": 6005,
      "ĠsÃ¦rskilt": 6006,
      "ĠkÃ¸ber": 6007,
      "Ġretssikkerhed": 6008,
      "Ġversion": 6009,
      "lands": 6010,
      "Ġlade": 6011,
      "Ġprodukterne": 6012,
      "Ġindon": 6013,
      "ico": 6014,
      "Ġlitau": 6015,
      "ĠfornÃ¸dent": 6016,
      "Ġsikres": 6017,
      "Ġkompensation": 6018,
      "ĠefterprÃ¸": 6019,
      "Ġstatu": 6020,
      "landsk": 6021,
      "Ġ161": 6022,
      "Ġtilret": 6023,
      "une": 6024,
      "Ġudelukker": 6025,
      "ebe": 6026,
      "Ġprote": 6027,
      "Ġfolkerepublikken": 6028,
      "transport": 6029,
      "Ġlicenser": 6030,
      "cose": 6031,
      "Ġlovligt": 6032,
      "Ġ337": 6033,
      "Ġskov": 6034,
      "Ġsystemet": 6035,
      "pres": 6036,
      "Ġurigtig": 6037,
      "Ġchart": 6038,
      "sterne": 6039,
      "eskyttelse": 6040,
      "Ġrammer": 6041,
      "Ġoprettet": 6042,
      "Ġmol": 6043,
      "Ġappellen": 6044,
      "Ġod": 6045,
      "Ġtol": 6046,
      "Ġfortjeneste": 6047,
      "rugter": 6048,
      "fisk": 6049,
      "zol": 6050,
      "Ġindlede": 6051,
      "tikler": 6052,
      "politik": 6053,
      "ĠdrÃ¸": 6054,
      "Ġorganisationer": 6055,
      "Ġfot": 6056,
      "Ġindsk": 6057,
      "ane": 6058,
      "Ġpastaede": 6059,
      "son": 6060,
      "ĠmervÃ¦rdiafgift": 6061,
      "nal": 6062,
      "Ġrus": 6063,
      "Ġulovlige": 6064,
      "Ġprotokollen": 6065,
      "Ġberig": 6066,
      "finansi": 6067,
      "Ġredu": 6068,
      "Ġforetog": 6069,
      "Ġtypegodkende": 6070,
      "oejer": 6071,
      "Ġcpa": 6072,
      "Ġflyv": 6073,
      "smarked": 6074,
      "stedet": 6075,
      "any": 6076,
      "Ġvedtagelse": 6077,
      "Ġsle": 6078,
      "Ġtriko": 6079,
      "esundhed": 6080,
      "Ġ1970": 6081,
      "azione": 6082,
      "sia": 6083,
      "Ġnej": 6084,
      "Ġomk": 6085,
      "Ġurigtigt": 6086,
      "Ġangivelser": 6087,
      "Ġ158": 6088,
      "diktion": 6089,
      "Ġkopi": 6090,
      "Ġmark": 6091,
      "Ġdifferen": 6092,
      "Ġfrister": 6093,
      "vaerende": 6094,
      "spunkter": 6095,
      "Ġobligatorisk": 6096,
      "Ġkendetegn": 6097,
      "wer": 6098,
      "udtag": 6099,
      "Ġeksk": 6100,
      "Ġbegrundelsespligt": 6101,
      "Ġmaling": 6102,
      "enheder": 6103,
      "Ġfrosset": 6104,
      "Ġsikkerheds": 6105,
      "Ġbundet": 6106,
      "Ġkongeriges": 6107,
      "Ġkvart": 6108,
      "Ġtilrettel": 6109,
      "myndigheden": 6110,
      "Ġantage": 6111,
      "Ġpi": 6112,
      "Ġix": 6113,
      "ordnet": 6114,
      "ariff": 6115,
      "kender": 6116,
      "okra": 6117,
      "Ġ184": 6118,
      "sforsikring": 6119,
      "ĠafgrÃ¦n": 6120,
      "Ġpastanden": 6121,
      "Ġfjern": 6122,
      "ĠfÃ¦llesmarkedet": 6123,
      "Ġinfrastruktur": 6124,
      "Ġut": 6125,
      "Ġtillaeg": 6126,
      "Ġ182": 6127,
      "Ġanimalske": 6128,
      "Ġskriftligt": 6129,
      "rivil": 6130,
      "Ġsikkerhedsstil": 6131,
      "Ġpeng": 6132,
      "ki": 6133,
      "Ġomstruktur": 6134,
      "Ġindividuelt": 6135,
      "Ġstadf": 6136,
      "Ġgum": 6137,
      "Ġyl": 6138,
      "Ġbevar": 6139,
      "Ġmeddelelser": 6140,
      "Ġbetydelige": 6141,
      "Ġtraeffe": 6142,
      "Ġseg": 6143,
      "Ġgodkendelsen": 6144,
      "Ġ!": 6145,
      "ĠafsÃ¦tning": 6146,
      "retlige": 6147,
      "Ġstykke": 6148,
      "Ġ9000": 6149,
      "chn": 6150,
      "Ġ165": 6151,
      "Ġopfyldelse": 6152,
      "Ġmodtageren": 6153,
      "Ġbehandle": 6154,
      "fikation": 6155,
      "hosp": 6156,
      "Ġbeslutningens": 6157,
      "Ġproducts": 6158,
      "Ġbeskyttede": 6159,
      "Ġegnede": 6160,
      "dÃ¸mm": 6161,
      "Ġxx": 6162,
      "ĠhÃ¸rt": 6163,
      "Ġ162": 6164,
      "Ġmaterielle": 6165,
      "Ġrec": 6166,
      "Ġeksponering": 6167,
      "sproceduren": 6168,
      "Ġhendes": 6169,
      "sningen": 6170,
      "frem": 6171,
      "deles": 6172,
      "Î±Ïģ": 6173,
      "Ġkomponenter": 6174,
      "certifikat": 6175,
      "ĠprÃ¸ver": 6176,
      "klag": 6177,
      "ÃŁ": 6178,
      "regnet": 6179,
      "Ġkilde": 6180,
      "Ġomkostnings": 6181,
      "Ġ529900": 6182,
      "Ġemballage": 6183,
      "Ġdelvist": 6184,
      "cip": 6185,
      "Ð´": 6186,
      "Ġnom": 6187,
      "lÃ¦gning": 6188,
      "Ġchartret": 6189,
      "Ġudgift": 6190,
      "Ġmun": 6191,
      "Ġforarbejdede": 6192,
      "Ġforstyr": 6193,
      "bland": 6194,
      "Ġelektric": 6195,
      "Ġlast": 6196,
      "fÃ¸rsel": 6197,
      "ĠbÃ¸rn": 6198,
      "Ġoversk": 6199,
      "rimin": 6200,
      "Ġafskriv": 6201,
      "ĠuregelmÃ¦ss": 6202,
      "holdte": 6203,
      "Ġeuropean": 6204,
      "Ġstraf": 6205,
      "tigelse": 6206,
      "Ġ299": 6207,
      "ong": 6208,
      "Ġpersonal": 6209,
      "Ġstaterne": 6210,
      "Ġruss": 6211,
      "Ġforelaeg": 6212,
      "Ġsyge": 6213,
      "fÃ¸re": 6214,
      "ÏĢ": 6215,
      "spekter": 6216,
      "Ġindberetning": 6217,
      "ĠbefÃ¸jelse": 6218,
      "Ġfaellesskabers": 6219,
      "goerelse": 6220,
      "Ġtillige": 6221,
      "Ġbenytte": 6222,
      "sind": 6223,
      "ĠgrÃ¦nser": 6224,
      "ĠundersÃ¸gte": 6225,
      "Ġdos": 6226,
      "rab": 6227,
      "ĠpalÃ¦gger": 6228,
      "sendelse": 6229,
      "Ġmulige": 6230,
      "Ġrestriktioner": 6231,
      "allet": 6232,
      "Ġ163": 6233,
      "Ġ159": 6234,
      "Ġreklame": 6235,
      "Ġtoldsats": 6236,
      "Ġklageren": 6237,
      "Ġbegun": 6238,
      "Ġpes": 6239,
      "stein": 6240,
      "Ġ176": 6241,
      "abilitet": 6242,
      "Ġlikvid": 6243,
      "Ġindledning": 6244,
      "Ġstoet": 6245,
      "gaet": 6246,
      "Ġbekl": 6247,
      "Ġpavirke": 6248,
      "Ġvedvarende": 6249,
      "Ġ270": 6250,
      "uer": 6251,
      "Ġudelukke": 6252,
      "Ġsport": 6253,
      "Ġmikro": 6254,
      "kort": 6255,
      "ĠansÃ¦ttelse": 6256,
      "ants": 6257,
      "ĠprÃ¦sidenten": 6258,
      "Ġhoejst": 6259,
      "Ġgyldigheden": 6260,
      "Ġlsr": 6261,
      "Ġdirektiver": 6262,
      "Ġdro": 6263,
      "Ġdekret": 6264,
      "ĠselvstÃ¦ndig": 6265,
      "Ġkonstatering": 6266,
      "ttelse": 6267,
      "holdelses": 6268,
      "Ġot": 6269,
      "Ġkir": 6270,
      "Ġkonserver": 6271,
      "Ġdeltog": 6272,
      "Ġtet": 6273,
      "Ġpositioner": 6274,
      "aend": 6275,
      "Ġifr": 6276,
      "Ġrul": 6277,
      "Ġnote": 6278,
      "methyl": 6279,
      "chaft": 6280,
      "Ġml": 6281,
      "Ġnaturlige": 6282,
      "ala": 6283,
      "Ġkomite": 6284,
      "Ġ174": 6285,
      "Ġvigtigste": 6286,
      "Ġqr": 6287,
      "tegnelse": 6288,
      "Ġbij": 6289,
      "Ġrq": 6290,
      "udstyr": 6291,
      "Ġbegiven": 6292,
      "ĠindfÃ¸rte": 6293,
      "omrader": 6294,
      "Ġolt": 6295,
      "Ġcentrale": 6296,
      "ĠimportÃ¸rer": 6297,
      "Ġregeringen": 6298,
      "Ġunderkast": 6299,
      "Ġoverstige": 6300,
      "Ġannullations": 6301,
      "Ġnationalt": 6302,
      "ĠÃ¸nskede": 6303,
      "Ġtarifering": 6304,
      "Ġbv": 6305,
      "lader": 6306,
      "Ġinvolver": 6307,
      "Ġgam": 6308,
      "Ġpunkter": 6309,
      "Ġadministr": 6310,
      "Ġaltid": 6311,
      "Ġarbejdet": 6312,
      "sms": 6313,
      "Ġinput": 6314,
      "Ġsagsoegerne": 6315,
      "Ġkam": 6316,
      "Ġregulering": 6317,
      "Ġdern": 6318,
      "Ġmeddeles": 6319,
      "Ġesc": 6320,
      "Ġtit": 6321,
      "Ġteknologi": 6322,
      "Ġfaerd": 6323,
      "Ġinstitu": 6324,
      "Ġkommunikation": 6325,
      "yer": 6326,
      "sper": 6327,
      "Ġtilfred": 6328,
      "ĠindkÃ¸b": 6329,
      "rÃ¦kning": 6330,
      "stre": 6331,
      "Ġdemokra": 6332,
      "Ġunited": 6333,
      "etre": 6334,
      "Ġagenturet": 6335,
      "arbejde": 6336,
      "Ġfoerst": 6337,
      "Ġmyndigheders": 6338,
      "smeddelelsen": 6339,
      "ĠnÃ¦ring": 6340,
      "Ġflyve": 6341,
      "urser": 6342,
      "Ġstemm": 6343,
      "tradt": 6344,
      "ros": 6345,
      "ĠansÃ¸gte": 6346,
      "rol": 6347,
      "undersÃ¸gelse": 6348,
      "Ġ187": 6349,
      "zon": 6350,
      "ĠoffentliggÃ¸relse": 6351,
      "Ġbetydeligt": 6352,
      "ille": 6353,
      "skin": 6354,
      "zy": 6355,
      "Ġrsms": 6356,
      "atisk": 6357,
      "Ġreto": 6358,
      "vÃ¦rk": 6359,
      "ĠfornÃ¸dne": 6360,
      "opol": 6361,
      "Ġforan": 6362,
      "Ġsmot": 6363,
      "Ġgennemfoerelses": 6364,
      "Ġrqrr": 6365,
      "ĠstÃ¸tteb": 6366,
      "Ġqrre": 6367,
      "Ġ215": 6368,
      "Ġnationalitet": 6369,
      "Ġtilbagekal": 6370,
      "Ġmagt": 6371,
      "Ġopn": 6372,
      "Ġsamtykke": 6373,
      "fer": 6374,
      "oun": 6375,
      "Ġappellanterne": 6376,
      "Ġfritag": 6377,
      "Ġuforenelig": 6378,
      "Ġudenlandske": 6379,
      "smin": 6380,
      "Ġsystemer": 6381,
      "Ġvedroerer": 6382,
      "Ġholding": 6383,
      "ĠdernÃ¦st": 6384,
      "Ġkorte": 6385,
      "Ġhor": 6386,
      "Ġfrivil": 6387,
      "ygtighed": 6388,
      "hs": 6389,
      "stjenester": 6390,
      "dagen": 6391,
      "Ġ226": 6392,
      "Ġvedtog": 6393,
      "Ġvarm": 6394,
      "Ġordregivende": 6395,
      "Ġbetegnelsen": 6396,
      "Ġcu": 6397,
      "ĠlÃ¦ngde": 6398,
      "Ġrealiteten": 6399,
      "Ġpersonoplysninger": 6400,
      "Ġtob": 6401,
      "Ġfremsatte": 6402,
      "Ġanfaegtede": 6403,
      "Ġplc": 6404,
      "Ġparts": 6405,
      "Ġopgave": 6406,
      "evet": 6407,
      "iseret": 6408,
      "Ġeti": 6409,
      "iler": 6410,
      "Ġkalender": 6411,
      "Ġspecifikt": 6412,
      "ĠÃ¸l": 6413,
      "saettes": 6414,
      "ĠspÃ¸rges": 6415,
      "sberettigede": 6416,
      "punkt": 6417,
      "skoeffici": 6418,
      "Ġpatent": 6419,
      "Ġgminy": 6420,
      "fordrej": 6421,
      "ĠfÃ¦r": 6422,
      "Ġpin": 6423,
      "ĠlÃ¦gemiddel": 6424,
      "Ġspor": 6425,
      "Ġimporttold": 6426,
      "Ġeconom": 6427,
      "ĠnÃ¸g": 6428,
      "udvalg": 6429,
      "Ġmail": 6430,
      "Ġtilstede": 6431,
      "amid": 6432,
      "ĠbekrÃ¦ftet": 6433,
      "udover": 6434,
      "Ġfremgangsmade": 6435,
      "Ġanalys": 6436,
      "Ġsko": 6437,
      "Ġgenoptagelse": 6438,
      "Ġverserer": 6439,
      "ordring": 6440,
      "Ġalmen": 6441,
      "Ġrestitutions": 6442,
      "hov": 6443,
      "Ġtemperatur": 6444,
      "lav": 6445,
      "Ġsepar": 6446,
      "progra": 6447,
      "Ġbrudris": 6448,
      "Ġforveksling": 6449,
      "Ġfaldt": 6450,
      "Ġhyb": 6451,
      "ĠvÃ¦g": 6452,
      "Ġpy": 6453,
      "produkt": 6454,
      "Ġ239": 6455,
      "Ġbedre": 6456,
      "ĠÎºÎ±": 6457,
      "haeng": 6458,
      "Ġforsyning": 6459,
      "egrÃ¦nsende": 6460,
      "Ġindleveret": 6461,
      "Ġvidereg": 6462,
      "ydelse": 6463,
      "oebet": 6464,
      "sanlÃ¦g": 6465,
      "Ġopdeling": 6466,
      "Ġovert": 6467,
      "Ġmsc": 6468,
      "Ġ253": 6469,
      "Ġmi": 6470,
      "proceduren": 6471,
      "Ġforbrugeren": 6472,
      "Ġtrafik": 6473,
      "ktiviteter": 6474,
      "rende": 6475,
      "Ġ1049": 6476,
      "afdeling": 6477,
      "ÏĦÎ±": 6478,
      "ester": 6479,
      "ansk": 6480,
      "Ġmig": 6481,
      "ĠfÃ¸der": 6482,
      "Ġeksper": 6483,
      "ible": 6484,
      "Ġblanding": 6485,
      "Ġudfoers": 6486,
      "Ġpaastand": 6487,
      "Ġsagsoegerens": 6488,
      "Ġspaniens": 6489,
      "sordninger": 6490,
      "Ġnew": 6491,
      "Ġmr": 6492,
      "Ġhelst": 6493,
      "Ġumu": 6494,
      "Ġfastsaettelse": 6495,
      "ĠefterprÃ¸ve": 6496,
      "serv": 6497,
      "Ġkonkluderede": 6498,
      "serne": 6499,
      "Ġudenrig": 6500,
      "rus": 6501,
      "Ġgennemsig": 6502,
      "dannelse": 6503,
      "Ġpaab": 6504,
      "ledende": 6505,
      "Ġpowi": 6506,
      "Ġbredde": 6507,
      "Ġbund": 6508,
      "Ġgodkendes": 6509,
      "Ġtilslagsm": 6510,
      "affald": 6511,
      "Ġmedicin": 6512,
      "Ġdumpingmargen": 6513,
      "Ġ2694": 6514,
      "Ġelektrisk": 6515,
      "aerer": 6516,
      "Ġstart": 6517,
      "ament": 6518,
      "Ġkompetent": 6519,
      "Ġlejlighed": 6520,
      "Ġmeddele": 6521,
      "Ġkoden": 6522,
      "Ġuforhold": 6523,
      "Ġalmindeligt": 6524,
      "Ġaktu": 6525,
      "blic": 6526,
      "kn": 6527,
      "ĠforretningsmÃ¦ssigt": 6528,
      "slovens": 6529,
      "Ġdumpingimport": 6530,
      "spulver": 6531,
      "Ġuniver": 6532,
      "pr": 6533,
      "Ġinternet": 6534,
      "ĠoffentliggÃ¸res": 6535,
      "Ġmasse": 6536,
      "Ġskatteministeriet": 6537,
      "Ġproduktionsaret": 6538,
      "leje": 6539,
      "Ġpakninger": 6540,
      "Ġforbrugerne": 6541,
      "Ġterritorier": 6542,
      "Ġvind": 6543,
      "liggende": 6544,
      "faring": 6545,
      "ham": 6546,
      "Ġretligt": 6547,
      "Ġradio": 6548,
      "Ġhet": 6549,
      "Ġáĥ": 6550,
      "Ġhydrox": 6551,
      "Ġberet": 6552,
      "Ġcap": 6553,
      "essige": 6554,
      "Ġbygger": 6555,
      "ekon": 6556,
      "kaldte": 6557,
      "Ġspecielt": 6558,
      "Ġsyvende": 6559,
      "Ġdella": 6560,
      "spension": 6561,
      "Ġbestanddele": 6562,
      "iss": 6563,
      "Ġkobber": 6564,
      "Ġiec": 6565,
      "Ġhvorpa": 6566,
      "ries": 6567,
      "ikal": 6568,
      "Ġmaal": 6569,
      "Ġfastlaeg": 6570,
      "Ġhandelen": 6571,
      "Ġmetoden": 6572,
      "Ġsigte": 6573,
      "Ġkoncentr": 6574,
      "Ġifrs": 6575,
      "ĠâĢ¢": 6576,
      "Ġsalte": 6577,
      "Ġloft": 6578,
      "agde": 6579,
      "Ġregistreres": 6580,
      "ect": 6581,
      "Ġinstitutionerne": 6582,
      "Ġkvalificeret": 6583,
      "Ġhum": 6584,
      "Ġretsvir": 6585,
      "Ġhed": 6586,
      "formal": 6587,
      "Ġube": 6588,
      "Ġindgav": 6589,
      "Ġvedtaeg": 6590,
      "Ġstigning": 6591,
      "lÃ¸b": 6592,
      "Ġtu": 6593,
      "Ġanbringendet": 6594,
      "Ġ0709": 6595,
      "Ġtoldsatser": 6596,
      "sub": 6597,
      "kle": 6598,
      "Ġkemiske": 6599,
      "anvende": 6600,
      "Ġvirkningerne": 6601,
      "Ġmeddeler": 6602,
      "Ġanti": 6603,
      "ida": 6604,
      "satsen": 6605,
      "arene": 6606,
      "ffin": 6607,
      "Ġmenneskerettig": 6608,
      "Ġdou": 6609,
      "ĠforelÃ¦ggelse": 6610,
      "Ġomkring": 6611,
      "Ġlandbrugs": 6612,
      "smateri": 6613,
      "Ã¦lpe": 6614,
      "Ġbulgarien": 6615,
      "Ġfinanz": 6616,
      "Ġtekstilmaterialer": 6617,
      "Ġfase": 6618,
      "ĠÃ¸ver": 6619,
      "fuld": 6620,
      "sad": 6621,
      "Ġtyk": 6622,
      "Ġchem": 6623,
      "Ġâī¤": 6624,
      "990": 6625,
      "ram": 6626,
      "Ġblom": 6627,
      "Ġnitro": 6628,
      "Ġhovedsagelig": 6629,
      "Ġstu": 6630,
      "Ġchlor": 6631,
      "oritet": 6632,
      "emaskiner": 6633,
      "hal": 6634,
      "Ġtion": 6635,
      "Ġunderrettet": 6636,
      "Ġdig": 6637,
      "sborger": 6638,
      "Ġomhandler": 6639,
      "dage": 6640,
      "Ġoevrige": 6641,
      "ĠmotorkÃ¸retÃ¸jer": 6642,
      "Ġflydende": 6643,
      "Ġfulde": 6644,
      "Ġnaermere": 6645,
      "Ġ319": 6646,
      "Ġufr": 6647,
      "Ġtelefon": 6648,
      "Ġspansk": 6649,
      "Ġvideres": 6650,
      "Ġegent": 6651,
      "gede": 6652,
      "Ġskats": 6653,
      "ĠforlÃ¦ngelse": 6654,
      "kÃ¸d": 6655,
      "Ġeffektivt": 6656,
      "Ġflertal": 6657,
      "Ġvoor": 6658,
      "overens": 6659,
      "edende": 6660,
      "lande": 6661,
      "ĠstÃ¸ttem": 6662,
      "Ġfart": 6663,
      "lek": 6664,
      "Ġ0808": 6665,
      "Ġsagsakter": 6666,
      "Ġleveret": 6667,
      "ĠforelÃ¸big": 6668,
      "mens": 6669,
      "Ġfore": 6670,
      "Ġindenlandske": 6671,
      "Ġforar": 6672,
      "ĠrumÃ¦nien": 6673,
      "Ġkund": 6674,
      "Ġ256": 6675,
      "sstand": 6676,
      "ble": 6677,
      "ĠgrÃ¦nseover": 6678,
      "ĠeuropÃ¦isk": 6679,
      "Ġstrateg": 6680,
      "Ġude": 6681,
      "Ġhest": 6682,
      "Ġein": 6683,
      "Ġmarokko": 6684,
      "ont": 6685,
      "umen": 6686,
      "Ġovertrae": 6687,
      "Ġliter": 6688,
      "Ġbenz": 6689,
      "Ġmeth": 6690,
      "Ġformelle": 6691,
      "Ġudstede": 6692,
      "Ġrapporten": 6693,
      "ĠbehÃ¸rigt": 6694,
      "lich": 6695,
      "Ġoprindelsesbetegn": 6696,
      "sef": 6697,
      "Ġtilberedt": 6698,
      "Ġaspekter": 6699,
      "Ġdeb": 6700,
      "Ġsamarbejdsvil": 6701,
      "handlinger": 6702,
      "Ġforskud": 6703,
      "Ġudelukkes": 6704,
      "try": 6705,
      "Ġtilbagevir": 6706,
      "Ġsummen": 6707,
      "Ġkonkurrencereg": 6708,
      "Ġgrundforordningen": 6709,
      "ĠgrÃ¦ske": 6710,
      "Ġanlagde": 6711,
      "Ġvegetabilske": 6712,
      "bÃ¦r": 6713,
      "Ġpraej": 6714,
      "Ġreduc": 6715,
      "ĠprÃ¦sident": 6716,
      "Ġ192": 6717,
      "Ġ261": 6718,
      "Ġbyr": 6719,
      "Ġdelegerede": 6720,
      "Ġmedlems": 6721,
      "Ġpil": 6722,
      "Ġjug": 6723,
      "Ġfunktioner": 6724,
      "Ġvariable": 6725,
      "eller": 6726,
      "ĠÏĥ": 6727,
      "Ġudlev": 6728,
      "Ġtoldkontingent": 6729,
      "uter": 6730,
      "ĠâĢ²": 6731,
      "Ġaltsa": 6732,
      "Ġrws": 6733,
      "Ġ414": 6734,
      "Ġundersk": 6735,
      "Ġindsigelsessag": 6736,
      "Ġ216": 6737,
      "Ġindledt": 6738,
      "ssystemer": 6739,
      "Ġpraejudici": 6740,
      "ian": 6741,
      "ĠfÃ¸rt": 6742,
      "Ġtonn": 6743,
      "Ġnorge": 6744,
      "Ġinstrument": 6745,
      "Ġudgangen": 6746,
      "gning": 6747,
      "bank": 6748,
      "ĠindtrÃ¦": 6749,
      "smaes": 6750,
      "Ġmateriel": 6751,
      "Ġlyd": 6752,
      "kser": 6753,
      "Ġfamilie": 6754,
      "Ġtilbagevirkende": 6755,
      "Ġ209": 6756,
      "Ġrepraesent": 6757,
      "Ġindgreb": 6758,
      "Ð¸Ñ": 6759,
      "Ġcanada": 6760,
      "Ġ206": 6761,
      "Ġproduktionsa": 6762,
      "Ġintellektuel": 6763,
      "Ġstemp": 6764,
      "ction": 6765,
      "Ġmodific": 6766,
      "Ġomtal": 6767,
      "Ġtvang": 6768,
      "Ġparall": 6769,
      "enummer": 6770,
      "Ġfarve": 6771,
      "ĠdirektÃ¸r": 6772,
      "kynd": 6773,
      "Î¹Îº": 6774,
      "Ġtransi": 6775,
      "Ġ630": 6776,
      "Ġamm": 6777,
      "ĠdÃ¸d": 6778,
      "Ġforskellig": 6779,
      "Ġ236": 6780,
      "Ġhvid": 6781,
      "Ġdiam": 6782,
      "Ġmislig": 6783,
      "ero": 6784,
      "Ġindd": 6785,
      "Ġ179": 6786,
      "Ġamin": 6787,
      "Ġ202": 6788,
      "Ġmodtog": 6789,
      "Ġkoncentration": 6790,
      "chlorid": 6791,
      "Ġopstar": 6792,
      "Ġejendommen": 6793,
      "vt": 6794,
      "Ġark": 6795,
      "Ġforholdsregler": 6796,
      "Ġsw": 6797,
      "Ġ350": 6798,
      "Ġlagde": 6799,
      "Ġkonsekvenser": 6800,
      "mÃ¦rke": 6801,
      "Ġnavnet": 6802,
      "Ġforker": 6803,
      "Ġrue": 6804,
      "ĠhÃ¸jde": 6805,
      "ningsgrundlag": 6806,
      "ĠtÃ¦r": 6807,
      "Ġ543": 6808,
      "br": 6809,
      "artede": 6810,
      "Ġcrr": 6811,
      "maer": 6812,
      "fÃ¸ring": 6813,
      "Ġander": 6814,
      "udvikling": 6815,
      "Ġald": 6816,
      "gives": 6817,
      "Ġubestridt": 6818,
      "Ġkomme": 6819,
      "Ġhvorledes": 6820,
      "Ã¦ngder": 6821,
      "fur": 6822,
      "ĠhÃ¸jesterets": 6823,
      "Ġkonto": 6824,
      "Ġdelegeret": 6825,
      "Ġudnyttelse": 6826,
      "ĠveterinÃ¦r": 6827,
      "safgifter": 6828,
      "Ġprogramm": 6829,
      "ĠpatÃ¦nkte": 6830,
      "Ġ640": 6831,
      "iste": 6832,
      "Ġbla": 6833,
      "Ġudsat": 6834,
      "Ġ211": 6835,
      "Ġerhvervelse": 6836,
      "Ġveks": 6837,
      "Î´": 6838,
      "Ġregional": 6839,
      "kul": 6840,
      "Ġekstraordin": 6841,
      "Ġoverholdelsen": 6842,
      "Ġsynspunkt": 6843,
      "Ġraekke": 6844,
      "ĠpakrÃ¦": 6845,
      "ĠudlÃ¦nding": 6846,
      "Ġavoc": 6847,
      "Ġcla": 6848,
      "Ġconta": 6849,
      "Ġ193": 6850,
      "mÃ¦ssig": 6851,
      "Ġsul": 6852,
      "Ġugyldighed": 6853,
      "ires": 6854,
      "Ġtrin": 6855,
      "Ġselskabs": 6856,
      "oert": 6857,
      "saett": 6858,
      "Ġ191": 6859,
      "sstillende": 6860,
      "situation": 6861,
      "ĠforudsÃ¦tning": 6862,
      "ĠkÃ¸l": 6863,
      "ez": 6864,
      "Ġhushold": 6865,
      "saftale": 6866,
      "oni": 6867,
      "Ġeffekt": 6868,
      "Ġsamordning": 6869,
      "ĠbegrÃ¦nses": 6870,
      "loes": 6871,
      "kommet": 6872,
      "sbef": 6873,
      "materiale": 6874,
      "Ġrisikov": 6875,
      "Ġ235": 6876,
      "Ġ188": 6877,
      "saftaler": 6878,
      "Ã¦tt": 6879,
      "koncent": 6880,
      "arti": 6881,
      "Ġforskrift": 6882,
      "Ġlofter": 6883,
      "Ġkryd": 6884,
      "Ġgensidig": 6885,
      "ĠbekÃ¦mp": 6886,
      "Ġderivater": 6887,
      "Ġkartellet": 6888,
      "Ġci": 6889,
      "Ġnatrium": 6890,
      "Ġ296": 6891,
      "Ġrevider": 6892,
      "Ġhvem": 6893,
      "Ġ260": 6894,
      "ktÃ¸j": 6895,
      "Ġemballer": 6896,
      "Ġ0401": 6897,
      "Ġskibe": 6898,
      "Ġudsk": 6899,
      "oplÃ¸": 6900,
      "Ġbegyndelsen": 6901,
      "Ġ1515": 6902,
      "Ġhandler": 6903,
      "tager": 6904,
      "Ġudlej": 6905,
      "Ġ185": 6906,
      "Î¿Î½": 6907,
      "cession": 6908,
      "aef": 6909,
      "Ġtariff": 6910,
      "Ġireland": 6911,
      "Ġspp": 6912,
      "ĠuafhÃ¦ngige": 6913,
      "Ġbedrag": 6914,
      "ylde": 6915,
      "Ġindgive": 6916,
      "Ġoverdragelse": 6917,
      "srapport": 6918,
      "Ġbydende": 6919,
      "Ġ1008": 6920,
      "ĠtilrettelÃ¦g": 6921,
      "Ġparis": 6922,
      "Ġdrikkevarer": 6923,
      "Ġ205": 6924,
      "Ġmid": 6925,
      "Ġofte": 6926,
      "Ġholdning": 6927,
      "Ġdeltaget": 6928,
      "Ġgyldig": 6929,
      "relser": 6930,
      "ĠfremlÃ¦ggelse": 6931,
      "sbehandling": 6932,
      "Ġraffin": 6933,
      "ancer": 6934,
      "Ġsakaldte": 6935,
      "Ġanerkendte": 6936,
      "Ġisol": 6937,
      "Ġtiltrae": 6938,
      "Ġlevere": 6939,
      "ĠopkrÃ¦vning": 6940,
      "Ġurette": 6941,
      "Ġansvaret": 6942,
      "Ġforpligter": 6943,
      "ĠÂ±": 6944,
      "Ġvoldgift": 6945,
      "Ġomfattende": 6946,
      "Ġliber": 6947,
      "ĠspÃ¸rgeske": 6948,
      "Ġkerne": 6949,
      "etz": 6950,
      "Ġsorter": 6951,
      "Ġsolgt": 6952,
      "Ġgemeinde": 6953,
      "Ġking": 6954,
      "Ġbarn": 6955,
      "Ġkonsul": 6956,
      "sammen": 6957,
      "Ġeksportrestitutionerne": 6958,
      "forsk": 6959,
      "Ġbevir": 6960,
      "Ġ212": 6961,
      "flu": 6962,
      "ĠomstÃ¦ndighederne": 6963,
      "ĠgÃ¦lde": 6964,
      "Ġproblemer": 6965,
      "smaal": 6966,
      "alisering": 6967,
      "ansen": 6968,
      "Ġbringes": 6969,
      "ĠvedtÃ¦gten": 6970,
      "ĠkvÃ¦g": 6971,
      "Ġjugos": 6972,
      "hn": 6973,
      "Ġudledes": 6974,
      "Ġcentralreger": 6975,
      "Ġkvartal": 6976,
      "Ġ208": 6977,
      "sin": 6978,
      "inding": 6979,
      "Ġafgiftspligtig": 6980,
      "Ġgeografisk": 6981,
      "Ġ240": 6982,
      "ĠrÃ¸d": 6983,
      "Ġ203": 6984,
      "rika": 6985,
      "ĠindfÃ¸relsen": 6986,
      "Ġfedtstoffer": 6987,
      "Ġadgangen": 6988,
      "Ġtrikotage": 6989,
      "ĠannullationssÃ¸gsmal": 6990,
      "ĠsÃ¸r": 6991,
      "Ġfritaget": 6992,
      "Ġsolid": 6993,
      "Ġforventes": 6994,
      "Ġudstyret": 6995,
      "ibr": 6996,
      "Ġlam": 6997,
      "Ġendeligt": 6998,
      "ĠÃ¦ndringen": 6999,
      "ĠfÃ¸dsels": 7000,
      "vurdering": 7001,
      "Ġdal": 7002,
      "Ġelektricitet": 7003,
      "amil": 7004,
      "Ġkonsult": 7005,
      "ĠstikprÃ¸ven": 7006,
      "Ġudbenet": 7007,
      "Ġcpc": 7008,
      "samling": 7009,
      "Ġ804": 7010,
      "Ġcyper": 7011,
      "Ġrestitutioner": 7012,
      "Ġmedarbejder": 7013,
      "Ġidentit": 7014,
      "Ġ228": 7015,
      "ute": 7016,
      "ww": 7017,
      "Ġ@": 7018,
      "olution": 7019,
      "Ġagre": 7020,
      "ela": 7021,
      "kreds": 7022,
      "aktion": 7023,
      "udn": 7024,
      "ichts": 7025,
      "destil": 7026,
      "Ġlufthavn": 7027,
      "Ġprof": 7028,
      "Ġ1785": 7029,
      "Ġfordringer": 7030,
      "Ġbesluttede": 7031,
      "ĠhÃ¸jt": 7032,
      "Ġerkla": 7033,
      "Ġvedligeholdelse": 7034,
      "Ġhtt": 7035,
      "Ġpan": 7036,
      "Ġproducenten": 7037,
      "akt": 7038,
      "Ġcompany": 7039,
      "ĠtilbehÃ¸r": 7040,
      "Ġkum": 7041,
      "yring": 7042,
      "veje": 7043,
      "Ġtotal": 7044,
      "Ġskattemyndighed": 7045,
      "frist": 7046,
      "Ġ2204": 7047,
      "Ġkarakteristika": 7048,
      "Ġangiveligt": 7049,
      "Ã¸rerne": 7050,
      "Ġafskib": 7051,
      "Ġomstrukturering": 7052,
      "aen": 7053,
      "Ġafled": 7054,
      "Ġudt": 7055,
      "Ġfaerdige": 7056,
      "Ġ221": 7057,
      "omer": 7058,
      "Ġslettes": 7059,
      "Ġcat": 7060,
      "Ġindskud": 7061,
      "sitet": 7062,
      "Ġxii": 7063,
      "fabrik": 7064,
      "Ġformel": 7065,
      "Ġbeslutnings": 7066,
      "Ġnederlandsk": 7067,
      "Ġfremstilles": 7068,
      "Ġkonsekvens": 7069,
      "Ġ213": 7070,
      "Ġcarb": 7071,
      "ĠuafhÃ¦ngigt": 7072,
      "person": 7073,
      "eretten": 7074,
      "ĠtilnÃ¦rm": 7075,
      "kerne": 7076,
      "Ġviste": 7077,
      "Ġpaberabte": 7078,
      "Ġkw": 7079,
      "Ġskrivelsen": 7080,
      "sgiver": 7081,
      "Ġinsol": 7082,
      "ĠkÃ¸retÃ¸jets": 7083,
      "Ġpavirker": 7084,
      "Ġdisponible": 7085,
      "Ġforhind": 7086,
      "Ġrussiske": 7087,
      "Ġindgik": 7088,
      "Ġtjekkiske": 7089,
      "artikler": 7090,
      "Ġimportlicenser": 7091,
      "Ġudviklings": 7092,
      "ienter": 7093,
      "Ġdomstole": 7094,
      "fritagelse": 7095,
      "bragt": 7096,
      "Ġkonsum": 7097,
      "asser": 7098,
      "Ġlovligheden": 7099,
      "Ġbistaet": 7100,
      "aftale": 7101,
      "Ġobjektivt": 7102,
      "Ġ222": 7103,
      "Ġuly": 7104,
      "hum": 7105,
      "priserne": 7106,
      "Ġhir": 7107,
      "Ġbekra": 7108,
      "Ġninger": 7109,
      "Ġulovligt": 7110,
      "kategor": 7111,
      "Ġforbl": 7112,
      "Ġretsgrundlag": 7113,
      "Ġhindre": 7114,
      "ĠpoÅĤ": 7115,
      "ĠkrÃ¦vede": 7116,
      "ĠvÃ¦rdipapirer": 7117,
      "Ġopbrug": 7118,
      "kv": 7119,
      "usul": 7120,
      "Ġundladt": 7121,
      "Ġagric": 7122,
      "Ġappelsagen": 7123,
      "emet": 7124,
      "ĠÃ¦gtefÃ¦l": 7125,
      "Ġudgave": 7126,
      "Ġtabellen": 7127,
      "Ġskatteyderen": 7128,
      "fund": 7129,
      "Ġskaber": 7130,
      "Ġugyldig": 7131,
      "Ġ183": 7132,
      "Ġprojektet": 7133,
      "Ġopp": 7134,
      "sic": 7135,
      "sein": 7136,
      "Ġsvig": 7137,
      "ynder": 7138,
      "itter": 7139,
      "Ġhvorunder": 7140,
      "spriserne": 7141,
      "ym": 7142,
      "Ġglob": 7143,
      "fald": 7144,
      "Ġdon": 7145,
      "Ġlaborator": 7146,
      "Ġ1602": 7147,
      "Ġforskning": 7148,
      "ĠnÃ¸gle": 7149,
      "Ġkultur": 7150,
      "Ġvalle": 7151,
      "Ġprincipielt": 7152,
      "ĠafgÃ¸relses": 7153,
      "peten": 7154,
      "lÃ¸se": 7155,
      "Ġthail": 7156,
      "Ġovertrukket": 7157,
      "Ġ194": 7158,
      "pi": 7159,
      "miske": 7160,
      "leder": 7161,
      "Ġafholde": 7162,
      "carbon": 7163,
      "Ġforarbejdnings": 7164,
      "Ġtilladte": 7165,
      "Ġku": 7166,
      "ile": 7167,
      "Ġvoks": 7168,
      "Ġarbejdskraft": 7169,
      "Ġdetailsalg": 7170,
      "Ġafviste": 7171,
      "Ġmedlemsstaters": 7172,
      "ares": 7173,
      "ĠovertrÃ¦delsens": 7174,
      "ĠtilhÃ¸rer": 7175,
      "Ġ232": 7176,
      "ĠnÃ¦st": 7177,
      "Ġinvalid": 7178,
      "prop": 7179,
      "ĠopmÃ¦rksom": 7180,
      "medlem": 7181,
      "Ġindrej": 7182,
      "Ġalkoholindhold": 7183,
      "Ġuld": 7184,
      "Ġmedarbej": 7185,
      "Ġukraine": 7186,
      "ax": 7187,
      "ĠanlÃ¦gsvirksomhed": 7188,
      "Ġamoun": 7189,
      "knings": 7190,
      "Ġfremtidige": 7191,
      "Ġtermin": 7192,
      "virksomheder": 7193,
      "Ġcivile": 7194,
      "ĠbekrÃ¦ftes": 7195,
      "Ġplantebeskyttelses": 7196,
      "Ġ295": 7197,
      "Ġindgangsprisen": 7198,
      "ĠafhÃ¦nger": 7199,
      "Ġtak": 7200,
      "Ġsektoren": 7201,
      "Ġtilslu": 7202,
      "Ġfonden": 7203,
      "Ġparters": 7204,
      "Ġfabrikanten": 7205,
      "Ġjean": 7206,
      "Ġ249": 7207,
      "Ġvigtigt": 7208,
      "020": 7209,
      "ydende": 7210,
      "Ġstate": 7211,
      "cet": 7212,
      "Ġweb": 7213,
      "Ġbegunstig": 7214,
      "Ã¦ftet": 7215,
      "Ġdim": 7216,
      "Ġjugoslav": 7217,
      "skridende": 7218,
      "Ġfremgik": 7219,
      "uay": 7220,
      "Ġspoergsmaalet": 7221,
      "ase": 7222,
      "hm": 7223,
      "sstoffer": 7224,
      "Ġdiskrimin": 7225,
      "enti": 7226,
      "Ġleveringen": 7227,
      "cu": 7228,
      "Ġkvalitets": 7229,
      "Ġ302": 7230,
      "Ġtechn": 7231,
      "ĠtidsbegrÃ¦n": 7232,
      "Ġkemof": 7233,
      "Ġsteg": 7234,
      "Ġnaevnt": 7235,
      "Ġkvalifik": 7236,
      "ĠudfÃ¸rer": 7237,
      "ĠskÃ¦r": 7238,
      "Ġfisch": 7239,
      "Ġvirksomheders": 7240,
      "Ġudvidelse": 7241,
      "vises": 7242,
      "Ġudstedelsen": 7243,
      "Ġkoncernen": 7244,
      "ĠkÃ¸n": 7245,
      "sio": 7246,
      "Ġanbringendes": 7247,
      "delt": 7248,
      "ĠbedÃ¸mmelsen": 7249,
      "Ġkab": 7250,
      "Ġregistrerede": 7251,
      "ĠluftfartÃ¸jer": 7252,
      "Ġoevrigt": 7253,
      "Ġ186": 7254,
      "Ġ410": 7255,
      "Ġing": 7256,
      "ĠtilfÃ¸jes": 7257,
      "Ġforbedre": 7258,
      "Ġaldrig": 7259,
      "Ġxi": 7260,
      "Ġthailand": 7261,
      "ĠerhvervsmÃ¦ssig": 7262,
      "Ġbran": 7263,
      "gÃ¸relses": 7264,
      "direktivets": 7265,
      "Ġsend": 7266,
      "Ġvor": 7267,
      "Ġitalia": 7268,
      "ĠkonkurrencebegrÃ¦nsende": 7269,
      "Ġformular": 7270,
      "ary": 7271,
      "andtes": 7272,
      "Ġbeskaef": 7273,
      "Ġ231": 7274,
      "Ġ2138": 7275,
      "behold": 7276,
      "Ġnik": 7277,
      "certifik": 7278,
      "nn": 7279,
      "ĠfÃ¦rdig": 7280,
      "ĠbemÃ¦rkede": 7281,
      "Ġbena": 7282,
      "skontrakter": 7283,
      "Ġou": 7284,
      "Ġforelagte": 7285,
      "Ġsleben": 7286,
      "staten": 7287,
      "Ġ195": 7288,
      "Ġcentralregeringer": 7289,
      "Ġforeskriver": 7290,
      "Ġ258": 7291,
      "oz": 7292,
      "Ġkak": 7293,
      "evirksomhed": 7294,
      "Ġformuler": 7295,
      "Ġannex": 7296,
      "Ġ255": 7297,
      "Ġensartede": 7298,
      "Ġbetingelsen": 7299,
      "Ġmaaneder": 7300,
      "Ġkontrolleres": 7301,
      "ĠmÃ¦rkning": 7302,
      "speci": 7303,
      "Ġbestod": 7304,
      "regi": 7305,
      "Ġpaalaeg": 7306,
      "Ġneu": 7307,
      "ĠanfÃ¦gtet": 7308,
      "ĠoversÃ¸": 7309,
      "Ġhavne": 7310,
      "Ġudvidede": 7311,
      "Ġanalogt": 7312,
      "dam": 7313,
      "sÃ¸konom": 7314,
      "Ġreel": 7315,
      "Ġannuller": 7316,
      "Ġmuligheder": 7317,
      "Ġoverflade": 7318,
      "Ġtilfredsstillende": 7319,
      "Ġkapac": 7320,
      "Ġhonor": 7321,
      "ĠtilstedevÃ¦r": 7322,
      "Ġcod": 7323,
      "godtgÃ¸relse": 7324,
      "Ġmilit": 7325,
      "Ġnul": 7326,
      "Ġaust": 7327,
      "lads": 7328,
      "Ġ280": 7329,
      "Ġtoer": 7330,
      "Ġ1966": 7331,
      "Ġpartner": 7332,
      "retning": 7333,
      "sbek": 7334,
      "ĠanfÃ¸rer": 7335,
      "Ġlangt": 7336,
      "con": 7337,
      "Ġoperationelle": 7338,
      "ĠselvstÃ¦ndige": 7339,
      "Ġbesvare": 7340,
      "orghum": 7341,
      "sselskaber": 7342,
      "Ġbedo": 7343,
      "Ġhom": 7344,
      "Ġiran": 7345,
      "ĠforelÃ¦ggelses": 7346,
      "Ġfischler": 7347,
      "Ġ335": 7348,
      "ĠstadfÃ¦st": 7349,
      "Ġopbyg": 7350,
      "sstrid": 7351,
      "Ġforbedring": 7352,
      "Ġrepu": 7353,
      "fort": 7354,
      "Ġ233": 7355,
      "sul": 7356,
      "Ġafsende": 7357,
      "Ġinitiativ": 7358,
      "nl": 7359,
      "ĠindrÃ¸mmes": 7360,
      "Ġmale": 7361,
      "ĠreprÃ¦sentanter": 7362,
      "Ġdestillation": 7363,
      "Ġtykkelse": 7364,
      "Ġpkt": 7365,
      "dsef": 7366,
      "aar": 7367,
      "Ġtillagt": 7368,
      "syn": 7369,
      "Ġlevnedsmidler": 7370,
      "Ġfilm": 7371,
      "Ġ1766": 7372,
      "Ġ247": 7373,
      "Ġsikkerheden": 7374,
      "Ġaret": 7375,
      "Ġpour": 7376,
      "Ġfinans": 7377,
      "Ġartikels": 7378,
      "ĠbekendtgÃ¸relse": 7379,
      "dsefugle": 7380,
      "ĠoversÃ¸iske": 7381,
      "Ġll": 7382,
      "Ġprincipperne": 7383,
      "ogne": 7384,
      "Ã¦dningsgenstande": 7385,
      "Ġkoefficient": 7386,
      "Ġcourt": 7387,
      "Ġtur": 7388,
      "Ġ225": 7389,
      "Ġbegik": 7390,
      "Ġvejledning": 7391,
      "Ã¦kvival": 7392,
      "Î¹Ïĥ": 7393,
      "Ġfandtes": 7394,
      "Ġbrugen": 7395,
      "Ġhenviste": 7396,
      "Ġdisses": 7397,
      "Ġspecifikationer": 7398,
      "sbeloeb": 7399,
      "Ġindonesien": 7400,
      "Ġfremstillede": 7401,
      "chts": 7402,
      "Ġmultil": 7403,
      "Ġintervenient": 7404,
      "Ġstatens": 7405,
      "ĠÂ·": 7406,
      "gn": 7407,
      "Ġcorpor": 7408,
      "Ġarbejdsgiveren": 7409,
      "Ġkemofibre": 7410,
      "Ġregioner": 7411,
      "Ġkonkurrenter": 7412,
      "Ġmv": 7413,
      "Ġsmag": 7414,
      "Ġagg": 7415,
      "Ġudstedte": 7416,
      "Ġundertegnet": 7417,
      "Ġintegreret": 7418,
      "Ġanmoder": 7419,
      "Ġpabeg": 7420,
      "Ġforenk": 7421,
      "Ġkro": 7422,
      "ĠstÃ¸ttes": 7423,
      "Ġrusland": 7424,
      "Ġ347": 7425,
      "Ġaktive": 7426,
      "kat": 7427,
      "azol": 7428,
      "ĠbegrÃ¦nser": 7429,
      "ĠfastlÃ¦ggelsen": 7430,
      "Ġaccept": 7431,
      "pol": 7432,
      "hi": 7433,
      "Ġprogrammet": 7434,
      "Ġhas": 7435,
      "Ġbestemme": 7436,
      "ĠprÃ¦st": 7437,
      "ssk": 7438,
      "atiske": 7439,
      "Ġskattean": 7440,
      "Ġfungerer": 7441,
      "ĠoplÃ¸sning": 7442,
      "spa": 7443,
      "Ġbruges": 7444,
      "ĠgrÃ¦nseoverskridende": 7445,
      "Ġforeskrevne": 7446,
      "Ġwil": 7447,
      "Ġchar": 7448,
      "ĠfÃ¦rdige": 7449,
      "ĠlÃ¦nge": 7450,
      "Ġtjen": 7451,
      "saktioner": 7452,
      "Ġbrugere": 7453,
      "Ġgal": 7454,
      "Ġlimited": 7455,
      "Ġ0001": 7456,
      "Ġ510": 7457,
      "ues": 7458,
      "Ã¦gelser": 7459,
      "Ġkonventionens": 7460,
      "Ġ318": 7461,
      "Ġdrifts": 7462,
      "Ġtilberedte": 7463,
      "Ġvedtager": 7464,
      "uta": 7465,
      "Ġaske": 7466,
      "ĠundersÃ¸gt": 7467,
      "cien": 7468,
      "rundlag": 7469,
      "Ġinvestor": 7470,
      "gy": 7471,
      "Ġintervenienten": 7472,
      "forbin": 7473,
      "Ġforklaring": 7474,
      "Ġ213800": 7475,
      "ĠansÃ¸gere": 7476,
      "Ġarrang": 7477,
      "Ġprocessu": 7478,
      "Ġrepar": 7479,
      "Ġdetaljerede": 7480,
      "evil": 7481,
      "gaaende": 7482,
      "ral": 7483,
      "forpligt": 7484,
      "Ġcommunity": 7485,
      "Ġassociering": 7486,
      "Ġtolden": 7487,
      "Ġnaervaerende": 7488,
      "Ġ282": 7489,
      "smetode": 7490,
      "Ġudny": 7491,
      "Ġhovedsagens": 7492,
      "Ġgennemfoerelse": 7493,
      "Ġtekstilvarer": 7494,
      "forsy": 7495,
      "sÃ¦ttelser": 7496,
      "Ã¦ttelser": 7497,
      "Ġanerkendes": 7498,
      "Ġloen": 7499,
      "ĠstÃ¦vning": 7500,
      "Ġober": 7501,
      "Ã¦ld": 7502,
      "spil": 7503,
      "Ġ052": 7504,
      "beskat": 7505,
      "dekret": 7506,
      "Ġtilbagel": 7507,
      "iliteter": 7508,
      "ĠbekrÃ¦fter": 7509,
      "Ġbetegnelser": 7510,
      "Ġretsorden": 7511,
      "ĠdÃ¦kker": 7512,
      "Ġ223": 7513,
      "ĠprÃ¦ciseret": 7514,
      "Ġ343": 7515,
      "Ġ251": 7516,
      "Ġ217": 7517,
      "standen": 7518,
      "Ġlys": 7519,
      "Ġbevisbyr": 7520,
      "smarkedet": 7521,
      "Ġbeholdere": 7522,
      "Ġomsaetning": 7523,
      "Ġbetalingen": 7524,
      "somkostningerne": 7525,
      "Ġ1969": 7526,
      "agn": 7527,
      "Ġoffentliggoerelsen": 7528,
      "Ġtraditionelle": 7529,
      "aftaler": 7530,
      "ĠforudsÃ¦tter": 7531,
      "skift": 7532,
      "Ġvista": 7533,
      "rav": 7534,
      "Ġudsteder": 7535,
      "eraab": 7536,
      "Ġordet": 7537,
      "Ġomstaendighed": 7538,
      "Ġpaaberaab": 7539,
      "Ġfordrej": 7540,
      "olider": 7541,
      "Ġfe": 7542,
      "tidigt": 7543,
      "Ġlid": 7544,
      "Ġhavre": 7545,
      "Ġapplic": 7546,
      "ellul": 7547,
      "Ġbfr": 7548,
      "utter": 7549,
      "havet": 7550,
      "Ġlovens": 7551,
      "Ġkingdom": 7552,
      "Ġukendt": 7553,
      "Ġfrom": 7554,
      "Ġfjerns": 7555,
      "Ġoverholder": 7556,
      "Ġtyp": 7557,
      "istor": 7558,
      "Ġerhvervs": 7559,
      "Ġghs": 7560,
      "Ġgenforsikring": 7561,
      "Ġpolitiske": 7562,
      "ĠvÃ¦rt": 7563,
      "Ġtjenestemands": 7564,
      "Ġnv": 7565,
      "ĠtilnÃ¦rmelse": 7566,
      "rÃ¦nsevÃ¦rdi": 7567,
      "030": 7568,
      "Ġcyk": 7569,
      "ĠansÃ¸gt": 7570,
      "Ġafslutningen": 7571,
      "Ġbob": 7572,
      "Ġnordir": 7573,
      "Ġarticle": 7574,
      "Ġskriv": 7575,
      "Ġtilsigter": 7576,
      "Ġregnskabsar": 7577,
      "kst": 7578,
      "oerte": 7579,
      "Ġudtalte": 7580,
      "ĠmÃ¦ngden": 7581,
      "Ġkapitalgrundlag": 7582,
      "Ġunderskud": 7583,
      "Ġafhj": 7584,
      "Ġaps": 7585,
      "engde": 7586,
      "Ġmedlemmerne": 7587,
      "Ġfremstillingen": 7588,
      "smand": 7589,
      "Ġesp": 7590,
      "Ġfamiliemedlemmer": 7591,
      "Ġanklag": 7592,
      "cao": 7593,
      "Ġrestriktion": 7594,
      "Ġflyg": 7595,
      "Ġ9100": 7596,
      "Ġforkert": 7597,
      "Ġrab": 7598,
      "rive": 7599,
      "Ã¸dning": 7600,
      "Ġluftfarts": 7601,
      "Ġsoeg": 7602,
      "affe": 7603,
      "Ġbei": 7604,
      "sbes": 7605,
      "ĠÃ¸verste": 7606,
      "Ġfrigiv": 7607,
      "Ġinspektion": 7608,
      "igh": 7609,
      "Ġnoteringer": 7610,
      "zen": 7611,
      "Ġtfs": 7612,
      "Ġkorrig": 7613,
      "sbevis": 7614,
      "Ġ288": 7615,
      "Ġoptaget": 7616,
      "ĠhÃ¸je": 7617,
      "Ġtjenestemaend": 7618,
      "Ġbestemmelsessted": 7619,
      "atter": 7620,
      "spraksis": 7621,
      "Ġtransmission": 7622,
      "Ġgennemfoerelsesbestemmelser": 7623,
      "shed": 7624,
      "Ġbragt": 7625,
      "Ġindh": 7626,
      "Ġfnllesskab": 7627,
      "Ġkreditor": 7628,
      "oldt": 7629,
      "Ġtredjelandsstat": 7630,
      "lod": 7631,
      "Ġenige": 7632,
      "Ġhurtigt": 7633,
      "Ġmodtagelsen": 7634,
      "Ġbidrage": 7635,
      "Ġpositive": 7636,
      "Ġalias": 7637,
      "sdato": 7638,
      "Ġsammenfat": 7639,
      "saettelses": 7640,
      "Ġ268": 7641,
      "Ġhurtig": 7642,
      "Ġother": 7643,
      "ĠsÃ¦ttes": 7644,
      "ĠfÃ¸rte": 7645,
      "Ġspecificeret": 7646,
      "ated": 7647,
      "Ġurug": 7648,
      "Ġpast": 7649,
      "ĠhÃ¸rer": 7650,
      "Ġtabt": 7651,
      "ĠtÃ¸rrede": 7652,
      "fordrejning": 7653,
      "agtt": 7654,
      "Ġretsstrid": 7655,
      "Ġviden": 7656,
      "Ġregerings": 7657,
      "Ġmineral": 7658,
      "Ġfusp": 7659,
      "Ġumuligt": 7660,
      "ink": 7661,
      "ordnede": 7662,
      "iw": 7663,
      "ĠsÃ¦lger": 7664,
      "Ã¦ver": 7665,
      "Ġib": 7666,
      "Ã¦ve": 7667,
      "frÃ¸": 7668,
      "Ġkender": 7669,
      "sas": 7670,
      "Ġsnar": 7671,
      "Ġspred": 7672,
      "Ġpositiv": 7673,
      "okumenter": 7674,
      "styrelsen": 7675,
      "oere": 7676,
      "Ġbrugte": 7677,
      "Ġ271": 7678,
      "ssystemet": 7679,
      "Ġeffektivitet": 7680,
      "chet": 7681,
      "ĠhidrÃ¸rer": 7682,
      "dene": 7683,
      "ftt": 7684,
      "Ġskades": 7685,
      "Ġvild": 7686,
      "Ġkemikal": 7687,
      "Ġges": 7688,
      "Ġlandes": 7689,
      "Ġ245": 7690,
      "Ġunderrette": 7691,
      "ĠvÃ¦lge": 7692,
      "Ġuruguay": 7693,
      "aere": 7694,
      "Ġstatslige": 7695,
      "Ġstyrke": 7696,
      "Ã¸jelse": 7697,
      "Ġskader": 7698,
      "Ġetiket": 7699,
      "Ġfaellesskabsretten": 7700,
      "Ġmaaned": 7701,
      "ima": 7702,
      "Ġskatteforvaltning": 7703,
      "Ġsikkerhedsstillelse": 7704,
      "Ġindbet": 7705,
      "Ġadministrativt": 7706,
      "ĠdÃ¦kning": 7707,
      "icium": 7708,
      "Ġvilde": 7709,
      "fuhr": 7710,
      "spÃ¸rg": 7711,
      "ykker": 7712,
      "ĠudsÃ¦d": 7713,
      "Ġsekund": 7714,
      "ĠpakrÃ¦vet": 7715,
      "Ġker": 7716,
      "Ġreglen": 7717,
      "Ġ252": 7718,
      "Ġindgaende": 7719,
      "Ġydre": 7720,
      "Ġimod": 7721,
      "ledninger": 7722,
      "Ġstiller": 7723,
      "Ġkoder": 7724,
      "Ġ2645": 7725,
      "ĠbÃ¦re": 7726,
      "ejl": 7727,
      "ĠmÃ¦nd": 7728,
      "Ġerfaring": 7729,
      "Ġforbyder": 7730,
      "Ġsloven": 7731,
      "ĠanlÃ¦gge": 7732,
      "koncentration": 7733,
      "Ġogud": 7734,
      "Ġindstil": 7735,
      "Ġuger": 7736,
      "yz": 7737,
      "Ġdifferenti": 7738,
      "Ġdruer": 7739,
      "ÏīÎ½": 7740,
      "Ġtoldkontingenter": 7741,
      "Ġ259": 7742,
      "smedlemsstaten": 7743,
      "Ġtariferet": 7744,
      "Ġ229": 7745,
      "ĠbehÃ¦ftet": 7746,
      "Ġakter": 7747,
      "Ġrepubliks": 7748,
      "Ġsvenske": 7749,
      "Ġbananer": 7750,
      "Ñĥ": 7751,
      "Ġwww": 7752,
      "ĠbrÃ¦ndt": 7753,
      "sgev": 7754,
      "Ġtjenesteydelse": 7755,
      "Ġua": 7756,
      "Ġtilslagsmodtageren": 7757,
      "Ġlire": 7758,
      "ĠnÃ¦sten": 7759,
      "Ġoprindeligt": 7760,
      "Ġorg": 7761,
      "ĠerklÃ¦ringer": 7762,
      "fundet": 7763,
      "kk": 7764,
      "oglu": 7765,
      "Ġundersoegelse": 7766,
      "delig": 7767,
      "sforpligt": 7768,
      "Ġdkr": 7769,
      "ĠbekÃ¦mpelse": 7770,
      "Ġafholdes": 7771,
      "ock": 7772,
      "hert": 7773,
      "Ġdriver": 7774,
      "Ġ297": 7775,
      "steds": 7776,
      "Ġwto": 7777,
      "Ġnon": 7778,
      "Ã¸mmende": 7779,
      "Ġbeskyttelsesforanstaltninger": 7780,
      "Ġtex": 7781,
      "Ġkyst": 7782,
      "Ġfuldbyrdelse": 7783,
      "Ġgoere": 7784,
      "sdomstol": 7785,
      "ĠlÃ¸sning": 7786,
      "zz": 7787,
      "fjer": 7788,
      "Ġ238": 7789,
      "Ġkoncentreret": 7790,
      "aede": 7791,
      "adi": 7792,
      "Ġpotentielle": 7793,
      "Ġ450": 7794,
      "elet": 7795,
      "sbeg": 7796,
      "Ġhastighed": 7797,
      "ota": 7798,
      "Ġsociet": 7799,
      "Ġopbrugt": 7800,
      "Ġfastslar": 7801,
      "Ġkost": 7802,
      "Ġosv": 7803,
      "evede": 7804,
      "behand": 7805,
      "Ġabsolut": 7806,
      "ĠskummetmÃ¦lk": 7807,
      "cha": 7808,
      "omet": 7809,
      "Ġtelekom": 7810,
      "fond": 7811,
      "Ġmad": 7812,
      "Ġsign": 7813,
      "Ġforbruget": 7814,
      "hanol": 7815,
      "Ġimporterede": 7816,
      "Ġdrej": 7817,
      "omraade": 7818,
      "Ġ028": 7819,
      "waltungs": 7820,
      "Ġ275": 7821,
      "Ġsagkynd": 7822,
      "Ġmedregnes": 7823,
      "ĠhenfÃ¸res": 7824,
      "Ġcharter": 7825,
      "ĠbegrÃ¦nsede": 7826,
      "Ġque": 7827,
      "Ġ396": 7828,
      "ini": 7829,
      "Ġforber": 7830,
      "Ġkendt": 7831,
      "rot": 7832,
      "esi": 7833,
      "foranstaltning": 7834,
      "ĠfÃ¸dselsdato": 7835,
      "Ġresolution": 7836,
      "Ġstorb": 7837,
      "Ġ219": 7838,
      "Ġafsla": 7839,
      "isme": 7840,
      "Ġforeskrevet": 7841,
      "Ġorienter": 7842,
      "ial": 7843,
      "ionen": 7844,
      "Ġshall": 7845,
      "former": 7846,
      "Ġmedvir": 7847,
      "ods": 7848,
      "Ġindgaaet": 7849,
      "Ġ331": 7850,
      "Ġudtaler": 7851,
      "Ġafgang": 7852,
      "ĠudsÃ¦tte": 7853,
      "Ġeug": 7854,
      "ciplin": 7855,
      "uligheder": 7856,
      "Ġrejser": 7857,
      "rage": 7858,
      "Ġformodning": 7859,
      "Ġfortrolige": 7860,
      "ĠkÃ¸": 7861,
      "Ġkris": 7862,
      "Ġant": 7863,
      "Ġligebehandlingsprincippet": 7864,
      "ents": 7865,
      "Ġresterende": 7866,
      "Ġkonsolider": 7867,
      "skar": 7868,
      "ĠefterspÃ¸rg": 7869,
      "ecer": 7870,
      "gruppe": 7871,
      "Ġ1806": 7872,
      "Ġ262": 7873,
      "Ġoppeb": 7874,
      "Ġgre": 7875,
      "Ġarab": 7876,
      "Ġdiver": 7877,
      "Ġ254": 7878,
      "Ġvariabel": 7879,
      "Ġ940": 7880,
      "vÃ¦": 7881,
      "Ġmaatte": 7882,
      "Ġ264": 7883,
      "Ġlandbrugspolitik": 7884,
      "Ġforarsag": 7885,
      "Ġars": 7886,
      "Ġ269": 7887,
      "ĠfremlÃ¦gges": 7888,
      "Ġgoder": 7889,
      "Ġspir": 7890,
      "ĠfremfÃ¸rte": 7891,
      "Ġcam": 7892,
      "forslag": 7893,
      "Ġudvael": 7894,
      "Î¸": 7895,
      "Ġ290": 7896,
      "delsesakt": 7897,
      "Ġ214": 7898,
      "isteren": 7899,
      "ĠoverfÃ¸res": 7900,
      "Ġdenatur": 7901,
      "forbrug": 7902,
      "Ġkontin": 7903,
      "Ġkonver": 7904,
      "Ġklo": 7905,
      "igede": 7906,
      "Ġsorghum": 7907,
      "Ġstato": 7908,
      "Ġantidumpingforanstaltninger": 7909,
      "Ġappellantens": 7910,
      "Ġ218": 7911,
      "Ġ1005": 7912,
      "Ġfjerne": 7913,
      "ĠprimÃ¦r": 7914,
      "Ġ243": 7915,
      "Ġ305": 7916,
      "Ġstede": 7917,
      "Ġmultilaterale": 7918,
      "Ġsele": 7919,
      "evning": 7920,
      "Ġshar": 7921,
      "vÃ¦rd": 7922,
      "Ġ847": 7923,
      "Ġregistreringsh": 7924,
      "Ġstrafferet": 7925,
      "Ġretsinstans": 7926,
      "eu": 7927,
      "ines": 7928,
      "Ġ303": 7929,
      "Ġcertifikater": 7930,
      "Ġholde": 7931,
      "ĠbemÃ¦rket": 7932,
      "Ġsektorer": 7933,
      "Ġafgive": 7934,
      "Ġmening": 7935,
      "fektion": 7936,
      "Ġperman": 7937,
      "Ġverserende": 7938,
      "Ġtand": 7939,
      "brugere": 7940,
      "Ġoverenskomsten": 7941,
      "ppe": 7942,
      "lex": 7943,
      "Ġwor": 7944,
      "Ġerhvervsud": 7945,
      "Ġindfoert": 7946,
      "Ġraps": 7947,
      "ledningen": 7948,
      "ĠopfÃ¸relse": 7949,
      "ĠsÃ¦lges": 7950,
      "result": 7951,
      "Ġemballag": 7952,
      "klÃ¦ring": 7953,
      "Ġtelex": 7954,
      "Ġsammenslutning": 7955,
      "onium": 7956,
      "illa": 7957,
      "Ġskema": 7958,
      "ftelse": 7959,
      "mace": 7960,
      "tigheden": 7961,
      "Ġfugle": 7962,
      "ĠstÃ¦r": 7963,
      "Ġamounts": 7964,
      "isker": 7965,
      "Ġluftfartsselskaber": 7966,
      "Ġros": 7967,
      "Ġstorbrit": 7968,
      "ĠtÃ¦t": 7969,
      "Ġopnas": 7970,
      "Ġarbejdstageren": 7971,
      "Ġfarvest": 7972,
      "ĠindskrÃ¦n": 7973,
      "chi": 7974,
      "ĠmarkedsÃ¸konom": 7975,
      "Ġ241": 7976,
      "sniveau": 7977,
      "Ġlib": 7978,
      "Ġsamarbejdsvillige": 7979,
      "fibre": 7980,
      "Ġtilskyn": 7981,
      "vare": 7982,
      "Ġfejlagtig": 7983,
      "Ġautoris": 7984,
      "Ġstempel": 7985,
      "yttede": 7986,
      "sforhold": 7987,
      "sfaktor": 7988,
      "ĠÃ¸strigske": 7989,
      "Ġregister": 7990,
      "Ġblandet": 7991,
      "mes": 7992,
      "Ġgla": 7993,
      "fen": 7994,
      "modtag": 7995,
      "Ġtransit": 7996,
      "ells": 7997,
      "Ġeugfl": 7998,
      "Ġkoncession": 7999,
      "Ġemissioner": 8000,
      "data": 8001,
      "hastighed": 8002,
      "ĠnÃ¦stformand": 8003,
      "chten": 8004,
      "Ġmenneskerettighed": 8005,
      "Ġforenelighed": 8006,
      "givningen": 8007,
      "Ġblade": 8008,
      "ĠophÃ¦vet": 8009,
      "edyg": 8010,
      "stype": 8011,
      "ĠhensÃ¦ttelser": 8012,
      "Ġbelast": 8013,
      "Ġsolas": 8014,
      "ella": 8015,
      "Ġ308": 8016,
      "Ġidentificere": 8017,
      "Ġopha": 8018,
      "Ġanalyser": 8019,
      "Ġindustriel": 8020,
      "Ġtaric": 8021,
      "ĠlÃ¸nklasse": 8022,
      "Ġcommission": 8023,
      "oe": 8024,
      "mÃ¦ngde": 8025,
      "idin": 8026,
      "Ġtetra": 8027,
      "Ġottende": 8028,
      "Ġlie": 8029,
      "Ġfaa": 8030,
      "ĠÃ¸nsk": 8031,
      "Ġkvalifikationer": 8032,
      "ĠudÃ¸ves": 8033,
      "Ġoens": 8034,
      "Ġdrage": 8035,
      "Ġtildelingen": 8036,
      "Ġnaet": 8037,
      "Ġstorhert": 8038,
      "Ġmy": 8039,
      "ĠleverandÃ¸rer": 8040,
      "Ġfru": 8041,
      "ania": 8042,
      "tiget": 8043,
      "ĠbekrÃ¦ftede": 8044,
      "Ġinformations": 8045,
      "Ġsuc": 8046,
      "Ġdatterselskaber": 8047,
      "Ġforhoej": 8048,
      "Ġnegativ": 8049,
      "by": 8050,
      "Ġforvaltningen": 8051,
      "Ġluftt": 8052,
      "stjeneste": 8053,
      "Ġeksportlicenser": 8054,
      "Ġaktie": 8055,
      "Ġ266": 8056,
      "aelp": 8057,
      "Ġforfal": 8058,
      "ĠprÃ¦ciseres": 8059,
      "Ġunderretning": 8060,
      "Ġarealer": 8061,
      "Ġfaglige": 8062,
      "Ġmax": 8063,
      "Ġ840": 8064,
      "Ġdriv": 8065,
      "kkede": 8066,
      "Ġsten": 8067,
      "Ġhandle": 8068,
      "ĠretfÃ¦rd": 8069,
      "Ġregistreringshind": 8070,
      "Ġbrem": 8071,
      "Ġskete": 8072,
      "Ġstrudsefugle": 8073,
      "Ġservices": 8074,
      "steder": 8075,
      "Ġbedste": 8076,
      "Ġsagsoegte": 8077,
      "Ġstorbritann": 8078,
      "Ġafbry": 8079,
      "Ġ265": 8080,
      "ÏģÎ±": 8081,
      "Ġdetaljeret": 8082,
      "Ġhindring": 8083,
      "Ġnap": 8084,
      "Ġfjernsyn": 8085,
      "maskiner": 8086,
      "Ġimporti": 8087,
      "simport": 8088,
      "Ġsendes": 8089,
      "agende": 8090,
      "Ġact": 8091,
      "Ġreserve": 8092,
      "Ġ278": 8093,
      "Ġoffentligheden": 8094,
      "Ġanordning": 8095,
      "ara": 8096,
      "ĠudnÃ¦vn": 8097,
      "Ġvalgte": 8098,
      "strÃ¸m": 8099,
      "Ġtoldmyndigheder": 8100,
      "evel": 8101,
      "Ġskattepligtig": 8102,
      "ĠindrÃ¸mmet": 8103,
      "datoen": 8104,
      "kurs": 8105,
      "Ġryb": 8106,
      "ogn": 8107,
      "040": 8108,
      "Ġsigt": 8109,
      "mit": 8110,
      "Ġundlade": 8111,
      "lam": 8112,
      "Ġ289": 8113,
      "Ġisoglu": 8114,
      "ario": 8115,
      "Ġprovin": 8116,
      "tilskud": 8117,
      "Ġbesvarelse": 8118,
      "Ġringe": 8119,
      "Ġ420": 8120,
      "Ġbevise": 8121,
      "Ġ1101": 8122,
      "Ġstorhertug": 8123,
      "ĠeksportÃ¸r": 8124,
      "entet": 8125,
      "Ġrodrig": 8126,
      "sikret": 8127,
      "cto": 8128,
      "Ġindledningen": 8129,
      "do": 8130,
      "Ġidentiske": 8131,
      "Ġtilbaget": 8132,
      "Ġindsigelsen": 8133,
      "edition": 8134,
      "elovens": 8135,
      "Ġudlandet": 8136,
      "ĠfuldmÃ¦gtig": 8137,
      "Ġstillede": 8138,
      "Ġsender": 8139,
      "Ġtjenesteg": 8140,
      "Ġ304": 8141,
      "Ġvejledende": 8142,
      "ĠskattemÃ¦ssige": 8143,
      "ĠstÃ¸tteberettigede": 8144,
      "Ġabning": 8145,
      "indkomst": 8146,
      "Ġhavn": 8147,
      "Ġdemokratiske": 8148,
      "kken": 8149,
      "Ġdoc": 8150,
      "Ġjapan": 8151,
      "Ġfastlagte": 8152,
      "kontrakt": 8153,
      "ĠâĢĲ": 8154,
      "Ġkursgev": 8155,
      "haveren": 8156,
      "edning": 8157,
      "Ġindrejse": 8158,
      "Ġadf": 8159,
      "Ġudfyldes": 8160,
      "inster": 8161,
      "Ġhenvise": 8162,
      "Ġsecuri": 8163,
      "zione": 8164,
      "Ġ273": 8165,
      "Ġtillades": 8166,
      "type": 8167,
      "Ġskin": 8168,
      "Ġsider": 8169,
      "Ġopfyldes": 8170,
      "sne": 8171,
      "ĠgeneraldirektÃ¸r": 8172,
      "Ġgengivet": 8173,
      "Ġfiskerf": 8174,
      "Ġbenaevnt": 8175,
      "smiddel": 8176,
      "Ġregener": 8177,
      "Ġsnart": 8178,
      "plads": 8179,
      "Ġretsvirkninger": 8180,
      "Ġ301": 8181,
      "Ġstorbritannien": 8182,
      "Ġgraens": 8183,
      "tilsÃ¦tningsst": 8184,
      "rÃ¦kkes": 8185,
      "Ġdefineres": 8186,
      "ĠordmÃ¦rket": 8187,
      "Ġbetydningen": 8188,
      "Ġvalutaers": 8189,
      "Ġhensynet": 8190,
      "ĠprÃ¦parater": 8191,
      "Ġellers": 8192,
      "ffer": 8193,
      "eck": 8194,
      "Ġhenhoerer": 8195,
      "ĠprÃ¦mie": 8196,
      "Ġthis": 8197,
      "Ġsrl": 8198,
      "Ġjose": 8199,
      "Ġcypern": 8200,
      "Ġmist": 8201,
      "Ġbehovet": 8202,
      "Ġslettelse": 8203,
      "garn": 8204,
      "Ġafviger": 8205,
      "Ġlen": 8206,
      "Ġdisciplin": 8207,
      "nel": 8208,
      "Ġmaksimalg": 8209,
      "fc": 8210,
      "Ġ1177": 8211,
      "Ġdimension": 8212,
      "Ġinvolveret": 8213,
      "Ġprocentdel": 8214,
      "Ġlitauen": 8215,
      "Ġhenvisninger": 8216,
      "aske": 8217,
      "Ġiagtt": 8218,
      "Ġ246": 8219,
      "Ġ354": 8220,
      "Ġarsager": 8221,
      "Ã¦der": 8222,
      "denne": 8223,
      "Ġfaellesskabs": 8224,
      "Ġteksten": 8225,
      "sapp": 8226,
      "Ġinsolvens": 8227,
      "ĠbegÃ¦ringen": 8228,
      "Ġgrundlaget": 8229,
      "lens": 8230,
      "Ġgrovhed": 8231,
      "Ġderudover": 8232,
      "Ġalm": 8233,
      "0010": 8234,
      "Ġmaksimal": 8235,
      "ukker": 8236,
      "Ġstaende": 8237,
      "ĠÑģ": 8238,
      "Ġmemb": 8239,
      "ĠsagsÃ¸gere": 8240,
      "Ġbedragen": 8241,
      "Ġcorporation": 8242,
      "Ġalger": 8243,
      "sbeskyttelse": 8244,
      "Ġmedlemsstatens": 8245,
      "Ġdisposition": 8246,
      "Ġfremlagde": 8247,
      "ĠopdrÃ¦": 8248,
      "Ġmargen": 8249,
      "Ġ338": 8250,
      "Ġadskiller": 8251,
      "Ġlandbruget": 8252,
      "ĠrÃ¦kkevidde": 8253,
      "Ġstammer": 8254,
      "hosph": 8255,
      "foeres": 8256,
      "Ã¦dle": 8257,
      "Ġendog": 8258,
      "Ġtransporteret": 8259,
      "Ġmontants": 8260,
      "lub": 8261,
      "ĠmaksimalgrÃ¦nsevÃ¦rdi": 8262,
      "Ġices": 8263,
      "Ġandetsteds": 8264,
      "Ġerstatte": 8265,
      "ĠÃ¦kvival": 8266,
      "emmende": 8267,
      "Ġaftales": 8268,
      "Ġinkl": 8269,
      "Ġ248": 8270,
      "Ġgruppen": 8271,
      "Ġudskift": 8272,
      "ichtshof": 8273,
      "eferen": 8274,
      "Ġudtalelser": 8275,
      "Ã¸nner": 8276,
      "Ġsidestil": 8277,
      "foder": 8278,
      "Ġgaran": 8279,
      "bed": 8280,
      "Ġdyresundhed": 8281,
      "ani": 8282,
      "Ġhandlet": 8283,
      "sioner": 8284,
      "Ġbemaerkninger": 8285,
      "Ġslagtning": 8286,
      "Ġpp": 8287,
      "Ġvarigheden": 8288,
      "Ġtobak": 8289,
      "ariske": 8290,
      "Ġmultipliceret": 8291,
      "ransport": 8292,
      "Ġlosse": 8293,
      "Ġtilbudsgiver": 8294,
      "Ġ227": 8295,
      "Ġmich": 8296,
      "Ġsimp": 8297,
      "Ġsav": 8298,
      "prÃ¸ver": 8299,
      "Ġobserv": 8300,
      "Ġprim": 8301,
      "ĠhÃ¦n": 8302,
      "oms": 8303,
      "Ġfen": 8304,
      "ĠmÃ¸det": 8305,
      "Ġvirkelig": 8306,
      "Ġbesvarelsen": 8307,
      "organisation": 8308,
      "ora": 8309,
      "Ġ429": 8310,
      "nar": 8311,
      "ĠhÃ¸jeste": 8312,
      "ikations": 8313,
      "Ġkontradiktion": 8314,
      "Ġkollektive": 8315,
      "Ġ^": 8316,
      "Ġforeslaede": 8317,
      "Ġdeutschland": 8318,
      "Ġchartrets": 8319,
      "Ġaftalt": 8320,
      "dr": 8321,
      "Ġforce": 8322,
      "Ġ224": 8323,
      "Ġangivelsen": 8324,
      "Ġnim": 8325,
      "Ġmyndigheds": 8326,
      "ĠtilhÃ¸rende": 8327,
      "Ġdelse": 8328,
      "barhed": 8329,
      "ĠleverandÃ¸r": 8330,
      "ĠfremhÃ¦vet": 8331,
      "Ġbrasil": 8332,
      "udi": 8333,
      "Ġinstal": 8334,
      "spoliti": 8335,
      "Ġoplyste": 8336,
      "forordningen": 8337,
      "Ġundtaget": 8338,
      "ssektoren": 8339,
      "sbetingelser": 8340,
      "Ġ330": 8341,
      "evelse": 8342,
      "Ġvanskeligt": 8343,
      "Ġfortab": 8344,
      "Ġfordring": 8345,
      "Ġklager": 8346,
      "Ġbidrager": 8347,
      "Ġverdensmarked": 8348,
      "Ġgode": 8349,
      "Ġsvare": 8350,
      "Ġplacering": 8351,
      "Ġbosat": 8352,
      "Ã¸mt": 8353,
      "Ġsand": 8354,
      "iden": 8355,
      "Ġjam": 8356,
      "Ġlinje": 8357,
      "Ġ279": 8358,
      "Ġofficielt": 8359,
      "Ġsvarede": 8360,
      "Ġsyv": 8361,
      "ĠfastlÃ¦gger": 8362,
      "Ġsvinek": 8363,
      "Ġafskallet": 8364,
      "cr": 8365,
      "Ð°Ð½": 8366,
      "Ġrimelighed": 8367,
      "Ġinstitutionen": 8368,
      "Ġlovdekret": 8369,
      "ÏģÎ¹": 8370,
      "Ġaer": 8371,
      "dokument": 8372,
      "Ġbortskaff": 8373,
      "Ġcru": 8374,
      "ĠindtÃ¦gt": 8375,
      "Ġreplik": 8376,
      "Ġforklaret": 8377,
      "ĠstÃ¸ttemodtag": 8378,
      "Ġdav": 8379,
      "Ġparam": 8380,
      "emme": 8381,
      "Ġtradte": 8382,
      "Ġ328": 8383,
      "Ġidentisk": 8384,
      "Ġpersons": 8385,
      "Ġbegrundelsespligten": 8386,
      "fedt": 8387,
      "Ġtraf": 8388,
      "Ġnordirland": 8389,
      "ryk": 8390,
      "ath": 8391,
      "Ġ283": 8392,
      "Ġcomun": 8393,
      "Ġembed": 8394,
      "Ġevaluering": 8395,
      "Ġforring": 8396,
      "Ġhjemmemarkedet": 8397,
      "aser": 8398,
      "Ġposter": 8399,
      "Ġberegnede": 8400,
      "ĠerhvervsmÃ¦ssige": 8401,
      "Ġson": 8402,
      "Ġdouan": 8403,
      "050": 8404,
      "ĠuregelmÃ¦ssigheder": 8405,
      "mers": 8406,
      "áĥĲ": 8407,
      "Ġindbring": 8408,
      "seg": 8409,
      "Ġkonf": 8410,
      "igelsen": 8411,
      "ria": 8412,
      "Ġwest": 8413,
      "Ġtend": 8414,
      "Ġlovlig": 8415,
      "Ġstatutten": 8416,
      "ĠlÃ¸betid": 8417,
      "ĠfÃ¦ng": 8418,
      "Ġ805": 8419,
      "Ġ659": 8420,
      "rÃ¸mme": 8421,
      "Ġopfyldte": 8422,
      "offets": 8423,
      "givelsen": 8424,
      "Ġ370": 8425,
      "Ġfremlagte": 8426,
      "Ġidentitet": 8427,
      "ĠstÃ¸tteordning": 8428,
      "uelle": 8429,
      "lingen": 8430,
      "somradet": 8431,
      "Ġsvov": 8432,
      "Ġnomin": 8433,
      "Ġforhandler": 8434,
      "Ġgift": 8435,
      "kommission": 8436,
      "Ġtan": 8437,
      "Ġkombineret": 8438,
      "Ġhistor": 8439,
      "tefÃ¸l": 8440,
      "deren": 8441,
      "edagen": 8442,
      "Ġfax": 8443,
      "Ġpoint": 8444,
      "ĠprÃ¦cise": 8445,
      "Ġtrade": 8446,
      "Ġledelse": 8447,
      "Ġpic": 8448,
      "Ġomga": 8449,
      "itz": 8450,
      "Ġfremsendt": 8451,
      "Ġ349": 8452,
      "ĠforlÃ¸b": 8453,
      "Ġasyl": 8454,
      "Ġ307": 8455,
      "sregnskab": 8456,
      "spligtige": 8457,
      "ĠgrÃ¦nsevÃ¦rdi": 8458,
      "Ġopstaet": 8459,
      "blandinger": 8460,
      "indholdet": 8461,
      "Ġkriteriet": 8462,
      "ĠforhÃ¸jelse": 8463,
      "Ġkrop": 8464,
      "Ġfejlagtigt": 8465,
      "Ġregning": 8466,
      "js": 8467,
      "Ġindlaeg": 8468,
      "Ġmic": 8469,
      "Ð¼": 8470,
      "inden": 8471,
      "pal": 8472,
      "sammens": 8473,
      "ĺĲ": 8474,
      "grupper": 8475,
      "saette": 8476,
      "Ġgroft": 8477,
      "Ġtot": 8478,
      "idae": 8479,
      "Ġopretholdes": 8480,
      "ĠforelÃ¦gges": 8481,
      "Ġoptagelse": 8482,
      "ld": 8483,
      "Ġ710": 8484,
      "just": 8485,
      "Ġleverer": 8486,
      "xx": 8487,
      "Ġ257": 8488,
      "sprocessen": 8489,
      "Ġamb": 8490,
      "Ġfoelgelig": 8491,
      "ĠÃ¸jeblikket": 8492,
      "petence": 8493,
      "Ġmaske": 8494,
      "Ġregistret": 8495,
      "smaden": 8496,
      "Ġmaelk": 8497,
      "gin": 8498,
      "staver": 8499,
      "pens": 8500,
      "Ġdar": 8501,
      "ĠreprÃ¦senterer": 8502,
      "Ġimportlicens": 8503,
      "fun": 8504,
      "forholdet": 8505,
      "col": 8506,
      "Ġudvaelgelses": 8507,
      "Ġskriftlig": 8508,
      "operat": 8509,
      "Ġfremsendte": 8510,
      "Ġaendringer": 8511,
      "Ġkundekreds": 8512,
      "ementet": 8513,
      "ebest": 8514,
      "Ġamerikas": 8515,
      "saktiviteter": 8516,
      "Ġnedenstaende": 8517,
      "Ġopbevaring": 8518,
      "Ġmalay": 8519,
      "Ġindkal": 8520,
      "Ġovervag": 8521,
      "Ġdiameter": 8522,
      "Ġnikkel": 8523,
      "Ġalternative": 8524,
      "adt": 8525,
      "nam": 8526,
      "Ġindhen": 8527,
      "ĠbeklÃ¦dningsgenstande": 8528,
      "fne": 8529,
      "Ġlq": 8530,
      "valsede": 8531,
      "Ġvurderet": 8532,
      "Ð¾Ð²": 8533,
      "Ġanmeldt": 8534,
      "Ġpaav": 8535,
      "Ġuit": 8536,
      "Ġgiven": 8537,
      "finansiering": 8538,
      "Ġubet": 8539,
      "Ġ442": 8540,
      "direktivet": 8541,
      "sbelÃ¸bet": 8542,
      "Ġregningsenheder": 8543,
      "sloven": 8544,
      "Ġresul": 8545,
      "Ġnace": 8546,
      "Ġnaturlig": 8547,
      "Ġuge": 8548,
      "Ġinstituttet": 8549,
      "Ġbrand": 8550,
      "Ġefta": 8551,
      "ĠblandsÃ¦d": 8552,
      "ĠsÃ¦dvanlige": 8553,
      "frys": 8554,
      "skontrakt": 8555,
      "ĠâĢľ": 8556,
      "indt": 8557,
      "ĠlÃ¦ge": 8558,
      "kontrakter": 8559,
      "Ġretssikkerhedsprincippet": 8560,
      "Ġbeslutte": 8561,
      "act": 8562,
      "ĠudtÃ¸mmende": 8563,
      "Ġwer": 8564,
      "lÃ¦gge": 8565,
      "Ġ314": 8566,
      "Ġaffattelse": 8567,
      "001": 8568,
      "forordningens": 8569,
      "Ġanse": 8570,
      "ical": 8571,
      "lÃ¦gges": 8572,
      "usion": 8573,
      "Ġregnskaber": 8574,
      "Ġregulation": 8575,
      "otter": 8576,
      "Ġ291": 8577,
      "Ġoffentligg": 8578,
      "tiger": 8579,
      "andet": 8580,
      "Ġvarens": 8581,
      "Ġafghan": 8582,
      "ĠvÃ¦rktÃ¸j": 8583,
      "Ġformode": 8584,
      "Ġ325": 8585,
      "Ġ387": 8586,
      "Ġ6116": 8587,
      "ĠtÃ¸rstof": 8588,
      "ĠstrÃ¸m": 8589,
      "Ġdokumentet": 8590,
      "Ġafvise": 8591,
      "Ġautoriteten": 8592,
      "slÃ¸b": 8593,
      "ĠuafhÃ¦ngighed": 8594,
      "ĠnÃ¦vnes": 8595,
      "Ġtredjedagen": 8596,
      "ikkerhed": 8597,
      "Ġlange": 8598,
      "Ġetat": 8599,
      "Ġforsynings": 8600,
      "Ġ292": 8601,
      "Ġudbyder": 8602,
      "ĠoperatÃ¸r": 8603,
      "Ġmaskin": 8604,
      "ktoratet": 8605,
      "ĠÎ¿": 8606,
      "Ġmedarbejdere": 8607,
      "Ġ016": 8608,
      "ĠspÃ¸rger": 8609,
      "Ġdefinitioner": 8610,
      "Ġgyldighedsperiode": 8611,
      "Ġkapacitets": 8612,
      "sber": 8613,
      "Ġsekret": 8614,
      "spligten": 8615,
      "Ġprocessuelle": 8616,
      "Ġudvist": 8617,
      "ride": 8618,
      "Ġstatistik": 8619,
      "Ġakv": 8620,
      "Ġ293": 8621,
      "Ġbestanddel": 8622,
      "Ġsammenslutninger": 8623,
      "Ġjac": 8624,
      "skapacitet": 8625,
      "Ġmaer": 8626,
      "ĠÎ·": 8627,
      "Ġvalget": 8628,
      "ĠimportÃ¸r": 8629,
      "sretlige": 8630,
      "kaar": 8631,
      "Ġkonkluderes": 8632,
      "tagere": 8633,
      "Ġ327": 8634,
      "Ġbegynder": 8635,
      "Ġflo": 8636,
      "Ġpays": 8637,
      "Ġxvi": 8638,
      "emÃ¦ssige": 8639,
      "cio": 8640,
      "eken": 8641,
      "Ġkommercielle": 8642,
      "Ġln": 8643,
      "Ġvarme": 8644,
      "Ġvine": 8645,
      "rud": 8646,
      "Ġappar": 8647,
      "Ġassocierings": 8648,
      "bal": 8649,
      "eselskab": 8650,
      "masse": 8651,
      "Ġundtagelsen": 8652,
      "Ġsamarbejdet": 8653,
      "Ġhyd": 8654,
      "ĠtilbagesÃ¸g": 8655,
      "Ġmyndigheden": 8656,
      "Ġmodtagne": 8657,
      "oeren": 8658,
      "Ġ244": 8659,
      "Ġorden": 8660,
      "Ġ1102": 8661,
      "ssag": 8662,
      "Ġskattes": 8663,
      "Ġ820": 8664,
      "Ġklassificering": 8665,
      "Ġfug": 8666,
      "rater": 8667,
      "sprocedurer": 8668,
      "afgÃ¸relsen": 8669,
      "Ġvaerdien": 8670,
      "Ġpas": 8671,
      "Ġliq": 8672,
      "Ġfiber": 8673,
      "Ġ513": 8674,
      "Ġprocedurerne": 8675,
      "maceu": 8676,
      "Ġmos": 8677,
      "Ġbetegnes": 8678,
      "Ġâī¥": 8679,
      "ĠerklÃ¦ret": 8680,
      "Ġkonstrueret": 8681,
      "aria": 8682,
      "omme": 8683,
      "Ġbero": 8684,
      "Ġevne": 8685,
      "Ġbefol": 8686,
      "liv": 8687,
      "terer": 8688,
      "Ġfork": 8689,
      "Ġtilladelser": 8690,
      "even": 8691,
      "Ġ359": 8692,
      "bog": 8693,
      "Ġmodparter": 8694,
      "Ġnn": 8695,
      "Ġopfyldelsen": 8696,
      "Ġretsregler": 8697,
      "ĠlÃ¦der": 8698,
      "Ġlandbruger": 8699,
      "Ġfx": 8700,
      "Ġfastsaette": 8701,
      "isch": 8702,
      "Ġ309": 8703,
      "Ġnic": 8704,
      "Ġ910": 8705,
      "ye": 8706,
      "Ġentre": 8707,
      "cerne": 8708,
      "ĠÐ¿": 8709,
      "oxyl": 8710,
      "Ġ521": 8711,
      "fulgt": 8712,
      "Ġrekt": 8713,
      "Ġaftalerne": 8714,
      "Ġgebyrer": 8715,
      "ningshavn": 8716,
      "Ġsagsu": 8717,
      "ĠÃ¸k": 8718,
      "Ġomraader": 8719,
      "Ġtrufne": 8720,
      "Ġtonnages": 8721,
      "Ġ0210": 8722,
      "Ġanskaff": 8723,
      "Ġsalgs": 8724,
      "Ġaks": 8725,
      "ordre": 8726,
      "Ġae": 8727,
      "Ġbevare": 8728,
      "jekt": 8729,
      "Ġsvaret": 8730,
      "Ġlangkornet": 8731,
      "Ġansoegning": 8732,
      "Ġlaen": 8733,
      "Ġgik": 8734,
      "enne": 8735,
      "ĠfjerkrÃ¦kÃ¸d": 8736,
      "ware": 8737,
      "Ġ329": 8738,
      "Ġtyvende": 8739,
      "Ġafholdte": 8740,
      "Ġ360": 8741,
      "Ġeurostat": 8742,
      "sme": 8743,
      "Ġberegne": 8744,
      "yt": 8745,
      "gle": 8746,
      "Ġ740": 8747,
      "Ġ1905": 8748,
      "Ġpraktisk": 8749,
      "sikkerheden": 8750,
      "Ġgennemfoerelsen": 8751,
      "sdyr": 8752,
      "Ġpassiv": 8753,
      "ellschaft": 8754,
      "Ġregistreringen": 8755,
      "Ġugrundet": 8756,
      "Ġaqu": 8757,
      "ĠgennemfÃ¸rer": 8758,
      "kum": 8759,
      "ĠfÃ¦llesskabsbestemmelser": 8760,
      "Ġformu": 8761,
      "Ġurigtige": 8762,
      "Ġunderstreget": 8763,
      "Ġ285": 8764,
      "Ġpassagerer": 8765,
      "dygtighed": 8766,
      "Ġ366": 8767,
      "Ġacet": 8768,
      "Ġdriften": 8769,
      "ĠforsÃ¸": 8770,
      "Ġvarecer": 8771,
      "ativer": 8772,
      "Ġnoedvendig": 8773,
      "Ġmenneskers": 8774,
      "Ġdin": 8775,
      "ĠudlÃ¸ber": 8776,
      "timod": 8777,
      "Ġnb": 8778,
      "ĠfÃ¸res": 8779,
      "Ġ272": 8780,
      "smyndigheden": 8781,
      "Î¿Ïĥ": 8782,
      "Ġreguleret": 8783,
      "Ġorganiske": 8784,
      "konvention": 8785,
      "Ġmotorer": 8786,
      "Ġindpla": 8787,
      "garanti": 8788,
      "Ġbrasilien": 8789,
      "Ġisra": 8790,
      "Ġindbyg": 8791,
      "stigt": 8792,
      "Ġpavise": 8793,
      "Ġarrest": 8794,
      "Ġunderskrift": 8795,
      "clo": 8796,
      "Ġlar": 8797,
      "cs": 8798,
      "Ġgummi": 8799,
      "lis": 8800,
      "Ġaeg": 8801,
      "ĠlÃ¦gge": 8802,
      "Ġ315": 8803,
      "Ġubearbejdet": 8804,
      "Ġcalci": 8805,
      "Ġpavist": 8806,
      "Ġram": 8807,
      "bund": 8808,
      "skla": 8809,
      "Ġgri": 8810,
      "Ġprovision": 8811,
      "ordn": 8812,
      "Ġrektang": 8813,
      "Ġunderbyg": 8814,
      "aa": 8815,
      "arief": 8816,
      "Ġki": 8817,
      "Ġopstillet": 8818,
      "ĠforÃ¦ldre": 8819,
      "ume": 8820,
      "Ġmalaysia": 8821,
      "rÃ¦kke": 8822,
      "filer": 8823,
      "Ġ1962": 8824,
      "ĠsÃ¦t": 8825,
      "Ġcee": 8826,
      "Ġborgerne": 8827,
      "fte": 8828,
      "Ġtilsigtede": 8829,
      "Ġtok": 8830,
      "Ġquan": 8831,
      "Ġfrosne": 8832,
      "kkes": 8833,
      "vedt": 8834,
      "ĠrÃ¦kkevidden": 8835,
      "Ġray": 8836,
      "Ġfinske": 8837,
      "Ġformaliteten": 8838,
      "Ġetableringsfri": 8839,
      "Ġblomster": 8840,
      "Ġkendte": 8841,
      "gender": 8842,
      "Ġsamordnet": 8843,
      "Ġamerikanske": 8844,
      "Ġdepon": 8845,
      "Ġbedrifter": 8846,
      "Ġtving": 8847,
      "fÃ¦lde": 8848,
      "Ġlod": 8849,
      "ĠfunktionÃ¦r": 8850,
      "com": 8851,
      "Ġforsikrings": 8852,
      "Ġomhandles": 8853,
      "Ġbygninger": 8854,
      "Ġide": 8855,
      "Ġaab": 8856,
      "Ġbeskrevne": 8857,
[...]
