{
  "version": "1.0",
  "truncation": null,
  "padding": null,
  "added_tokens": [
    {
      "id": 0,
      "content": "<pad>",
      "single_word": false,
      "lstrip": false,
      "rstrip": false,
      "normalized": false,
      "special": true
    },
    {
      "id": 1,
      "content": "<s>",
      "single_word": false,
      "lstrip": false,
      "rstrip": false,
      "normalized": false,
      "special": true
    },
    {
      "id": 2,
      "content": "</s>",
      "single_word": false,
      "lstrip": false,
      "rstrip": false,
      "normalized": false,
      "special": true
    },
    {
      "id": 3,
      "content": "<unk>",
      "single_word": false,
      "lstrip": false,
      "rstrip": false,
      "normalized": false,
      "special": true
    },
    {
      "id": 4,
      "content": "<mask>",
      "single_word": false,
      "lstrip": false,
      "rstrip": false,
      "normalized": false,
      "special": true
    }
  ],
  "normalizer": {
    "type": "Sequence",
    "normalizers": [
      {
        "type": "NFKD"
      },
      {
        "type": "BertNormalizer",
        "clean_text": true,
        "handle_chinese_chars": true,
        "strip_accents": null,
        "lowercase": true
      }
    ]
  },
  "pre_tokenizer": {
    "type": "Sequence",
    "pretokenizers": [
      {
        "type": "BertPreTokenizer"
      },
      {
        "type": "ByteLevel",
        "add_prefix_space": true,
        "trim_offsets": true,
        "use_regex": true
      }
    ]
  },
  "post_processor": {
    "type": "RobertaProcessing",
    "sep": [
      "</s>",
      2
    ],
    "cls": [
      "<s>",
      1
    ],
    "trim_offsets": true,
    "add_prefix_space": true
  },
  "decoder": {
    "type": "ByteLevel",
    "add_prefix_space": true,
    "trim_offsets": true,
    "use_regex": true
  },
  "model": {
    "type": "BPE",
    "dropout": null,
    "unk_token": "<unk>",
    "continuing_subword_prefix": null,
    "end_of_word_suffix": null,
    "fuse_unk": false,
    "vocab": {
      "<pad>": 0,
      "<s>": 1,
      "</s>": 2,
      "<unk>": 3,
      "<mask>": 4,
      "!": 5,
      "\"": 6,
      "#": 7,
      "$": 8,
      "%": 9,
      "&": 10,
      "'": 11,
      "(": 12,
      ")": 13,
      "*": 14,
      "+": 15,
      ",": 16,
      "-": 17,
      ".": 18,
      "/": 19,
      "0": 20,
      "1": 21,
      "2": 22,
      "3": 23,
      "4": 24,
      "5": 25,
      "6": 26,
      "7": 27,
      "8": 28,
      "9": 29,
      ":": 30,
      ";": 31,
      "<": 32,
      "=": 33,
      ">": 34,
      "?": 35,
      "@": 36,
      "[": 37,
      "\\": 38,
      "]": 39,
      "^": 40,
      "_": 41,
      "`": 42,
      "a": 43,
      "b": 44,
      "c": 45,
      "d": 46,
      "e": 47,
      "f": 48,
      "g": 49,
      "h": 50,
      "i": 51,
      "j": 52,
      "k": 53,
      "l": 54,
      "m": 55,
      "n": 56,
      "o": 57,
      "p": 58,
      "q": 59,
      "r": 60,
      "s": 61,
      "t": 62,
      "u": 63,
      "v": 64,
      "w": 65,
      "x": 66,
      "y": 67,
      "z": 68,
      "{": 69,
      "|": 70,
      "}": 71,
      "~": 72,
      "¡": 73,
      "¢": 74,
      "£": 75,
      "¤": 76,
      "¥": 77,
      "¦": 78,
      "§": 79,
      "¨": 80,
      "©": 81,
      "ª": 82,
      "«": 83,
      "¬": 84,
      "®": 85,
      "¯": 86,
      "°": 87,
      "±": 88,
      "²": 89,
      "³": 90,
      "´": 91,
      "µ": 92,
      "¶": 93,
      "·": 94,
      "¸": 95,
      "¹": 96,
      "º": 97,
      "»": 98,
      "¼": 99,
      "½": 100,
      "¾": 101,
      "¿": 102,
      "Â": 103,
      "Ã": 104,
      "Ä": 105,
      "Å": 106,
      "Æ": 107,
      "Ç": 108,
      "È": 109,
      "É": 110,
      "Ê": 111,
      "Ë": 112,
      "Î": 113,
      "Ï": 114,
      "Ð": 115,
      "Ñ": 116,
      "Ò": 117,
      "Õ": 118,
      "Ö": 119,
      "×": 120,
      "Ø": 121,
      "Ù": 122,
      "Ú": 123,
      "Û": 124,
      "ß": 125,
      "à": 126,
      "á": 127,
      "â": 128,
      "ã": 129,
      "ä": 130,
      "å": 131,
      "æ": 132,
      "ç": 133,
      "è": 134,
      "é": 135,
      "ð": 136,
      "Ġ": 137,
      "Ģ": 138,
      "ģ": 139,
      "Ĥ": 140,
      "ĥ": 141,
      "Ħ": 142,
      "ħ": 143,
      "Ĩ": 144,
      "ĩ": 145,
      "Ī": 146,
      "ī": 147,
      "Ĭ": 148,
      "ĭ": 149,
      "Į": 150,
      "į": 151,
      "İ": 152,
      "ı": 153,
      "Ĳ": 154,
      "ĳ": 155,
      "Ĵ": 156,
      "ĵ": 157,
      "Ķ": 158,
      "ķ": 159,
      "ĸ": 160,
      "Ĺ": 161,
      "ĺ": 162,
      "Ļ": 163,
      "ļ": 164,
      "Ľ": 165,
      "ľ": 166,
      "Ŀ": 167,
      "ŀ": 168,
      "Ł": 169,
      "ł": 170,
      "Ń": 171,
      "Ġp": 172,
      "Ġs": 173,
      "Ġ,": 174,
      "Ġn": 175,
      "re": 176,
      "je": 177,
      "an": 178,
      "Ġd": 179,
      "Ġi": 180,
      "st": 181,
      "Ġz": 182,
      "no": 183,
      "Ġ.": 184,
      "ra": 185,
      "Ġv": 186,
      "Ġk": 187,
      "Ġo": 188,
      "ni": 189,
      "Ġt": 190,
      "le": 191,
      "Ġpo": 192,
      "Ġna": 193,
      "ve": 194,
      "ne": 195,
      "la": 196,
      "Ġza": 197,
      "lo": 198,
      "ri": 199,
      "ja": 200,
      "Ġ1": 201,
      "Ġu": 202,
      "ro": 203,
      "Ġc": 204,
      "Ġ2": 205,
      "na": 206,
      "me": 207,
      "li": 208,
      "Ġin": 209,
      "Ġiz": 210,
      "Ġ)": 211,
      "Ġ(": 212,
      "ci": 213,
      "te": 214,
      "red": 215,
      "Ġni": 216,
      "po": 217,
      "vi": 218,
      "Ġa": 219,
      "ti": 220,
      "van": 221,
      "ko": 222,
      "Ġb": 223,
      "ce": 224,
      "ga": 225,
      "Ġâ": 226,
      "va": 227,
      "ĠâĢ": 228,
      "od": 229,
      "Ġe": 230,
      "Ġre": 231,
      "Ġst": 232,
      "tno": 233,
      "sti": 234,
      "Ġje": 235,
      "Ġm": 236,
      "ka": 237,
      "Ġdo": 238,
      "Ġpri": 239,
      "de": 240,
      "jo": 241,
      "Ġ/": 242,
      "Ġse": 243,
      "Ġki": 244,
      "00": 245,
      "go": 246,
      "Ġne": 247,
      "is": 248,
      "ke": 249,
      "Ġrele": 250,
      "Ġrelevan": 251,
      "Ġrelevantno": 252,
      "Ġko": 253,
      "Ġda": 254,
      "se": 255,
      "Ġte": 256,
      "vo": 257,
      "ru": 258,
      "ji": 259,
      "Ġod": 260,
      "be": 261,
      "Ġ_": 262,
      "Ġ3": 263,
      "nih": 264,
      "Ġ-": 265,
      "to": 266,
      "ki": 267,
      "ran": 268,
      "Ġob": 269,
      "raz": 270,
      "lje": 271,
      "nosti": 272,
      "ju": 273,
      "da": 274,
      "Ġbi": 275,
      "sta": 276,
      "ca": 277,
      "Ġpre": 278,
      "Ġto": 279,
      "sto": 280,
      "za": 281,
      "Ġ0": 282,
      "Ġde": 283,
      "zi": 284,
      "ta": 285,
      "Ġsk": 286,
      "Ġ:": 287,
      "Ġpro": 288,
      "ma": 289,
      "Ġ5": 290,
      "di": 291,
      "mi": 292,
      "ba": 293,
      "Ġka": 294,
      "Ġraz": 295,
      "Ġ4": 296,
      "ĠâĢĵ": 297,
      "Ġali": 298,
      "so": 299,
      "Ġcle": 300,
      "Ġpod": 301,
      "anje": 302,
      "ze": 303,
      "Ġg": 304,
      "Ġdru": 305,
      "bi": 306,
      "gi": 307,
      "Ġpred": 308,
      "Ġsod": 309,
      "Ġ20": 310,
      "rav": 311,
      "nega": 312,
      "ste": 313,
      "stav": 314,
      "Ġme": 315,
      "Ġsp": 316,
      "Ġupo": 317,
      "ske": 318,
      "Ġ200": 319,
      "Ġce": 320,
      "Ġf": 321,
      "Ġta": 322,
      "Ġ9": 323,
      "Ġizpo": 324,
      "stop": 325,
      "Ġ|": 326,
      "Ġso": 327,
      "bo": 328,
      "ani": 329,
      "lja": 330,
      "Ġ6": 331,
      "Ġmo": 332,
      "sa": 333,
      "tev": 334,
      "tve": 335,
      "mo": 336,
      "Ġured": 337,
      "si": 338,
      "ski": 339,
      "Ġve": 340,
      "Ġ7": 341,
      "Ġ8": 342,
      "nje": 343,
      "Ġdolo": 344,
      "lj": 345,
      "mis": 346,
      "rza": 347,
      "Ġpra": 348,
      "Ġnas": 349,
      "Ġniso": 350,
      "redi": 351,
      "Ġdrza": 352,
      "ane": 353,
      "stavlje": 354,
      "Ġkredi": 355,
      "Ġ201": 356,
      "Ġstran": 357,
      "Ġupora": 358,
      "ku": 359,
      "ar": 360,
      "Ġeu": 361,
      "do": 362,
      "Ġizpostavlje": 363,
      "Ġizpostavljenosti": 364,
      "misi": 365,
      "Ġh": 366,
      "nost": 367,
      "ge": 368,
      "Ġkate": 369,
      "jih": 370,
      "Ġla": 371,
      "Ġkomisi": 372,
      "or": 373,
      "Ġtre": 374,
      "up": 375,
      "Ġnep": 376,
      "du": 377,
      "Ġdi": 378,
      "kov": 379,
      "lu": 380,
      "Ġsodis": 381,
      "Ġop": 382,
      "men": 383,
      "rb": 384,
      "Ġnave": 385,
      "tu": 386,
      "Ġ10": 387,
      "seb": 388,
      "Ġkot": 389,
      "Ġspre": 390,
      "Ġclen": 391,
      "kti": 392,
      "cu": 393,
      "Ġtoc": 394,
      "Ġtve": 395,
      "Ġtveg": 396,
      "Ġ;": 397,
      "Ġle": 398,
      "Ġ19": 399,
      "lac": 400,
      "Ġdne": 401,
      "Ġzade": 402,
      "Ġskup": 403,
      "Ġskla": 404,
      "Ġsi": 405,
      "lju": 406,
      "Ġ00": 407,
      "Ġcl": 408,
      "Ġtveganje": 409,
      "Ġclena": 410,
      "Ġodlo": 411,
      "ĠâĢľ": 412,
      "Ġgle": 413,
      "ĠâĢŀ": 414,
      "lacane": 415,
      "iz": 416,
      "Ġtr": 417,
      "Ġnavede": 418,
      "Ġbo": 419,
      "Ġkreditno": 420,
      "Ġneplacane": 421,
      "nem": 422,
      "Ġal": 423,
      "Ġpravi": 424,
      "lni": 425,
      "in": 426,
      "Ġspo": 427,
      "dar": 428,
      "Ġpostop": 429,
      "ana": 430,
      "Ġclani": 431,
      "Ġuredbe": 432,
      "anja": 433,
      "Ġpa": 434,
      "en": 435,
      "Ġma": 436,
      "rop": 437,
      "ĠâĢĶ": 438,
      "Ġl": 439,
      "Ġes": 440,
      "roci": 441,
      "Ġdire": 442,
      "Ġr": 443,
      "Ġlah": 444,
      "pra": 445,
      "Ġtreba": 446,
      "sp": 447,
      "mer": 448,
      "Ġlahko": 449,
      "zbe": 450,
      "vod": 451,
      "Ġno": 452,
      "Ġ12": 453,
      "pro": 454,
      "Ġmi": 455,
      "vanje": 456,
      "Ġnaj": 457,
      "Ġpodje": 458,
      "lji": 459,
      "lozi": 460,
      "Ġdirekti": 461,
      "Ġskladu": 462,
      "Ġdrugi": 463,
      "Ġ%": 464,
      "rg": 465,
      "sko": 466,
      "vez": 467,
      "pa": 468,
      "Ġev": 469,
      "Ġ11": 470,
      "Ġsto": 471,
      "Ġtem": 472,
      "tne": 473,
      "er": 474,
      "Ġproiz": 475,
      "Ġall": 476,
      "Ġevrop": 477,
      "cije": 478,
      "Ġzah": 479,
      "Ġmed": 480,
      "Ġuni": 481,
      "cno": 482,
      "god": 483,
      "ska": 484,
      "zo": 485,
      "vni": 486,
      "goto": 487,
      "Ġsa": 488,
      "zni": 489,
      "Ġsve": 490,
      "skih": 491,
      "Ġsta": 492,
      "Ġnaspro": 493,
      "Ġkon": 494,
      "mb": 495,
      "Ġeur": 496,
      "Ġ]": 497,
      "Ġ[": 498,
      "Ġstranke": 499,
      "cne": 500,
      "Ġtu": 501,
      "Ġuporab": 502,
      "Ġposeb": 503,
      "Ġkomisija": 504,
      "Ġpos": 505,
      "Ġoce": 506,
      "Ġsodisce": 507,
      "Ġpot": 508,
      "Ġter": 509,
      "Ġorg": 510,
      "tvi": 511,
      "10": 512,
      "jev": 513,
      "Ġglede": 514,
      "jav": 515,
      "Ġpr": 516,
      "klju": 517,
      "Ġodloc": 518,
      "tij": 519,
      "cni": 520,
      "pi": 521,
      "vanju": 522,
      "vr": 523,
      "Ġok": 524,
      "Ġtega": 525,
      "ob": 526,
      "Ġzve": 527,
      "tna": 528,
      "Ġ13": 529,
      "gotovi": 530,
      "Ġpristop": 531,
      "zna": 532,
      "Ġpodla": 533,
      "Ġvse": 534,
      "Ġzahte": 535,
      "skega": 536,
      "kre": 537,
      "Ġmora": 538,
      "ano": 539,
      "Ġuposte": 540,
      "Ġjih": 541,
      "nja": 542,
      "Ġ15": 543,
      "sno": 544,
      "cij": 545,
      "Ġ50": 546,
      "prav": 547,
      "Ġskle": 548,
      "jem": 549,
      "tnih": 550,
      "Ġdrzave": 551,
      "Ġzako": 552,
      "Ġunije": 553,
      "Ġste": 554,
      "Ġli": 555,
      "rez": 556,
      "lov": 557,
      "co": 558,
      "Ġtako": 559,
      "Ġpodlagi": 560,
      "Ġproizvod": 561,
      "vanja": 562,
      "dni": 563,
      "ona": 564,
      "Ġirb": 565,
      "Ġtocka": 566,
      "irb": 567,
      "jan": 568,
      "Ġzvezi": 569,
      "Ġstr": 570,
      "Ġprav": 571,
      "Ġnje": 572,
      "pu": 573,
      "Ġtudi": 574,
      "Ġprilo": 575,
      "lova": 576,
      "Ġust": 577,
      "Ġkateri": 578,
      "Ġ14": 579,
      "Ġproste": 580,
      "Ġmsp": 581,
      "Ġkatere": 582,
      "Ġpodjetij": 583,
      "sci": 584,
      "Ġca": 585,
      "Ġtoze": 586,
      "Ġgo": 587,
      "Ġzd": 588,
      "Ġukre": 589,
      "nite": 590,
      "Ġpogod": 591,
      "Ġuporablja": 592,
      "Ġdirektive": 593,
      "nom": 594,
      "Ġdoloc": 595,
      "Ġdoloce": 596,
      "hod": 597,
      "Ġbila": 598,
      "Ġ17": 599,
      "Ġnasprotne": 600,
      "Ġ16": 601,
      "Ġdod": 602,
      "Ġteh": 603,
      "Ġizroci": 604,
      "Ġnaci": 605,
      "Ġpoda": 606,
      "pis": 607,
      "ravna": 608,
      "20": 609,
      "Ġizrocitve": 610,
      "vaja": 611,
      "Ġposebnih": 612,
      "tni": 613,
      "mu": 614,
      "radi": 615,
      "led": 616,
      "Ġocena": 617,
      "Ġvo": 618,
      "inan": 619,
      "tor": 620,
      "cija": 621,
      "Ġga": 622,
      "ha": 623,
      "Ġbonite": 624,
      "govo": 625,
      "anj": 626,
      "ĠâĢĲ": 627,
      "Ġci": 628,
      "Ġstro": 629,
      "lno": 630,
      "stoj": 631,
      "laga": 632,
      "Ġmio": 633,
      "Ġsvo": 634,
      "Ġspreme": 635,
      "Ġbonitetna": 636,
      "Ġpogo": 637,
      "zma": 638,
      "Ġrazen": 639,
      "Ġ30": 640,
      "fi": 641,
      "Ġnap": 642,
      "Ġbe": 643,
      "sni": 644,
      "Ġsplo": 645,
      "Ġze": 646,
      "Ġ199": 647,
      "gu": 648,
      "del": 649,
      "Ġkreditnih": 650,
      "Ġvelja": 651,
      "Ġkr": 652,
      "Ġaran": 653,
      "lne": 654,
      "Ġvklju": 655,
      "Ġpla": 656,
      "Ġaranzma": 657,
      "raj": 658,
      "Ġ18": 659,
      "Ġzna": 660,
      "Ġskupnosti": 661,
      "Ġvsa": 662,
      "redni": 663,
      "Ġbilo": 664,
      "Ġju": 665,
      "ch": 666,
      "Ġaranzmajev": 667,
      "Ġspreje": 668,
      "mbra": 669,
      "Ġ25": 670,
      "Ġdruge": 671,
      "Ġdrzav": 672,
      "Ġvi": 673,
      "orma": 674,
      "Ġ=": 675,
      "Ġ21": 676,
      "Ġnaslova": 677,
      "Ġsme": 678,
      "Ġ29": 679,
      "Ġstori": 680,
      "gla": 681,
      "Ġdruz": 682,
      "Ġra": 683,
      "Ġprime": 684,
      "Ġvec": 685,
      "varo": 686,
      "Ġobravna": 687,
      "stva": 688,
      "Ġsu": 689,
      "Ġzaradi": 690,
      "jejo": 691,
      "Ġsveta": 692,
      "Ġpredlo": 693,
      "Ġpredlozi": 694,
      "Ġro": 695,
      "Ġti": 696,
      "Ġteme": 697,
      "Ġvred": 698,
      "Ġco": 699,
      "Ġpodat": 700,
      "Ġvar": 701,
      "Ġura": 702,
      "Ġdoloci": 703,
      "Ġobvez": 704,
      "Ġprito": 705,
      "Ġul": 706,
      "ven": 707,
      "Ġugotovi": 708,
      "Ġokvi": 709,
      "rob": 710,
      "Ġzavaro": 711,
      "Ġinf": 712,
      "Ġnaciona": 713,
      "stvo": 714,
      "nov": 715,
      "rani": 716,
      "Ġsiste": 717,
      "Ġii": 718,
      "Ġpome": 719,
      "Ġrazlo": 720,
      "lasti": 721,
      "Ġvr": 722,
      "Ġairb": 723,
      "Ġnapredni": 724,
      "vil": 725,
      "Ġ31": 726,
      "Ġkomisije": 727,
      "Ġime": 728,
      "Ġw": 729,
      "Ġ28": 730,
      "pe": 731,
      "Ġ26": 732,
      "Ġ23": 733,
      "ren": 734,
      "Ġzi": 735,
      "cnih": 736,
      "Ġdrzava": 737,
      "Ġker": 738,
      "Ġclanice": 739,
      "pos": 740,
      "janje": 741,
      "dbi": 742,
      "Ġproti": 743,
      "Ġ90": 744,
      "Ġ22": 745,
      "Ġdovo": 746,
      "Ġclenom": 747,
      "Ġuredba": 748,
      "tov": 749,
      "Ġpogodbe": 750,
      "kih": 751,
      "Ġnasled": 752,
      "Ġ24": 753,
      "Ġome": 754,
      "Ġzadev": 755,
      "nu": 756,
      "tje": 757,
      "Ġstranka": 758,
      "Ġdruzbe": 759,
      "val": 760,
      "Ġpristoj": 761,
      "Ġfinan": 762,
      "kom": 763,
      "Ġx": 764,
      "Ġname": 765,
      "ter": 766,
      "Ġsodisca": 767,
      "gra": 768,
      "teri": 769,
      "Ġevropske": 770,
      "spo": 771,
      "cin": 772,
      "Ġnad": 773,
      "Ġjo": 774,
      "tro": 775,
      "Ġsred": 776,
      "dob": 777,
      "Ġct": 778,
      "Ġ<": 779,
      "cev": 780,
      "Ġmogo": 781,
      "Ġvpra": 782,
      "rec": 783,
      "Ġpotre": 784,
      "Ġinforma": 785,
      "Ġcor": 786,
      "ved": 787,
      "Ġzgo": 788,
      "cijo": 789,
      "Ġzato": 790,
      "Ġvz": 791,
      "lek": 792,
      "Ġizpodbi": 793,
      "nim": 794,
      "Ġ27": 795,
      "ek": 796,
      "Ġkoli": 797,
      "Ġmogoce": 798,
      "den": 799,
      "Ġima": 800,
      "Ġzadevi": 801,
      "Ġglej": 802,
      "Ġnjih": 803,
      "Ġkrsi": 804,
      "Ġvpras": 805,
      "Ġrazli": 806,
      "Ġstop": 807,
      "Ġbil": 808,
      "Ġose": 809,
      "stri": 810,
      "Ġuprav": 811,
      "Ġdoda": 812,
      "nji": 813,
      "Ġpomo": 814,
      "Ġdoloca": 815,
      "Ġorgani": 816,
      "Ġprimer": 817,
      "rede": 818,
      "razu": 819,
      "on": 820,
      "pre": 821,
      "Ġcorp": 822,
      "rila": 823,
      "Ġpar": 824,
      "pravi": 825,
      "Ġena": 826,
      "sce": 827,
      "Ġtrdi": 828,
      "Ġsporazu": 829,
      "vek": 830,
      "Ġleta": 831,
      "40": 832,
      "Ġeno": 833,
      "vati": 834,
      "kla": 835,
      "Ġzdru": 836,
      "Ġpe": 837,
      "voz": 838,
      "kor": 839,
      "vali": 840,
      "nt": 841,
      "Ġuporabi": 842,
      "Ġ+": 843,
      "su": 844,
      "Ġgla": 845,
      "bli": 846,
      "Ġizdel": 847,
      "Ġsmec": 848,
      "roc": 849,
      "Ġnace": 850,
      "Ġdoka": 851,
      "Ġoko": 852,
      "30": 853,
      "Ġja": 854,
      "Ġnana": 855,
      "Ġodgovo": 856,
      "Ġzlasti": 857,
      "Ġoprede": 858,
      "Ġjav": 859,
      "Ġeg": 860,
      "Ġdel": 861,
      "Ġnjiho": 862,
      "Ġtemelj": 863,
      "Ġnanasa": 864,
      "Ġbrez": 865,
      "menta": 866,
      "Ġcelo": 867,
      "zem": 868,
      "Ġcr": 869,
      "Ġprimeru": 870,
      "robno": 871,
      "Ġus": 872,
      "Ġpostopka": 873,
      "Ġobdob": 874,
      "Ġupostevanju": 875,
      "Ġdejav": 876,
      "vane": 877,
      "Ġplaci": 878,
      "Ġven": 879,
      "Ġzahteva": 880,
      "Ġodstav": 881,
      "Ġdav": 882,
      "Ġregi": 883,
      "zen": 884,
      "Ġclanica": 885,
      "Ġizda": 886,
      "he": 887,
      "Ġveli": 888,
      "Ġdovolje": 889,
      "Ġkar": 890,
      "Ġizpodbij": 891,
      "Ġdela": 892,
      "Ġdrobno": 893,
      "Ġpov": 894,
      "Ġ100": 895,
      "stavi": 896,
      "Ġokviru": 897,
      "Ġucin": 898,
      "Ġsamo": 899,
      "gov": 900,
      "Ġsmis": 901,
      "Ġvod": 902,
      "Ġodloci": 903,
      "Ġdelo": 904,
      "50": 905,
      "al": 906,
      "racu": 907,
      "rje": 908,
      "Ġ2006": 909,
      "Ġvendar": 910,
      "Ġdrugo": 911,
      "Ġfi": 912,
      "Ġzne": 913,
      "Ġuporabo": 914,
      "Ġtocki": 915,
      "Ġ2009": 916,
      "dno": 917,
      "Ġge": 918,
      "21": 919,
      "haja": 920,
      "tere": 921,
      "Ġ40": 922,
      "kri": 923,
      "Ġodlocbe": 924,
      "Ġhi": 925,
      "bu": 926,
      "Ġnada": 927,
      "Ġkaterih": 928,
      "vesti": 929,
      "Ġzavr": 930,
      "ljanje": 931,
      "Ġzagotovi": 932,
      "vih": 933,
      "ov": 934,
      "Ġkra": 935,
      "Ġlo": 936,
      "Ġpomeni": 937,
      "Ġpravo": 938,
      "rt": 939,
      "Ġrav": 940,
      "ng": 941,
      "sc": 942,
      "Ġprak": 943,
      "Ġgospo": 944,
      "Ġri": 945,
      "ljivo": 946,
      "Ġdruzba": 947,
      "Ġ010": 948,
      "Ġsmislu": 949,
      "Ġ\"": 950,
      "nimi": 951,
      "Ġdejan": 952,
      "vec": 953,
      "fe": 954,
      "met": 955,
      "Ġozna": 956,
      "anju": 957,
      "Ġoprav": 958,
      "Ġprvi": 959,
      "Ġuredbo": 960,
      "rati": 961,
      "Ġprve": 962,
      "Ġpredhod": 963,
      "dome": 964,
      "manj": 965,
      "nju": 966,
      "gle": 967,
      "Ġnadome": 968,
      "Ġzadeva": 969,
      "Ġznam": 970,
      "cna": 971,
      "njo": 972,
      "Ġvseb": 973,
      "Ġpostopku": 974,
      "Ġ2004": 975,
      "Ġsplos": 976,
      "ranje": 977,
      "Ġprosto": 978,
      "Ġkg": 979,
      "rane": 980,
      "Ġav": 981,
      "stitu": 982,
      "Ġizhaja": 983,
      "arja": 984,
      "Ġpole": 985,
      "Ġ39": 986,
      "Ġva": 987,
      "Ġustrez": 988,
      "Ġsklep": 989,
      "Ġ01": 990,
      "Ġzdruze": 991,
      "stve": 992,
      "pli": 993,
      "lec": 994,
      "Ġspremem": 995,
      "Ġex": 996,
      "Ġvkljucno": 997,
      "lnih": 998,
      "vne": 999,
      "Ġpoleg": 1000,
      "Ġ2013": 1001,
      "Ġpodroc": 1002,
      "ktor": 1003,
      "tja": 1004,
      "Ġparla": 1005,
      "Ġ0106": 1006,
      "noda": 1007,
      "gen": 1008,
      "Ġ2008": 1009,
      "Ġzakonoda": 1010,
      "Ġvlo": 1011,
      "Ġopo": 1012,
      "nija": 1013,
      "un": 1014,
      "Ġodbo": 1015,
      "Ġbiti": 1016,
      "Ġvis": 1017,
      "Ġrepu": 1018,
      "uje": 1019,
      "ljena": 1020,
      "skem": 1021,
      "Ġtozeca": 1022,
      "Ġneka": 1023,
      "Ġ32": 1024,
      "Ġnalo": 1025,
      "Ġobveznosti": 1026,
      "ravi": 1027,
      "rej": 1028,
      "Ġgospodar": 1029,
      "Ġpriloge": 1030,
      "86": 1031,
      "Ġinstitu": 1032,
      "redno": 1033,
      "Ġ>": 1034,
      "Ġvrednost": 1035,
      "Ġpotreb": 1036,
      "nika": 1037,
      "Ġzace": 1038,
      "Ġpodatkov": 1039,
      "Ġoseb": 1040,
      "Ġstrani": 1041,
      "Ġsub": 1042,
      "Ġupravi": 1043,
      "Ġproizvaja": 1044,
      "Ġdolocbe": 1045,
      "Ġuporabe": 1046,
      "Ġvla": 1047,
      "Ġproda": 1048,
      "Ġclenu": 1049,
      "Ġ2003": 1050,
      "Ġkadar": 1051,
      "Ġrepubli": 1052,
      "Ġorgan": 1053,
      "rin": 1054,
      "Ġdece": 1055,
      "Ġdol": 1056,
      "Ġan": 1057,
      "90": 1058,
      "11": 1059,
      "Ġegs": 1060,
      "Ġtej": 1061,
      "vu": 1062,
      "Ġ33": 1063,
      "lnega": 1064,
      "Ġnavedene": 1065,
      "var": 1066,
      "lija": 1067,
      "tav": 1068,
      "gotav": 1069,
      "Ġobli": 1070,
      "Ġpreso": 1071,
      "Ġizpol": 1072,
      "tek": 1073,
      "80": 1074,
      "Ġtemeljni": 1075,
      "Ġzgoraj": 1076,
      "Ġ36": 1077,
      "Ġizva": 1078,
      "Ġlast": 1079,
      "Ġnadomesti": 1080,
      "Ġdrugih": 1081,
      "Ġvozi": 1082,
      "Ġsko": 1083,
      "spe": 1084,
      "il": 1085,
      "velja": 1086,
      "Ġdoku": 1087,
      "Ġ37": 1088,
      "Ġ2007": 1089,
      "Ġmore": 1090,
      "Ġdejavnosti": 1091,
      "Ġap": 1092,
      "Ġvseh": 1093,
      "Ġ35": 1094,
      "Ġpres": 1095,
      "stru": 1096,
      "Ġ2014": 1097,
      "Ġfirb": 1098,
      "Ġsodba": 1099,
      "Ġposa": 1100,
      "Ġsodbo": 1101,
      "Ġpravice": 1102,
      "Ġpovez": 1103,
      "Ġba": 1104,
      "Ġmar": 1105,
      "sega": 1106,
      "Ġmoz": 1107,
      "Ġ34": 1108,
      "Ġpritozbe": 1109,
      "lisci": 1110,
      "lom": 1111,
      "Ġtret": 1112,
      "jek": 1113,
      "Ġnove": 1114,
      "Ġdecembra": 1115,
      "Ġpostopek": 1116,
      "Ġstevil": 1117,
      "Ġtozbe": 1118,
      "Ġuredbi": 1119,
      "Ġtocke": 1120,
      "Ġnepos": 1121,
      "cnega": 1122,
      "riti": 1123,
      "Ġ2011": 1124,
      "Ġpolo": 1125,
      "sne": 1126,
      "Ġ000": 1127,
      "Ġuradni": 1128,
      "ty": 1129,
      "sca": 1130,
      "Ġizved": 1131,
      "Ġvlozi": 1132,
      "teme": 1133,
      "Ġbese": 1134,
      "Ġdruga": 1135,
      "Ġsode": 1136,
      "Ġnavedeno": 1137,
      "Ġobvesti": 1138,
      "Ġodob": 1139,
      "moc": 1140,
      "Ġstoritev": 1141,
      "Ġlist": 1142,
      "ul": 1143,
      "Ġevropskega": 1144,
      "ciji": 1145,
      "ment": 1146,
      "Ġ38": 1147,
      "mp": 1148,
      "Ġpredpis": 1149,
      "Ġsodbe": 1150,
      "qu": 1151,
      "ljeno": 1152,
      "Ġ2005": 1153,
      "Ġak": 1154,
      "tr": 1155,
      "nemu": 1156,
      "ledi": 1157,
      "Ġmne": 1158,
      "Ġkomisiji": 1159,
      "Ġdrzavi": 1160,
      "skov": 1161,
      "Ġ99": 1162,
      "vede": 1163,
      "Ġtak": 1164,
      "Ġelek": 1165,
      "Ġokolisci": 1166,
      "cen": 1167,
      "lna": 1168,
      "Ġ2001": 1169,
      "Ġfe": 1170,
      "Ġ02": 1171,
      "mogo": 1172,
      "kovi": 1173,
      "javi": 1174,
      "bra": 1175,
      "Ġpoli": 1176,
      "Ġdaja": 1177,
      "ver": 1178,
      "Ġvprasanje": 1179,
      "kr": 1180,
      "Ġtri": 1181,
      "nik": 1182,
      "Ġtoz": 1183,
      "Ġmateri": 1184,
      "rov": 1185,
      "Ġsplosno": 1186,
      "Ġodgovor": 1187,
      "Ġosno": 1188,
      "Ġnepre": 1189,
      "Ġ2012": 1190,
      "Ġobraz": 1191,
      "Ġizvo": 1192,
      "Ġuporabljajo": 1193,
      "Ġbili": 1194,
      "Ġfran": 1195,
      "Ġvpli": 1196,
      "Ġsl": 1197,
      "cuje": 1198,
      "Ġglavni": 1199,
      "Ġvrednosti": 1200,
      "000": 1201,
      "tri": 1202,
      "pov": 1203,
      "Ġ*": 1204,
      "Ġsklepa": 1205,
      "zor": 1206,
      "Ġpoloza": 1207,
      "ljene": 1208,
      "94": 1209,
      "ljen": 1210,
      "njena": 1211,
      "Ġinformacije": 1212,
      "Ġdatu": 1213,
      "iska": 1214,
      "Ġdej": 1215,
      "Ġdele": 1216,
      "Ġ84": 1217,
      "Ġopredeli": 1218,
      "lago": 1219,
      "Ġnavedena": 1220,
      "Ġ60": 1221,
      "Ġ41": 1222,
      "vani": 1223,
      "Ġstoritve": 1224,
      "vari": 1225,
      "vno": 1226,
      "Ġukrepi": 1227,
      "cer": 1228,
      "Ġracu": 1229,
      "Ġkatero": 1230,
      "Ġzavez": 1231,
      "niti": 1232,
      "Ġspor": 1233,
      "Ġnjego": 1234,
      "stra": 1235,
      "ode": 1236,
      "ljanja": 1237,
      "tvijo": 1238,
      "Ġen": 1239,
      "Ġpotr": 1240,
      "Ġcc": 1241,
      "Ġj": 1242,
      "stvu": 1243,
      "stev": 1244,
      "stavek": 1245,
      "Ġsvoje": 1246,
      "Ġstopnje": 1247,
      "Ġparlamenta": 1248,
      "odo": 1249,
      "glav": 1250,
      "Ġho": 1251,
      "Ġskupi": 1252,
      "Ġuteme": 1253,
      "Ġrazpo": 1254,
      "Ġponu": 1255,
      "Ġnadalje": 1256,
      "Ġmanj": 1257,
      "Ġzapos": 1258,
      "Ġ85": 1259,
      "ho": 1260,
      "Ġizklju": 1261,
      "Ġpredlozitve": 1262,
      "cia": 1263,
      "Ġjunija": 1264,
      "Ġ05": 1265,
      "Ġomogo": 1266,
      "Ġsvet": 1267,
      "Ġpomoci": 1268,
      "Ġizpodbijane": 1269,
      "Ġobmoc": 1270,
      "Ġizvaja": 1271,
      "ljajo": 1272,
      "Ġkakor": 1273,
      "Ġ2002": 1274,
      "Ġoci": 1275,
      "Ġ43": 1276,
      "Ġodstavka": 1277,
      "Ġtorej": 1278,
      "Ġkaterem": 1279,
      "Ġnaved": 1280,
      "Ġskli": 1281,
      "Ġomeji": 1282,
      "70": 1283,
      "hi": 1284,
      "Ġprava": 1285,
      "Ġdirektiva": 1286,
      "Ġtari": 1287,
      "ten": 1288,
      "Ġpoglav": 1289,
      "dela": 1290,
      "Ġuvoz": 1291,
      "vala": 1292,
      "zorec": 1293,
      "rek": 1294,
      "dobi": 1295,
      "anih": 1296,
      "tih": 1297,
      "Ġvzorec": 1298,
      "Ġplo": 1299,
      "Ġ42": 1300,
      "novi": 1301,
      "Ġzahteve": 1302,
      "60": 1303,
      "Ġ44": 1304,
      "Ġstan": 1305,
      "fika": 1306,
      "Ġjulija": 1307,
      "micni": 1308,
      "Ġnem": 1309,
      "Ġof": 1310,
      "Ġpregle": 1311,
      "tt": 1312,
      "Ġ2010": 1313,
      "Ġ54": 1314,
      "Ġpove": 1315,
      "Ġdelov": 1316,
      "Ġdode": 1317,
      "Ġizvr": 1318,
      "Ġ45": 1319,
      "Ġprogra": 1320,
      "Ġposame": 1321,
      "Ġzastop": 1322,
      "Ġ91": 1323,
      "Ġene": 1324,
      "lan": 1325,
      "tka": 1326,
      "Ġstvari": 1327,
      "Ġdostop": 1328,
      "Ġuredi": 1329,
      "Ġproizvajal": 1330,
      "Ġtrgo": 1331,
      "Ġ2015": 1332,
      "Ġrazlaga": 1333,
      "Ġzagotav": 1334,
      "Ġpodjetja": 1335,
      "stan": 1336,
      "Ġstroskov": 1337,
      "kuren": 1338,
      "Ġ2016": 1339,
      "Ġnapa": 1340,
      "tju": 1341,
      "Ġkme": 1342,
      "teka": 1343,
      "mov": 1344,
      "Ġzdrav": 1345,
      "Ġpridobi": 1346,
      "Ġkaterega": 1347,
      "Ġokto": 1348,
      "Ġjan": 1349,
      "roma": 1350,
      "Ġindu": 1351,
      "Ġinter": 1352,
      "odi": 1353,
      "Ġ52": 1354,
      "Ġpogoji": 1355,
      "Ġji": 1356,
      "Ġpriloga": 1357,
      "Ġzasci": 1358,
      "op": 1359,
      "Ġmateria": 1360,
      "jni": 1361,
      "Ġslo": 1362,
      "Ġstandar": 1363,
      "jno": 1364,
      "Ġpreno": 1365,
      "zne": 1366,
      "Ġmeni": 1367,
      "Ġmorajo": 1368,
      "Ġsicer": 1369,
      "Ġsmer": 1370,
      "Ġana": 1371,
      "Ġ80": 1372,
      "Ġsklad": 1373,
      "ĠÎ": 1374,
      "Ġpodob": 1375,
      "Ġpresku": 1376,
      "sna": 1377,
      "Ġsodiscu": 1378,
      "Ġzahtev": 1379,
      "Ġurad": 1380,
      "dr": 1381,
      "Ġsezna": 1382,
      "Ġustre": 1383,
      "nera": 1384,
      "anov": 1385,
      "Ġbile": 1386,
      "Ġ95": 1387,
      "lih": 1388,
      "Ġuvo": 1389,
      "Ġnobe": 1390,
      "31": 1391,
      "nami": 1392,
      "ur": 1393,
      "Ġprepo": 1394,
      "Ġmeri": 1395,
      "Ġindustri": 1396,
      "Ġban": 1397,
      "tion": 1398,
      "Ġoktobra": 1399,
      "Ġpotrdi": 1400,
      "Ġ0086": 1401,
      "Ġdan": 1402,
      "Ġbesedi": 1403,
      "Ġintere": 1404,
      "Ġjanu": 1405,
      "Ġpose": 1406,
      "cih": 1407,
      "tva": 1408,
      "Ġtran": 1409,
      "jema": 1410,
      "Ġnepremicni": 1411,
      "Ġ70": 1412,
      "Ġizracu": 1413,
      "Ġmarca": 1414,
      "Ġomeje": 1415,
      "Ġmet": 1416,
      "pte": 1417,
      "Ġprej": 1418,
      "staja": 1419,
      "Ġtehni": 1420,
      "sek": 1421,
      "Ġ46": 1422,
      "finan": 1423,
      "Ġ49": 1424,
      "pr": 1425,
      "Ġkonkuren": 1426,
      "tnega": 1427,
      "Ġsistema": 1428,
      "ntra": 1429,
      "zno": 1430,
      "Ġucinkovi": 1431,
      "deu": 1432,
      "vano": 1433,
      "ts": 1434,
      "Ġtarif": 1435,
      "lin": 1436,
      "Ġ48": 1437,
      "vnih": 1438,
      "Ġ51": 1439,
      "Ġdelu": 1440,
      "Ġele": 1441,
      "Ġizvedbe": 1442,
      "Ġ2017": 1443,
      "Ġosebe": 1444,
      "vega": 1445,
      "Ġnaslednje": 1446,
      "Ġ96": 1447,
      "Ġpdeu": 1448,
      "Ġpreu": 1449,
      "Ġpi": 1450,
      "Ġsepte": 1451,
      "lijo": 1452,
      "Ġ55": 1453,
      "Ġagen": 1454,
      "um": 1455,
      "tom": 1456,
      "Ġukrepov": 1457,
      "Ġkralje": 1458,
      "Ġclanic": 1459,
      "Ġfa": 1460,
      "Ġnavedeni": 1461,
      "Ġpredlog": 1462,
      "Ġsporazuma": 1463,
      "Ġ2000": 1464,
      "22": 1465,
      "Ġstevi": 1466,
      "Ġkako": 1467,
      "ksi": 1468,
      "nah": 1469,
      "Ġkrsitev": 1470,
      "zn": 1471,
      "sen": 1472,
      "Ġcarin": 1473,
      "Ġopre": 1474,
      "dnje": 1475,
      "Ġzaca": 1476,
      "Ġneposredno": 1477,
      "Ġvelikih": 1478,
      "vajo": 1479,
      "Ġpripo": 1480,
      "Ġnam": 1481,
      "Ġinformacij": 1482,
      "Ġmu": 1483,
      "Ġiii": 1484,
      "Ġdrzavlj": 1485,
      "Ġsektor": 1486,
      "naro": 1487,
      "Ġ?": 1488,
      "rom": 1489,
      "Ġblaga": 1490,
      "Ġstranki": 1491,
      "skim": 1492,
      "pita": 1493,
      "Ġizraz": 1494,
      "Ġnamen": 1495,
      "Ġmerila": 1496,
      "Ġplacilo": 1497,
      "Ġlc": 1498,
      "Ġlu": 1499,
      "nostjo": 1500,
      "Ġmednaro": 1501,
      "Ġ92": 1502,
      "Ġpreiska": 1503,
      "Ġ53": 1504,
      "Ġnamrec": 1505,
      "Ġsredstva": 1506,
      "mbe": 1507,
      "Ġos": 1508,
      "Ġure": 1509,
      "Ġnadaljevanju": 1510,
      "Ġuvod": 1511,
      "Ġnadzor": 1512,
      "Ġseptembra": 1513,
      "len": 1514,
      "Ġproizvodov": 1515,
      "Ġnadzo": 1516,
      "Ġnovembra": 1517,
      "Ġpou": 1518,
      "Ġru": 1519,
      "Ġ47": 1520,
      "Ġkmetij": 1521,
      "Ġ93": 1522,
      "Ġpredvi": 1523,
      "cine": 1524,
      "Ġprene": 1525,
      "glasi": 1526,
      "Ġ2018": 1527,
      "kli": 1528,
      "ljeni": 1529,
      "Ġclanici": 1530,
      "Ġoseba": 1531,
      "Ġobrazlozi": 1532,
      "Ġizja": 1533,
      "Ġprebi": 1534,
      "janja": 1535,
      "Ġmaja": 1536,
      "Ġ94": 1537,
      "tan": 1538,
      "Ġnacionalni": 1539,
      "Ġorganiza": 1540,
      "Ġzele": 1541,
      "feren": 1542,
      "rocila": 1543,
      "rih": 1544,
      "vanjem": 1545,
      "Ġdolocba": 1546,
      "bru": 1547,
      "Ġnefinan": 1548,
      "Ġupravice": 1549,
      "Ġpravico": 1550,
      "Ġjanuarja": 1551,
      "Ġnu": 1552,
      "ljenih": 1553,
      "Ġnot": 1554,
      "Ġodobri": 1555,
      "Ġzmanj": 1556,
      "sanje": 1557,
      "Ġmese": 1558,
      "Ġjezi": 1559,
      "njem": 1560,
      "Ġravni": 1561,
      "Ġ1999": 1562,
      "Ġ59": 1563,
      "Ġsistem": 1564,
      "nar": 1565,
      "ujejo": 1566,
      "Ġopis": 1567,
      "Ġhtt": 1568,
      "cr": 1569,
      "Ġpravic": 1570,
      "Ġaprila": 1571,
      "Ġsaj": 1572,
      "Ġgenera": 1573,
      "Ġpoob": 1574,
      "Ġhttp": 1575,
      "Ġtozece": 1576,
      "Ġoh": 1577,
      "Ġznesek": 1578,
      "Ġ57": 1579,
      "Ġozi": 1580,
      "Ġdejansko": 1581,
      "Ġope": 1582,
      "Ġnalozi": 1583,
      "ranja": 1584,
      "Ġâī": 1585,
      "Ġ61": 1586,
      "Ġmini": 1587,
      "Ġpis": 1588,
      "Ġpomoc": 1589,
      "Ġar": 1590,
      "veljavi": 1591,
      "Ġpravila": 1592,
      "Ġnefinancne": 1593,
      "citi": 1594,
      "Ġzavrni": 1595,
      "gori": 1596,
      "Ġzado": 1597,
      "Ġzop": 1598,
      "Ġsredstev": 1599,
      "Ġtemelji": 1600,
      "Ġsla": 1601,
      "Ġimajo": 1602,
      "Ġposledi": 1603,
      "Ġvol": 1604,
      "Ġtretji": 1605,
      "Ġodlocanje": 1606,
      "Ġpoja": 1607,
      "Ġmas": 1608,
      "Ġcene": 1609,
      "kega": 1610,
      "Ġozem": 1611,
      "mentov": 1612,
      "Ġ56": 1613,
      "Ġoziroma": 1614,
      "snje": 1615,
      "Ġveljav": 1616,
      "Ġodlocbo": 1617,
      "Ġ65": 1618,
      "Ġpredmet": 1619,
      "Ġobstaja": 1620,
      "Ġ98": 1621,
      "Ġdrugim": 1622,
      "Ġpredlaga": 1623,
      "Ġtrgu": 1624,
      "Ġprilogi": 1625,
      "Ġanali": 1626,
      "Ġ87": 1627,
      "Ġprispe": 1628,
      "Ġizpolnje": 1629,
      "Ġlisti": 1630,
      "Ġpredhodno": 1631,
      "Ġceloti": 1632,
      "Ġdve": 1633,
      "Ġpotro": 1634,
      "Ġuskla": 1635,
      "Ġsodelo": 1636,
      "Ġita": 1637,
      "Ġzn": 1638,
      "Ġzakon": 1639,
      "Ġ71": 1640,
      "Ġsnovi": 1641,
      "Ġener": 1642,
      "jme": 1643,
      "Ġnekateri": 1644,
      "Ġfebru": 1645,
      "Ġbru": 1646,
      "Ġnaslednji": 1647,
      "Ġspa": 1648,
      "meri": 1649,
      "jekti": 1650,
      "Ġnacelo": 1651,
      "Ġdis": 1652,
      "ljivosti": 1653,
      "Ġsubjek": 1654,
      "Ġrazvo": 1655,
      "Ġ2019": 1656,
      "Ġpodod": 1657,
      "zena": 1658,
      "vin": 1659,
      "Ġodstavek": 1660,
      "fici": 1661,
      "Ġnavaja": 1662,
      "Ġznamke": 1663,
      "til": 1664,
      "Ġizvajanje": 1665,
      "Ġceprav": 1666,
      "Ġsprejme": 1667,
      "Ġ75": 1668,
      "Ġkapita": 1669,
      "99": 1670,
      "rat": 1671,
      "Ġobveznost": 1672,
      "Ġopravi": 1673,
      "Ġvzpo": 1674,
      "Ġustrezno": 1675,
      "Ġ08": 1676,
      "Ġrazlog": 1677,
      "Ġ58": 1678,
      "Ġleto": 1679,
      "cem": 1680,
      "Ġukrepe": 1681,
      "Ġzadevni": 1682,
      "Ġzavarovane": 1683,
      "Ġinstru": 1684,
      "Ġizre": 1685,
      "Ġstali": 1686,
      "Ġpodatki": 1687,
      "Ġhipo": 1688,
      "Ġprepre": 1689,
      "Ġobdobje": 1690,
      "Ġrazvi": 1691,
      "gotov": 1692,
      "Ġpogodbeni": 1693,
      "el": 1694,
      "Ġsede": 1695,
      "Ġcas": 1696,
      "Ġpritoz": 1697,
      "Ġokvir": 1698,
      "Ġkategori": 1699,
      "Ġdose": 1700,
      "Ġzivali": 1701,
      "mbi": 1702,
      "pust": 1703,
      "sedni": 1704,
      "Ġprvo": 1705,
      "Ġvsebuje": 1706,
      "Ġpomemb": 1707,
      "Ġfebruarja": 1708,
      "Ġobdobju": 1709,
      "Ġfo": 1710,
      "Ġâī¤": 1711,
      "Ġsodbi": 1712,
      "Ġglo": 1713,
      "vna": 1714,
      "Ġ64": 1715,
      "Ġdrzavah": 1716,
      "valni": 1717,
      "Ġtele": 1718,
      "njih": 1719,
      "Ġniti": 1720,
      "Ġpravica": 1721,
      "ktu": 1722,
      "Ġ63": 1723,
      "Ġakti": 1724,
      "Ġ97": 1725,
      "tra": 1726,
      "denti": 1727,
      "Ġ62": 1728,
      "cil": 1729,
      "Ġdolocb": 1730,
      "Ġpredlozitveno": 1731,
      "godi": 1732,
      "Î±": 1733,
      "Ġvarnost": 1734,
      "Ġdoloceno": 1735,
      "Ġy": 1736,
      "Ġpredvide": 1737,
      "Ġposlo": 1738,
      "Ġgre": 1739,
      "Ġzoper": 1740,
      "Ġnic": 1741,
      "Ġspe": 1742,
      "Ġ09": 1743,
      "Ġdoba": 1744,
      "Ġ81": 1745,
      "kon": 1746,
      "Ġdelav": 1747,
      "us": 1748,
      "Ġgra": 1749,
      "delek": 1750,
      "Ġrazveljavi": 1751,
      "Ġ0094": 1752,
      "Ġ88": 1753,
      "Ġ73": 1754,
      "Ġpovz": 1755,
      "Ġpristojni": 1756,
      "Ġpovr": 1757,
      "ĠâĢĺ": 1758,
      "aj": 1759,
      "dne": 1760,
      "Ġnaslov": 1761,
      "Ġravn": 1762,
      "Ġrez": 1763,
      "Ġodlocba": 1764,
      "Ġvozila": 1765,
      "menti": 1766,
      "Ġzra": 1767,
      "fa": 1768,
      "Ġrazglasi": 1769,
      "Ġvsebi": 1770,
      "Ġprev": 1771,
      "oda": 1772,
      "Ġnavedenih": 1773,
      "Ġobre": 1774,
      "Ġpoliti": 1775,
      "qui": 1776,
      "Ġlastni": 1777,
      "Ġposlov": 1778,
      "Ġzakona": 1779,
      "Ġkomisijo": 1780,
      "janju": 1781,
      "tem": 1782,
      "Ġsplosnega": 1783,
      "12": 1784,
      "rs": 1785,
      "Ġkonven": 1786,
      "Ġdd": 1787,
      "Ġww": 1788,
      "th": 1789,
      "Ġpodrocju": 1790,
      "Ġrazmer": 1791,
      "znik": 1792,
      "Ġog": 1793,
      "eil": 1794,
      "Ġcemer": 1795,
      "Ġ72": 1796,
      "sov": 1797,
      "Ġreferen": 1798,
      "Ġrecu": 1799,
      "Ġpresega": 1800,
      "13": 1801,
      "Î¿": 1802,
      "Ġha": 1803,
      "Ġrecueil": 1804,
      "Ġsena": 1805,
      "Ġmotor": 1806,
      "Ġpodjetje": 1807,
      "Ġkri": 1808,
      "Ġrazlagati": 1809,
      "Ġwww": 1810,
      "snih": 1811,
      "Ġkrsitve": 1812,
      "Ġ07": 1813,
      "Ġobse": 1814,
      "mba": 1815,
      "Ġzadevne": 1816,
      "Ġpotrosni": 1817,
      "rano": 1818,
      "mina": 1819,
      "93": 1820,
      "Ġvzor": 1821,
      "Ġelektro": 1822,
      "Ġpravno": 1823,
      "15": 1824,
      "Ġuporaba": 1825,
      "Ġnapra": 1826,
      "Ġnajvec": 1827,
      "Ġpravil": 1828,
      "Ġdolocene": 1829,
      "rni": 1830,
      "Ġproizvode": 1831,
      "dov": 1832,
      "rana": 1833,
      "jske": 1834,
      "Ġ198": 1835,
      "Ġsti": 1836,
      "ĠÂ": 1837,
      "Ġvoljo": 1838,
      "Ġpoveza": 1839,
      "pad": 1840,
      "Ġneza": 1841,
      "Ġnamene": 1842,
      "Ġpredsedni": 1843,
      "Ġmilijo": 1844,
      "Ġbistve": 1845,
      "logi": 1846,
      "Ġ67": 1847,
      "Ġ74": 1848,
      "Ġstrank": 1849,
      "es": 1850,
      "Ġtretje": 1851,
      "Ġnavedenega": 1852,
      "Ġ66": 1853,
      "Ġ68": 1854,
      "dele": 1855,
      "Ġblago": 1856,
      "Ġnepremicninami": 1857,
      "Ġsprejetje": 1858,
      "Ġdirektivo": 1859,
      "mpin": 1860,
      "Ġpredstav": 1861,
      "Ġtraj": 1862,
      "Ġizvede": 1863,
      "Ġhipoteka": 1864,
      "Ġthe": 1865,
      "Ġregistra": 1866,
      "Ġdovoljenja": 1867,
      "mne": 1868,
      "Ġlt": 1869,
      "Ġzavarovano": 1870,
      "Ġpraksa": 1871,
      "Ġ78": 1872,
      "Ġnaza": 1873,
      "Ġmoznost": 1874,
      "Ġobra": 1875,
      "Ġddv": 1876,
      "Ġdobi": 1877,
      "skimi": 1878,
      "Ġrepublika": 1879,
      "Ġobsto": 1880,
      "Ġpoglavje": 1881,
      "Ġzacne": 1882,
      "Ġred": 1883,
      "Ġprevo": 1884,
      "Ġkakr": 1885,
      "Ġstroski": 1886,
      "Ġugotoviti": 1887,
      "Ġkakovo": 1888,
      "Ġ89": 1889,
      "Ġdatum": 1890,
      "Ġomogoca": 1891,
      "Ġodstop": 1892,
      "Ġenergi": 1893,
      "lca": 1894,
      "Ġpodpo": 1895,
      "Ġvprasanja": 1896,
      "Ġzmo": 1897,
      "rocilo": 1898,
      "Ġproizvodi": 1899,
      "Ġbodo": 1900,
      "Ġke": 1901,
      "Î¹": 1902,
      "Ġneob": 1903,
      "Ġam": 1904,
      "Ġcen": 1905,
      "Ġprizna": 1906,
      "sli": 1907,
      "Ġvrste": 1908,
      "Ġ83": 1909,
      "cila": 1910,
      "sem": 1911,
      "Ġtocko": 1912,
      "Ġneu": 1913,
      "Ġcilj": 1914,
      "Ġtra": 1915,
      "stih": 1916,
      "vizi": 1917,
      "Ġodbor": 1918,
      "mom": 1919,
      "Ġskupaj": 1920,
      "Ġ77": 1921,
      "Ġ76": 1922,
      "Ġspremeni": 1923,
      "Ġcon": 1924,
      "ĠâĢļ": 1925,
      "Ġizdelka": 1926,
      "Ġrazlogov": 1927,
      "Ġodbora": 1928,
      "Ġhipotekami": 1929,
      "Ġvsaj": 1930,
      "Ġudele": 1931,
      "Ġkonce": 1932,
      "Ġizpolnju": 1933,
      "Ġfun": 1934,
      "Ġ06": 1935,
      "Ġdvo": 1936,
      "Ġinstitucije": 1937,
      "Ġsklice": 1938,
      "Ġvsako": 1939,
      "vis": 1940,
      "Ġmnenju": 1941,
      "Ġveljati": 1942,
      "Ġ69": 1943,
      "Ġnacela": 1944,
      "Ġnekaterih": 1945,
      "Ġ79": 1946,
      "polni": 1947,
      "Ġizvoz": 1948,
      "Ġidenti": 1949,
      "Ġnatan": 1950,
      "Ġponov": 1951,
      "klo": 1952,
      "Ġupostevati": 1953,
      "Ġribo": 1954,
      "Ġsodna": 1955,
      "Ġspada": 1956,
      "Ġdrugega": 1957,
      "Ġkori": 1958,
      "gled": 1959,
      "Ġposred": 1960,
      "prej": 1961,
      "nito": 1962,
      "Ġdob": 1963,
      "Ġnanasajo": 1964,
      "Ġnasprotju": 1965,
      "Ġnadalj": 1966,
      "pla": 1967,
      "Ġtemu": 1968,
      "Ġobi": 1969,
      "Ġtrditve": 1970,
      "Ġpriprav": 1971,
      "Ġpodrob": 1972,
      "niki": 1973,
      "Ġustano": 1974,
      "jajo": 1975,
      "Ġ2020": 1976,
      "pom": 1977,
      "ulta": 1978,
      "14": 1979,
      "Ġnedo": 1980,
      "Ġstevilo": 1981,
      "Ġjavnega": 1982,
      "Ġrezulta": 1983,
      "Ġpreve": 1984,
      "Ġvisi": 1985,
      "Ġdajatev": 1986,
      "Ġclanicah": 1987,
      "Ġnacr": 1988,
      "Ġnosi": 1989,
      "Ġnazadnje": 1990,
      "Ġeni": 1991,
      "Ġequi": 1992,
      "stitev": 1993,
      "Ġobravnavane": 1994,
      "Ġseznam": 1995,
      "Ġslu": 1996,
      "Ġ86": 1997,
      "kcije": 1998,
      "Ġopera": 1999,
      "Ġmor": 2000,
      "Ġcetr": 2001,
      "Ġdu": 2002,
      "Ġslad": 2003,
      "Ġpritozni": 2004,
      "Ġbel": 2005,
      "Ġugotovitev": 2006,
      "Ġmilijonov": 2007,
      "Ġprihod": 2008,
      "Ġobliki": 2009,
      "Ġdajatve": 2010,
      "Ġdruzbi": 2011,
      "anjem": 2012,
      "Ġporo": 2013,
      "Ġelektri": 2014,
      "Ġnajmanj": 2015,
      "citev": 2016,
      "Ġucinkovito": 2017,
      "Ġobica": 2018,
      "Ġstroske": 2019,
      "Ġpogoje": 2020,
      "Ġdeli": 2021,
      "Ġpravne": 2022,
      "Ġcom": 2023,
      "veljav": 2024,
      "vila": 2025,
      "Ġgi": 2026,
      "Ġitali": 2027,
      "Ġpreje": 2028,
      "jne": 2029,
      "Ġstatu": 2030,
      "23": 2031,
      "Ġtozba": 2032,
      "vice": 2033,
      "Ġprever": 2034,
      "Ġau": 2035,
      "Ġdodeli": 2036,
      "fo": 2037,
      "rti": 2038,
      "zene": 2039,
      "Ġkaterimi": 2040,
      "Ġkole": 2041,
      "Ġspremenjena": 2042,
      "scina": 2043,
      "Ġnacin": 2044,
      "Ġiste": 2045,
      "cy": 2046,
      "Ġobrazlozitve": 2047,
      "Ġvarnosti": 2048,
      "Ġfinanci": 2049,
      "Ġprvega": 2050,
      "Ġimetni": 2051,
      "brani": 2052,
      "24": 2053,
      "Ġuvr": 2054,
      "Ġveljavnosti": 2055,
      "Ġdomne": 2056,
      "Ġdolocena": 2057,
      "Ġtrga": 2058,
      "ujo": 2059,
      "Ġenako": 2060,
      "Ġzakonodaja": 2061,
      "Ġequity": 2062,
      "Ġpredhodne": 2063,
      "Ġ03": 2064,
      "Ġpojasni": 2065,
      "tega": 2066,
      "Ġopozo": 2067,
      "Ġcentra": 2068,
      "ceno": 2069,
      "Ġclenov": 2070,
      "Ġpristojnosti": 2071,
      "Ġpode": 2072,
      "Ġutemelji": 2073,
      "Ġvidi": 2074,
      "Ġmorebi": 2075,
      "Ġek": 2076,
      "dro": 2077,
      "Ġniz": 2078,
      "tku": 2079,
      "Ġizgu": 2080,
      "lati": 2081,
      "Ġnekatere": 2082,
      "Ġoddel": 2083,
      "Ġtake": 2084,
      "Ġpogojev": 2085,
      "Ġit": 2086,
      "Ġrazvidno": 2087,
      "Ġpodatke": 2088,
      "Ġ04": 2089,
      "Ġodlocitev": 2090,
      "Ġnamenje": 2091,
      "Ġprome": 2092,
      "Ġzadevnih": 2093,
      "01": 2094,
      "Ġvarstva": 2095,
      "Ġad": 2096,
      "Ġsvojih": 2097,
      "stane": 2098,
      "Ġevropska": 2099,
      "Ġusklaje": 2100,
      "Ġzad": 2101,
      "Ġgr": 2102,
      "Ġlet": 2103,
      "Ġand": 2104,
      "Ġsprejela": 2105,
      "Ġbar": 2106,
      "Ġ82": 2107,
      "Ġpouda": 2108,
      "Ġiv": 2109,
      "Ġlju": 2110,
      "Ġevropski": 2111,
      "Ġpolozaj": 2112,
      "Ġmm": 2113,
      "Ġokoliscinah": 2114,
      "Ġnotran": 2115,
      "Ġspod": 2116,
      "Ġskupine": 2117,
      "Ġpooblasti": 2118,
      "19": 2119,
      "zar": 2120,
      "Ġzahtevo": 2121,
      "Ġgro": 2122,
      "Ġzaposli": 2123,
      "Ġevropskih": 2124,
      "Ġplacila": 2125,
      "dbe": 2126,
      "Ġprila": 2127,
      "Ġvarstvo": 2128,
      "Ġpremo": 2129,
      "Ġugotov": 2130,
      "razmer": 2131,
      "sk": 2132,
      "ljivost": 2133,
      "Ġugovo": 2134,
      "Ġsodno": 2135,
      "Ġnizo": 2136,
      "Ġvpliva": 2137,
      "vetni": 2138,
      "Ġnepo": 2139,
      "nske": 2140,
      "Ġcilje": 2141,
      "Ġnjihove": 2142,
      "Ġch": 2143,
      "cena": 2144,
      "Ġklju": 2145,
      "Ġspremembe": 2146,
      "Ġkazni": 2147,
      "bolj": 2148,
      "Ġkvo": 2149,
      "Ġpostopkov": 2150,
      "Ġzajema": 2151,
      "Ġkazen": 2152,
      "jer": 2153,
      "Ġizdelki": 2154,
      "Ġstopnja": 2155,
      "ir": 2156,
      "ben": 2157,
      "cilo": 2158,
      "Ġtozbeni": 2159,
      "Ġat": 2160,
      "Ġjezik": 2161,
      "Ġfor": 2162,
      "plo": 2163,
      "Ġnara": 2164,
      "nikov": 2165,
      "Ġspeci": 2166,
      "Ġnizozem": 2167,
      "Ġprimerih": 2168,
      "Ġpodrocje": 2169,
      "Ġtransa": 2170,
      "Ġmest": 2171,
      "Ġmedi": 2172,
      "Ġrazkri": 2173,
      "Ġukrep": 2174,
      "Ġpravni": 2175,
      "Ġ'": 2176,
      "Ġznamka": 2177,
      "Ġsprem": 2178,
      "Ġeko": 2179,
      "Ġ101": 2180,
      "Ġkaterim": 2181,
      "Ġuposteva": 2182,
      "Ġplaca": 2183,
      "Ġrepublike": 2184,
      "Ġtveganja": 2185,
      "Ġvsebujejo": 2186,
      "Ġsan": 2187,
      "ljive": 2188,
      "Ġrazloga": 2189,
      "Ġdolocitvi": 2190,
      "Ġizdaja": 2191,
      "Ġodvetni": 2192,
      "jim": 2193,
      "dav": 2194,
      "ster": 2195,
      "Ġavto": 2196,
      "dnih": 2197,
      "Ġizvrsi": 2198,
      "Ġizpolni": 2199,
      "34": 2200,
      "vnega": 2201,
      "Ġhe": 2202,
      "Ġprvic": 2203,
      "Ġprilagodi": 2204,
      "Ġmaterialov": 2205,
      "Ġpresoja": 2206,
      "Ġ197": 2207,
      "Ġdolocitev": 2208,
      "znih": 2209,
      "Ġindi": 2210,
      "isi": 2211,
      "Ġsladkor": 2212,
      "Ġfinancne": 2213,
      "mini": 2214,
      "cujejo": 2215,
      "Ġustreza": 2216,
      "ck": 2217,
      "Ġprenos": 2218,
      "Ġemisi": 2219,
      "izku": 2220,
      "Ġ040": 2221,
      "Ġusta": 2222,
      "Ġizo": 2223,
      "Ġzgolj": 2224,
      "Ġrazpore": 2225,
      "Ġozemlju": 2226,
      "Ġsprejeti": 2227,
      "Ġupravlja": 2228,
      "Ġsestav": 2229,
      "mar": 2230,
      "Ġsenat": 2231,
      "Ġsporazum": 2232,
      "Ġodda": 2233,
      "jski": 2234,
      "Ġmorala": 2235,
      "tvah": 2236,
      "Ġpreizku": 2237,
      "Ġtozbo": 2238,
      "Ġdogovo": 2239,
      "Ġdenar": 2240,
      "Ġprakso": 2241,
      "Ġrazlogi": 2242,
      "Ġrast": 2243,
      "Ġspremembi": 2244,
      "Ġkjer": 2245,
      "Ġku": 2246,
      "Ġpor": 2247,
      "nski": 2248,
      "Ġizdela": 2249,
      "Ġ0000": 2250,
      "vana": 2251,
      "jave": 2252,
      "Ġpapi": 2253,
      "Ġvsi": 2254,
      "Ġag": 2255,
      "Ġodpad": 2256,
      "Ġzaseb": 2257,
      "33": 2258,
      "Ġobjavi": 2259,
      "Ġfranco": 2260,
      "Ġab": 2261,
      "Ġzavezujo": 2262,
      "Ġdolocen": 2263,
      "Ġom": 2264,
      "Ġneod": 2265,
      "Ġvlada": 2266,
      "Ġsocia": 2267,
      "Ġpokli": 2268,
      "Ġnasprotu": 2269,
      "Ġ104": 2270,
      "Ġfizi": 2271,
      "25": 2272,
      "Ġizdelkov": 2273,
      "Ġrazred": 2274,
      "Ġviso": 2275,
      "nsko": 2276,
      "Ġponudni": 2277,
      "Ġsodiscem": 2278,
      "Ġkvali": 2279,
      "Ġporek": 2280,
      "Ġugod": 2281,
      "Ġvode": 2282,
      "Ġ110": 2283,
      "16": 2284,
      "Ġnadzora": 2285,
      "Ġvzpostavi": 2286,
      "Ġpli": 2287,
      "Ġprejem": 2288,
      "Ġvodi": 2289,
      "Ġbelgi": 2290,
      "Ġobdela": 2291,
      "isce": 2292,
      "Ġvsak": 2293,
      "Ġsloven": 2294,
      "Ġdejavnost": 2295,
      "Ġpregled": 2296,
      "Ġdokumenta": 2297,
      "Ġ2021": 2298,
      "Ġmort": 2299,
      "min": 2300,
      "Ġpostav": 2301,
      "Ġobravnavani": 2302,
      "Ġsledi": 2303,
      "Ġzadevnega": 2304,
      "Ġobdav": 2305,
      "17": 2306,
      "ranih": 2307,
      "telj": 2308,
      "Ġizdajo": 2309,
      "Ġdruzi": 2310,
      "Ġdolocenih": 2311,
      "Ġoznaka": 2312,
      "Ġegp": 2313,
      "Ġveliko": 2314,
      "zer": 2315,
      "om": 2316,
      "Ġprimerno": 2317,
      "Ġpostopkom": 2318,
      "Ġkolici": 2319,
      "rajo": 2320,
      "Ġmeh": 2321,
      "zu": 2322,
      "Ġizd": 2323,
      "Ġopravlja": 2324,
      "Ġpovrsi": 2325,
      "tar": 2326,
      "che": 2327,
      "niz": 2328,
      "Ġrazvoj": 2329,
      "Ġpotrebno": 2330,
      "Ġrazporejanje": 2331,
      "Ġodsto": 2332,
      "mente": 2333,
      "Ġproce": 2334,
      "Ġdirektivi": 2335,
      "Ġmoznosti": 2336,
      "Ġopro": 2337,
      "Ġdolociti": 2338,
      "Ġhu": 2339,
      "29": 2340,
      "Ġkn": 2341,
      "Ġnato": 2342,
      "Ġskupni": 2343,
      "Ġtozena": 2344,
      "Ġbu": 2345,
      "Ġhomo": 2346,
      "Ġdokaz": 2347,
      "Ġustanovi": 2348,
      "Ġinte": 2349,
      "Ġsteje": 2350,
      "Ġsodne": 2351,
      "Ġslsc": 2352,
      "Ġprepove": 2353,
      "Ġshe": 2354,
      "Ġposlovni": 2355,
      "Ġnima": 2356,
      "vine": 2357,
      "som": 2358,
      "Ġustav": 2359,
      "Ġdrzavljan": 2360,
      "Ġsteti": 2361,
      "Ġzmog": 2362,
      "snega": 2363,
      "nj": 2364,
      "Ġpridob": 2365,
      "Ð°": 2366,
      "Ġnaro": 2367,
      "Ġzagotavlja": 2368,
      "pisa": 2369,
      "juje": 2370,
      "ciona": 2371,
      "Ġzadost": 2372,
      "Ġotro": 2373,
      "Ġnaslednjo": 2374,
      "Ġdrzavo": 2375,
      "anom": 2376,
      "Ġnacionalno": 2377,
      "Ġnet": 2378,
      "Ġkita": 2379,
      "jen": 2380,
      "Ġorganov": 2381,
      "Ġnjegove": 2382,
      "Ġizka": 2383,
      "vze": 2384,
      "Ġprojek": 2385,
      "Ġdelni": 2386,
      "Ġzbi": 2387,
      "Ġizracun": 2388,
      "Ġregistri": 2389,
      "Ġribolov": 2390,
      "Ġproto": 2391,
      "anega": 2392,
      "Ġpopo": 2393,
      "kle": 2394,
      "Ġsestavi": 2395,
      "Ġtozeci": 2396,
      "Ġdovoljenje": 2397,
      "Ġregu": 2398,
      "daj": 2399,
      "Ġureditev": 2400,
      "man": 2401,
      "cnimi": 2402,
      "cnim": 2403,
      "Ġprizn": 2404,
      "Ġprakse": 2405,
      "Ġveljajo": 2406,
      "Ġpreiskave": 2407,
      "Ġstevilka": 2408,
      "cijske": 2409,
      "Ġdokaza": 2410,
      "Ġzod": 2411,
      "Ġvsake": 2412,
      "nil": 2413,
      "Ġzaposle": 2414,
      "Ġnasta": 2415,
      "68": 2416,
      "pri": 2417,
      "Ġprevoz": 2418,
      "Ġtar": 2419,
      "Ġneiz": 2420,
      "Ġtrditev": 2421,
      "Ġbas": 2422,
      "Ġobravnavanem": 2423,
      "nati": 2424,
      "Ġvkljucuje": 2425,
      "Ġzdravstve": 2426,
      "Ġsodni": 2427,
      "Ġzadevna": 2428,
      "18": 2429,
      "Ġpromet": 2430,
      "Ġzodl": 2431,
      "Ġlistu": 2432,
      "Ġsorazmer": 2433,
      "Ġosnovne": 2434,
      "zeni": 2435,
      "Ġpoko": 2436,
      "Ġnezako": 2437,
      "Ġdokon": 2438,
      "Ġkro": 2439,
      "pak": 2440,
      "Ġprek": 2441,
      "Ġtrg": 2442,
      "cial": 2443,
      "Ġverje": 2444,
      "0000": 2445,
      "Ġsposto": 2446,
      "Ġuradnem": 2447,
      "Ġletal": 2448,
      "Ġnapo": 2449,
      "Ġdavka": 2450,
      "veni": 2451,
      "Ġzneska": 2452,
      "znika": 2453,
      "Ġtarifne": 2454,
      "Ġprepoved": 2455,
      "Ġvaro": 2456,
      "Ġdveh": 2457,
      "ss": 2458,
      "Ġobe": 2459,
      "Ġgori": 2460,
      "Ġbio": 2461,
      "Ġkakovosti": 2462,
      "Ġdejstvo": 2463,
      "ljanju": 2464,
      "Ġprotoko": 2465,
      "Ġzadeve": 2466,
      "unt": 2467,
      "Ġec": 2468,
      "Ġuveljav": 2469,
      "loga": 2470,
      "ll": 2471,
      "Ġsprejem": 2472,
      "Ġvkljuce": 2473,
      "Ġposebne": 2474,
      "Ġorgana": 2475,
      "Ġidentifika": 2476,
      "Ġnaslo": 2477,
      "Ġmle": 2478,
      "Ġstru": 2479,
      "dje": 2480,
      "cnem": 2481,
      "Ġspodbu": 2482,
      "Ġtretjih": 2483,
      "Ġzun": 2484,
      "Ġcp": 2485,
      "Ġimeno": 2486,
      "74": 2487,
      "Ġdruzbo": 2488,
      "Ġobseg": 2489,
      "Ġznacil": 2490,
      "Ġimen": 2491,
      "Ġil": 2492,
      "Ġzu": 2493,
      "Ġpogodba": 2494,
      "Ġugotav": 2495,
      "Ġpravobrani": 2496,
      "Ġmode": 2497,
      "Ġobliko": 2498,
      "Ġloka": 2499,
      "bej": 2500,
      "Ġohrani": 2501,
      "Ġampak": 2502,
      "Ġjim": 2503,
      "Ġ1998": 2504,
      "Ġltd": 2505,
      "ÏĦ": 2506,
      "Ġrazliko": 2507,
      "ravil": 2508,
      "Ġdrugic": 2509,
      "02": 2510,
      "Ġodvi": 2511,
      "Ġnaprave": 2512,
      "Ġzveze": 2513,
      "Ġstevilke": 2514,
      "Ġnajprej": 2515,
      "Ġposebej": 2516,
      "Ġposebna": 2517,
      "Ġodsko": 2518,
      "Ġoddelek": 2519,
      "ĠÐ": 2520,
      "Ġvii": 2521,
      "Ġtrgov": 2522,
      "graf": 2523,
      "Ġnjihovi": 2524,
      "Ġomejitev": 2525,
      "Ġodskodni": 2526,
      "Ġhk": 2527,
      "Ġspani": 2528,
      "Ġbolj": 2529,
      "Ġtockah": 2530,
      "Ġpokojni": 2531,
      "Ġuniji": 2532,
      "Ġpotrebne": 2533,
      "ks": 2534,
      "ljivih": 2535,
      "Ġzadevah": 2536,
      "jsko": 2537,
      "Ġzagotoviti": 2538,
      "glase": 2539,
      "car": 2540,
      "bri": 2541,
      "Ġir": 2542,
      "Ġbesedilo": 2543,
      "Ġpododstavek": 2544,
      "traj": 2545,
      "Ġkraj": 2546,
      "Ġpreto": 2547,
      "Ġugotovitve": 2548,
      "Ġpapir": 2549,
      "anji": 2550,
      "les": 2551,
      "Ġpl": 2552,
      "Ġfunk": 2553,
      "Ġdva": 2554,
      "Ġzem": 2555,
      "Ġopredelitev": 2556,
      "Ġzdruzene": 2557,
      "Ġsvojo": 2558,
      "Ġim": 2559,
      "jska": 2560,
      "nskih": 2561,
      "novod": 2562,
      "Ġvrsta": 2563,
      "Ġocenje": 2564,
      "tic": 2565,
      "Ġprede": 2566,
      "Ġustrezne": 2567,
      "Ġdohod": 2568,
      "krimina": 2569,
      "nitev": 2570,
      "Ġrezi": 2571,
      "Ġobve": 2572,
      "Ġnicnosti": 2573,
      "sani": 2574,
      "ol": 2575,
      "Ġdokazo": 2576,
      "Ġdopust": 2577,
      "Ġpu": 2578,
      "valnih": 2579,
      "Ġponovno": 2580,
      "Ġvstop": 2581,
      "Ġproizvodnjo": 2582,
      "Ġjasno": 2583,
      "cevanje": 2584,
      "Ġuspo": 2585,
      "Ġbistvu": 2586,
      "Ġkontro": 2587,
      "scini": 2588,
      "Ïģ": 2589,
      "nice": 2590,
      "tvami": 2591,
      "Ġdrugimi": 2592,
      "Ġpravnih": 2593,
      "Ġodpo": 2594,
      "Ġzno": 2595,
      "ljivi": 2596,
      "gal": 2597,
      "Ġnavedla": 2598,
      "jse": 2599,
      "Ġpoj": 2600,
      "Ġjavni": 2601,
      "ĠâĢĻ": 2602,
      "Ġuporabiti": 2603,
      "Ġaty": 2604,
      "Î½": 2605,
      "nic": 2606,
      "tori": 2607,
      "Ġnjihovo": 2608,
      "Ĥ¬": 2609,
      "Ġmcy": 2610,
      "Ġzaup": 2611,
      "Ġodbi": 2612,
      "ĠâĤ¬": 2613,
      "slo": 2614,
      "Ġzaje": 2615,
      "line": 2616,
      "Ġfinancnih": 2617,
      "Ġobdobja": 2618,
      "Ġsprememba": 2619,
      "Ġsvob": 2620,
      "Ġpotrebi": 2621,
      "Ġbrus": 2622,
      "Ġkonvencije": 2623,
      "telji": 2624,
      "Ġstu": 2625,
      "Ġpolj": 2626,
      "jskih": 2627,
      "Ġupravljanje": 2628,
      "Ġameri": 2629,
      "45": 2630,
      "Ġrazsi": 2631,
      "Ġpodpis": 2632,
      "Ġlistine": 2633,
      "Ġun": 2634,
      "Ġsch": 2635,
      "Ġdrugace": 2636,
      "Ġrevizi": 2637,
      "sob": 2638,
      "Ġposi": 2639,
      "ken": 2640,
      "ljiva": 2641,
      "Ġnemcija": 2642,
      "Ġkisli": 2643,
      "Ġfr": 2644,
      "res": 2645,
      "Ġpredpisov": 2646,
      "kra": 2647,
      "38": 2648,
      "Ġzvez": 2649,
      "Ġnaslednjim": 2650,
      "Ġres": 2651,
      "Ġkemi": 2652,
      "77": 2653,
      "Ġgeo": 2654,
      "vom": 2655,
      "Ġproracu": 2656,
      "Ġzdravi": 2657,
      "Ġletu": 2658,
      "Ġskupnost": 2659,
      "Ġzapo": 2660,
      "Ġizpodbija": 2661,
      "Ġpredlogov": 2662,
      "Ġ&": 2663,
      "naj": 2664,
      "Ġrib": 2665,
      "Ġdrzavami": 2666,
      "Ġzival": 2667,
      "Ġomejitve": 2668,
      "Ġverjetno": 2669,
      "Ġzascite": 2670,
      "ume": 2671,
      "jnih": 2672,
      "Ġitalijan": 2673,
      "Ġrazlicnih": 2674,
      "Ġpremi": 2675,
      "Ġpol": 2676,
      "odilo": 2677,
      "39": 2678,
      "Ġizvajanju": 2679,
      "valo": 2680,
      "Ġobstoj": 2681,
      "Ġobsega": 2682,
      "Ġzavrne": 2683,
      "javo": 2684,
      "Ġkreditne": 2685,
      "Ġrok": 2686,
      "Ġdovolj": 2687,
      "Ġobmocja": 2688,
      "Ġocitno": 2689,
      "Ġdokazi": 2690,
      "kro": 2691,
      "Ġteza": 2692,
      "cijski": 2693,
      "Ġpredsednik": 2694,
      "Ġclo": 2695,
      "Ġposve": 2696,
      "Ġprese": 2697,
      "Ġrazlici": 2698,
      "Ġkla": 2699,
      "struktu": 2700,
      "Ġpozi": 2701,
      "mr": 2702,
      "Ġprehod": 2703,
      "Ġcasu": 2704,
      "znosti": 2705,
      "tnem": 2706,
      "Ġtaka": 2707,
      "Ġodlocbi": 2708,
      "vina": 2709,
      "Ġinstitucij": 2710,
      "cijskih": 2711,
      "Ġukrepa": 2712,
      "dja": 2713,
      "drze": 2714,
      "Ġpredloga": 2715,
      "Ġracunovod": 2716,
      "Ġprodaja": 2717,
      "Ġstati": 2718,
      "Ġpravilno": 2719,
      "dna": 2720,
      "Ġprosi": 2721,
      "Ġzakonodaje": 2722,
      "Ġskupne": 2723,
      "Ġuunt": 2724,
      "Ġpredlogi": 2725,
      "Ġtek": 2726,
      "Ġpravnega": 2727,
      "Ġpredpisi": 2728,
      "Ġposredo": 2729,
      "Ġkapital": 2730,
      "Ġkombi": 2731,
      "Ġavgu": 2732,
      "der": 2733,
      "land": 2734,
      "Ġrx": 2735,
      "Ġproizvodnje": 2736,
      "Ġdruzb": 2737,
      "nav": 2738,
      "ms": 2739,
      "ec": 2740,
      "Ġnava": 2741,
      "Ġmestu": 2742,
      "Ġrazlago": 2743,
      "Ġtrenu": 2744,
      "Ġprodaje": 2745,
      "Ġneto": 2746,
      "Ġ220": 2747,
      "Ġpovzroci": 2748,
      "Ġpresojo": 2749,
      "Ġgb": 2750,
      "Ġdolocbami": 2751,
      "35": 2752,
      "liko": 2753,
      "rp": 2754,
      "Ġzavarovanja": 2755,
      "Ġskode": 2756,
      "Ġhomologa": 2757,
      "cinek": 2758,
      "Ġobvestila": 2759,
      "Ġucinek": 2760,
      "Ġnadomestila": 2761,
      "Ġprejs": 2762,
      "Ġpojem": 2763,
      "Ġskodo": 2764,
      "Ġpovec": 2765,
      "Ġsklicuje": 2766,
      "tnim": 2767,
      "Ġpredv": 2768,
      "Ġobstoje": 2769,
      "Ġpostopki": 2770,
      "Ð¸": 2771,
      "Ġproizvajalcev": 2772,
      "Ġnacionalne": 2773,
      "Ġvra": 2774,
      "Ġizpolnjuje": 2775,
      "Ġpredvsem": 2776,
      "Ġpodalj": 2777,
      "Ġsporoci": 2778,
      "Ġznacilnosti": 2779,
      "Ġuslu": 2780,
      "26": 2781,
      "Ġor": 2782,
      "Ġposamezni": 2783,
      "Ġodstavku": 2784,
      "Ġizrecno": 2785,
      "Ġprispev": 2786,
      "85": 2787,
      "Ġbre": 2788,
      "Ġusluzbe": 2789,
      "Ġupravicen": 2790,
      "Ġizracuna": 2791,
      "Ġsplosni": 2792,
      "Ġprogram": 2793,
      "Ġuspe": 2794,
      "tjem": 2795,
      "27": 2796,
      "eno": 2797,
      "Ġdopu": 2798,
      "Ġstanje": 2799,
      "Ġjam": 2800,
      "Ġsklepnih": 2801,
      "Ġjavnih": 2802,
      "Ġnaslednjega": 2803,
      "Ġizje": 2804,
      "Ġnevar": 2805,
      "nte": 2806,
      "Ġgib": 2807,
      "Ġavstri": 2808,
      "ljuje": 2809,
      "Ġbruslju": 2810,
      "Îµ": 2811,
      "wi": 2812,
      "nica": 2813,
      "Ġprica": 2814,
      "tati": 2815,
      "Ġizkljucno": 2816,
      "Ġzakonito": 2817,
      "sanja": 2818,
      "Ġzahtevek": 2819,
      "Ġsubjekti": 2820,
      "rne": 2821,
      "Ġokoliscine": 2822,
      "Ġpremoze": 2823,
      "Ġbod": 2824,
      "Ġsam": 2825,
      "Ġ125": 2826,
      "Ġnjeno": 2827,
      "Ġman": 2828,
      "Ġkoncentra": 2829,
      "zeno": 2830,
      "Ġzavrniti": 2831,
      "Ġzelo": 2832,
      "Ġroka": 2833,
      "jimi": 2834,
      "nal": 2835,
      "Ġdopolni": 2836,
      "Ġobjekti": 2837,
      "Ġprotida": 2838,
      "Ġkolicine": 2839,
      "Ġodst": 2840,
      "Ġportu": 2841,
      "Ġnasprotuje": 2842,
      "Ġskladnosti": 2843,
      "Ġenergije": 2844,
      "kakor": 2845,
      "Ġdelez": 2846,
      "ture": 2847,
      "munika": 2848,
      "Ġnjene": 2849,
      "lasce": 2850,
      "Ġpora": 2851,
      "Ġair": 2852,
      "Ġnes": 2853,
      "Ġenega": 2854,
      "Ġnacionalnih": 2855,
      "sih": 2856,
      "08": 2857,
      "Ġnapacno": 2858,
      "Ġ080": 2859,
      "Ġprebivali": 2860,
      "Ġnujno": 2861,
      "nskega": 2862,
      "Ġhr": 2863,
      "Ġnjegovo": 2864,
      "Ġpovezavi": 2865,
      "Ġdokumentov": 2866,
      "tke": 2867,
      "Ġizhajajo": 2868,
      "44": 2869,
      "Ġposta": 2870,
      "Ġkapitala": 2871,
      "Ġagencija": 2872,
      "Ġporocilo": 2873,
      "Ġzapro": 2874,
      "Ġproizvoda": 2875,
      "Ġprilogo": 2876,
      "Ġvrst": 2877,
      "Ġbodisi": 2878,
      "Ġkorist": 2879,
      "Ġet": 2880,
      "citve": 2881,
      "Ġobravnavi": 2882,
      "Ġvsaka": 2883,
      "Ġizjave": 2884,
      "Ġdopis": 2885,
      "Ġklo": 2886,
      "Ġprika": 2887,
      "95": 2888,
      "liza": 2889,
      "mbo": 2890,
      "deli": 2891,
      "Ġvlaga": 2892,
      "Ġomrez": 2893,
      "Ġvlozila": 2894,
      "36": 2895,
      "Ġstruktu": 2896,
      "Ġprotidampin": 2897,
      "Ġrazla": 2898,
      "ranega": 2899,
      "Ġtakoj": 2900,
      "Ġpresoji": 2901,
      "Ġtiste": 2902,
      "Ġstatisti": 2903,
      "Ġglobe": 2904,
      "Ġpravna": 2905,
      "Ġuvoza": 2906,
      "rgu": 2907,
      "nos": 2908,
      "Ġspro": 2909,
      "Ġpogoj": 2910,
      "Ġoceni": 2911,
      "tki": 2912,
      "Ġzavezujoca": 2913,
      "Ġznotraj": 2914,
      "valne": 2915,
      "Ġsuro": 2916,
      "Ġureditve": 2917,
      "sevanje": 2918,
      "Ġzdruz": 2919,
      "Ġclove": 2920,
      "Ġekonom": 2921,
      "Ġdeja": 2922,
      "Ġspremenje": 2923,
      "Ġizpodbijani": 2924,
      "Ġkvalifici": 2925,
      "Ġpododstav": 2926,
      "cijsko": 2927,
      "Ġizvozni": 2928,
      "isko": 2929,
      "Î¿Ï": 2930,
      "Ġavgusta": 2931,
      "Ġexc": 2932,
      "Ġtakih": 2933,
      "viden": 2934,
      "Ġneposred": 2935,
      "Ġtisti": 2936,
      "nec": 2937,
      "for": 2938,
      "Ġustrezni": 2939,
      "Ġ1994": 2940,
      "Ġizjavi": 2941,
      "Ġopozoriti": 2942,
      "Ġjp": 2943,
      "Ġuresni": 2944,
      "drz": 2945,
      "Ġsodelovanje": 2946,
      "Ġsple": 2947,
      "Ġnaslednjih": 2948,
      "Ġzdi": 2949,
      "jeno": 2950,
      "Ġstrokov": 2951,
      "dru": 2952,
      "hu": 2953,
      "Ġdoloceni": 2954,
      "Ġzaklju": 2955,
      "Ġon": 2956,
      "Ġsestavlje": 2957,
      "Ġizbi": 2958,
      "Ġdavcni": 2959,
      "28": 2960,
      "Ġdokaze": 2961,
      "Ġtock": 2962,
      "Ġzgor": 2963,
      "Ġprednost": 2964,
      "Ġprenese": 2965,
      "Ġrs": 2966,
      "Ġnor": 2967,
      "znega": 2968,
      "Ġportugal": 2969,
      "37": 2970,
      "Ġq": 2971,
      "ljiv": 2972,
      "Ġdejavni": 2973,
      "Ġforma": 2974,
      "Ġposledica": 2975,
      "Ġsklepom": 2976,
      "Ġzadevno": 2977,
      "Ġkraljestvo": 2978,
      "Ġstevilko": 2979,
      "Ġvisini": 2980,
      "Ġvedno": 2981,
      "Ġprodajo": 2982,
      "lci": 2983,
      "we": 2984,
      "stitve": 2985,
      "66": 2986,
      "Ġdobic": 2987,
      "Ġpovezane": 2988,
      "Ġdiskrimina": 2989,
      "wa": 2990,
      "Ġcerti": 2991,
      "Ġroku": 2992,
      "tkov": 2993,
      "Ġnpr": 2994,
      "Ġpooblasce": 2995,
      "05": 2996,
      "Ġusluzben": 2997,
      "Ġnacionalna": 2998,
      "Ġsvetu": 2999,
      "loz": 3000,
      "Ġizvi": 3001,
      "Ġizmen": 3002,
      "Ġpomembno": 3003,
      "Ġizjava": 3004,
      "Ġresi": 3005,
      "Ġnl": 3006,
      "Ġkup": 3007,
      "zneje": 3008,
      "gati": 3009,
      "Ġobmocje": 3010,
      "Ġpogodb": 3011,
      "Ġupravljanja": 3012,
      "Ġtemvec": 3013,
      "lnem": 3014,
      "Ġpoteka": 3015,
      "Ġ1996": 3016,
      "Ġteko": 3017,
      "07": 3018,
      "Ġopravljanje": 3019,
      "daja": 3020,
      "Ġposte": 3021,
      "Ġnalozbe": 3022,
      "Ġdodatne": 3023,
      "Ðµ": 3024,
      "Ġoro": 3025,
      "zenih": 3026,
      "Ġpogodbo": 3027,
      "Ġodobre": 3028,
      "Ġakta": 3029,
      "Ġnacionalnega": 3030,
      "Ġeurop": 3031,
      "Ġskupnega": 3032,
      "Ġporeklom": 3033,
      "lizi": 3034,
      "04": 3035,
      "Ġvozil": 3036,
      "Ġenote": 3037,
      "pol": 3038,
      "str": 3039,
      "Ġobracu": 3040,
      "ljenega": 3041,
      "Ġdoma": 3042,
      "varja": 3043,
      "Ġobmocju": 3044,
      "Ġovi": 3045,
      "arma": 3046,
      "gom": 3047,
      "Ġinstitucija": 3048,
      "Ġkljub": 3049,
      "Ġrazvr": 3050,
      "Ġzdruzeno": 3051,
      "Ġobravnava": 3052,
      "ceni": 3053,
      "Ġsodelu": 3054,
      "Ġugotovilo": 3055,
      "Ð¾": 3056,
      "Ġpravom": 3057,
      "Ġdampin": 3058,
      "Ġskleni": 3059,
      "Ġzunaj": 3060,
      "ria": 3061,
      "Ġobvestilo": 3062,
      "Ġ020": 3063,
      "Ġdolocijo": 3064,
      "Ġ1995": 3065,
      "Ġstandardi": 3066,
      "Ġple": 3067,
      "Ġpribli": 3068,
      "des": 3069,
      "Ġzagotovitev": 3070,
      "84": 3071,
      "Ġprodu": 3072,
      "Ġkonkre": 3073,
      "Ġcn": 3074,
      "Ġdni": 3075,
      "Ġ1997": 3076,
      "Ġminima": 3077,
      "Ġmehani": 3078,
      "dnega": 3079,
      "ranju": 3080,
      "Ġnjihovih": 3081,
      "Ġmesecev": 3082,
      "cene": 3083,
      "stran": 3084,
      "Ġskupina": 3085,
      "java": 3086,
      "vodi": 3087,
      "Ġmad": 3088,
      "Ġzniz": 3089,
      "Ġsodelovanja": 3090,
      "krat": 3091,
      "Ġnavesti": 3092,
      "Ġskupno": 3093,
      "jskega": 3094,
      "Ġplovila": 3095,
      "Ġvrsti": 3096,
      "Ġupostevajo": 3097,
      "onal": 3098,
      "Ġstanja": 3099,
      "Ġmesani": 3100,
      "Ġstudi": 3101,
      "Ġsprejmejo": 3102,
      "Ġrezer": 3103,
      "Ġpoglavja": 3104,
      "Ġorganom": 3105,
      "Ġeuro": 3106,
      "Ġposo": 3107,
      "Ġzavrnitev": 3108,
      "Ġ115": 3109,
      "Ġpreki": 3110,
      "Ġsmo": 3111,
      "91": 3112,
      "Ġomenje": 3113,
      "Ġzacetku": 3114,
      "Ġproizvajalec": 3115,
      "Ġznan": 3116,
      "Ġgu": 3117,
      "Ġnav": 3118,
      "Ġposveto": 3119,
      "Ġnarav": 3120,
      "Ġhitro": 3121,
      "mih": 3122,
      "Ġdostopa": 3123,
      "Ġsektorju": 3124,
      "dom": 3125,
      "Ġsh": 3126,
      "Ġizpla": 3127,
      "Ġedi": 3128,
      "Ġimela": 3129,
      "Ġpt": 3130,
      "rea": 3131,
      "Ġenakov": 3132,
      "lag": 3133,
      "Ġzmanjsa": 3134,
      "Ġpredlozila": 3135,
      "bil": 3136,
      "Ġmati": 3137,
      "Ġdolgo": 3138,
      "Ġzasta": 3139,
      "raze": 3140,
      "Ġravnanja": 3141,
      "ris": 3142,
      "Ġtransak": 3143,
      "Ġizdelava": 3144,
      "Ġvpis": 3145,
      "Ġgeneralni": 3146,
      "Ġterja": 3147,
      "cijska": 3148,
      "Ġizko": 3149,
      "Ġizbolj": 3150,
      "Ġcetrti": 3151,
      "pravo": 3152,
      "Ġorganizacije": 3153,
      "Ġodlocitve": 3154,
      "Ġdelegi": 3155,
      "Ġporocila": 3156,
      "Ġpodporo": 3157,
      "Ġrazglasitev": 3158,
      "Ġpristojnost": 3159,
      "Ġnasprotno": 3160,
      "Ġpoudar": 3161,
      "telja": 3162,
      "pp": 3163,
      "Ġrazs": 3164,
      "Ġevropsko": 3165,
      "zil": 3166,
      "Ġdejstva": 3167,
      "49": 3168,
      "Ġdistri": 3169,
      "Ġvidika": 3170,
      "Ġrazume": 3171,
      "Ġizob": 3172,
      "suje": 3173,
      "Ġzmogljivosti": 3174,
      "Ġas": 3175,
      "Ġ107": 3176,
      "Ġracuna": 3177,
      "jena": 3178,
      "vnim": 3179,
      "Ġpritozbo": 3180,
      "Ġprograma": 3181,
      "sab": 3182,
      "Ġone": 3183,
      "Ġ030": 3184,
      "Ġzlo": 3185,
      "Ġpolitike": 3186,
      "Ġobicajno": 3187,
      "kuje": 3188,
      "Ġgeograf": 3189,
      "Ġbole": 3190,
      "Ġsele": 3191,
      "Ġdokazov": 3192,
      "88": 3193,
      "Ġraven": 3194,
      "Ġ105": 3195,
      "Ġrastlin": 3196,
      "Ġgospodarske": 3197,
      "Ġser": 3198,
      "Ġzavarovanje": 3199,
      "navljajo": 3200,
      "Ġvzdrze": 3201,
      "Ġzagotavljanje": 3202,
      "nska": 3203,
      "Ġef": 3204,
      "Ġdrugem": 3205,
      "Ġpritozba": 3206,
      "cal": 3207,
      "Ġrazum": 3208,
      "Ġzemlj": 3209,
      "Ġvlozena": 3210,
      "tnosti": 3211,
      "Ġteksti": 3212,
      "Ġdirektor": 3213,
      "jna": 3214,
      "Ġodgovornosti": 3215,
      "06": 3216,
      "Ġuved": 3217,
      "Ġaf": 3218,
      "Ġbla": 3219,
      "Ġpredstavlja": 3220,
      "Ġbesedilu": 3221,
      "Ġcaso": 3222,
      "Ġpodrocja": 3223,
      "Ġsed": 3224,
      "Ġuvede": 3225,
      "rate": 3226,
      "Ġzakonodajo": 3227,
      "Ġzascito": 3228,
      "Ġoznac": 3229,
      "Ġcar": 3230,
      "Ġsedezem": 3231,
      "Ġneodvi": 3232,
      "Ġxi": 3233,
      "Ġutemeljitev": 3234,
      "47": 3235,
      "Ġopreme": 3236,
      "Ġsoli": 3237,
      "Ġspora": 3238,
      "mati": 3239,
      "Ġplac": 3240,
      "Ġnepri": 3241,
      "vor": 3242,
      "Ġola": 3243,
      "Ġstol": 3244,
      "Ġzvezek": 3245,
      "Ġzagotovijo": 3246,
      "Ġpreh": 3247,
      "jene": 3248,
      "Ġkad": 3249,
      "Ġinvesti": 3250,
      "Ġnajvis": 3251,
      "Ġvan": 3252,
      "ft": 3253,
      "Ġzz": 3254,
      "Ġpripravi": 3255,
      "Ġdrzavam": 3256,
      "pera": 3257,
      "Ġpore": 3258,
      "Ġdelavcev": 3259,
      "one": 3260,
      "Ġnaprej": 3261,
      "telje": 3262,
      "ly": 3263,
      "Ġkategorije": 3264,
      "Ġbank": 3265,
      "valnega": 3266,
      "Ġmnenje": 3267,
      "Ġbg": 3268,
      "65": 3269,
      "Ġizrek": 3270,
      "03": 3271,
      "Ġpresoje": 3272,
      "Ġziv": 3273,
      "Ġnalog": 3274,
      "Ġnarocni": 3275,
      "Â°": 3276,
      "Ġzacasno": 3277,
      "Ġzastopnika": 3278,
      "Ġ207": 3279,
      "Ġpriza": 3280,
      "Ġph": 3281,
      "cht": 3282,
      "Ġtehno": 3283,
      "Ġzrako": 3284,
      "Ġtreh": 3285,
      "Ġcarinski": 3286,
      "Ġkan": 3287,
      "Ġpara": 3288,
      "Ġrazme": 3289,
      "Ġbri": 3290,
      "ds": 3291,
      "Ġtemeljnih": 3292,
      "Ġustanovitvi": 3293,
      "Ġkaze": 3294,
      "Ġznanstve": 3295,
      "Ġsplosne": 3296,
      "cijami": 3297,
      "lnim": 3298,
      "anes": 3299,
      "Ġuporabljati": 3300,
      "Ġsnov": 3301,
      "Ġdelovanje": 3302,
      "Ġpredstavi": 3303,
      "lar": 3304,
      "32": 3305,
      "Ġstalisca": 3306,
      "Ġamerike": 3307,
      "Ġup": 3308,
      "Ġzacetka": 3309,
      "Ġ300": 3310,
      "Ġuvodni": 3311,
      "Ġrazpoloz": 3312,
      "Ġsporazumu": 3313,
      "69": 3314,
      "Ġ112": 3315,
      "Ġsved": 3316,
      "Ġporekla": 3317,
      "Ġposoji": 3318,
      "Ġkom": 3319,
      "jnega": 3320,
      "Ġpreveri": 3321,
      "Ġsli": 3322,
      "Ġkonkurence": 3323,
      "Ġusposab": 3324,
      "Ġcez": 3325,
      "Ġostan": 3326,
      "Ġdistribu": 3327,
      "Ġparlament": 3328,
      "Ġdatuma": 3329,
      "Ġpravilo": 3330,
      "Ġper": 3331,
      "Ġume": 3332,
      "Ġregiona": 3333,
      "manjk": 3334,
      "Ġzdruzenih": 3335,
      "sar": 3336,
      "Ġpoudariti": 3337,
      "vanih": 3338,
      "dis": 3339,
      "41": 3340,
      "ÅĤ": 3341,
      "Ġdobavi": 3342,
      "Ð½": 3343,
      "55": 3344,
      "Î·": 3345,
      "Ġpredela": 3346,
      "Ġrazpis": 3347,
      "Ġzavezan": 3348,
      "Ġoceno": 3349,
      "Ġsame": 3350,
      "ziv": 3351,
      "Ġnaceloma": 3352,
      "intere": 3353,
      "Ġnarocila": 3354,
      "Ġdogod": 3355,
      "Ġpregleda": 3356,
      "Ġsogla": 3357,
      "Ġrea": 3358,
      "ber": 3359,
      "Ġknji": 3360,
      "Ġjavnosti": 3361,
      "gne": 3362,
      "Ġdelodaja": 3363,
      "ipo": 3364,
      "Ġtistih": 3365,
      "Ġpogojem": 3366,
      "interesi": 3367,
      "Ġsluz": 3368,
      "Ġsklenje": 3369,
      "Ġzainteresi": 3370,
      "Ġpovra": 3371,
      "joce": 3372,
      "Ġinfra": 3373,
      "Ġsistemov": 3374,
      "kani": 3375,
      "ganja": 3376,
      "lcev": 3377,
      "Ġcy": 3378,
      "Ġstalisce": 3379,
      "Ġposlovnika": 3380,
      "Ġzave": 3381,
      "Ġpolozaja": 3382,
      "Ġizvajanja": 3383,
      "62": 3384,
      "Ġoprema": 3385,
      "Ġzmanjsanje": 3386,
      "Ġprp": 3387,
      "Ġnorma": 3388,
      "vino": 3389,
      "Ġposla": 3390,
      "jah": 3391,
      "Ġuporabijo": 3392,
      "tura": 3393,
      "Ġpricako": 3394,
      "Ġapr": 3395,
      "Ġac": 3396,
      "Ġpotrje": 3397,
      "Ġizpolnjujejo": 3398,
      "Ġtempera": 3399,
      "Ġmedtem": 3400,
      "ger": 3401,
      "Ġpravilni": 3402,
      "mbh": 3403,
      "Ġelementov": 3404,
      "Ïĥ": 3405,
      "Ġee": 3406,
      "Ġpredme": 3407,
      "ble": 3408,
      "67": 3409,
      "Ġeuipo": 3410,
      "Ġpovezanih": 3411,
      "Ġsektorja": 3412,
      "Ġoperater": 3413,
      "Ġodobritev": 3414,
      "Ġnovo": 3415,
      "Ġmoral": 3416,
      "navljajoce": 3417,
      "Ġunijo": 3418,
      "Ġpreverjanje": 3419,
      "rk": 3420,
      "cijah": 3421,
      "Ġzeli": 3422,
      "Ġhla": 3423,
      "Ġnedopust": 3424,
      "Ġgmbh": 3425,
      "Ġspanija": 3426,
      "Ġoddelka": 3427,
      "Ġclanicami": 3428,
      "Ġspis": 3429,
      "Ġindustrije": 3430,
      "Ġben": 3431,
      "Ġizvora": 3432,
      "Ġnaroci": 3433,
      "Ġimeti": 3434,
      "Ġdelno": 3435,
      "Ġ1993": 3436,
      "rice": 3437,
      "Ġmetodo": 3438,
      "Ġizdelek": 3439,
      "Ġpartne": 3440,
      "Ġnotranje": 3441,
      "Ġjavno": 3442,
      "Ġmenim": 3443,
      "Ġtabe": 3444,
      "Ġodpr": 3445,
      "Ġimenu": 3446,
      "Ġakt": 3447,
      "pen": 3448,
      "Ġwe": 3449,
      "as": 3450,
      "98": 3451,
      "Ġinterven": 3452,
      "Ġsiri": 3453,
      "Ġ102": 3454,
      "Ġkvalificirane": 3455,
      "Ġur": 3456,
      "Ġproizvajalci": 3457,
      "sod": 3458,
      "Ġizpolnjeni": 3459,
      "Ġjavne": 3460,
      "meni": 3461,
      "Ġpoprav": 3462,
      "Ġkaza": 3463,
      "fu": 3464,
      "koho": 3465,
      "spek": 3466,
      "Ġizvajajo": 3467,
      "Ġdk": 3468,
      "Ġbr": 3469,
      "Ġzlora": 3470,
      "Ġvirov": 3471,
      "Ġisti": 3472,
      "Ġdavcne": 3473,
      "Ġizvedbene": 3474,
      "Ġravnanje": 3475,
      "Ġadmini": 3476,
      "Ġprizade": 3477,
      "solu": 3478,
      "Ġpovezani": 3479,
      "Ġcena": 3480,
      "Ġponud": 3481,
      "Ġoperati": 3482,
      "Ġ103": 3483,
      "Ġspan": 3484,
      "Ġpotem": 3485,
      "Ġzastopnik": 3486,
      "Ġspadajo": 3487,
      "Ġnarave": 3488,
      "Ġokolje": 3489,
      "Ġodstavkom": 3490,
      "Ġmadzar": 3491,
      "Ġstaro": 3492,
      "Ġkadrov": 3493,
      "tua": 3494,
      "Ġzapis": 3495,
      "Ġstav": 3496,
      "Ġhidro": 3497,
      "prave": 3498,
      "ted": 3499,
      "Ġdrug": 3500,
      "Ġgospodarskih": 3501,
      "Ġprepovedi": 3502,
      "75": 3503,
      "Ġstopnji": 3504,
      "at": 3505,
      "46": 3506,
      "kna": 3507,
      "Ġopombi": 3508,
      "cek": 3509,
      "Ġclanicam": 3510,
      "Ġpravu": 3511,
      "Ġpostopkih": 3512,
      "Ġcz": 3513,
      "tkom": 3514,
      "Ġnovih": 3515,
      "Ġobnavljajoce": 3516,
      "Ġnovi": 3517,
      "Ġzakonika": 3518,
      "Ġnjegovi": 3519,
      "Ġogro": 3520,
      "din": 3521,
      "stne": 3522,
      "Ġms": 3523,
      "Ġodloca": 3524,
      "Ġdejanja": 3525,
      "cio": 3526,
      "Ġpaki": 3527,
      "Ġmin": 3528,
      "Ġizpodbijanega": 3529,
      "hov": 3530,
      "71": 3531,
      "Ġpovze": 3532,
      "Ġ108": 3533,
      "sel": 3534,
      "Ġ1992": 3535,
      "Ġvloge": 3536,
      "Ġdekla": 3537,
      "Ġzacasne": 3538,
      "Ġfin": 3539,
      "Ġnaku": 3540,
      "znost": 3541,
      "liti": 3542,
      "Ġciljev": 3543,
      "Ġpopolno": 3544,
      "Ġzahtevami": 3545,
      "zijo": 3546,
      "Ġizkori": 3547,
      "tal": 3548,
      "Ġustreznih": 3549,
      "tes": 3550,
      "Ġnajpo": 3551,
      "Ġpros": 3552,
      "Ġsredstvo": 3553,
      "Ġnovice": 3554,
      "Ġgradbe": 3555,
      "Ġsvi": 3556,
      "Ġzelezni": 3557,
      "Ġugotovljeno": 3558,
      "nej": 3559,
      "Ġsocial": 3560,
      "vnimi": 3561,
      "vsa": 3562,
      "mber": 3563,
      "Ġpet": 3564,
      "Ġpostopke": 3565,
      "58": 3566,
      "ler": 3567,
      "Ġradi": 3568,
      "and": 3569,
      "Ġpreo": 3570,
      "Ġfinancni": 3571,
      "Ġuskladi": 3572,
      "Ġpotrdilo": 3573,
      "Ġodhod": 3574,
      "Ġzamr": 3575,
      "Ġdes": 3576,
      "Ġvzorce": 3577,
      "Ġ5493": 3578,
      "Ġnadaljnjem": 3579,
      "que": 3580,
      "Ġnavodi": 3581,
      "per": 3582,
      "geri": 3583,
      "Ġaline": 3584,
      "Ġmetoda": 3585,
      "ngs": 3586,
      "Ġvsakem": 3587,
      "Ġopravljanja": 3588,
      "Ġzelenja": 3589,
      "Ġmt": 3590,
      "Ġprejsnje": 3591,
      "Ġcilja": 3592,
      "stjo": 3593,
      "Ġvsebo": 3594,
      "Ġkore": 3595,
      "Ġpolozaju": 3596,
      "Ġinfrastruktu": 3597,
      "Ġobjav": 3598,
      "Ġosebo": 3599,
      "jega": 3600,
      "gh": 3601,
      "Ġver": 3602,
      "isca": 3603,
      "Ġzahtevajo": 3604,
      "Ġvlaken": 3605,
      "Ġporoci": 3606,
      "Ġpotrebna": 3607,
      "gli": 3608,
      "Ġie": 3609,
      "scena": 3610,
      "Ġspecifika": 3611,
      "Ġvoda": 3612,
      "ker": 3613,
      "trje": 3614,
      "Ġpomanjk": 3615,
      "Ġdelovanju": 3616,
      "ple": 3617,
      "Ġkomunika": 3618,
      "Ġenot": 3619,
      "09": 3620,
      "Ġspremembo": 3621,
      "bora": 3622,
      "Ġrazveljavitvi": 3623,
      "sten": 3624,
      "Ġpotrdila": 3625,
      "Ġkatera": 3626,
      "Ġpobu": 3627,
      "Ġpredpo": 3628,
      "ÑĢ": 3629,
      "Ġindustrija": 3630,
      "Ġdia": 3631,
      "melj": 3632,
      "Ġstopnjo": 3633,
      "Ġnatancne": 3634,
      "Ġmerje": 3635,
      "Ġtehnicne": 3636,
      "Ġ549300": 3637,
      "Ġokolj": 3638,
      "Ġtrgovin": 3639,
      "note": 3640,
      "Ġsistemu": 3641,
      "Ġljudi": 3642,
      "Ġpridobitev": 3643,
      "Ġuve": 3644,
      "Ġvkljucujejo": 3645,
      "Ġdolocbo": 3646,
      "vov": 3647,
      "Ġsvojega": 3648,
      "Ġnegati": 3649,
      "ps": 3650,
      "lla": 3651,
      "Ġtehnicnih": 3652,
      "Ġorganu": 3653,
      "mena": 3654,
      "Ġporoce": 3655,
      "Ġizpostavljenost": 3656,
      "Ġwi": 3657,
      "Ġosta": 3658,
      "57": 3659,
      "ns": 3660,
      "Ġobresti": 3661,
      "Ġalkoho": 3662,
      "Ġpartner": 3663,
      "Ġnamenom": 3664,
      "cevanja": 3665,
      "Ġgh": 3666,
      "Ġucinka": 3667,
      "prava": 3668,
      "Ġzamen": 3669,
      "mino": 3670,
      "Ġpreneh": 3671,
      "Ġsg": 3672,
      "Ġspecifi": 3673,
      "Ġuporabljenih": 3674,
      "Ġudelezen": 3675,
      "Ġ500": 3676,
      "Ġizkri": 3677,
      "Ġoglji": 3678,
      "stni": 3679,
      "Ġkomp": 3680,
      "Ġskupna": 3681,
      "Ġpravili": 3682,
      "Ġsveto": 3683,
      "Ġodgovornost": 3684,
      "Ġodv": 3685,
      "Ġtovar": 3686,
      "Ġtur": 3687,
      "Ġrazsodilo": 3688,
      "Ġugotovila": 3689,
      "gna": 3690,
      "Ġukrepih": 3691,
      "Ġrazloge": 3692,
      "Ġspra": 3693,
      "Ġseznama": 3694,
      "plac": 3695,
      "Ġtoplo": 3696,
      "54": 3697,
      "ĠÂ°": 3698,
      "cah": 3699,
      "koli": 3700,
      "Ġceno": 3701,
      "Ġnjen": 3702,
      "anjo": 3703,
      "Ġveteri": 3704,
      "Ġstroji": 3705,
      "Ġenake": 3706,
      "Ġizjavo": 3707,
      "Ġprotokola": 3708,
      "Ġclanico": 3709,
      "Ġregulati": 3710,
      "tim": 3711,
      "Ġpregledni": 3712,
      "Ġdodatek": 3713,
      "Ġsubven": 3714,
      "Ġelektricne": 3715,
      "Ġiso": 3716,
      "Ġdodatka": 3717,
      "Ġolj": 3718,
      "Ġpovpre": 3719,
      "Ġnezakonito": 3720,
      "Ġpavsa": 3721,
      "Ġrazlicne": 3722,
      "Ġlastnosti": 3723,
      "Ġneo": 3724,
      "Ġzme": 3725,
      "cp": 3726,
      "Ġvsakega": 3727,
      "Ġkoncu": 3728,
      "Ġzaprosi": 3729,
      "stvi": 3730,
      "Ġcu": 3731,
      "Ġzagotov": 3732,
      "Ġopomba": 3733,
      "Ġinc": 3734,
      "Ġinterveni": 3735,
      "Ġpreuciti": 3736,
      "Ġmaj": 3737,
      "Ġucinkovitosti": 3738,
      "Ġpoga": 3739,
      "Ġodred": 3740,
      "Ġlicen": 3741,
      "Ġizvedbena": 3742,
      "Ġsodelova": 3743,
      "Ġizvrse": 3744,
      "Ġizpodbijana": 3745,
      "Ġporoc": 3746,
      "Ġemisij": 3747,
      "Ġposami": 3748,
      "Ġuradno": 3749,
      "Ġsubjekt": 3750,
      "bor": 3751,
      "Ġmg": 3752,
      "ladu": 3753,
      "Ġnez": 3754,
      "Ġdelovanja": 3755,
      "Ġmetil": 3756,
      "Ġnamemb": 3757,
      "mbu": 3758,
      "Ġsluzbe": 3759,
      "Ġokoliscin": 3760,
      "Ġprvem": 3761,
      "Ġkmetijskih": 3762,
      "Ġzastopa": 3763,
      "Ġcentralne": 3764,
      "Ġjekla": 3765,
      "Ġnjenih": 3766,
      "ril": 3767,
      "Ġdelovnih": 3768,
      "Ġpriso": 3769,
      "Ġavtor": 3770,
      "Ġzaposlitvi": 3771,
      "Ġpritozbeni": 3772,
      "Ġcleni": 3773,
      "Ġ1510": 3774,
      "200": 3775,
      "Ġinde": 3776,
      "Ġizobraze": 3777,
      "Ġvrhov": 3778,
      "Ġsklepu": 3779,
      "set": 3780,
      "Ġizdelke": 3781,
      "Ġprenosa": 3782,
      "stno": 3783,
      "Ġskod": 3784,
      "cajo": 3785,
      "Ġvme": 3786,
      "Ġrazkritje": 3787,
      "Ġsprejel": 3788,
      "Ġregistracijo": 3789,
      "64": 3790,
      "Ġnadomestilo": 3791,
      "Ġosebnih": 3792,
      "Ġvrsto": 3793,
      "Ġclan": 3794,
      "Ġnomen": 3795,
      "Ġseste": 3796,
      "lnimi": 3797,
      "Ġov": 3798,
      "mentu": 3799,
      "Ġupravni": 3800,
      "Ġpride": 3801,
      "Ġletih": 3802,
      "Ġproizvajalca": 3803,
      "Ġdolocenega": 3804,
      "dol": 3805,
      "59": 3806,
      "Ġnomenkla": 3807,
      "Ġnaloz": 3808,
      "Ġsladkorja": 3809,
      "Ġureja": 3810,
      "Ġtrzni": 3811,
      "Ġvlogo": 3812,
      "Ġdrzavni": 3813,
      "63": 3814,
      "Ġsiro": 3815,
      "Ġye": 3816,
      "Ġkvote": 3817,
      "Ġopravljajo": 3818,
      "Ġeurope": 3819,
      "Ġlv": 3820,
      "Ġis": 3821,
      "Ġnjenega": 3822,
      "vanj": 3823,
      "Ġnjegov": 3824,
      "Ġoznake": 3825,
      "Ġuzi": 3826,
      "ÏĢ": 3827,
      "Ġobravnavanja": 3828,
      "Ġnobenega": 3829,
      "prec": 3830,
      "Ġkovin": 3831,
      "Ġmetode": 3832,
      "Ġimena": 3833,
      "Ġdovoljenj": 3834,
      "Ġagencije": 3835,
      "Ġbolezni": 3836,
      "Ġnajbolj": 3837,
      "Ġfil": 3838,
      "Ġpogodbenice": 3839,
      "Ġsedez": 3840,
      "Ġposilj": 3841,
      "Ġprevze": 3842,
      "Ġinstrumenti": 3843,
      "Ġracun": 3844,
      "43": 3845,
      "Ġpovprec": 3846,
      "Ġel": 3847,
      "dida": 3848,
      "Ġuveljavlja": 3849,
      "Ġcasa": 3850,
      "Ġtakega": 3851,
      "Ġunija": 3852,
      "Ġsposob": 3853,
      "Ġmoralo": 3854,
      "Ġenota": 3855,
      "Ġpreosta": 3856,
      "81": 3857,
      "Ġton": 3858,
      "Ġnaloge": 3859,
      "Ġvozilo": 3860,
      "Ġuvozne": 3861,
      "Ġpoudarja": 3862,
      "Ġmeril": 3863,
      "82": 3864,
      "Ġzamu": 3865,
      "Ġinspek": 3866,
      "Ġsvojem": 3867,
      "Ġnobene": 3868,
      "Ġveterinar": 3869,
      "znje": 3870,
      "ys": 3871,
      "Ġpreveriti": 3872,
      "Ġdro": 3873,
      "Ġmsrp": 3874,
      "Ġ120": 3875,
      "Ġapa": 3876,
      "Ġgospodarski": 3877,
      "Ġvisoko": 3878,
      "can": 3879,
      "meno": 3880,
      "61": 3881,
      "Ġfrancija": 3882,
      "Ġlegi": 3883,
      "Ġpododstavka": 3884,
      "Ġstalno": 3885,
      "Ġpreskus": 3886,
      "53": 3887,
      "Ġspom": 3888,
      "Ġzivil": 3889,
      "Ġobstajajo": 3890,
      "Ġprometa": 3891,
      "Ġustanov": 3892,
      "Ġuporabni": 3893,
      "ĠâĢ²": 3894,
      "vnosti": 3895,
      "moni": 3896,
      "Ġdavek": 3897,
      "zje": 3898,
      "Ġmnenja": 3899,
      "Ġmre": 3900,
      "Ġnastane": 3901,
      "Ġpritoznica": 3902,
      "Ġsocialne": 3903,
      "Ġposebno": 3904,
      "Ġnev": 3905,
      "Ġstar": 3906,
      "valno": 3907,
      "Ġzahtevka": 3908,
      "rilo": 3909,
      "Ġ2022": 3910,
      "Ġmednarodni": 3911,
      "Ġveri": 3912,
      "Ġfranko": 3913,
      "Ġgeneralnega": 3914,
      "Ġosnovi": 3915,
      "Ġintervenien": 3916,
      "lice": 3917,
      "87": 3918,
      "Ġnek": 3919,
      "sku": 3920,
      "Ġsamostoj": 3921,
      "Ġpredlozitev": 3922,
      "sed": 3923,
      "Ġkrmi": 3924,
      "Ġ106": 3925,
      "Ġkre": 3926,
      "52": 3927,
      "Ġdolzi": 3928,
      "Ġvsebino": 3929,
      "lus": 3930,
      "Ġskupnih": 3931,
      "Ġnjimi": 3932,
      "Ġangle": 3933,
      "Ġimetnik": 3934,
      "Ġenakovred": 3935,
      "sol": 3936,
      "Ġnju": 3937,
      "Ġrazmerja": 3938,
      "Ġpritr": 3939,
      "Ġolja": 3940,
      "Ġsprice": 3941,
      "ces": 3942,
      "Ġnizozemska": 3943,
      "noma": 3944,
      "Ġdokument": 3945,
      "Ġmla": 3946,
      "nd": 3947,
      "Ġizhod": 3948,
      "Ġae": 3949,
      "Ġodvze": 3950,
      "Ġder": 3951,
      "jeni": 3952,
      "Ġpodlaga": 3953,
      "Ġtransakcije": 3954,
      "ner": 3955,
      "Ġopu": 3956,
      "Ġpreneha": 3957,
      "Ġtaki": 3958,
      "anec": 3959,
      "gni": 3960,
      "Ġsorazmernosti": 3961,
      "Ġ070": 3962,
      "Ġsmejo": 3963,
      "Ġzacetek": 3964,
      "Ġcm": 3965,
      "Ġtehnologi": 3966,
      "Ġstri": 3967,
      "Ġhol": 3968,
      "ct": 3969,
      "ÑĤ": 3970,
      "Ġdelovnega": 3971,
      "Ġenakega": 3972,
      "Ġyear": 3973,
      "Ġrazdeli": 3974,
      "Ġpomen": 3975,
      "Ġdolznosti": 3976,
      "Ġizter": 3977,
      "Ġsvoji": 3978,
      "Ġplovi": 3979,
      "Ġnacrto": 3980,
      "Ġskladno": 3981,
      "Ġspremeniti": 3982,
      "Ġcivi": 3983,
      "Ġbistveno": 3984,
      "Ġfinancnega": 3985,
      "Ġveci": 3986,
      "Ġzakonodajalec": 3987,
      "Î»": 3988,
      "ther": 3989,
      "Ġodpravi": 3990,
      "ration": 3991,
      "Ġsplosnemu": 3992,
      "Ġmrs": 3993,
      "Ġitalija": 3994,
      "Ġtkani": 3995,
      "Ġbistvene": 3996,
      "rl": 3997,
      "Ġsama": 3998,
      "mat": 3999,
      "Ġvalu": 4000,
      "Ġpomenijo": 4001,
      "Ġsol": 4002,
      "Ġupostevala": 4003,
      "Ġcivil": 4004,
      "Ġisto": 4005,
      "tin": 4006,
      "Ġinternati": 4007,
      "Ġpravilih": 4008,
      "Ġoz": 4009,
      "Ġsistemi": 4010,
      "Ġodpadki": 4011,
      "Ġsprasuje": 4012,
      "Ġcertifika": 4013,
      "Ġprijav": 4014,
      "Ġkolekti": 4015,
      "Ġsoglas": 4016,
      "Ġpregledu": 4017,
      "cnosti": 4018,
      "Ġtemi": 4019,
      "Ġnamera": 4020,
      "kovih": 4021,
      "Ġizkriv": 4022,
      "Ġrepre": 4023,
      "Ġkoristi": 4024,
      "Ġhkrati": 4025,
      "Ġizve": 4026,
      "Ġoznako": 4027,
      "Ġinteres": 4028,
      "Ġstiri": 4029,
      "Ġvlade": 4030,
      "Ġstranko": 4031,
      "Ġmod": 4032,
      "Ġkombini": 4033,
      "51": 4034,
      "42": 4035,
      "Ġzatr": 4036,
      "Ġnepravil": 4037,
      "it": 4038,
      "Ġmorali": 4039,
      "Ġtis": 4040,
      "Ġsiol": 4041,
      "Ġtj": 4042,
      "Ġministr": 4043,
      "Ġprometu": 4044,
      "rr": 4045,
      "kar": 4046,
      "Ġomrezja": 4047,
      "Ġbanke": 4048,
      "Ġposebni": 4049,
      "Ġmase": 4050,
      "Ġecb": 4051,
      "Ġkli": 4052,
      "Ġzr": 4053,
      "Ġpostavke": 4054,
      "Ġstatus": 4055,
      "Ġsul": 4056,
      "log": 4057,
      "Ġkva": 4058,
      "Ġtovarna": 4059,
      "Ġsplosna": 4060,
      "Ġgove": 4061,
      "89": 4062,
      "Ġpovzro": 4063,
      "anjih": 4064,
      "Ġkmetijske": 4065,
      "Ġpristan": 4066,
      "Ġsplosnih": 4067,
      "Ġnjegovega": 4068,
      "Ġsezn": 4069,
      "Ġpogodbi": 4070,
      "Ġkandida": 4071,
      "Ġdokazati": 4072,
      "Ġzdravje": 4073,
      "Ġpovezana": 4074,
      "ton": 4075,
      "Ġpogodbenica": 4076,
      "Ġodstrani": 4077,
      "Ġdejanskega": 4078,
      "Ġuvozni": 4079,
      "Ġpredpostav": 4080,
      "Ġslovenscini": 4081,
      "Ġzasli": 4082,
      "Ġnova": 4083,
      "Ġrazto": 4084,
      "Ġvlozilo": 4085,
      "Ġobravnavanje": 4086,
      "Ġresni": 4087,
      "Ġ210": 4088,
      "Îº": 4089,
      "Ġclanov": 4090,
      "Ġid": 4091,
      "Ġprikaz": 4092,
      "Ġghs": 4093,
      "Ġporavna": 4094,
      "Ñģ": 4095,
      "Ġpredloziti": 4096,
      "cijskega": 4097,
      "Ġobravnavati": 4098,
      "Ġureditvi": 4099,
      "Ġznasa": 4100,
      "med": 4101,
      "Ġgroup": 4102,
      "Ġemba": 4103,
      "kah": 4104,
      "Ġ109": 4105,
      "Ġpredlozijo": 4106,
      "Ġkolicina": 4107,
      "Ġcpa": 4108,
      "ĠÎ¼": 4109,
      "Ġelementi": 4110,
      "Ġdobro": 4111,
      "Ġzivi": 4112,
      "Ġocene": 4113,
      "Ġorganizacija": 4114,
      "Ġgosti": 4115,
      "armacev": 4116,
      "Ġmateriali": 4117,
      "Ġ400": 4118,
      "Ġsesta": 4119,
      "Ġnajpozneje": 4120,
      "Ġkolicin": 4121,
      "Ġpoka": 4122,
      "ff": 4123,
      "Ġtozbi": 4124,
      "Ġnicnost": 4125,
      "Ġuvoznih": 4126,
      "Ġtro": 4127,
      "Ġposledice": 4128,
      "Ġbol": 4129,
      "Ġsubjektov": 4130,
      "Ġkraju": 4131,
      "Ġvelika": 4132,
      "Ġwa": 4133,
      "Ġokro": 4134,
      "luo": 4135,
      "Ġodlocb": 4136,
      "Ġtipa": 4137,
      "Ġpogojih": 4138,
      "Ġcomp": 4139,
      "Ġpooblastila": 4140,
      "Ġizvedbo": 4141,
      "Ġdokumenti": 4142,
      "Ġcelovi": 4143,
      "Ġenaka": 4144,
      "Ġpoza": 4145,
      "Ġaktov": 4146,
      "Ġnacelom": 4147,
      "Ġvsebnostjo": 4148,
      "Ġizgube": 4149,
      "Ġtrajanje": 4150,
      "xi": 4151,
      "Ġsled": 4152,
      "Ġroj": 4153,
      "Ġsloveni": 4154,
      "ticnih": 4155,
      "Ġpravicah": 4156,
      "Ġkod": 4157,
      "Ġstrate": 4158,
      "lniki": 4159,
      "Ġstolp": 4160,
      "Ġmaterial": 4161,
      "Ġizreka": 4162,
      "Ġproizvodnja": 4163,
      "Ġkislina": 4164,
      "hy": 4165,
      "ding": 4166,
      "Ġneizpolni": 4167,
      "Ġstavek": 4168,
      "Ġ150": 4169,
      "Ġzadnje": 4170,
      "Ġnatancno": 4171,
      "Ġinteresu": 4172,
      "Ġdelovno": 4173,
      "tre": 4174,
      "Ġposlje": 4175,
      "ena": 4176,
      "100": 4177,
      "Ġprimera": 4178,
      "Ġpreko": 4179,
      "Ġemisije": 4180,
      "mula": 4181,
      "zev": 4182,
      "Ġposlovne": 4183,
      "casno": 4184,
      "Ġinteresov": 4185,
      "cc": 4186,
      "Ġtozbenega": 4187,
      "Ġobdelavo": 4188,
      "zom": 4189,
      "Ġopredelitve": 4190,
      "valec": 4191,
      "Ġpriblizno": 4192,
      "pada": 4193,
      "Ġponudbe": 4194,
      "Ġsank": 4195,
      "Ġobstoja": 4196,
      "Ġsporne": 4197,
      "Ġoskr": 4198,
      "dnost": 4199,
      "Ġprekli": 4200,
      "Ġletali": 4201,
      "Ġsestan": 4202,
      "Ġneuteme": 4203,
      "Ġplacati": 4204,
      "Ġmorejo": 4205,
      "Ġnista": 4206,
      "scen": 4207,
      "Ġobravnave": 4208,
      "Ġimo": 4209,
      "Ġmerilo": 4210,
      "ljenje": 4211,
      "las": 4212,
      "Ġmajh": 4213,
      "Ġmesto": 4214,
      "Ġnaloga": 4215,
      "Ġslove": 4216,
      "Ġdaje": 4217,
      "ral": 4218,
      "joci": 4219,
      "Ġfer": 4220,
      "83": 4221,
      "Ġnacel": 4222,
      "Ġnaste": 4223,
      "Ġdejstev": 4224,
      "Ġpristojbi": 4225,
      "Ġrazmerje": 4226,
      "ser": 4227,
      "Ġprislo": 4228,
      "vidu": 4229,
      "Ġvin": 4230,
      "Ġpredlag": 4231,
      "Ġizrazi": 4232,
      "Ġpoto": 4233,
      "Ġomogoci": 4234,
      "Ġobrambe": 4235,
      "Ġluk": 4236,
      "Ġ050": 4237,
      "Ġpodrobnih": 4238,
      "Ġizi": 4239,
      "Ġprevozni": 4240,
      "Ġperu": 4241,
      "92": 4242,
      "Ġnajem": 4243,
      "Ġuporabila": 4244,
      "ad": 4245,
      "Ġvgra": 4246,
      "kler": 4247,
      "Ġprevoza": 4248,
      "Ġopredeliti": 4249,
      "Ġustavno": 4250,
      "vp": 4251,
      "Ġpredloge": 4252,
      "Ġelemente": 4253,
      "Ġizjemo": 4254,
      "Ġizpu": 4255,
      "Ġopa": 4256,
      "scajo": 4257,
      "Ġbesedila": 4258,
      "Ġvsaki": 4259,
      "Ġobla": 4260,
      "Ġargu": 4261,
      "rid": 4262,
      "Ġplasti": 4263,
      "Ġpodobne": 4264,
      "Ġindividu": 4265,
      "Ġseri": 4266,
      "Ġzdravila": 4267,
      "Ġskrb": 4268,
      "Ġcim": 4269,
      "Ġuvodne": 4270,
      "Ġmoc": 4271,
      "Ġmednarodne": 4272,
      "Ġpostavi": 4273,
      "Ġsodnega": 4274,
      "Ġfoto": 4275,
      "Ġnavedbe": 4276,
      "Ġvna": 4277,
      "gre": 4278,
      "Ġsever": 4279,
      "Ġdodelitev": 4280,
      "Ġpojma": 4281,
      "Ġugotavlja": 4282,
      "Ġprimar": 4283,
      "Ġfinanciranja": 4284,
      "ras": 4285,
      "Ġsvoj": 4286,
      "Ġizjem": 4287,
      "stnih": 4288,
      "Ġsprememb": 4289,
      "Ġnavedel": 4290,
      "Ġposeganja": 4291,
      "Ġpristojno": 4292,
      "Ġstalnega": 4293,
      "Ġusmer": 4294,
      "gel": 4295,
      "Ġinternational": 4296,
      "jsa": 4297,
      "Ġdokler": 4298,
      "Ġkul": 4299,
      "cenih": 4300,
      "Ġpoveca": 4301,
      "Ġposameznih": 4302,
      "armacevt": 4303,
      "Ġmeso": 4304,
      "Ġopraviti": 4305,
      "Ġth": 4306,
      "Ġspp": 4307,
      "Ġodpadkov": 4308,
      "Ġmedse": 4309,
      "Ġpodobno": 4310,
      "Ġkonca": 4311,
      "Ġdalje": 4312,
      "Ġpredsednika": 4313,
      "Ġcevi": 4314,
      "Ġpotrebe": 4315,
      "Ġkraljevina": 4316,
      "sion": 4317,
      "Ġvarstvu": 4318,
      "Ġdodatnih": 4319,
      "Ġodpove": 4320,
      "Ġnavedba": 4321,
      "kun": 4322,
      "Ġprva": 4323,
      "Ġvisje": 4324,
      "ganje": 4325,
      "Ġraziska": 4326,
      "Ġstale": 4327,
      "Ġ127": 4328,
      "Ġopremo": 4329,
      "Ġrepubliki": 4330,
      "Ġvlado": 4331,
      "jati": 4332,
      "Ġnjej": 4333,
      "Ġosnu": 4334,
      "Ġplin": 4335,
      "Ġpreden": 4336,
      "Ġkana": 4337,
      "Ġskladisce": 4338,
      "Ġprevladu": 4339,
      "Ġenak": 4340,
      "Ġizvrs": 4341,
      "Ġvso": 4342,
      "Ġoddelku": 4343,
      "56": 4344,
      "metri": 4345,
      "Ġpopolnoma": 4346,
      "ksa": 4347,
      "Ġnjihova": 4348,
      "Ġpraksi": 4349,
      "Ġdeklara": 4350,
      "Ïī": 4351,
      "Ġnjim": 4352,
      "Ġpodobni": 4353,
      "Ġdodano": 4354,
      "Ġromu": 4355,
      "jenih": 4356,
      "Ġodgovoriti": 4357,
      "Ġkonkurenco": 4358,
      "Ġprebivalisce": 4359,
      "Ġviii": 4360,
      "Ġpridru": 4361,
      "Ġokolja": 4362,
      "Ġsporno": 4363,
      "Ġnac": 4364,
      "Ġmednarodno": 4365,
      "Ġhce": 4366,
      "Ġ117": 4367,
      "Ġvsebnost": 4368,
      "Ġnakna": 4369,
      "ron": 4370,
      "chi": 4371,
      "tel": 4372,
      "Ġsprejeta": 4373,
      "Ġpritrdi": 4374,
      "Ġodlocilo": 4375,
      "Ġdolocenimi": 4376,
      "tnost": 4377,
      "Ġistega": 4378,
      "Ġanaliza": 4379,
      "Ġnapred": 4380,
      "Ġpotni": 4381,
      "Ġstalisc": 4382,
      "Ġlabora": 4383,
      "Ġjaj": 4384,
      "Ġhrani": 4385,
      "Ġobeh": 4386,
      "ut": 4387,
      "Ġsy": 4388,
      "Ġtla": 4389,
      "Ġtaj": 4390,
      "Ġvez": 4391,
      "Ġsinte": 4392,
      "Ġdrzavne": 4393,
      "Ġmnenjem": 4394,
      "scanje": 4395,
      "gar": 4396,
      "rine": 4397,
      "sceni": 4398,
      "Ġdavcnega": 4399,
      "Ġzavezanec": 4400,
      "Ġnikakor": 4401,
      "Ġpodpi": 4402,
      "Ġembala": 4403,
      "Ġsheme": 4404,
      "Ġnjem": 4405,
      "Ġnatancneje": 4406,
      "Ġposredni": 4407,
      "Ġrazlage": 4408,
      "Ġnjenem": 4409,
      "Ġposega": 4410,
      "Ġdovoli": 4411,
      "Ġmedsebo": 4412,
      "Ġpridrz": 4413,
      "Ġdnevni": 4414,
      "Ġugovor": 4415,
      "Ġprosti": 4416,
      "Ġnaf": 4417,
      "Ġizte": 4418,
      "ĠÎ´": 4419,
      "Ġnaprav": 4420,
      "zentati": 4421,
      "Ġzivila": 4422,
      "Ġimel": 4423,
      "Ġzdruzi": 4424,
      "Ġbilan": 4425,
      "Ġstrinja": 4426,
      "Ġupraviceno": 4427,
      "Ġzakonom": 4428,
      "Ġosebam": 4429,
      "Ġnaslovom": 4430,
      "Ġzakonodaji": 4431,
      "Ġnjegovih": 4432,
      "Ġskupino": 4433,
      "Ġhcerin": 4434,
      "Ġdobre": 4435,
      "Ġnaprava": 4436,
      "Ġ114": 4437,
      "Ġslovenija": 4438,
      "Ġmikro": 4439,
      "Ġinteresa": 4440,
      "ÏĤ": 4441,
      "Ġ1991": 4442,
      "Ġopozar": 4443,
      "gib": 4444,
      "Ġokvirnega": 4445,
      "Ġdodatno": 4446,
      "Ġpreme": 4447,
      "Ġ118": 4448,
      "Ġrazreda": 4449,
      "Ġzo": 4450,
      "Ġmono": 4451,
      "lnik": 4452,
      "Ġ}": 4453,
      "Ġozemlje": 4454,
      "Ġreprezentati": 4455,
      "Ġobcu": 4456,
      "Ġzatrjuje": 4457,
      "Ġustaljeno": 4458,
      "Ġinstrumentov": 4459,
      "Ġzneskov": 4460,
      "Ġcelotno": 4461,
      "Ġupravljav": 4462,
      "dor": 4463,
      "kraji": 4464,
      "Ġzagotavljajo": 4465,
      "Ġpodjetjem": 4466,
      "Ġzdruzenega": 4467,
      "Ġ138": 4468,
      "Ġmorale": 4469,
      "Ġpoi": 4470,
      "Ġravna": 4471,
      "nta": 4472,
      "rezi": 4473,
      "Ġizku": 4474,
      "mor": 4475,
      "79": 4476,
      "Ġprostega": 4477,
      "Ġprogramov": 4478,
      "Ġvsekakor": 4479,
      "Ġnacionalnim": 4480,
      "Ġodobritve": 4481,
      "Ġvnaprej": 4482,
      "Ġ123": 4483,
      "Ġslovenske": 4484,
      "Ġpotrosnikov": 4485,
      "Ġ{": 4486,
      "Ġ600": 4487,
      "Ġkm": 4488,
      "stna": 4489,
      "Ġstre": 4490,
      "vale": 4491,
      "Ġprimerjavi": 4492,
      "Ġpritozbenega": 4493,
      "govarja": 4494,
      "Ġosebi": 4495,
      "Ġspremljanje": 4496,
      "trov": 4497,
      "Ġmesa": 4498,
      "Ġfinancna": 4499,
      "Ġuk": 4500,
      "Ġpravobranilca": 4501,
      "Ġobrazlozitev": 4502,
      "Ġvplivajo": 4503,
      "rre": 4504,
      "stiti": 4505,
      "ed": 4506,
      "lije": 4507,
      "rno": 4508,
      "Ġrevi": 4509,
      "Ġpote": 4510,
      "kel": 4511,
      "Ġobmo": 4512,
      "Ġzanes": 4513,
      "Ġstejejo": 4514,
      "Ġregistracije": 4515,
      "Ġdolocanje": 4516,
      "Ġdr": 4517,
      "Ġdeluje": 4518,
      "Ġneobjav": 4519,
      "Ġfinancno": 4520,
      "Ġkmetijstvo": 4521,
      "Ġmer": 4522,
      "lke": 4523,
      "via": 4524,
      "turi": 4525,
      "Ġ136": 4526,
      "upravi": 4527,
      "Ġnadaljnje": 4528,
      "Ġdiskre": 4529,
      "48": 4530,
      "Ġzatrje": 4531,
      "Ġbelgija": 4532,
      "cka": 4533,
      "Î¿Ïħ": 4534,
      "Ġizpodbijano": 4535,
      "pana": 4536,
      "Ġzadevo": 4537,
      "Ġtajni": 4538,
      "Ġribis": 4539,
      "vnem": 4540,
      "nes": 4541,
      "rekven": 4542,
      "tnimi": 4543,
      "Ġtretjega": 4544,
      "janjem": 4545,
      "Ġfazi": 4546,
      "Ġprepri": 4547,
      "ing": 4548,
      "Ġsem": 4549,
      "Ġzavarovalni": 4550,
      "Ġvino": 4551,
      "Ġgoriva": 4552,
      "Ġupravnega": 4553,
      "scha": 4554,
      "Ġplina": 4555,
      "Ġspremen": 4556,
      "volj": 4557,
      "Ġznamko": 4558,
      "Ġkopi": 4559,
      "Ġpoti": 4560,
      "zame": 4561,
      "Ġelement": 4562,
      "Ġmeje": 4563,
      "Ġmesecih": 4564,
      "qua": 4565,
      "Ġirska": 4566,
      "lia": 4567,
      "Ġeden": 4568,
      "Ġuporabilo": 4569,
      "Ġoksi": 4570,
      "Ġobravnavo": 4571,
      "Ġnemciji": 4572,
      "Ġvide": 4573,
      "cie": 4574,
      "Ġnacrt": 4575,
      "Ġnjeni": 4576,
      "Ġdolocajo": 4577,
      "gan": 4578,
      "Ġoblike": 4579,
      "Ġprijavi": 4580,
      "Ġalu": 4581,
      "Ġtam": 4582,
      "Ġskladnost": 4583,
      "Ġenaki": 4584,
      "Ġsadja": 4585,
      "kaj": 4586,
      "Ġnjihovega": 4587,
      "Ġrojstva": 4588,
      "Ġmateriala": 4589,
      "Ġnalaga": 4590,
      "Ġtribu": 4591,
      "Ġpodjetju": 4592,
      "toksi": 4593,
      "Ġposku": 4594,
      "Ġsklo": 4595,
      "Ð²": 4596,
      "kove": 4597,
      "Ġsprejetju": 4598,
      "Ġvprasanjem": 4599,
      "Ġmeta": 4600,
      "Ġkolikor": 4601,
      "Ġucinkov": 4602,
      "Ġcarinskega": 4603,
      "Ġkrat": 4604,
      "Ġpopravi": 4605,
      "scene": 4606,
      "Ġpotrebni": 4607,
      "mno": 4608,
      "Ġkraljestva": 4609,
      "Ġsir": 4610,
      "Ġintelek": 4611,
      "Ð»": 4612,
      "Ġpogodbenici": 4613,
      "Ġodvetnik": 4614,
      "Ġpriglasi": 4615,
      "Ġzunanje": 4616,
      "Ġtez": 4617,
      "Ġneupravi": 4618,
      "Î¼": 4619,
      "Ġanalize": 4620,
      "Ġcilji": 4621,
      "Ġ119": 4622,
      "Ġucinke": 4623,
      "Ġber": 4624,
      "Ġizravna": 4625,
      "9900": 4626,
      "Ġanalizo": 4627,
      "Ġperutni": 4628,
      "Ġmesta": 4629,
      "Ġkompo": 4630,
      "Ġ267": 4631,
      "Ġzavrnilo": 4632,
      "Ġeura": 4633,
      "Ġhar": 4634,
      "Ġkitajske": 4635,
      "Ġenoto": 4636,
      "Ġlaboratori": 4637,
      "pred": 4638,
      "Ġmol": 4639,
      "Ġoba": 4640,
      "glo": 4641,
      "Ġomogocajo": 4642,
      "Ġeti": 4643,
      "kvi": 4644,
      "Ġneskla": 4645,
      "Ġkreditna": 4646,
      "cle": 4647,
      "ljenosti": 4648,
      "tions": 4649,
      "010": 4650,
      "Ġodredi": 4651,
      "Ġtip": 4652,
      "ĠÃ": 4653,
      "Ġsporazumov": 4654,
      "Ġpovecanje": 4655,
      "Ġoprostitev": 4656,
      "Ġobjek": 4657,
      "Ġsporu": 4658,
      "Ġplinov": 4659,
      "Ġohran": 4660,
      "Ġpremozenja": 4661,
      "Ġlasti": 4662,
      "Ġnapake": 4663,
      "Ġracunalni": 4664,
      "Ġobsegu": 4665,
      "Ġprejema": 4666,
      "Ġpomena": 4667,
      "son": 4668,
      "Ġpristo": 4669,
      "vini": 4670,
      "Ġvprasanji": 4671,
      "Ġmalo": 4672,
      "Ġrazlike": 4673,
      "Ġznatno": 4674,
      "Ġprvim": 4675,
      "ljenja": 4676,
      "rnih": 4677,
      "Ġpravosod": 4678,
      "Ġcesar": 4679,
      "Ġtarifnih": 4680,
      "Ġoglase": 4681,
      "Ġnotranjem": 4682,
      "Ġpokri": 4683,
      "ml": 4684,
      "Ġ999": 4685,
      "Ġpredstavlje": 4686,
      "Ġstanju": 4687,
      "Ġonesna": 4688,
      "Ġzaposlitve": 4689,
      "Ġpriglase": 4690,
      "mid": 4691,
      "Ġposledicno": 4692,
      "ban": 4693,
      "Ġpresodi": 4694,
      "Ġgoz": 4695,
      "Ġzadnji": 4696,
      "Ġnaveden": 4697,
      "Ġdolzni": 4698,
      "Ġobrazlo": 4699,
      "Ġkolicino": 4700,
      "Ġviz": 4701,
      "tis": 4702,
      "Ġvodo": 4703,
      "Ġzrakop": 4704,
      "Ġ113": 4705,
      "Ġspomniti": 4706,
      "Ġ540": 4707,
      "Ġnobena": 4708,
      "Ġzapored": 4709,
      "niku": 4710,
      "Ġpoziti": 4711,
      "cenje": 4712,
      "Ġreziden": 4713,
      "Ġtretjic": 4714,
      "Ġzastopniki": 4715,
      "Ġgospodarsko": 4716,
      "Ġvloga": 4717,
      "Ġugodnosti": 4718,
      "Ġtozecih": 4719,
      "Ġpija": 4720,
      "ĠÎ±": 4721,
      "Ġpodeli": 4722,
      "Ġnjo": 4723,
      "Ġnaslednja": 4724,
      "Ġtozni": 4725,
      "Ġanalizi": 4726,
      "Ġneobstoj": 4727,
      "Ġ320": 4728,
      "Ġfrekven": 4729,
      "Ġposredno": 4730,
      "Ġeviden": 4731,
      "Ġkombina": 4732,
      "Ġdolocila": 4733,
      "Ġpojasnila": 4734,
      "Ġtrans": 4735,
      "Ġgroz": 4736,
      "Ġcezme": 4737,
      "Ġinvali": 4738,
      "gericht": 4739,
      "Ġnadzorom": 4740,
      "Ġsklada": 4741,
      "Ġzmogljivost": 4742,
      "Ġdiskriminacije": 4743,
      "Ġenergijo": 4744,
      "Ġplov": 4745,
      "lis": 4746,
      "Ġpojasnje": 4747,
      "Ġljud": 4748,
      "Ġslova": 4749,
      "Ġif": 4750,
      "Ġdejanske": 4751,
      "stevil": 4752,
      "sul": 4753,
      "rus": 4754,
      "Ġnadomestil": 4755,
      "Ġmotorja": 4756,
      "Ġpeti": 4757,
      "animi": 4758,
      "bit": 4759,
      "Ġrazvoja": 4760,
      "Ġpodeze": 4761,
      "Ġtakrat": 4762,
      "Ġ130": 4763,
      "Ġintelektua": 4764,
      "Ġsvobode": 4765,
      "Ġstevila": 4766,
      "Ġasp": 4767,
      "Ġphp": 4768,
      "seni": 4769,
      "citvi": 4770,
      "Ġizvedbeni": 4771,
      "Ġ250": 4772,
      "Ġsz": 4773,
      "Ġdopol": 4774,
      "97": 4775,
      "Ġmojem": 4776,
      "Ġnjegova": 4777,
      "Ġobmocij": 4778,
      "fer": 4779,
      "Ġpripombe": 4780,
      "ya": 4781,
      "Ġ140": 4782,
      "Ġvpliv": 4783,
      "gri": 4784,
      "Ġizvze": 4785,
      "cke": 4786,
      "Ġuvedbi": 4787,
      "Ġnavi": 4788,
      "dinj": 4789,
      "Ġpredel": 4790,
      "bere": 4791,
      "Ġprete": 4792,
      "Ġdampinga": 4793,
      "990": 4794,
      "vet": 4795,
      "Ġnjena": 4796,
      "Ġnadzoru": 4797,
      "Ġneodvis": 4798,
      "Ġzen": 4799,
      "Ġraztopi": 4800,
      "duje": 4801,
      "Ġpreprecevanje": 4802,
      "nejo": 4803,
      "Ġprosnje": 4804,
      "Ġkoncesi": 4805,
      "Ġ2574": 4806,
      "Ġcps": 4807,
      "Ġbro": 4808,
      "Ġgloba": 4809,
      "Ġlukse": 4810,
      "Ġgostitelji": 4811,
      "Ġtranzi": 4812,
      "Ġdeu": 4813,
      "Ġnekd": 4814,
      "vla": 4815,
      "Ġloceno": 4816,
      "Ġprebivanja": 4817,
      "Ġpoz": 4818,
      "Ġsest": 4819,
      "Ġorgane": 4820,
      "Ġgospodinj": 4821,
      "Ġrazsiri": 4822,
      "Ġprisi": 4823,
      "Ġodkri": 4824,
      "Ġtoba": 4825,
      "Ġolje": 4826,
      "Ġ111": 4827,
      "Ġnaslovljen": 4828,
      "zala": 4829,
      "Ġopredeljena": 4830,
      "Ġdolocbah": 4831,
      "Ġvozni": 4832,
      "Ġgorivo": 4833,
      "Ġpoljska": 4834,
      "Ġdeze": 4835,
      "Ġpreiskava": 4836,
      "Ïħ": 4837,
      "Ġoto": 4838,
      "Ġpoten": 4839,
      "Ġnorve": 4840,
      "ld": 4841,
      "Ġkak": 4842,
      "torji": 4843,
      "Ġsodelovanju": 4844,
      "Ġche": 4845,
      "Ġdatumom": 4846,
      "cs": 4847,
      "Ġpreudar": 4848,
      "Ġreda": 4849,
      "Ġshranje": 4850,
      "Ġuredb": 4851,
      "Ġusklajevanje": 4852,
      "Ġprasi": 4853,
      "minja": 4854,
      "Ġsporocila": 4855,
      "Ġizjeme": 4856,
      "Ġskupin": 4857,
      "Ġzivljen": 4858,
      "Ġposamezne": 4859,
      "ws": 4860,
      "Ġobjave": 4861,
      "Ġnaravo": 4862,
      "vanega": 4863,
      "Ġtaksne": 4864,
      "Ġsup": 4865,
      "Ġupravicena": 4866,
      "Ġresitev": 4867,
      "Ġned": 4868,
      "Ġsporni": 4869,
      "Ġtarifno": 4870,
      "Ġmeja": 4871,
      "Ġprejme": 4872,
      "Ġtemeljijo": 4873,
      "Ġocita": 4874,
      "Ġrq": 4875,
      "Ġzasno": 4876,
      "cami": 4877,
      "Ġposlovnih": 4878,
      "Ġ620": 4879,
      "Ġalinea": 4880,
      "Ġfinance": 4881,
      "Ġdebe": 4882,
      "Ġbun": 4883,
      "Ġpomor": 4884,
      "Ġkomer": 4885,
      "get": 4886,
      "Ġprebivalisca": 4887,
      "ry": 4888,
      "Ġzdravja": 4889,
      "Ġdneh": 4890,
      "Ġdolocenem": 4891,
      "Ġmal": 4892,
      "Ġrezultati": 4893,
      "Ġmesanice": 4894,
      "Ġblagov": 4895,
      "fon": 4896,
      "lcu": 4897,
      "Ġvest": 4898,
      "Ġtrgovino": 4899,
      "Ġkodek": 4900,
      "Ġpogoja": 4901,
      "Ġstroskih": 4902,
      "Ġzacetkom": 4903,
      "gotovo": 4904,
      "Ġprekini": 4905,
      "Ġlan": 4906,
      "Ġjezikov": 4907,
      "Ġotrok": 4908,
      "Ġsmernic": 4909,
      "Ġkonstru": 4910,
      "Ġfaktor": 4911,
      "dera": 4912,
      "Ġsteca": 4913,
      "Ġreto": 4914,
      "Ġstano": 4915,
      "Ġpredpise": 4916,
      "Ġpoma": 4917,
      "Ġpotrebnih": 4918,
      "Ġdalj": 4919,
      "Ġ611": 4920,
      "Ġodborom": 4921,
      "Ġrsms": 4922,
      "Ġrazveljavitev": 4923,
      "Ġvsebine": 4924,
      "Ġtru": 4925,
      "Ġsmot": 4926,
      "scine": 4927,
      "Ġstandardov": 4928,
      "Ġher": 4929,
      "Ġrqrr": 4930,
      "Ġht": 4931,
      "Ġqrre": 4932,
      "73": 4933,
      "Ġodbitka": 4934,
      "cioni": 4935,
      "96": 4936,
      "Ġblo": 4937,
      "Ġznamk": 4938,
      "Ġugodi": 4939,
      "dra": 4940,
      "Ġlrk": 4941,
      "rei": 4942,
      "Ġrazlikuje": 4943,
      "Ġnarocil": 4944,
      "Ġrese": 4945,
      "Ġ121": 4946,
      "cher": 4947,
      "Ġprece": 4948,
      "Ġ870": 4949,
      "Ġnatri": 4950,
      "sanju": 4951,
      "Ġodboru": 4952,
      "zy": 4953,
      "Ġdos": 4954,
      "logiji": 4955,
      "Ġprilagoditev": 4956,
      "Ġoprem": 4957,
      "Ġtrosa": 4958,
      "Ġgibanja": 4959,
      "Ġsenata": 4960,
      "Ġplovil": 4961,
      "Ġizvrsitve": 4962,
      "Ġnr": 4963,
      "Ġpritozbi": 4964,
      "Ġ160": 4965,
      "Ġnate": 4966,
      "Ġnavedlo": 4967,
      "nove": 4968,
      "skodo": 4969,
      "Ġizdaje": 4970,
      "Ġbis": 4971,
      "Ġcha": 4972,
      "Ġvzpostavitvi": 4973,
      "Ġhy": 4974,
      "Ġosred": 4975,
      "Ġtradi": 4976,
      "njuje": 4977,
      "Ġlegitim": 4978,
      "Ġzavarovanjem": 4979,
      "Ġfito": 4980,
      "Ġkategorijo": 4981,
      "Ġonesnaze": 4982,
      "Ġalter": 4983,
      "Ġocitek": 4984,
      "cevanju": 4985,
      "Ġace": 4986,
      "vori": 4987,
      "Ġklav": 4988,
      "Ġnavodila": 4989,
      "Ġprostor": 4990,
      "Ġproizvede": 4991,
      "Ġ116": 4992,
      "cini": 4993,
      "nistvo": 4994,
      "Ġproizvodnji": 4995,
      "Ġopozarja": 4996,
      "Ġekstra": 4997,
      "Ġsplosnim": 4998,
      "gari": 4999,
      "Ġ135": 5000,
      "Ġokre": 5001,
      "Ġvhod": 5002,
      "Ġokoliscina": 5003,
      "Ġzacasni": 5004,
      "Ġpravobranilec": 5005,
      "Ġvno": 5006,
      "Ġmasa": 5007,
      "Ġucinki": 5008,
      "Ġdobicka": 5009,
      "Ġdrzavnih": 5010,
      "Ġstrankam": 5011,
      "Ġsre": 5012,
      "Ġsredstvi": 5013,
      "Ġciljem": 5014,
      "Ġnamenjeni": 5015,
      "Ġugotavljanje": 5016,
      "Ġoblasti": 5017,
      "Ġsprejetja": 5018,
      "pravek": 5019,
      "Ġsveze": 5020,
      "Ġuvozu": 5021,
      "zija": 5022,
      "Ġ529900": 5023,
      "Ġ1990": 5024,
      "Ġlikvi": 5025,
      "Ġefsa": 5026,
      "ang": 5027,
      "Ġdoseci": 5028,
      "Ġudelez": 5029,
      "enj": 5030,
      "zila": 5031,
      "Ġskupini": 5032,
      "gon": 5033,
      "Ġnamesto": 5034,
      "Ġpriznanje": 5035,
      "Ġzvi": 5036,
      "rala": 5037,
      "Ġsestavni": 5038,
      "Ġvrhovno": 5039,
      "xe": 5040,
      "Ġnjihov": 5041,
      "Ġpriznava": 5042,
      "scanja": 5043,
      "Ġzakonitosti": 5044,
      "Ġkrsila": 5045,
      "Ġportugalska": 5046,
      "dina": 5047,
      "Ġsubjekta": 5048,
      "cnost": 5049,
      "Ġuvozna": 5050,
      "Ġveliki": 5051,
      "Ġrazlagi": 5052,
      "Ġsebi": 5053,
      "Ġpoglavju": 5054,
      "Ġzasciti": 5055,
      "Ġozemlja": 5056,
      "Ġpreiskavi": 5057,
      "et": 5058,
      "Ġodgovori": 5059,
      "Ġdokumente": 5060,
      "Ġodvisna": 5061,
      "jsi": 5062,
      "Ġkategorija": 5063,
      "Ġ350": 5064,
      "Ġfinanciranje": 5065,
      "Ġei": 5066,
      "Ġ139": 5067,
      "Ġdividen": 5068,
      "Ġsin": 5069,
      "Ġupravno": 5070,
      "mak": 5071,
      "Ġpodjet": 5072,
      "Ġsili": 5073,
      "Ġtrgom": 5074,
      "ĠÃĹ": 5075,
      "Ġnati": 5076,
      "Ġprilagoditve": 5077,
      "Ġizcr": 5078,
      "Ġostane": 5079,
      "Ġrepubliko": 5080,
      "Ġizdana": 5081,
      "Ġucinkovitega": 5082,
      "Ġvir": 5083,
      "Ġnalozb": 5084,
      "zenega": 5085,
      "Ġpredlozilo": 5086,
      "razi": 5087,
      "stu": 5088,
      "Ġzdravil": 5089,
      "Ġinterne": 5090,
      "Ġnacrta": 5091,
      "Ġizvoza": 5092,
      "Ġpolje": 5093,
      "Ġnotranjega": 5094,
      "Ġodstopanja": 5095,
      "gih": 5096,
      "Ġkisline": 5097,
      "Ġobdel": 5098,
      "Ġnacionalnimi": 5099,
      "Ġzanje": 5100,
      "Ġ@": 5101,
      "Ġurejajo": 5102,
      "Ġdirektiv": 5103,
      "metil": 5104,
      "Ġexcl": 5105,
      "lc": 5106,
      "lle": 5107,
      "Ġbom": 5108,
      "Ġ122": 5109,
      "Ġuradnega": 5110,
      "Ġsvetov": 5111,
      "loge": 5112,
      "Ġdejanski": 5113,
      "Ġdovoljeno": 5114,
      "Ġsekun": 5115,
      "dri": 5116,
      "Ġkaj": 5117,
      "dnosti": 5118,
      "Ġcrr": 5119,
      "Ġsvetlo": 5120,
      "Ġpredlozili": 5121,
      "Ġustrezajo": 5122,
      "strati": 5123,
      "Ġ126": 5124,
      "zin": 5125,
      "Ġnaceli": 5126,
      "Ġprejela": 5127,
      "Ġkoncno": 5128,
      "Ġpreizkus": 5129,
      "Ġmorebitne": 5130,
      "Ġdelovni": 5131,
      "gani": 5132,
      "Ġpreverjanja": 5133,
      "Ġpripada": 5134,
      "Ġkvot": 5135,
      "Ġ124": 5136,
      "Ġmorda": 5137,
      "njenavede": 5138,
      "Ġpodezelja": 5139,
      "Ġkadrovskih": 5140,
      "Ġhidroksi": 5141,
      "kami": 5142,
      "Ġ145": 5143,
      "Ġpredvideni": 5144,
      "Ġdemo": 5145,
      "Ġzemljis": 5146,
      "Ġspreminja": 5147,
      "Ġpredlogu": 5148,
      "Ġtelevizi": 5149,
      "Ġzadnjenavede": 5150,
      "Ġplace": 5151,
      "Ġizvoznih": 5152,
      "Ġpodstevil": 5153,
      "Ġmogla": 5154,
      "Ġeuratom": 5155,
      "Ġpovezano": 5156,
      "Ġpretoka": 5157,
      "js": 5158,
      "Ġcelotnega": 5159,
      "Ġladje": 5160,
      "Ġuvodnih": 5161,
      "Ġund": 5162,
      "Ġpoeno": 5163,
      "Ġorganizi": 5164,
      "Ġzacela": 5165,
      "anem": 5166,
      "Ġterjatve": 5167,
      "Ġobrato": 5168,
      "Ġglu": 5169,
      "Ġregula": 5170,
      "Ġnimajo": 5171,
      "Ġukraji": 5172,
      "Ġvlozil": 5173,
      "Ġmenila": 5174,
      "Ġpreiskavo": 5175,
      "Ġpozne": 5176,
      "Ġzdaj": 5177,
      "Ġodno": 5178,
      "lnosti": 5179,
      "Ġpooblastil": 5180,
      "nici": 5181,
      "Ġ025": 5182,
      "Ġalternati": 5183,
      "Ġustave": 5184,
      "Ġ263": 5185,
      "Ġomejena": 5186,
      "Ġodskodnine": 5187,
      "Ġdejanj": 5188,
      "Ġtretja": 5189,
      "anav": 5190,
      "teljev": 5191,
      "Ġtrze": 5192,
      "Ġdovoljena": 5193,
      "Ġ1234": 5194,
      "Ġdio": 5195,
      "Ġustanav": 5196,
      "Ġupraviceni": 5197,
      "Ġml": 5198,
      "stila": 5199,
      "Ġsamode": 5200,
      "Ġsvedska": 5201,
      "Ġvsem": 5202,
      "Ġmehaniz": 5203,
      "Ġkompone": 5204,
      "Ġdavcna": 5205,
      "Ġpresodilo": 5206,
      "Ġtkanine": 5207,
      "Ġdajanje": 5208,
      "Ġimetnika": 5209,
      "Ġpoimeno": 5210,
      "Ġupravne": 5211,
      "Ġneupo": 5212,
      "Ġsporna": 5213,
      "Ġspisa": 5214,
      "Ġnavz": 5215,
      "Ġdodatna": 5216,
      "Ġzaracu": 5217,
      "Ġrazlicici": 5218,
      "Ġnena": 5219,
      "Ġ141": 5220,
      "Ġjedr": 5221,
      "Ġokvira": 5222,
      "Ġ721": 5223,
      "Ġmednarodnih": 5224,
      "Ġrezultat": 5225,
      "Ġtuji": 5226,
      "Ġara": 5227,
      "Ġkoru": 5228,
      "Ġkarte": 5229,
      "snem": 5230,
      "ny": 5231,
      "Ġpogosto": 5232,
      "Ġvstavi": 5233,
      "Ġvre": 5234,
      "Ġdrzavljanstvo": 5235,
      "Ġporoceval": 5236,
      "Ġavia": 5237,
      "Ġpopu": 5238,
      "Ġvprasa": 5239,
      "Ġurada": 5240,
      "Ġobracuna": 5241,
      "akti": 5242,
      "Ġtehnicno": 5243,
      "Ġzneski": 5244,
      "Ġhek": 5245,
      "lcem": 5246,
      "Ġtrdila": 5247,
      "Ġtrzno": 5248,
      "Ġminera": 5249,
      "Ġbruse": 5250,
      "ranjem": 5251,
      "zajem": 5252,
      "Ġ850": 5253,
      "Ġpretek": 5254,
      "Ġrezultatov": 5255,
      "ting": 5256,
      "Ġbruto": 5257,
      "Ġobstojece": 5258,
      "anim": 5259,
      "Ġpodobnih": 5260,
      "Ġprofi": 5261,
      "Ġveljavnost": 5262,
      "plete": 5263,
      "Ġpreisko": 5264,
      "Ġstopenj": 5265,
      "Ġcarinske": 5266,
      "Ġkoncni": 5267,
      "Ġredno": 5268,
      "Ġmsc": 5269,
      "Ġsistemom": 5270,
      "lce": 5271,
      "rd": 5272,
      "Ġodstopanje": 5273,
      "78": 5274,
      "Ġinfrastrukture": 5275,
      "Ġbomba": 5276,
      "Ġnacionalnem": 5277,
      "Ġizmed": 5278,
      "nomi": 5279,
      "Ġkreditnim": 5280,
      "tak": 5281,
      "Ġabsolu": 5282,
      "Ġ520": 5283,
      "Ġitd": 5284,
      "ĠÂ±": 5285,
      "ine": 5286,
      "Ġzelenjave": 5287,
      "Ġpodredno": 5288,
      "Ġklavzu": 5289,
      "Ġgolju": 5290,
      "Ġnazi": 5291,
      "zije": 5292,
      "Ġpristojnega": 5293,
      "rbi": 5294,
      "mann": 5295,
      "Ġustrezna": 5296,
      "Ġstvar": 5297,
      "tv": 5298,
      "Ġvzajem": 5299,
      "ljenost": 5300,
      "zja": 5301,
      "Ġrazisko": 5302,
      "Ġsocialno": 5303,
      "Ġfizicne": 5304,
      "Ġsmernice": 5305,
      "ĠÏĦ": 5306,
      "Ġnika": 5307,
      "Ġdavcno": 5308,
      "Ġstekle": 5309,
      "Ġnamenjena": 5310,
      "Ġtranspo": 5311,
      "Ġclane": 5312,
      "Ġtozeco": 5313,
      "Ġracunovodskih": 5314,
      "Ġprepro": 5315,
      "lij": 5316,
      "wer": 5317,
      "Ġdolocbi": 5318,
      "Ġpodpore": 5319,
      "kto": 5320,
      "Ġleti": 5321,
      "Ġ132": 5322,
      "tio": 5323,
      "Ġindividua": 5324,
      "Ġ016": 5325,
      "302": 5326,
      "Ġdelnicar": 5327,
      "Ġizraza": 5328,
      "Ġpostavlje": 5329,
      "Ġotroka": 5330,
      "wo": 5331,
      "jujejo": 5332,
      "Ġvle": 5333,
      "Ġhrane": 5334,
      "Ġterjatev": 5335,
      "Ġkemika": 5336,
      "Ġfunkcije": 5337,
      "Ġdie": 5338,
      "Ġpotrjuje": 5339,
      "Ġnajniz": 5340,
      "Ġnadzorni": 5341,
      "Ġzadevnem": 5342,
      "001": 5343,
      "Ġpogajan": 5344,
      "ull": 5345,
      "Ġprezi": 5346,
      "Ġteze": 5347,
      "72": 5348,
      "Ġribi": 5349,
      "ziti": 5350,
      "Ġomejeno": 5351,
      "Ġ129": 5352,
      "Ġtrenutno": 5353,
      "Ġporoca": 5354,
      "Ġbreme": 5355,
      "sceno": 5356,
      "Ġopredeljeno": 5357,
      "dnem": 5358,
      "Ġutr": 5359,
      "dih": 5360,
      "Ġrezerva": 5361,
      "Î¹Î±": 5362,
      "Ġvoz": 5363,
      "Ġkarti": 5364,
      "Ġvoja": 5365,
      "Ġdavcnih": 5366,
      "Ġnastala": 5367,
      "cki": 5368,
      "Ġsvobo": 5369,
      "Ġanalogiji": 5370,
      "Ġposodo": 5371,
      "Ġpaten": 5372,
      "Ġdoseze": 5373,
      "Ġ134": 5374,
      "zol": 5375,
      "Ġ230": 5376,
      "mburg": 5377,
      "Ġstrategi": 5378,
      "Ġopredelitvi": 5379,
      "Ġgoljufi": 5380,
      "Ġkoledar": 5381,
      "Ġdelovne": 5382,
      "Ġzahtevala": 5383,
      "Ġsodnih": 5384,
      "Ġstatusa": 5385,
      "njeno": 5386,
      "Ġpodrobnosti": 5387,
      "ljivega": 5388,
      "Ġstrokovnja": 5389,
      "sla": 5390,
      "Ġdrzavljanov": 5391,
      "Ġkoe": 5392,
      "Ġdokoncno": 5393,
      "Ġucinkovitost": 5394,
      "Ġvne": 5395,
      "Ġznaci": 5396,
      "Ġpomembne": 5397,
      "Ġtac": 5398,
      "cor": 5399,
      "doma": 5400,
      "Ġkakovost": 5401,
      "Ġobo": 5402,
      "turo": 5403,
      "Ġkakrsne": 5404,
      "stvih": 5405,
      "Ġadministra": 5406,
      "Ġenem": 5407,
      "Ġfra": 5408,
      "Ġpret": 5409,
      "Ġzaposlo": 5410,
      "lli": 5411,
      "Ġ720": 5412,
      "Ġaktivne": 5413,
      "Ġclenoma": 5414,
      "sh": 5415,
      "Ġucinkom": 5416,
      "Ġpreda": 5417,
      "Ġzvo": 5418,
      "Ġspremenjen": 5419,
      "Ġplu": 5420,
      "Ġodlocanja": 5421,
      "ficien": 5422,
      "Ġjanuar": 5423,
      "Ġizbri": 5424,
      "Ġdelavec": 5425,
      "Ġservice": 5426,
      "Ġusposabljanje": 5427,
      "Ġrelati": 5428,
      "klop": 5429,
      "Ġoku": 5430,
      "Ġtveganj": 5431,
      "Ġsprejetjem": 5432,
      "Ġzbir": 5433,
      "nev": 5434,
      "Ġosebja": 5435,
      "Ġodstavkov": 5436,
      "Ġevropskem": 5437,
      "Ġdelom": 5438,
      "Ġprosnjo": 5439,
      "Ġnavedenem": 5440,
      "Ġpeu": 5441,
      "vt": 5442,
      "strukturi": 5443,
      "Ġlatvi": 5444,
      "Ġ0805": 5445,
      "Ġdatumu": 5446,
      "Ġvzpostavlje": 5447,
      "Ġvero": 5448,
      "Ġnapoti": 5449,
      "Ġty": 5450,
      "Ġkrsitvi": 5451,
      "Ġsemena": 5452,
      "stov": 5453,
      "Ġpokojnine": 5454,
      "Ġdejanje": 5455,
      "Ġfu": 5456,
      "rio": 5457,
      "Ġzadostuje": 5458,
      "Ġustavi": 5459,
      "Ġrazmerju": 5460,
      "Ġobcut": 5461,
      "Ġ128": 5462,
      "ljati": 5463,
      "Ġskoda": 5464,
      "Ġpovezave": 5465,
      "Ġizb": 5466,
      "Ġseznamu": 5467,
      "lka": 5468,
      "Ġodpre": 5469,
      "Ġzahtevati": 5470,
      "Ġvelikosti": 5471,
      "Ġzni": 5472,
      "Ġkratko": 5473,
      "Ġzazna": 5474,
      "Ġpritoznik": 5475,
      "Ġkarbo": 5476,
      "Ġnuj": 5477,
      "ye": 5478,
      "Î³": 5479,
      "Ġdeleza": 5480,
      "Ġtrajanja": 5481,
      "Ġdobave": 5482,
      "ira": 5483,
      "Ġpristojnih": 5484,
      "Ġtransakcij": 5485,
      "Ġoddajo": 5486,
      "Ġdobicek": 5487,
      "Ġskupnem": 5488,
      "ph": 5489,
      "Ġvsebina": 5490,
      "Ġpripravo": 5491,
      "Ġvprasanj": 5492,
      "Ġdelujejo": 5493,
      "Ġistem": 5494,
      "vnost": 5495,
      "Ġdomnevno": 5496,
      "Ġrazlika": 5497,
      "Ġkoncentracije": 5498,
      "Ġtrajnost": 5499,
      "Ġvlozitev": 5500,
      "raza": 5501,
      "Ġuveljavi": 5502,
      "Ġzaposlenih": 5503,
      "Ġpovsem": 5504,
      "76": 5505,
      "Ġtaksno": 5506,
      "Ġponudnik": 5507,
      "Ġomejevalnih": 5508,
      "Ġprehrano": 5509,
      "stre": 5510,
      "Ġnovega": 5511,
      "Ġnepravilnosti": 5512,
      "Ġdrzavljani": 5513,
      "Ġverjetnost": 5514,
      "Ġnape": 5515,
      "tat": 5516,
      "Ġprostem": 5517,
      "zan": 5518,
      "lah": 5519,
      "Ġsodnem": 5520,
      "Ġnapako": 5521,
      "Ġvelike": 5522,
      "Ġbor": 5523,
      "Ġdodatni": 5524,
      "Ġpooblastilo": 5525,
      "Ġclenih": 5526,
      "Ġresevanje": 5527,
      "Ġvodah": 5528,
      "Ġtaksnih": 5529,
      "Ġsporazumi": 5530,
      "Ġplacil": 5531,
      "Ġsodisc": 5532,
      "Ġsprejetih": 5533,
      "rja": 5534,
      "rami": 5535,
      "Ġuporabljeni": 5536,
      "Ġprakti": 5537,
      "Ġusposob": 5538,
      "Ġceli": 5539,
      "Ġpisno": 5540,
      "Ġelektronski": 5541,
      "Ġpozneje": 5542,
      "Ġsistemati": 5543,
      "Ġjavnem": 5544,
      "Ġvina": 5545,
      "torja": 5546,
      "kujejo": 5547,
      "Ġprojekta": 5548,
      "Ġ133": 5549,
      "Ġmasco": 5550,
      "Ġneobsto": 5551,
      "Ġsklicevati": 5552,
      "Ġvracilo": 5553,
      "Ġznizanje": 5554,
      "Ġmoznih": 5555,
      "Ġvzdrzevanje": 5556,
      "Ġ131": 5557,
      "Ðº": 5558,
      "cion": 5559,
      "Ġodvetnika": 5560,
      "Ġznesku": 5561,
      "Ġhtml": 5562,
      "Ġpovrsine": 5563,
      "nin": 5564,
      "Ġupravnih": 5565,
      "Ġlini": 5566,
      "Ġopredeljen": 5567,
      "ĠÎº": 5568,
      "Ġgeneral": 5569,
      "rna": 5570,
      "Ġopredeljene": 5571,
      "Ġnekaj": 5572,
      "sati": 5573,
      "Ġzapad": 5574,
      "Ġdigi": 5575,
      "jskem": 5576,
      "Ġlastnine": 5577,
      "Ġprepa": 5578,
      "Ġprostorni": 5579,
      "Ġsrednje": 5580,
      "Ġdodeljena": 5581,
      "Ġpredlagala": 5582,
      "Ġopombe": 5583,
      "Ġfrancoska": 5584,
      "Ġsadje": 5585,
      "Ġsamem": 5586,
      "Ġnateca": 5587,
      "njen": 5588,
      "Ġ1049": 5589,
      "Ġuvodno": 5590,
      "Ġposlovanja": 5591,
      "Ġino": 5592,
      "Ġea": 5593,
      "Ġ440": 5594,
      "Ġodgovora": 5595,
      "Ġpodlage": 5596,
      "Ġneobjavljena": 5597,
      "tera": 5598,
      "Ġodobritvi": 5599,
      "Ġpodrobne": 5600,
      "Ġkoeficien": 5601,
      "Ġteht": 5602,
      "Ġodvisno": 5603,
      "Ġ610": 5604,
      "Ġpubli": 5605,
      "Ġvnos": 5606,
      "Ġzemelj": 5607,
      "Ġcin": 5608,
      "Ġizpolnila": 5609,
      "Ġnamenjene": 5610,
      "nine": 5611,
      "Ġtezave": 5612,
      "Ġsvojim": 5613,
      "Ġnevarnosti": 5614,
      "Ġnakup": 5615,
      "Ġavstrija": 5616,
      "cenja": 5617,
      "Ġhrva": 5618,
      "dae": 5619,
      "Ġprilago": 5620,
      "Ġindeks": 5621,
      "sev": 5622,
      "Ġglaso": 5623,
      "Ġprotidampinske": 5624,
      "Ġrazmere": 5625,
      "Ġaviation": 5626,
      "Ġ340": 5627,
      "Ġmetodologi": 5628,
      "Ġneposredni": 5629,
      "Ġmenilo": 5630,
      "Ġcpc": 5631,
      "Ġvrednote": 5632,
      "nc": 5633,
      "Ġzahtevkov": 5634,
      "Ġpredlozil": 5635,
      "Ġodgovoru": 5636,
      "Ġvrednostjo": 5637,
      "Ġzgornje": 5638,
      "Ġugotovitvah": 5639,
      "Ġskupnim": 5640,
      "Ġpridruzi": 5641,
      "Ġpredstavljajo": 5642,
      "Ġzakaj": 5643,
      "Ġzrakoplo": 5644,
      "Ġpozavaro": 5645,
      "Ġprebival": 5646,
      "Ġvoli": 5647,
      "Ġprebivanje": 5648,
      "Ġzakonske": 5649,
      "Ġ480": 5650,
      "Ġspecia": 5651,
      "Ġizvajati": 5652,
      "Ġusluzbence": 5653,
      "Ġore": 5654,
      "Ġzamrznje": 5655,
      "Ġpristopu": 5656,
      "Ġ1987": 5657,
      "Ġekonomsko": 5658,
      "Ġolajsa": 5659,
      "forma": 5660,
      "Ġgeme": 5661,
      "Ġodstopanjem": 5662,
      "grafi": 5663,
      "Ġmejne": 5664,
      "Ġjavnost": 5665,
      "Ġ148": 5666,
      "Ġzgod": 5667,
      "Ġizogib": 5668,
      "Ġkw": 5669,
      "Ġuprava": 5670,
      "Ġseve": 5671,
      "Ġodstranje": 5672,
      "Ġsigna": 5673,
      "kt": 5674,
      "Ġsankcije": 5675,
      "Ġizvrsitev": 5676,
      "Ġostankov": 5677,
      "Ġed": 5678,
      "Ġanglescina": 5679,
      "Ġsal": 5680,
      "Ġother": 5681,
      "Ġdopisom": 5682,
      "Ġresolu": 5683,
      "Ġosebje": 5684,
      "Ġponovi": 5685,
      "jocega": 5686,
      "Ġpospe": 5687,
      "Ġtemeljne": 5688,
      "Ġobvestilu": 5689,
      "Ġznak": 5690,
      "Ġkakrsna": 5691,
      "Ġ021": 5692,
      "Ġsami": 5693,
      "Ġobravnavajo": 5694,
      "Ġiec": 5695,
      "Ġori": 5696,
      "Ġcent": 5697,
      "rie": 5698,
      "fen": 5699,
      "valna": 5700,
      "Ġdohodkov": 5701,
      "Ġparlamentu": 5702,
      "Ġneso": 5703,
      "Ġvsemi": 5704,
      "Ġzapu": 5705,
      "Ġou": 5706,
      "Ġnepremicnine": 5707,
      "ot": 5708,
      "bar": 5709,
      "Ġcentralnih": 5710,
      "Ġcrpana": 5711,
      "ljujejo": 5712,
      "Ġsprejet": 5713,
      "Ġ730": 5714,
      "Ġute": 5715,
      "Ġprepreci": 5716,
      "Ġfull": 5717,
      "Ġletom": 5718,
      "Ġkakrsen": 5719,
      "Ġkata": 5720,
      "Ġmenja": 5721,
      "Ġzajeti": 5722,
      "Ġpredlozene": 5723,
      "Ġprostovolj": 5724,
      "Ġletno": 5725,
      "Ġpripis": 5726,
      "Ġreferencno": 5727,
      "Ġmis": 5728,
      "Ġsplosnem": 5729,
      "Ġzadovo": 5730,
      "Ġzaro": 5731,
      "Ġjavna": 5732,
      "Ġopti": 5733,
      "Ġplosce": 5734,
      "znem": 5735,
      "Ġprijava": 5736,
      "Ġspoji": 5737,
      "Ġnespo": 5738,
      "Ġvarovanja": 5739,
      "Ġpovracilo": 5740,
      "Ġprimerja": 5741,
      "Ġneodvisno": 5742,
      "Ġstorila": 5743,
      "rah": 5744,
      "sene": 5745,
      "wal": 5746,
      "Ġ414": 5747,
      "meti": 5748,
      "Ġizvir": 5749,
      "Ġdelegirane": 5750,
      "Ġprispevek": 5751,
      "Ġvroci": 5752,
      "Ġzadostno": 5753,
      "Ġgradbenistvo": 5754,
      "mentih": 5755,
      "Ġmaso": 5756,
      "Ġnelo": 5757,
      "Ġnavedenim": 5758,
      "san": 5759,
      "jocih": 5760,
      "Ġustreznimi": 5761,
      "Ġutemeljena": 5762,
      "Ġrazlicno": 5763,
      "Ġposl": 5764,
      "Ġneposte": 5765,
      "Ġobremeni": 5766,
      "Ġdobrega": 5767,
      "chts": 5768,
      "Ġip": 5769,
      "Ġpotrosnik": 5770,
      "Ġhabi": 5771,
      "Ġaspx": 5772,
      "Ġsporocilo": 5773,
      "Ġmodeli": 5774,
      "Ġzaveze": 5775,
      "Ġpotrdil": 5776,
      "Ġkonvencija": 5777,
      "Ġznamki": 5778,
      "Ġglob": 5779,
      "Ġsor": 5780,
      "Ġslovenije": 5781,
      "Ġtaksna": 5782,
      "Ġbanka": 5783,
      "Ġzda": 5784,
      "Ġobdelave": 5785,
      "Ġimeli": 5786,
      "snosti": 5787,
      "Ġadministrati": 5788,
      "Ġizraze": 5789,
      "ls": 5790,
      "Ġ147": 5791,
      "Ġvzro": 5792,
      "Ġrazumeti": 5793,
      "Ġcenah": 5794,
      "Ġclovekovih": 5795,
      "Ġpredhodnega": 5796,
      "Ġzagotavljanja": 5797,
      "Ġgospodarskega": 5798,
      "Ġspornega": 5799,
      "Ġzas": 5800,
      "400": 5801,
      "Ġprestrukturi": 5802,
      "Ġarbit": 5803,
      "Ġrazcle": 5804,
      "druz": 5805,
      "Ġitalijanska": 5806,
      "port": 5807,
      "Ġbolgari": 5808,
      "Ġ142": 5809,
      "Ġpen": 5810,
      "Ġmleko": 5811,
      "Ġporocanja": 5812,
      "Ġproizvajalce": 5813,
      "Ġpredvideva": 5814,
      "Ġ143": 5815,
      "ction": 5816,
      "Ġdeuts": 5817,
      "Ġnavedbo": 5818,
      "rednih": 5819,
      "Ġzavrnitvi": 5820,
      "Ġplete": 5821,
      "sena": 5822,
      "Ġregistrirana": 5823,
      "Ġodgovoren": 5824,
      "Ġ380": 5825,
      "Ġcimer": 5826,
      "Ġzdruzenje": 5827,
      "Ġpristopa": 5828,
      "Ġspostovanje": 5829,
      "gent": 5830,
      "Ġporocilu": 5831,
      "cnemu": 5832,
      "pt": 5833,
      "Ġtrgovine": 5834,
      "Ġifrs": 5835,
      "Ġoblika": 5836,
      "Ġpravnomo": 5837,
      "Ġenotni": 5838,
      "Ġdanska": 5839,
      "Ġpolni": 5840,
      "Ġobmocjih": 5841,
      "stvom": 5842,
      "Ġuvrstitev": 5843,
      "Ġpisnega": 5844,
      "Ġposlan": 5845,
      "Ġkoda": 5846,
      "yl": 5847,
      "jenje": 5848,
      "Ġfunkciona": 5849,
      "ĠÂ»": 5850,
      "Ġindo": 5851,
      "merno": 5852,
      "Ġkreditnega": 5853,
      "Ġplosca": 5854,
      "produ": 5855,
      "Ġ157": 5856,
      "Ġtovor": 5857,
      "Ġdolocil": 5858,
      "Ġnesp": 5859,
      "Ġposamicno": 5860,
      "Ġ270": 5861,
      "Ġ234": 5862,
      "Ġkrsitvah": 5863,
      "Ġteca": 5864,
      "Ġizvesti": 5865,
      "Ġpodrobno": 5866,
      "Ġzbiranje": 5867,
      "Ġplc": 5868,
      "ĠÏĢ": 5869,
      "Ġvrednostnih": 5870,
      "Ġ178": 5871,
      "Ġneko": 5872,
      "Ġzapr": 5873,
      "Ġtesti": 5874,
      "Ġzive": 5875,
      "Ġer": 5876,
      "Ġsodisci": 5877,
      "Ġusposabljanja": 5878,
      "Ġdokazala": 5879,
      "stitvi": 5880,
      "Ġprednosti": 5881,
      "Ġnaslovni": 5882,
      "Ġzadevnim": 5883,
      "Ġ137": 5884,
      "Ġigra": 5885,
      "Ġ155": 5886,
      "int": 5887,
      "Ġprejsnji": 5888,
      "Ġzainteresirane": 5889,
      "Ġstor": 5890,
      "Ġesto": 5891,
      "Ġfos": 5892,
      "Ġport": 5893,
      "Ġskupnostjo": 5894,
      "Ġnobenih": 5895,
      "Ġstolpcu": 5896,
      "Ġprispevkov": 5897,
      "tani": 5898,
      "Ġmleka": 5899,
      "Ġupostevanje": 5900,
      "Ġpremozenjem": 5901,
      "Ġjpg": 5902,
      "Ġosebni": 5903,
      "Ġintegri": 5904,
      "grad": 5905,
      "dia": 5906,
      "Ġsprejema": 5907,
      "Ġrazpisa": 5908,
      "cha": 5909,
      "Ġ0003": 5910,
      "Ġnjega": 5911,
      "Ġmerjenje": 5912,
      "Ġsklicevanje": 5913,
      "Ġnahaja": 5914,
      "Ġobstojecih": 5915,
      "mni": 5916,
      "miny": 5917,
      "Ġizjema": 5918,
      "farmacevt": 5919,
      "Ġsm": 5920,
      "Ġtakem": 5921,
      "Ġsklepati": 5922,
      "Ġaparati": 5923,
      "Ġrazveljav": 5924,
      "Ġpotrosnika": 5925,
      "Ġlogi": 5926,
      "Ġvzorca": 5927,
      "Ġnadzoro": 5928,
      "Ġiran": 5929,
      "Ġgminy": 5930,
      "stijo": 5931,
      "Ġprecej": 5932,
      "Ġodgovorna": 5933,
      "Ġdelavca": 5934,
      "Ġnezdruz": 5935,
      "stro": 5936,
      "Ġregister": 5937,
      "Ġsisteme": 5938,
      "Ġuprave": 5939,
      "Ġzrakoplova": 5940,
      "Ġutemeljeno": 5941,
      "Ġustanavljanja": 5942,
      "Ġklasi": 5943,
      "Ġderi": 5944,
      "ĠÂ«": 5945,
      "Ġpreob": 5946,
      "Ġnov": 5947,
      "Ġoprostitve": 5948,
      "blj": 5949,
      "Ġresno": 5950,
      "Ġneplac": 5951,
      "Ġluxe": 5952,
      "Ġ180": 5953,
      "Ġdelavci": 5954,
      "Ġkos": 5955,
      "Ġ204": 5956,
      "Ġpripomoc": 5957,
      "Ġsodi": 5958,
      "zirani": 5959,
      "Ġspodaj": 5960,
      "Ġpremozen": 5961,
      "Ġtech": 5962,
      "Ġredu": 5963,
      "Ġbundes": 5964,
      "Ġugotovil": 5965,
      "Ġdogovori": 5966,
      "Ġ1989": 5967,
      "Ġposebnega": 5968,
      "Ġden": 5969,
      "Ġpristojen": 5970,
      "Ġsekre": 5971,
      "Ġdopustnost": 5972,
      "Ġ310": 5973,
      "Ġpriti": 5974,
      "Ġnemu": 5975,
      "Ġprahu": 5976,
      "Ġpretok": 5977,
      "Ġtozene": 5978,
      "Ġpristojnim": 5979,
      "Ġtretjim": 5980,
      "brea": 5981,
      "Ġstatuta": 5982,
      "Ġalkohola": 5983,
      "Ġinstrument": 5984,
      "Ġpreizkusi": 5985,
      "Ġ0406": 5986,
      "Ġopredeljeni": 5987,
      "Ġnevarnost": 5988,
      "Ġproble": 5989,
      "Ġizvedbenih": 5990,
      "mas": 5991,
      "hidro": 5992,
      "Ġ170": 5993,
      "Ġnemudoma": 5994,
      "Ġlista": 5995,
      "Ġska": 5996,
      "Ġizgub": 5997,
      "Ġfitofarmacevt": 5998,
      "Ġtveganjem": 5999,
      "Ġizveden": 6000,
      "Ġsekundar": 6001,
      "Ġ2150": 6002,
      "Ġpristojna": 6003,
      "Ġdogovorje": 6004,
      "Ġodso": 6005,
      "Ġmedicin": 6006,
      "Ġix": 6007,
      "Ġbruselj": 6008,
      "Ð´": 6009,
      "Ġmoci": 6010,
      "Ġizboljsanje": 6011,
      "Ġpredelavo": 6012,
      "ruzni": 6013,
      "Ġpotnikov": 6014,
      "Ġenerget": 6015,
      "Ġizstop": 6016,
      "Ġ168": 6017,
      "scob": 6018,
      "Ġobvezno": 6019,
      "hof": 6020,
      "Ġpd": 6021,
      "Ġuskladitev": 6022,
      "scu": 6023,
      "Ġzmede": 6024,
      "Ġzacel": 6025,
      "Ġzdruzenja": 6026,
      "Ġsodnik": 6027,
      "Ġkoz": 6028,
      "Ġseznani": 6029,
      "Ġvkljuciti": 6030,
      "Ġsodnika": 6031,
      "Ġzasebnega": 6032,
      "losti": 6033,
      "Ġvzpostavitev": 6034,
      "Ġjeziku": 6035,
      "Ġzav": 6036,
      "Ġdvi": 6037,
      "Ġlimi": 6038,
      "Ġpozna": 6039,
      "break": 6040,
      "Ġizkljucuje": 6041,
      "ant": 6042,
      "Ġlastnih": 6043,
      "losko": 6044,
      "Ġcou": 6045,
      "Ġminister": 6046,
      "Ġpovezan": 6047,
      "prop": 6048,
      "Ġprodaji": 6049,
      "Ġgemein": 6050,
      "Ġnezn": 6051,
      "Ġpotreben": 6052,
      "Ġpridela": 6053,
      "Ġhitrosti": 6054,
      "dij": 6055,
      "Ġodprav": 6056,
      "Ġnotranji": 6057,
      "Ġstarsev": 6058,
      "Ġizjav": 6059,
      "soli": 6060,
      "Ġprekri": 6061,
      "Ġpovzetek": 6062,
      "Ġkraljestvu": 6063,
      "sneje": 6064,
      "Ġobvestijo": 6065,
      "Ġmrl": 6066,
      "Ġrastline": 6067,
      "Ġodraza": 6068,
      "Ġtarifna": 6069,
      "letni": 6070,
      "Ġmari": 6071,
      "Ġorganizacij": 6072,
      "Ġnoben": 6073,
      "let": 6074,
      "canje": 6075,
      "nca": 6076,
      "Ġodredbe": 6077,
      "Ġluxembo": 6078,
      "Ġohranitev": 6079,
      "Ġvro": 6080,
      "Ġprimere": 6081,
      "Ġobreme": 6082,
      "Ġmisi": 6083,
      "Ġodpravo": 6084,
      "Ġbra": 6085,
      "Ġ2138": 6086,
      "Ġomejevalni": 6087,
      "Ġribolovnih": 6088,
      "kcijo": 6089,
      "Ġpodruzni": 6090,
      "Ġobvla": 6091,
      "Ġstandard": 6092,
      "scin": 6093,
      "Ġtekstilnih": 6094,
      "cina": 6095,
      "Ġ1001": 6096,
      "Ġrazsirje": 6097,
      "Ġpowi": 6098,
      "Ġzagotovila": 6099,
      "Ġvecje": 6100,
      "Ġsedeza": 6101,
      "Ġizkljucitev": 6102,
      "Ġzita": 6103,
      "Ġpodaljsanje": 6104,
      "dite": 6105,
      "Ġ156": 6106,
      "Ġrde": 6107,
      "snim": 6108,
      "any": 6109,
      "Ġzracnega": 6110,
      "Ġrazde": 6111,
      "Ġdruzine": 6112,
      "fc": 6113,
      "ljenem": 6114,
      "Ġuporabljala": 6115,
      "Ġ152": 6116,
      "Ġdobav": 6117,
      "Ġuvedbo": 6118,
      "Ġ1068": 6119,
      "Ġamino": 6120,
      "Ġsesti": 6121,
      "Ġdrzavno": 6122,
      "Ġvelikost": 6123,
      "Ġdneva": 6124,
      "Ġpojmov": 6125,
      "Ġfrance": 6126,
      "Ġdobe": 6127,
      "Ġmere": 6128,
      "Ġuvrscajo": 6129,
      "Ġsil": 6130,
      "Ġvisoke": 6131,
      "Ġspecifikacije": 6132,
      "Ġbolni": 6133,
      "Ġsprejete": 6134,
      "Ġ1408": 6135,
      "Ġizvrsevanje": 6136,
      "Ġzahtevi": 6137,
      "Ġspremembah": 6138,
      "era": 6139,
      "bele": 6140,
      "Ġmascob": 6141,
      "Ġjamstva": 6142,
      "zov": 6143,
      "Ġpreskusa": 6144,
      "Ġinstrumenta": 6145,
      "Ġvsakr": 6146,
      "Ġdigita": 6147,
      "Ġkraja": 6148,
      "Ġmanjsi": 6149,
      "Ġpritoznice": 6150,
      "Ġprevle": 6151,
      "tete": 6152,
      "Ġznaka": 6153,
      "Ġkolo": 6154,
      "Ġspremenljiv": 6155,
      "Ġpovrsino": 6156,
      "Ġelektricno": 6157,
      "Ġpojasnilo": 6158,
      "ĠÎµ": 6159,
      "Ġopazo": 6160,
      "Ġgosto": 6161,
      "Ġvlozen": 6162,
      "Ġupostevna": 6163,
      "Ġutrpe": 6164,
      "Ġzneske": 6165,
      "Ġchi": 6166,
      "ard": 6167,
      "Ġumi": 6168,
      "Ġoperacije": 6169,
      "Ġodstotek": 6170,
      "Ġ299": 6171,
      "Ġval": 6172,
      "Ġcelovito": 6173,
      "Ġelektronskih": 6174,
      "Ġvseeno": 6175,
      "Ġpono": 6176,
      "Ġvs": 6177,
      "Ġ151": 6178,
      "landi": 6179,
      "Ġgospodarstva": 6180,
      "Ġtozeni": 6181,
      "Ġfluo": 6182,
      "Ġstabi": 6183,
      "Ġdolocenim": 6184,
      "Ġuporabnikov": 6185,
      "Ġfunkcijo": 6186,
      "Ġsar": 6187,
      "Ġporeklu": 6188,
      "Ġsiroko": 6189,
      "Ġosebne": 6190,
      "Ġdrzavljana": 6191,
      "Ġnevtra": 6192,
      "Ġ800": 6193,
      "Ġ149": 6194,
      "Ġmobi": 6195,
      "Ġzahtevki": 6196,
      "Ġnamerava": 6197,
      "Ġmednarodnega": 6198,
      "Ġkloro": 6199,
      "Ġupravnem": 6200,
      "Ġostanki": 6201,
      "Ġzraka": 6202,
      "Ġprojektov": 6203,
      "Ġopr": 6204,
      "loske": 6205,
      "Ġkazejo": 6206,
      "Ġpomanjkljivosti": 6207,
      "Ġnasproto": 6208,
      "Ġponudb": 6209,
      "Ġproracuna": 6210,
      "Ġtoznik": 6211,
      "Ġustva": 6212,
      "Ġogljikov": 6213,
      "cega": 6214,
      "Ġcelotni": 6215,
      "Ġacu": 6216,
      "Ġomogociti": 6217,
      "Ġceni": 6218,
      "Ġspodbujanje": 6219,
      "Ġpregledov": 6220,
      "em": 6221,
      "Ġdejanskih": 6222,
      "Ġdeve": 6223,
      "Ġsubjekte": 6224,
      "Ġluxembou": 6225,
      "Ġvkljuci": 6226,
      "lega": 6227,
      "Ġvkljuceni": 6228,
      "Ġmagne": 6229,
      "Ġcelotne": 6230,
      "Ġxii": 6231,
      "Ġkoncne": 6232,
      "njene": 6233,
      "solven": 6234,
      "Ġpoklicne": 6235,
      "Ġskoraj": 6236,
      "Ġâī¥": 6237,
      "nila": 6238,
      "Ġmadzarska": 6239,
      "Ġpopravek": 6240,
      "Ġ722": 6241,
      "Ġ182": 6242,
      "Ġseme": 6243,
      "com": 6244,
      "Ġneizpolnitve": 6245,
      "Ġ0207": 6246,
      "Ġpapirjev": 6247,
      "Ġpreferen": 6248,
      "Ġ1000": 6249,
      "Ġsvetil": 6250,
      "Ġposledic": 6251,
      "dan": 6252,
      "nia": 6253,
      "Ġnicno": 6254,
      "Ġmanda": 6255,
      "Ġnavedenimi": 6256,
      "Ġbrezplac": 6257,
      "nike": 6258,
      "gleda": 6259,
      "Ġskozi": 6260,
      "Ġpostane": 6261,
      "Ġodpoved": 6262,
      "Ġpredlozena": 6263,
      "Ġprije": 6264,
      "bami": 6265,
      "201": 6266,
      "Ġdrzavljanstva": 6267,
      "Ġprevi": 6268,
      "Ġzahtevane": 6269,
      "Ġizvoznik": 6270,
      "Ġizpolnjevati": 6271,
      "zajo": 6272,
      "Ġ261": 6273,
      "Ġnotranjim": 6274,
      "Ġposodobi": 6275,
      "Ġ154": 6276,
      "Ġtehnicna": 6277,
      "Ġribe": 6278,
      "Ġpredlozitvenega": 6279,
      "Ġsinteticnih": 6280,
      "Ġfigu": 6281,
      "Ġprijave": 6282,
      "Ġodvra": 6283,
      "Ġcisce": 6284,
      "Ġdomneva": 6285,
      "Ġizracunu": 6286,
      "Ġtisk": 6287,
      "Ġnjihovem": 6288,
      "Ġupostevne": 6289,
      "Ġinsolven": 6290,
      "Ġpojasniti": 6291,
      "tus": 6292,
      "loskih": 6293,
      "Ġreferencne": 6294,
      "Ġprenosu": 6295,
      "Ġupravljavec": 6296,
      "Ġtetra": 6297,
      "Ġprvotno": 6298,
      "Ġobjektivno": 6299,
      "Ġdejavnikov": 6300,
      "Ġmedia": 6301,
      "par": 6302,
      "Ġbesedilom": 6303,
      "prt": 6304,
      "Ġoze": 6305,
      "Ġcrta": 6306,
      "Ġhabita": 6307,
      "Ġnajvecja": 6308,
      "skemu": 6309,
      "Ġsestavljajo": 6310,
      "00000": 6311,
      "Ġsporazumom": 6312,
      "Ġ1988": 6313,
      "Ġnami": 6314,
      "Ġpostal": 6315,
      "legi": 6316,
      "Ġjapo": 6317,
      "Ġcetrtega": 6318,
      "Ġpravici": 6319,
      "Ġpogodbenic": 6320,
      "Ġ900": 6321,
      "Ġugovorom": 6322,
      "Ġnavedejo": 6323,
      "Ġtex": 6324,
      "Ġkakrsno": 6325,
      "Ġoskodo": 6326,
      "Ġdnevnik": 6327,
      "Ġtv": 6328,
      "Ġnezakonite": 6329,
      "Ġkriti": 6330,
      "Ġsolidar": 6331,
      "komunika": 6332,
      "ses": 6333,
      "Ġszvp": 6334,
      "Ġtan": 6335,
      "Ġodstopa": 6336,
      "Ġprihodkov": 6337,
      "Ġizlo": 6338,
      "Ġproracun": 6339,
      "tuje": 6340,
      "Ġ144": 6341,
      "Ġ560": 6342,
      "Ġagenta": 6343,
      "Ġnalozena": 6344,
      "Ġpobi": 6345,
      "Ġvrstica": 6346,
      "Ġpin": 6347,
      "cus": 6348,
      "Ġzaposlitev": 6349,
      "Ġrazlogom": 6350,
      "Ġimu": 6351,
      "Ġugovora": 6352,
      "Ġtehnicni": 6353,
      "Ġpreprecuje": 6354,
      "kup": 6355,
      "Ġpovezava": 6356,
      "tski": 6357,
      "Ġgospodarskem": 6358,
      "Ġavtomo": 6359,
      "Ġ165": 6360,
      "Ġtribunal": 6361,
      "Ġpriglaseni": 6362,
      "Ġpojas": 6363,
      "Ġknjigo": 6364,
      "Ġpraz": 6365,
      "Ġpregledom": 6366,
      "Ġveljavno": 6367,
      "Ġstoritvami": 6368,
      "Ġdolocitve": 6369,
      "Ġpetih": 6370,
      "Ġcla": 6371,
      "Ġ153": 6372,
      "Ġpnev": 6373,
      "Ġvisine": 6374,
      "Ġfis": 6375,
      "tveni": 6376,
      "Ġled": 6377,
      "Ġizpolnjevanje": 6378,
      "Ġtrgovanja": 6379,
      "Ġkodeks": 6380,
      "Ġposojila": 6381,
      "Ġizmenjavo": 6382,
      "Ġpridobljenih": 6383,
      "Ġmejah": 6384,
      "Ġzajemajo": 6385,
      "Ġuniver": 6386,
      "lon": 6387,
      "vora": 6388,
      "Ġsodelujejo": 6389,
      "Ġsporo": 6390,
      "Ġafri": 6391,
      "Ġzaracuna": 6392,
      "Ġpotencia": 6393,
      "Ġdopusca": 6394,
      "Ġdraz": 6395,
      "0010": 6396,
      "leti": 6397,
      "Ġshema": 6398,
      "Ġ700": 6399,
      "Ġkali": 6400,
      "Ġobvlado": 6401,
      "Ġzadnjih": 6402,
      "Ġuporabljena": 6403,
      "Ġobdavc": 6404,
      "fini": 6405,
      "Ġharmoni": 6406,
      "ranim": 6407,
      "diti": 6408,
      "Ġnastop": 6409,
      "Ġ213800": 6410,
      "Ġstudije": 6411,
      "njeni": 6412,
      "Ġizpe": 6413,
      "Ġtoda": 6414,
      "Ġvecja": 6415,
      "Ġobto": 6416,
      "Ġarbitraz": 6417,
      "Ġposredovanje": 6418,
      "Ġdusi": 6419,
      "Ġprostoru": 6420,
      "Ġkvalifika": 6421,
      "Ġaroma": 6422,
      "cao": 6423,
      "Ġdelezev": 6424,
      "Ġkoor": 6425,
      "Ġdokumentacije": 6426,
      "Ġosebno": 6427,
      "jam": 6428,
      "Ġopravijo": 6429,
      "Ġinterese": 6430,
      "pisati": 6431,
      "tz": 6432,
      "Ġzivalskega": 6433,
      "Ġposameznega": 6434,
      "Ġpovpra": 6435,
      "Ġkategorij": 6436,
      "Ġkal": 6437,
      "Ġkonzer": 6438,
      "Ġrazumno": 6439,
      "Ġizto": 6440,
      "Ġregistracija": 6441,
      "im": 6442,
      "Ġzeleza": 6443,
      "zek": 6444,
      "Ġpovzrocila": 6445,
      "zacijo": 6446,
      "Ġ0001": 6447,
      "Ġdolocanju": 6448,
      "Ġdvajse": 6449,
      "Ġdobavo": 6450,
      "Ġpridobljene": 6451,
      "Ġnarocnik": 6452,
      "Ġporaz": 6453,
      "Ġsmise": 6454,
      "Ġgemeinde": 6455,
      "zal": 6456,
      "Ġhipote": 6457,
      "Ġbli": 6458,
      "Ġpredlozeni": 6459,
      "Ġpomocjo": 6460,
      "Ġsklenila": 6461,
      "nije": 6462,
      "Ġmno": 6463,
      "Ġosnovni": 6464,
      "Ġvkljucene": 6465,
      "tine": 6466,
      "Ġpresojati": 6467,
      "dt": 6468,
      "Ġtoliko": 6469,
      "mete": 6470,
      "skom": 6471,
      "Ġvalj": 6472,
      "Ġ161": 6473,
      "Ġindone": 6474,
      "Ġtrgovanje": 6475,
      "Ġspostovanja": 6476,
      "Ġzpp": 6477,
      "Ġgene": 6478,
      "Ġpresegajo": 6479,
      "lnice": 6480,
      "Ġnepravi": 6481,
      "Ġ640": 6482,
      "Ġneupraviceno": 6483,
      "Ġby": 6484,
      "Ġgrad": 6485,
      "Ġfigurati": 6486,
      "Ġnaravi": 6487,
      "Ġdovoljuje": 6488,
      "Ġposlovno": 6489,
      "Ġskladov": 6490,
      "Ġkomercia": 6491,
      "Ġ184": 6492,
      "Ġnavedite": 6493,
      "verza": 6494,
      "Ġrazvoju": 6495,
      "Ġpodo": 6496,
      "Ġdelnic": 6497,
      "reci": 6498,
      "Ġosi": 6499,
      "Ġep": 6500,
      "Ġindustriji": 6501,
      "Ġnaknadno": 6502,
      "Ġpovezo": 6503,
      "Ġpolitiko": 6504,
      "Ġfur": 6505,
      "Ġlete": 6506,
      "Ġbegu": 6507,
      "Ġnapravo": 6508,
      "Ġcarinskih": 6509,
      "Ġpriklju": 6510,
      "Ġljublj": 6511,
      "Ġprojekt": 6512,
      "Ġtradiciona": 6513,
      "Ġ146": 6514,
      "Ġveljavne": 6515,
      "Ġletni": 6516,
      "Ġfranciji": 6517,
      "Ġizkaze": 6518,
      "Ġodpovedi": 6519,
      "Ġ396": 6520,
      "Ġ015": 6521,
      "Ġosnovnih": 6522,
      "Ġagent": 6523,
      "Ġprou": 6524,
      "Ġnespre": 6525,
      "Ġreferencna": 6526,
      "Ġvlogi": 6527,
      "Ġmorju": 6528,
      "Ġkazenskega": 6529,
      "Ġtrgovini": 6530,
      "Ġporocevalec": 6531,
      "ljenimi": 6532,
      "Ġucinkovite": 6533,
      "Ġpotrebu": 6534,
      "Ġtelekomunika": 6535,
      "bro": 6536,
      "zati": 6537,
      "Ġles": 6538,
      "Ġizbere": 6539,
      "Ġnemscina": 6540,
      "Ġozemelj": 6541,
      "Ġodmer": 6542,
      "Ġugotovljena": 6543,
      "Ġponudnika": 6544,
      "Ġ330": 6545,
      "tila": 6546,
      "schaft": 6547,
      "Ġrazda": 6548,
      "Ġ167": 6549,
      "Ġsport": 6550,
      "Ġ550": 6551,
      "ĠpoÅĤ": 6552,
      "Ġ510": 6553,
      "canja": 6554,
      "Ġizkljuciti": 6555,
      "Ġomenjenih": 6556,
      "Ġprostora": 6557,
      "Ġ1107": 6558,
      "Ġnice": 6559,
      "Ġprevzem": 6560,
      "Ġodme": 6561,
      "Ġ2694": 6562,
      "Ġreprodu": 6563,
      "tkih": 6564,
      "Ġgno": 6565,
      "Ġekcp": 6566,
      "Ġosnovna": 6567,
      "Ġumak": 6568,
      "Ġpomaga": 6569,
      "Ġizdaji": 6570,
      "Ġvozilu": 6571,
      "Ġposeben": 6572,
      "Ġdvema": 6573,
      "Ġkilo": 6574,
      "Ġpodjetni": 6575,
      "Ġvisina": 6576,
      "Ġaqua": 6577,
      "bel": 6578,
      "Ġnjegovem": 6579,
      "Ġpreucitev": 6580,
      "Ġljudske": 6581,
      "eri": 6582,
      "Ġdeci": 6583,
      "neb": 6584,
      "Ġzvezna": 6585,
      "Ġuporabljene": 6586,
      "Ġzase": 6587,
      "chen": 6588,
      "Ġsamoza": 6589,
      "Ġplovilo": 6590,
      "Ġetil": 6591,
      "Ġ337": 6592,
      "Ġnaziv": 6593,
      "Ġulov": 6594,
      "Ġopravljanju": 6595,
      "jenja": 6596,
      "Ġobdol": 6597,
      "Ġenotno": 6598,
      "risti": 6599,
      "Ġ187": 6600,
      "Ġvprasanju": 6601,
      "cipli": 6602,
      "ux": 6603,
      "Ġcorpo": 6604,
      "Ġposlovnega": 6605,
      "Ġprosilec": 6606,
      "Ġviri": 6607,
      "Ġacute": 6608,
      "Ġgru": 6609,
      "Ġvloziti": 6610,
      "Ġohla": 6611,
      "Ġvizu": 6612,
      "Ġizcrp": 6613,
      "Ġbrezpo": 6614,
      "Ġkomu": 6615,
      "Ġland": 6616,
      "Ġvarovanje": 6617,
      "sal": 6618,
      "tami": 6619,
      "Ġizdala": 6620,
      "Ġuradu": 6621,
      "Ġzanj": 6622,
      "Ġcest": 6623,
      "Ġfrancoscina": 6624,
      "Ð¸Ñ": 6625,
      "Ġproizvodnih": 6626,
      "zacije": 6627,
      "Ġposoda": 6628,
      "Ġglavne": 6629,
      "boj": 6630,
      "Ġnastali": 6631,
      "ljenim": 6632,
      "Ġenkrat": 6633,
      "Ġobracun": 6634,
      "Ġpravicami": 6635,
      "kul": 6636,
      "Ġoc": 6637,
      "Ġzaceti": 6638,
      "Ġpredvideno": 6639,
      "Ġizjavah": 6640,
      "Ġmodel": 6641,
      "bah": 6642,
      "Ġtrgih": 6643,
      "Ġzavrnjena": 6644,
      "Ġgen": 6645,
      "Ġvkljucena": 6646,
      "Ġtajnistvu": 6647,
      "Ġkonsoli": 6648,
      "Ġedini": 6649,
      "Ġ410": 6650,
      "Ġzmanjsanja": 6651,
      "Ġvaru": 6652,
      "Ġdopusta": 6653,
      "Ġorganiz": 6654,
      "Ġpreglednica": 6655,
      "Ġnizje": 6656,
      "Ġmr": 6657,
      "Ġnamenjen": 6658,
      "zel": 6659,
      "Ġstarosti": 6660,
      "Ġuvodna": 6661,
      "bilnosti": 6662,
      "Ġnasi": 6663,
      "Ġdohodka": 6664,
      "seno": 6665,
      "Ġposamezno": 6666,
      "Ġinst": 6667,
      "Ġschen": 6668,
      "Ġllc": 6669,
      "Ġaero": 6670,
      "Ġsklicevanja": 6671,
      "cho": 6672,
      "ĠÕ": 6673,
      "Ġpodatkih": 6674,
      "Ġcrpa": 6675,
      "Ġvlozitve": 6676,
      "Ġzadrz": 6677,
      "Ġmerili": 6678,
      "Ġnaba": 6679,
      "Ġznizanja": 6680,
      "torjev": 6681,
      "dati": 6682,
      "Ġpreuci": 6683,
      "lnika": 6684,
      "Ġdodatnega": 6685,
      "Ġimenuje": 6686,
      "Ġ158": 6687,
      "dio": 6688,
      "Ġzahod": 6689,
      "cati": 6690,
      "Ġplacane": 6691,
      "Ġocenjevanje": 6692,
      "Ġreferencni": 6693,
      "dd": 6694,
      "Ġmeseca": 6695,
      "Ġnezado": 6696,
      "con": 6697,
      "Ġpripravlja": 6698,
      "Ġvzi": 6699,
      "mentom": 6700,
      "Ġwo": 6701,
      "novice": 6702,
      "Ġelementa": 6703,
      "Ġprote": 6704,
      "Ġhelen": 6705,
      "Ġvkljucitev": 6706,
      "Ġ205": 6707,
      "Ġglobo": 6708,
      "Ġzabele": 6709,
      "Ġpodre": 6710,
      "Ġprojekti": 6711,
      "Ġqu": 6712,
      "Ġmul": 6713,
      "Ġtrzne": 6714,
      "Ġvmesni": 6715,
      "rjev": 6716,
      "Ġslovenskenovice": 6717,
      "Ġdioksi": 6718,
      "jami": 6719,
      "Ġ343": 6720,
      "Ġdodelitve": 6721,
      "Ġkosi": 6722,
      "Ġpodjetji": 6723,
      "Ġtelefon": 6724,
      "Ġvali": 6725,
      "Ġ175": 6726,
      "Ġpreva": 6727,
      "rak": 6728,
      "Ġmorebitnih": 6729,
      "Ġsamodejno": 6730,
      "Ġkultu": 6731,
      "Ġglavna": 6732,
      "Ġomejen": 6733,
      "Ġopravljena": 6734,
      "Ġporabe": 6735,
      "Ġdati": 6736,
      "bilnost": 6737,
      "Ġpripe": 6738,
      "Ġuniverza": 6739,
      "Ġprekora": 6740,
      "Ġpredlagam": 6741,
      "Ġpridobitve": 6742,
      "cre": 6743,
      "Ġteka": 6744,
      "Ġdese": 6745,
      "Ġneome": 6746,
      "nikom": 6747,
      "Ġinn": 6748,
      "Ġtraja": 6749,
      "Ġcompany": 6750,
      "Ġrezultate": 6751,
      "Ġpristanis": 6752,
      "Ġdolga": 6753,
      "Ġnomenklature": 6754,
      "Ġfinska": 6755,
      "kin": 6756,
      "Ġtistimi": 6757,
      "lem": 6758,
      "misle": 6759,
      "Ġrn": 6760,
      "Ġizvozna": 6761,
      "Ġznana": 6762,
      "Ġrusi": 6763,
      "Ġonemogo": 6764,
      "Ġnarodov": 6765,
      "Ġpridobiti": 6766,
      "Ġkomplek": 6767,
      "ves": 6768,
      "Ġnikoli": 6769,
      "Ġizvajanjem": 6770,
      "Ġneplacana": 6771,
      "Ġzemljisca": 6772,
      "Ġsploh": 6773,
      "Ġpreskusne": 6774,
      "Ġgaran": 6775,
      "Ġprihodki": 6776,
      "Ġogljikovodi": 6777,
      "drza": 6778,
      "Ġsodeluje": 6779,
      "Ġpristojnemu": 6780,
      "Ġopredeljuje": 6781,
      "Ġvzorcev": 6782,
      "Ġustreznega": 6783,
      "Ġmreze": 6784,
      "jnem": 6785,
      "Ġbal": 6786,
      "sidi": 6787,
      "Ġpnevmati": 6788,
      "Ġteo": 6789,
      "Ġ169": 6790,
      "Ġdiscipli": 6791,
      "Ġobcin": 6792,
      "Ġplacilu": 6793,
      "Ġpriblize": 6794,
      "fenil": 6795,
      "Ġrws": 6796,
      "Ġlastno": 6797,
      "Ġdrzavnega": 6798,
      "Ġizvedbeno": 6799,
      "Ġtezav": 6800,
      "Ġpodrocjih": 6801,
      "Ġnesorazmer": 6802,
      "Ġran": 6803,
      "Ġznaca": 6804,
      "senj": 6805,
      "Ġ1515": 6806,
      "Ġpojavi": 6807,
      "Ġcisto": 6808,
      "Ġtype": 6809,
      "Ġnjenim": 6810,
      "Ġdodeljene": 6811,
      "Ġpodneb": 6812,
      "Ġsklepne": 6813,
      "Ġevropskemu": 6814,
      "Ġtest": 6815,
      "Ġtrznih": 6816,
      "Ġpravilnika": 6817,
      "Ġpriporo": 6818,
      "Ġsoro": 6819,
      "Ġoma": 6820,
      "Ġ189": 6821,
      "Ġzavezanca": 6822,
      "zih": 6823,
      "Ġnaka": 6824,
      "ges": 6825,
      "Ġhydro": 6826,
      "Ġspremljanja": 6827,
      "Î¿ÏĤ": 6828,
      "Ġradio": 6829,
      "Ġhomologacije": 6830,
      "Ġmodela": 6831,
      "Ġdokoncne": 6832,
      "Ġpse": 6833,
      "Ġzadevajo": 6834,
      "Ġposlab": 6835,
      "Ġizteku": 6836,
      "fluo": 6837,
      "cb": 6838,
      "Ġstelo": 6839,
      "Ġzakonsko": 6840,
      "Ġoznacb": 6841,
      "Ġmale": 6842,
      "Ġkitajska": 6843,
      "nostmi": 6844,
      "Ġopravila": 6845,
      "Ġenotnega": 6846,
      "Ġcertifici": 6847,
      "Ġvlagatelj": 6848,
      "cti": 6849,
      "Ġ388": 6850,
      "Ġhru": 6851,
      "Ġsklepi": 6852,
      "Ġzdravstvenih": 6853,
      "cl": 6854,
      "Ġletnega": 6855,
      "Ġindustrijo": 6856,
      "Ġsile": 6857,
      "Ġobdelava": 6858,
      "Ġsocialnega": 6859,
      "lnikov": 6860,
      "Ġizdano": 6861,
      "Ġprejsnjih": 6862,
      "Ġupoko": 6863,
      "Ġselekti": 6864,
      "Ġutemeljen": 6865,
      "Ġneposredne": 6866,
      "Ġskraj": 6867,
      "Ġnastale": 6868,
      "Ġpodlago": 6869,
      "konkuren": 6870,
      "stransko": 6871,
      "Ġpodpr": 6872,
      "Ġustvari": 6873,
      "ments": 6874,
      "Ġprotokol": 6875,
      "Ġvecji": 6876,
      "Ġitaliji": 6877,
      "310": 6878,
      "Ġot": 6879,
      "Ġprotidampinskih": 6880,
      "Ġzadosca": 6881,
      "Ġstirih": 6882,
      "cro": 6883,
      "Ġ9000": 6884,
      "Ġ164": 6885,
      "Ġprimerov": 6886,
      "Ġnedolo": 6887,
      "Ġvrni": 6888,
      "Ġzakonu": 6889,
      "Ġtrgovinskih": 6890,
      "Ġnapeto": 6891,
      "Ġ163": 6892,
      "mt": 6893,
      "Ġ171": 6894,
      "Ġhomologacijo": 6895,
      "Ġdelodajalec": 6896,
      "Ġkuh": 6897,
      "Ġdosled": 6898,
      "Ġseznanje": 6899,
      "Ġ630": 6900,
      "Ġizpolnitev": 6901,
      "Ġpreizkusa": 6902,
      "lacije": 6903,
      "Ġpreci": 6904,
      "Ġpodrobna": 6905,
      "Ġprogrami": 6906,
      "Ġpobudo": 6907,
      "Ġpogajanj": 6908,
      "kovega": 6909,
      "Ġvrne": 6910,
      "Ġ260": 6911,
      "Ġplacilnih": 6912,
      "Ġdana": 6913,
      "Ġminimalne": 6914,
      "vah": 6915,
      "Ġdg": 6916,
      "Ġprovin": 6917,
      "Ġpovzroca": 6918,
      "Ġdenarne": 6919,
      "Ġpravnem": 6920,
      "Ġdeloma": 6921,
      "Ġinformacijami": 6922,
      "Ġtrenutku": 6923,
      "Ġkoordina": 6924,
      "krati": 6925,
      "Ġcari": 6926,
      "Ġ940": 6927,
      "Ġavtonom": 6928,
      "Ġsle": 6929,
      "Ġizvoznikov": 6930,
      "Ġholding": 6931,
      "Ġkrovu": 6932,
      "Ġsluzb": 6933,
      "Ġsubjektom": 6934,
      "Ġ1985": 6935,
      "Ġkonzervi": 6936,
      "Ġznakov": 6937,
      "Ġlimited": 6938,
      "Î¹Îº": 6939,
      "410": 6940,
      "Ġpilo": 6941,
      "Ġprispevki": 6942,
      "Ġhum": 6943,
      "Ġtistega": 6944,
      "Ġpotrebo": 6945,
      "snja": 6946,
      "varjajo": 6947,
      "Ġzivalske": 6948,
      "Ġnik": 6949,
      "ling": 6950,
      "Ġministrstvo": 6951,
      "Ġusklajevanju": 6952,
      "Ġkoncentracija": 6953,
      "Ġzaposlene": 6954,
      "Ġnemska": 6955,
      "Ġvstopa": 6956,
      "Ġdoseganje": 6957,
      "sch": 6958,
      "don": 6959,
      "Ġdonos": 6960,
      "godbe": 6961,
      "Ġresne": 6962,
      "Ġhan": 6963,
      "Ġnedis": 6964,
      "Ġtezko": 6965,
      "Ġrazglase": 6966,
      "Ġsamozapos": 6967,
      "Ġizteka": 6968,
      "Ġtero": 6969,
      "Ġpogodbenih": 6970,
      "Ġnizozemskem": 6971,
      "Ġdra": 6972,
      "Ġspremlja": 6973,
      "Ġdopisu": 6974,
      "pel": 6975,
      "Ġrazpolago": 6976,
      "Ġrazpolaga": 6977,
      "Ġmedicini": 6978,
      "Ġnosilec": 6979,
      "Ġrazpolozljivih": 6980,
      "Ġpona": 6981,
      "Ġlastnik": 6982,
      "Ġsaha": 6983,
      "Ġintervenientka": 6984,
      "Ġips": 6985,
      "Ġ226": 6986,
      "Ġuporabljata": 6987,
      "Ġspaniji": 6988,
      "Ġprijetje": 6989,
      "Ġcelotnem": 6990,
      "Ġlup": 6991,
      "socia": 6992,
      "Ġpomembna": 6993,
      "Ġsad": 6994,
      "Ġagenti": 6995,
      "Ġupostevalo": 6996,
      "Ġpojasnjeno": 6997,
      "Ġdodelje": 6998,
      "siste": 6999,
      "Ġdelavce": 7000,
      "sis": 7001,
      "Ġ950": 7002,
      "Ġ190": 7003,
      "Ġbelgiji": 7004,
      "Ġupostevanja": 7005,
      "Ġizog": 7006,
      "mento": 7007,
      "Ġpredlogom": 7008,
      "Ġzahtevku": 7009,
      "Ġrev": 7010,
      "berg": 7011,
      "Ġvon": 7012,
      "Ġ575": 7013,
      "Ġnotranjih": 7014,
      "Ġtozil": 7015,
      "Ġson": 7016,
      "Ġprispevka": 7017,
      "lat": 7018,
      "Ġtrznega": 7019,
      "Ġpodaljsa": 7020,
      "liscih": 7021,
      "Ġpridobljeni": 7022,
      "sana": 7023,
      "Ġcasom": 7024,
      "Ġ253": 7025,
      "Ġmehan": 7026,
      "Ġzbo": 7027,
      "Ġposko": 7028,
      "Ġ176": 7029,
      "sevanja": 7030,
      "Ġ162": 7031,
      "Ġmejnih": 7032,
      "Ġizpolnjen": 7033,
      "Ġvideo": 7034,
      "300": 7035,
      "varjanje": 7036,
      "Ġsubvencije": 7037,
      "Ġzastavo": 7038,
      "Ġnastavi": 7039,
      "Ġ203": 7040,
      "Ġpredelave": 7041,
      "put": 7042,
      "Ġnanasala": 7043,
      "Ġglas": 7044,
      "Ġnamena": 7045,
      "fat": 7046,
      "Ġazil": 7047,
      "Ġraziskave": 7048,
      "pec": 7049,
      "Ġprotikonkuren": 7050,
      "lnemu": 7051,
      "os": 7052,
      "Ġspornih": 7053,
      "nie": 7054,
      "Ġletalski": 7055,
      "Ġmy": 7056,
      "Ġkoko": 7057,
      "Ġzlorabe": 7058,
      "Ġprilog": 7059,
      "Ġnaviga": 7060,
      "Ġrazlicnimi": 7061,
      "Ġveckrat": 7062,
      "Ġzaslisanje": 7063,
      "Ġnastan": 7064,
      "Ġrazlicica": 7065,
      "Ġodlocila": 7066,
      "Ġopravljene": 7067,
      "jevega": 7068,
      "ÏīÎ½": 7069,
      "Ġaktu": 7070,
      "Ġvarnostnih": 7071,
      "Ġln": 7072,
      "Ġobde": 7073,
      "Ġgospodarstvo": 7074,
      "Ġdelodajalca": 7075,
      "Ġpretezno": 7076,
      "Ġzakoni": 7077,
      "Ġpovprecna": 7078,
      "Ġpravocasno": 7079,
      "Ġ172": 7080,
      "prede": 7081,
      "Ġlastnino": 7082,
      "Ġzanjo": 7083,
      "Ġkvota": 7084,
      "Ġsmiselno": 7085,
      "Ġdemokrati": 7086,
      "Ġsvojimi": 7087,
      "Ġzakonov": 7088,
      "Ġizgubo": 7089,
      "Ġnapacna": 7090,
      "Ġceska": 7091,
      "ex": 7092,
      "Ġzalog": 7093,
      "Ġzdravstvenega": 7094,
      "Ġsemen": 7095,
      "varjanja": 7096,
      "Ġperi": 7097,
      "Ġzliti": 7098,
      "Ġprema": 7099,
      "Ġ347": 7100,
      "Ġposlala": 7101,
      "Ġdvajseti": 7102,
      "Ġsklene": 7103,
      "xy": 7104,
      "valca": 7105,
      "sia": 7106,
      "ning": 7107,
      "Ġzunanji": 7108,
      "Ġkopita": 7109,
      "Ġponudniki": 7110,
      "Ġeco": 7111,
      "Ġ1006": 7112,
      "Ġadministrator": 7113,
      "Ġklasifika": 7114,
      "Ġposiljke": 7115,
      "Ġprena": 7116,
      "Ġclana": 7117,
      "Ġomejuje": 7118,
      "lam": 7119,
      "Ġschengen": 7120,
      "Ġverodo": 7121,
      "wy": 7122,
      "Ġhis": 7123,
      "Ġpristojne": 7124,
      "Ġoddaje": 7125,
      "Ġukrepom": 7126,
      "lena": 7127,
      "Ġic": 7128,
      "sin": 7129,
      "Ġposreduje": 7130,
      "Ġnavzkri": 7131,
      "Ġtezo": 7132,
      "Ġviru": 7133,
      "Ġvplivala": 7134,
      "Ġpriporoci": 7135,
      "Ġsestih": 7136,
      "Ġobdobjem": 7137,
      "Ġdodatku": 7138,
      "Ġverjetnosti": 7139,
      "Ġizvrsevanju": 7140,
      "Ġzacasnega": 7141,
      "por": 7142,
      "Ġpreglednosti": 7143,
      "Ġsestavine": 7144,
      "reti": 7145,
      "kovo": 7146,
      "Ġvlog": 7147,
      "Ġnaravnih": 7148,
      "loski": 7149,
      "Ġzavrnila": 7150,
      "Ġpodpira": 7151,
      "Ġ166": 7152,
      "Ġidentifikacijska": 7153,
      "Ġrevizije": 7154,
      "Ġsporocijo": 7155,
      "Ġnizja": 7156,
      "Ġprenehanja": 7157,
      "Ġneizpolnitev": 7158,
      "Ġbeta": 7159,
      "Ġizdelani": 7160,
      "Ġobso": 7161,
      "Ġmanjsa": 7162,
      "Ġizboljsa": 7163,
      "mben": 7164,
      "Ġ211": 7165,
      "drav": 7166,
      "Ġluksemburg": 7167,
      "Ġpripozn": 7168,
      "Ġnerezi": 7169,
      "Ġ177": 7170,
      "Ġzakonitost": 7171,
      "Ġaquatic": 7172,
      "cje": 7173,
      "Ġ847": 7174,
      "Ġodobrena": 7175,
      "nn": 7176,
      "Ġtista": 7177,
      "Ġpreskusanje": 7178,
      "Ġeuropa": 7179,
      "Ġbistvenih": 7180,
      "Ġflo": 7181,
      "Ġpotrditev": 7182,
      "Ġkontek": 7183,
      "Ġrtv": 7184,
      "mon": 7185,
      "Ġprepreciti": 7186,
      "Ġumetnih": 7187,
      "Ġkombinirane": 7188,
      "Ġofc": 7189,
      "Ġkvack": 7190,
      "Ġposvetovanju": 7191,
      "Ġmorebitno": 7192,
      "ght": 7193,
      "Ġnm": 7194,
      "Ġvarnostni": 7195,
      "Ġmodu": 7196,
      "Ġproizvajalcem": 7197,
      "Ġobnovi": 7198,
      "Ġprejsnja": 7199,
      "Ġnamenjenih": 7200,
      "dem": 7201,
      "Ġtajnik": 7202,
      "Ġvzorcenje": 7203,
      "Ġpribor": 7204,
      "Ġcourt": 7205,
      "lines": 7206,
      "Ġcet": 7207,
      "Ġneuspe": 7208,
      "Ġdejavnostih": 7209,
      "Ġprepozna": 7210,
      "Ġobro": 7211,
      "Ġodlociti": 7212,
      "id": 7213,
      "Ġkoze": 7214,
      "Ġveljala": 7215,
      "Ġregije": 7216,
      "Ġprepoveduje": 7217,
      "Ġpage": 7218,
      "Ġpregledi": 7219,
      "Ġnapaka": 7220,
      "Ġalumi": 7221,
      "bili": 7222,
      "Î´": 7223,
      "Ġizpolnjene": 7224,
      "Ġinstrumente": 7225,
      "Ġupravicene": 7226,
      "Ġodste": 7227,
      "Ġkonkurenci": 7228,
      "Ġkrepi": 7229,
      "Ġ543": 7230,
      "Ġpristojbine": 7231,
      "ina": 7232,
      "Ġoznak": 7233,
      "Ġnajvecje": 7234,
      "Ġdelcev": 7235,
      "Ġsvobodo": 7236,
      "Ġomrezi": 7237,
      "Ġbv": 7238,
      "Ġspost": 7239,
      "Ġomrezij": 7240,
      "Ġodpa": 7241,
      "Ġpal": 7242,
      "Ġfedera": 7243,
      "Ġ239": 7244,
      "Ġpostavlja": 7245,
      "Ġzavrnil": 7246,
      "Ġnalozene": 7247,
      "nus": 7248,
      "Ġogre": 7249,
      "Ġgradi": 7250,
      "Ġveljavna": 7251,
      "Ġretro": 7252,
      "Ġpridel": 7253,
      "Ġdelova": 7254,
      "lizacijo": 7255,
      "Ġpredlozenih": 7256,
      "Ġtabela": 7257,
      "Ġdenarnih": 7258,
      "Ġtemperatura": 7259,
      "Ġsporazume": 7260,
      "Ġnedovo": 7261,
      "Ġ258": 7262,
      "350": 7263,
      "Ġmetod": 7264,
      "Ġtretjem": 7265,
      "Ġizvozne": 7266,
      "Ġelektricni": 7267,
      "Ġproizvodne": 7268,
      "Ġustavnega": 7269,
      "Ġaku": 7270,
      "Ġsvobod": 7271,
      "Ġobdavcitve": 7272,
      "Ġpoci": 7273,
      "Ġverodostoj": 7274,
      "Ġesp": 7275,
      "njenja": 7276,
      "Ġprenehanje": 7277,
      "Ġdokumentacijo": 7278,
      "lina": 7279,
      "Ġovira": 7280,
      "Ġprimeri": 7281,
      "Ġizmer": 7282,
      "Ġposne": 7283,
      "Ġdolgoro": 7284,
      "Ġpresoditi": 7285,
      "Ġprekinilo": 7286,
      "Ġpozor": 7287,
      "Ġuporabil": 7288,
      "Ġpoimenovanje": 7289,
      "Ġporazdeli": 7290,
      "Ġnarocilo": 7291,
      "Ġzadevnimi": 7292,
      "Ġeuropean": 7293,
      "Ġtretjo": 7294,
      "Ġstroje": 7295,
      "Ġoli": 7296,
      "Ġpogodbah": 7297,
      "Ġnajvecji": 7298,
      "Ġizra": 7299,
      "fona": 7300,
      "lep": 7301,
      "mes": 7302,
      "taria": 7303,
      "Ġ840": 7304,
      "Ġorganizacijo": 7305,
      "Ġpooblasceni": 7306,
      "Ġfinal": 7307,
      "Ġprodajne": 7308,
      "dy": 7309,
      "Ġpredvidena": 7310,
      "Ġsmernica": 7311,
      "rizo": 7312,
      "Ġsvetlob": 7313,
      "Ġdejavnostmi": 7314,
      "Ġsklepov": 7315,
      "Ġpreja": 7316,
      "Ġzdruzenem": 7317,
      "Ġ185": 7318,
      "Ġspricevala": 7319,
      "nci": 7320,
      "Ġanti": 7321,
      "Ġopravljati": 7322,
      "Ġmehanizem": 7323,
      "Ġ318": 7324,
      "Ġsposobnost": 7325,
      "Ġstrojev": 7326,
      "gona": 7327,
      "Ġsodniki": 7328,
      "Ġenim": 7329,
      "xx": 7330,
      "Ġsestavljena": 7331,
      "Ġosla": 7332,
      "Ġizven": 7333,
      "Ġokrepi": 7334,
      "Ġkmetijskega": 7335,
      "teh": 7336,
      "Ġfaza": 7337,
      "Ġpan": 7338,
      "stopen": 7339,
      "Ġkosov": 7340,
      "Ġsprozi": 7341,
      "Ġelec": 7342,
      "Ġugotovitvi": 7343,
      "Ġpremozenje": 7344,
      "Ġevi": 7345,
      "voji": 7346,
      "Ġposameznikov": 7347,
      "Ġodvzem": 7348,
      "Ġmotornih": 7349,
      "Ġustrezen": 7350,
      "Ġ218": 7351,
      "cto": 7352,
      "Ġsolas": 7353,
      "predsedni": 7354,
      "Ġizvedejo": 7355,
      "Ġseveda": 7356,
      "Ġtoksi": 7357,
      "Ġnediskrimina": 7358,
      "Ġvisji": 7359,
      "Ġizbrani": 7360,
      "Ġzemlje": 7361,
      "Ġzdravstvene": 7362,
      "Ġintelektualne": 7363,
      "ire": 7364,
      "Ġvracila": 7365,
      "Ġkontak": 7366,
      "cat": 7367,
      "Ġsvicar": 7368,
      "Ġpapirja": 7369,
      "Ġslike": 7370,
      "Ġuveljavljanje": 7371,
      "Ġdogovor": 7372,
      "Ġkontrole": 7373,
      "Ġkrm": 7374,
      "Ġsprejelo": 7375,
      "lit": 7376,
      "Ġprosnja": 7377,
      "sil": 7378,
      "Ġpsi": 7379,
      "Ġ1701": 7380,
      "Ġocenjevanja": 7381,
      "Ġ202": 7382,
      "Ġdostopu": 7383,
      "Ġ450": 7384,
      "Ġpapirji": 7385,
      "Ġnajvisje": 7386,
      "Ġcorporation": 7387,
      "vic": 7388,
      "Ġ174": 7389,
      "Ġposvetovanja": 7390,
      "Ġvsebovati": 7391,
      "Ġrazlicni": 7392,
      "Ġglavnih": 7393,
      "Ġzemljisc": 7394,
      "Ġoznacbo": 7395,
      "kan": 7396,
      "Ġrevizijo": 7397,
      "Ġchemi": 7398,
      "Ġzahtevke": 7399,
      "Ġprevoznik": 7400,
      "Ġpojasnil": 7401,
      "Ġ231": 7402,
      "Ġpojasnjuje": 7403,
      "lt": 7404,
      "Ġizida": 7405,
      "Ġrazlikujejo": 7406,
      "Ġosnovnega": 7407,
      "Ġupravljanju": 7408,
      "zuje": 7409,
      "Ġmesec": 7410,
      "Ġporocanje": 7411,
      "Ġ159": 7412,
      "Ġpomemben": 7413,
      "Ġgrcija": 7414,
      "Ġatlan": 7415,
      "Ġaluminija": 7416,
      "Ġrazmno": 7417,
      "Ġuradniki": 7418,
      "Ġznano": 7419,
      "Ġbeli": 7420,
      "Ġnanjo": 7421,
      "Ġnikakr": 7422,
      "Ġrazvrstitev": 7423,
      "Ġdodatki": 7424,
      "Ġprimerne": 7425,
      "Ġorigi": 7426,
      "Ġ236": 7427,
      "Ġkonkurenca": 7428,
      "Ġimunite": 7429,
      "Ġuva": 7430,
      "Ġzaposleni": 7431,
      "Ġcarinsko": 7432,
      "Ġpriporocila": 7433,
      "Ġ1986": 7434,
      "Ġletalisca": 7435,
      "Ġmaticne": 7436,
      "Ġteden": 7437,
      "Ġzamrzni": 7438,
      "Ġhra": 7439,
      "Ġstavka": 7440,
      "Ġcetrt": 7441,
      "Ġ1702": 7442,
      "Ġsvoja": 7443,
      "Ġem": 7444,
      "Ġdejavniki": 7445,
      "Ġstoritvah": 7446,
      "Ġpripravljeni": 7447,
      "Ġformula": 7448,
      "Ġpridobila": 7449,
      "Ġsestavljen": 7450,
      "Ġstandardne": 7451,
      "Ġpomenilo": 7452,
      "Ġzdravstveno": 7453,
      "Ġservi": 7454,
      "Ġprostorov": 7455,
      "Ġzavod": 7456,
      "fos": 7457,
      "Ġlicence": 7458,
      "Ġdodatkov": 7459,
      "Ġtesno": 7460,
      "Ġmon": 7461,
      "stmi": 7462,
      "Ġsporov": 7463,
      "Ġdeset": 7464,
      "Ġnepreki": 7465,
      "Ġpagebreak": 7466,
      "Ġdolzna": 7467,
      "Ġsuhe": 7468,
      "Ġstevilk": 7469,
      "Ġsklepni": 7470,
      "Ġomejiti": 7471,
      "Ġzacasna": 7472,
      "Ġlistina": 7473,
      "Ġnesre": 7474,
      "Ġpari": 7475,
      "Ġ240": 7476,
      "Ġsirine": 7477,
      "Ġ221": 7478,
      "Ġvsota": 7479,
      "Ġbeseda": 7480,
      "290": 7481,
      "cts": 7482,
      "ÏģÎ¹": 7483,
      "Ġakte": 7484,
      "Ġizvozniki": 7485,
      "Ġdavkov": 7486,
      "Ġinsolventnosti": 7487,
      "Ġvecer": 7488,
      "Ġ290": 7489,
      "Ġcasovno": 7490,
      "Ġ173": 7491,
      "Ġ731": 7492,
      "Ġizdelavo": 7493,
      "Ġ179": 7494,
      "Ġ256": 7495,
      "Ġskladna": 7496,
      "Ġsklicevala": 7497,
      "Ġimelo": 7498,
      "Ġ191": 7499,
      "Ġbelja": 7500,
      "Ġ255": 7501,
      "Ġ580": 7502,
      "nskim": 7503,
      "Ġvodenje": 7504,
      "Ġneuposte": 7505,
      "Ġregulativni": 7506,
      "dovi": 7507,
      "Ġoskrbo": 7508,
      "Ġizv": 7509,
      "Ġobravnavana": 7510,
      "Ġprimerni": 7511,
      "Ġauto": 7512,
      "Ġdelovna": 7513,
      "Ġodlocitvi": 7514,
      "Ġsocialni": 7515,
      "Ġpostala": 7516,
      "Ġzascita": 7517,
      "rji": 7518,
      "Ġdiplo": 7519,
      "Ġupravicenost": 7520,
      "Ġderivati": 7521,
      "dam": 7522,
      "Ġnavedb": 7523,
      "Ġlastne": 7524,
      "Ġobratov": 7525,
      "Ġknjigovod": 7526,
      "Ġdla": 7527,
      "Ġpredpisom": 7528,
      "Ġ181": 7529,
      "Ġgas": 7530,
      "Ġservices": 7531,
      "Ġspremenijo": 7532,
      "Ġpredlozitvenim": 7533,
      "bre": 7534,
      "Ġidentifikacijo": 7535,
      "Ġpijace": 7536,
      "Ġpovecanja": 7537,
      "Ġsesto": 7538,
      "Ġdolocanja": 7539,
      "Ġizmenjave": 7540,
      "Ġ208": 7541,
      "Ġlas": 7542,
      "Ġ217": 7543,
      "Ġpodobna": 7544,
      "dil": 7545,
      "Ġizkusnje": 7546,
      "020": 7547,
      "Ġ215": 7548,
      "Ġjean": 7549,
      "Ġprodajnih": 7550,
      "Ġ060": 7551,
      "Ġ183": 7552,
      "211": 7553,
      "Ġflu": 7554,
      "Î¿Î½": 7555,
      "Ġpovrnejo": 7556,
      "Ġwith": 7557,
      "Ġskri": 7558,
      "Ġ296": 7559,
      "Ġvzhod": 7560,
      "Ġopravil": 7561,
      "Ġfizicno": 7562,
      "Ġhladi": 7563,
      "Ġinput": 7564,
      "Ġprimerna": 7565,
      "Ġobstoju": 7566,
      "Ġnamembni": 7567,
      "Ġpresegati": 7568,
      "hl": 7569,
      "Ġdruzbama": 7570,
      "Ġustaljene": 7571,
      "Ġposad": 7572,
      "Ġkrom": 7573,
      "tti": 7574,
      "Ġdohodek": 7575,
      "Ġtehnologije": 7576,
      "Ġportfe": 7577,
      "Ġbilancne": 7578,
      "Ġsen": 7579,
      "rum": 7580,
      "Ġnasprotujejo": 7581,
      "oni": 7582,
      "Ġnitro": 7583,
      "Ġizvirajo": 7584,
      "Ġveljavnih": 7585,
      "Ġvloz": 7586,
      "Ġcisti": 7587,
      "rocanje": 7588,
      "Ġpreglede": 7589,
      "Ġpreskusi": 7590,
      "Ġzdruzljivosti": 7591,
      "Ġodpu": 7592,
      "Ġravno": 7593,
      "Ġ228": 7594,
      "Ġsposobnosti": 7595,
      "Ġpn": 7596,
      "Ġohranjanje": 7597,
      "Ġoskrbe": 7598,
      "ac": 7599,
      "stavlja": 7600,
      "Ġnavzo": 7601,
      "Ġkonvencijo": 7602,
      "Ġpovracila": 7603,
      "koma": 7604,
      "Ġtveganju": 7605,
      "Ġpredelova": 7606,
      "ÏģÎ±": 7607,
      "Ġnanasata": 7608,
      "Ġizbiro": 7609,
      "Ġdiv": 7610,
      "Ġisk": 7611,
      "Ġskladiscenja": 7612,
      "Ġdono": 7613,
      "Ġracunov": 7614,
      "Ġpavsalne": 7615,
      "Ġizvozno": 7616,
      "Ġpesti": 7617,
      "Ġarti": 7618,
      "Ġpost": 7619,
      "Ġobis": 7620,
      "Ġsorazmerno": 7621,
      "stranskih": 7622,
      "Ġupostevnih": 7623,
      "Ġneobvez": 7624,
      "of": 7625,
      "Ġpreparati": 7626,
      "Ġ216": 7627,
      "Ġgibanje": 7628,
      "Ġsvoboscin": 7629,
      "Ġrabo": 7630,
      "cenega": 7631,
      "Ġstandarde": 7632,
      "Ġ750": 7633,
      "bila": 7634,
      "Ġwin": 7635,
      "Ġlon": 7636,
      "Ġmogel": 7637,
      "Ġriz": 7638,
      "Ġpodpisi": 7639,
      "nejsi": 7640,
      "Ġobu": 7641,
      "Ġvplivov": 7642,
      "Ġznanja": 7643,
      "Ġprosilca": 7644,
      "Ġtal": 7645,
      "Ġagre": 7646,
      "Ġspodbuja": 7647,
      "Ġhitrost": 7648,
      "Ġizdal": 7649,
      "drzi": 7650,
      "Ġneznana": 7651,
      "Ġdrzavna": 7652,
      "Ġustvarja": 7653,
      "Ġneposredna": 7654,
      "dal": 7655,
      "Ġnadzi": 7656,
      "Ġpredvidene": 7657,
      "Ġudelezbe": 7658,
      "Ġpostavilo": 7659,
      "Ġcev": 7660,
      "Ġnacina": 7661,
      "Ġ!": 7662,
      "alnih": 7663,
      "Ġpravnim": 7664,
      "Ġprvotni": 7665,
      "Ġ186": 7666,
      "Ġporocajo": 7667,
      "kis": 7668,
      "Ġosnova": 7669,
      "Ġprekr": 7670,
      "Ġ0808": 7671,
      "stom": 7672,
      "Ġnamenjeno": 7673,
      "Ġprez": 7674,
      "Ġusluzbenci": 7675,
      "Ġzaupanja": 7676,
      "Ġdokazila": 7677,
      "Ġpredhodni": 7678,
      "Ġtistim": 7679,
      "Ġtrditvami": 7680,
      "Ġobrazec": 7681,
      "Ġamo": 7682,
      "Ġzacasnih": 7683,
      "Ġizobrazevanja": 7684,
      "Ġsluzba": 7685,
      "bank": 7686,
      "Ġhorizo": 7687,
      "Ġekonomske": 7688,
      "Ġproduk": 7689,
      "Ġzg": 7690,
      "Ġrazprede": 7691,
      "Ġcik": 7692,
      "Ġodskodnino": 7693,
      "Ġpolitika": 7694,
      "Ġizbire": 7695,
      "kraj": 7696,
      "Ġreguli": 7697,
      "Ġrevidi": 7698,
      "Ġavtomat": 7699,
      "Ġ295": 7700,
      "Ġnapredo": 7701,
      "Ġstrukture": 7702,
      "tah": 7703,
      "Ġusluzbencev": 7704,
      "Ġponudbo": 7705,
      "telju": 7706,
      "Ġnicen": 7707,
      "Ġizpolnjena": 7708,
      "gue": 7709,
      "Ġpas": 7710,
      "teljem": 7711,
      "Ġpreobliko": 7712,
      "Ġtox": 7713,
      "Ġizvajalec": 7714,
      "Ġstolpec": 7715,
      "Ġuporabljen": 7716,
      "Ġmesece": 7717,
      "Ġmascobe": 7718,
      "Ġdvomi": 7719,
      "Ġ820": 7720,
      "Ġbeljakovi": 7721,
      "Ġnastanejo": 7722,
      "Ġokolju": 7723,
      "Ġizvedeni": 7724,
      "Ġprejemu": 7725,
      "Ġagri": 7726,
      "dos": 7727,
      "Ġolaf": 7728,
      "Ġ194": 7729,
      "chtshof": 7730,
      "Ġ659": 7731,
      "Ġrazporedi": 7732,
      "Ġaktivnosti": 7733,
      "Ġmotorjev": 7734,
      "Ġalumini": 7735,
      "jnim": 7736,
      "Ġoznacuje": 7737,
      "Ġpripomb": 7738,
      "Ġdelovnim": 7739,
      "dorf": 7740,
      "Ġshranjevanje": 7741,
      "Ġrati": 7742,
      "Ġpestici": 7743,
      "Ġproizvodih": 7744,
      "Ġcivilnih": 7745,
      "mese": 7746,
      "Ġzivalskih": 7747,
      "Ġmedsebojno": 7748,
      "Ġvisja": 7749,
      "Ġabso": 7750,
      "Ġintelektualno": 7751,
      "Ġzgodi": 7752,
      "Ġsestavin": 7753,
      "Ġ193": 7754,
      "Ġpreskusni": 7755,
      "Ġnepremicnin": 7756,
      "Ġpomembnih": 7757,
      "Ġ192": 7758,
      "Ġuporabniki": 7759,
      "Ġcenami": 7760,
      "Ġmlado": 7761,
      "Ġsif": 7762,
      "Ġspojine": 7763,
      "Ġkonvenciji": 7764,
      "ljev": 7765,
      "Ġprimerljive": 7766,
      "Ġizpusnih": 7767,
      "Ġpolno": 7768,
      "Ġtema": 7769,
      "Ġlesa": 7770,
      "Ġenotne": 7771,
      "Ġfizicnih": 7772,
      "Ġletala": 7773,
      "jenega": 7774,
      "Ġdogodkov": 7775,
      "Ġpero": 7776,
      "Ġvecjo": 7777,
      "Ġmaslo": 7778,
      "kp": 7779,
      "Ġzajete": 7780,
      "Ġmaticna": 7781,
      "sano": 7782,
      "Ġkoncnega": 7783,
      "tte": 7784,
      "Ġpotreba": 7785,
      "Ġpripisati": 7786,
      "Ġfarmacevt": 7787,
      "Ġorodje": 7788,
      "tungs": 7789,
      "Ġvede": 7790,
      "Ġdelnice": 7791,
      "Ġzahtevana": 7792,
      "Ġzavezuje": 7793,
      "Ġ2645": 7794,
      "Ġ2204": 7795,
      "Ġveterinarski": 7796,
      "setz": 7797,
      "Ġvecino": 7798,
      "Ġnational": 7799,
      "Ġporavnave": 7800,
      "Ġpetro": 7801,
      "Ġkovine": 7802,
      "Ġ212": 7803,
      "Ġdebeline": 7804,
      "Ġdolocal": 7805,
      "Ñĥ": 7806,
      "tona": 7807,
      "Ġdal": 7808,
      "Ġ213": 7809,
      "Ġodgovorne": 7810,
      "Ġves": 7811,
      "Ġdogovora": 7812,
      "Ġds": 7813,
      "Ġsirje": 7814,
      "Ġ249": 7815,
      "Ġprispeva": 7816,
      "Ġwor": 7817,
      "Ġizvoznika": 7818,
      "kim": 7819,
      "Ġvpo": 7820,
      "Ġnadaljnji": 7821,
      "nen": 7822,
      "Ġdiag": 7823,
      "Ġoblacila": 7824,
      "Ġgrafi": 7825,
      "letno": 7826,
      "tvam": 7827,
      "stega": 7828,
      "jn": 7829,
      "poli": 7830,
      "Ġobjavo": 7831,
      "han": 7832,
      "Ġnereziden": 7833,
      "Ġlin": 7834,
      "Ġwy": 7835,
      "Ġregionalni": 7836,
      "Ġmozno": 7837,
      "Ġsedmi": 7838,
      "Ġrazno": 7839,
      "Ġzveza": 7840,
      "Ġnajvisja": 7841,
      "Ġugovarja": 7842,
      "Ġokvirni": 7843,
      "Ġinova": 7844,
      "Ġrazprav": 7845,
      "Ġtujini": 7846,
      "Ġprogramu": 7847,
      "karbo": 7848,
      "Ġzastara": 7849,
      "Ã¸": 7850,
      "Ġdodaja": 7851,
      "Ġinteresi": 7852,
      "Ġnadzornega": 7853,
      "Ġcit": 7854,
      "Ġpridobivanje": 7855,
      "rata": 7856,
      "Ġescp": 7857,
      "Ġ288": 7858,
      "Ġpritozbeno": 7859,
      "Ġnew": 7860,
      "Ġosnutek": 7861,
      "Ġprograme": 7862,
      "ĠÏĥ": 7863,
      "Ġboj": 7864,
      "Ġsurovin": 7865,
      "Ġsku": 7866,
      "Ġ297": 7867,
      "Ġaktivno": 7868,
      "030": 7869,
      "Ġprivo": 7870,
      "Ġkrsitvijo": 7871,
      "Ġss": 7872,
      "Ġdolznost": 7873,
      "Ġporocil": 7874,
      "Ġtaksni": 7875,
      "Ġzavarovanju": 7876,
      "roba": 7877,
      "Ġdovoljene": 7878,
      "Ġrazkritju": 7879,
      "Ġkonc": 7880,
      "ritori": 7881,
      "Ġvlakna": 7882,
      "Ġ420": 7883,
      "Ġorganizaciji": 7884,
      "Ġzagotavljanju": 7885,
      "Ġodvetniki": 7886,
      "Ġairlines": 7887,
      "Ġprze": 7888,
      "plika": 7889,
      "Ġzao": 7890,
      "Ġpredlozitvi": 7891,
      "Ġmanu": 7892,
      "Ġoznacbe": 7893,
      "lovi": 7894,
      "rocni": 7895,
      "Ġdestila": 7896,
      "Ġpredlozile": 7897,
      "Ġinstituciji": 7898,
      "Ġodgovorni": 7899,
      "lene": 7900,
      "Ġzagotovili": 7901,
      "Ġpredpisih": 7902,
      "Ġtok": 7903,
      "Ġretroakti": 7904,
      "Ġmocjo": 7905,
      "Ġsubsidi": 7906,
      "bs": 7907,
      "Ġ225": 7908,
      "Ġvsebnosti": 7909,
      "Ġpovrsina": 7910,
      "sing": 7911,
      "2010": 7912,
      "Ġnemski": 7913,
      "Ġ195": 7914,
      "Ġpolozajem": 7915,
      "Ġsklicevanjem": 7916,
      "Ġprihodnje": 7917,
      "Ġklavni": 7918,
      "Ġribiske": 7919,
      "Ġkrmo": 7920,
      "Ġodlozi": 7921,
      "Ġzdravilo": 7922,
      "Ġenotna": 7923,
      "zale": 7924,
      "Ġsklop": 7925,
      "Ġvarnostnega": 7926,
      "Ġsoglasje": 7927,
      "Ġoblikah": 7928,
      "Ġpoklicno": 7929,
      "210": 7930,
      "lata": 7931,
      "Ġrazmnoze": 7932,
      "Ġ530": 7933,
      "Ġvodja": 7934,
      "Ġkaznivega": 7935,
      "valnem": 7936,
      "Ġregistraciji": 7937,
      "Ġuradnih": 7938,
      "Ġpoudarila": 7939,
      "Ġ206": 7940,
      "Ġlibe": 7941,
      "Ġmilijona": 7942,
      "redmete": 7943,
      "Ġsmela": 7944,
      "Ġpodana": 7945,
      "Ġtretjimi": 7946,
      "Ġpojav": 7947,
      "Ġsur": 7948,
      "Ġ209": 7949,
      "vk": 7950,
      "Ġpodala": 7951,
      "Ġmoj": 7952,
      "Ġvlozene": 7953,
      "Ġpolie": 7954,
      "Ġposod": 7955,
      "Ġdelovnem": 7956,
      "Ġpredmeta": 7957,
      "clen": 7958,
      "Ġindustrijske": 7959,
      "Ġsprejemanje": 7960,
      "Ġelektronske": 7961,
      "dila": 7962,
      "Ġsmeri": 7963,
      "tia": 7964,
      "Ġoznacevanje": 7965,
      "Ġdepo": 7966,
      "Ġsestavnih": 7967,
      "nat": 7968,
      "Ġinteresom": 7969,
      "Ġnegotovo": 7970,
      "rit": 7971,
      "Ġakredi": 7972,
      "lizacije": 7973,
      "Ġstandarda": 7974,
      "Ġuvaja": 7975,
      "Ġposebnimi": 7976,
      "Ġnjihovim": 7977,
      "Ġsou": 7978,
      "Ġlaw": 7979,
      "tvene": 7980,
      "ring": 7981,
      "Ġponovni": 7982,
      "Ġuposteval": 7983,
      "Ġline": 7984,
      "Ġpopolne": 7985,
      "Ġdrzavljane": 7986,
      "Ġusmeri": 7987,
      "Ġdolzina": 7988,
      "Ġnarava": 7989,
      "Ġsubsidiar": 7990,
      "cep": 7991,
      "Ġobnov": 7992,
      "Ġvezi": 7993,
      "Ġpredlogih": 7994,
      "Ġnezavaro": 7995,
      "Ġzakonik": 7996,
      "Ġwil": 7997,
      "nskem": 7998,
      "litev": 7999,
      "Ġnapove": 8000,
      "Ġdokazilo": 8001,
      "Ġdruzinske": 8002,
      "Ġeurosta": 8003,
      "Ġsr": 8004,
      "Ġol": 8005,
      "Ġprejsnjega": 8006,
      "mbrom": 8007,
      "Ġvie": 8008,
      "Ġvisino": 8009,
      "sse": 8010,
      "zga": 8011,
      "Ġmanjse": 8012,
      "Ġpretvor": 8013,
      "Ġtrditvijo": 8014,
      "Ġizobrazevanje": 8015,
      "Ġporabo": 8016,
      "Ġobvestiti": 8017,
      "Ġkraljevine": 8018,
      "Ġobremenitve": 8019,
      "Ġvsebinsko": 8020,
      "Ġopozori": 8021,
      "cation": 8022,
      "Ġazi": 8023,
      "Ġorodja": 8024,
      "Ġprostorih": 8025,
      "Ġoblikovanje": 8026,
      "Ġribolovne": 8027,
      "dijo": 8028,
      "Ġ302": 8029,
      "Ġizdatkov": 8030,
      "Ġtono": 8031,
      "Ġcarinskem": 8032,
      "Ġizrazena": 8033,
      "Ġdobicko": 8034,
      "Ġscena": 8035,
      "Ġsamostojno": 8036,
      "ite": 8037,
      "Ġprilozi": 8038,
      "Ġvplivati": 8039,
      "Ġ280": 8040,
      "Ġkonkretno": 8041,
      "Ġ278": 8042,
      "Ġ235": 8043,
      "vere": 8044,
      "Ġdenarja": 8045,
      "Ġneloja": 8046,
      "Ġtuje": 8047,
      "Ġkaznivo": 8048,
      "Ġenakosti": 8049,
      "Ġneraz": 8050,
      "Ġ760": 8051,
      "Ġstrankama": 8052,
      "Ġzahtevani": 8053,
      "Ġ214": 8054,
      "ÏĦÎ±": 8055,
      "Ġoceniti": 8056,
      "Ġ251": 8057,
      "Ġfaze": 8058,
      "ranimi": 8059,
      "ln": 8060,
      "Ġdajejo": 8061,
      "Ġelektronsko": 8062,
      "Ġ308": 8063,
      "Ġeksp": 8064,
      "jsih": 8065,
      "Ġpomenila": 8066,
      "Ġprejemnik": 8067,
      "Ġugotovljene": 8068,
      "Ġprenesti": 8069,
      "Ġzastavlje": 8070,
      "Ġcve": 8071,
      "Ġtelefo": 8072,
      "Ġpreucitve": 8073,
      "Ġ650": 8074,
      "odifici": 8075,
      "Ġdeklaracije": 8076,
      "Ġgovt": 8077,
      "Ġprepric": 8078,
      "Ġodzi": 8079,
      "tter": 8080,
      "cien": 8081,
      "Ġobjektivnih": 8082,
      "Ġopombo": 8083,
      "Ġnji": 8084,
      "Ġ321": 8085,
      "Ġnepla": 8086,
      "Ġagenciji": 8087,
      "Ġkomponente": 8088,
      "Ġzagotovljena": 8089,
      "Ġzacnejo": 8090,
      "Ġsau": 8091,
      "Ġkitajski": 8092,
      "cimi": 8093,
      "ÐµÐ½": 8094,
      "Ġ1980": 8095,
      "lex": 8096,
      "Ġprevoznika": 8097,
      "Ġprezive": 8098,
      "gn": 8099,
      "Ġpp": 8100,
      "Ġzani": 8101,
      "Ġprere": 8102,
      "hid": 8103,
      "Ġpredstavitvi": 8104,
      "Ġpokazala": 8105,
      "Ġspostovati": 8106,
      "Ġsodelovala": 8107,
      "Ġdokazno": 8108,
      "Ġ354": 8109,
      "Ġopisano": 8110,
      "Ġjetra": 8111,
      "Ġpriznana": 8112,
      "Ġtovr": 8113,
      "Ġzavezujoce": 8114,
      "sajo": 8115,
      "Ġpodpora": 8116,
      "Ġ0402": 8117,
      "tano": 8118,
      "Ġprepovedano": 8119,
      "Ġdiskrecijsko": 8120,
      "Ġreferencnih": 8121,
      "Ġnaslednjimi": 8122,
      "Ġpripravljena": 8123,
      "Ġupostevno": 8124,
      "Ġ429": 8125,
      "Ġsklenitvi": 8126,
      "Ġpredstavljeni": 8127,
      "Ġpritoznici": 8128,
      "Ġbombaza": 8129,
      "Ġpogodbene": 8130,
      "Ġsoglasja": 8131,
      "Ġdejanska": 8132,
      "Ġdolznika": 8133,
      "Ġklini": 8134,
      "Ġamoni": 8135,
      "rnega": 8136,
      "Ġizvod": 8137,
      "valci": 8138,
      "Ġutemeljiti": 8139,
      "rgy": 8140,
      "Ġnjegovim": 8141,
      "Ġodlocilno": 8142,
      "Ġuporabljeno": 8143,
      "Ġavstriji": 8144,
      "Ġhorizonta": 8145,
      "Ġugovore": 8146,
      "Ġ325": 8147,
      "040": 8148,
      "Ġuki": 8149,
      "valcev": 8150,
      "Ġonx": 8151,
      "Ġpake": 8152,
      "Ġzavarovalno": 8153,
      "Ġprod": 8154,
      "Ġvrti": 8155,
      "Ġzdruzljiva": 8156,
      "Ġnacinu": 8157,
      "Ġpoudarilo": 8158,
      "Ġneke": 8159,
      "Ġobcine": 8160,
      "Ġnazaj": 8161,
      "Ġzavrnitve": 8162,
      "Ġcommu": 8163,
      "sts": 8164,
      "Ġpolovi": 8165,
      "Ġenakih": 8166,
      "Ġpodobnosti": 8167,
      "Ġizvrsevanja": 8168,
      "Ġprebiva": 8169,
      "Ġpravilnik": 8170,
      "tent": 8171,
      "Ġzasebno": 8172,
      "Ġzivilih": 8173,
      "Ġletalskih": 8174,
      "Ġsvica": 8175,
      "Ġ223": 8176,
      "ĠÎ·": 8177,
      "Ġsodnica": 8178,
      "Ġblagovne": 8179,
      "Ġdocu": 8180,
      "Ġsklicujejo": 8181,
      "Ġkategoriji": 8182,
      "fin": 8183,
      "Ġmember": 8184,
      "Ġ883": 8185,
      "Ġdosego": 8186,
      "Ġ590": 8187,
      "Ġ271": 8188,
      "Ġdividende": 8189,
      "Ġspremenjene": 8190,
      "Ġhcerinske": 8191,
      "Ġuresnicevanje": 8192,
      "Ġdomace": 8193,
      "Ġzborni": 8194,
      "ev": 8195,
      "Ġposameznika": 8196,
      "ros": 8197,
      "Ġomejitvami": 8198,
      "Ġdom": 8199,
      "Ġmot": 8200,
      "Ġjuni": 8201,
      "lor": 8202,
      "Ġ268": 8203,
      "Ġnit": 8204,
      "Ġ232": 8205,
      "Ġostaja": 8206,
      "Ġdopustna": 8207,
      "Ġ1177": 8208,
      "alna": 8209,
      "urnal": 8210,
      "Ġpriznala": 8211,
      "Ġizplaca": 8212,
      "Ġmaro": 8213,
      "Ġdre": 8214,
      "Ġ0709": 8215,
      "Ġchro": 8216,
      "Ġgran": 8217,
      "Ġposode": 8218,
      "Ġizguba": 8219,
      "cevje": 8220,
      "Ġinformacijah": 8221,
      "Ġnv": 8222,
      "dnimi": 8223,
      "Ġfrancoski": 8224,
      "Ġsco": 8225,
      "Ġtrdita": 8226,
      "zione": 8227,
      "Ġnede": 8228,
      "senje": 8229,
      "Ġspecializi": 8230,
      "snice": 8231,
      "Ġmenil": 8232,
      "ljavo": 8233,
      "Ġladja": 8234,
      "Ġ245": 8235,
      "Ġtaric": 8236,
      "Ġstarost": 8237,
      "Ġfunkcija": 8238,
      "Ġtekoce": 8239,
      "Ġ570": 8240,
      "mark": 8241,
      "Ġopustitev": 8242,
      "Ġprovizi": 8243,
      "Ġudelezenci": 8244,
      "Ġevidenti": 8245,
      "Ġdgr": 8246,
      "Ġvlozitvi": 8247,
      "Ġizvedenih": 8248,
      "Ġkaznivih": 8249,
      "Ġluxembourgu": 8250,
      "Ġcasov": 8251,
      "Ġkazenski": 8252,
      "Ġrazso": 8253,
      "Ġrazre": 8254,
      "Ġpiscan": 8255,
      "Ġpraviloma": 8256,
      "Ġdirektorja": 8257,
      "Ġzavo": 8258,
      "Ġribolova": 8259,
      "Ġitalijanski": 8260,
      "Ġtransport": 8261,
      "Ġgeografsko": 8262,
      "vest": 8263,
      "Ġvarnostne": 8264,
      "Ġ188": 8265,
      "Ġkonsolidi": 8266,
      "Ġkrompi": 8267,
      "Ġgnoji": 8268,
      "Ġmednarodna": 8269,
      "tum": 8270,
      "Ġzahtevam": 8271,
      "Ġomejevalnega": 8272,
      "Ġzahtevah": 8273,
      "Ġzaplete": 8274,
      "Ġrazmerah": 8275,
      "Ġimele": 8276,
      "jskim": 8277,
      "Ġpostene": 8278,
      "Ġcivilnega": 8279,
      "1000": 8280,
      "ravnote": 8281,
      "Ġtoplog": 8282,
      "Ġinten": 8283,
      "ila": 8284,
      "Ġprihaja": 8285,
      "Ġprejel": 8286,
      "tha": 8287,
      "Ġplujejo": 8288,
      "Ġsocie": 8289,
      "tana": 8290,
      "Ġvloznik": 8291,
      "Ġavtomati": 8292,
      "Ġtozi": 8293,
      "Ġ238": 8294,
      "Ġponuja": 8295,
      "Ġvzdrzevanja": 8296,
      "110": 8297,
      "Ġpovelj": 8298,
      "Õ¡": 8299,
      "Ġzahteval": 8300,
      "Ġsov": 8301,
      "organi": 8302,
      "Ġtopi": 8303,
      "Ġceloten": 8304,
      "Ġprvih": 8305,
      "Ġpotrosnikom": 8306,
      "ljo": 8307,
      "005": 8308,
      "Ġpredlozitvene": 8309,
      "Ġfinanciranju": 8310,
      "Ġdividend": 8311,
      "Ġglavno": 8312,
      "Ġmotorna": 8313,
      "Ġkartela": 8314,
      "Ġpisni": 8315,
      "Ġrazredov": 8316,
      "Ġsklic": 8317,
      "Ġopi": 8318,
      "Ġzit": 8319,
      "Ġneposrednih": 8320,
      "Ġneobstoja": 8321,
      "Ġjajca": 8322,
      "Ġdesti": 8323,
      "Ġzavrze": 8324,
      "Ġdodelijo": 8325,
      "Ġ1977": 8326,
      "Ġtrosarin": 8327,
      "Ġogljikovodikov": 8328,
      "Ġdokazano": 8329,
      "Ġmetodi": 8330,
      "knji": 8331,
      "Ġmani": 8332,
      "Ġodstotkov": 8333,
      "povra": 8334,
      "Ġmocno": 8335,
      "Ġnedopustnosti": 8336,
      "Ġmogoca": 8337,
      "Ġopozorilo": 8338,
      "Ġ680": 8339,
      "Ġrazlicna": 8340,
      "Ġministe": 8341,
      "Ġpisnih": 8342,
      "fluoro": 8343,
      "Ġupostevni": 8344,
      "Ġsestavlja": 8345,
      "Ġ266": 8346,
      "Ġureditvijo": 8347,
      "ĠÎ¿": 8348,
      "Ġciper": 8349,
      "Ġuspesno": 8350,
      "Ġ196": 8351,
      "Ġkumu": 8352,
      "Ġsurovi": 8353,
      "Ġzgornji": 8354,
      "Ġ224": 8355,
      "Ġtrdijo": 8356,
      "rije": 8357,
      "Ġkriteri": 8358,
      "Ġmen": 8359,
      "Ġ247": 8360,
      "Ġmotorji": 8361,
      "Ġizpodbijala": 8362,
      "stil": 8363,
      "Ġclovekove": 8364,
      "Ġmehanizma": 8365,
      "Ġvlozili": 8366,
      "Ġque": 8367,
      "Ġodjema": 8368,
      "njenje": 8369,
      "Ġmejo": 8370,
      "Ġfarma": 8371,
      "Ġzelijo": 8372,
      "Ġpovprecno": 8373,
      "Ġpovprecne": 8374,
      "Ġraztopine": 8375,
      "Ġtiff": 8376,
      "Ġpovezavo": 8377,
      "Ġveljavni": 8378,
      "Ġsankcij": 8379,
      "Ġspr": 8380,
      "Ġpropi": 8381,
      "Ġskladis": 8382,
      "Ġpovzrocilo": 8383,
      "Ġponudba": 8384,
      "Ġizpolniti": 8385,
      "Ġnacelu": 8386,
      "Ġpoenostavi": 8387,
      "Ġsaharo": 8388,
      "Ġdomneve": 8389,
      "Ġpriznati": 8390,
      "ham": 8391,
      "Ġhs": 8392,
      "Ġulova": 8393,
      "Ġposljejo": 8394,
      "nas": 8395,
      "valu": 8396,
      "Ġkat": 8397,
      "Ġseboj": 8398,
      "Ġ61162": 8399,
      "lulo": 8400,
      "Ġesma": 8401,
      "Ġnast": 8402,
      "Ġrazlikovanje": 8403,
      "Ġvkljucijo": 8404,
      "Ġpredlozen": 8405,
      "Ġzased": 8406,
      "Ġnadomest": 8407,
      "Ġdokumentu": 8408,
      "Ġneodvisnost": 8409,
      "Ġizhodis": 8410,
      "vanaj": 8411,
      "Ġdano": 8412,
      "Ġrtvslo": 8413,
      "Ġnatrijev": 8414,
      "Ġjavnim": 8415,
      "Ġzahtevanih": 8416,
      "Ġfik": 8417,
      "burg": 8418,
      "Ġdvanaj": 8419,
      "Ġpremije": 8420,
      "Ġpreklic": 8421,
      "genti": 8422,
      "Ġizvedla": 8423,
      "Ġbelo": 8424,
      "Ġjanuarjem": 8425,
      "Ġsklenjene": 8426,
      "Ġresitve": 8427,
      "rija": 8428,
      "Ġ005": 8429,
      "Ġsekretar": 8430,
      "Ġrazlikovalnega": 8431,
      "Ġkemicno": 8432,
      "Ġtozen": 8433,
      "Ġzbiranja": 8434,
      "Ġutrpela": 8435,
      "Ġassocia": 8436,
      "Ġizvajalci": 8437,
      "Ġendo": 8438,
      "Ġnedvo": 8439,
      "Ġizjemnih": 8440,
      "Ġtozbenih": 8441,
      "Ġlokalne": 8442,
      "ÃŁ": 8443,
      "Ġstekla": 8444,
      "Ġkazenskem": 8445,
      "cea": 8446,
      "Ġxvi": 8447,
      "Ð°Ð½": 8448,
      "Ġdistributer": 8449,
      "Ġletne": 8450,
      "Ġopp": 8451,
      "mek": 8452,
      "Ġhibri": 8453,
      "Ġdruzinskih": 8454,
      "Ġvlagatelja": 8455,
      "Ġnotranjo": 8456,
      "Ġgospodarska": 8457,
      "Ġuvoznik": 8458,
      "Ġpovrnitev": 8459,
      "Ġupravljalnega": 8460,
      "Ġstatisticni": 8461,
      "Ġobvestil": 8462,
      "Ġmenijo": 8463,
      "Ġdepar": 8464,
      "ĠÎ¼g": 8465,
      "ĠÑģ": 8466,
      "Ġfizicna": 8467,
      "Ġzivljenja": 8468,
      "Ġtabele": 8469,
      "Ġtali": 8470,
      "Ġdiagnosti": 8471,
      "Ġnepovra": 8472,
      "Ġmax": 8473,
      "Ġkartice": 8474,
      "Ġnezakonitosti": 8475,
      "Ġzaslu": 8476,
      "Ġdrobo": 8477,
      "Ġnedolocen": 8478,
      "Ġkaka": 8479,
      "Ġ222": 8480,
      "Ġstrankami": 8481,
      "valen": 8482,
      "002": 8483,
      "Ġprilaga": 8484,
      "Ġliq": 8485,
      "Ġodse": 8486,
      "Ġtuni": 8487,
      "Ġopozorila": 8488,
      "gva": 8489,
      "Ġreferencnega": 8490,
      "Ġcenter": 8491,
      "Ġrazlik": 8492,
      "Ġnavajajo": 8493,
      "its": 8494,
      "Ġuvozom": 8495,
      "Ġnapak": 8496,
      "Ġspricevalo": 8497,
      "Ġzasebne": 8498,
      "Ġspremembami": 8499,
      "Ġnaslovu": 8500,
      "Ġtemeljiti": 8501,
      "Ġ1907": 8502,
      "Ġuporabnik": 8503,
      "Ġpritrdilen": 8504,
      "Ġmit": 8505,
      "Ġtuj": 8506,
      "Ġpriznavanju": 8507,
      "Ġdosto": 8508,
      "Ġobdelavi": 8509,
      "oma": 8510,
      "Ġ233": 8511,
      "Ġzavarovan": 8512,
      "Ġkapitalskih": 8513,
      "Ġsubvencioni": 8514,
      "Ġinstituciona": 8515,
      "Ġidentite": 8516,
      "Ġbarve": 8517,
      "Ġices": 8518,
      "rance": 8519,
      "Ġobveznostmi": 8520,
      "Ġizplac": 8521,
      "Ġuradnikov": 8522,
      "Ġfunkcij": 8523,
      "Ġvrhovnega": 8524,
      "Ġneder": 8525,
      "Ġodobrila": 8526,
      "Ġrazdelitev": 8527,
      "Ġodpraviti": 8528,
      "Ġprah": 8529,
      "Ġizkrivljanje": 8530,
      "Ġgeografskih": 8531,
      "lnike": 8532,
      "Ġdajanja": 8533,
      "gy": 8534,
      "Ġ219": 8535,
      "Ġpisar": 8536,
      "Ġnormalne": 8537,
      "Ġsocialnih": 8538,
      "Ġvoznjo": 8539,
      "Ġbesede": 8540,
      "Ġstatisticnih": 8541,
      "Ġpodoben": 8542,
      "Ġneposrednega": 8543,
      "Ġzlorabo": 8544,
      "rali": 8545,
      "Ġaktivnih": 8546,
      "Ġdiskriminacijo": 8547,
      "Ġpredstavniki": 8548,
      "Ġmaterialno": 8549,
      "Ġdrzavljanom": 8550,
      "ĠÎºÎ±": 8551,
      "Ġpritozbenem": 8552,
      "Ġglasi": 8553,
      "Ġdogodek": 8554,
      "Ġupravljavca": 8555,
      "Ġizpodbijanih": 8556,
      "Ġgluko": 8557,
      "Ġ282": 8558,
      "Ġzakljuc": 8559,
      "memb": 8560,
      "Ġracunu": 8561,
      "Ġvkljucen": 8562,
      "Ġpodatek": 8563,
      "Ġcivilne": 8564,
      "Ġ273": 8565,
      "Ġzaloge": 8566,
      "Ġgostiteljici": 8567,
      "317": 8568,
      "Ġneutemeljen": 8569,
      "Ġzane": 8570,
      "Ġ319": 8571,
      "Ġpisna": 8572,
      "Ġtrzenja": 8573,
      "Ġgozdar": 8574,
      "Ġecha": 8575,
      "Ġnizko": 8576,
      "Ġpridelova": 8577,
      "waltungs": 8578,
      "Ġbur": 8579,
      "am": 8580,
      "Ġribistvo": 8581,
      "Ġpreus": 8582,
      "Ġporeklo": 8583,
      "stitvijo": 8584,
      "Ð¼": 8585,
      "Ġokvirne": 8586,
      "Ġopravljenih": 8587,
      "pin": 8588,
      "Ġposilja": 8589,
      "Ġbrazi": 8590,
      "the": 8591,
      "Ġgor": 8592,
      "Ġconsi": 8593,
      "Ġizvozu": 8594,
      "Ġ265": 8595,
      "Ġdruzbam": 8596,
      "Ġprostornino": 8597,
      "Ġkoncent": 8598,
      "Ġdolzine": 8599,
      "jte": 8600,
      "Ġrazsiritev": 8601,
      "Ġodprt": 8602,
      "Ġner": 8603,
      "Ġsklenitev": 8604,
      "dad": 8605,
      "Ġ2933": 8606,
      "Ġwal": 8607,
      "yer": 8608,
      "Ġdelezi": 8609,
      "Ġznova": 8610,
      "Ġracunovodske": 8611,
      "Ġsestavljeni": 8612,
      "Ġcs": 8613,
      "Ġdolocitvijo": 8614,
      "Ġprevozu": 8615,
      "Ġtabeli": 8616,
      "Ġgg": 8617,
      "Ġposebnosti": 8618,
      "Ġ269": 8619,
      "Ġdodati": 8620,
      "Ġnacrtov": 8621,
      "Ġlq": 8622,
      "ljivimi": 8623,
      "Ġrokov": 8624,
      "Ġtisto": 8625,
      "Ġizdatki": 8626,
      "Ġnn": 8627,
      "Ġrazlikovalni": 8628,
      "Ġformu": 8629,
      "Ġzunanjih": 8630,
      "Ġposlovod": 8631,
      "Ġzelenjava": 8632,
      "Ġprodukti": 8633,
      "Ġkrsilo": 8634,
      "Ġ335": 8635,
      "Ġpridobil": 8636,
      "Ġsinteti": 8637,
      "Ġ301": 8638,
      "Ġjamstve": 8639,
      "snjo": 8640,
      "Ġ254": 8641,
      "Ġvplivalo": 8642,
      "Ġcona": 8643,
      "Ġzajeta": 8644,
      "Ġporaba": 8645,
      "Ġciscenje": 8646,
      "lic": 8647,
      "Ġaci": 8648,
      "Ġepi": 8649,
      "vid": 8650,
      "Ġzaposlen": 8651,
      "Ġtemperaturi": 8652,
      "Ġcep": 8653,
      "Ġkazno": 8654,
      "Ġkabi": 8655,
      "Ġizbira": 8656,
      "Ġizpodbijanem": 8657,
      "Ġstaliscu": 8658,
      "sic": 8659,
      "Ġmil": 8660,
      "Ġtujih": 8661,
      "Ġpreraz": 8662,
      "Ġ2201": 8663,
      "Ġbioci": 8664,
      "Ġstudij": 8665,
      "Ġ090": 8666,
      "Ġzaposlovanje": 8667,
      "Ġia": 8668,
      "sim": 8669,
      "Ġvrednostni": 8670,
      "Ġodobrijo": 8671,
      "litve": 8672,
      "Ġmorata": 8673,
      "Ġplacilne": 8674,
      "Ġaktom": 8675,
      "Ġsorte": 8676,
      "Ġrefor": 8677,
      "Ġkazenskih": 8678,
      "Ġcrm": 8679,
      "Ġbistvena": 8680,
      "Ġprispela": 8681,
      "Ġuravna": 8682,
      "Ġkroga": 8683,
      "Ġletna": 8684,
      "onale": 8685,
      "Ġkalcije": 8686,
      "Ġgotovo": 8687,
      "Ġista": 8688,
      "Ġosnove": 8689,
      "menite": 8690,
      "Ġkapitalske": 8691,
      "Ġodbitek": 8692,
      "Ġsha": 8693,
      "Ġ252": 8694,
      "Ġkritje": 8695,
      "Ġpolja": 8696,
      "Ġtvori": 8697,
      "Ġokra": 8698,
      "Ġodte": 8699,
      "Ġcir": 8700,
      "los": 8701,
      "Ġ9695": 8702,
      "zz": 8703,
      "ÏĨ": 8704,
      "hm": 8705,
      "Ð³": 8706,
      "sus": 8707,
      "Ġtrgovinske": 8708,
      "Ġmc": 8709,
      "Ġnasprotna": 8710,
      "Ġ338": 8711,
      "Ġekvi": 8712,
      "Ġskladiscenje": 8713,
      "nol": 8714,
      "Ġpravoko": 8715,
      "Ġomrezje": 8716,
      "Ġsestava": 8717,
      "Ġnosilci": 8718,
      "Ġsani": 8719,
      "Ġfp": 8720,
      "Ġ9100": 8721,
      "Ġobstajala": 8722,
      "Ġnepristransko": 8723,
      "Ġted": 8724,
      "urs": 8725,
      "Ġobremenitev": 8726,
      "Ġpromo": 8727,
      "Ġprisotnost": 8728,
      "lej": 8729,
      "Ġnedopustno": 8730,
      "Ġtrzenje": 8731,
      "Ġuspesnosti": 8732,
      "Ġ243": 8733,
      "Ġnotar": 8734,
      "Ġvele": 8735,
      "lujejo": 8736,
      "Ġtonah": 8737,
      "Ġizbiri": 8738,
      "Ġzgornjih": 8739,
      "Ġprebivajo": 8740,
      "Ġkonstruk": 8741,
      "Ġizogni": 8742,
      "Ġcelin": 8743,
      "Ġznaki": 8744,
      "Ġani": 8745,
      "Ġnajvecjo": 8746,
      "Ġdokazuje": 8747,
      "Ġpredvidenih": 8748,
      "sane": 8749,
      "Ġpripozna": 8750,
      "Ġizplacilo": 8751,
      "Ġtoplogrednih": 8752,
      "Ġtop": 8753,
      "Ġprag": 8754,
      "chus": 8755,
      "oto": 8756,
      "Ġbrezpred": 8757,
      "Ġuporabnike": 8758,
      "Ġvecina": 8759,
      "Ġrazlicice": 8760,
      "Ġuporabnikom": 8761,
      "rol": 8762,
      "Ġzakoniku": 8763,
      "Ġjuli": 8764,
      "Ġenostav": 8765,
      "Ġzb": 8766,
      "Ġdala": 8767,
      "Ġdelih": 8768,
      "Ġparame": 8769,
      "Ġodlocil": 8770,
      "tske": 8771,
      "enja": 8772,
      "Ġenergy": 8773,
      "Ġizvira": 8774,
      "ranem": 8775,
      "Ġcasovni": 8776,
      "bl": 8777,
      "cijskem": 8778,
      "Ġobvescanja": 8779,
      "Ġznanje": 8780,
      "Ġkemikalije": 8781,
      "Ġ262": 8782,
      "Ġnekatera": 8783,
      "ley": 8784,
      "ise": 8785,
      "Ġ275": 8786,
      "Ġnemsko": 8787,
      "Ġprivi": 8788,
      "Ġvnosa": 8789,
      "Ġdenarni": 8790,
      "Ġpredvid": 8791,
      "Ġudelezencev": 8792,
      "Ġbosta": 8793,
      "Ġtoka": 8794,
      "Ġdajo": 8795,
      "nijo": 8796,
      "stanek": 8797,
      "Ġtrajno": 8798,
      "Ġizkusenj": 8799,
      "Ġznanstvenih": 8800,
      "Ġzavarovalne": 8801,
      "Ġcrni": 8802,
      "0020": 8803,
      "Ġsum": 8804,
      "Ġstevilu": 8805,
      "Ġzasebni": 8806,
      "Ġcze": 8807,
      "Ġutemeljitve": 8808,
      "Ġrezima": 8809,
      "220": 8810,
      "Ġspon": 8811,
      "ok": 8812,
      "Ġsodb": 8813,
      "by": 8814,
      "Ġuvesti": 8815,
      "Ġdiskrecijske": 8816,
      "Ġposojilo": 8817,
      "Ġ305": 8818,
      "Ġ468": 8819,
      "letnega": 8820,
      "Ġmlecnih": 8821,
      "tta": 8822,
      "Ġnasprotujeta": 8823,
      "Ġpalice": 8824,
      "Ġ349": 8825,
      "Ġposlovanje": 8826,
      "Ġembalaze": 8827,
      "Ġpodpisa": 8828,
      "Ġkilogra": 8829,
      "Ġnegativno": 8830,
      "Ġhl": 8831,
      "Ġarhi": 8832,
      "Ġstaliscih": 8833,
      "Ġvoznje": 8834,
      "Î¸": 8835,
      "nis": 8836,
      "Ġprocesnega": 8837,
      "Ġ241": 8838,
      "Ġimata": 8839,
      "Ġ960": 8840,
      "Ġpolju": 8841,
      "Ġnobeno": 8842,
      "Ġbrezpredme": 8843,
      "ecie": 8844,
      "fs": 8845,
      "zalo": 8846,
      "Ġcre": 8847,
      "Ġvzorci": 8848,
      "Ġopredelila": 8849,
      "Ġposteni": 8850,
      "Ġkolesa": 8851,
      "demi": 8852,
      "Ġsd": 8853,
      "Ġuvedbe": 8854,
      "Ġ229": 8855,
      "Ġcivilno": 8856,
      "Ġkrajev": 8857,
      "Ġhen": 8858,
      "Ġstevilom": 8859,
      "Ġstanovan": 8860,
      "Ġsredstvih": 8861,
      "Ġizkljucena": 8862,
      "strez": 8863,
      "Ġzdruzeni": 8864,
      "Ġgospodarstvu": 8865,
      "Ġvplete": 8866,
      "Ġomenjene": 8867,
      "Ġosmi": 8868,
      "Ġupravicenih": 8869,
      "Ġdobava": 8870,
      "Ġchemical": 8871,
      "Ġobrata": 8872,
      "Ġuresnicitev": 8873,
      "Ġfotografi": 8874,
      "Ġodsotnosti": 8875,
      "Ġtrakovi": 8876,
      "Ġshemo": 8877,
      "Ġobrati": 8878,
      "Ġstoril": 8879,
      "Ġ257": 8880,
      "cili": 8881,
      "Ġnanje": 8882,
      "Ġgeneralna": 8883,
      "Ġdolzan": 8884,
      "Ġtarife": 8885,
      "Ġizpodbijati": 8886,
      "Ġstandardizirani": 8887,
      "Ġdolocata": 8888,
      "Ġevidence": 8889,
      "Ġnedvoum": 8890,
      "dika": 8891,
      "Ġoslabi": 8892,
      "Ġstela": 8893,
      "Ġponudnikov": 8894,
      "Ġkor": 8895,
      "Ġhrb": 8896,
      "Ġ244": 8897,
      "Ġpreskusov": 8898,
      "Ġgradnje": 8899,
      "Ġizvedena": 8900,
      "Ġfinancnimi": 8901,
      "sell": 8902,
      "Ġrastlinskih": 8903,
      "Ġnare": 8904,
      "Ġbesedna": 8905,
      "Ġposredujejo": 8906,
      "Ġhsc": 8907,
      "Ġpasi": 8908,
      "Ġsvin": 8909,
      "Ġ1308": 8910,
      "Ġjuris": 8911,
      "Ġ293": 8912,
      "Ġupravicenec": 8913,
      "Ġpredmetov": 8914,
      "Ġaranzmaje": 8915,
      "Ġpowiecie": 8916,
      "Ġ339": 8917,
      "Ġsklenjenih": 8918,
      "Ġcour": 8919,
      "Ġizdan": 8920,
      "Ġkle": 8921,
      "Ġosem": 8922,
      "Ġgeneralne": 8923,
      "Ġnizji": 8924,
      "Ġpriloznost": 8925,
      "zili": 8926,
      "Ġstalez": 8927,
      "Ġ307": 8928,
      "kloro": 8929,
      "Ġprevladujocega": 8930,
      "Ġzadrze": 8931,
      "Ġtarifni": 8932,
      "Ġorozja": 8933,
      "Ġimpre": 8934,
      "Ġizkaz": 8935,
      "Ġprevod": 8936,
      "Ġodobriti": 8937,
      "ĠÐ¿": 8938,
      "Ġcredi": 8939,
      "Ġnjenimi": 8940,
      "Ġartic": 8941,
      "Ġdani": 8942,
      "Ġneop": 8943,
      "Ġobravnavano": 8944,
      "Ġtechno": 8945,
      "Ġjec": 8946,
      "au": 8947,
      "Ġvira": 8948,
      "scenih": 8949,
      "financi": 8950,
      "Ġminu": 8951,
      "Õ¸": 8952,
      "Ġote": 8953,
      "Ġpritrje": 8954,
      "Ġprehran": 8955,
[...]
