{
  "version": "1.0",
  "truncation": null,
  "padding": null,
  "added_tokens": [
    {
      "id": 0,
      "content": "<pad>",
      "single_word": false,
      "lstrip": false,
      "rstrip": false,
      "normalized": false,
      "special": true
    },
    {
      "id": 1,
      "content": "<s>",
      "single_word": false,
      "lstrip": false,
      "rstrip": false,
      "normalized": false,
      "special": true
    },
    {
      "id": 2,
      "content": "</s>",
      "single_word": false,
      "lstrip": false,
      "rstrip": false,
      "normalized": false,
      "special": true
    },
    {
      "id": 3,
      "content": "<unk>",
      "single_word": false,
      "lstrip": false,
      "rstrip": false,
      "normalized": false,
      "special": true
    },
    {
      "id": 4,
      "content": "<mask>",
      "single_word": false,
      "lstrip": false,
      "rstrip": false,
      "normalized": false,
      "special": true
    }
  ],
  "normalizer": {
    "type": "Sequence",
    "normalizers": [
      {
        "type": "NFKD"
      },
      {
        "type": "BertNormalizer",
        "clean_text": true,
        "handle_chinese_chars": true,
        "strip_accents": null,
        "lowercase": true
      }
    ]
  },
  "pre_tokenizer": {
    "type": "Sequence",
    "pretokenizers": [
      {
        "type": "BertPreTokenizer"
      },
      {
        "type": "ByteLevel",
        "add_prefix_space": true,
        "trim_offsets": true,
        "use_regex": true
      }
    ]
  },
  "post_processor": {
    "type": "RobertaProcessing",
    "sep": [
      "</s>",
      2
    ],
    "cls": [
      "<s>",
      1
    ],
    "trim_offsets": true,
    "add_prefix_space": true
  },
  "decoder": {
    "type": "ByteLevel",
    "add_prefix_space": true,
    "trim_offsets": true,
    "use_regex": true
  },
  "model": {
    "type": "BPE",
    "dropout": null,
    "unk_token": "<unk>",
    "continuing_subword_prefix": null,
    "end_of_word_suffix": null,
    "fuse_unk": false,
    "vocab": {
      "<pad>": 0,
      "<s>": 1,
      "</s>": 2,
      "<unk>": 3,
      "<mask>": 4,
      "!": 5,
      "\"": 6,
      "#": 7,
      "$": 8,
      "%": 9,
      "&": 10,
      "'": 11,
      "(": 12,
      ")": 13,
      "*": 14,
      "+": 15,
      ",": 16,
      "-": 17,
      ".": 18,
      "/": 19,
      "0": 20,
      "1": 21,
      "2": 22,
      "3": 23,
      "4": 24,
      "5": 25,
      "6": 26,
      "7": 27,
      "8": 28,
      "9": 29,
      ":": 30,
      ";": 31,
      "<": 32,
      "=": 33,
      ">": 34,
      "?": 35,
      "@": 36,
      "[": 37,
      "\\": 38,
      "]": 39,
      "^": 40,
      "_": 41,
      "`": 42,
      "a": 43,
      "b": 44,
      "c": 45,
      "d": 46,
      "e": 47,
      "f": 48,
      "g": 49,
      "h": 50,
      "i": 51,
      "j": 52,
      "k": 53,
      "l": 54,
      "m": 55,
      "n": 56,
      "o": 57,
      "p": 58,
      "q": 59,
      "r": 60,
      "s": 61,
      "t": 62,
      "u": 63,
      "v": 64,
      "w": 65,
      "x": 66,
      "y": 67,
      "z": 68,
      "{": 69,
      "|": 70,
      "}": 71,
      "~": 72,
      "¡": 73,
      "¢": 74,
      "£": 75,
      "¤": 76,
      "¥": 77,
      "¦": 78,
      "§": 79,
      "¨": 80,
      "©": 81,
      "ª": 82,
      "«": 83,
      "¬": 84,
      "®": 85,
      "¯": 86,
      "°": 87,
      "±": 88,
      "²": 89,
      "³": 90,
      "´": 91,
      "µ": 92,
      "¶": 93,
      "·": 94,
      "¸": 95,
      "¹": 96,
      "º": 97,
      "»": 98,
      "¼": 99,
      "½": 100,
      "¾": 101,
      "¿": 102,
      "Â": 103,
      "Ã": 104,
      "Ä": 105,
      "Å": 106,
      "Æ": 107,
      "É": 108,
      "Ê": 109,
      "Ë": 110,
      "Î": 111,
      "Ï": 112,
      "Ð": 113,
      "Ñ": 114,
      "Ò": 115,
      "Ó": 116,
      "Õ": 117,
      "Ö": 118,
      "Ø": 119,
      "Ù": 120,
      "Ú": 121,
      "Û": 122,
      "ß": 123,
      "à": 124,
      "á": 125,
      "â": 126,
      "ã": 127,
      "ä": 128,
      "å": 129,
      "æ": 130,
      "ç": 131,
      "è": 132,
      "é": 133,
      "ê": 134,
      "ð": 135,
      "Ġ": 136,
      "Ģ": 137,
      "ģ": 138,
      "Ĥ": 139,
      "ĥ": 140,
      "Ħ": 141,
      "ħ": 142,
      "Ĩ": 143,
      "ĩ": 144,
      "Ī": 145,
      "ī": 146,
      "Ĭ": 147,
      "ĭ": 148,
      "Į": 149,
      "į": 150,
      "İ": 151,
      "ı": 152,
      "Ĳ": 153,
      "ĳ": 154,
      "Ĵ": 155,
      "ĵ": 156,
      "Ķ": 157,
      "ķ": 158,
      "ĸ": 159,
      "Ĺ": 160,
      "ĺ": 161,
      "Ļ": 162,
      "ļ": 163,
      "Ľ": 164,
      "ľ": 165,
      "Ŀ": 166,
      "ŀ": 167,
      "Ł": 168,
      "ł": 169,
      "Ń": 170,
      "je": 171,
      "Ġp": 172,
      "Ġs": 173,
      "Ġ.": 174,
      "Ġo": 175,
      "ni": 176,
      "Ġi": 177,
      "na": 178,
      "Ġu": 179,
      "Ġpr": 180,
      "st": 181,
      "ra": 182,
      "ko": 183,
      "Ġ,": 184,
      "no": 185,
      "Ġd": 186,
      "ja": 187,
      "Ġt": 188,
      "re": 189,
      "va": 190,
      "za": 191,
      "ne": 192,
      "ci": 193,
      "la": 194,
      "vo": 195,
      "Ġpo": 196,
      "Ġna": 197,
      "ka": 198,
      "ti": 199,
      "ma": 200,
      "Ġ2": 201,
      "Ġko": 202,
      "ji": 203,
      "li": 204,
      "Ġ1": 205,
      "Ġpri": 206,
      "Ġza": 207,
      "ve": 208,
      "ju": 209,
      "vi": 210,
      "Ġc": 211,
      "Ġod": 212,
      "ri": 213,
      "ta": 214,
      "Ġ)": 215,
      "Ġ(": 216,
      "nje": 217,
      "lo": 218,
      "zi": 219,
      "Ġm": 220,
      "Ġa": 221,
      "Ġâ": 222,
      "ĠâĢ": 223,
      "Ġb": 224,
      "nja": 225,
      "Ġni": 226,
      "Ġje": 227,
      "mje": 228,
      "Ġiz": 229,
      "Ġe": 230,
      "Ġse": 231,
      "ru": 232,
      "ce": 233,
      "me": 234,
      "di": 235,
      "ro": 236,
      "nji": 237,
      "ca": 238,
      "da": 239,
      "Ġprimje": 240,
      "Ġpro": 241,
      "te": 242,
      "Ġ20": 243,
      "sti": 244,
      "Ġnije": 245,
      "Ġda": 246,
      "Ġsu": 247,
      "Ġpre": 248,
      "Ġne": 249,
      "go": 250,
      "si": 251,
      "Ġ/": 252,
      "Ġ-": 253,
      "Ġdo": 254,
      "sta": 255,
      "po": 256,
      "ze": 257,
      "Ġprimjenji": 258,
      "ke": 259,
      "Äĳ": 260,
      "Ġprimjenjivo": 261,
      "to": 262,
      "Ġob": 263,
      "lu": 264,
      "Ġ3": 265,
      "Ġ0": 266,
      "Ġcla": 267,
      "Ġ_": 268,
      "le": 269,
      "su": 270,
      "ku": 271,
      "Ġsta": 272,
      "de": 273,
      "Ġra": 274,
      "Ġ:": 275,
      "mi": 276,
      "Ġto": 277,
      "Ġka": 278,
      "red": 279,
      "lje": 280,
      "tu": 281,
      "ki": 282,
      "Ġte": 283,
      "ga": 284,
      "be": 285,
      "se": 286,
      "nu": 287,
      "du": 288,
      "Ġk": 289,
      "Ġ5": 290,
      "stu": 291,
      "Ġeu": 292,
      "Ġ4": 293,
      "sp": 294,
      "Ġf": 295,
      "Ġili": 296,
      "lja": 297,
      "nih": 298,
      "nog": 299,
      "gu": 300,
      "Ġmo": 301,
      "Ġkoji": 302,
      "Ġkoje": 303,
      "Ġdru": 304,
      "Ġbi": 305,
      "vr": 306,
      "sa": 307,
      "nosti": 308,
      "ba": 309,
      "Ġpra": 310,
      "Ġst": 311,
      "stup": 312,
      "bi": 313,
      "Ġ201": 314,
      "Ġsa": 315,
      "Ġre": 316,
      "ĠâĢĵ": 317,
      "kom": 318,
      "cu": 319,
      "vanja": 320,
      "rza": 321,
      "Ġdi": 322,
      "Ġpod": 323,
      "lju": 324,
      "nju": 325,
      "Ġ6": 326,
      "Ġin": 327,
      "Ġvi": 328,
      "Äĳe": 329,
      "ge": 330,
      "bo": 331,
      "nom": 332,
      "Ġ200": 333,
      "Ġclan": 334,
      "Ġ9": 335,
      "Ġta": 336,
      "nim": 337,
      "Ġti": 338,
      "cije": 339,
      "Ġ7": 340,
      "vje": 341,
      "Ġ8": 342,
      "Ġpred": 343,
      "Ġos": 344,
      "Ġured": 345,
      "Ġraz": 346,
      "lj": 347,
      "pi": 348,
      "iz": 349,
      "mo": 350,
      "sko": 351,
      "tni": 352,
      "sto": 353,
      "cija": 354,
      "Ġdrza": 355,
      "govo": 356,
      "ski": 357,
      "Ġobve": 358,
      "Ġri": 359,
      "Ġz": 360,
      "Ġproiz": 361,
      "Ġpot": 362,
      "Ġg": 363,
      "kla": 364,
      "kti": 365,
      "redi": 366,
      "00": 367,
      "or": 368,
      "tje": 369,
      "Ġv": 370,
      "nije": 371,
      "vanje": 372,
      "ste": 373,
      "Ġstav": 374,
      "misi": 375,
      "spo": 376,
      "do": 377,
      "ĠâĢĲ": 378,
      "Ġh": 379,
      "Ġstra": 380,
      "Ġfi": 381,
      "pu": 382,
      "pa": 383,
      "gi": 384,
      "Ġli": 385,
      "Ġnisu": 386,
      "Ġtu": 387,
      "Ġzah": 388,
      "Ġtre": 389,
      "ske": 390,
      "Äĳu": 391,
      "zu": 392,
      "Ġpostup": 393,
      "jed": 394,
      "Ġmi": 395,
      "Ġve": 396,
      "ĠâĢŀ": 397,
      "Ġkomisi": 398,
      "men": 399,
      "Ġodlu": 400,
      "Ġ10": 401,
      "Ġ;": 402,
      "Ġme": 403,
      "Ġproizvo": 404,
      "Ġop": 405,
      "Ġsto": 406,
      "Ġma": 407,
      "ho": 408,
      "nci": 409,
      "rav": 410,
      "spu": 411,
      "stva": 412,
      "ska": 413,
      "Ġkredi": 414,
      "Ġbr": 415,
      "nice": 416,
      "Ġci": 417,
      "Ġsud": 418,
      "Ġzahtje": 419,
      "ĠâĢĿ": 420,
      "nak": 421,
      "Ġmje": 422,
      "Ġde": 423,
      "Ġeuro": 424,
      "stav": 425,
      "rb": 426,
      "Ġobveza": 427,
      "Ġrizi": 428,
      "Ġtr": 429,
      "Ġkao": 430,
      "nost": 431,
      "Ġkoja": 432,
      "spunja": 433,
      "lji": 434,
      "vede": 435,
      "Ġeurop": 436,
      "loze": 437,
      "Ġstatu": 438,
      "nica": 439,
      "Ġosi": 440,
      "Ġtoc": 441,
      "Ġugovo": 442,
      "Ġskla": 443,
      "jo": 444,
      "Ġpa": 445,
      "Ġdire": 446,
      "Ġclanak": 447,
      "Ġslu": 448,
      "fi": 449,
      "Ġ19": 450,
      "klju": 451,
      "Ġr": 452,
      "Ġsi": 453,
      "Ġnei": 454,
      "tvr": 455,
      "tra": 456,
      "nanci": 457,
      "slu": 458,
      "Ġ%": 459,
      "Ġdirekti": 460,
      "spunjavanja": 461,
      "Ġgo": 462,
      "Ġrizik": 463,
      "Ġneispunjavanja": 464,
      "Ġteme": 465,
      "Ġtije": 466,
      "Ġunije": 467,
      "ĠâĢĶ": 468,
      "Ġclanka": 469,
      "Ġuredbe": 470,
      "Ġal": 471,
      "Ġoso": 472,
      "Ġskladu": 473,
      "Ġkreditni": 474,
      "Ġutvr": 475,
      "Ġ12": 476,
      "pe": 477,
      "Ġspo": 478,
      "Ġce": 479,
      "Ġnje": 480,
      "vni": 481,
      "Ġnavede": 482,
      "nic": 483,
      "gra": 484,
      "Ġodno": 485,
      "Ġvije": 486,
      "vu": 487,
      "Ġbe": 488,
      "Ġ11": 489,
      "Ġfinanci": 490,
      "nal": 491,
      "gova": 492,
      "Ġkon": 493,
      "Ġpresu": 494,
      "Ġtreba": 495,
      "Ġnaci": 496,
      "zna": 497,
      "Ġizloze": 498,
      "Ġpog": 499,
      "Ġslo": 500,
      "Ġpi": 501,
      "ng": 502,
      "dne": 503,
      "Ġl": 504,
      "rne": 505,
      "Ġako": 506,
      "Ġizlozenosti": 507,
      "Ġkomisija": 508,
      "Ġpristup": 509,
      "juci": 510,
      "rije": 511,
      "Ġ00": 512,
      "Ġkako": 513,
      "Ġstrane": 514,
      "Ġja": 515,
      "Ġdruge": 516,
      "bu": 517,
      "Ġva": 518,
      "vom": 519,
      "Ġmoze": 520,
      "dje": 521,
      "Ġmogu": 522,
      "onal": 523,
      "Ġall": 524,
      "Ġslobo": 525,
      "noj": 526,
      "Ġobzi": 527,
      "Ġosta": 528,
      "skog": 529,
      "Ġsvo": 530,
      "Ġ13": 531,
      "Ġnad": 532,
      "Ġvo": 533,
      "Ġpredme": 534,
      "Ġno": 535,
      "Ġodre": 536,
      "ranje": 537,
      "Ġstatusu": 538,
      "Ġ]": 539,
      "Ġ[": 540,
      "Ġ15": 541,
      "Ġprije": 542,
      "so": 543,
      "zo": 544,
      "10": 545,
      "Ġdrustva": 546,
      "kvi": 547,
      "ruc": 548,
      "Ġro": 549,
      "stvo": 550,
      "Ġisp": 551,
      "Äĳa": 552,
      "stava": 553,
      "ĠmeÄĳu": 554,
      "Ġsluca": 555,
      "Ġpotre": 556,
      "Ġdirektive": 557,
      "mu": 558,
      "Ġsma": 559,
      "ran": 560,
      "Ġeur": 561,
      "Ġstavka": 562,
      "Ġtemelju": 563,
      "nt": 564,
      "nika": 565,
      "ak": 566,
      "Ġ50": 567,
      "fe": 568,
      "Ġpos": 569,
      "Ġdrzave": 570,
      "Ġze": 571,
      "Ġosigu": 572,
      "Ġez": 573,
      "Ġprilo": 574,
      "Ġzako": 575,
      "Ġpret": 576,
      "nici": 577,
      "zbe": 578,
      "tiv": 579,
      "Ġdje": 580,
      "20": 581,
      "zira": 582,
      "Ġpla": 583,
      "Ġ14": 584,
      "Ġprema": 585,
      "Ġ16": 586,
      "Ġpita": 587,
      "skih": 588,
      "Ġnji": 589,
      "Ġuvje": 590,
      "Ġispo": 591,
      "vima": 592,
      "Ġclankom": 593,
      "Ġpodruc": 594,
      "mije": 595,
      "Ġzajed": 596,
      "rija": 597,
      "Ġzahtjev": 598,
      "Ġuslu": 599,
      "for": 600,
      "Ġirb": 601,
      "Ġuklju": 602,
      "Ġbez": 603,
      "Ġvijeca": 604,
      "Ġima": 605,
      "Ġpoda": 606,
      "Ġspe": 607,
      "bno": 608,
      "Ġisporu": 609,
      "jedi": 610,
      "Ġosigura": 611,
      "Ġkori": 612,
      "Ġdrzava": 613,
      "dno": 614,
      "Ġposto": 615,
      "on": 616,
      "Ġzasti": 617,
      "Ġosno": 618,
      "Ġodred": 619,
      "Ġinte": 620,
      "Ġ17": 621,
      "Ġvla": 622,
      "Ġprava": 623,
      "Ġpose": 624,
      "Ġmora": 625,
      "vati": 626,
      "Ġup": 627,
      "Ġsvi": 628,
      "Ġsamo": 629,
      "Ġsl": 630,
      "Ġugovorne": 631,
      "Ġmsp": 632,
      "Ġzi": 633,
      "telj": 634,
      "sno": 635,
      "lav": 636,
      "Ġpravi": 637,
      "rom": 638,
      "cka": 639,
      "ch": 640,
      "Ġba": 641,
      "Ġtom": 642,
      "Ġca": 643,
      "Ġokvi": 644,
      "razu": 645,
      "Ġnacional": 646,
      "Ġstr": 647,
      "Ġ18": 648,
      "Ġzna": 649,
      "Ġtrzi": 650,
      "Ġupo": 651,
      "Ġbro": 652,
      "Ġpove": 653,
      "Ġupu": 654,
      "Ġuvo": 655,
      "Ġsva": 656,
      "Ġnap": 657,
      "Ġ=": 658,
      "ting": 659,
      "Ġdu": 660,
      "Ġcije": 661,
      "Ġoba": 662,
      "Ġisporuke": 663,
      "ledu": 664,
      "Äĳi": 665,
      "vak": 666,
      "Ġpogledu": 667,
      "Ġprove": 668,
      "bre": 669,
      "Ġstu": 670,
      "lizira": 671,
      "Ġslobodne": 672,
      "Ġrej": 673,
      "njem": 674,
      "Ġ30": 675,
      "Ġsmatra": 676,
      "Ġpov": 677,
      "zima": 678,
      "forma": 679,
      "Ġslucaju": 680,
      "rijed": 681,
      "Ġrejting": 682,
      "Ġsve": 683,
      "Ġmili": 684,
      "ĠodreÄĳe": 685,
      "nos": 686,
      "Ġosim": 687,
      "Ġclanica": 688,
      "Ġ21": 689,
      "Ġclanice": 690,
      "Ġtuzi": 691,
      "cima": 692,
      "Ġ25": 693,
      "Ġ29": 694,
      "Ġmiliju": 695,
      "Ġispi": 696,
      "Ġeuropske": 697,
      "Ġtro": 698,
      "skom": 699,
      "Ġovi": 700,
      "kre": 701,
      "Ġobra": 702,
      "Ġmilijuna": 703,
      "Ġsporazu": 704,
      "stra": 705,
      "Ġbiti": 706,
      "menta": 707,
      "Ġpretho": 708,
      "vog": 709,
      "dar": 710,
      "tne": 711,
      "Ġpredvi": 712,
      "lazi": 713,
      "nik": 714,
      "Ġn": 715,
      "sku": 716,
      "Ġpar": 717,
      "jec": 718,
      "Ġpodu": 719,
      "Ġodluke": 720,
      "Ġnaj": 721,
      "lici": 722,
      "vne": 723,
      "Ġ|": 724,
      "Ġinforma": 725,
      "Ġbo": 726,
      "Ġspecija": 727,
      "Ġvrijed": 728,
      "Ġele": 729,
      "nose": 730,
      "Ġ26": 731,
      "Ġuz": 732,
      "Ġuci": 733,
      "Ġdrugi": 734,
      "Ġ<": 735,
      "Ġpu": 736,
      "Ġstavak": 737,
      "Ġspecijalizira": 738,
      "Ġtako": 739,
      "Ġdoda": 740,
      "Ġprimjenju": 741,
      "Ġus": 742,
      "joj": 743,
      "Ġai": 744,
      "kon": 745,
      "Ġgodi": 746,
      "Ġtrgova": 747,
      "Ġnadle": 748,
      "Ġot": 749,
      "kt": 750,
      "ment": 751,
      "Ġrazlo": 752,
      "vaju": 753,
      "vanju": 754,
      "Ġbu": 755,
      "Ġpostupka": 756,
      "Ġsmi": 757,
      "cje": 758,
      "bija": 759,
      "Ġ31": 760,
      "hva": 761,
      "drza": 762,
      "Ġii": 763,
      "Ġsme": 764,
      "Ġslje": 765,
      "tim": 766,
      "pri": 767,
      "Ġ28": 768,
      "Ġukljucu": 769,
      "Ġpravo": 770,
      "Ġproved": 771,
      "Ġnjiho": 772,
      "ha": 773,
      "djeti": 774,
      "Ġobzir": 775,
      "nosi": 776,
      "kih": 777,
      "vlja": 778,
      "Ġsljede": 779,
      "Ġodo": 780,
      "cij": 781,
      "redni": 782,
      "Ġpore": 783,
      "ĠutvrÄĳe": 784,
      "Ġ90": 785,
      "Ġsli": 786,
      "Ġproizvoda": 787,
      "Ġmjere": 788,
      "Ġkojima": 789,
      "Ġru": 790,
      "Ġnakon": 791,
      "Ġ23": 792,
      "Ġtijela": 793,
      "Ġsuda": 794,
      "Ġ24": 795,
      "jom": 796,
      "slje": 797,
      "Ġvidjeti": 798,
      "nti": 799,
      "Ġ22": 800,
      "he": 801,
      "Ġfinancij": 802,
      "zne": 803,
      "Ġtaj": 804,
      "Ġfinanciranje": 805,
      "Ġpredmet": 806,
      "kup": 807,
      "Ġproizvod": 808,
      "stavlja": 809,
      "Ġuprav": 810,
      "pnja": 811,
      "Ġodgovo": 812,
      "Ġco": 813,
      "Ġairb": 814,
      "Ġnapredni": 815,
      "Ġpe": 816,
      "Ġis": 817,
      "Ġstoga": 818,
      "bje": 819,
      "dob": 820,
      "Ġvr": 821,
      "Ġsmislu": 822,
      "pre": 823,
      "tom": 824,
      "Ġx": 825,
      "Ġ2013": 826,
      "Ġizvo": 827,
      "Ġw": 828,
      "Ġizme": 829,
      "ĠizmeÄĳu": 830,
      "Ġstran": 831,
      "nima": 832,
      "Ġjed": 833,
      "Ġtrosko": 834,
      "Ġ27": 835,
      "Ġogra": 836,
      "Ġnace": 837,
      "govara": 838,
      "skim": 839,
      "Ġclanku": 840,
      "Ġdije": 841,
      "Ġso": 842,
      "Ġizda": 843,
      "Ġrazdob": 844,
      "Ġizra": 845,
      "bli": 846,
      "Ġova": 847,
      "Ġcor": 848,
      "Ġgra": 849,
      "Ġdio": 850,
      "pisa": 851,
      "Ġspecijalizirano": 852,
      "Ġtra": 853,
      "Ġpru": 854,
      "Ġoko": 855,
      "taka": 856,
      "Ġpresude": 857,
      "nese": 858,
      "Ġste": 859,
      "tic": 860,
      "Ġkoju": 861,
      "Ġneo": 862,
      "Ġprak": 863,
      "Ġobzirom": 864,
      "Ġstavkom": 865,
      "citi": 866,
      "Ġ199": 867,
      "Ġvalja": 868,
      "Ġpoduze": 869,
      "Ġposlo": 870,
      "Ġ2014": 871,
      "ciju": 872,
      "Ġobu": 873,
      "vodi": 874,
      "Ġdrugo": 875,
      "Ġla": 876,
      "Ġtrgovacka": 877,
      "Ġokviru": 878,
      "Ġkomisije": 879,
      "Ġparla": 880,
      "Ġtocke": 881,
      "Ġzbo": 882,
      "Ġrad": 883,
      "co": 884,
      "Ġuredba": 885,
      "Ġzbog": 886,
      "Ġtek": 887,
      "Ġkra": 888,
      "ktiv": 889,
      "Ġsluzbe": 890,
      "tor": 891,
      "Ġ2009": 892,
      "Ġkri": 893,
      "sni": 894,
      "Ġ*": 895,
      "nuta": 896,
      "Ġsna": 897,
      "Ġcorp": 898,
      "Ġodnosi": 899,
      "Ġct": 900,
      "Ġnacin": 901,
      "21": 902,
      "Ġbilo": 903,
      "Ġregi": 904,
      "vije": 905,
      "stitu": 906,
      "Ġzem": 907,
      "Ġvijece": 908,
      "Ġnadlez": 909,
      "bom": 910,
      "telja": 911,
      "Ġtoga": 912,
      "dom": 913,
      "Ġvise": 914,
      "Ġsred": 915,
      "lom": 916,
      "30": 917,
      "tno": 918,
      "Ġzahtjeva": 919,
      "Ġnjezi": 920,
      "pis": 921,
      "Ġtuma": 922,
      "Ġopce": 923,
      "Ġpotpo": 924,
      "van": 925,
      "laga": 926,
      "Ġjav": 927,
      "Ġtog": 928,
      "nd": 929,
      "Ġraspo": 930,
      "Ġpostupak": 931,
      "Ġsmec": 932,
      "Ġtak": 933,
      "Ġodgovara": 934,
      "Ġau": 935,
      "stru": 936,
      "telji": 937,
      "Ġdoka": 938,
      "stve": 939,
      "40": 940,
      "Ġstatusa": 941,
      "Ġosoba": 942,
      "Ġprotiv": 943,
      "Ġar": 944,
      "tio": 945,
      "ranja": 946,
      "Ġizvr": 947,
      "kna": 948,
      "Ġozna": 949,
      "vla": 950,
      "terija": 951,
      "stavi": 952,
      "Ġopci": 953,
      "Ġusluga": 954,
      "cuje": 955,
      "Ġukljucujuci": 956,
      "tima": 957,
      "Ġprosi": 958,
      "Ġmjera": 959,
      "Ġutvrdi": 960,
      "Ġzal": 961,
      "Ġinstitu": 962,
      "Ġprethod": 963,
      "ĠpredviÄĳe": 964,
      "Ġjedi": 965,
      "Ġostalo": 966,
      "Ġsadrza": 967,
      "skoj": 968,
      "Ġpobija": 969,
      "Ġradi": 970,
      "Ġor": 971,
      "Ġpostupku": 972,
      "nk": 973,
      "Ġeuropskog": 974,
      "Ġkojem": 975,
      "Ġpitanje": 976,
      "Ġprav": 977,
      "Ġodobre": 978,
      "Ġex": 979,
      "gur": 980,
      "kog": 981,
      "Ġmislje": 982,
      "tro": 983,
      "reme": 984,
      "Ġupot": 985,
      "Ġobja": 986,
      "vali": 987,
      "Ġkada": 988,
      "Ġsvoje": 989,
      "Ġsubje": 990,
      "Ġuzima": 991,
      "cne": 992,
      "Ġvezi": 993,
      "Ġ000": 994,
      "rt": 995,
      "Ġizvje": 996,
      "lima": 997,
      "Ġodluka": 998,
      "Ġodredbe": 999,
      "Ġproizlazi": 1000,
      "Ġkojoj": 1001,
      "Ġprimjenjuje": 1002,
      "Ġuni": 1003,
      "Ġpruza": 1004,
      "Ġove": 1005,
      "nca": 1006,
      "fika": 1007,
      "rane": 1008,
      "Ġpodataka": 1009,
      "Ġ2016": 1010,
      "laze": 1011,
      "Ġcr": 1012,
      "tjeca": 1013,
      "Ġgospo": 1014,
      "Ġposebno": 1015,
      "Ġglav": 1016,
      "Ġ2011": 1017,
      "Ġpoveza": 1018,
      "Ġuspo": 1019,
      "Ġizja": 1020,
      "Ġku": 1021,
      "al": 1022,
      "ven": 1023,
      "nj": 1024,
      "pada": 1025,
      "Ġtijekom": 1026,
      "cno": 1027,
      "dav": 1028,
      "pro": 1029,
      "Ġ2015": 1030,
      "stvu": 1031,
      "Ġtocka": 1032,
      "50": 1033,
      "Ġle": 1034,
      "Ġsigur": 1035,
      "Ġpravila": 1036,
      "Ġovom": 1037,
      "Ġ40": 1038,
      "Ġ2012": 1039,
      "Ġrazi": 1040,
      "ĠmeÄĳutim": 1041,
      "Ġzajednic": 1042,
      "ravi": 1043,
      "snje": 1044,
      "teri": 1045,
      "Ġisto": 1046,
      "Ġcinje": 1047,
      "Ġdjelo": 1048,
      "Ġusluge": 1049,
      "stri": 1050,
      "Ġostali": 1051,
      "Ġteh": 1052,
      "kri": 1053,
      "Ġgospodar": 1054,
      "Ġisklju": 1055,
      "Ġizmje": 1056,
      "Ġ39": 1057,
      "Ġzivo": 1058,
      "Ġpodrucju": 1059,
      "ner": 1060,
      "Ġtran": 1061,
      "niti": 1062,
      "Ġparlamenta": 1063,
      "rak": 1064,
      "Ġ010": 1065,
      "gla": 1066,
      "Ġdobi": 1067,
      "Ġnakna": 1068,
      "Ġprogra": 1069,
      "lnosti": 1070,
      "Ġupravlja": 1071,
      "feu": 1072,
      "Ġucin": 1073,
      "Ġhr": 1074,
      "Ġufeu": 1075,
      "Ġdopu": 1076,
      "Ġ2006": 1077,
      "Ġbroj": 1078,
      "Ġposeb": 1079,
      "Ġ01": 1080,
      "Ġstavku": 1081,
      "cuna": 1082,
      "Äĳuje": 1083,
      "Ġ2017": 1084,
      "Ġtocki": 1085,
      "voj": 1086,
      "Ġtih": 1087,
      "Ġtim": 1088,
      "Ġocje": 1089,
      "Ġnjego": 1090,
      "Ġcari": 1091,
      "vine": 1092,
      "Ġ2008": 1093,
      "Ġprovedbe": 1094,
      "Ġmu": 1095,
      "Ġodluku": 1096,
      "tije": 1097,
      "Ġdoku": 1098,
      "Ġobuhva": 1099,
      "hi": 1100,
      "Ġstano": 1101,
      "Ġpoglav": 1102,
      "bra": 1103,
      "Ġogranice": 1104,
      "Ġzakono": 1105,
      "nutar": 1106,
      "Ġunutar": 1107,
      "Ġovla": 1108,
      "Ġ2018": 1109,
      "Ġdjela": 1110,
      "Ġmaterija": 1111,
      "Ġ32": 1112,
      "rna": 1113,
      "Ġvozi": 1114,
      "mogu": 1115,
      "Ġugovora": 1116,
      "Ġfu": 1117,
      "nira": 1118,
      "vih": 1119,
      "Ġtri": 1120,
      "mijenje": 1121,
      "Ġstranke": 1122,
      "Ġodluci": 1123,
      "lovi": 1124,
      "Ġzaklju": 1125,
      "Ġelekt": 1126,
      "ktu": 1127,
      "Ġovog": 1128,
      "Ġpoli": 1129,
      "Ġsporazuma": 1130,
      "Ġstanovni": 1131,
      "Ġtvr": 1132,
      "Ġispiti": 1133,
      "Ġuputio": 1134,
      "Ġosobi": 1135,
      "Ġveli": 1136,
      "Ġrepu": 1137,
      "cim": 1138,
      "vlje": 1139,
      "Ġprosinca": 1140,
      "lne": 1141,
      "rod": 1142,
      "Ġobveze": 1143,
      "Ġtuzbe": 1144,
      "Ġ38": 1145,
      "Ġnepo": 1146,
      "Ġdana": 1147,
      "Ġprijevo": 1148,
      "Ġpotvr": 1149,
      "Ġzahtije": 1150,
      "gen": 1151,
      "Ġtijelo": 1152,
      "Ġprimjene": 1153,
      "Ġzra": 1154,
      "Ġbio": 1155,
      "mena": 1156,
      "Ġproizvodi": 1157,
      "Ġad": 1158,
      "zni": 1159,
      "Ġtuzitelj": 1160,
      "naka": 1161,
      "Ġ34": 1162,
      "Ġorga": 1163,
      "Ġ0106": 1164,
      "Ġinformacije": 1165,
      "Ġ>": 1166,
      "Ġbudu": 1167,
      "cke": 1168,
      "riti": 1169,
      "ljo": 1170,
      "Äĳer": 1171,
      "ĠtakoÄĳer": 1172,
      "cenje": 1173,
      "ksi": 1174,
      "Ġ2004": 1175,
      "Ġsustava": 1176,
      "Ġ37": 1177,
      "ĠâĢľ": 1178,
      "Ġodnose": 1179,
      "Ġpresuda": 1180,
      "Ġprilog": 1181,
      "Ġodbo": 1182,
      "Ġki": 1183,
      "stavlje": 1184,
      "Ġ36": 1185,
      "vina": 1186,
      "Ġali": 1187,
      "Ġstanovnistvo": 1188,
      "Ġnu": 1189,
      "ciji": 1190,
      "Ġosnovni": 1191,
      "Ġstva": 1192,
      "Ġ33": 1193,
      "niza": 1194,
      "Ġsvr": 1195,
      "Ġindu": 1196,
      "Ġgla": 1197,
      "Ġsr": 1198,
      "Ġ35": 1199,
      "86": 1200,
      "ĠproizvoÄĳa": 1201,
      "Ġzalbe": 1202,
      "Ġaktiv": 1203,
      "Ġga": 1204,
      "Ġplaca": 1205,
      "noga": 1206,
      "rati": 1207,
      "Ġsustav": 1208,
      "Ġ100": 1209,
      "Ġosobe": 1210,
      "Ġener": 1211,
      "Ġzivoti": 1212,
      "tka": 1213,
      "Ġpostupa": 1214,
      "dio": 1215,
      "Ġdatu": 1216,
      "Ġpriloga": 1217,
      "zno": 1218,
      "Ġosob": 1219,
      "Ġee": 1220,
      "nte": 1221,
      "Ġjezi": 1222,
      "rzi": 1223,
      "Ġure": 1224,
      "Ġuredbom": 1225,
      "Ġproda": 1226,
      "Ġpresudu": 1227,
      "Ġodbi": 1228,
      "Ġrijec": 1229,
      "Ġuzimajuci": 1230,
      "Ġrepubli": 1231,
      "11": 1232,
      "nuti": 1233,
      "Ġrele": 1234,
      "Ġupora": 1235,
      "nske": 1236,
      "Ġomogu": 1237,
      "tku": 1238,
      "Ġlo": 1239,
      "Ġpotrebno": 1240,
      "Ġ2019": 1241,
      "Ġlu": 1242,
      "Ġisti": 1243,
      "Ġana": 1244,
      "Ġzapo": 1245,
      "ty": 1246,
      "tak": 1247,
      "Ġfirb": 1248,
      "Ġvrijednosti": 1249,
      "Ġsk": 1250,
      "Ġobli": 1251,
      "Ġprovje": 1252,
      "Ġope": 1253,
      "Ġpojedi": 1254,
      "Ġpomo": 1255,
      "Ġdefi": 1256,
      "Ġnavedene": 1257,
      "Ġizvjes": 1258,
      "hu": 1259,
      "lije": 1260,
      "qu": 1261,
      "nosa": 1262,
      "Ġzajednice": 1263,
      "Ġpotro": 1264,
      "Ġuskla": 1265,
      "Ġuredbi": 1266,
      "rijet": 1267,
      "Ġgu": 1268,
      "Ġkvali": 1269,
      "Ġkontro": 1270,
      "Ġpodrijet": 1271,
      "Ġho": 1272,
      "Ġpoja": 1273,
      "kto": 1274,
      "cio": 1275,
      "Ġupotre": 1276,
      "tnog": 1277,
      "kovi": 1278,
      "jna": 1279,
      "Ġtemelji": 1280,
      "Ġmoguc": 1281,
      "Ġjer": 1282,
      "ĠmeÄĳuna": 1283,
      "Ġvrijednost": 1284,
      "Ġ60": 1285,
      "vesti": 1286,
      "Ġosobito": 1287,
      "Ġpotreb": 1288,
      "Ġizrav": 1289,
      "Ġzakonodav": 1290,
      "Ġ2003": 1291,
      "er": 1292,
      "Ġ02": 1293,
      "Ġodgovor": 1294,
      "áĥ": 1295,
      "Ġ2010": 1296,
      "Ġ84": 1297,
      "Ġ41": 1298,
      "Ġdirektiva": 1299,
      "Ġhi": 1300,
      "Ġobavije": 1301,
      "Ġdrustvo": 1302,
      "dan": 1303,
      "Ġrazlici": 1304,
      "Ġprvo": 1305,
      "tnih": 1306,
      "kim": 1307,
      "zor": 1308,
      "Ġmoraju": 1309,
      "Ġdrustava": 1310,
      "mbe": 1311,
      "Ġcc": 1312,
      "jka": 1313,
      "Ġtari": 1314,
      "90": 1315,
      "Ġtrgo": 1316,
      "Ġdrzav": 1317,
      "Ġista": 1318,
      "ĠâĢĻ": 1319,
      "ar": 1320,
      "nio": 1321,
      "Ġlipnja": 1322,
      "Ġsrpnja": 1323,
      "Ġlisto": 1324,
      "Ġdovo": 1325,
      "Ġge": 1326,
      "Ġcilje": 1327,
      "Äĳivanje": 1328,
      "Ġneza": 1329,
      "tnosti": 1330,
      "Ġ2020": 1331,
      "Ġdr": 1332,
      "cen": 1333,
      "Ġdrzavi": 1334,
      "Ġstupa": 1335,
      "Ġkoriste": 1336,
      "Ġintere": 1337,
      "Ġostva": 1338,
      "vant": 1339,
      "Ġ42": 1340,
      "Ġtehnic": 1341,
      "Ġprizna": 1342,
      "Ġtrece": 1343,
      "Ġpozi": 1344,
      "Ġ44": 1345,
      "Ġobavlja": 1346,
      "Ġtome": 1347,
      "Ġime": 1348,
      "nama": 1349,
      "Ġ85": 1350,
      "Ġkazne": 1351,
      "Ġkom": 1352,
      "Ġodnosu": 1353,
      "Ġnapo": 1354,
      "rani": 1355,
      "Ġinformacija": 1356,
      "break": 1357,
      "cito": 1358,
      "vreme": 1359,
      "Ġopera": 1360,
      "lno": 1361,
      "rava": 1362,
      "Ġodje": 1363,
      "dije": 1364,
      "Ġof": 1365,
      "stupa": 1366,
      "Ġrelevant": 1367,
      "nta": 1368,
      "Ġvozila": 1369,
      "80": 1370,
      "Ġkad": 1371,
      "Ġokolnosti": 1372,
      "Ġukup": 1373,
      "Ġ2007": 1374,
      "Ġugovor": 1375,
      "Ġtva": 1376,
      "Ġ54": 1377,
      "Ġbila": 1378,
      "Ġpredmetu": 1379,
      "Ġimo": 1380,
      "Ġizvan": 1381,
      "jedinje": 1382,
      "sak": 1383,
      "rima": 1384,
      "Ġsura": 1385,
      "nde": 1386,
      "Ġcilj": 1387,
      "Ġdalj": 1388,
      "Ġdonose": 1389,
      "Ġfinanciranjec": 1390,
      "Ġnasta": 1391,
      "uze": 1392,
      "Ġ+": 1393,
      "Ġkomisiji": 1394,
      "Ġfran": 1395,
      "Ġ45": 1396,
      "Ġozu": 1397,
      "titi": 1398,
      "tna": 1399,
      "cih": 1400,
      "Ġpitanja": 1401,
      "nova": 1402,
      "Ġ99": 1403,
      "Ġes": 1404,
      "lozi": 1405,
      "kta": 1406,
      "Ġrazdoblja": 1407,
      "Ġulaga": 1408,
      "Ġtuz": 1409,
      "tke": 1410,
      "janje": 1411,
      "Ġ43": 1412,
      "Äĳivanja": 1413,
      "Ġstavlja": 1414,
      "tion": 1415,
      "Ġfunk": 1416,
      "Ġdocu": 1417,
      "Ġsvoj": 1418,
      "vjetni": 1419,
      "Ġpovre": 1420,
      "Ġozujka": 1421,
      "log": 1422,
      "Ġrazli": 1423,
      "Ġstude": 1424,
      "94": 1425,
      "Ġrazloga": 1426,
      "Ġon": 1427,
      "60": 1428,
      "lni": 1429,
      "Ġrje": 1430,
      "Ġvje": 1431,
      "Ġ52": 1432,
      "Ġprocje": 1433,
      "Ġistak": 1434,
      "ndar": 1435,
      "njima": 1436,
      "Ġuzo": 1437,
      "Ġtekstu": 1438,
      "vim": 1439,
      "jska": 1440,
      "Ġsvoji": 1441,
      "Ġistra": 1442,
      "Ġeez": 1443,
      "Ġprimjenjuju": 1444,
      "Ġodredba": 1445,
      "000": 1446,
      "Ġprijed": 1447,
      "Ġpropi": 1448,
      "Ġ2001": 1449,
      "Ġtarif": 1450,
      "Ġpoglavlje": 1451,
      "Ġkralje": 1452,
      "loga": 1453,
      "Ġ47": 1454,
      "Ġzastite": 1455,
      "Ġkojim": 1456,
      "Ġzapos": 1457,
      "blja": 1458,
      "Ġfor": 1459,
      "juce": 1460,
      "Ġzahtijeva": 1461,
      "Ġiznos": 1462,
      "Ġispu": 1463,
      "Ġ49": 1464,
      "Ġprija": 1465,
      "Ġspa": 1466,
      "Ġdrzavama": 1467,
      "Ġone": 1468,
      "Ġkoristi": 1469,
      "Ġmeto": 1470,
      "Ġlistopada": 1471,
      "nska": 1472,
      "lta": 1473,
      "cena": 1474,
      "rent": 1475,
      "Ġargu": 1476,
      "Ġj": 1477,
      "matra": 1478,
      "Ġorganiza": 1479,
      "Ġbuduci": 1480,
      "Ġ46": 1481,
      "tego": 1482,
      "rti": 1483,
      "Ġzd": 1484,
      "Ġsmje": 1485,
      "fici": 1486,
      "Ġjedne": 1487,
      "Ġkg": 1488,
      "Ġdocument": 1489,
      "Ġposlje": 1490,
      "Ġ05": 1491,
      "Ġjedna": 1492,
      "Ġ51": 1493,
      "Ġkriteri": 1494,
      "Ġpredstavlja": 1495,
      "Ġdotic": 1496,
      "Ġsudje": 1497,
      "slo": 1498,
      "Ġ48": 1499,
      "sje": 1500,
      "Ġpobijane": 1501,
      "Ġ55": 1502,
      "cenja": 1503,
      "en": 1504,
      "Ġsudu": 1505,
      "Ġ57": 1506,
      "pita": 1507,
      "kretni": 1508,
      "cni": 1509,
      "Ġnjema": 1510,
      "Ġpodnosi": 1511,
      "denti": 1512,
      "Ġospo": 1513,
      "Ġstudenoga": 1514,
      "Ġsljedece": 1515,
      "Ġsijec": 1516,
      "Ġnavodi": 1517,
      "Ġpodrucje": 1518,
      "Ġopceg": 1519,
      "priv": 1520,
      "ljopriv": 1521,
      "Ġobvezu": 1522,
      "Ġnedo": 1523,
      "Ġodnosno": 1524,
      "Ġiii": 1525,
      "Ġtrav": 1526,
      "Ġ80": 1527,
      "Ġobi": 1528,
      "Ġtroskova": 1529,
      "Ġprilogu": 1530,
      "Ġpoljopriv": 1531,
      "Ġprome": 1532,
      "Ġaktivnosti": 1533,
      "Ġrujna": 1534,
      "Äĳuju": 1535,
      "Ġdocumentbreak": 1536,
      "Ġuzorak": 1537,
      "sc": 1538,
      "Ġkatego": 1539,
      "Ġsijecnja": 1540,
      "Ġodvjetni": 1541,
      "Ġtrebalo": 1542,
      "Ġvec": 1543,
      "Ġpodnese": 1544,
      "Ġ53": 1545,
      "Ġzdrav": 1546,
      "Ġopo": 1547,
      "Ġtravnja": 1548,
      "Ġzastitu": 1549,
      "Ġpogre": 1550,
      "kata": 1551,
      "Ġnai": 1552,
      "gije": 1553,
      "Ġsvje": 1554,
      "nski": 1555,
      "Ġsnagu": 1556,
      "tua": 1557,
      "ĠmeÄĳunarod": 1558,
      "Ġprivreme": 1559,
      "Ġznaci": 1560,
      "22": 1561,
      "Ġvrije": 1562,
      "Ġona": 1563,
      "Ġimaju": 1564,
      "snog": 1565,
      "Ġinstru": 1566,
      "Ġ2002": 1567,
      "Ġzamje": 1568,
      "mini": 1569,
      "nstve": 1570,
      "Ġneovi": 1571,
      "Ġpokre": 1572,
      "Ġ70": 1573,
      "Ġ0086": 1574,
      "ts": 1575,
      "gle": 1576,
      "Ġkojom": 1577,
      "nov": 1578,
      "Ġdrugim": 1579,
      "nito": 1580,
      "Ġnaime": 1581,
      "Ġclanicama": 1582,
      "Ġnavo": 1583,
      "Ġauto": 1584,
      "Ġclanici": 1585,
      "Ġsitua": 1586,
      "Ġuze": 1587,
      "canje": 1588,
      "ravda": 1589,
      "Ġsvib": 1590,
      "Ġpromje": 1591,
      "Ġnema": 1592,
      "caj": 1593,
      "Ġfa": 1594,
      "Ġucinkovi": 1595,
      "Ġuvod": 1596,
      "Ġutjeca": 1597,
      "Ġpropisa": 1598,
      "Ġmoguce": 1599,
      "rni": 1600,
      "Ġdrugih": 1601,
      "vca": 1602,
      "Ġponi": 1603,
      "Ġslobodno": 1604,
      "manje": 1605,
      "Ġsvibnja": 1606,
      "Ġinstitucije": 1607,
      "Ġ87": 1608,
      "Ġrobe": 1609,
      "Ġ2005": 1610,
      "njuje": 1611,
      "Ġ59": 1612,
      "Ġpodrucja": 1613,
      "Ġmil": 1614,
      "31": 1615,
      "Ġnacela": 1616,
      "Ġpostoje": 1617,
      "Ġdodje": 1618,
      "Ġ91": 1619,
      "el": 1620,
      "Ġsku": 1621,
      "Ġsurad": 1622,
      "Ġmjese": 1623,
      "cnih": 1624,
      "Ġpd": 1625,
      "pr": 1626,
      "Ġgodine": 1627,
      "cene": 1628,
      "rno": 1629,
      "financi": 1630,
      "lnih": 1631,
      "Ġ2021": 1632,
      "Ġpotrebe": 1633,
      "Ġagen": 1634,
      "Ġanali": 1635,
      "som": 1636,
      "Ġrazmatra": 1637,
      "Ġkoris": 1638,
      "Ġobraz": 1639,
      "Ġ95": 1640,
      "Ġpotrosa": 1641,
      "Ġvlasti": 1642,
      "Ġdva": 1643,
      "ren": 1644,
      "Ġduz": 1645,
      "Ġtumaciti": 1646,
      "Ġzo": 1647,
      "Ġia": 1648,
      "Ġdonije": 1649,
      "Ġnadzor": 1650,
      "Ġ61": 1651,
      "Ġprethodno": 1652,
      "Ġinter": 1653,
      "menti": 1654,
      "Ġnekretni": 1655,
      "Ġpoliti": 1656,
      "Ġsredi": 1657,
      "Ġrazlog": 1658,
      "cijama": 1659,
      "Ġproizvode": 1660,
      "Ġuo": 1661,
      "Ġpoduzetni": 1662,
      "zivanja": 1663,
      "Ġ56": 1664,
      "cional": 1665,
      "Ġnego": 1666,
      "Ġdrzavlja": 1667,
      "rs": 1668,
      "Ġsukla": 1669,
      "Ġutvrditi": 1670,
      "Ġim": 1671,
      "Ġnovca": 1672,
      "Ġnazi": 1673,
      "Ġsvih": 1674,
      "ceni": 1675,
      "vat": 1676,
      "menata": 1677,
      "vanjem": 1678,
      "Ġkona": 1679,
      "Ġvelikih": 1680,
      "Ġrevi": 1681,
      "Ġrezu": 1682,
      "Ġtvari": 1683,
      "lnog": 1684,
      "an": 1685,
      "Ġidenti": 1686,
      "Ġ58": 1687,
      "Ġsmatrati": 1688,
      "Ġke": 1689,
      "Ġsekto": 1690,
      "Ġudje": 1691,
      "Ġopravda": 1692,
      "Ġindust": 1693,
      "Ġdonese": 1694,
      "Ġslijedi": 1695,
      "Ġdaljnjem": 1696,
      "ĠpredviÄĳa": 1697,
      "Ġuvoz": 1698,
      "Ġracu": 1699,
      "Ġelektro": 1700,
      "Ġplovi": 1701,
      "Ġkolici": 1702,
      "Ġnatjeca": 1703,
      "Ġpdv": 1704,
      "Ġiako": 1705,
      "Ġkapita": 1706,
      "lova": 1707,
      "Ġrefe": 1708,
      "Ġ65": 1709,
      "Ġnavedeno": 1710,
      "sjed": 1711,
      "Ġju": 1712,
      "Ġvelja": 1713,
      "Ġ96": 1714,
      "Ġlc": 1715,
      "Ġsvrhu": 1716,
      "Ġprihva": 1717,
      "bro": 1718,
      "Ġpodnije": 1719,
      "Ġpostoji": 1720,
      "ljno": 1721,
      "Ġstandar": 1722,
      "stoj": 1723,
      "ĠÐ": 1724,
      "Ġdjelatnosti": 1725,
      "Ġrazdoblje": 1726,
      "Ġpotpore": 1727,
      "Ġjam": 1728,
      "Ġiskljuci": 1729,
      "Ġuvjetima": 1730,
      "Ġy": 1731,
      "Ġveljace": 1732,
      "Ġodrza": 1733,
      "nskih": 1734,
      "Ġujedinje": 1735,
      "Ġkriteriji": 1736,
      "Ġfo": 1737,
      "Ġobavijesti": 1738,
      "Ġpotpu": 1739,
      "Ġsvim": 1740,
      "Ġodredi": 1741,
      "Ġdokaza": 1742,
      "Ġpopu": 1743,
      "Ġporez": 1744,
      "Ġnamje": 1745,
      "Ġ64": 1746,
      "Ġsmanje": 1747,
      "Äĳenja": 1748,
      "Ġ71": 1749,
      "Ġ93": 1750,
      "Ġvece": 1751,
      "sne": 1752,
      "Ġen": 1753,
      "Ġpojedina": 1754,
      "Ġrezulta": 1755,
      "Ġpreko": 1756,
      "Ġug": 1757,
      "lago": 1758,
      "Ġocito": 1759,
      "zak": 1760,
      "Ġban": 1761,
      "Ġnefinanci": 1762,
      "Ġcijene": 1763,
      "Ġzemlje": 1764,
      "Ġpodaci": 1765,
      "Ġmre": 1766,
      "Ġmaterijala": 1767,
      "Ġsluzbeni": 1768,
      "Ġstranka": 1769,
      "Ġprigovo": 1770,
      "Ġproto": 1771,
      "Ġfinanciranja": 1772,
      "ĠÎ": 1773,
      "Ġnavedena": 1774,
      "Ġskupi": 1775,
      "Ġispunja": 1776,
      "senje": 1777,
      "Ġdopri": 1778,
      "Ġ07": 1779,
      "Ġthe": 1780,
      "Ġtransak": 1781,
      "tvo": 1782,
      "Ġfrancu": 1783,
      "Ġtrziste": 1784,
      "Ġdodije": 1785,
      "Ġpli": 1786,
      "Ġtemelj": 1787,
      "Ġtice": 1788,
      "Ġprima": 1789,
      "mina": 1790,
      "Ġtvrdi": 1791,
      "Ġiste": 1792,
      "reta": 1793,
      "Ġsigurnosti": 1794,
      "Ġlije": 1795,
      "Ġpoce": 1796,
      "tek": 1797,
      "zem": 1798,
      "Ġgodina": 1799,
      "Ġposljedi": 1800,
      "Ġdopuste": 1801,
      "Ġ92": 1802,
      "Ġobje": 1803,
      "Ġvrsta": 1804,
      "nosenje": 1805,
      "Ġsocija": 1806,
      "ziti": 1807,
      "telje": 1808,
      "jam": 1809,
      "Ġrasp": 1810,
      "Ġkojeg": 1811,
      "mijeniti": 1812,
      "fo": 1813,
      "Ġizravno": 1814,
      "Ġizvoz": 1815,
      "Ġ63": 1816,
      "mpi": 1817,
      "kova": 1818,
      "Ġglavnom": 1819,
      "por": 1820,
      "zvo": 1821,
      "Ġ67": 1822,
      "lija": 1823,
      "Ġkla": 1824,
      "Ġtrzistu": 1825,
      "Ġprilago": 1826,
      "Äĳivanju": 1827,
      "redo": 1828,
      "Ġokoli": 1829,
      "Ġprijevoz": 1830,
      "nskog": 1831,
      "Ġprethodnu": 1832,
      "mente": 1833,
      "Ġcom": 1834,
      "Ġnefinancijska": 1835,
      "Ġih": 1836,
      "Ġzakona": 1837,
      "Ġ62": 1838,
      "cna": 1839,
      "Ġregu": 1840,
      "Ġbroja": 1841,
      "Ġ?": 1842,
      "Ġbru": 1843,
      "cki": 1844,
      "Äĳenje": 1845,
      "Ġ75": 1846,
      "cnog": 1847,
      "Ġ88": 1848,
      "Ġit": 1849,
      "dbe": 1850,
      "Ġemisi": 1851,
      "lna": 1852,
      "spe": 1853,
      "bri": 1854,
      "Ġzali": 1855,
      "Ġproje": 1856,
      "Ġ98": 1857,
      "ministra": 1858,
      "Ġtoj": 1859,
      "kra": 1860,
      "Ġstru": 1861,
      "Ġprograma": 1862,
      "Ġdozvo": 1863,
      "Ġfon": 1864,
      "Ġnor": 1865,
      "Ġoznaka": 1866,
      "Ġrazini": 1867,
      "koj": 1868,
      "Ġ2000": 1869,
      "Ġostalim": 1870,
      "Ġzahtjevi": 1871,
      "Ġlist": 1872,
      "Ġpovr": 1873,
      "ĠâĢļ": 1874,
      "Ġslucaje": 1875,
      "Ġha": 1876,
      "Ġpredsjed": 1877,
      "blje": 1878,
      "Ġsporazum": 1879,
      "roje": 1880,
      "Ġlju": 1881,
      "Ġvrijeme": 1882,
      "Ġsavje": 1883,
      "Ġ08": 1884,
      "Ġeg": 1885,
      "Ġelektri": 1886,
      "Ġizuze": 1887,
      "Ġdatum": 1888,
      "senja": 1889,
      "Ġ73": 1890,
      "Ġprili": 1891,
      "fa": 1892,
      "Ġpoka": 1893,
      "Ġzaposle": 1894,
      "tri": 1895,
      "um": 1896,
      "rana": 1897,
      "nicu": 1898,
      "Ġnajmanje": 1899,
      "Ġadministra": 1900,
      "Ġsredstva": 1901,
      "njo": 1902,
      "Ġmogucnost": 1903,
      "nicama": 1904,
      "Ġ72": 1905,
      "Ġponu": 1906,
      "Ġosigurane": 1907,
      "lov": 1908,
      "Ġspre": 1909,
      "Ġspeci": 1910,
      "Ġpoci": 1911,
      "Ġpretpo": 1912,
      "tnom": 1913,
      "Ġposti": 1914,
      "Ġpoljoprivred": 1915,
      "rave": 1916,
      "Ġispita": 1917,
      "Ġuniji": 1918,
      "Ġvjero": 1919,
      "Ġjo": 1920,
      "15": 1921,
      "Ġtrzista": 1922,
      "Ġupotreblja": 1923,
      "dalje": 1924,
      "Ġobliku": 1925,
      "janja": 1926,
      "ĠusklaÄĳe": 1927,
      "nicima": 1928,
      "Ġusta": 1929,
      "spi": 1930,
      "Ġrizika": 1931,
      "Ġsredstava": 1932,
      "tih": 1933,
      "qui": 1934,
      "Ġposlov": 1935,
      "Ġprovo": 1936,
      "Ġpodatke": 1937,
      "Ġ66": 1938,
      "ĠodreÄĳene": 1939,
      "tlji": 1940,
      "Ġobrazloze": 1941,
      "mom": 1942,
      "Ġdostavi": 1943,
      "es": 1944,
      "zbi": 1945,
      "caje": 1946,
      "Ġkojih": 1947,
      "Ġzatra": 1948,
      "Ġpravne": 1949,
      "diti": 1950,
      "Ġvrste": 1951,
      "Ġtakvi": 1952,
      "Ġtockom": 1953,
      "Ġpoduzeca": 1954,
      "Ġispitivanja": 1955,
      "Ġstete": 1956,
      "Ġpopis": 1957,
      "Ġpodrijetla": 1958,
      "Ġcini": 1959,
      "tora": 1960,
      "Ġsnage": 1961,
      "Ġsvojim": 1962,
      "Ġmase": 1963,
      "Ġsmer": 1964,
      "vencije": 1965,
      "Ġiznosa": 1966,
      "Ġdostup": 1967,
      "Ġtocku": 1968,
      "Ġodlukom": 1969,
      "Ġsasto": 1970,
      "Ġovaj": 1971,
      "Ġuredbu": 1972,
      "Ġakti": 1973,
      "Ġeuropska": 1974,
      "Ġuvjeti": 1975,
      "Ġoda": 1976,
      "Ġprodu": 1977,
      "kle": 1978,
      "Ġprovodi": 1979,
      "Ġ101": 1980,
      "Ġodredbama": 1981,
      "Ġizracuna": 1982,
      "Ġprvi": 1983,
      "Ġsudjelo": 1984,
      "Ġ74": 1985,
      "Ġnadzo": 1986,
      "Ġrepublika": 1987,
      "ksa": 1988,
      "Ġzahtjeve": 1989,
      "Ġpodsje": 1990,
      "Ġkr": 1991,
      "Ġplacanja": 1992,
      "Ġ94": 1993,
      "Ġlt": 1994,
      "Ġovlasti": 1995,
      "Ġhrvat": 1996,
      "Ġuvjete": 1997,
      "Ġsad": 1998,
      "Ġcon": 1999,
      "Ġ68": 2000,
      "Ġand": 2001,
      "Ġkrediti": 2002,
      "cuju": 2003,
      "Ġvode": 2004,
      "Ġak": 2005,
      "tan": 2006,
      "Ġmjeri": 2007,
      "Ġogranicenja": 2008,
      "Ġosnova": 2009,
      "Ġ97": 2010,
      "legi": 2011,
      "teta": 2012,
      "Ġmog": 2013,
      "sci": 2014,
      "Ġcijena": 2015,
      "Ġcu": 2016,
      "Ġgru": 2017,
      "Ġviso": 2018,
      "Ġ83": 2019,
      "Ġpristoj": 2020,
      "Ġstranaka": 2021,
      "Ġnavedenog": 2022,
      "Ġkontek": 2023,
      "Ġostale": 2024,
      "Ġodgovarajuci": 2025,
      "stan": 2026,
      "stenje": 2027,
      "Ġrazmje": 2028,
      "Ġpoveca": 2029,
      "Ġsje": 2030,
      "ljena": 2031,
      "Ġpovje": 2032,
      "Ġnavedenih": 2033,
      "ckih": 2034,
      "suje": 2035,
      "Ġnika": 2036,
      "Ġ69": 2037,
      "Ġribo": 2038,
      "Ġkonkre": 2039,
      "Ġpovrede": 2040,
      "Ġjeziku": 2041,
      "Ġ78": 2042,
      "Ġeko": 2043,
      "Ġizvrsa": 2044,
      "Ġodbija": 2045,
      "Ġtuzbeni": 2046,
      "Ġdirektivom": 2047,
      "ĠÂ": 2048,
      "Ġizmijenje": 2049,
      "Ġdruga": 2050,
      "Ġelektronic": 2051,
      "Ġtime": 2052,
      "Ġpristupa": 2053,
      "man": 2054,
      "Ġtuzitelji": 2055,
      "Ġtockama": 2056,
      "liko": 2057,
      "Ġ79": 2058,
      "Ġjedinstve": 2059,
      "Ġcijelo": 2060,
      "Ġponov": 2061,
      "Ġregula": 2062,
      "Ġnamijenje": 2063,
      "Ġulaganja": 2064,
      "Ġnaslo": 2065,
      "Ġdijelu": 2066,
      "Ġpravom": 2067,
      "rska": 2068,
      "Ġroku": 2069,
      "Ġprepo": 2070,
      "bicaje": 2071,
      "tem": 2072,
      "tnim": 2073,
      "gom": 2074,
      "Ġ09": 2075,
      "Ġsp": 2076,
      "Ġucinkovito": 2077,
      "Ġobvez": 2078,
      "Ġprimjenu": 2079,
      "Ġprotoko": 2080,
      "Ġznacaj": 2081,
      "Ġhe": 2082,
      "Ġzema": 2083,
      "uzima": 2084,
      "Ġsklo": 2085,
      "Ġ77": 2086,
      "Ġneovisno": 2087,
      "Ġeura": 2088,
      "Ġgubi": 2089,
      "Ġnavedeni": 2090,
      "logi": 2091,
      "Ġmisljenju": 2092,
      "Ġvlada": 2093,
      "12": 2094,
      "Ġsastav": 2095,
      "Ġspanjo": 2096,
      "Ġspanjol": 2097,
      "dru": 2098,
      "Ġokolnostima": 2099,
      "Ġistaknu": 2100,
      "jem": 2101,
      "ten": 2102,
      "Ġpovra": 2103,
      "ljene": 2104,
      "Ġ76": 2105,
      "Ġ0094": 2106,
      "Ġopre": 2107,
      "Ġnacionalni": 2108,
      "late": 2109,
      "zan": 2110,
      "Ġzadrza": 2111,
      "Ġtroskove": 2112,
      "in": 2113,
      "nata": 2114,
      "Ġdrugog": 2115,
      "Ġinstitucija": 2116,
      "Ġmm": 2117,
      "Ġsiro": 2118,
      "Ġmini": 2119,
      "Ġvlasni": 2120,
      "Ġuobicaje": 2121,
      "Î±": 2122,
      "Ġfizi": 2123,
      "zivanje": 2124,
      "Ġpotrebi": 2125,
      "Ġraspore": 2126,
      "Ġtumacenje": 2127,
      "Ġodbora": 2128,
      "ĠgraÄĳa": 2129,
      "Ġdefini": 2130,
      "Ġnave": 2131,
      "Ġregistra": 2132,
      "Ġsljedecim": 2133,
      "Ġpotpora": 2134,
      "Ġuvjeta": 2135,
      "Ġodbor": 2136,
      "Ġtroskovi": 2137,
      "klo": 2138,
      "Ġsavjeto": 2139,
      "rnog": 2140,
      "Ġjedan": 2141,
      "Ġpisa": 2142,
      "Ġtakve": 2143,
      "loza": 2144,
      "Ġprosto": 2145,
      "Ġzastup": 2146,
      "Ġkvalite": 2147,
      "ĠproizvoÄĳaca": 2148,
      "Ġnjegova": 2149,
      "kav": 2150,
      "Ġrepublike": 2151,
      "vosti": 2152,
      "Ġcetvr": 2153,
      "Ġizjava": 2154,
      "Ġzivotinja": 2155,
      "tori": 2156,
      "Ġpoput": 2157,
      "Ġodgovarajuce": 2158,
      "Ġmeha": 2159,
      "Ġenergije": 2160,
      "Ġprilikom": 2161,
      "ljez": 2162,
      "Ġprvog": 2163,
      "07": 2164,
      "snja": 2165,
      "Ġ86": 2166,
      "il": 2167,
      "Ġizbje": 2168,
      "Ġmisljenja": 2169,
      "99": 2170,
      "Ġmar": 2171,
      "til": 2172,
      "Ġpravni": 2173,
      "Ġfinancijske": 2174,
      "rske": 2175,
      "Ġputem": 2176,
      "Ġpripre": 2177,
      "Ġprora": 2178,
      "Ġodobrenja": 2179,
      "Ġsupro": 2180,
      "Ġzab": 2181,
      "prav": 2182,
      "Ġupotrije": 2183,
      "Ġobuhvaca": 2184,
      "stvima": 2185,
      "les": 2186,
      "ur": 2187,
      "njim": 2188,
      "Ġnacelo": 2189,
      "pra": 2190,
      "13": 2191,
      "Ġsvakom": 2192,
      "Ġtele": 2193,
      "cy": 2194,
      "Ġpraksa": 2195,
      "Î¿": 2196,
      "Ġnacionalnim": 2197,
      "Ġdan": 2198,
      "Ġsudsku": 2199,
      "Ġrada": 2200,
      "Ġpogo": 2201,
      "Ð°": 2202,
      "Ġporeza": 2203,
      "Ġnalazi": 2204,
      "ter": 2205,
      "24": 2206,
      "Ġvanj": 2207,
      "Ġposta": 2208,
      "93": 2209,
      "Ġnavedenu": 2210,
      "Ġkomu": 2211,
      "us": 2212,
      "Ġula": 2213,
      "Ġosiguranja": 2214,
      "Ġracuna": 2215,
      "Ġtrgovi": 2216,
      "Ġreferent": 2217,
      "Ġproizvodnje": 2218,
      "Ġ198": 2219,
      "Ġuzeti": 2220,
      "Ġizmjeni": 2221,
      "Ġcinjenica": 2222,
      "Ġsudom": 2223,
      "vac": 2224,
      "Ġtrenu": 2225,
      "Ġrazvoj": 2226,
      "Ġvodi": 2227,
      "Ġtuze": 2228,
      "Ġdijela": 2229,
      "Ġmisljenje": 2230,
      "Ġovlaste": 2231,
      "Ġegp": 2232,
      "dova": 2233,
      "Ġat": 2234,
      "jali": 2235,
      "Ġkod": 2236,
      "Ġistice": 2237,
      "meri": 2238,
      "Ġ'": 2239,
      "Ġpoloza": 2240,
      "ĠodreÄĳuje": 2241,
      "Ġindustri": 2242,
      "Ġpriho": 2243,
      "Ġindustrija": 2244,
      "Ġnaba": 2245,
      "Ġuporabu": 2246,
      "Ġnalaze": 2247,
      "Ġmedi": 2248,
      "hvati": 2249,
      "Ġpraksu": 2250,
      "Ġzahtjevima": 2251,
      "Ġdatuma": 2252,
      "tnost": 2253,
      "Î¹": 2254,
      "Ġplo": 2255,
      "Ġzemalja": 2256,
      "Ġdelegi": 2257,
      "Ġnekretninom": 2258,
      "ceno": 2259,
      "tog": 2260,
      "ĠodreÄĳenih": 2261,
      "Ġ89": 2262,
      "Ġopore": 2263,
      "Ġogranica": 2264,
      "23": 2265,
      "Ġucinak": 2266,
      "Ġage": 2267,
      "Ġcak": 2268,
      "Ġispunje": 2269,
      "novi": 2270,
      "Ġizri": 2271,
      "Ġap": 2272,
      "nskim": 2273,
      "Ġcje": 2274,
      "ktor": 2275,
      "Ġimati": 2276,
      "Ġodstupa": 2277,
      "Ġziga": 2278,
      "paci": 2279,
      "Ġnezavi": 2280,
      "Ġiskljucivo": 2281,
      "Ġpodstav": 2282,
      "Ġnadalje": 2283,
      "Ġnizo": 2284,
      "Ġiv": 2285,
      "Ġ1999": 2286,
      "Ġcijelosti": 2287,
      "Ġmije": 2288,
      "Ġdok": 2289,
      "Ġpapi": 2290,
      "Ġdalje": 2291,
      "jima": 2292,
      "Ġsadrzava": 2293,
      "Ġbel": 2294,
      "Ġdis": 2295,
      "zije": 2296,
      "Ġslije": 2297,
      "Ġproizvodnja": 2298,
      "Ġobavje": 2299,
      "cenih": 2300,
      "Ġ06": 2301,
      "Ġ81": 2302,
      "cnim": 2303,
      "mat": 2304,
      "cijski": 2305,
      "Ġtarifnog": 2306,
      "Ġmanje": 2307,
      "Ġuvjetom": 2308,
      "Ġsubjekti": 2309,
      "can": 2310,
      "Ġriba": 2311,
      "Ġupravljanje": 2312,
      "Ġidentifika": 2313,
      "Ġkreta": 2314,
      "Ġredo": 2315,
      "ĠureÄĳa": 2316,
      "Ġequi": 2317,
      "lan": 2318,
      "Ġnadlezna": 2319,
      "Ġnezako": 2320,
      "skori": 2321,
      "Ġposlovni": 2322,
      "kr": 2323,
      "Ġboravi": 2324,
      "siti": 2325,
      "Ġnjih": 2326,
      "Ġsvaka": 2327,
      "Ġsvaki": 2328,
      "Ġfe": 2329,
      "lnim": 2330,
      "Ġfunkcio": 2331,
      "Ġono": 2332,
      "Ġosnovi": 2333,
      "Ġprijedlog": 2334,
      "Ġciji": 2335,
      "Ġnadlezno": 2336,
      "Ġodredbi": 2337,
      "Ġniti": 2338,
      "Ġgr": 2339,
      "venci": 2340,
      "nija": 2341,
      "Ġpoto": 2342,
      "ll": 2343,
      "gao": 2344,
      "Ġjavnog": 2345,
      "Ġnaru": 2346,
      "Ġostvari": 2347,
      "Ġupravljanja": 2348,
      "Ġmogucnosti": 2349,
      "dnosti": 2350,
      "dro": 2351,
      "Ġdeta": 2352,
      "mer": 2353,
      "sna": 2354,
      "Ġom": 2355,
      "Ġzivotinje": 2356,
      "zer": 2357,
      "Ġizdanje": 2358,
      "14": 2359,
      "struktu": 2360,
      "telju": 2361,
      "Ġtijelima": 2362,
      "Ġhu": 2363,
      "Ġnaziv": 2364,
      "Ġstajali": 2365,
      "Ġdefinira": 2366,
      "civanje": 2367,
      "Ġtuzitelja": 2368,
      "Ġkreditne": 2369,
      "Ġdoma": 2370,
      "Ġpreporu": 2371,
      "Ġprovedbu": 2372,
      "stvom": 2373,
      "Ġan": 2374,
      "Ġmiro": 2375,
      "Ġprio": 2376,
      "Ġsmjer": 2377,
      "Ġinterne": 2378,
      "Ġodobrenje": 2379,
      "Ġosigurati": 2380,
      "cijske": 2381,
      "Ġpodlije": 2382,
      "Ġjesu": 2383,
      "che": 2384,
      "Ġstruktu": 2385,
      "Ġovoj": 2386,
      "Ġinteresa": 2387,
      "Ġtrebala": 2388,
      "Ġslucajevima": 2389,
      "Ġzada": 2390,
      "daba": 2391,
      "Ġodjelj": 2392,
      "Ġpotrebne": 2393,
      "Ġdovoljno": 2394,
      "Ġnedosta": 2395,
      "Ġnjegovo": 2396,
      "Ġjavne": 2397,
      "Ġrazvr": 2398,
      "Ġnaknade": 2399,
      "Ġprakse": 2400,
      "Ġspecijaliziranog": 2401,
      "cun": 2402,
      "Ġpostu": 2403,
      "Ġumje": 2404,
      "Ġpona": 2405,
      "Ġ03": 2406,
      "Ġispitivanje": 2407,
      "Ġhomo": 2408,
      "Ġrazvo": 2409,
      "Ġukljucuje": 2410,
      "Ġzemlji": 2411,
      "ljeni": 2412,
      "dnje": 2413,
      "Ð¸": 2414,
      "ver": 2415,
      "Ġloka": 2416,
      "Ġhrvatskom": 2417,
      "nera": 2418,
      "Ġneto": 2419,
      "kop": 2420,
      "resi": 2421,
      "Ġequity": 2422,
      "canja": 2423,
      "Ġpravilima": 2424,
      "Ġsvezak": 2425,
      "mbeni": 2426,
      "Ġjezik": 2427,
      "Ġokvir": 2428,
      "Ġklju": 2429,
      "Ġprei": 2430,
      "Ġcerti": 2431,
      "ĠrasporeÄĳivanja": 2432,
      "Ġkemi": 2433,
      "tivne": 2434,
      "Ġpriro": 2435,
      "Ġsusta": 2436,
      "Ġkomunika": 2437,
      "ĠutvrÄĳivanju": 2438,
      "Ġnacionalnog": 2439,
      "Ġag": 2440,
      "Ġprimjere": 2441,
      "Ġglavnog": 2442,
      "Ġnjihove": 2443,
      "Ġdokumenta": 2444,
      "Ġoce": 2445,
      "25": 2446,
      "Ġnadleznosti": 2447,
      "Ġnjihova": 2448,
      "Ġpravu": 2449,
      "liza": 2450,
      "Ġveza": 2451,
      "Ġzrakop": 2452,
      "Ġanti": 2453,
      "lnost": 2454,
      "Ġzamjenjuje": 2455,
      "Ġnosi": 2456,
      "Ġnaknadu": 2457,
      "Ġopa": 2458,
      "ipo": 2459,
      "Ġiznosi": 2460,
      "Ġpovla": 2461,
      "porcional": 2462,
      "Ġpodnose": 2463,
      "Ġcp": 2464,
      "Ġprera": 2465,
      "Ġsudska": 2466,
      "ks": 2467,
      "Ġglavni": 2468,
      "Ġfr": 2469,
      "Ġstruc": 2470,
      "Ġslsc": 2471,
      "08": 2472,
      "Ġiznim": 2473,
      "Ġkraljevina": 2474,
      "Ġkomisiju": 2475,
      "Ġpor": 2476,
      "Ġnjemacka": 2477,
      "Ġonih": 2478,
      "Ġdonosenja": 2479,
      "Ġzabra": 2480,
      "tnu": 2481,
      "ble": 2482,
      "Ġnizozem": 2483,
      "Ġprotu": 2484,
      "Ġmogla": 2485,
      "Ġinf": 2486,
      "Ġeuipo": 2487,
      "Ġpotporu": 2488,
      "Ġproti": 2489,
      "Ġdostavlja": 2490,
      "Ġpraksi": 2491,
      "ljuje": 2492,
      "kcije": 2493,
      "Ġupucuje": 2494,
      "70": 2495,
      "Ġmjerama": 2496,
      "Ġpretpostav": 2497,
      "Ġcemu": 2498,
      "ranih": 2499,
      "com": 2500,
      "ny": 2501,
      "Ġkontekstu": 2502,
      "sanje": 2503,
      "Ġpostupaka": 2504,
      "Ġjedno": 2505,
      "cijom": 2506,
      "Ġsredisnje": 2507,
      "Ġpovelje": 2508,
      "hra": 2509,
      "Ġ82": 2510,
      "Ġiskori": 2511,
      "Ġpriva": 2512,
      "Ġuzor": 2513,
      "Ġmjesta": 2514,
      "dni": 2515,
      "land": 2516,
      "rem": 2517,
      "mentima": 2518,
      "Ġprodaje": 2519,
      "Ġkapaci": 2520,
      "Ġtakva": 2521,
      "Ġizre": 2522,
      "Ġsudske": 2523,
      "Ġgori": 2524,
      "vnog": 2525,
      "Ġsvoju": 2526,
      "tet": 2527,
      "Ġodbiti": 2528,
      "Ġpostojanje": 2529,
      "Ġek": 2530,
      "Ġ04": 2531,
      "Ġmogao": 2532,
      "Ġraspolaga": 2533,
      "0000": 2534,
      "Ġpojam": 2535,
      "Ġtrecih": 2536,
      "vise": 2537,
      "redu": 2538,
      "Ġnavesti": 2539,
      "Ġsvojstvu": 2540,
      "star": 2541,
      "Ġola": 2542,
      "Ġopis": 2543,
      "meta": 2544,
      "Ġnajve": 2545,
      "ĠutvrÄĳeno": 2546,
      "Ġpovo": 2547,
      "Ġjest": 2548,
      "Ġpolitike": 2549,
      "Ġzavr": 2550,
      "Ġbas": 2551,
      "Ġpobo": 2552,
      "Ġproizvodnju": 2553,
      "16": 2554,
      "Ġistaknuti": 2555,
      "Ġprimjena": 2556,
      "Ġnalozi": 2557,
      "Ġosigurava": 2558,
      "Ġkolo": 2559,
      "Ġneiz": 2560,
      "Ġbri": 2561,
      "Ġispla": 2562,
      "Ġtuzba": 2563,
      "Ġkru": 2564,
      "Ġdjelomi": 2565,
      "Ġsukladno": 2566,
      "ĠutvrÄĳivanje": 2567,
      "wi": 2568,
      "Ġsigurnost": 2569,
      "ns": 2570,
      "19": 2571,
      "Ġmort": 2572,
      "Ġposebne": 2573,
      "rio": 2574,
      "Ġpobolj": 2575,
      "Ġprimi": 2576,
      "Ġkonvencije": 2577,
      "Ġjos": 2578,
      "Ġjasno": 2579,
      "Ġosnovne": 2580,
      "Ġdjelotvo": 2581,
      "Ġprijenos": 2582,
      "Ġbili": 2583,
      "Ġregulator": 2584,
      "ces": 2585,
      "Ð¾": 2586,
      "Ġtabli": 2587,
      "Ġkine": 2588,
      "ndi": 2589,
      "Ġutje": 2590,
      "Ġzdravstve": 2591,
      "Ġsastavlje": 2592,
      "Ġfinancijskih": 2593,
      "Ġita": 2594,
      "line": 2595,
      "Ġpost": 2596,
      "jske": 2597,
      "Ġpodsjetiti": 2598,
      "Ġdobive": 2599,
      "Ġobjave": 2600,
      "sima": 2601,
      "Ġsvjet": 2602,
      "Ġbelgi": 2603,
      "civanja": 2604,
      "Ġkapitala": 2605,
      "ĠutvrÄĳuje": 2606,
      "Ġras": 2607,
      "Ġpostupcima": 2608,
      "Ġtrenutku": 2609,
      "Ġocije": 2610,
      "Ġprikup": 2611,
      "Ġopse": 2612,
      "Ġpovezane": 2613,
      "caka": 2614,
      "Ġizjave": 2615,
      "Ðµ": 2616,
      "Ġzakon": 2617,
      "Ġpros": 2618,
      "Ġslijedom": 2619,
      "Ġzai": 2620,
      "Ġspreca": 2621,
      "nila": 2622,
      "Ġobjav": 2623,
      "Ġagencija": 2624,
      "staviti": 2625,
      "33": 2626,
      "Ġspome": 2627,
      "pera": 2628,
      "Ġtere": 2629,
      "Ġuki": 2630,
      "Ġmjesto": 2631,
      "Ġmijenja": 2632,
      "Ġdosta": 2633,
      "Ġpolj": 2634,
      "Ġplovila": 2635,
      "Ġpokaza": 2636,
      "Ġslucaj": 2637,
      "Ġtakav": 2638,
      "Ġmeta": 2639,
      "Ġadre": 2640,
      "xel": 2641,
      "Ġkama": 2642,
      "Ġ104": 2643,
      "vao": 2644,
      "njih": 2645,
      "Ġkar": 2646,
      "Ġrazdoblju": 2647,
      "vno": 2648,
      "jski": 2649,
      "Ġnadzora": 2650,
      "sob": 2651,
      "Ġsubjekt": 2652,
      "Ġpostupkom": 2653,
      "coj": 2654,
      "Ġsluzbenom": 2655,
      "Ġimovine": 2656,
      "Ġodgovaraju": 2657,
      "Ġbruxel": 2658,
      "Ġue": 2659,
      "Ġdrugom": 2660,
      "th": 2661,
      "Ġgore": 2662,
      "Ġprethodna": 2663,
      "Ġpoj": 2664,
      "74": 2665,
      "Ġputni": 2666,
      "Ġsla": 2667,
      "Ġdonosi": 2668,
      "Ġregistri": 2669,
      "Ġuvr": 2670,
      "Ġclancima": 2671,
      "Ġpovrsi": 2672,
      "Ġponistenje": 2673,
      "Ġosiguranje": 2674,
      "tt": 2675,
      "dovo": 2676,
      "Ġoslo": 2677,
      "Ġproizlaze": 2678,
      "Ġsklapa": 2679,
      "viti": 2680,
      "Ġprogla": 2681,
      "Äĳeni": 2682,
      "Ġef": 2683,
      "Ġproporcional": 2684,
      "Ġponovno": 2685,
      "renja": 2686,
      "znog": 2687,
      "centra": 2688,
      "renje": 2689,
      "Ġbilje": 2690,
      "Ġnjegov": 2691,
      "stem": 2692,
      "Ġkombi": 2693,
      "02": 2694,
      "Ġsvojeg": 2695,
      "Ġsmije": 2696,
      "zuje": 2697,
      "Ġprogram": 2698,
      "Ġnapome": 2699,
      "Ġlistu": 2700,
      "Ġprovede": 2701,
      "Ġnep": 2702,
      "lika": 2703,
      "zom": 2704,
      "Ġpostoja": 2705,
      "Ġaty": 2706,
      "Ġizvjesce": 2707,
      "vost": 2708,
      "Ġkvalitete": 2709,
      "Ġpartne": 2710,
      "17": 2711,
      "Ġnjegove": 2712,
      "Ġizmjene": 2713,
      "Ġper": 2714,
      "Ġpoziva": 2715,
      "Ġkup": 2716,
      "zio": 2717,
      "Ġvlas": 2718,
      "ĠpredviÄĳeno": 2719,
      "Ġkvo": 2720,
      "Ġpredmeta": 2721,
      "18": 2722,
      "Ġkise": 2723,
      "Ġmcy": 2724,
      "Ġuna": 2725,
      "Ġameri": 2726,
      "05": 2727,
      "rnih": 2728,
      "Ġverzi": 2729,
      "Ġuzro": 2730,
      "Ġodredaba": 2731,
      "Ġpovreda": 2732,
      "Ġstje": 2733,
      "Ġsljedeci": 2734,
      "Ġoni": 2735,
      "Ġrazmatranja": 2736,
      "Ġpredsjednik": 2737,
      "ture": 2738,
      "cnom": 2739,
      "lnu": 2740,
      "Ġstup": 2741,
      "Ġ107": 2742,
      "Ġunija": 2743,
      "Ġzemlja": 2744,
      "cnu": 2745,
      "Ġnjezin": 2746,
      "Ġuvoza": 2747,
      "Ġprimijeniti": 2748,
      "zma": 2749,
      "dovi": 2750,
      "Ġltd": 2751,
      "Ġkarak": 2752,
      "Ġvre": 2753,
      "ljen": 2754,
      "Ġpresudi": 2755,
      "Ġopisa": 2756,
      "uz": 2757,
      "34": 2758,
      "Ġplacanje": 2759,
      "njom": 2760,
      "Ġsvojih": 2761,
      "Ġinfra": 2762,
      "Ġnacionalnih": 2763,
      "Ġprihvati": 2764,
      "Ġtrzisnog": 2765,
      "ĠodreÄĳivanje": 2766,
      "Ġbra": 2767,
      "Ġodobra": 2768,
      "dnog": 2769,
      "Ġprika": 2770,
      "Ġneu": 2771,
      "dna": 2772,
      "Ġdvije": 2773,
      "Ġkontrole": 2774,
      "Ġnjihovih": 2775,
      "Ġveci": 2776,
      "Ġpara": 2777,
      "sen": 2778,
      "Ġprikla": 2779,
      "Ġtehno": 2780,
      "ruz": 2781,
      "cha": 2782,
      "raju": 2783,
      "Ġfinancijska": 2784,
      "snije": 2785,
      "Ġotkri": 2786,
      "cak": 2787,
      "dis": 2788,
      "cenju": 2789,
      "Ġeuropski": 2790,
      "Ġtuzbu": 2791,
      "cila": 2792,
      "niji": 2793,
      "vsi": 2794,
      "Ġrazliku": 2795,
      "Ġvreme": 2796,
      "Ġpokreta": 2797,
      "Ġdrzavnom": 2798,
      "ÏĦ": 2799,
      "29": 2800,
      "Ġnjima": 2801,
      "04": 2802,
      "Ġsjedi": 2803,
      "Ġjedinica": 2804,
      "Ġizjavi": 2805,
      "Ġini": 2806,
      "Ġizo": 2807,
      "spa": 2808,
      "nteresi": 2809,
      "Ġil": 2810,
      "Ġzig": 2811,
      "Ġhomologa": 2812,
      "Ġdirektivi": 2813,
      "Ġdobro": 2814,
      "pisu": 2815,
      "Ġzainteresi": 2816,
      "Ġtuzitelje": 2817,
      "noscu": 2818,
      "Ġprovjere": 2819,
      "Ġ106": 2820,
      "Ġnjezina": 2821,
      "Ġindi": 2822,
      "rlji": 2823,
      "Ġpreispi": 2824,
      "snih": 2825,
      "Ġstati": 2826,
      "Ġsastoji": 2827,
      "rg": 2828,
      "snosti": 2829,
      "Ġribolov": 2830,
      "Ġosposo": 2831,
      "ckim": 2832,
      "vod": 2833,
      "Ġpokri": 2834,
      "06": 2835,
      "Ġprovedbene": 2836,
      "Ġizvjesca": 2837,
      "Ġparlament": 2838,
      "Ġpotrosaca": 2839,
      "rnosti": 2840,
      "Ġpomoc": 2841,
      "Ġvii": 2842,
      "cem": 2843,
      "Ġvra": 2844,
      "Ġsank": 2845,
      "Ġnuzno": 2846,
      "Ġcinjenic": 2847,
      "Ġstroje": 2848,
      "Ġpravna": 2849,
      "03": 2850,
      "Ġovu": 2851,
      "Ġzahtjevu": 2852,
      "Ġisprav": 2853,
      "Ġpodnio": 2854,
      "nga": 2855,
      "ĠodreÄĳenim": 2856,
      "ĠutvrÄĳene": 2857,
      "Ġclanaka": 2858,
      "res": 2859,
      "Ġpregle": 2860,
      "Ġstatisti": 2861,
      "Ġtrebaju": 2862,
      "rice": 2863,
      "Ġmoglo": 2864,
      "Ġribar": 2865,
      "Ġuza": 2866,
      "Ġch": 2867,
      "Ġstavljanju": 2868,
      "jskih": 2869,
      "Ġenerge": 2870,
      "Ð½": 2871,
      "Ġpl": 2872,
      "Ġvjeroja": 2873,
      "vinu": 2874,
      "Ġnado": 2875,
      "Ġzajedno": 2876,
      "Ġ197": 2877,
      "Ġinicija": 2878,
      "Ġrok": 2879,
      "puste": 2880,
      "cr": 2881,
      "Ġgro": 2882,
      "Ġsum": 2883,
      "vnih": 2884,
      "Ġakta": 2885,
      "Ġdogovo": 2886,
      "Ġostala": 2887,
      "redno": 2888,
      "Ġpodrijetlom": 2889,
      "kama": 2890,
      "Ġrije": 2891,
      "Ġjednog": 2892,
      "Ġpoz": 2893,
      "Ġnikak": 2894,
      "Ġsadrzaj": 2895,
      "Ġminima": 2896,
      "Ġdrugoj": 2897,
      "Ġprihvatlji": 2898,
      "vna": 2899,
      "Ġprimjer": 2900,
      "Ġinfrastruktu": 2901,
      "Ġkoncentra": 2902,
      "Ġzemljo": 2903,
      "Ġupotrijeblje": 2904,
      "Ġprirod": 2905,
      "Ġpromet": 2906,
      "dama": 2907,
      "Ġpotreba": 2908,
      "Ġprovedbi": 2909,
      "Ġsub": 2910,
      "Ġkro": 2911,
      "lnom": 2912,
      "Ġtransakcije": 2913,
      "Ġkategorije": 2914,
      "Ġneko": 2915,
      "lla": 2916,
      "Ġnepri": 2917,
      "Ġstambeni": 2918,
      "rodne": 2919,
      "Ġpoduzetnika": 2920,
      "Ġrx": 2921,
      "Ġdijelovi": 2922,
      "Ġsustavu": 2923,
      "Ġmode": 2924,
      "Ġsvojoj": 2925,
      "ranju": 2926,
      "pora": 2927,
      "ĠpredviÄĳene": 2928,
      "ft": 2929,
      "rano": 2930,
      "Ġpoglavlja": 2931,
      "nosu": 2932,
      "Ġforma": 2933,
      "Ġfrancuska": 2934,
      "Ġocjenji": 2935,
      "Ġdonosenje": 2936,
      "Äĳeno": 2937,
      "Ġmjeseci": 2938,
      "01": 2939,
      "Ġuvjet": 2940,
      "Ġvecim": 2941,
      "cujuci": 2942,
      "Ġpodto": 2943,
      "Ġregional": 2944,
      "Ġkvalifici": 2945,
      "savanje": 2946,
      "Ġprijevoza": 2947,
      "Ġsnosenje": 2948,
      "Ġbarem": 2949,
      "caja": 2950,
      "prije": 2951,
      "Ġ&": 2952,
      "Ġsvojem": 2953,
      "ljak": 2954,
      "Ġdrustvu": 2955,
      "Ġzastiti": 2956,
      "Ġciljem": 2957,
      "Ġrazum": 2958,
      "Ġzakljucak": 2959,
      "Ġsubjekata": 2960,
      "Ġsektora": 2961,
      "kro": 2962,
      "ry": 2963,
      "Ġsam": 2964,
      "Ġtakvo": 2965,
      "Ġtomu": 2966,
      "Ġpromi": 2967,
      "Ġ220": 2968,
      "Ġrezi": 2969,
      "Ġjednako": 2970,
      "Äĳene": 2971,
      "Ġneposto": 2972,
      "Ġorganizacije": 2973,
      "Ġpredmetne": 2974,
      "Ġomogucuje": 2975,
      "Ġtekst": 2976,
      "Ġocitovanja": 2977,
      "Ġmjeseca": 2978,
      "deci": 2979,
      "26": 2980,
      "wa": 2981,
      "krimina": 2982,
      "Ġosporava": 2983,
      "Ġtrazi": 2984,
      "dampi": 2985,
      "Ġnatjecanja": 2986,
      "snost": 2987,
      "we": 2988,
      "Ġpravil": 2989,
      "Ġspecifi": 2990,
      "Ġ030": 2991,
      "Ġsmanjenje": 2992,
      "Ġsch": 2993,
      "Ġenergi": 2994,
      "Ġodgovornosti": 2995,
      "lina": 2996,
      "Ġpostupanja": 2997,
      "Ġantidampi": 2998,
      "Ġtvrd": 2999,
      "cijskih": 3000,
      "Ġuve": 3001,
      "Ġdistri": 3002,
      "Ġsvake": 3003,
      "gaÄĳa": 3004,
      "Ġnjega": 3005,
      "Ġkategorija": 3006,
      "stiti": 3007,
      "Ġprimjenjivati": 3008,
      "ckog": 3009,
      "Ġizricito": 3010,
      "Ġpoti": 3011,
      "Ġtocaka": 3012,
      "Ġdugo": 3013,
      "Ġam": 3014,
      "Ġrezer": 3015,
      "Ġotvo": 3016,
      "Ġudjelom": 3017,
      "Ġpovredi": 3018,
      "ravak": 3019,
      "Ġops": 3020,
      "Ġbole": 3021,
      "Ġstupanja": 3022,
      "Ġodabi": 3023,
      "Ġsporazumu": 3024,
      "Ġcertifika": 3025,
      "vala": 3026,
      "sse": 3027,
      "Ġpreuzima": 3028,
      "Ġemisija": 3029,
      "Ġzastita": 3030,
      "Ġok": 3031,
      "ĠodreÄĳeno": 3032,
      "Ġodrzi": 3033,
      "Ġzeljez": 3034,
      "Ġotpa": 3035,
      "Ġpet": 3036,
      "Ġ112": 3037,
      "Ġkoristenje": 3038,
      "Ġprotivi": 3039,
      "Ġcas": 3040,
      "den": 3041,
      "spje": 3042,
      "njeg": 3043,
      "Ġmjestu": 3044,
      "Ġhrane": 3045,
      "Ġexc": 3046,
      "Îµ": 3047,
      "Ġq": 3048,
      "Ġekonom": 3049,
      "Ġnega": 3050,
      "Ġpruzanje": 3051,
      "Ġpodnosenja": 3052,
      "nike": 3053,
      "Ġhipo": 3054,
      "Ġizvjesta": 3055,
      "cama": 3056,
      "Ġzalbenog": 3057,
      "Ġzajednickog": 3058,
      "sanja": 3059,
      "lle": 3060,
      "Ġ103": 3061,
      "Ġiza": 3062,
      "Ġrazvrsta": 3063,
      "mula": 3064,
      "Ġkolovo": 3065,
      "27": 3066,
      "Ġsave": 3067,
      "Ġprotokola": 3068,
      "Ġostalih": 3069,
      "Ġsmatraju": 3070,
      "Ġnjegovu": 3071,
      "Ġpravima": 3072,
      "Ġcinjenice": 3073,
      "znih": 3074,
      "Ġkorisnika": 3075,
      "Ġvisi": 3076,
      "Ġdonijeti": 3077,
      "reda": 3078,
      "Ġovisno": 3079,
      "Ġ040": 3080,
      "Ġsece": 3081,
      "ss": 3082,
      "Ġrazina": 3083,
      "Ġizmijenjena": 3084,
      "Ġstrate": 3085,
      "Ġtemelje": 3086,
      "Ġzakonoda": 3087,
      "ck": 3088,
      "Ġdokaze": 3089,
      "rnu": 3090,
      "Ġeuropskom": 3091,
      "Ġpreki": 3092,
      "Ġdjelovanja": 3093,
      "Ġnaslovlje": 3094,
      "Ġ115": 3095,
      "Ġcilja": 3096,
      "Ġuporabe": 3097,
      "Ġdrzavljani": 3098,
      "Ġdetalj": 3099,
      "Äĳena": 3100,
      "Ġelektricne": 3101,
      "Ġozbi": 3102,
      "Ġkn": 3103,
      "Ġrazlozi": 3104,
      "Ġtuzenik": 3105,
      "Ġdonijela": 3106,
      "Ġzakonito": 3107,
      "Ġpodnositelj": 3108,
      "Ġie": 3109,
      "Ġkraljevine": 3110,
      "Ġprigovor": 3111,
      "stima": 3112,
      "lin": 3113,
      "pisi": 3114,
      "Ġdodatne": 3115,
      "Ġljud": 3116,
      "Ġispitati": 3117,
      "Ġinicijati": 3118,
      "Ġpt": 3119,
      "Ġrece": 3120,
      "mb": 3121,
      "Î½": 3122,
      "Ġrazine": 3123,
      "Ġtalija": 3124,
      "Ġpropisuje": 3125,
      "Ġbanke": 3126,
      "Ġtrenuta": 3127,
      "Ġcija": 3128,
      "Ġobrazo": 3129,
      "Ġgodisnje": 3130,
      "Ġradnika": 3131,
      "Ġprijela": 3132,
      "Ġispunjava": 3133,
      "Ġposi": 3134,
      "Ġsmanji": 3135,
      "tre": 3136,
      "Ġzalbeni": 3137,
      "Ġpodacima": 3138,
      "Ġnedopuste": 3139,
      "Ġdistribu": 3140,
      "ranog": 3141,
      "Ġradu": 3142,
      "sava": 3143,
      "Ġkolovoza": 3144,
      "Ġnapla": 3145,
      "Ġsaslu": 3146,
      "Ġpovrije": 3147,
      "Ġtakvih": 3148,
      "ĠmaÄĳa": 3149,
      "Ġpotra": 3150,
      "cnosti": 3151,
      "Ġkonku": 3152,
      "razumije": 3153,
      "Ġspanjolska": 3154,
      "Ġsjedinje": 3155,
      "Ġpromjene": 3156,
      "Ġzajednicki": 3157,
      "Ġugra": 3158,
      "Ġgb": 3159,
      "Ġznanstve": 3160,
      "Ġpomoci": 3161,
      "mentu": 3162,
      "Ġpodrazumije": 3163,
      "Ġipa": 3164,
      "Ġiska": 3165,
      "Ġdavanja": 3166,
      "Ġprosjec": 3167,
      "lice": 3168,
      "Ġnovcane": 3169,
      "Ġstupanj": 3170,
      "Ġosni": 3171,
      "Ġvrijednos": 3172,
      "ÑĢ": 3173,
      "zene": 3174,
      "Ġpovrat": 3175,
      "znu": 3176,
      "Ġsigurnos": 3177,
      "nove": 3178,
      "Ġdjelomicno": 3179,
      "Ġnadleznost": 3180,
      "Ġstopa": 3181,
      "45": 3182,
      "kte": 3183,
      "Ġnasto": 3184,
      "Ġdigi": 3185,
      "09": 3186,
      "Ġdobiti": 3187,
      "Ïģ": 3188,
      "Ġsektoru": 3189,
      "Ġ207": 3190,
      "ordi": 3191,
      "Ġbg": 3192,
      "Ġnacionalne": 3193,
      "Ġinternet": 3194,
      "Ġgor": 3195,
      "njuju": 3196,
      "Ġportu": 3197,
      "Ġsuradnje": 3198,
      "Ġzlo": 3199,
      "voje": 3200,
      "Ġtop": 3201,
      "Ġstabi": 3202,
      "Ġutvrdio": 3203,
      "Ġlegi": 3204,
      "Ġpozna": 3205,
      "Ġrelevantne": 3206,
      "Ġnaknada": 3207,
      "Ġpristojbe": 3208,
      "Ġvremen": 3209,
      "ĠutvrÄĳena": 3210,
      "cava": 3211,
      "ÅĤ": 3212,
      "tko": 3213,
      "zila": 3214,
      "fu": 3215,
      "granic": 3216,
      "Ġdigita": 3217,
      "Ġzaposlja": 3218,
      "Ġodvjetnik": 3219,
      "Ġoznake": 3220,
      "Ġpravosu": 3221,
      "Ġprikuplja": 3222,
      "Ġuslugama": 3223,
      "ĠutvrÄĳuju": 3224,
      "Ġet": 3225,
      "Ġprovesti": 3226,
      "Ġputo": 3227,
      "nickih": 3228,
      "Ġfunkcionira": 3229,
      "Ġprvom": 3230,
      "Ġudru": 3231,
      "len": 3232,
      "Ġpaki": 3233,
      "kana": 3234,
      "Ġpostupke": 3235,
      "Ġizdavanje": 3236,
      "Ġdove": 3237,
      "Ġosposoblja": 3238,
      "dovima": 3239,
      "Ġsudskoj": 3240,
      "ly": 3241,
      "Ġtem": 3242,
      "Ġrjesenje": 3243,
      "Ġbile": 3244,
      "Ġnacionalna": 3245,
      "Ġovim": 3246,
      "Ġobavjes": 3247,
      "Ġstro": 3248,
      "vencija": 3249,
      "Ġpovezanih": 3250,
      "Ġdovodi": 3251,
      "Ġ108": 3252,
      "Ġhrani": 3253,
      "Ġmreze": 3254,
      "Ġsvaku": 3255,
      "nsko": 3256,
      "Ġeurope": 3257,
      "Ġoceki": 3258,
      "zija": 3259,
      "Ġzb": 3260,
      "ssi": 3261,
      "Ġpostupci": 3262,
      "Ġfinancijski": 3263,
      "Ġteku": 3264,
      "bora": 3265,
      "mima": 3266,
      "ris": 3267,
      "Ġnajvise": 3268,
      "Ġulja": 3269,
      "Ġspora": 3270,
      "Ġroka": 3271,
      "Ġprovode": 3272,
      "Ġun": 3273,
      "Ġrazlicitih": 3274,
      "Ġdovesti": 3275,
      "Ġusmje": 3276,
      "Ġ2022": 3277,
      "as": 3278,
      "38": 3279,
      "Ġinvesti": 3280,
      "om": 3281,
      "Ġkorist": 3282,
      "Ġpripada": 3283,
      "tivnih": 3284,
      "tera": 3285,
      "Ġjednom": 3286,
      "Ġisteka": 3287,
      "Ġdopusta": 3288,
      "Ġjoj": 3289,
      "Ġprofe": 3290,
      "ster": 3291,
      "39": 3292,
      "gal": 3293,
      "Ġispitnog": 3294,
      "rk": 3295,
      "Ġrjesenja": 3296,
      "ĠproizvoÄĳac": 3297,
      "Ġzakonodavstva": 3298,
      "Ġuvodnoj": 3299,
      "Ġdjelu": 3300,
      "Ġobvezuju": 3301,
      "Ġnl": 3302,
      "jne": 3303,
      "Ġipak": 3304,
      "stavak": 3305,
      "zuju": 3306,
      "Ġsposob": 3307,
      "dila": 3308,
      "Ġodjeljak": 3309,
      "Ġkoristiti": 3310,
      "Ġsubjekta": 3311,
      "Ġbrzi": 3312,
      "Ġneob": 3313,
      "nskom": 3314,
      "Ġsvrhe": 3315,
      "Ġprijedloga": 3316,
      "Ġpredstav": 3317,
      "Ġuspored": 3318,
      "vra": 3319,
      "Ġnjihovu": 3320,
      "Ġzemljopis": 3321,
      "vor": 3322,
      "Ġenerget": 3323,
      "Ġdekla": 3324,
      "stena": 3325,
      "Ġdiza": 3326,
      "Ġporezni": 3327,
      "tivno": 3328,
      "Ġprimije": 3329,
      "Ġjedinice": 3330,
      "Ġaf": 3331,
      "Ġciljeva": 3332,
      "Ġpostroje": 3333,
      "tere": 3334,
      "Ġstrana": 3335,
      "Ġnove": 3336,
      "Ġpovredu": 3337,
      "Ġokolis": 3338,
      "Ġtehnicke": 3339,
      "Ġsuprotno": 3340,
      "Ġkore": 3341,
      "Ġudjela": 3342,
      "dobno": 3343,
      "fikacije": 3344,
      "Ġroba": 3345,
      "Ġprehra": 3346,
      "28": 3347,
      "Ġbolesti": 3348,
      "Ġprocjene": 3349,
      "Ġucinke": 3350,
      "Ġprisu": 3351,
      "terije": 3352,
      "niku": 3353,
      "ziva": 3354,
      "set": 3355,
      "Ġgranic": 3356,
      "cijskog": 3357,
      "Ġraspravi": 3358,
      "Ġac": 3359,
      "Ġsudio": 3360,
      "Ġpostupanje": 3361,
      "Ġnacionalno": 3362,
      "Ġnpr": 3363,
      "Ġkoordi": 3364,
      "Ġodrediti": 3365,
      "rena": 3366,
      "Ġinterve": 3367,
      "Ġsudjelovanje": 3368,
      "Ġelemenata": 3369,
      "nicki": 3370,
      "jedna": 3371,
      "Ġpitanju": 3372,
      "tual": 3373,
      "Ġ125": 3374,
      "Ġopcim": 3375,
      "nan": 3376,
      "Ġakata": 3377,
      "Ġupotrebljava": 3378,
      "Ġdrzavljan": 3379,
      "Ġnacionalnom": 3380,
      "Ġdampi": 3381,
      "Ġpovodom": 3382,
      "Ġ020": 3383,
      "Ġzajam": 3384,
      "Ġsvakog": 3385,
      "Ġukljucuju": 3386,
      "Ġdostavlje": 3387,
      "Ġtrebao": 3388,
      "Ġokvira": 3389,
      "Ġneizrav": 3390,
      "Ġzabranje": 3391,
      "vija": 3392,
      "cilo": 3393,
      "Ġstanje": 3394,
      "Ġgodinu": 3395,
      "Ġpriop": 3396,
      "Ġuvodne": 3397,
      "Ġskupine": 3398,
      "Ġdoba": 3399,
      "Ġdjelatnost": 3400,
      "nil": 3401,
      "35": 3402,
      "Ġposlovnika": 3403,
      "ĠodreÄĳeni": 3404,
      "77": 3405,
      "Ġzivotinj": 3406,
      "Ġprekogranic": 3407,
      "ĠdogaÄĳa": 3408,
      "Ġuniju": 3409,
      "Ġocjenu": 3410,
      "Ġosobama": 3411,
      "Ġsnazi": 3412,
      "Ġdvo": 3413,
      "Ġgodis": 3414,
      "Ġprijenosa": 3415,
      "Ġms": 3416,
      "Ġposje": 3417,
      "Ïĥ": 3418,
      "Ġakt": 3419,
      "ding": 3420,
      "Ġpodrucjima": 3421,
      "ms": 3422,
      "lia": 3423,
      "Ġduznosti": 3424,
      "Ġpreci": 3425,
      "vara": 3426,
      "Ġzastupa": 3427,
      "Ĥ¬": 3428,
      "Ġzakonika": 3429,
      "ĠÕ": 3430,
      "Ġnovi": 3431,
      "ds": 3432,
      "Ġizvora": 3433,
      "Ġwi": 3434,
      "koho": 3435,
      "Ġnekoliko": 3436,
      "ĠâĤ¬": 3437,
      "tional": 3438,
      "Ġmotor": 3439,
      "Ġ105": 3440,
      "Ġceti": 3441,
      "Ġcy": 3442,
      "Ġodvjetnika": 3443,
      "Ġmetoda": 3444,
      "Ġzeli": 3445,
      "dnih": 3446,
      "Ġkraj": 3447,
      "Ġstavcima": 3448,
      "Ġklasi": 3449,
      "tencija": 3450,
      "Ġsiri": 3451,
      "ljivanje": 3452,
      "Ġpreo": 3453,
      "Ġocu": 3454,
      "Ġcesto": 3455,
      "Ġmedici": 3456,
      "Ġsmatram": 3457,
      "blici": 3458,
      "dak": 3459,
      "Ġocjene": 3460,
      "gne": 3461,
      "zenja": 3462,
      "Ġfunkcioniranju": 3463,
      "Ġproizvodima": 3464,
      "Ġukra": 3465,
      "ÑĤ": 3466,
      "Ġbruxelle": 3467,
      "Ġser": 3468,
      "Ġuspostavlja": 3469,
      "Ġtrans": 3470,
      "Ġnavode": 3471,
      "Ġmehani": 3472,
      "Ġver": 3473,
      "teljima": 3474,
      "Ġteksti": 3475,
      "Ġnacelu": 3476,
      "Ġodbije": 3477,
      "Ġple": 3478,
      "Ġpredmetnog": 3479,
      "is": 3480,
      "Ġnagla": 3481,
      "Ġesb": 3482,
      "Ġodra": 3483,
      "Ġpovjerlji": 3484,
      "gri": 3485,
      "Ġpodstavka": 3486,
      "44": 3487,
      "Ġargumenta": 3488,
      "sle": 3489,
      "Ġutjecaj": 3490,
      "Ġxi": 3491,
      "Ġkonce": 3492,
      "Ġzadovo": 3493,
      "teka": 3494,
      "Ġsup": 3495,
      "ckom": 3496,
      "Ġnezakonito": 3497,
      "Ġpokrenu": 3498,
      "Ġprocije": 3499,
      "tura": 3500,
      "Ġprovedbena": 3501,
      "Ġprofesi": 3502,
      "Ġzakonodavstvo": 3503,
      "ljenih": 3504,
      "Ġizvrse": 3505,
      "Ġoto": 3506,
      "Ġfinancijskog": 3507,
      "Ġkriterija": 3508,
      "Ġpresta": 3509,
      "Ġkolicine": 3510,
      "Ġrobu": 3511,
      "Ġeng": 3512,
      "Ġter": 3513,
      "95": 3514,
      "Ġtijelu": 3515,
      "Ġujedinjena": 3516,
      "nar": 3517,
      "Ġadresa": 3518,
      "Ġsnosi": 3519,
      "Ġgle": 3520,
      "Ġokolisa": 3521,
      "Ġpreispiti": 3522,
      "Ġorganizacija": 3523,
      "mercija": 3524,
      "Ġpolozaj": 3525,
      "Â°": 3526,
      "Ġinspe": 3527,
      "Ġtka": 3528,
      "liti": 3529,
      "Ġkak": 3530,
      "Ġkonkretno": 3531,
      "66": 3532,
      "Ġprodaju": 3533,
      "Ġocjeni": 3534,
      "Ġpruzanja": 3535,
      "Ġtranspa": 3536,
      "latera": 3537,
      "Ġpostupo": 3538,
      "Ġbilj": 3539,
      "Ġprelazi": 3540,
      "Ġobitelji": 3541,
      "dija": 3542,
      "lti": 3543,
      "Ġknji": 3544,
      "Ġpodrazumijeva": 3545,
      "Ġpodnosenje": 3546,
      "Ġpoduzima": 3547,
      "Ġsvako": 3548,
      "Ġstvarno": 3549,
      "Ġjavnosti": 3550,
      "Ġagencije": 3551,
      "Ġodgo": 3552,
      "Ġusporedi": 3553,
      "Ġsavjetovanja": 3554,
      "pla": 3555,
      "Ġ102": 3556,
      "Ġduznos": 3557,
      "Ġpriprem": 3558,
      "Ġpravnog": 3559,
      "Ġsklop": 3560,
      "Ġcetiri": 3561,
      "cht": 3562,
      "cijska": 3563,
      "rene": 3564,
      "Ġzato": 3565,
      "cenog": 3566,
      "Ġmalo": 3567,
      "lica": 3568,
      "Ġpravnih": 3569,
      "valu": 3570,
      "Ġudio": 3571,
      "Ġocjena": 3572,
      "Î·": 3573,
      "vaka": 3574,
      "Ġdozvole": 3575,
      "ranu": 3576,
      "Ġprimjeni": 3577,
      "ljuju": 3578,
      "Ġpredmetni": 3579,
      "Ġseku": 3580,
      "Ġapr": 3581,
      "klanja": 3582,
      "Ġspor": 3583,
      "Ġvaz": 3584,
      "Ġsporne": 3585,
      "Ġpodnesena": 3586,
      "Ġrazliko": 3587,
      "Ġdonesena": 3588,
      "Ġprp": 3589,
      "Ġautomat": 3590,
      "Ġalkoho": 3591,
      "Ġrazvoja": 3592,
      "Ġclanova": 3593,
      "Ġbruxellesu": 3594,
      "Ġeuropskoj": 3595,
      "Ġnjezine": 3596,
      "Ġmasenim": 3597,
      "Ġstavljanje": 3598,
      "her": 3599,
      "mbu": 3600,
      "Ġdes": 3601,
      "Ġrazlicite": 3602,
      "Ïħ": 3603,
      "Ġ1998": 3604,
      "zena": 3605,
      "Ġelemente": 3606,
      "Ġkolicina": 3607,
      "Ġair": 3608,
      "Ġizmjena": 3609,
      "Ġusto": 3610,
      "ljenje": 3611,
      "Ġdaje": 3612,
      "sur": 3613,
      "Ġobrazlozenje": 3614,
      "Ġosobnih": 3615,
      "Ġvlakana": 3616,
      "Ġskladi": 3617,
      "Ġsoli": 3618,
      "58": 3619,
      "Ġsukladnosti": 3620,
      "ĠÂ°": 3621,
      "ranim": 3622,
      "Ġwe": 3623,
      "Ġfer": 3624,
      "Ñģ": 3625,
      "Ġkategori": 3626,
      "36": 3627,
      "Ġobavijest": 3628,
      "zenje": 3629,
      "Ġorgani": 3630,
      "Ġpotpuno": 3631,
      "Ġpotencija": 3632,
      "Ġproble": 3633,
      "Ġpredloze": 3634,
      "Ġispunjeni": 3635,
      "Ġutjece": 3636,
      "Ġsastavljeno": 3637,
      "laganja": 3638,
      "snim": 3639,
      "Ġnaruci": 3640,
      "Ġsektor": 3641,
      "Ġevi": 3642,
      "Ġopcenito": 3643,
      "Ġmogli": 3644,
      "Ġosiguravaju": 3645,
      "Ġtreci": 3646,
      "Ġsjedinjene": 3647,
      "Ġiznosu": 3648,
      "Ġstavke": 3649,
      "Ġgoriva": 3650,
      "Ġindustrije": 3651,
      "Ġugro": 3652,
      "sio": 3653,
      "Ġarbi": 3654,
      "Ġpreuze": 3655,
      "Ġraspolaganje": 3656,
      "Ġnastav": 3657,
      "at": 3658,
      "stenja": 3659,
      "Ġazu": 3660,
      "cis": 3661,
      "Ġdobit": 3662,
      "Ġinformacijama": 3663,
      "Ġprovjera": 3664,
      "Ġulo": 3665,
      "kove": 3666,
      "jedno": 3667,
      "kar": 3668,
      "Ġprethodnog": 3669,
      "ceg": 3670,
      "Ġozbilj": 3671,
      "Ġproce": 3672,
      "Ġizracun": 3673,
      "Ġpotrebna": 3674,
      "Ġolaksa": 3675,
      "Ġnespo": 3676,
      "Ġutvrdila": 3677,
      "Ġcz": 3678,
      "Ġnece": 3679,
      "Ġnjezinu": 3680,
      "Ġstanju": 3681,
      "Ġupravi": 3682,
      "Ġamericke": 3683,
      "Ġtvor": 3684,
      "ĠgraÄĳe": 3685,
      "dlji": 3686,
      "Ġobzira": 3687,
      "Ġmt": 3688,
      "Ġklo": 3689,
      "Ġopreme": 3690,
      "Ġjavni": 3691,
      "snom": 3692,
      "Ġposebnim": 3693,
      "Ġbroje": 3694,
      "Ġstavaka": 3695,
      "ps": 3696,
      "javlje": 3697,
      "Ġfak": 3698,
      "niranje": 3699,
      "Ġclanci": 3700,
      "Ġprofi": 3701,
      "Ġtakvog": 3702,
      "Ġala": 3703,
      "Ġsljedecih": 3704,
      "Ġprivremene": 3705,
      "Ġpitanjima": 3706,
      "Ġdiskrimina": 3707,
      "Ġpodnijeti": 3708,
      "Ġsocijalne": 3709,
      "Ġtezi": 3710,
      "Ġmetode": 3711,
      "Ġukida": 3712,
      "Ġkva": 3713,
      "Ġcar": 3714,
      "Ġogranicenje": 3715,
      "pone": 3716,
      "Ġkomercija": 3717,
      "ktual": 3718,
      "Ġhidro": 3719,
      "Ġucinka": 3720,
      "dnom": 3721,
      "Ġstetu": 3722,
      "Ġpotpunosti": 3723,
      "ple": 3724,
      "Ġodlucio": 3725,
      "Ġministar": 3726,
      "Ġoptere": 3727,
      "Ġprimjenom": 3728,
      "Ġcine": 3729,
      "nda": 3730,
      "Ġel": 3731,
      "Ġvelici": 3732,
      "Ġzase": 3733,
      "que": 3734,
      "Ġucinkovitosti": 3735,
      "85": 3736,
      "Ġsmanjenja": 3737,
      "Ġ500": 3738,
      "Ġbor": 3739,
      "Ġzajednica": 3740,
      "Ġistovje": 3741,
      "bor": 3742,
      "Ġab": 3743,
      "Ġborav": 3744,
      "Ġvu": 3745,
      "Ġporezne": 3746,
      "Ġzajednicke": 3747,
      "Ġposljedica": 3748,
      "Ġnaravi": 3749,
      "formi": 3750,
      "Ġosoblja": 3751,
      "san": 3752,
      "Ġprometa": 3753,
      "Ġdk": 3754,
      "Ġuspostavlje": 3755,
      "Ġutjecati": 3756,
      "Ġukljuci": 3757,
      "Ġportugal": 3758,
      "Ġpredstavljaju": 3759,
      "Ġpritom": 3760,
      "ted": 3761,
      "Ġ300": 3762,
      "Ġnavedenim": 3763,
      "Ġslobode": 3764,
      "vini": 3765,
      "Ġas": 3766,
      "Ġnaveo": 3767,
      "Äĳen": 3768,
      "pen": 3769,
      "Ġsadrzi": 3770,
      "Ġazuri": 3771,
      "vale": 3772,
      "Ġjamstva": 3773,
      "dnost": 3774,
      "Ġracuno": 3775,
      "Ġnastan": 3776,
      "up": 3777,
      "Ġpostiza": 3778,
      "Ġpravilnika": 3779,
      "Ġâī": 3780,
      "Ġtipa": 3781,
      "Ġtempera": 3782,
      "tivni": 3783,
      "Ġpridru": 3784,
      "Ġvijecu": 3785,
      "zba": 3786,
      "Ġpodnositelja": 3787,
      "Ġdrzavu": 3788,
      "Ġogranicavanja": 3789,
      "Ġistog": 3790,
      "Ġzalitelj": 3791,
      "Ġljudi": 3792,
      "Ġkapaciteta": 3793,
      "Ġanalize": 3794,
      "Ġtrzisno": 3795,
      "cia": 3796,
      "Ġresur": 3797,
      "ls": 3798,
      "Ġgh": 3799,
      "Ġizvrsenja": 3800,
      "Ġstatus": 3801,
      "Ġpropis": 3802,
      "Ġpodlo": 3803,
      "Ġobjasnje": 3804,
      "Ġtocno": 3805,
      "46": 3806,
      "Ġistaknuo": 3807,
      "od": 3808,
      "Ġeven": 3809,
      "Ġskupina": 3810,
      "Ġpolu": 3811,
      "Ġtrajanje": 3812,
      "Ġuprave": 3813,
      "Ġsved": 3814,
      "Ġodgovornost": 3815,
      "Ġodgovora": 3816,
      "Ġsadrzavaju": 3817,
      "Ġsana": 3818,
      "Ġprihoda": 3819,
      "Ġtehnickih": 3820,
      "Ġstandardi": 3821,
      "Ġpodupi": 3822,
      "Ġkriterije": 3823,
      "sao": 3824,
      "Ġposte": 3825,
      "Ġsm": 3826,
      "Ġoci": 3827,
      "Ġproizvede": 3828,
      "Ġkretanja": 3829,
      "Ġprimjerice": 3830,
      "Ġnjihovo": 3831,
      "Ġsest": 3832,
      "Ġvalu": 3833,
      "Ġaspe": 3834,
      "Ġuspje": 3835,
      "volj": 3836,
      "Ġiso": 3837,
      "Ġcega": 3838,
      "Ġuglji": 3839,
      "geri": 3840,
      "rze": 3841,
      "Ġtrebale": 3842,
      "Ġobrade": 3843,
      "68": 3844,
      "37": 3845,
      "Ġskup": 3846,
      "him": 3847,
      "Ġprocjena": 3848,
      "Ġpostovanje": 3849,
      "Ġeventual": 3850,
      "Ġgoto": 3851,
      "Ġdoprinosa": 3852,
      "Ġtrecim": 3853,
      "Ġargument": 3854,
      "Ġgenera": 3855,
      "Ġinde": 3856,
      "Ġneobjavlje": 3857,
      "Ġdrugu": 3858,
      "Ġprivremeno": 3859,
      "Ġobjavlje": 3860,
      "ĠmeÄĳunarodne": 3861,
      "Ġobjektiv": 3862,
      "Ġprve": 3863,
      "Ġinterna": 3864,
      "sljetku": 3865,
      "Ġnaposljetku": 3866,
      "Ġracunovod": 3867,
      "Ġpopisa": 3868,
      "terna": 3869,
      "Ġpredmetnih": 3870,
      "mot": 3871,
      "Ġsituacije": 3872,
      "Ġzatvo": 3873,
      "Ġpocinje": 3874,
      "Ġtransakcija": 3875,
      "Ġjavnih": 3876,
      "ĠÐ¾": 3877,
      "49": 3878,
      "Ġkontrola": 3879,
      "nijeti": 3880,
      "Ġdrukcije": 3881,
      "Ġbude": 3882,
      "Ġpravilo": 3883,
      "Ġpartner": 3884,
      "Ġispunjavaju": 3885,
      "Ġdijelova": 3886,
      "Ġgmb": 3887,
      "Ġ110": 3888,
      "Ġvan": 3889,
      "Ġrevizije": 3890,
      "Ġpromjena": 3891,
      "Ġdose": 3892,
      "ld": 3893,
      "Ġpredmetnom": 3894,
      "Ġapa": 3895,
      "voji": 3896,
      "gh": 3897,
      "Ġagenata": 3898,
      "Ġogranici": 3899,
      "cko": 3900,
      "ckoj": 3901,
      "Ġprilagod": 3902,
      "Ġizbjega": 3903,
      "Ġdokaz": 3904,
      "Ġcha": 3905,
      "Ġnajprije": 3906,
      "biti": 3907,
      "kse": 3908,
      "Ġsudjelu": 3909,
      "Ġ120": 3910,
      "Ġhipoteka": 3911,
      "Ġgmbh": 3912,
      "Ġsredstvima": 3913,
      "Ġpodstavak": 3914,
      "Ġtret": 3915,
      "Ġdovodeci": 3916,
      "nita": 3917,
      "ĠproizvoÄĳaci": 3918,
      "41": 3919,
      "Ġtuzbenog": 3920,
      "lnoj": 3921,
      "Ġpobijana": 3922,
      "47": 3923,
      "fikacija": 3924,
      "Ġrasho": 3925,
      "Ġnajka": 3926,
      "Ġtransparent": 3927,
      "zava": 3928,
      "tivna": 3929,
      "Ġben": 3930,
      "Ġrazloge": 3931,
      "Ġotpada": 3932,
      "32": 3933,
      "Ġjavno": 3934,
      "Ġzele": 3935,
      "Ġspomenu": 3936,
      "Ġrumu": 3937,
      "ut": 3938,
      "Ġpogresku": 3939,
      "Ġkojemu": 3940,
      "Ġpostavlje": 3941,
      "Ġodba": 3942,
      "Ġosoblju": 3943,
      "zen": 3944,
      "Ġizmijeniti": 3945,
      "Ġkana": 3946,
      "Ġnajkasnije": 3947,
      "nite": 3948,
      "Ġfinal": 3949,
      "Ġrumunj": 3950,
      "Ġobvezujuca": 3951,
      "Ġodma": 3952,
      "Ġpomocu": 3953,
      "Ġplan": 3954,
      "jskog": 3955,
      "Ġtrgovine": 3956,
      "Ġdokumenata": 3957,
      "Ġoznakom": 3958,
      "Ġzdravlje": 3959,
      "Ġvremena": 3960,
      "Ġsprije": 3961,
      "Ġprocjenu": 3962,
      "ranom": 3963,
      "Ġdokument": 3964,
      "Ġpovecanje": 3965,
      "Ġgdje": 3966,
      "Ġarbitra": 3967,
      "Ġzasta": 3968,
      "Ġdefinicije": 3969,
      "Ġalterna": 3970,
      "Ġeuropskih": 3971,
      "Ġzastupnici": 3972,
      "88": 3973,
      "ĠodreÄĳena": 3974,
      "Ġracun": 3975,
      "Ġistodobno": 3976,
      "Ġpostavlja": 3977,
      "Ġopcem": 3978,
      "Äĳenju": 3979,
      "lar": 3980,
      "Ġnovih": 3981,
      "Ġsljedeca": 3982,
      "Ġzatim": 3983,
      "Ġuzajam": 3984,
      "Ġ1994": 3985,
      "Ġproporcionalnosti": 3986,
      "Ġgospodarske": 3987,
      "spen": 3988,
      "tova": 3989,
      "Ġevalu": 3990,
      "Ġkli": 3991,
      "Ġintele": 3992,
      "Ġujedinjene": 3993,
      "Ġimeno": 3994,
      "Ġengle": 3995,
      "znje": 3996,
      "Ġodnosa": 3997,
      "Ġosoblje": 3998,
      "Ġcinjenicu": 3999,
      "Ġpracenje": 4000,
      "Ġpravilno": 4001,
      "Ġ1510": 4002,
      "Ġintelektual": 4003,
      "Ġanaliza": 4004,
      "Ġnepro": 4005,
      "ĠutvrÄĳivanja": 4006,
      "Ġsada": 4007,
      "novlji": 4008,
      "Ġupotrebljavaju": 4009,
      "Ġye": 4010,
      "Ġdoho": 4011,
      "Ġobavljaju": 4012,
      "Ġgrupe": 4013,
      "Ġhla": 4014,
      "Ġobnovlji": 4015,
      "Ġdozvola": 4016,
      "Ġname": 4017,
      "ben": 4018,
      "Ð²": 4019,
      "Ġutjecaja": 4020,
      "Ġlv": 4021,
      "sla": 4022,
      "91": 4023,
      "Ġovlast": 4024,
      "Ġodluciti": 4025,
      "Ġsmiju": 4026,
      "ber": 4027,
      "Ġ267": 4028,
      "Ġservi": 4029,
      "Ġueu": 4030,
      "ria": 4031,
      "Ġnapomena": 4032,
      "Ġcm": 4033,
      "Ġsasta": 4034,
      "Ġbilja": 4035,
      "Ġdobavlja": 4036,
      "Ġproracu": 4037,
      "Ġnavedenom": 4038,
      "Ġsuspen": 4039,
      "Ġtla": 4040,
      "Ġmsfi": 4041,
      "cenom": 4042,
      "Ġinteres": 4043,
      "Ġcn": 4044,
      "Ġvlade": 4045,
      "ÏĢ": 4046,
      "Ġdodatka": 4047,
      "Ġpodlijezu": 4048,
      "Ġuklanja": 4049,
      "Ġprofesional": 4050,
      "Ġnabave": 4051,
      "lih": 4052,
      "Ġnepravi": 4053,
      "Ġfinan": 4054,
      "Ġnadokna": 4055,
      "car": 4056,
      "der": 4057,
      "rp": 4058,
      "Ġpresudio": 4059,
      "Ġdokazati": 4060,
      "Ġprijavlje": 4061,
      "lus": 4062,
      "ban": 4063,
      "Ġposlovne": 4064,
      "Ġvrlo": 4065,
      "Ġobuhvacene": 4066,
      "Ġkompone": 4067,
      "ĠodreÄĳenog": 4068,
      "nes": 4069,
      "Ġdakle": 4070,
      "Ġtvornica": 4071,
      "Ġodobri": 4072,
      "Ġstajaliste": 4073,
      "Ġspoje": 4074,
      "Ġoprema": 4075,
      "Ġgranice": 4076,
      "Ġpritu": 4077,
      "Ġprijedlo": 4078,
      "Ġpodnijela": 4079,
      "Ġporeznog": 4080,
      "Ġevalua": 4081,
      "Ġintervenije": 4082,
      "tivnog": 4083,
      "Ġdel": 4084,
      "Ġizla": 4085,
      "Ġrazinu": 4086,
      "Ġdoticne": 4087,
      "Ġwa": 4088,
      "Ġnjime": 4089,
      "Ġdijelo": 4090,
      "dnim": 4091,
      "Ġ127": 4092,
      "Ġradnog": 4093,
      "Ġsmatrao": 4094,
      "Ġobavljanje": 4095,
      "Ġneke": 4096,
      "Ġnatjecanje": 4097,
      "Ġsg": 4098,
      "Ġov": 4099,
      "Ġuspostavi": 4100,
      "Ġkonacno": 4101,
      "Ġtvar": 4102,
      "Ġae": 4103,
      "Ġeta": 4104,
      "Ġzakljuciti": 4105,
      "Ġprigovora": 4106,
      "Ġistrazivanja": 4107,
      "Ġneposte": 4108,
      "Ġpodvr": 4109,
      "Ġvoza": 4110,
      "Ġsprem": 4111,
      "Ġraspodje": 4112,
      "Ġposla": 4113,
      "nsku": 4114,
      "Ġuvede": 4115,
      "Ġgospodarski": 4116,
      "Ġvozilo": 4117,
      "tes": 4118,
      "Ġpriprav": 4119,
      "Ġranije": 4120,
      "Ġnjihovi": 4121,
      "Ġprijave": 4122,
      "Ġtehnolo": 4123,
      "Ġsudskom": 4124,
      "gna": 4125,
      "rr": 4126,
      "canju": 4127,
      "Ġposebnih": 4128,
      "Ð»": 4129,
      "Ġzlou": 4130,
      "Ġelement": 4131,
      "Ġoslobo": 4132,
      "gnu": 4133,
      "ljeno": 4134,
      "Ġglo": 4135,
      "Ġcelika": 4136,
      "Ġpruzaju": 4137,
      "Ġpotvrde": 4138,
      "pozi": 4139,
      "Ġkoordina": 4140,
      "Ġpravnim": 4141,
      "Ġpraksom": 4142,
      "Ġnjegovih": 4143,
      "Ġstope": 4144,
      "Ġodgovori": 4145,
      "proda": 4146,
      "Ġvino": 4147,
      "Ġdionica": 4148,
      "Ġponisti": 4149,
      "Ġitalija": 4150,
      "stro": 4151,
      "Ġkonvenci": 4152,
      "Ġelementi": 4153,
      "Ġpotpisa": 4154,
      "Ġtemeljnim": 4155,
      "Ġtrebali": 4156,
      "Ġfinancijskim": 4157,
      "Ġizvrsenje": 4158,
      "Ġdoslo": 4159,
      "Ġimovina": 4160,
      "Ġec": 4161,
      "savanja": 4162,
      "Ġmjesa": 4163,
      "Ġrezultata": 4164,
      "Ġ5493": 4165,
      "Ġsredis": 4166,
      "Ġodbijanje": 4167,
      "Ġstakle": 4168,
      "Ġdovolj": 4169,
      "Ġzakonom": 4170,
      "98": 4171,
      "ĠutvrÄĳeni": 4172,
      "Ġintegri": 4173,
      "Ġub": 4174,
      "Ġtajni": 4175,
      "Ġodabra": 4176,
      "Ġgospodarskih": 4177,
      "Ġupravni": 4178,
      "Ġgi": 4179,
      "Ġsv": 4180,
      "chi": 4181,
      "Ġpodlijeze": 4182,
      "Ġtumacenja": 4183,
      "Ġtraj": 4184,
      "Ġnezavisnog": 4185,
      "Ġrazlicitim": 4186,
      "Ġznatno": 4187,
      "Ġsporo": 4188,
      "Ġzakonodavac": 4189,
      "xi": 4190,
      "cijskim": 4191,
      "Ġmor": 4192,
      "stanka": 4193,
      "Ġodjeljku": 4194,
      "Ġohim": 4195,
      "Ġtakvim": 4196,
      "vanjima": 4197,
      "cku": 4198,
      "Ġtuzbi": 4199,
      "cnoj": 4200,
      "54": 4201,
      "Ġsituaciji": 4202,
      "Ġovo": 4203,
      "Ġyear": 4204,
      "movi": 4205,
      "Ġokru": 4206,
      "Ġpogresno": 4207,
      "Ġlinija": 4208,
      "Ġtona": 4209,
      "ĠpredviÄĳena": 4210,
      "Ġiznese": 4211,
      "pan": 4212,
      "67": 4213,
      "Ġzracnog": 4214,
      "Ġnaloga": 4215,
      "Ġradio": 4216,
      "snu": 4217,
      "Ġáĥ": 4218,
      "Ġosigurala": 4219,
      "Ġhol": 4220,
      "Ġprimjereno": 4221,
      "Ġopseg": 4222,
      "Ġmetil": 4223,
      "Ġodlucuje": 4224,
      "Ġ118": 4225,
      "tickih": 4226,
      "Ġinstrumenata": 4227,
      "mar": 4228,
      "Ġ549300": 4229,
      "ct": 4230,
      "sigu": 4231,
      "Ġtkani": 4232,
      "Ġodgovoriti": 4233,
      "Ġinova": 4234,
      "Ġghs": 4235,
      "Ġpravnu": 4236,
      "Ġobavjescuje": 4237,
      "Ġucinaka": 4238,
      "Ġzelje": 4239,
      "njoj": 4240,
      "Ġvlasnistva": 4241,
      "Ġkolatera": 4242,
      "ÏĤ": 4243,
      "Ġodmah": 4244,
      "Ġsama": 4245,
      "janju": 4246,
      "Ġupotrebu": 4247,
      "Ġdodatak": 4248,
      "Ġukupno": 4249,
      "ĠutvrÄĳenih": 4250,
      "Ġemisije": 4251,
      "Ġucinci": 4252,
      "Ġpovezani": 4253,
      "62": 4254,
      "Ġklima": 4255,
      "Ġnepos": 4256,
      "Ġnazna": 4257,
      "Ġmreza": 4258,
      "Ġoporezivanja": 4259,
      "Ġizuzece": 4260,
      "Ġsporazumom": 4261,
      "Ġ080": 4262,
      "Ġtroskovima": 4263,
      "ziju": 4264,
      "Ġiskljucujuci": 4265,
      "Ġaustri": 4266,
      "Ġsinte": 4267,
      "vnim": 4268,
      "Ġmikro": 4269,
      "cati": 4270,
      "Ġotka": 4271,
      "lektiv": 4272,
      "Ġtrajanja": 4273,
      "Ġobradu": 4274,
      "Ġuvodna": 4275,
      "ksima": 4276,
      "Ġstrucnja": 4277,
      "Ġsuradnji": 4278,
      "Ġizdavanja": 4279,
      "Ġhipotekarni": 4280,
      "Ġveteri": 4281,
      "Ġracunovodstve": 4282,
      "Ġrea": 4283,
      "Ġkm": 4284,
      "Ġuprava": 4285,
      "Ġsadrzaja": 4286,
      "Ġkce": 4287,
      "rin": 4288,
      "Ġpoljska": 4289,
      "Ġ}": 4290,
      "Ġdeklara": 4291,
      "vio": 4292,
      "Ġfar": 4293,
      "rea": 4294,
      "Ġrazlika": 4295,
      "mino": 4296,
      "Ġ109": 4297,
      "Ġizvor": 4298,
      "Ġpropisima": 4299,
      "Ġpreda": 4300,
      "Ġmla": 4301,
      "ĠutvrÄĳenima": 4302,
      "Ġ138": 4303,
      "Ġodrzavanje": 4304,
      "Ġomoguciti": 4305,
      "57": 4306,
      "Ġdrzavne": 4307,
      "Ġzahtijevaju": 4308,
      "Ġ{": 4309,
      "Ġmaterijali": 4310,
      "Ġtj": 4311,
      "Ġzapri": 4312,
      "Ġmg": 4313,
      "cs": 4314,
      "Ġsaze": 4315,
      "Ġposred": 4316,
      "Ġkroz": 4317,
      "Ġboravka": 4318,
      "Ġzemljama": 4319,
      "godi": 4320,
      "Ġzakonodavstvom": 4321,
      "reni": 4322,
      "Ġdrzavno": 4323,
      "Ġprovjeri": 4324,
      "it": 4325,
      "Ġ\"": 4326,
      "Ġukupni": 4327,
      "Ġdomaci": 4328,
      "Ġpis": 4329,
      "Ġdodjeljuje": 4330,
      "Ġpreosta": 4331,
      "Ġregistraciju": 4332,
      "Ġzahtijevati": 4333,
      "jma": 4334,
      "Ġsvrha": 4335,
      "Ġposilj": 4336,
      "Ġvrho": 4337,
      "Ġzalbu": 4338,
      "Ġcpc": 4339,
      "Ġtablica": 4340,
      "Ġisho": 4341,
      "Ġclanovi": 4342,
      "Ġ114": 4343,
      "torija": 4344,
      "Ġizjavu": 4345,
      "Ġinc": 4346,
      "stavu": 4347,
      "graf": 4348,
      "pusta": 4349,
      "Ġdokumenti": 4350,
      "Ġnjihov": 4351,
      "Ġpojasni": 4352,
      "Õ¡": 4353,
      "Ġlegitim": 4354,
      "Ġzeljeznic": 4355,
      "69": 4356,
      "cavanje": 4357,
      "Ġponudi": 4358,
      "Ġnizozemska": 4359,
      "Ġplana": 4360,
      "Ġdodaje": 4361,
      "Ġslucaja": 4362,
      "Ġpostici": 4363,
      "Ġ263": 4364,
      "Ġmirovi": 4365,
      "Ġustalje": 4366,
      "Ġkontrolu": 4367,
      "Ġizvrsi": 4368,
      "dera": 4369,
      "Ġuzgo": 4370,
      "teme": 4371,
      "Ġcimbe": 4372,
      "Ġzalbeno": 4373,
      "Ġnjo": 4374,
      "nad": 4375,
      "gre": 4376,
      "Ġpredmetima": 4377,
      "min": 4378,
      "Ġdija": 4379,
      "Ġkul": 4380,
      "Ġokvirne": 4381,
      "Ġodobrena": 4382,
      "Ġkorisni": 4383,
      "Ġ123": 4384,
      "Ġpriori": 4385,
      "Ġzoi": 4386,
      "Ġcrr": 4387,
      "Ġobras": 4388,
      "Ġsuradnju": 4389,
      "Ġdirektivu": 4390,
      "Ġkonta": 4391,
      "din": 4392,
      "rje": 4393,
      "Ġklije": 4394,
      "Ġpovezana": 4395,
      "Ġrelevan": 4396,
      "ngs": 4397,
      "Ġmotora": 4398,
      "Ġsklopi": 4399,
      "Ġkriterij": 4400,
      "cijskom": 4401,
      "Ġsituacija": 4402,
      "Ġnjome": 4403,
      "55": 4404,
      "Ġ150": 4405,
      "Ġstavci": 4406,
      "ya": 4407,
      "Ġdrustvima": 4408,
      "jskim": 4409,
      "Ġunutarnjim": 4410,
      "Ġgeo": 4411,
      "tila": 4412,
      "Ġstrojevi": 4413,
      "Ġpau": 4414,
      "Ġnadleznim": 4415,
      "Ġraspolozi": 4416,
      "Ġpapira": 4417,
      "Ġ119": 4418,
      "Ġcarine": 4419,
      "Ġnjihovim": 4420,
      "ĠpotvrÄĳuje": 4421,
      "Ġkiselina": 4422,
      "Ġzemljopisnog": 4423,
      "ration": 4424,
      "Ġ1995": 4425,
      "sije": 4426,
      "Ġkoristenja": 4427,
      "Ġpage": 4428,
      "Ġ320": 4429,
      "Ġsloze": 4430,
      "Ġpostrojenja": 4431,
      "Ġimao": 4432,
      "qua": 4433,
      "Ġprenosi": 4434,
      "Ġprovedba": 4435,
      "Ġinteresu": 4436,
      "dra": 4437,
      "Ġlikvi": 4438,
      "Ġcilju": 4439,
      "Ġisku": 4440,
      "Ġizvede": 4441,
      "Ġjavnoj": 4442,
      "Ġosje": 4443,
      "Ġzajednickom": 4444,
      "Ġ540": 4445,
      "Ġdostaviti": 4446,
      "84": 4447,
      "Ġ1996": 4448,
      "Ġpodnijeli": 4449,
      "Ġir": 4450,
      "Ġciljevi": 4451,
      "Ġbuga": 4452,
      "mp": 4453,
      "Ġjednu": 4454,
      "Ġfonda": 4455,
      "Ġuporaba": 4456,
      "Ġosobu": 4457,
      "blji": 4458,
      "dove": 4459,
      "Ġmjero": 4460,
      "Ġtreceg": 4461,
      "Ġizdava": 4462,
      "Ġnacelima": 4463,
      "Ġproizvodnji": 4464,
      "Ġteret": 4465,
      "Ġugovore": 4466,
      "znom": 4467,
      "Ġugovorima": 4468,
      "Ġizve": 4469,
      "ĠÃ": 4470,
      "Ġpriloze": 4471,
      "znim": 4472,
      "zp": 4473,
      "Ġprijava": 4474,
      "Ġprilogom": 4475,
      "Ġcivi": 4476,
      "Ġ1997": 4477,
      "stom": 4478,
      "Ġukupna": 4479,
      "Ġrn": 4480,
      "Ġder": 4481,
      "Ġsmjernice": 4482,
      "ĠroÄĳenja": 4483,
      "Ġpredlaze": 4484,
      "Ġsjedistem": 4485,
      "ĠâĢ¢": 4486,
      "dent": 4487,
      "Ġ135": 4488,
      "Ġaline": 4489,
      "Ġzrakoplova": 4490,
      "Ġzastupnik": 4491,
      "Ġinternational": 4492,
      "Ġnadleznih": 4493,
      "ĠâĢ²": 4494,
      "cc": 4495,
      "dnu": 4496,
      "Ġobuhvacena": 4497,
      "vnom": 4498,
      "Ġhtt": 4499,
      "ĠÐ¾d": 4500,
      "Ġcetvrto": 4501,
      "Ġnjezinih": 4502,
      "Ġmehaniza": 4503,
      "Ġgene": 4504,
      "Ġostvariti": 4505,
      "Ġsugla": 4506,
      "43": 4507,
      "mber": 4508,
      "sli": 4509,
      "Ġstanja": 4510,
      "Ġprometu": 4511,
      "Ġnjezinim": 4512,
      "Ġdjelovanje": 4513,
      "Ġ620": 4514,
      "Ġplina": 4515,
      "Ġponde": 4516,
      "Ġpoboljsa": 4517,
      "Ġclanicu": 4518,
      "Ġpate": 4519,
      "Ġodbio": 4520,
      "Ġposljedice": 4521,
      "tama": 4522,
      "Ġzu": 4523,
      "Ġdoprinos": 4524,
      "vijek": 4525,
      "Ġprovjeriti": 4526,
      "Ġpotvrda": 4527,
      "Ġrazlike": 4528,
      "Ġbli": 4529,
      "toc": 4530,
      "Ġobuhvaceni": 4531,
      "cie": 4532,
      "Ġnova": 4533,
      "Ġtribu": 4534,
      "Ġmogle": 4535,
      "Ġposebni": 4536,
      "Ġmaksima": 4537,
      "Ġredovi": 4538,
      "Ġzastitom": 4539,
      "Ġprirode": 4540,
      "Ġ117": 4541,
      "Ġdne": 4542,
      "mbo": 4543,
      "Ġpremasuje": 4544,
      "Ġciljeve": 4545,
      "Ġzloupora": 4546,
      "Ġbesp": 4547,
      "ĠutvrÄĳenim": 4548,
      "cho": 4549,
      "Ġrelevantnih": 4550,
      "Ġnaveden": 4551,
      "Ġmrs": 4552,
      "Ġnomen": 4553,
      "Ġpotpisi": 4554,
      "zin": 4555,
      "luo": 4556,
      "rnim": 4557,
      "Ġrezultat": 4558,
      "Ġponude": 4559,
      "tuje": 4560,
      "Ġspp": 4561,
      "Ġizbjeg": 4562,
      "Ġkemika": 4563,
      "ĠodreÄĳivanja": 4564,
      "Ġpravno": 4565,
      "Ġprednost": 4566,
      "Ġzdravlja": 4567,
      "Ġargumenti": 4568,
      "nia": 4569,
      "Ġdati": 4570,
      "Ġteri": 4571,
      "Ġizuzeca": 4572,
      "Ġregija": 4573,
      "logija": 4574,
      "Ġodstupanja": 4575,
      "Ġvlastite": 4576,
      "Ġnomenkla": 4577,
      "Ġpredmetna": 4578,
      "Ġjp": 4579,
      "Ġ600": 4580,
      "Ġzalba": 4581,
      "tions": 4582,
      "Ġkazni": 4583,
      "Ġgospodarskog": 4584,
      "Ġitd": 4585,
      "Ġprido": 4586,
      "ger": 4587,
      "Ġnaf": 4588,
      "Ġnet": 4589,
      "Ġupotrijebljenih": 4590,
      "ranjem": 4591,
      "Ġcarinska": 4592,
      "Ġprilagodbe": 4593,
      "Ġinfrastrukture": 4594,
      "Äĳenih": 4595,
      "Ġpodnesen": 4596,
      "Ġpolitika": 4597,
      "Ġglasi": 4598,
      "Ġradnih": 4599,
      "Ġ1992": 4600,
      "Ġnorma": 4601,
      "ĠutvrÄĳen": 4602,
      "ĠpredviÄĳenih": 4603,
      "Ġprvim": 4604,
      "Ġproracun": 4605,
      "Ġobveznik": 4606,
      "Ġdra": 4607,
      "Ġsastavlja": 4608,
      "65": 4609,
      "Ġ210": 4610,
      "Ġposlovnog": 4611,
      "ktora": 4612,
      "Ġposebna": 4613,
      "Ġuvijek": 4614,
      "Ġpojma": 4615,
      "Ġei": 4616,
      "Ġprihvatiti": 4617,
      "Ġklimat": 4618,
      "tnoj": 4619,
      "Ġporu": 4620,
      "Ġplinova": 4621,
      "Ġkreditna": 4622,
      "Ġzadovolja": 4623,
      "Ġmjeru": 4624,
      "Ġdodatno": 4625,
      "Ġmatic": 4626,
      "Ġunatoc": 4627,
      "Ġlabora": 4628,
      "Ġkonstru": 4629,
      "Ġpitanjem": 4630,
      "Ġcarinske": 4631,
      "Ġkarakteri": 4632,
      "100": 4633,
      "Ġneop": 4634,
      "Ġveceg": 4635,
      "Ġodgovarajucim": 4636,
      "Ġnamjerava": 4637,
      "Ġpagebreak": 4638,
      "Ġkvote": 4639,
      "vane": 4640,
      "spije": 4641,
      "Ġovisi": 4642,
      "Ġveze": 4643,
      "Ġotpre": 4644,
      "sari": 4645,
      "Ġistrage": 4646,
      "metri": 4647,
      "Ġizdaje": 4648,
      "ĠpredviÄĳen": 4649,
      "Ġnezavisni": 4650,
      "Ġopskr": 4651,
      "Ġprojekti": 4652,
      "Ġmasa": 4653,
      "Ġosiguralo": 4654,
      "uzda": 4655,
      "Ġvoda": 4656,
      "Ġpredsjednika": 4657,
      "per": 4658,
      "Ġoznaku": 4659,
      "Ġdro": 4660,
      "vrse": 4661,
      "75": 4662,
      "Ġupravnog": 4663,
      "Ġkandi": 4664,
      "200": 4665,
      "Ġstajalista": 4666,
      "Ġdokumentima": 4667,
      "Ġslicni": 4668,
      "Ġpodbro": 4669,
      "Ġkombina": 4670,
      "Ġsul": 4671,
      "Ġdodatni": 4672,
      "Ġgranica": 4673,
      "Ġglede": 4674,
      "Ġbije": 4675,
      "Ġcik": 4676,
      "Ġkonkurent": 4677,
      "Ġuteme": 4678,
      "Ġsudjelovanja": 4679,
      "Ġrodi": 4680,
      "Ġekolo": 4681,
      "zivanju": 4682,
      "Ġizvoznika": 4683,
      "ĠusklaÄĳenost": 4684,
      "Ġpobijanoj": 4685,
      "Ġdulji": 4686,
      "Ġmetodo": 4687,
      "Ġdiskre": 4688,
      "produ": 4689,
      "Ġodmo": 4690,
      "Õ¸": 4691,
      "ndes": 4692,
      "Ġrasprave": 4693,
      "Ġdelegirane": 4694,
      "Ġif": 4695,
      "Ġpocetka": 4696,
      "Ġpera": 4697,
      "Ġneosno": 4698,
      "obu": 4699,
      "Ġprekora": 4700,
      "Ġsati": 4701,
      "Ġvlasnistvo": 4702,
      "Ġalu": 4703,
      "Ġmehaniz": 4704,
      "zil": 4705,
      "Ġanalizu": 4706,
      "Ġvjerovni": 4707,
      "nciju": 4708,
      "ĠmeÄĳunarodnu": 4709,
      "Ġdefinici": 4710,
      "Ġvlasnistvu": 4711,
      "Ġkucan": 4712,
      "son": 4713,
      "Ġinstrumenta": 4714,
      "Ġsko": 4715,
      "63": 4716,
      "Ġsadrze": 4717,
      "Ġsti": 4718,
      "Ġpostojanja": 4719,
      "Ġnastoji": 4720,
      "Ġlat": 4721,
      "Ġdoslje": 4722,
      "Ġodredbom": 4723,
      "Ġcarinskog": 4724,
      "han": 4725,
      "Ġduzan": 4726,
      "Ġprenese": 4727,
      "Ġbelgija": 4728,
      "Ġpocinio": 4729,
      "Ġrazu": 4730,
      "Ġgospodarstva": 4731,
      "Ġuhi": 4732,
      "Ġdrzavnih": 4733,
      "Ġduzna": 4734,
      "Ġpremje": 4735,
      "Ġsmatrala": 4736,
      "ĠusklaÄĳivanje": 4737,
      "Ġcjelo": 4738,
      "42": 4739,
      "Ġdijelom": 4740,
      "Ġklau": 4741,
      "Ġzavrse": 4742,
      "Ġukraji": 4743,
      "Ġostvarivanje": 4744,
      "ton": 4745,
      "Ġkandida": 4746,
      "Ġposlovnim": 4747,
      "Îº": 4748,
      "Ġfoto": 4749,
      "Ġodjeljka": 4750,
      "Ġodabir": 4751,
      "Ġmobi": 4752,
      "Ġizvjesti": 4753,
      "Ġodboru": 4754,
      "Ġnavela": 4755,
      "Ġupi": 4756,
      "Ġsustavi": 4757,
      "Ġpodne": 4758,
      "Ġpojedno": 4759,
      "Ġstupi": 4760,
      "Ġsjeve": 4761,
      "briti": 4762,
      "Ġdoi": 4763,
      "Ġistom": 4764,
      "Ġupisa": 4765,
      "Ġpruzatelja": 4766,
      "Ġiznose": 4767,
      "Ġokolnost": 4768,
      "Ġraspolaze": 4769,
      "Ġklauzu": 4770,
      "Ġplasti": 4771,
      "tinu": 4772,
      "Ġoperator": 4773,
      "lli": 4774,
      "Ġodbitak": 4775,
      "ĠpredviÄĳenog": 4776,
      "Ġunutarnje": 4777,
      "Ġsebi": 4778,
      "Ġfre": 4779,
      "Ġekvi": 4780,
      "52": 4781,
      "Ġreferen": 4782,
      "Ġznacaja": 4783,
      "Ġzabrane": 4784,
      "Ġnabavi": 4785,
      "ĠusklaÄĳenosti": 4786,
      "Ġtuzitelju": 4787,
      "Ġelektronicke": 4788,
      "Ġputnika": 4789,
      "Ġstandarda": 4790,
      "Ġprepre": 4791,
      "ljenja": 4792,
      "Ġkaznenog": 4793,
      "zy": 4794,
      "Ġoblik": 4795,
      "Ġobiljez": 4796,
      "Ġizraz": 4797,
      "Ġgloba": 4798,
      "Ġosu": 4799,
      "Ġargumente": 4800,
      "Ġbruto": 4801,
      "obuhva": 4802,
      "Ġnapomene": 4803,
      "Ġnemaju": 4804,
      "92": 4805,
      "Ġnastavku": 4806,
      "Ġeuropa": 4807,
      "Ġnadleznog": 4808,
      "ljp": 4809,
      "Ġsveobuhva": 4810,
      "Ġugovoru": 4811,
      "Ġhk": 4812,
      "Ġucinkovitost": 4813,
      "Ġopcih": 4814,
      "Ġopca": 4815,
      "Ġodobriti": 4816,
      "Ġtrosari": 4817,
      "mati": 4818,
      "Ġprovjeru": 4819,
      "reno": 4820,
      "Ġblo": 4821,
      "010": 4822,
      "Ġrela": 4823,
      "Ġravno": 4824,
      "Ġoduzima": 4825,
      "Ġdostavljaju": 4826,
      "Ġnaro": 4827,
      "Ġbitno": 4828,
      "64": 4829,
      "turi": 4830,
      "rus": 4831,
      "Ġnajbo": 4832,
      "Ġzadaca": 4833,
      "Ġ140": 4834,
      "dnja": 4835,
      "Ġrelevantnim": 4836,
      "Ġpremi": 4837,
      "Ġsudovi": 4838,
      "Ġpregovo": 4839,
      "Ġrepre": 4840,
      "tivnim": 4841,
      "Ġnacelom": 4842,
      "Ġdvaju": 4843,
      "Ġfazi": 4844,
      "Ġkonacne": 4845,
      "Ġnista": 4846,
      "nce": 4847,
      "Ġposlovanja": 4848,
      "Ġkceri": 4849,
      "Ġjednakog": 4850,
      "Ġfil": 4851,
      "Ġpregleda": 4852,
      "Ġinstrumenti": 4853,
      "Ġvlastitih": 4854,
      "Ġpropisi": 4855,
      "Ġukupne": 4856,
      "sol": 4857,
      "Ġtumacenju": 4858,
      "Ġsustavom": 4859,
      "Ġnorve": 4860,
      "cnost": 4861,
      "Ġ250": 4862,
      "Ġcime": 4863,
      "Ġopasnosti": 4864,
      "Ġizgra": 4865,
      "Ġkontroli": 4866,
      "Ġsamosta": 4867,
      "Ðº": 4868,
      "Ġnepre": 4869,
      "Ġizvoza": 4870,
      "Ġtarifni": 4871,
      "Ġzapa": 4872,
      "Ġpoduzece": 4873,
      "Ġlje": 4874,
      "niranja": 4875,
      "Ġ520": 4876,
      "89": 4877,
      "Ġgove": 4878,
      "ĠureÄĳaja": 4879,
      "Ġdokazi": 4880,
      "Ġutjecu": 4881,
      "Ġkarti": 4882,
      "Ġkapital": 4883,
      "Ġtrgovinu": 4884,
      "valo": 4885,
      "Ġnositelj": 4886,
      "Ġzrakoplov": 4887,
      "Ġcou": 4888,
      "Ġ136": 4889,
      "Ġpretra": 4890,
      "bice": 4891,
      "Ġbar": 4892,
      "Ġsprecavanje": 4893,
      "Ġzalitelji": 4894,
      "Ġgroup": 4895,
      "Ġupra": 4896,
      "53": 4897,
      "Ġpote": 4898,
      "vajuci": 4899,
      "Ġgubitak": 4900,
      "Ġpouzda": 4901,
      "Ġpredo": 4902,
      "raka": 4903,
      "87": 4904,
      "Ġciljevima": 4905,
      "Ġeuratom": 4906,
      "Ġcijevi": 4907,
      "Ġvarija": 4908,
      "Ġprva": 4909,
      "Ġanalogi": 4910,
      "Ġproracuna": 4911,
      "Ġocijeniti": 4912,
      "Ġ130": 4913,
      "kovima": 4914,
      "Ġdodjele": 4915,
      "ad": 4916,
      "Ġvrstu": 4917,
      "Ġ400": 4918,
      "Ġslobodan": 4919,
      "Ġrezultati": 4920,
      "zeni": 4921,
      "Ġizvornosti": 4922,
      "Ġmigra": 4923,
      "Ġnalog": 4924,
      "Ġvrijedi": 4925,
      "Ġotpor": 4926,
      "Ġsan": 4927,
      "Ġsastavu": 4928,
      "Ġsvjeze": 4929,
      "stavio": 4930,
      "Ġobraza": 4931,
      "pisom": 4932,
      "59": 4933,
      "Ġporezna": 4934,
      "ĠodreÄĳenom": 4935,
      "sten": 4936,
      "Ġdodatnih": 4937,
      "Ġdeve": 4938,
      "Ġosiguranju": 4939,
      "Ġveca": 4940,
      "Ġpriznaje": 4941,
      "Ġboraviste": 4942,
      "Ġpoduzeti": 4943,
      "Ġ1993": 4944,
      "Ġsmjernica": 4945,
      "Ġpausa": 4946,
      "ĠmeÄĳunarodnog": 4947,
      "Ġsecera": 4948,
      "Ġsustavima": 4949,
      "Ġdodanu": 4950,
      "Ġogla": 4951,
      "Ġcarina": 4952,
      "Ġoksi": 4953,
      "Ġomje": 4954,
      "Ġtvrdnja": 4955,
      "kuje": 4956,
      "mera": 4957,
      "Ġreprodu": 4958,
      "Ġaktivnostima": 4959,
      "Ġprehrambe": 4960,
      "ĠmeÄĳunarodnim": 4961,
      "Ġjavnim": 4962,
      "Ġdizaj": 4963,
      "Ġino": 4964,
      "Ġodnos": 4965,
      "Ġmeso": 4966,
      "Ġobvezama": 4967,
      "stupanj": 4968,
      "Ġzam": 4969,
      "Ġtrgovini": 4970,
      "Ġprocjeni": 4971,
      "Ġzgra": 4972,
      "Ġaust": 4973,
      "Ġsvakoj": 4974,
      "81": 4975,
      "Ġtru": 4976,
      "Ġmlije": 4977,
      "Ġzatraziti": 4978,
      "Ġsy": 4979,
      "Î¼": 4980,
      "rnom": 4981,
      "Ġeuropsku": 4982,
      "Ġizreka": 4983,
      "Ġmjerodav": 4984,
      "Ġpotrebni": 4985,
      "Ġviii": 4986,
      "Ġslicne": 4987,
      "Ġpoglavlju": 4988,
      "Ġdodjelu": 4989,
      "Ġinvali": 4990,
      "Ġtakvu": 4991,
      "Ġplat": 4992,
      "Ġkorisnik": 4993,
      "Ġgrupa": 4994,
      "mio": 4995,
      "Ġobitelj": 4996,
      "pravo": 4997,
      "Ġdokumente": 4998,
      "Ġ139": 4999,
      "Ġsloboda": 5000,
      "Ġuobicajeno": 5001,
      "Ġodgovarajucih": 5002,
      "Ġ113": 5003,
      "ravanje": 5004,
      "Ġcjelokup": 5005,
      "kli": 5006,
      "Ġume": 5007,
      "Ġcetvrti": 5008,
      "Ġ2574": 5009,
      "ljan": 5010,
      "Ġdostave": 5011,
      "ed": 5012,
      "Ġfizicke": 5013,
      "Ġdonesene": 5014,
      "Ġace": 5015,
      "Ġrjesavanje": 5016,
      "Ġpoljoprivrednih": 5017,
      "Ġobjavljivanje": 5018,
      "Ġcps": 5019,
      "Ġtrenutacno": 5020,
      "Ġtip": 5021,
      "Ġtemeljnih": 5022,
      "Ġnjemu": 5023,
      "minira": 5024,
      "Ġureda": 5025,
      "Ġosnivanju": 5026,
      "Ġkarakteristi": 5027,
      "Ġglave": 5028,
      "Ġluke": 5029,
      "Ġ611": 5030,
      "Ġxx": 5031,
      "Ġsudovima": 5032,
      "Ġinspek": 5033,
      "Ġnovog": 5034,
      "las": 5035,
      "ticki": 5036,
      "Ġosjetlji": 5037,
      "71": 5038,
      "pom": 5039,
      "Ġvladu": 5040,
      "Ġprocijenje": 5041,
      "Ġprijevoznika": 5042,
      "Î»": 5043,
      "ntra": 5044,
      "Ġulaganje": 5045,
      "Ġmono": 5046,
      "Ġgospodarskom": 5047,
      "Ġpoljoprivredne": 5048,
      "Ġleta": 5049,
      "Ġtajnik": 5050,
      "Ġukljuceni": 5051,
      "Ġonima": 5052,
      "Ġodstupanje": 5053,
      "Ġprostora": 5054,
      "Ġizvrsavanje": 5055,
      "Ġupucivanje": 5056,
      "Ġzaj": 5057,
      "ravno": 5058,
      "Ġtehnicki": 5059,
      "Ġpravilni": 5060,
      "Ġkata": 5061,
      "Ġotva": 5062,
      "Ġche": 5063,
      "Ġnjezino": 5064,
      "Ġnjegovim": 5065,
      "rstvo": 5066,
      "Ġupucivanja": 5067,
      "Ġimena": 5068,
      "Ġkompen": 5069,
      "Ġodvoje": 5070,
      "Ġsuz": 5071,
      "ĠgraÄĳani": 5072,
      "Ġnajma": 5073,
      "Ġâī¤": 5074,
      "Ġput": 5075,
      "Ġpodrucjem": 5076,
      "Ġdvostru": 5077,
      "Õ¥": 5078,
      "Ġvjerojatno": 5079,
      "Ġnaslovljen": 5080,
      "Ġposlu": 5081,
      "Ġribolo": 5082,
      "Ġsvjetlo": 5083,
      "Ġspomenuti": 5084,
      "Ġkredita": 5085,
      "Ġdoticnog": 5086,
      "rid": 5087,
      "ĠÎ¼": 5088,
      "Ġber": 5089,
      "Ġugovorom": 5090,
      "Ġodredbu": 5091,
      "Ġdjeluje": 5092,
      "posle": 5093,
      "Ġtiska": 5094,
      "hy": 5095,
      "Ġdoista": 5096,
      "Ġneki": 5097,
      "wo": 5098,
      "Ġputa": 5099,
      "Ġdefinicija": 5100,
      "Ġtranspo": 5101,
      "gy": 5102,
      "Ġnrk": 5103,
      "zeno": 5104,
      "Ġnovo": 5105,
      "Ġnedis": 5106,
      "Ġjednostav": 5107,
      "lt": 5108,
      "Ġsteta": 5109,
      "Ġcijenama": 5110,
      "Ġdodatna": 5111,
      "Ġzaseb": 5112,
      "rski": 5113,
      "Ġzivotinjskog": 5114,
      "Ġsituaciju": 5115,
      "Ġ111": 5116,
      "znosti": 5117,
      "Ġekstra": 5118,
      "Ġpostojece": 5119,
      "Ġjednoj": 5120,
      "Ġ160": 5121,
      "Ġtretman": 5122,
      "Ġpodrijetlu": 5123,
      "tica": 5124,
      "Ġ124": 5125,
      "Ġnacr": 5126,
      "Ġverzija": 5127,
      "Ġteksta": 5128,
      "Ġkretanje": 5129,
      "Ġregistar": 5130,
      "Ġvrati": 5131,
      "Ġobjekti": 5132,
      "Ġomogucuju": 5133,
      "Ġpopra": 5134,
      "Ġupozo": 5135,
      "Ġugovori": 5136,
      "Ġvazno": 5137,
      "Ġupravo": 5138,
      "Ïī": 5139,
      "Ġ121": 5140,
      "Ġpotrazivanja": 5141,
      "Ġdrzavnog": 5142,
      "61": 5143,
      "Ġekvivale": 5144,
      "Ð´": 5145,
      "Ġaktivne": 5146,
      "Ġnacelno": 5147,
      "soli": 5148,
      "Ġodobrava": 5149,
      "Ġfunkcije": 5150,
      "Ġpoma": 5151,
      "Ġunutarnjeg": 5152,
      "Ġdoticna": 5153,
      "Ġsvica": 5154,
      "zenih": 5155,
      "Ġpm": 5156,
      "Ġupotrebljavati": 5157,
      "Ġzajednickim": 5158,
      "Ġimovinu": 5159,
      "Ġupute": 5160,
      "Ġ132": 5161,
      "Ġplatiti": 5162,
      "Ġboravista": 5163,
      "Ġposljedicno": 5164,
      "ĠureÄĳuje": 5165,
      "vana": 5166,
      "nilo": 5167,
      "Ġinstrument": 5168,
      "vent": 5169,
      "Ġuez": 5170,
      "Ġugovornih": 5171,
      "ĠmaÄĳarska": 5172,
      "ĠodreÄĳuju": 5173,
      "Ġumjesto": 5174,
      "Ġfinancijsku": 5175,
      "Ġodgovoru": 5176,
      "Ġdopusteno": 5177,
      "Ġdodatku": 5178,
      "Ġzakljucio": 5179,
      "Ġpristojbi": 5180,
      "Ġimovi": 5181,
      "Ġefsa": 5182,
      "tore": 5183,
      "Ġaro": 5184,
      "Ġsankcije": 5185,
      "Ġpresudom": 5186,
      "Ġizjavama": 5187,
      "lavnom": 5188,
      "vaca": 5189,
      "tkom": 5190,
      "Ġprojekta": 5191,
      "Ġsastoja": 5192,
      "tive": 5193,
      "Ġ134": 5194,
      "zenta": 5195,
      "Ġ610": 5196,
      "Ġuglavnom": 5197,
      "Ġtablice": 5198,
      "stica": 5199,
      "Ġsudova": 5200,
      "Ġraniji": 5201,
      "Ġ126": 5202,
      "nale": 5203,
      "Ġsvega": 5204,
      "cor": 5205,
      "Ġulje": 5206,
      "Ġmoci": 5207,
      "Ġpovecanja": 5208,
      "ĠutvrÄĳenje": 5209,
      "Ġpojasnje": 5210,
      "mid": 5211,
      "Ġotkrivanje": 5212,
      "Ġkreditnom": 5213,
      "Ġcent": 5214,
      "Ġvina": 5215,
      "Ġdoprinosi": 5216,
      "Ġmaj": 5217,
      "Ġsubjektima": 5218,
      "Ġdemo": 5219,
      "hla": 5220,
      "Ġkraju": 5221,
      "Ġprotivno": 5222,
      "Ġslova": 5223,
      "51": 5224,
      "Ġmojem": 5225,
      "Ġfranko": 5226,
      "Ġveterinar": 5227,
      "Ġmeri": 5228,
      "Ġopravdano": 5229,
      "Ġrelevantna": 5230,
      "Ġantidampinske": 5231,
      "Ġvidlji": 5232,
      "Ġrazvoju": 5233,
      "Ġistaknula": 5234,
      "82": 5235,
      "Ġradni": 5236,
      "Ġirska": 5237,
      "cenim": 5238,
      "Ġoblika": 5239,
      "Ġlijek": 5240,
      "Ġeti": 5241,
      "ron": 5242,
      "Ġora": 5243,
      "Ġkoma": 5244,
      "pp": 5245,
      "Ġnes": 5246,
      "Ġzaposlenika": 5247,
      "Ġpretpostavke": 5248,
      "forme": 5249,
      "Ġsljedecu": 5250,
      "Ġpriznati": 5251,
      "Ġtrgovanja": 5252,
      "Ġradnje": 5253,
      "Ġenergiju": 5254,
      "Ġspisa": 5255,
      "Ġbanka": 5256,
      "Ġsustave": 5257,
      "sk": 5258,
      "Ġobrazlozenja": 5259,
      "83": 5260,
      "ksembu": 5261,
      "Ġpodje": 5262,
      "Ġprimijenje": 5263,
      "Ġkasnije": 5264,
      "Ġverziji": 5265,
      "Ġizvrsiti": 5266,
      "Ġvaljanosti": 5267,
      "cavanja": 5268,
      "Ġluksembu": 5269,
      "Ġponuda": 5270,
      "Ġonecis": 5271,
      "Ġuputiti": 5272,
      "Ġposlodav": 5273,
      "Ġuzimaju": 5274,
      "Ġdonio": 5275,
      "Ġsastavni": 5276,
      "Ġpono": 5277,
      "Ġsredstvo": 5278,
      "snjava": 5279,
      "fc": 5280,
      "Ġnasu": 5281,
      "Ġkale": 5282,
      "ĠÂ·": 5283,
      "Ġpromatra": 5284,
      "Ġstrankama": 5285,
      "Ġholding": 5286,
      "Ġ850": 5287,
      "nat": 5288,
      "Ġsor": 5289,
      "miti": 5290,
      "Ġobo": 5291,
      "Ġzainteresirane": 5292,
      "ys": 5293,
      "Ġpoku": 5294,
      "Ġcita": 5295,
      "Ġonoga": 5296,
      "Ġnacionalnoj": 5297,
      "jskom": 5298,
      "nicke": 5299,
      "Ġdodijeljena": 5300,
      "Ġukupnog": 5301,
      "vid": 5302,
      "Ġstvarima": 5303,
      "Ġnepostojanje": 5304,
      "steni": 5305,
      "lazu": 5306,
      "Ġdivi": 5307,
      "nae": 5308,
      "Ġsvjedo": 5309,
      "Ġhranu": 5310,
      "Ġ440": 5311,
      "zbu": 5312,
      "Ġamo": 5313,
      "Ġpracenja": 5314,
      "pce": 5315,
      "Ġher": 5316,
      "cili": 5317,
      "tinui": 5318,
      "Ġsuradnja": 5319,
      "Ġzadace": 5320,
      "Ġgodini": 5321,
      "Ġkoze": 5322,
      "Ġsni": 5323,
      "Ġusvoji": 5324,
      "Ġsposobnosti": 5325,
      "Ġnukle": 5326,
      "Ġpotesko": 5327,
      "bel": 5328,
      "Ġpovrata": 5329,
      "hr": 5330,
      "Ġpoduzetnik": 5331,
      "Ġupotrijebiti": 5332,
      "Ġnositelja": 5333,
      "Ġfunkcioniranje": 5334,
      "Ġcjelovi": 5335,
      "tva": 5336,
      "Ġexcl": 5337,
      "Ġobvezno": 5338,
      "ir": 5339,
      "Ġtrosak": 5340,
      "Ġopasnost": 5341,
      "Ġty": 5342,
      "áĥĶ": 5343,
      "Ġrjese": 5344,
      "Ġkontinui": 5345,
      "Ġkategoriju": 5346,
      "Ġponderi": 5347,
      "Ġreza": 5348,
      "Ġpolozaju": 5349,
      "put": 5350,
      "Ġomogucilo": 5351,
      "Ġ025": 5352,
      "Ġupuci": 5353,
      "Ġfunkcija": 5354,
      "Ġminera": 5355,
      "juceg": 5356,
      "Ġpodsjeca": 5357,
      "Ġ122": 5358,
      "Ġobracuna": 5359,
      "Ġdonijelo": 5360,
      "Ġprakti": 5361,
      "godisnje": 5362,
      "Ġtesko": 5363,
      "Ġ145": 5364,
      "Ġopravdati": 5365,
      "Ġintegra": 5366,
      "nus": 5367,
      "laza": 5368,
      "Ġmoje": 5369,
      "Ġpredlozi": 5370,
      "Ġotopi": 5371,
      "Ġograniciti": 5372,
      "Ġprvostupanj": 5373,
      "rei": 5374,
      "Ġzajednici": 5375,
      "Ġtac": 5376,
      "Ġprojekata": 5377,
      "Ġpotom": 5378,
      "Ġslicno": 5379,
      "Ġotpad": 5380,
      "Ġnamijenjene": 5381,
      "Ġispravak": 5382,
      "Ġzigo": 5383,
      "Ġpubli": 5384,
      "Ġjavnom": 5385,
      "Ġstecaj": 5386,
      "Ġbank": 5387,
      "Ġdostupne": 5388,
      "Ġpostizanje": 5389,
      "Ġprivatnog": 5390,
      "Ġpriznavanje": 5391,
      "sul": 5392,
      "Ġzalbenim": 5393,
      "novima": 5394,
      "rbi": 5395,
      "Ġnadlezan": 5396,
      "Ġzemljista": 5397,
      "Ġreferentni": 5398,
      "Ġ129": 5399,
      "Ġneod": 5400,
      "Ġ116": 5401,
      "Ġkode": 5402,
      "Ġdepozi": 5403,
      "Ġdopustena": 5404,
      "Ġugovorna": 5405,
      "Ġpica": 5406,
      "Ġiznije": 5407,
      "ljenog": 5408,
      "Ġdijelove": 5409,
      "Ġpeto": 5410,
      "Ġobicno": 5411,
      "Ġmale": 5412,
      "Ġizmijenjen": 5413,
      "Ġmanjom": 5414,
      "79": 5415,
      "Ġuk": 5416,
      "Ġzadrzavanje": 5417,
      "stice": 5418,
      "Ġtablici": 5419,
      "Ġpogreske": 5420,
      "Ġdob": 5421,
      "Ġnacina": 5422,
      "Ġprethodne": 5423,
      "Ġtrecoj": 5424,
      "ĠgraÄĳevina": 5425,
      "Ġaran": 5426,
      "Ġoperacije": 5427,
      "ĠuvoÄĳenje": 5428,
      "Ġuhidbe": 5429,
      "Ġponavlja": 5430,
      "vila": 5431,
      "Ġprikaza": 5432,
      "Ġustanova": 5433,
      "Ġep": 5434,
      "Ġpotrosnje": 5435,
      "Ġkriterijima": 5436,
      "Ġstjecanje": 5437,
      "Ġregistracije": 5438,
      "Ġpopisu": 5439,
      "Ġobveznika": 5440,
      "ljivanja": 5441,
      "Ġpremjesta": 5442,
      "Ġpodlozno": 5443,
      "Ġupotrebe": 5444,
      "ler": 5445,
      "Ġpobijanu": 5446,
      "nsi": 5447,
      "Ġimala": 5448,
      "Ġhy": 5449,
      "nskoj": 5450,
      "Ġkamate": 5451,
      "Ġautor": 5452,
      "rori": 5453,
      "Ġ721": 5454,
      "Ġfarma": 5455,
      "mis": 5456,
      "Ġclanke": 5457,
      "lizacije": 5458,
      "Ġfle": 5459,
      "ww": 5460,
      "Ġnavodno": 5461,
      "Ġinozem": 5462,
      "cci": 5463,
      "Ġdavanje": 5464,
      "Ġanalizira": 5465,
      "Ġbrojem": 5466,
      "Ġcentra": 5467,
      "Ġdg": 5468,
      "Ġteritorija": 5469,
      "Ġer": 5470,
      "Ġfond": 5471,
      "Ġiznad": 5472,
      "Ġbit": 5473,
      "Ġzakonitosti": 5474,
      "Ġizvjescu": 5475,
      "ĠÎ±": 5476,
      "sobno": 5477,
      "Ġdugoro": 5478,
      "9900": 5479,
      "Ġgubitka": 5480,
      "Ġonog": 5481,
      "Ġkompenza": 5482,
      "Ġdobiveni": 5483,
      "lis": 5484,
      "Ġtransfe": 5485,
      "Ġsadrzavati": 5486,
      "Ġnere": 5487,
      "Ġpreporuke": 5488,
      "Ġprim": 5489,
      "Ġ1991": 5490,
      "Ġzv": 5491,
      "Ġpotje": 5492,
      "Ġrelevantni": 5493,
      "Ġzita": 5494,
      "cice": 5495,
      "Ġpotros": 5496,
      "Ġmodu": 5497,
      "Ġboravak": 5498,
      "Ġovje": 5499,
      "Ġimenova": 5500,
      "viju": 5501,
      "ruje": 5502,
      "Ġneizravno": 5503,
      "Ġutvrdilo": 5504,
      "Ġglavne": 5505,
      "Ġterori": 5506,
      "cenjem": 5507,
      "Ġ128": 5508,
      "Ġiskljucuje": 5509,
      "Ġsklapanje": 5510,
      "nickog": 5511,
      "Ġengleski": 5512,
      "Ġtijeku": 5513,
      "Ġprijevod": 5514,
      "Ġizmjenu": 5515,
      "Ġuvozne": 5516,
      "Ġobrane": 5517,
      "Ġnr": 5518,
      "Ġvodama": 5519,
      "nirane": 5520,
      "Ġkalendar": 5521,
      "wal": 5522,
      "Ġprovoditi": 5523,
      "Ġdeu": 5524,
      "Ġmasti": 5525,
      "Ġosposobljavanja": 5526,
      "Ġistrazivanje": 5527,
      "stene": 5528,
      "Ġjavna": 5529,
      "Ġbruxelles": 5530,
      "Ġdostupni": 5531,
      "Ġtada": 5532,
      "Ġplanira": 5533,
      "Ġtvrde": 5534,
      "Ġprethodnih": 5535,
      "Ġinformi": 5536,
      "Ġplete": 5537,
      "Ġdrzavljanstva": 5538,
      "Ġzabrana": 5539,
      "Ġumanje": 5540,
      "Ġtelevi": 5541,
      "dite": 5542,
      "Ġprethodnim": 5543,
      "Ġpravnom": 5544,
      "scu": 5545,
      "Ġorganizira": 5546,
      "Ġstrategi": 5547,
      "Ġoporezi": 5548,
      "Ġkonsoli": 5549,
      "Ġpodredno": 5550,
      "Ġpredvidjeti": 5551,
      "Ġ2023": 5552,
      "Ġnac": 5553,
      "Ġobrazac": 5554,
      "Ġou": 5555,
      "Ġmulti": 5556,
      "Ġrazlozima": 5557,
      "Ġispuniti": 5558,
      "Ġpisani": 5559,
      "Ġpodtocke": 5560,
      "Ġvisoko": 5561,
      "Ġrura": 5562,
      "lio": 5563,
      "Ġcompa": 5564,
      "Ġuklo": 5565,
      "Ġustav": 5566,
      "Ġrepublici": 5567,
      "Ġrazvrstava": 5568,
      "Ġobujam": 5569,
      "zda": 5570,
      "Ġbespo": 5571,
      "Ġpoljoprivreda": 5572,
      "Ġnaroda": 5573,
      "Ġkonvencija": 5574,
      "Ġdodijeliti": 5575,
      "Ġlijekova": 5576,
      "Ġrazmjene": 5577,
      "Ġrazreda": 5578,
      "Ġusva": 5579,
      "nn": 5580,
      "Ġosposobljavanje": 5581,
      "Ġmanji": 5582,
      "Ġtesti": 5583,
      "Ġoruz": 5584,
      "Ġznacajan": 5585,
      "Ġsvoja": 5586,
      "ĠÂ±": 5587,
      "Ġpretrp": 5588,
      "Ġea": 5589,
      "Ġcertifikata": 5590,
      "Ġkvota": 5591,
      "dam": 5592,
      "solu": 5593,
      "wie": 5594,
      "Ġ016": 5595,
      "48": 5596,
      "Ġnepravilnosti": 5597,
      "Ġsubjekte": 5598,
      "Ġvoce": 5599,
      "nomi": 5600,
      "mobi": 5601,
      "Ġvelike": 5602,
      "Ġneutra": 5603,
      "Ġrezo": 5604,
      "dbi": 5605,
      "Ġpovrce": 5606,
      "Ġbje": 5607,
      "Ġpristupu": 5608,
      "Ġschen": 5609,
      "Ġparlamentu": 5610,
      "Ġbespovra": 5611,
      "Ġobrazovanja": 5612,
      "ncima": 5613,
      "Ġpovrsine": 5614,
      "Ġvrhovni": 5615,
      "prijed": 5616,
      "Ġnepozna": 5617,
      "Ġrevizor": 5618,
      "Ġsklapanja": 5619,
      "Ġprekr": 5620,
      "Ġrazvrstavanje": 5621,
      "ĠmeÄĳunarodnih": 5622,
      "osigu": 5623,
      "Ġnijedan": 5624,
      "mei": 5625,
      "Ġgranicama": 5626,
      "Ġpostojecih": 5627,
      "nie": 5628,
      "ĠpredviÄĳeni": 5629,
      "strukturi": 5630,
      "Ġ141": 5631,
      "Ġtest": 5632,
      "Ġobujma": 5633,
      "Ġprednosti": 5634,
      "Ġispod": 5635,
      "Ġlogi": 5636,
      "Ġtje": 5637,
      "laska": 5638,
      "tis": 5639,
      "Ġsposobnost": 5640,
      "Ġidentifikacijski": 5641,
      "Ġpregled": 5642,
      "Ġzvsp": 5643,
      "Ġucinkom": 5644,
      "Ġwo": 5645,
      "Ġtreca": 5646,
      "Ġnjoj": 5647,
      "Ġdrzavljanin": 5648,
      "Ġuvodnim": 5649,
      "fon": 5650,
      "Ġzajednicka": 5651,
      "Ġplace": 5652,
      "Î¿Ïħ": 5653,
      "Ġstatusom": 5654,
      "Ġpruziti": 5655,
      "Ġtereta": 5656,
      "Ġ630": 5657,
      "Ġdirektor": 5658,
      "Ġpokretanje": 5659,
      "Ġpripadaju": 5660,
      "Ġnastana": 5661,
      "Ġporeznih": 5662,
      "Ġfunkcional": 5663,
      "rie": 5664,
      "Ġkiseline": 5665,
      "Ġreprezenta": 5666,
      "pli": 5667,
      "Ġtkanine": 5668,
      "Ġzasticenom": 5669,
      "Ġsol": 5670,
      "Ġodlukama": 5671,
      "Ġsaslusa": 5672,
      "Ġgod": 5673,
      "Ġplati": 5674,
      "raz": 5675,
      "Ġrestrukturi": 5676,
      "Ġunaprijed": 5677,
      "Ġ218": 5678,
      "Ġ1001": 5679,
      "ĠusklaÄĳivanju": 5680,
      "Ġpotrosac": 5681,
      "nema": 5682,
      "Ġwww": 5683,
      "spro": 5684,
      "Ġdie": 5685,
      "vani": 5686,
      "Ġstavljanja": 5687,
      "Ġoste": 5688,
      "Ġprevla": 5689,
      "Ġzaposljavanje": 5690,
      "Ġiskljuciti": 5691,
      "ws": 5692,
      "Ġnaziva": 5693,
      "Ġtekuci": 5694,
      "Ġreferentne": 5695,
      "Ġsupra": 5696,
      "met": 5697,
      "Ġ730": 5698,
      "vrijed": 5699,
      "Ġzadnje": 5700,
      "Ġzracni": 5701,
      "Ġsuci": 5702,
      "Ġautomatski": 5703,
      "Ġvelika": 5704,
      "wer": 5705,
      "Ġdostavila": 5706,
      "Ġflo": 5707,
      "Ġrazmot": 5708,
      "rativni": 5709,
      "stavanje": 5710,
      "Ġispitni": 5711,
      "Ġkorisnici": 5712,
      "stila": 5713,
      "Ġzapravo": 5714,
      "Ġprikupljanje": 5715,
      "Ġnavedenoj": 5716,
      "Ġpoboljsanje": 5717,
      "uzro": 5718,
      "Ġ168": 5719,
      "Ġboje": 5720,
      "Ġzadu": 5721,
      "Ġrs": 5722,
      "Ġtakvom": 5723,
      "Ġgodisnji": 5724,
      "Ġuporabi": 5725,
      "nis": 5726,
      "tivan": 5727,
      "krije": 5728,
      "Ġkombinira": 5729,
      "Ġizraza": 5730,
      "Ġmaterijal": 5731,
      "Ġ182": 5732,
      "mova": 5733,
      "zme": 5734,
      "Ġtajnistvu": 5735,
      "Ġzakljucila": 5736,
      "Ġopskrbe": 5737,
      "Ġpotonji": 5738,
      "Ġposebice": 5739,
      "Ġdostavio": 5740,
      "Ġzara": 5741,
      "Ġpamu": 5742,
      "ĠmeÄĳusobno": 5743,
      "áĥĲ": 5744,
      "Ġznacajke": 5745,
      "nciji": 5746,
      "Ġdiskriminacije": 5747,
      "Ġnadleznom": 5748,
      "dnju": 5749,
      "renih": 5750,
      "Ġother": 5751,
      "Ġprouzro": 5752,
      "Ġruc": 5753,
      "Ġcpa": 5754,
      "Ġreosigu": 5755,
      "Ġpovezan": 5756,
      "Ġpropisano": 5757,
      "Ġzona": 5758,
      "Ġpodstavku": 5759,
      "Ġposu": 5760,
      "jsko": 5761,
      "Ġrazmotriti": 5762,
      "áĥĺ": 5763,
      "Ġodgovorna": 5764,
      "Ġ1107": 5765,
      "Ġprivat": 5766,
      "Ġnaknadno": 5767,
      "Ġobjasni": 5768,
      "Ġtehnicka": 5769,
      "cal": 5770,
      "Ġaktima": 5771,
      "Ġvaznost": 5772,
      "Ġzatrazi": 5773,
      "Ġpodruz": 5774,
      "Ġgre": 5775,
      "Ġaustrija": 5776,
      "Ġpruzatelj": 5777,
      "Ġnavedenima": 5778,
      "Ġtex": 5779,
      "cat": 5780,
      "Ġprogramu": 5781,
      "Ġpak": 5782,
      "Ġprodaja": 5783,
      "Ġ1049": 5784,
      "Ġalumini": 5785,
      "Ġ157": 5786,
      "Ġsporna": 5787,
      "Ġudalje": 5788,
      "Ġprenose": 5789,
      "Ġkarakter": 5790,
      "Ġtemeljiti": 5791,
      "Ð¸Ñ": 5792,
      "Ġide": 5793,
      "Ġnovcanih": 5794,
      "Ġkapacitet": 5795,
      "Ġdrustve": 5796,
      "Ġtrzisni": 5797,
      "Ġobjavljuje": 5798,
      "Ġstjecanja": 5799,
      "Ġpoza": 5800,
      "Ġzigova": 5801,
      "Ġobrazlaganja": 5802,
      "bilnost": 5803,
      "Ġsudjeluju": 5804,
      "Ġdozvolu": 5805,
      "Ġiskoristena": 5806,
      "Ġtoksi": 5807,
      "Ġospora": 5808,
      "Ġocjenjivanje": 5809,
      "Ġsal": 5810,
      "Ġfull": 5811,
      "Ġnjemackoj": 5812,
      "ĠutvrÄĳenja": 5813,
      "Ġvoca": 5814,
      "nicom": 5815,
      "ĠÃĹ": 5816,
      "Ġistoj": 5817,
      "Ġmehanizam": 5818,
      "Ġrezolu": 5819,
      "llo": 5820,
      "kcija": 5821,
      "zacije": 5822,
      "Ġpredu": 5823,
      "Ġstatuta": 5824,
      "Ġprotokol": 5825,
      "rica": 5826,
      "Ġnjemacki": 5827,
      "Ġpozvati": 5828,
      "Ġoprem": 5829,
      "Ġtrzistem": 5830,
      "Ġsljedeceg": 5831,
      "97": 5832,
      "Ġkorisnicima": 5833,
      "Ġusme": 5834,
      "Ġulaska": 5835,
      "Ġspr": 5836,
      "Ġ529900": 5837,
      "Ġ167": 5838,
      "Ġasi": 5839,
      "Ġadministrativne": 5840,
      "Ġpostovati": 5841,
      "Ġneobjavljena": 5842,
      "Ġodlucivanje": 5843,
      "Ġodrzavanja": 5844,
      "Ġosnove": 5845,
      "Ġpostojanju": 5846,
      "sidija": 5847,
      "Ġukljucivati": 5848,
      "Ġsupsidija": 5849,
      "Ġrezultate": 5850,
      "Ġkontekst": 5851,
      "Ġchi": 5852,
      "Ġfaze": 5853,
      "Ġaktivnost": 5854,
      "56": 5855,
      "ser": 5856,
      "Ġkamata": 5857,
      "Ġprovedbenoj": 5858,
      "gericht": 5859,
      "Ġport": 5860,
      "Ġdoticni": 5861,
      "gg": 5862,
      "Ġdeuts": 5863,
      "Õ¡Õ": 5864,
      "Ġustaljenoj": 5865,
      "Ġpovu": 5866,
      "rre": 5867,
      "Ġspecifikacije": 5868,
      "des": 5869,
      "Ġkratko": 5870,
      "Ġlijeka": 5871,
      "Ġobiljezja": 5872,
      "Ġrezident": 5873,
      "Ġtehnologije": 5874,
      "Ġ147": 5875,
      "96": 5876,
      "Ġruko": 5877,
      "Ġdoticnih": 5878,
      "ficije": 5879,
      "Ġdviju": 5880,
      "Ġdrzavljanstvo": 5881,
      "Ġspoji": 5882,
      "Ġ180": 5883,
      "Ġmjerenje": 5884,
      "Ġuzrokova": 5885,
      "Ġ131": 5886,
      "Ġ0000": 5887,
      "Ġpostotak": 5888,
      "Ġsvedska": 5889,
      "Õ«": 5890,
      "Ġistim": 5891,
      "aktiv": 5892,
      "Ġund": 5893,
      "Ġ340": 5894,
      "ĠÎµ": 5895,
      "Ġprodava": 5896,
      "Ġstrani": 5897,
      "Ġvaze": 5898,
      "Ġrevidi": 5899,
      "Ġsudskog": 5900,
      "Ġdanska": 5901,
      "Ġsavjetovanje": 5902,
      "Ġciklu": 5903,
      "cijsko": 5904,
      "Ġtvrdnje": 5905,
      "Ġsport": 5906,
      "Ġponasanja": 5907,
      "Ġinn": 5908,
      "fikaciju": 5909,
      "Ġuzorko": 5910,
      "Ġdrzavljana": 5911,
      "Ġakte": 5912,
      "00000": 5913,
      "Ġagenti": 5914,
      "Ġbrojeva": 5915,
      "Ġsuko": 5916,
      "Ġbis": 5917,
      "Ġupravljanju": 5918,
      "Ġpolitic": 5919,
      "Ġobnovljive": 5920,
      "Ġglava": 5921,
      "Ġosobne": 5922,
      "Ġderi": 5923,
      "Ġintervenijent": 5924,
      "Ġhidroksi": 5925,
      "Ġlux": 5926,
      "Ġdospije": 5927,
      "plo": 5928,
      "Ġrelevantno": 5929,
      "Ġsire": 5930,
      "Ġnat": 5931,
      "001": 5932,
      "ot": 5933,
      "mann": 5934,
      "990": 5935,
      "Ġtelekom": 5936,
      "Ġzracne": 5937,
      "Ġkoncentracije": 5938,
      "Ġobavljati": 5939,
      "Ġrazmjenu": 5940,
      "Ġ133": 5941,
      "Ġsjediste": 5942,
      "Ġkomo": 5943,
      "Ġpojedinosti": 5944,
      "Ġ148": 5945,
      "Ġdvade": 5946,
      "metil": 5947,
      "Ġpristojba": 5948,
      "Ġinterese": 5949,
      "Ġvisoke": 5950,
      "Ġgume": 5951,
      "Ġmli": 5952,
      "Ġmesa": 5953,
      "staj": 5954,
      "Ġbespla": 5955,
      "Ġ137": 5956,
      "Ġclana": 5957,
      "Ġzraka": 5958,
      "ction": 5959,
      "Ġcarinski": 5960,
      "tine": 5961,
      "cd": 5962,
      "ĠproizvoÄĳace": 5963,
      "via": 5964,
      "lot": 5965,
      "Ġizvoznik": 5966,
      "lanja": 5967,
      "Ġnju": 5968,
      "Ġ720": 5969,
      "Ġrazmatranje": 5970,
      "Ġprekinuti": 5971,
      "cijsku": 5972,
      "Ġschengen": 5973,
      "Ġesma": 5974,
      "stanku": 5975,
      "Ġuka": 5976,
      "Ġvaljanost": 5977,
      "iti": 5978,
      "sch": 5979,
      "Ġbak": 5980,
      "Ġpojedinacne": 5981,
      "Ġkoe": 5982,
      "Ġkolateral": 5983,
      "Ġpotvrdu": 5984,
      "Ġprovedbenom": 5985,
      "Ġintelektualno": 5986,
      "Ġformula": 5987,
      "Ġnastanka": 5988,
      "Ġzz": 5989,
      "Ġpravilniku": 5990,
      "Ġsluzba": 5991,
      "Ġisprava": 5992,
      "Ġix": 5993,
      "Ġsudjelova": 5994,
      "Ġpreispitivanje": 5995,
      "Ġnastaviti": 5996,
      "Ġnadmeta": 5997,
      "Ġniz": 5998,
      "cin": 5999,
      "ĠodreÄĳenu": 6000,
      "miny": 6001,
      "Ġkazna": 6002,
      "dima": 6003,
      "Ġstupcu": 6004,
      "Ġvrijednosnih": 6005,
      "Ġosiguravanje": 6006,
      "Ġcetvrtog": 6007,
      "Ġuzorka": 6008,
      "Ġpropu": 6009,
      "Ġ021": 6010,
      "Ġonom": 6011,
      "Ġzanema": 6012,
      "Ġanalogiji": 6013,
      "Ġpojednostav": 6014,
      "Ġoperatora": 6015,
      "Ġstrukture": 6016,
      "Ġifrs": 6017,
      "Ġdopisom": 6018,
      "Ġuce": 6019,
      "Ġpodije": 6020,
      "Ġprimjenjiva": 6021,
      "Ġgminy": 6022,
      "nol": 6023,
      "jan": 6024,
      "Ġlaboratori": 6025,
      "sigur": 6026,
      "Ġisticu": 6027,
      "Ġ350": 6028,
      "Ġkontakt": 6029,
      "Ġnovim": 6030,
      "veni": 6031,
      "Ġobrada": 6032,
      "Ġrazlicito": 6033,
      "Ġopremu": 6034,
      "Ġkoncentracija": 6035,
      "zama": 6036,
      "Ġprograme": 6037,
      "Ġpodstavkom": 6038,
      "Ġprijet": 6039,
      "Ġodvjetnici": 6040,
      "Ġzajednickih": 6041,
      "Ġkonfe": 6042,
      "Ġ575": 6043,
      "Ġkvalificirane": 6044,
      "Ġkaznenih": 6045,
      "Ġgrija": 6046,
      "Ġ050": 6047,
      "Ġsed": 6048,
      "zol": 6049,
      "Ġnadzoru": 6050,
      "Ġrecenice": 6051,
      "Ġulazak": 6052,
      "Ġugljiko": 6053,
      "Ġujedinjenih": 6054,
      "Ġgorivo": 6055,
      "Ġzozp": 6056,
      "Ġodgovarajuca": 6057,
      "Ġina": 6058,
      "Ġ143": 6059,
      "Ġhar": 6060,
      "Ġsastoje": 6061,
      "Ġski": 6062,
      "ĠureÄĳaji": 6063,
      "Ġupotreba": 6064,
      "Ġmisljenjem": 6065,
      "Î¹Î±": 6066,
      "Ġ560": 6067,
      "Ġdoseg": 6068,
      "nami": 6069,
      "zbeni": 6070,
      "Ġtarifnih": 6071,
      "Ġrazlikuje": 6072,
      "Ġredovito": 6073,
      "pne": 6074,
      "Ġcarinskih": 6075,
      "Ġneus": 6076,
      "Ġobavjesci": 6077,
      "Ġobuhvacaju": 6078,
      "Ġ165": 6079,
      "Ġresursa": 6080,
      "jsku": 6081,
      "Ġsporni": 6082,
      "Ġizvanred": 6083,
      "Ġpriorite": 6084,
      "Ġsmjernicama": 6085,
      "Ġcijeni": 6086,
      "Ġkraljevini": 6087,
      "Ġsudskih": 6088,
      "Ġosnovna": 6089,
      "Ġnamijenjeni": 6090,
      "Ġrashla": 6091,
      "Ġaranzma": 6092,
      "Ġprisi": 6093,
      "ĠodreÄĳen": 6094,
      "Ġglavna": 6095,
      "sor": 6096,
      "Ġidentifici": 6097,
      "Ġuzorku": 6098,
      "ĠprovoÄĳenje": 6099,
      "Ġsjeme": 6100,
      "Ġdjeluju": 6101,
      "Ġrazred": 6102,
      "Ġned": 6103,
      "Ġnajveca": 6104,
      "Ġveliko": 6105,
      "Ġslobodu": 6106,
      "Ġapsolu": 6107,
      "Ġkraja": 6108,
      "Ġcijenu": 6109,
      "Ġrasprav": 6110,
      "Ġtekstilnih": 6111,
      "rami": 6112,
      "done": 6113,
      "Ġpovolj": 6114,
      "Ġobuhvacen": 6115,
      "Ġstani": 6116,
      "Ġmuta": 6117,
      "Ġudovo": 6118,
      "Ġvoj": 6119,
      "Ġomogucava": 6120,
      "Ġkonzu": 6121,
      "toksi": 6122,
      "Ġdimen": 6123,
      "Ġvjerodo": 6124,
      "Ġsvojstva": 6125,
      "granice": 6126,
      "Ġpojedinacno": 6127,
      "Ġpohra": 6128,
      "ravnote": 6129,
      "Ġpricu": 6130,
      "Ġizvrsava": 6131,
      "Ġkupa": 6132,
      "ye": 6133,
      "yl": 6134,
      "Ġreguli": 6135,
      "Ġmjesavine": 6136,
      "Ġindeks": 6137,
      "Ġisprave": 6138,
      "Ġinstitucijama": 6139,
      "Ġperadi": 6140,
      "Ġsolidar": 6141,
      "Ġregije": 6142,
      "Ġpotrebnih": 6143,
      "bilnosti": 6144,
      "Ġmjerenja": 6145,
      "tve": 6146,
      "Ġprijevozu": 6147,
      "Ġtransparentnosti": 6148,
      "Ġeuropo": 6149,
      "Ġmas": 6150,
      "Ġmanjim": 6151,
      "Ġukidanje": 6152,
      "Ġpostovanja": 6153,
      "Ġautori": 6154,
      "Ġ883": 6155,
      "Ġposjedu": 6156,
      "Ġkoeficije": 6157,
      "Ġkw": 6158,
      "dae": 6159,
      "Ġposljed": 6160,
      "Ġgrcka": 6161,
      "ĠdogaÄĳaja": 6162,
      "Ġ261": 6163,
      "Ġtehnologija": 6164,
      "Ġizbo": 6165,
      "Ġprimjedbe": 6166,
      "Ġnadzorom": 6167,
      "78": 6168,
      "Ġneslu": 6169,
      "Ġsubvencije": 6170,
      "Ġfondova": 6171,
      "Ġvanjske": 6172,
      "Ġdodijeljene": 6173,
      "Ġpotonje": 6174,
      "Ġkre": 6175,
      "Ġ142": 6176,
      "Ġur": 6177,
      "Ġretro": 6178,
      "Ġmeritu": 6179,
      "mno": 6180,
      "Ġpovrca": 6181,
      "au": 6182,
      "Ġ640": 6183,
      "Ġdjeteta": 6184,
      "Ġpriznavanja": 6185,
      "Ġvelicine": 6186,
      "Ġogranicena": 6187,
      "Ġpokretanju": 6188,
      "Ġradnom": 6189,
      "Ġdrzavna": 6190,
      "mas": 6191,
      "pio": 6192,
      "Ġnacrt": 6193,
      "Ġocjenjivanja": 6194,
      "Ġprote": 6195,
      "Ġodgode": 6196,
      "Ġnasupro": 6197,
      "cao": 6198,
      "Ġgov": 6199,
      "kao": 6200,
      "Ġzahtjevom": 6201,
      "Ġjedini": 6202,
      "Ġprepozna": 6203,
      "Ġsankcija": 6204,
      "Ġtehnickim": 6205,
      "Ġesto": 6206,
      "Ġsekundar": 6207,
      "nder": 6208,
      "Ġmlijec": 6209,
      "Ġobavljanja": 6210,
      "Ġneuskla": 6211,
      "Ġml": 6212,
      "Ġnormi": 6213,
      "Ġkarbo": 6214,
      "lam": 6215,
      "Ġelementima": 6216,
      "Ġodobrenju": 6217,
      "kul": 6218,
      "Ġnasuprot": 6219,
      "Ġodgovoran": 6220,
      "sam": 6221,
      "Ġstvo": 6222,
      "Ġovdje": 6223,
      "Ġnemogu": 6224,
      "Ġsporova": 6225,
      "Ġvremenski": 6226,
      "lacije": 6227,
      "Ġulogu": 6228,
      "ĠÏĦ": 6229,
      "Ġkolektiv": 6230,
      "Ġautonom": 6231,
      "bilje": 6232,
      "Ġpolje": 6233,
      "muli": 6234,
      "Ġpotreban": 6235,
      "Ġnamijenjena": 6236,
      "Ġtradi": 6237,
      "Ġluka": 6238,
      "sija": 6239,
      "Ġpoduzecima": 6240,
      "Ġposebnu": 6241,
      "Ġdaljnje": 6242,
      "Ġ2150": 6243,
      "Ġploce": 6244,
      "Ġdeset": 6245,
      "Ġzeljeza": 6246,
      "godisnjeg": 6247,
      "Ġzad": 6248,
      "Ġobvezni": 6249,
      "Ġizracunava": 6250,
      "har": 6251,
      "Ġsintetickih": 6252,
      "Ġdeblji": 6253,
      "Ġposeban": 6254,
      "Ġpusta": 6255,
      "Ġpomor": 6256,
      "Ġaparati": 6257,
      "Ġekvivalent": 6258,
      "Ġmol": 6259,
      "Ġnepovolj": 6260,
      "Ġpovrijedila": 6261,
      "Ġnarucitelj": 6262,
      "zual": 6263,
      "Ġ1990": 6264,
      "Ġekonomske": 6265,
      "Ġukljuciti": 6266,
      "Ġzalbi": 6267,
      "Ġsluzbenika": 6268,
      "Ġglu": 6269,
      "Ġfos": 6270,
      "difici": 6271,
      "Ġposilja": 6272,
      "Ġsmanjiti": 6273,
      "Ġnekretnine": 6274,
      "grafi": 6275,
      "Ġprovedbenih": 6276,
      "Ġfedera": 6277,
      "Ġsazna": 6278,
      "Ġprevlada": 6279,
      "Ġnorme": 6280,
      "Ġpribli": 6281,
      "Ġpake": 6282,
      "Ġhrana": 6283,
      "Ġ550": 6284,
      "Ġ184": 6285,
      "Ġproces": 6286,
      "Ġeuropsko": 6287,
      "kriminira": 6288,
      "Ġradne": 6289,
      "Ġodvija": 6290,
      "Ġdugotra": 6291,
      "Ġdaju": 6292,
      "Ġcarinskim": 6293,
      "Ġjednak": 6294,
      "Ġogranicava": 6295,
      "Ġnarodne": 6296,
      "Ġredak": 6297,
      "Ġbroju": 6298,
      "Ġrabi": 6299,
      "Ġpotvrdi": 6300,
      "Ġponasanje": 6301,
      "Ġprojekt": 6302,
      "Ġnikakav": 6303,
      "Ġlan": 6304,
      "Ġizracu": 6305,
      "cvr": 6306,
      "Ġuzdrza": 6307,
      "Ġsporu": 6308,
      "ĠmaÄĳar": 6309,
      "cenu": 6310,
      "Äĳivati": 6311,
      "Ġ170": 6312,
      "Ġmarke": 6313,
      "ĠgraÄĳevinarstvo": 6314,
      "Ġrijeci": 6315,
      "Ġtech": 6316,
      "rnost": 6317,
      "Ġpolozaja": 6318,
      "sh": 6319,
      "minje": 6320,
      "par": 6321,
      "tal": 6322,
      "Ġposlovnih": 6323,
      "Ġprogo": 6324,
      "Ġtrajanju": 6325,
      "Ġnamjene": 6326,
      "Ġizvjescivanja": 6327,
      "mjese": 6328,
      "Ġinsta": 6329,
      "Ġstaklenickih": 6330,
      "Ġdohodak": 6331,
      "Ġtreti": 6332,
      "Ġnesluzbeni": 6333,
      "Ġed": 6334,
      "Ġupla": 6335,
      "Ġsmatralo": 6336,
      "Ġizvjestaj": 6337,
      "Ġputovanja": 6338,
      "Ġzdravstvene": 6339,
      "Ġreci": 6340,
      "Ġstupnja": 6341,
      "krb": 6342,
      "Ġdivide": 6343,
      "Ġuspostaviti": 6344,
      "Ġkota": 6345,
      "Ġovlasteni": 6346,
      "Ġzatrazio": 6347,
      "Ġdovrse": 6348,
      "caju": 6349,
      "Ġstvarnog": 6350,
      "Ġ178": 6351,
      "Ġsuzbija": 6352,
      "kupan": 6353,
      "stoce": 6354,
      "Ġkultu": 6355,
      "Ġunutarnjem": 6356,
      "Ġstvarne": 6357,
      "Ġdodijeli": 6358,
      "Ġsmr": 6359,
      "Ġudruzenja": 6360,
      "Ġpoduzimaju": 6361,
      "Ġelektronickih": 6362,
      "Ġprovela": 6363,
      "Ġpriklju": 6364,
      "Ġsmo": 6365,
      "Ġacu": 6366,
      "Ġsluzbi": 6367,
      "Ġprovi": 6368,
      "Ġobvezuje": 6369,
      "Ġsnaga": 6370,
      "Ġfrancuski": 6371,
      "Ġreferentnog": 6372,
      "sis": 6373,
      "Ġgoveda": 6374,
      "Ġdvoj": 6375,
      "Ġmsc": 6376,
      "Ġsituacijama": 6377,
      "Ġtuziteljica": 6378,
      "nit": 6379,
      "Ġzahva": 6380,
      "Ġpredstavnika": 6381,
      "Ġnikakve": 6382,
      "Ġukljucene": 6383,
      "Ġpripisa": 6384,
      "Ġujedna": 6385,
      "Ġ310": 6386,
      "Ġracunal": 6387,
      "Ġsirine": 6388,
      "Ġpodnesene": 6389,
      "Ġshe": 6390,
      "int": 6391,
      "Ġprijevoznik": 6392,
      "Ġnepristra": 6393,
      "Ġispitivanju": 6394,
      "Ġunos": 6395,
      "Ġintervenci": 6396,
      "Ġzakonodavstvu": 6397,
      "Ġotvore": 6398,
      "Ġinicijative": 6399,
      "0010": 6400,
      "Ġobuhvacenih": 6401,
      "Ġmet": 6402,
      "Ġcl": 6403,
      "Ġkora": 6404,
      "Ġoptu": 6405,
      "Ġautomobi": 6406,
      "ĠureÄĳuju": 6407,
      "saka": 6408,
      "Ġprethodnom": 6409,
      "ĠuvoÄĳenja": 6410,
      "Ġovr": 6411,
      "Ġprostoru": 6412,
      "Ġkolicinu": 6413,
      "Ġstaro": 6414,
      "Ġprogrami": 6415,
      "Ġpribor": 6416,
      "Ġradno": 6417,
      "Ġargumentacija": 6418,
      "Ġjedinstveni": 6419,
      "Ġ149": 6420,
      "mana": 6421,
      "Ġara": 6422,
      "Ġrijecima": 6423,
      "cion": 6424,
      "Ġjamstvo": 6425,
      "Ġnadzi": 6426,
      "Ġispitnom": 6427,
      "Ġnaslje": 6428,
      "Ġenergetske": 6429,
      "Ġcinjenicama": 6430,
      "Ġzone": 6431,
      "Ġhttp": 6432,
      "povi": 6433,
      "Ġ152": 6434,
      "Ġ155": 6435,
      "Ġpokrenuti": 6436,
      "Ġjaja": 6437,
      "ntima": 6438,
      "Ġkomple": 6439,
      "Ġmehanizma": 6440,
      "verza": 6441,
      "Ġrezerva": 6442,
      "Ġmoto": 6443,
      "Ġporeme": 6444,
      "Ġobavijestiti": 6445,
      "Ġproduljenje": 6446,
      "znja": 6447,
      "ĠusklaÄĳivanja": 6448,
      "stave": 6449,
      "Ġvol": 6450,
      "Ġzabilje": 6451,
      "Ġplin": 6452,
      "Ġzaposlenja": 6453,
      "Ġprituzbe": 6454,
      "Ġ510": 6455,
      "Ġtrzisnom": 6456,
      "Ġpokretanja": 6457,
      "baÄĳa": 6458,
      "Ġslicnih": 6459,
      "Ġpripravci": 6460,
      "ĠoslobaÄĳa": 6461,
      "unika": 6462,
      "sila": 6463,
      "Ġnami": 6464,
      "Ġfizicka": 6465,
      "Ġ1068": 6466,
      "Ġuvesti": 6467,
      "Ġzabranjuje": 6468,
      "kciju": 6469,
      "Ġprevo": 6470,
      "Ġcertifici": 6471,
      "Ġzbro": 6472,
      "Ġ153": 6473,
      "Ġinicijativu": 6474,
      "Ġocekivanja": 6475,
      "Ġmaloproda": 6476,
      "Ġpredlo": 6477,
      "Ġ270": 6478,
      "Ġnuklear": 6479,
      "dbu": 6480,
      "Ġodbijanju": 6481,
      "ine": 6482,
      "Ġ347": 6483,
      "Ñĥ": 6484,
      "Ġaku": 6485,
      "Ġstaviti": 6486,
      "Ġzao": 6487,
      "Ġsprje": 6488,
      "Ġrq": 6489,
      "Ġjezika": 6490,
      "Ġstavljaju": 6491,
      "Ġkumula": 6492,
      "minal": 6493,
      "Ġsavezna": 6494,
      "Ġkor": 6495,
      "Ġrez": 6496,
      "Ġ700": 6497,
      "Ġkomponente": 6498,
      "vnu": 6499,
      "Ġmer": 6500,
      "Ġcin": 6501,
      "Ġreviziju": 6502,
      "Ġpakiranja": 6503,
      "ranoj": 6504,
      "Ġdodjeljuju": 6505,
      "Ġland": 6506,
      "Ġ154": 6507,
      "Ġdokazivanja": 6508,
      "Ġjedino": 6509,
      "ĠuvoÄĳenju": 6510,
      "Ġopskrb": 6511,
      "Ġzatrazila": 6512,
      "Ġ151": 6513,
      "Ġupucen": 6514,
      "ĠpoÅĤ": 6515,
      "Ġjesti": 6516,
      "Ġprimitka": 6517,
      "Ġgeneri": 6518,
      "Ġznanja": 6519,
      "Ġpotrosnja": 6520,
      "Ġzastupaju": 6521,
      "Ġnapu": 6522,
      "Ġposloda": 6523,
      "Ġposljednje": 6524,
      "Ġzapoce": 6525,
      "Ġinstrumente": 6526,
      "Ġss": 6527,
      "Ġizvrsavanja": 6528,
      "hvatiti": 6529,
      "Ġtemeljna": 6530,
      "tki": 6531,
      "Ġgodisnjeg": 6532,
      "Ġpotpis": 6533,
      "Ġzrakoplo": 6534,
      "Ġ330": 6535,
      "bar": 6536,
      "Ġzaposljavanja": 6537,
      "Ġsluzbenoj": 6538,
      "Ġ144": 6539,
      "Ġav": 6540,
      "ker": 6541,
      "Ġspomenutih": 6542,
      "Ġtranzi": 6543,
      "Ġpromicanje": 6544,
      "Ġokon": 6545,
      "Ġposa": 6546,
      "Ġzvu": 6547,
      "Ġvlasnik": 6548,
      "Ġnajvi": 6549,
      "Ġfinancijskom": 6550,
      "72": 6551,
      "Ġpredmetnim": 6552,
      "Ġproi": 6553,
      "Ġduha": 6554,
      "Ġonemogu": 6555,
      "Ġizva": 6556,
      "Ġdemokra": 6557,
      "Ġ722": 6558,
      "Ġsesto": 6559,
      "Ġnastanom": 6560,
      "Ġceska": 6561,
      "Ġmanda": 6562,
      "73": 6563,
      "Ġvjerojatnost": 6564,
      "Ġzalbenom": 6565,
      "Ġvrsti": 6566,
      "Ġnarav": 6567,
      "lc": 6568,
      "Ġgubitaka": 6569,
      "Ġpostavio": 6570,
      "Ġ480": 6571,
      "lim": 6572,
      "Ġobavjescuju": 6573,
      "ĠureÄĳaj": 6574,
      "Ġizdala": 6575,
      "Ġpari": 6576,
      "Ġpredmeti": 6577,
      "neta": 6578,
      "Ġkovina": 6579,
      "Ġsami": 6580,
      "Ġbundes": 6581,
      "Ġizravna": 6582,
      "port": 6583,
      "setog": 6584,
      "Ġduga": 6585,
      "Ġby": 6586,
      "Ġdodjeli": 6587,
      "Ġjedinstvenog": 6588,
      "Ġpostojati": 6589,
      "Ġreto": 6590,
      "Ġapara": 6591,
      "Ġdopustenost": 6592,
      "Ġumjetnih": 6593,
      "Ġtvrdnji": 6594,
      "Ġji": 6595,
      "Ġlinije": 6596,
      "Ġnjegovoj": 6597,
      "Ġljudskih": 6598,
      "Ġtrzistima": 6599,
      "Ġvijecem": 6600,
      "Ġbolje": 6601,
      "Ġrsms": 6602,
      "Ġuklanjanje": 6603,
      "rodi": 6604,
      "Ġqrre": 6605,
      "Ġtrgovackim": 6606,
      "Ġpocetku": 6607,
      "Ġnize": 6608,
      "Ġsmot": 6609,
      "Ġolaf": 6610,
      "Ġiscr": 6611,
      "Ġuzasto": 6612,
      "Ġrqrr": 6613,
      "Ġpotkrije": 6614,
      "Ġsaslusanje": 6615,
      "Ġsuprotnosti": 6616,
      "Ġogranicen": 6617,
      "Ġstruktura": 6618,
      "Ġ156": 6619,
      "Ġjamci": 6620,
      "Ġperio": 6621,
      "Ġfluo": 6622,
      "Ġneka": 6623,
      "Ġsigna": 6624,
      "Ġ166": 6625,
      "Ġtalijanska": 6626,
      "ning": 6627,
      "Ġpredlazem": 6628,
      "Ġraspored": 6629,
      "Ġkonkure": 6630,
      "Ġzablu": 6631,
      "Ġimenovanje": 6632,
      "Ġslobodnog": 6633,
      "Ġposiljke": 6634,
      "Ġopsega": 6635,
      "Ġdokumentacije": 6636,
      "pt": 6637,
      "Ġlini": 6638,
      "áĥĶáĥ": 6639,
      "Î³": 6640,
      "zavaju": 6641,
      "Ġprogramima": 6642,
      "Ġtrgovina": 6643,
      "Ġvremenu": 6644,
      "cavaju": 6645,
      "Ġpokrive": 6646,
      "Ġ060": 6647,
      "Ġdonosenju": 6648,
      "Ġizvozne": 6649,
      "Ġtelevizi": 6650,
      "hidro": 6651,
      "Ġsekuriti": 6652,
      "Ġnadzorno": 6653,
      "Ġred": 6654,
      "Ġvezu": 6655,
      "meinde": 6656,
      "Ġsudjeluje": 6657,
      "Ġdjelotvornosti": 6658,
      "Ġelementa": 6659,
      "Ġfrek": 6660,
      "cica": 6661,
      "Ġstupanje": 6662,
      "Ġverba": 6663,
      "Ġnikakvu": 6664,
      "Ġprikaz": 6665,
      "Ġduznosnika": 6666,
      "Ġnedostatku": 6667,
      "Ġravnote": 6668,
      "Ġkomunikacije": 6669,
      "Ġpodupire": 6670,
      "Ġkazneno": 6671,
      "Ġradnik": 6672,
      "Ġulazi": 6673,
      "ljiti": 6674,
      "Ġwto": 6675,
      "limina": 6676,
      "pise": 6677,
      "Ġkomunikacija": 6678,
      "Ġ015": 6679,
      "Ġdovode": 6680,
      "Ġpodo": 6681,
      "Ġrumunjska": 6682,
      "Ġtype": 6683,
      "Ġdokumentu": 6684,
      "Ġzastitne": 6685,
      "Ġpogreska": 6686,
      "Ġstruko": 6687,
      "Ġiznio": 6688,
      "Ġtraze": 6689,
      "Ġpovrsina": 6690,
      "Ġeviden": 6691,
      "Ġtelekomunika": 6692,
      "Ġuslugu": 6693,
      "Ġ161": 6694,
      "Ġonaj": 6695,
      "Ġmember": 6696,
      "scha": 6697,
      "Ġprista": 6698,
      "Ġnapomenuti": 6699,
      "Ġkonzer": 6700,
      "Ġpunje": 6701,
      "bije": 6702,
      "Ġokvirnog": 6703,
      "jm": 6704,
      "Ġmagne": 6705,
      "Äĳenjem": 6706,
      "Ġmanja": 6707,
      "et": 6708,
      "Ġspornog": 6709,
      "ras": 6710,
      "Äĳenog": 6711,
      "Ġpisanom": 6712,
      "Ġpojedinacnih": 6713,
      "Ġniza": 6714,
      "Ġprijeva": 6715,
      "Ġslobodnom": 6716,
      "Ġgemeinde": 6717,
      "76": 6718,
      "Ġ172": 6719,
      "Ġnaslov": 6720,
      "Ġdovelo": 6721,
      "Ġstranci": 6722,
      "sic": 6723,
      "Ġizvjestitelj": 6724,
      "Ġusko": 6725,
      "Ġinst": 6726,
      "godis": 6727,
      "mijeni": 6728,
      "Ġodgovarajucu": 6729,
      "Ġukupan": 6730,
      "Ġslove": 6731,
      "Ġtrgovackih": 6732,
      "Ġaqua": 6733,
      "Ġneopravda": 6734,
      "gani": 6735,
      "Ġocuvanja": 6736,
      "Ġklasifici": 6737,
      "Ġoznaci": 6738,
      "Ġtrazbi": 6739,
      "ktra": 6740,
      "Ġnekretninama": 6741,
      "Ġ260": 6742,
      "Ġuzi": 6743,
      "Ġkoliko": 6744,
      "Ġdrzavnim": 6745,
      "Ġobna": 6746,
      "Ġkupo": 6747,
      "Ġizmjenama": 6748,
      "Ġodrazava": 6749,
      "Ġdefinirano": 6750,
      "Ġkljucna": 6751,
      "Ġzastupnika": 6752,
      "Ġindone": 6753,
      "Ġuniverza": 6754,
      "Ġemisijskih": 6755,
      "Ġventi": 6756,
      "Ġpravomo": 6757,
      "Ġvolu": 6758,
      "Ġdulje": 6759,
      "Ġsha": 6760,
      "Ġzapovje": 6761,
      "Ġprona": 6762,
      "Ġsame": 6763,
      "Ġamino": 6764,
      "znice": 6765,
      "Ġmc": 6766,
      "Ġ800": 6767,
      "Ġ0207": 6768,
      "Ġ2694": 6769,
      "Ġ900": 6770,
      "Ġrazumno": 6771,
      "Ġmodela": 6772,
      "Ġupitni": 6773,
      "Ġbrzina": 6774,
      "Ġsvojstve": 6775,
      "Ġneposred": 6776,
      "Ġgeneral": 6777,
      "wy": 6778,
      "Ġneposredno": 6779,
      "ropera": 6780,
      "ÐµÐ½": 6781,
      "Ġodstupajuci": 6782,
      "tivnu": 6783,
      "Ġ146": 6784,
      "Ġoe": 6785,
      "Ġprosu": 6786,
      "Ġoslanja": 6787,
      "Ġodste": 6788,
      "tte": 6789,
      "Ġuvodnu": 6790,
      "Ġistraga": 6791,
      "Ġsredisnja": 6792,
      "Ġgotovo": 6793,
      "Ġbrzine": 6794,
      "Ġpoh": 6795,
      "Ġodredista": 6796,
      "missi": 6797,
      "Ġpreporuka": 6798,
      "Ġpretpostavlja": 6799,
      "Ġocekuje": 6800,
      "Ġlimi": 6801,
      "Ġkasnje": 6802,
      "dzbe": 6803,
      "Ġsveu": 6804,
      "Ġodlucivanja": 6805,
      "like": 6806,
      "gnuti": 6807,
      "Ġdetaljnih": 6808,
      "Ġdetaljno": 6809,
      "Ġplanu": 6810,
      "Ġsporazumima": 6811,
      "Ġporeznim": 6812,
      "Ġeco": 6813,
      "ĠodreÄĳivanju": 6814,
      "Ġic": 6815,
      "guje": 6816,
      "Ġfondu": 6817,
      "Ġskupini": 6818,
      "Ġ343": 6819,
      "Ġintelektualnog": 6820,
      "Ġdebljine": 6821,
      "Ġpocinila": 6822,
      "Ġposebnog": 6823,
      "Ġbilan": 6824,
      "Ġiec": 6825,
      "sion": 6826,
      "Ġstudija": 6827,
      "rila": 6828,
      "Ġalkohola": 6829,
      "Ġizdaju": 6830,
      "Ġ1987": 6831,
      "Ġpotrebu": 6832,
      "rala": 6833,
      "Ġporezu": 6834,
      "ĠÏĢ": 6835,
      "Ġ158": 6836,
      "Ġaktom": 6837,
      "Ġ0003": 6838,
      "Ġbiolo": 6839,
      "Ġbitnome": 6840,
      "Ġsirovine": 6841,
      "Ġacute": 6842,
      "Ġtetra": 6843,
      "Ġindustriji": 6844,
      "Ġodva": 6845,
      "ses": 6846,
      "Ġman": 6847,
      "kica": 6848,
      "Ġpodrijetlo": 6849,
      "Ġnuspro": 6850,
      "Ġneva": 6851,
      "Ġcinjenici": 6852,
      "Ġfizickih": 6853,
      "Ġribolovnih": 6854,
      "Ġori": 6855,
      "Ġzadrzavanja": 6856,
      "Ġnusproiz": 6857,
      "Ġovih": 6858,
      "Ġinicijativa": 6859,
      "Ġticu": 6860,
      "Ġrezervi": 6861,
      "Ġuzgoj": 6862,
      "Ġjavnost": 6863,
      "Ġ169": 6864,
      "Ġkaznu": 6865,
      "rao": 6866,
      "Ġiskr": 6867,
      "nizira": 6868,
      "Ġpokra": 6869,
      "Ġpovjeren": 6870,
      "plici": 6871,
      "Ġposlova": 6872,
      "Ġâī¥": 6873,
      "Ġ258": 6874,
      "Ġoporezivanje": 6875,
      "Ġusporedbi": 6876,
      "Ġulaze": 6877,
      "Ġvjerodostoj": 6878,
      "Ġiznimke": 6879,
      "loge": 6880,
      "Ġplc": 6881,
      "Ġzoni": 6882,
      "Ġocuvanje": 6883,
      "mentom": 6884,
      "Ġhydro": 6885,
      "Ġsnositi": 6886,
      "Ġrasc": 6887,
      "Ġprigovara": 6888,
      "Ġstandardima": 6889,
      "Ġpojedinaca": 6890,
      "Ġzabludu": 6891,
      "cus": 6892,
      "Ġ1234": 6893,
      "jucih": 6894,
      "Ġpropise": 6895,
      "Ġpovecati": 6896,
      "ĠpreÄĳa": 6897,
      "Ġprivremenog": 6898,
      "fer": 6899,
      "Ġupravne": 6900,
      "nen": 6901,
      "Ġograniceno": 6902,
      "Ġraspolaganju": 6903,
      "Ġpriba": 6904,
      "Ġden": 6905,
      "Ġtradicional": 6906,
      "Ġizjavom": 6907,
      "rizo": 6908,
      "Ġ410": 6909,
      "Ġdizajn": 6910,
      "Ġpin": 6911,
      "Ġstovise": 6912,
      "Ġekljp": 6913,
      "ĠutvrÄĳenog": 6914,
      "Ġslucajeva": 6915,
      "tovi": 6916,
      "Ġtur": 6917,
      "Ġinteropera": 6918,
      "Ġprven": 6919,
      "Ġprekomje": 6920,
      "Ġkompa": 6921,
      "Ġxii": 6922,
      "laganje": 6923,
      "Ġkorisnike": 6924,
      "Ġsvije": 6925,
      "Ġostvarenje": 6926,
      "lizaciju": 6927,
      "ljima": 6928,
      "Ġnavedenoga": 6929,
      "Ġvladi": 6930,
      "Ġuzela": 6931,
      "Ġpotrosnju": 6932,
      "Ġecha": 6933,
      "ktivne": 6934,
      "Ġstudije": 6935,
      "Ġnjegovi": 6936,
      "Ġpolitiku": 6937,
      "Ġafri": 6938,
      "Ġprosje": 6939,
      "Ġpapir": 6940,
      "ling": 6941,
      "Ġdao": 6942,
      "Ġpreispitivanja": 6943,
      "Ġdla": 6944,
      "stina": 6945,
      "Ġnena": 6946,
      "Ġnjim": 6947,
      "Ġuobicajene": 6948,
      "Ġkal": 6949,
      "Ġgeograf": 6950,
      "zel": 6951,
      "Ġprelimina": 6952,
      "Ġnacine": 6953,
      "Ġizvjescivanje": 6954,
      "Ġdobavljaca": 6955,
      "Ġodabira": 6956,
      "ĠpredviÄĳaju": 6957,
      "Ġmozda": 6958,
      "Ġdostavljene": 6959,
      "Ġano": 6960,
      "Ġizbjegavanja": 6961,
      "Ġgranicne": 6962,
      "Ġ999": 6963,
      "Ġpoduzetnici": 6964,
      "Ġ176": 6965,
      "Ġ2138": 6966,
      "Ġnekretnina": 6967,
      "Ġpojmom": 6968,
      "Ġpravnoj": 6969,
      "Ġpokrenut": 6970,
      "Ġnovcana": 6971,
      "Ġota": 6972,
      "Ġzadrzati": 6973,
      "Ġtribunal": 6974,
      "Ġdizajna": 6975,
      "Ġfrance": 6976,
      "Ġnastale": 6977,
      "Ġ204": 6978,
      "dri": 6979,
      "Ġsuo": 6980,
      "Ġjednim": 6981,
      "Ġdostavu": 6982,
      "Ġ230": 6983,
      "Ġog": 6984,
      "Ġluxe": 6985,
      "Ġcvr": 6986,
      "stalo": 6987,
      "Ġposljedicu": 6988,
      "Ġrws": 6989,
      "Ġistrazi": 6990,
      "Ġstupnju": 6991,
      "400": 6992,
      "dt": 6993,
      "Ġupucuju": 6994,
      "Ġzakonitost": 6995,
      "Ġmargi": 6996,
      "Ġmr": 6997,
      "Ġpokazuje": 6998,
      "Ġribarstvo": 6999,
      "Ġvlakna": 7000,
      "jeva": 7001,
      "Î¹Îº": 7002,
      "Ġlijec": 7003,
      "Ġzamrza": 7004,
      "suju": 7005,
      "Ġtransport": 7006,
      "Ġnekim": 7007,
      "Ġovlastena": 7008,
      "Ġazil": 7009,
      "Ġnapro": 7010,
      "Ġosiguravanja": 7011,
      "dor": 7012,
      "Ġpotvrdio": 7013,
      "Ġsocijalnog": 7014,
      "Ġfco": 7015,
      "Ġ1515": 7016,
      "Ġodjela": 7017,
      "Ġpretrpje": 7018,
      "ĠmeÄĳunarodni": 7019,
      "Ġodobravanje": 7020,
      "Ġrashoda": 7021,
      "Ġobranu": 7022,
      "Ġsubvenci": 7023,
      "Ġprocesa": 7024,
      "ĠÎº": 7025,
      "Ġeventualno": 7026,
      "Ġoznacava": 7027,
      "Ġsporazumi": 7028,
      "trzi": 7029,
      "Ġuda": 7030,
      "Ġjedinstvene": 7031,
      "Ġopterecenja": 7032,
      "Ġnediskrimina": 7033,
      "cto": 7034,
      "Ġrazmatranog": 7035,
      "Ġreak": 7036,
      "Ġstrucnjaka": 7037,
      "Ġdvadesetog": 7038,
      "Ġspecifika": 7039,
      "Ġgroz": 7040,
      "Ġclanove": 7041,
      "ĠneusklaÄĳe": 7042,
      "Ġzene": 7043,
      "Ġdoprinose": 7044,
      "Ġzajednicko": 7045,
      "Ġstranice": 7046,
      "Ġzracnih": 7047,
      "Ġistu": 7048,
      "rta": 7049,
      "Ġmirovine": 7050,
      "Ġsvojom": 7051,
      "Ġpravilu": 7052,
      "Ġgrad": 7053,
      "Ġzemlju": 7054,
      "Ġ414": 7055,
      "Ġ163": 7056,
      "Ġuopce": 7057,
      "Ġeste": 7058,
      "ĠsuraÄĳuju": 7059,
      "Ġusvoje": 7060,
      "ĠpreÄĳe": 7061,
      "Ġrazlicita": 7062,
      "tus": 7063,
      "glo": 7064,
      "Ġtopli": 7065,
      "chts": 7066,
      "Ġproblema": 7067,
      "Ġfleksi": 7068,
      "Ġvaznosti": 7069,
      "Ġministarstvo": 7070,
      "Ġakredi": 7071,
      "Ġ175": 7072,
      "Ġsudski": 7073,
      "ire": 7074,
      "bio": 7075,
      "stavanja": 7076,
      "Ġprijevara": 7077,
      "Ġobjektivno": 7078,
      "Ġbanko": 7079,
      "Ġ164": 7080,
      "Ġposlove": 7081,
      "cil": 7082,
      "Ġisporuka": 7083,
      "Ġiskaza": 7084,
      "tin": 7085,
      "Ġkonsolidi": 7086,
      "Ġkonkretnom": 7087,
      "Ġribarstva": 7088,
      "Õ¥Õ": 7089,
      "Ġposlodavca": 7090,
      "Ġosnovnog": 7091,
      "berg": 7092,
      "Ġglavnih": 7093,
      "Ġpaz": 7094,
      "ruza": 7095,
      "tost": 7096,
      "Ġlibe": 7097,
      "Ġdepozita": 7098,
      "pova": 7099,
      "Ġkakvo": 7100,
      "Ġpruzatelji": 7101,
      "Ġ190": 7102,
      "socia": 7103,
      "Ġavia": 7104,
      "sel": 7105,
      "Ġduzi": 7106,
      "Ġeuropean": 7107,
      "Ġukljucena": 7108,
      "Ġ256": 7109,
      "Ġevidenti": 7110,
      "ĺĲ": 7111,
      "Ġdrva": 7112,
      "Ġizravne": 7113,
      "Ġnaprotiv": 7114,
      "Ġnedostatak": 7115,
      "veza": 7116,
      "Ġkilo": 7117,
      "Ġiznimno": 7118,
      "lity": 7119,
      "Ġsluzbenih": 7120,
      "xa": 7121,
      "cial": 7122,
      "Ġsamoza": 7123,
      "Ġrazlikuju": 7124,
      "hof": 7125,
      "Ġispunjen": 7126,
      "Ġpravilnik": 7127,
      "im": 7128,
      "Ġnatrije": 7129,
      "Ġprirodnih": 7130,
      "Ġimenu": 7131,
      "Ġroditelj": 7132,
      "Ġuzoraka": 7133,
      "dnoj": 7134,
      "vidu": 7135,
      "Ġstrukturi": 7136,
      "302": 7137,
      "Ġdobivene": 7138,
      "Ġspecificne": 7139,
      "ĠmeÄĳunarodnom": 7140,
      "Ġnajvece": 7141,
      "Ġ216": 7142,
      "Ġobrazovanje": 7143,
      "Ġ580": 7144,
      "stalom": 7145,
      "tivnom": 7146,
      "Ġprekida": 7147,
      "Ġrjesenjem": 7148,
      "Ġdiplo": 7149,
      "rup": 7150,
      "ĠproizvoÄĳacima": 7151,
      "Ġinternetu": 7152,
      "Ġpruzi": 7153,
      "Ġmed": 7154,
      "Ġgospodarskim": 7155,
      "Ġomoguci": 7156,
      "Ġprostor": 7157,
      "Ġpojasnjava": 7158,
      "Ġsprecavanja": 7159,
      "Ġdobivenih": 7160,
      "Ġsata": 7161,
      "Ġisplate": 7162,
      "mbour": 7163,
      "ziji": 7164,
      "Ġministe": 7165,
      "Ġetil": 7166,
      "Ġobvezujuce": 7167,
      "Ġprilagodba": 7168,
      "Ġkategoriji": 7169,
      "Ġselektiv": 7170,
      "Ġhorizo": 7171,
      "Ġzasebno": 7172,
      "Ġprimjenjivim": 7173,
      "Ġobavlje": 7174,
      "Äĳenim": 7175,
      "Ġoperacija": 7176,
      "Ġsoft": 7177,
      "Ġpisanim": 7178,
      "Ġprimjenjive": 7179,
      "Ġ290": 7180,
      "Ġiskljucenje": 7181,
      "Ġ940": 7182,
      "Ġpocini": 7183,
      "Ġrevizija": 7184,
      "Ġspi": 7185,
      "Ġcarinskom": 7186,
      "Ġpredstavljati": 7187,
      "Ġgovo": 7188,
      "Ġdava": 7189,
      "Ġpodnijelo": 7190,
      "rum": 7191,
      "Ġpokraji": 7192,
      "Ġclanovima": 7193,
      "Ġ213800": 7194,
      "Ġfra": 7195,
      "Ġinstitucional": 7196,
      "Ġuostalom": 7197,
      "ht": 7198,
      "Ġ1989": 7199,
      "Ġodu": 7200,
      "Ġzamjenjuju": 7201,
      "Ġsudionika": 7202,
      "Ġkemijski": 7203,
      "Ġzajednicu": 7204,
      "Ġkaznenim": 7205,
      "Ġdobre": 7206,
      "renju": 7207,
      "Ġprofita": 7208,
      "Ġznak": 7209,
      "Ġvredno": 7210,
      "Ġvidu": 7211,
      "ljive": 7212,
      "Ġportfe": 7213,
      "Ġinve": 7214,
      "lit": 7215,
      "Ġizbor": 7216,
      "Ġstavljena": 7217,
      "Ġ171": 7218,
      "Ġskrb": 7219,
      "Ġgno": 7220,
      "Ġribolova": 7221,
      "Ġsigurnosne": 7222,
      "Ġneodre": 7223,
      "Ġkonkretni": 7224,
      "Ġvozilu": 7225,
      "Ġustanove": 7226,
      "Ġmal": 7227,
      "Ġobrasca": 7228,
      "ravna": 7229,
      "turu": 7230,
      "Ġ396": 7231,
      "Ġribolovne": 7232,
      "Ġuzastop": 7233,
      "peri": 7234,
      "znike": 7235,
      "Ġirske": 7236,
      "Ġiran": 7237,
      "Ġnesu": 7238,
      "Ġobvezi": 7239,
      "Ġneogranice": 7240,
      "Ġluxembour": 7241,
      "Ġdefiniran": 7242,
      "Ġcompany": 7243,
      "Ġefta": 7244,
      "nickim": 7245,
      "Ġsumnje": 7246,
      "lata": 7247,
      "Ġmirovinu": 7248,
      "rit": 7249,
      "Ġrizikom": 7250,
      "Ġprisutnost": 7251,
      "Ġoperativni": 7252,
      "Ġnaslovom": 7253,
      "Ġpse": 7254,
      "Ġodobren": 7255,
      "nosom": 7256,
      "Ġstrojeva": 7257,
      "Ġegi": 7258,
      "Ġimajuci": 7259,
      "Ġkukica": 7260,
      "Ġujedinjenoj": 7261,
      "Ġocitovanjima": 7262,
      "Ġem": 7263,
      "dp": 7264,
      "Ġtrgovackog": 7265,
      "Ġslucajeve": 7266,
      "Ġoblicima": 7267,
      "Ġplovilo": 7268,
      "201": 7269,
      "Ġinstrumentima": 7270,
      "Ġ208": 7271,
      "Ġobvezna": 7272,
      "Ġodgovorne": 7273,
      "Ġiskri": 7274,
      "Ġindividu": 7275,
      "Ġposlovanje": 7276,
      "Ġdokazuje": 7277,
      "Ġraski": 7278,
      "Ġcs": 7279,
      "Ġcir": 7280,
      "Ġtrq": 7281,
      "Ġizradu": 7282,
      "Ġpodrza": 7283,
      "Ġmotornih": 7284,
      "Ġosobno": 7285,
      "Ġiznimku": 7286,
      "Ġperiodi": 7287,
      "Ġdubli": 7288,
      "Ġpostuju": 7289,
      "Ġpromjenama": 7290,
      "Ġprze": 7291,
      "Ġpogor": 7292,
      "Ð¼": 7293,
      "Ġkoko": 7294,
      "Ġuskra": 7295,
      "Ġprirodu": 7296,
      "Ġcenta": 7297,
      "Ġnaplate": 7298,
      "Ġgospodarsku": 7299,
      "Ġque": 7300,
      "Ġsavjetodav": 7301,
      "Ġdirektora": 7302,
      "Ġkonac": 7303,
      "Ġelektronicki": 7304,
      "Ġpricvr": 7305,
      "Ġostaje": 7306,
      "move": 7307,
      "Ġucestalo": 7308,
      "Ġmuska": 7309,
      "Ġtrzisne": 7310,
      "Ġtvrdio": 7311,
      "Ġskladistenja": 7312,
      "Ġcovid": 7313,
      "Ġopravdava": 7314,
      "Ġuporabom": 7315,
      "Ġsukladnost": 7316,
      "Ġseste": 7317,
      "Ġzate": 7318,
      "Ġemisijama": 7319,
      "Ġ2025": 7320,
      "Ġodbijanja": 7321,
      "Ġpregovora": 7322,
      "Ġpriti": 7323,
      "ĠgraÄĳevi": 7324,
      "Ġ202": 7325,
      "ĠpotvrÄĳuju": 7326,
      "Ġmoru": 7327,
      "Ġispravi": 7328,
      "Ġ185": 7329,
      "Ġrast": 7330,
      "Ġ211": 7331,
      "Ġstandardizira": 7332,
      "jnih": 7333,
      "Ġobuhvaceno": 7334,
      "Ġrazumije": 7335,
      "Ġugle": 7336,
      "Ġhomologaciju": 7337,
      "Ġnomenklature": 7338,
      "Ġgospodarstvo": 7339,
      "Ġcertifikat": 7340,
      "stine": 7341,
      "Ġsen": 7342,
      "Ġfarmace": 7343,
      "Ġtrenutka": 7344,
      "Ġnapre": 7345,
      "Ġprvoj": 7346,
      "Ġ162": 7347,
      "Ġpretpostavkom": 7348,
      "Ġ255": 7349,
      "Ġprihodi": 7350,
      "Ġumece": 7351,
      "Ġkonve": 7352,
      "Ġprocis": 7353,
      "canjem": 7354,
      "Ġzakljucke": 7355,
      "Ġ621": 7356,
      "Ġveri": 7357,
      "Ġznacajno": 7358,
      "Ġhorizonta": 7359,
      "Ġpozivati": 7360,
      "Ġvar": 7361,
      "Ġtelefo": 7362,
      "Ġminimalne": 7363,
      "Ġkemikalija": 7364,
      "Ġaktu": 7365,
      "Ġinput": 7366,
      "Ġoperativne": 7367,
      "Ġkarakteristike": 7368,
      "mento": 7369,
      "Ġdusi": 7370,
      "Ġradna": 7371,
      "Ġprijedlogu": 7372,
      "Ġprag": 7373,
      "Ġodlucujuci": 7374,
      "znica": 7375,
      "Ġpostuje": 7376,
      "Ġprestanka": 7377,
      "snoj": 7378,
      "Ġzasticenih": 7379,
      "Ġranijeg": 7380,
      "Ġrazlogom": 7381,
      "tnika": 7382,
      "Ġisporuku": 7383,
      "Ġistraziva": 7384,
      "Ġzivota": 7385,
      "sco": 7386,
      "vice": 7387,
      "Ġpreh": 7388,
      "Ġcijelog": 7389,
      "Ġsc": 7390,
      "lini": 7391,
      "Ġ840": 7392,
      "Ġvoditi": 7393,
      "Ġpovezano": 7394,
      "Ġzavrsetka": 7395,
      "nas": 7396,
      "áĥĿ": 7397,
      "Ġdostupna": 7398,
      "Ġpovrijedio": 7399,
      "Ġprihod": 7400,
      "Ġopterecenje": 7401,
      "Ġnjemacke": 7402,
      "Ġzracnom": 7403,
      "Ġiskazuju": 7404,
      "Ġpriprema": 7405,
      "Ġstranici": 7406,
      "Ġvaljano": 7407,
      "Ġdolazi": 7408,
      "Ġ191": 7409,
      "Ġodrzanoj": 7410,
      "Ġvezano": 7411,
      "Ġprimatelja": 7412,
      "Ġriziku": 7413,
      "Ġdomacina": 7414,
      "Ġzamijeniti": 7415,
      "zora": 7416,
      "Ġobjekata": 7417,
      "Ġdopustiti": 7418,
      "Ġpoboljsanja": 7419,
      "Ġstranama": 7420,
      "Ġgornje": 7421,
      "Ġzalitelja": 7422,
      "Ġracunu": 7423,
      "Ġduzni": 7424,
      "Ġagenta": 7425,
      "Ġsedam": 7426,
      "Ġuravnote": 7427,
      "Ġdioksi": 7428,
      "Ġdodati": 7429,
      "Ġzasto": 7430,
      "Ġpozicije": 7431,
      "Ġofc": 7432,
      "Ġmlijeka": 7433,
      "Ġpreuzimanje": 7434,
      "Ġmy": 7435,
      "Ġlako": 7436,
      "sin": 7437,
      "Ġbitne": 7438,
      "ments": 7439,
      "Ġkombinirane": 7440,
      "tina": 7441,
      "Ġuvoznih": 7442,
      "Ġjednaka": 7443,
      "Ġregulatornih": 7444,
      "Ġkonzervi": 7445,
      "Ġduzne": 7446,
      "Ġvisegodisnjeg": 7447,
      "Ġkodeks": 7448,
      "ring": 7449,
      "Ġciklusa": 7450,
      "Ġobavijestila": 7451,
      "Ġprihode": 7452,
      "Ġmin": 7453,
      "Ġnerezi": 7454,
      "Ġ278": 7455,
      "Ġhttps": 7456,
      "Ġonomu": 7457,
      "Ġlicen": 7458,
      "Ġskrbi": 7459,
      "Ġsirovina": 7460,
      "tanje": 7461,
      "Ġaquatic": 7462,
      "Ġnjihovoj": 7463,
      "Ġdodjela": 7464,
      "Ġhuma": 7465,
      "lat": 7466,
      "stio": 7467,
      "Ġuobicajena": 7468,
      "Ġdokazima": 7469,
      "Ġzakonik": 7470,
      "Ġune": 7471,
      "Ġhomologacije": 7472,
      "ĠodreÄĳenoj": 7473,
      "Ġovlastenja": 7474,
      "Ġ584": 7475,
      "Ġspomenute": 7476,
      "ÖĢ": 7477,
      "Ġ189": 7478,
      "Ġsubvencija": 7479,
      "Ġubrza": 7480,
      "Ġ203": 7481,
      "nto": 7482,
      "Ġlea": 7483,
      "Ġsprecava": 7484,
      "Ġizgu": 7485,
      "Ġ173": 7486,
      "áĥĲáĥ": 7487,
      "Ġzauze": 7488,
      "Ġflu": 7489,
      "Ġkljucne": 7490,
      "Ġvecu": 7491,
      "Ġ296": 7492,
      "Ġimu": 7493,
      "Ġimalo": 7494,
      "Ġpropisane": 7495,
      "Ġindika": 7496,
      "sati": 7497,
      "Ġfaktor": 7498,
      "Ġcis": 7499,
      "Ġsvicarske": 7500,
      "Ġradnike": 7501,
      "fluo": 7502,
      "Ġvodeci": 7503,
      "Ġpoduzetnicima": 7504,
      "Ġstabilnosti": 7505,
      "voljno": 7506,
      "Ġboji": 7507,
      "Ġkreditnih": 7508,
      "Ġsektorima": 7509,
      "Ġpripisati": 7510,
      "Ġnamijenjen": 7511,
      "Ġ429": 7512,
      "Ġtromjese": 7513,
      "Ġelec": 7514,
      "Ġdjece": 7515,
      "Ġpridruzivanju": 7516,
      "Ġ543": 7517,
      "Ġpeti": 7518,
      "Ġkonvenciji": 7519,
      "Ġdijelovima": 7520,
      "dos": 7521,
      "vanog": 7522,
      "fenil": 7523,
      "Ġsazetak": 7524,
      "gura": 7525,
      "Ġkemikalije": 7526,
      "Ġsprijeciti": 7527,
      "Ġpojednostavnje": 7528,
      "Ġoc": 7529,
      "Ġceli": 7530,
      "ĠmeÄĳunarodna": 7531,
      "Ġdobivanje": 7532,
      "Ġregulatornog": 7533,
      "Ġneosnovan": 7534,
      "Ġnjihovom": 7535,
      "Ġizvorni": 7536,
      "Ġ240": 7537,
      "Ġprave": 7538,
      "Ġnational": 7539,
      "Ġitalia": 7540,
      "Ġtezine": 7541,
      "Ġpristupanju": 7542,
      "Ġpodi": 7543,
      "lor": 7544,
      "ĠâĹ": 7545,
      "Ġbilatera": 7546,
      "Ġosam": 7547,
      "Ġosnovu": 7548,
      "Ġ0001": 7549,
      "vremeno": 7550,
      "tice": 7551,
      "Ġnaglasava": 7552,
      "Ġmaro": 7553,
      "nzi": 7554,
      "Ġ239": 7555,
      "teljica": 7556,
      "os": 7557,
      "Ġfinanciranju": 7558,
      "Ġpristupanja": 7559,
      "Ġodjel": 7560,
      "Ġodmora": 7561,
      "Ġizvoznici": 7562,
      "Ġimali": 7563,
      "Ġzitarice": 7564,
      "Ġwy": 7565,
      "Ġkomisijina": 7566,
      "ĠdovoÄĳenja": 7567,
      "Ġulozi": 7568,
      "Ġ234": 7569,
      "Ġnaloziti": 7570,
      "Ġnajbolje": 7571,
      "Ġzakljucka": 7572,
      "Ġkreditu": 7573,
      "Ġnapomenu": 7574,
      "Ġpal": 7575,
      "Ġmoguca": 7576,
      "Ġ159": 7577,
      "Ġodvra": 7578,
      "Ġogranicenjima": 7579,
      "Ġpriznavanju": 7580,
      "Ġemiti": 7581,
      "Ġprigovore": 7582,
      "Ġtemperatura": 7583,
      "Ġimovinom": 7584,
      "Ġpropusta": 7585,
      "Ġbrzo": 7586,
      "Ġdalji": 7587,
      "Ġnajni": 7588,
      "Ġrazmjena": 7589,
      "lon": 7590,
      "Ġkupu": 7591,
      "Ġfiska": 7592,
      "Ġnadzornog": 7593,
      "Ġmladi": 7594,
      "Ġtor": 7595,
      "Ġfinska": 7596,
      "Ġmodel": 7597,
      "greben": 7598,
      "Ġmno": 7599,
      "Ġreferentna": 7600,
      "Ġbezgreben": 7601,
      "Ġrazlikovati": 7602,
      "Ġ205": 7603,
      "Ġuvoznika": 7604,
      "vos": 7605,
      "Ġprikladno": 7606,
      "Ġstrategije": 7607,
      "Ġ192": 7608,
      "Ġzaprimio": 7609,
      "ele": 7610,
      "Ġodmor": 7611,
      "Ġprevu": 7612,
      "Ġvidi": 7613,
      "Ġporeznom": 7614,
      "steno": 7615,
      "Ġtki": 7616,
      "Ġizvrsenju": 7617,
      "Ġsuma": 7618,
      "Ġkopita": 7619,
      "ĠgraÄĳana": 7620,
      "Ġpostao": 7621,
      "Ġnew": 7622,
      "Ġprilagodbu": 7623,
      "ĠÑģ": 7624,
      "Ġkandidata": 7625,
      "rine": 7626,
      "Ġkohe": 7627,
      "Ġribe": 7628,
      "don": 7629,
      "Ġtuziteljeva": 7630,
      "Ġposve": 7631,
      "rat": 7632,
      "Ġglaso": 7633,
      "Ġdrzavni": 7634,
      "Ġrezultatima": 7635,
      "gon": 7636,
      "Ġgnoji": 7637,
      "Ġazila": 7638,
      "Ġpamuka": 7639,
      "Ġzonama": 7640,
      "Ġnacrta": 7641,
      "Ġmro": 7642,
      "Ġnjezinom": 7643,
      "Ġrezerve": 7644,
      "Ġpodse": 7645,
      "Ġspada": 7646,
      "Ġsalje": 7647,
      "Ġ187": 7648,
      "ĠgraÄĳanskim": 7649,
      "Ġakva": 7650,
      "Ġlaw": 7651,
      "uro": 7652,
      "Ġmarze": 7653,
      "Ġobnovljivih": 7654,
      "Ġbrojca": 7655,
      "Ġizd": 7656,
      "Ġ2204": 7657,
      "Ġpojasniti": 7658,
      "Ġkapacite": 7659,
      "Ġimi": 7660,
      "Ġamba": 7661,
      "Ġante": 7662,
      "Ġkontrolom": 7663,
      "Ġpostojecim": 7664,
      "Ġsuce": 7665,
      "Ġika": 7666,
      "Ġska": 7667,
      "cenima": 7668,
      "Ġkorije": 7669,
      "Ġrizicima": 7670,
      "Ġpartnerstvu": 7671,
      "Ġvisoki": 7672,
      "Ġpodtocka": 7673,
      "Ġnovu": 7674,
      "Ġsklopljen": 7675,
      "Ġpodneseni": 7676,
      "lama": 7677,
      "ght": 7678,
      "znoj": 7679,
      "Ġodobrenih": 7680,
      "Ġderivati": 7681,
      "Ġprosudbe": 7682,
      "nc": 7683,
      "Ġgubitke": 7684,
      "Ġprovedena": 7685,
      "Ġ295": 7686,
      "pisuje": 7687,
      "Ġproslje": 7688,
      "Ġradnim": 7689,
      "Ġprirodnog": 7690,
      "ard": 7691,
      "riji": 7692,
      "Ġlikvida": 7693,
      "Ġprate": 7694,
      "Ġosnovan": 7695,
      "Ġizuzeti": 7696,
      "Ġosobni": 7697,
      "Ġsamozaposle": 7698,
      "Ġrip": 7699,
      "sca": 7700,
      "Ġ181": 7701,
      "Ġisticanje": 7702,
      "Ġterorizma": 7703,
      "Ġdionice": 7704,
      "Ġpretpostavka": 7705,
      "Ġjacanje": 7706,
      "Ġosnovanosti": 7707,
      "Ġsvjetla": 7708,
      "Ġrazmo": 7709,
      "Ġfur": 7710,
      "Ġvratiti": 7711,
      "Ġbol": 7712,
      "Ġostvaruje": 7713,
      "Ġpovezanim": 7714,
      "Ġoti": 7715,
      "Ġrafi": 7716,
      "ang": 7717,
      "Ġantidampinskih": 7718,
      "Ġ268": 7719,
      "Ð³": 7720,
      "Ġplovidbe": 7721,
      "Ġprimatelj": 7722,
      "Ġprestanak": 7723,
      "Ġconsi": 7724,
      "Ġrizike": 7725,
      "mark": 7726,
      "Ġispunjavati": 7727,
      "ventnosti": 7728,
      "Ġneovisnost": 7729,
      "Ġulova": 7730,
      "Ġmoneta": 7731,
      "Ġeksp": 7732,
      "Ġobjavljuju": 7733,
      "Ġ2024": 7734,
      "Ġsif": 7735,
      "tiva": 7736,
      "Ġsre": 7737,
      "dia": 7738,
      "Ġaviation": 7739,
      "Ġ1177": 7740,
      "Ġuredaba": 7741,
      "Ġzivotinjske": 7742,
      "Ġanalog": 7743,
      "ljanje": 7744,
      "Ġ236": 7745,
      "Ġprihvatio": 7746,
      "nch": 7747,
      "Ġtuzenika": 7748,
      "Ġplatnih": 7749,
      "Ġstudi": 7750,
      "Ġcimbenika": 7751,
      "zga": 7752,
      "Ġ590": 7753,
      "Ġnuz": 7754,
      "Ġosnovnih": 7755,
      "Ġsumar": 7756,
      "Ġ1408": 7757,
      "mpa": 7758,
      "Ġspornih": 7759,
      "Ġupravnom": 7760,
      "Ġslike": 7761,
      "Ġpridrza": 7762,
      "Ġsastanka": 7763,
      "Ġispunjavanje": 7764,
      "Ġprethodnoj": 7765,
      "rol": 7766,
      "Ġprenijeti": 7767,
      "lega": 7768,
      "Ġnajveci": 7769,
      "Ġrev": 7770,
      "kciji": 7771,
      "Ġiscrp": 7772,
      "Ġsudjelovati": 7773,
      "Ġfrancuske": 7774,
      "Ġlegitimnih": 7775,
      "Ġnastali": 7776,
      "fica": 7777,
      "Ġintervencije": 7778,
      "Ġzbroj": 7779,
      "ĠÐ¿": 7780,
      "Ġpoprav": 7781,
      "Ġotpornost": 7782,
      "tuju": 7783,
      "Ġdijete": 7784,
      "lita": 7785,
      "Ġzive": 7786,
      "Ġkvanti": 7787,
      "Ġ194": 7788,
      "Ġizravnog": 7789,
      "Ġwor": 7790,
      "Ġprikupljanja": 7791,
      "Ġvide": 7792,
      "Ġsaha": 7793,
      "Ġteo": 7794,
      "Ġstopi": 7795,
      "Ġrecenica": 7796,
      "Ġugljikovodi": 7797,
      "Ġnikakva": 7798,
      "Ġrezima": 7799,
      "Ġplanova": 7800,
      "Ġzamijenje": 7801,
      "Ġprotokolom": 7802,
      "versi": 7803,
      "Ġdodatnog": 7804,
      "Ġucinkovite": 7805,
      "Ġbrita": 7806,
      "Ġkvalifikacija": 7807,
      "Ġpovezanima": 7808,
      "Ġskupinu": 7809,
      "Ġvanjskog": 7810,
      "Ġostataka": 7811,
      "Ġsec": 7812,
      "Ġ215": 7813,
      "Ġuma": 7814,
      "vaci": 7815,
      "Ġnavi": 7816,
      "Ġprijavu": 7817,
      "Ġupravitelj": 7818,
      "Ġsau": 7819,
      "Ġpododje": 7820,
      "nirani": 7821,
      "Ġprethodi": 7822,
      "Ġ1308": 7823,
      "rou": 7824,
      "Ġ299": 7825,
      "Ġnepreki": 7826,
      "Ġsuglasnost": 7827,
      "Ġzamjenu": 7828,
      "Ġprijedlogom": 7829,
      "Ġrasta": 7830,
      "Ġlimited": 7831,
      "Ġpregovara": 7832,
      "Ġproizvodu": 7833,
      "Ġnazivom": 7834,
      "Ġizvjescuje": 7835,
      "Ġoruzja": 7836,
      "Ġstopu": 7837,
      "Ġ266": 7838,
      "mato": 7839,
      "Ġnatjecanju": 7840,
      "Ġstrogo": 7841,
      "Ġvlasnika": 7842,
      "Ġporavna": 7843,
      "Ġnadmetanje": 7844,
      "Ġprirodni": 7845,
      "Ġ530": 7846,
      "Ġ221": 7847,
      "Ġsolas": 7848,
      "Ġznakova": 7849,
      "Ġtraziti": 7850,
      "Ġfaza": 7851,
      "Ġnistavi": 7852,
      "Ġuciniti": 7853,
      "Ġdemokrat": 7854,
      "Ġsuspendi": 7855,
      "Ġlisa": 7856,
      "ntu": 7857,
      "Ġtvrdila": 7858,
      "vlji": 7859,
      "Ġneobra": 7860,
      "tz": 7861,
      "Ġvlastitu": 7862,
      "Ġservices": 7863,
      "rga": 7864,
      "Ġtumaci": 7865,
      "Ġudovolja": 7866,
      "410": 7867,
      "Ġsmjese": 7868,
      "Ġsjeda": 7869,
      "zione": 7870,
      "Ġgospoda": 7871,
      "karbo": 7872,
      "Ġzlouporabe": 7873,
      "ĠmeÄĳusob": 7874,
      "Ġkasni": 7875,
      "Ġusli": 7876,
      "Ġuspore": 7877,
      "Ġizga": 7878,
      "Ġ280": 7879,
      "Ġvanjskih": 7880,
      "Ġprepreka": 7881,
      "sing": 7882,
      "Ġpotrosacima": 7883,
      "Ġakvakul": 7884,
      "Ġprivremeni": 7885,
      "Ġstupac": 7886,
      "Ġznacajne": 7887,
      "landa": 7888,
      "nke": 7889,
      "Ġmjesec": 7890,
      "Ġkloro": 7891,
      "seni": 7892,
      "fen": 7893,
      "ravanja": 7894,
      "Ġzdravlju": 7895,
      "nge": 7896,
      "Ġublaza": 7897,
      "Ġ177": 7898,
      "Ġobavljanju": 7899,
      "Ġnamece": 7900,
      "bank": 7901,
      "Ġvisini": 7902,
      "Ġgospodarstvu": 7903,
      "Ġistih": 7904,
      "Ġdrustvom": 7905,
      "Ġesljp": 7906,
      "Ġelektronickim": 7907,
      "nogra": 7908,
      "cts": 7909,
      "Ġporezno": 7910,
      "Ð¾Ð²": 7911,
      "Ġaspekti": 7912,
      "ret": 7913,
      "propi": 7914,
      "Ġmala": 7915,
      "Ġzapovjed": 7916,
      "Ġkonacna": 7917,
      "jni": 7918,
      "Ġzracnim": 7919,
      "Ġ206": 7920,
      "Ġ521": 7921,
      "Ġzainteresiranim": 7922,
      "Ġnekog": 7923,
      "Ġfrancuskoj": 7924,
      "Ġvanjskim": 7925,
      "áĥĺáĥ": 7926,
      "zone": 7927,
      "Ġprogramom": 7928,
      "Ġluksemburg": 7929,
      "Ġstvarni": 7930,
      "Ġdomi": 7931,
      "Ġzrt": 7932,
      "Ġ231": 7933,
      "redom": 7934,
      "Ġsumnja": 7935,
      "cker": 7936,
      "shi": 7937,
      "Ġspajanje": 7938,
      "Ġvrstama": 7939,
      "xy": 7940,
      "Ġdrzi": 7941,
      "poration": 7942,
      "Ġ450": 7943,
      "Ġboja": 7944,
      "Ġnapa": 7945,
      "ĠpredviÄĳenim": 7946,
      "Ġstece": 7947,
      "Ġizgle": 7948,
      "Ġeuropskim": 7949,
      "Ġpolie": 7950,
      "Ġvon": 7951,
      "Ġtrgovacko": 7952,
      "Ġnamjera": 7953,
      "Ġ209": 7954,
      "Ġhranom": 7955,
      "ĠâĹ»": 7956,
      "Ġsluzbenog": 7957,
      "Ġ950": 7958,
      "Ġporodi": 7959,
      "Ġstalnog": 7960,
      "Ġprese": 7961,
      "Ġstvaranje": 7962,
      "voda": 7963,
      "mak": 7964,
      "ĠÏĥ": 7965,
      "Ġuspostavljen": 7966,
      "Ġbilancne": 7967,
      "Ġreproduci": 7968,
      "Ġupozna": 7969,
      "Ġ193": 7970,
      "Ġindustriju": 7971,
      "Ġstre": 7972,
      "Ġcelu": 7973,
      "Ġsip": 7974,
      "Ġunijeti": 7975,
      "Ġnespoji": 7976,
      "nitih": 7977,
      "Ġeurosta": 7978,
      "Ġ217": 7979,
      "Ġuputi": 7980,
      "Ġfunkciju": 7981,
      "Ġpsi": 7982,
      "Ġaktivi": 7983,
      "sed": 7984,
      "Ġpodatko": 7985,
      "Ġnistavim": 7986,
      "Ġzatva": 7987,
      "Ġodgovarajuceg": 7988,
      "Ġcesta": 7989,
      "Ġpolici": 7990,
      "Ġnadzira": 7991,
      "Ġkaraktera": 7992,
      "Ġstabilnost": 7993,
      "Ġtvrdnju": 7994,
      "Ġetapa": 7995,
      "Ġbazi": 7996,
      "Ġnaglasiti": 7997,
      "Ġ174": 7998,
      "Ġrjesa": 7999,
      "Ġrecht": 8000,
      "Ġizdati": 8001,
      "Ġval": 8002,
      "Ġnago": 8003,
      "Ġizbora": 8004,
      "Ġ188": 8005,
      "Ġkomisijine": 8006,
      "ĠâĢĺ": 8007,
      "Ġmaterijale": 8008,
      "Ġlijekove": 8009,
      "Ġopozi": 8010,
      "Ġsamog": 8011,
      "Ġpreina": 8012,
      "Ġ760": 8013,
      "Ġsar": 8014,
      "Ġkomisijinu": 8015,
      "Ġkoza": 8016,
      "Ġsluzbene": 8017,
      "Ġodredio": 8018,
      "Ġvozaca": 8019,
      "Ġrashodi": 8020,
      "Ġ183": 8021,
      "Ġdobrovolj": 8022,
      "Ġunutarnjih": 8023,
      "Õ¸Õ": 8024,
      "Ġjetra": 8025,
      "Ġretroaktiv": 8026,
      "eko": 8027,
      "lines": 8028,
      "Ġcorporation": 8029,
      "Ġpotjecu": 8030,
      "Ġdovoljna": 8031,
      "Ġprotuma": 8032,
      "Ġugovara": 8033,
      "Ġraspodjele": 8034,
      "sia": 8035,
      "Ġrazrje": 8036,
      "Ġregistracija": 8037,
      "Ġ731": 8038,
      "Ġ1215": 8039,
      "Ġdodijeljenih": 8040,
      "Ġjedinicama": 8041,
      "ĠpreraÄĳeni": 8042,
      "bs": 8043,
      "ĠmeÄĳunarodnoj": 8044,
      "Ġtox": 8045,
      "Ġzadovoljavaju": 8046,
      "Ð½Ð°": 8047,
      "Ġregistriran": 8048,
      "Ġpup": 8049,
      "Ġadministrativnih": 8050,
      "ff": 8051,
      "Ġskro": 8052,
      "Ġpotak": 8053,
      "Ġnamijenjenih": 8054,
      "Ġpredmetno": 8055,
      "Ġuvrstenja": 8056,
      "Ġbugarska": 8057,
      "Ġocjenjuje": 8058,
      "Ġponovnog": 8059,
      "Ġslika": 8060,
      "Ġsluzi": 8061,
      "Ġtelefon": 8062,
      "Ġstego": 8063,
      "Ġagre": 8064,
      "Ġnastavlja": 8065,
      "Ġpodre": 8066,
      "kala": 8067,
      "Ġposredo": 8068,
      "Ġtvarima": 8069,
      "Ġwith": 8070,
      "Ġuredi": 8071,
      "Ġostvarivanja": 8072,
      "Ġmorao": 8073,
      "nac": 8074,
      "Ġbrod": 8075,
      "tia": 8076,
      "Ġiskustvo": 8077,
      "ljivo": 8078,
      "Ġfarmaceut": 8079,
      "Ġprezi": 8080,
      "Ġbioci": 8081,
      "Ġjuris": 8082,
      "Ġitali": 8083,
      "Ġkretanju": 8084,
      "Ġepi": 8085,
      "Ġuvodi": 8086,
      "Ġsuprot": 8087,
      "ciona": 8088,
      "Ġlice": 8089,
      "druc": 8090,
      "Ġpokazatelja": 8091,
      "nter": 8092,
      "Ġdia": 8093,
      "Ġkrsenja": 8094,
      "Ġmodifici": 8095,
      "Ð·": 8096,
      "Ġpodvrgnu": 8097,
      "Ġnovcanu": 8098,
      "Ġizvrsavanju": 8099,
      "Ġsporazume": 8100,
      "Ġstvara": 8101,
      "Ġposebnom": 8102,
      "Ġnegativno": 8103,
      "Ġbugar": 8104,
      "Ġkartice": 8105,
      "Ġvozilima": 8106,
      "Ġrazliciti": 8107,
      "Ġ650": 8108,
      "Ġjednostavno": 8109,
      "pol": 8110,
      "ĠprovoÄĳenja": 8111,
      "Ġ820": 8112,
      "Ġzabri": 8113,
      "Ġsrod": 8114,
      "matizira": 8115,
      "Ġneosigu": 8116,
      "Ġoznacivanje": 8117,
      "Ġpocevsi": 8118,
      "Ġ213": 8119,
      "Ġ2645": 8120,
      "Ġtriju": 8121,
      "Ġdoveo": 8122,
      "Ġkuha": 8123,
      "Ġprete": 8124,
      "cher": 8125,
      "Ġpotrosace": 8126,
      "350": 8127,
      "Ġpovije": 8128,
      "Ġpetro": 8129,
      "Ġlokalne": 8130,
      "Ġcredi": 8131,
      "ĠÎ´": 8132,
      "Ġsrednjo": 8133,
      "Ġoblikova": 8134,
      "Ġregionalne": 8135,
      "Ġsavezne": 8136,
      "Ġdeklaracije": 8137,
      "Ġodrzane": 8138,
      "lazak": 8139,
      "lance": 8140,
      "Ġdomace": 8141,
      "Ġunosa": 8142,
      "Ġkonacnici": 8143,
      "Ġorganizaciji": 8144,
      "stre": 8145,
      "Ġdefinirana": 8146,
      "Ġidentifikaciju": 8147,
      "stupan": 8148,
      "Ġnezakoni": 8149,
      "Ġdefiniciji": 8150,
      "Ġsigurno": 8151,
      "Ġmemo": 8152,
      "Ġnizozemskoj": 8153,
      "Ġrazno": 8154,
      "Ġznatan": 8155,
      "Ġisplatu": 8156,
      "Ġkame": 8157,
      "Ġprosirenje": 8158,
      "Ġbivsi": 8159,
      "1000": 8160,
      "020": 8161,
      "Ġrazinama": 8162,
      "Ġsuca": 8163,
      "rip": 8164,
      "sena": 8165,
      "Ġugljika": 8166,
      "Ġnezakonitosti": 8167,
      "Ġorganizacijama": 8168,
      "Ġneprimje": 8169,
      "Ġatla": 8170,
      "Ġprirodi": 8171,
      "poli": 8172,
      "Ġalata": 8173,
      "Ġglavnim": 8174,
      "Ġjednakovrijed": 8175,
      "Ġenergy": 8176,
      "njivanje": 8177,
      "Ġsjemena": 8178,
      "ticke": 8179,
      "Ġsiroko": 8180,
      "Ġlatvi": 8181,
      "Ġln": 8182,
      "Ġodnositi": 8183,
      "Ġredu": 8184,
      "Ġpotrosacu": 8185,
      "Ġzigu": 8186,
      "rd": 8187,
      "fat": 8188,
      "Ġplovilu": 8189,
      "Ġnesporno": 8190,
      "Ġzapis": 8191,
      "Ġassocia": 8192,
      "Ġnepostojanja": 8193,
      "Ġstakla": 8194,
      "Ġstalno": 8195,
      "Ġnalo": 8196,
      "Ġ195": 8197,
      "Ġlita": 8198,
      "Ġinovacije": 8199,
      "Ġslican": 8200,
      "Ġpreuzete": 8201,
      "Ġpromjera": 8202,
      "logije": 8203,
      "jucim": 8204,
      "Ġ228": 8205,
      "Ġnastoje": 8206,
      "Ġkombinaciji": 8207,
      "Ġdrzavljanina": 8208,
      "Ġnijedna": 8209,
      "kreta": 8210,
      "Ġdodatnim": 8211,
      "vano": 8212,
      "Ġdodataka": 8213,
      "Ġnadlezni": 8214,
      "Ġprvotno": 8215,
      "Ġprenosenje": 8216,
      "Ġposao": 8217,
      "Ġizrazi": 8218,
      "Ġturi": 8219,
      "Ġtrzisnim": 8220,
      "Ġslicnim": 8221,
      "ona": 8222,
      "Ġdostupan": 8223,
      "logiju": 8224,
      "Ġduznika": 8225,
      "Ġds": 8226,
      "Ġozbiljne": 8227,
      "Ġzadrzava": 8228,
      "Ġprehranu": 8229,
      "Ġsubjektu": 8230,
      "Ġmalolje": 8231,
      "Ġ090": 8232,
      "Ġdostupnih": 8233,
      "Ġsocijalnih": 8234,
      "Ġcijeli": 8235,
      "Ġstajalistu": 8236,
      "Ġadresu": 8237,
      "Ġnasi": 8238,
      "Ġvideo": 8239,
      "Ġzakljucuje": 8240,
      "Ġ1988": 8241,
      "Ġmrezi": 8242,
      "Ġdostatno": 8243,
      "Ġraspravlja": 8244,
      "Ġmanu": 8245,
      "Ġnesre": 8246,
      "stenih": 8247,
      "zaciju": 8248,
      "Ġocijeni": 8249,
      "310": 8250,
      "Ġiznijela": 8251,
      "Ġrubri": 8252,
      "Ġ179": 8253,
      "Ġ226": 8254,
      "Ġponaj": 8255,
      "nesu": 8256,
      "Ġkratkoro": 8257,
      "ljenim": 8258,
      "Ġizdana": 8259,
      "Ġnezaposle": 8260,
      "Ġprotoka": 8261,
      "ĠnadoknaÄĳuju": 8262,
      "Ġzaci": 8263,
      "ros": 8264,
      "Ġuputama": 8265,
      "Ġ750": 8266,
      "Ġdampinga": 8267,
      "Ġasiste": 8268,
      "Ġkomercijalne": 8269,
      "Ġizlozenost": 8270,
      "Ġvelicina": 8271,
      "rina": 8272,
      "Ġzdravstvenih": 8273,
      "Ġhan": 8274,
      "Ġznanje": 8275,
      "Ġosnovana": 8276,
      "Ġpridruzivanje": 8277,
      "Ġura": 8278,
      "Ġvisestru": 8279,
      "Ġposlodavac": 8280,
      "Ġ1985": 8281,
      "ÅĤa": 8282,
      "Ġponistenja": 8283,
      "stici": 8284,
      "Ġcestica": 8285,
      "Ġbanaka": 8286,
      "Ġ247": 8287,
      "non": 8288,
      "Ġsadrzaju": 8289,
      "Ġ325": 8290,
      "Ġkonkretne": 8291,
      "Ġuzimanje": 8292,
      "Ġoecd": 8293,
      "id": 8294,
      "rnoj": 8295,
      "Ġsudac": 8296,
      "Ġjavnu": 8297,
      "Ġkojega": 8298,
      "ncia": 8299,
      "Ġstandard": 8300,
      "Ġmjerom": 8301,
      "Ġneobjavljeno": 8302,
      "Ġsklopu": 8303,
      "Ġmogucih": 8304,
      "stupom": 8305,
      "Ġprati": 8306,
      "pha": 8307,
      "Ġtuzbom": 8308,
      "Ġpoljoprivredni": 8309,
      "Ġenergijom": 8310,
      "Ġvrijednosni": 8311,
      "Ġpostizanja": 8312,
      "Ġchemi": 8313,
      "Ġelektricni": 8314,
      "Ġoporavak": 8315,
      "Ġigra": 8316,
      "Ġ249": 8317,
      "Ġnjegovom": 8318,
      "Ġupravitelja": 8319,
      "Ġ302": 8320,
      "Ġ680": 8321,
      "Ġsastanku": 8322,
      "Ġputov": 8323,
      "Ġanalizi": 8324,
      "tona": 8325,
      "Ġostalog": 8326,
      "Ġskladistenje": 8327,
      "Ġporetka": 8328,
      "Ġpolovi": 8329,
      "Ġdrze": 8330,
      "ĠpredviÄĳenima": 8331,
      "Ġpostupovna": 8332,
      "Ġprosjecna": 8333,
      "ntri": 8334,
      "Ġmetodama": 8335,
      "Ġkole": 8336,
      "Ġprotutrzi": 8337,
      "Ġjapa": 8338,
      "Ġneopho": 8339,
      "Ġispravno": 8340,
      "Ġpristupom": 8341,
      "Ġkvalifikacije": 8342,
      "Ġzaliha": 8343,
      "reza": 8344,
      "Ġznaka": 8345,
      "Ġnematerija": 8346,
      "Ġsjemen": 8347,
      "Ġuta": 8348,
      "Ġprodaji": 8349,
      "Ġupotrijebljeni": 8350,
      "Ġfro": 8351,
      "Ġagenciji": 8352,
      "Ġtekstom": 8353,
      "Ġmetodu": 8354,
      "Ġ223": 8355,
      "Ġvrata": 8356,
      "Ġmedicinske": 8357,
      "Ġradnji": 8358,
      "Ġodbitka": 8359,
      "Ġdistribucije": 8360,
      "Ġpozvao": 8361,
      "Ġdublin": 8362,
      "Ġponajprije": 8363,
      "Ġodlucila": 8364,
      "Ġzakonima": 8365,
      "Ġsadrzane": 8366,
      "Ġotapa": 8367,
      "Ġnitro": 8368,
      "Ġknjigovo": 8369,
      "ÏīÎ½": 8370,
      "Ġhs": 8371,
      "Ġdelegiranih": 8372,
      "Ġpodupiru": 8373,
      "Ġizbjeglice": 8374,
      "Ġobnavlja": 8375,
      "Ġline": 8376,
      "Ġ1151": 8377,
      "Ġpredmetnu": 8378,
      "schaft": 8379,
      "Ġstvari": 8380,
      "Ġborbu": 8381,
      "Ġupotrebom": 8382,
      "Ġ235": 8383,
      "Ġuvodnom": 8384,
      "Ġvize": 8385,
      "Ġlistovi": 8386,
      "Ġdim": 8387,
      "Ġokolisu": 8388,
      "Ġprofesionalne": 8389,
      "Ġosp": 8390,
      "Ġdovela": 8391,
      "Ġzgrada": 8392,
      "cea": 8393,
      "Ġote": 8394,
      "stavila": 8395,
      "Ġomogucila": 8396,
      "Ġknjigovod": 8397,
      "Ġtehnickog": 8398,
      "Ġomjer": 8399,
      "Ġpozor": 8400,
      "Ġpotrebnim": 8401,
      "dc": 8402,
      "Ġizjedna": 8403,
      "ruju": 8404,
      "tungs": 8405,
      "Ġonx": 8406,
      "jim": 8407,
      "renog": 8408,
      "Ġobrazlozenju": 8409,
      "ĠâĺĲ": 8410,
      "metara": 8411,
      "Ġ275": 8412,
      "Ġreforma": 8413,
      "Ġ186": 8414,
      "Ġtrgovanje": 8415,
      "Ġkvalificirati": 8416,
      "Ġprosjecne": 8417,
      "Ġprojekte": 8418,
      "Ġpuno": 8419,
      "Ġsocie": 8420,
      "jnim": 8421,
      "teljem": 8422,
      "Ġorigi": 8423,
      "Ġ2933": 8424,
      "Ġ420": 8425,
      "Ġtaric": 8426,
      "Ġsvicarska": 8427,
      "ngi": 8428,
      "Ġkuku": 8429,
      "Ġllc": 8430,
      "Ġprivatnih": 8431,
      "nts": 8432,
      "Ġtrajno": 8433,
      "Ġmlijeko": 8434,
      "Ġotvaranje": 8435,
      "Ġpasi": 8436,
      "Ġtehnicku": 8437,
      "Ġodobrila": 8438,
      "Ġcourt": 8439,
      "Ġzajednickoj": 8440,
      "Ġsecer": 8441,
      "Ġdgr": 8442,
      "Ġ222": 8443,
      "Ġplu": 8444,
      "Ġ659": 8445,
      "Ġobjekta": 8446,
      "Ġstambe": 8447,
      "Ġfik": 8448,
      "Ġ271": 8449,
      "Ġjurisdi": 8450,
      "Ġoja": 8451,
      "Ġproblem": 8452,
      "Ġkopne": 8453,
      "Ġpriblizno": 8454,
      "Ġindividual": 8455,
      "Ġobro": 8456,
      "Ġsur": 8457,
      "Ġstrojeve": 8458,
      "Ġradnici": 8459,
      "Ġvecina": 8460,
      "Ġustaljene": 8461,
      "Ġbv": 8462,
      "Ġprilozima": 8463,
      "Ġlibera": 8464,
      "Ġpostupanju": 8465,
      "Ġobjasnjenja": 8466,
      "Ġmakro": 8467,
      "Ġznati": 8468,
      "Ġdokumentaciju": 8469,
      "Ġzanima": 8470,
      "Ġsvicar": 8471,
      "Ġprivremena": 8472,
      "hou": 8473,
      "Ġ214": 8474,
      "Ġip": 8475,
      "Ġudruzenje": 8476,
      "net": 8477,
      "Ġsudaca": 8478,
      "Ġnepotre": 8479,
      "Ġklauzule": 8480,
      "Ġnaslova": 8481,
      "Ġargumenata": 8482,
      "Ġnastavak": 8483,
      "Ġbre": 8484,
      "Ġrim": 8485,
      "Ġbubre": 8486,
      "Ġprehrani": 8487,
      "Ġregulatorni": 8488,
      "Ġradova": 8489,
      "Ġkaznenom": 8490,
      "Ġdefiniciju": 8491,
      "Ġstvarna": 8492,
      "Ġ232": 8493,
      "Ġ1907": 8494,
      "Ġsvojstava": 8495,
      "Ġdoci": 8496,
      "Ġkasa": 8497,
      "Ġpotonja": 8498,
      "Ġtocnost": 8499,
      "mentation": 8500,
      "gli": 8501,
      "Ġzakonodavnog": 8502,
      "Ġbrise": 8503,
      "Ġosposoblje": 8504,
      "Ġprovjerava": 8505,
      "Ġminimalni": 8506,
      "Ġpokazatelji": 8507,
      "Ġeba": 8508,
      "Ġmetodom": 8509,
      "Ġneovisnosti": 8510,
      "Ġnastaje": 8511,
      "Ġmoguci": 8512,
      "Ġnudi": 8513,
      "Ġprijav": 8514,
      "Ġbeta": 8515,
      "Ġpovlacenja": 8516,
      "ljenju": 8517,
      "Ġizvoznih": 8518,
      "Ġvodo": 8519,
      "fos": 8520,
      "Ġnb": 8521,
      "Ġnm": 8522,
      "Ġ273": 8523,
      "Ġtamo": 8524,
      "miro": 8525,
      "Ġrizici": 8526,
      "Ġrazvija": 8527,
      "Ġcim": 8528,
      "ÑĢÐ°": 8529,
      "Ġopcu": 8530,
      "Ġinternetskoj": 8531,
      "gno": 8532,
      "Ġ625": 8533,
      "Ġiskustva": 8534,
      "Ġisland": 8535,
      "Ġpruzati": 8536,
      "Ġustanovi": 8537,
      "Ġpokazuju": 8538,
      "Ġjednake": 8539,
      "Ġ241": 8540,
      "Ġevaluacije": 8541,
      "klapa": 8542,
      "Ġjednost": 8543,
      "Ġkomisijom": 8544,
      "Ġkuci": 8545,
      "Ġpp": 8546,
      "ux": 8547,
      "Ġobjava": 8548,
      "Ġnedav": 8549,
      "Ġtijelom": 8550,
      "fikaciji": 8551,
      "Ġptica": 8552,
      "Ġnjihovog": 8553,
      "Ġizabra": 8554,
      "Ġhele": 8555,
      "Ġvezane": 8556,
      "Ġodusta": 8557,
      "Ġsanita": 8558,
      "Ġpodsu": 8559,
      "Ġbespovratnih": 8560,
      "Ġbonite": 8561,
      "Ġtrecem": 8562,
      "Ġnedopusten": 8563,
      "Ġprihvatljivosti": 8564,
      "Ġtroska": 8565,
      "Ġuklanjanja": 8566,
      "Ġprospe": 8567,
      "Ġprvu": 8568,
      "Ġbankar": 8569,
      "Ġnjegovog": 8570,
      "Ġsjeverne": 8571,
      "030": 8572,
      "Ġpretje": 8573,
      "Ġdospijeca": 8574,
      "Ġintenzi": 8575,
      "Ġvracanja": 8576,
      "Ġzabranjenog": 8577,
      "Ġalineje": 8578,
      "thyl": 8579,
      "Ġdopis": 8580,
      "Ġotkrivanja": 8581,
      "Ġ248": 8582,
      "Ġxvi": 8583,
      "Ġbal": 8584,
      "Ġnacinu": 8585,
      "Ġradnicima": 8586,
      "janjem": 8587,
      "Ġznaca": 8588,
      "Ġpreispita": 8589,
      "Ġzakljucci": 8590,
      "Ġvune": 8591,
      "Ġinternetske": 8592,
      "mine": 8593,
      "seno": 8594,
      "Ġkucanstva": 8595,
      "Ġodnosio": 8596,
      "Ġ337": 8597,
      "Ġizvrsavati": 8598,
      "pto": 8599,
      "Ġminuta": 8600,
      "ĠdogaÄĳaj": 8601,
      "Ġkonkretnije": 8602,
      "stupi": 8603,
      "Ġdeci": 8604,
      "Ġprovedbenu": 8605,
      "Ġspajanja": 8606,
      "Ġprilozi": 8607,
      "Ġpolja": 8608,
      "Ġpostaviti": 8609,
      "Ġvjerojatnosti": 8610,
      "ljenu": 8611,
      "Ġprogona": 8612,
      "Ġpostavljena": 8613,
      "teh": 8614,
      "am": 8615,
      "Ġprivremenih": 8616,
      "Ġpotrebama": 8617,
      "Ġvale": 8618,
      "Ġ251": 8619,
      "stoca": 8620,
      "Ġtsi": 8621,
      "Ġbroda": 8622,
      "Ġproiza": 8623,
      "Ġpripa": 8624,
      "Ġrazd": 8625,
      "Ġdividende": 8626,
      "Ġnavodne": 8627,
      "Ġimpre": 8628,
      "Ġlom": 8629,
      "dy": 8630,
      "Ġarti": 8631,
      "Ġgrafi": 8632,
      "Ġreferentnih": 8633,
      "sjeda": 8634,
      "Ġ212": 8635,
      "Ġprijelazne": 8636,
      "Ġvjerovnika": 8637,
      "Ġsvojstvo": 8638,
      "Ġdese": 8639,
      "Ġmorala": 8640,
      "sene": 8641,
      "Ġuvedene": 8642,
      "Ġkrm": 8643,
      "Ġsate": 8644,
      "Ġpostignu": 8645,
      "Ġmirovina": 8646,
      "Ġseg": 8647,
      "mislje": 8648,
      "Ġprisutnosti": 8649,
      "Ġupravnih": 8650,
      "Ġzemalj": 8651,
      "Ġpoglavljem": 8652,
      "Ġpropisana": 8653,
      "nili": 8654,
      "Ġbici": 8655,
      "Ġaci": 8656,
      "Ġtrgovinske": 8657,
      "Ġnarucitelja": 8658,
      "Ġnizi": 8659,
      "Ġdopustene": 8660,
      "Ġpoduzecu": 8661,
      "Ġprihvat": 8662,
      "Ġnot": 8663,
      "Ġ245": 8664,
      "Ġskra": 8665,
      "Ġ321": 8666,
      "Ġpredmetom": 8667,
      "Ġprovedbenim": 8668,
      "ngen": 8669,
      "mes": 8670,
      "Ġpredlozene": 8671,
      "Ġjedinstvenom": 8672,
      "znji": 8673,
      "Ġunosi": 8674,
      "Ġvizual": 8675,
      "Ġlista": 8676,
      "Ġcour": 8677,
      "Ġobliko": 8678,
      "Ġodredila": 8679,
      "Ġpokusa": 8680,
      "Ġznacenje": 8681,
      "Ġgovt": 8682,
      "Ġtemperature": 8683,
      "Ġwho": 8684,
      "Ġkonverzi": 8685,
      "gnosti": 8686,
      "Ġum": 8687,
      "Ġcat": 8688,
      "Ġizvori": 8689,
      "Ġisplati": 8690,
      "Ġstrategija": 8691,
      "Ġgoo": 8692,
      "Ġkorisniku": 8693,
      "Ġuvozu": 8694,
      "Ġproveo": 8695,
      "Ġdjelatnostima": 8696,
      "Ġobvezne": 8697,
      "Ġodnosila": 8698,
      "Ġpisana": 8699,
      "tel": 8700,
      "Ġjedinstvena": 8701,
      "hl": 8702,
      "zacija": 8703,
      "Ġdopisu": 8704,
      "Ġsedmo": 8705,
      "Ġ265": 8706,
      "Ġpostaje": 8707,
      "Ġpriznaju": 8708,
      "Ġnesigur": 8709,
      "ken": 8710,
      "Ġprekri": 8711,
      "gori": 8712,
      "Ġnezakonitog": 8713,
      "Ġproglasava": 8714,
      "Ġizravan": 8715,
      "Ġkazneni": 8716,
      "Ġmaterijalne": 8717,
      "Ġreforme": 8718,
      "Ġprekogranicne": 8719,
      "Ġobvezan": 8720,
      "Ġpovlacenje": 8721,
      "ĠosloboÄĳenje": 8722,
      "Ġkopi": 8723,
      "Ġnediskriminacije": 8724,
      "sjeka": 8725,
      "0020": 8726,
      "Ġnovom": 8727,
      "Ġsirenja": 8728,
      "Ġpola": 8729,
      "Ġobjaviti": 8730,
      "Ġotpaci": 8731,
      "Ġklao": 8732,
      "Ġagri": 8733,
      "Ġzatvora": 8734,
      "Ġ277": 8735,
      "Ġth": 8736,
      "Ġosnivanje": 8737,
      "Ġliq": 8738,
      "Ġvisine": 8739,
      "Ġpoteskoce": 8740,
      "dad": 8741,
      "zona": 8742,
      "ĠpredviÄĳenom": 8743,
      "Ġupis": 8744,
      "Ġtransakcijama": 8745,
      "Ġregiji": 8746,
      "Ġizradi": 8747,
      "ĠneodreÄĳeno": 8748,
      "Ġpotvrdila": 8749,
      "Ġkreditnog": 8750,
      "Ġplatforme": 8751,
      "Ġtjedna": 8752,
      "ekonom": 8753,
      "Ġodbaciti": 8754,
      "Ġppu": 8755,
      "Ġkerami": 8756,
      "novlje": 8757,
      "Ġukupnih": 8758,
      "Ġsklapanju": 8759,
      "Ġamorti": 8760,
      "Ġrade": 8761,
      "Ġverzije": 8762,
      "cla": 8763,
      "Ġodsu": 8764,
      "Ġdopusten": 8765,
      "Ġknjigovodstve": 8766,
      "lena": 8767,
      "Ġispituje": 8768,
      "Ġpruzanju": 8769,
      "Ġkolicinama": 8770,
      "das": 8771,
      "Ġogranicavaju": 8772,
      "Ġsnima": 8773,
      "Ġ257": 8774,
      "Ġlabel": 8775,
      "Ġizazo": 8776,
      "Ġposjedo": 8777,
      "Ġporuka": 8778,
      "Ġodobrene": 8779,
      "Ġtakoz": 8780,
      "Ġsmjesta": 8781,
      "Ġpromjenu": 8782,
      "Ġelektricnu": 8783,
      "op": 8784,
      "tlja": 8785,
      "zenog": 8786,
      "redme": 8787,
      "rede": 8788,
      "Ġbaze": 8789,
      "dba": 8790,
      "Ġosigurao": 8791,
      "Ġlet": 8792,
      "Ġkupnje": 8793,
      "rodno": 8794,
      "Ġjedinic": 8795,
      "Ġtechno": 8796,
      "Ġwil": 8797,
      "Ġopisano": 8798,
      "raca": 8799,
      "Ġ262": 8800,
      "Ġpovjerljivosti": 8801,
      "Ġnjezinoj": 8802,
      "Ġizvrsena": 8803,
      "Ġzgrade": 8804,
      "dana": 8805,
      "Ġpogodnosti": 8806,
      "Ġfaktora": 8807,
      "Ġslovacka": 8808,
      "ham": 8809,
      "Ġsluzbeno": 8810,
      "Ġugroziti": 8811,
      "Ġbezgrebenki": 8812,
      "Ġ413": 8813,
      "tie": 8814,
      "nicka": 8815,
      "Ġargumentaciju": 8816,
      "Ġ282": 8817,
      "Ġzamjene": 8818,
      "áĥĿáĥ": 8819,
      "Ġprehrambeni": 8820,
      "Ġ005": 8821,
      "Ġmateri": 8822,
      "Ġotpreme": 8823,
      "Ġjamstava": 8824,
      "Ġcivilnog": 8825,
      "lie": 8826,
      "Ġnaviga": 8827,
      "Ġukljucenih": 8828,
      "teljice": 8829,
      "Ġpogon": 8830,
      "Ġkakve": 8831,
      "Ġbespredme": 8832,
      "Ġuspostave": 8833,
      "Ġdeklari": 8834,
      "kve": 8835,
      "Ġproporcionalnost": 8836,
      "Ġreformi": 8837,
      "Ġkljucni": 8838,
      "nop": 8839,
      "Ġuste": 8840,
      "Ġtail": 8841,
      "Ġrjesavanja": 8842,
      "Ġbur": 8843,
      "Ġvaluti": 8844,
      "Ġgodisnja": 8845,
      "con": 8846,
      "Î´": 8847,
      "Ġnepla": 8848,
      "Ġpatent": 8849,
      "Ġzdravstvenog": 8850,
      "Ġlatvija": 8851,
      "Ġsubvencio": 8852,
      "Ġzakla": 8853,
      "Ġenergija": 8854,
      "Ġuredu": 8855,
      "Ġvoznje": 8856,
      "Ġodvojeno": 8857,
      "Ġ1986": 8858,
      "Ġuvrstenje": 8859,
      "Ġzau": 8860,
      "Ġoduzimanje": 8861,
      "stog": 8862,
      "Ġpobijanog": 8863,
      "Ġpol": 8864,
      "mene": 8865,
      "Ġpripremljeni": 8866,
      "Ġ238": 8867,
      "Ġinvalidite": 8868,
      "Ġvlastitim": 8869,
      "gati": 8870,
      "Ġpacije": 8871,
      "Ġ196": 8872,
      "Ġprilagoditi": 8873,
      "Ġ254": 8874,
      "Ġtemeljne": 8875,
      "Ġdokumentacija": 8876,
      "Õ«Õ": 8877,
      "Ġstate": 8878,
      "Ġrazlogu": 8879,
      "Ġslicna": 8880,
      "Ġuhidbenog": 8881,
      "ÏĨ": 8882,
      "torne": 8883,
      "Ġdoticnoj": 8884,
      "Ġdug": 8885,
      "Ġregionalni": 8886,
      "ÏĦÎ±": 8887,
      "Ġnosa": 8888,
      "Ġkljucnih": 8889,
      "Ġscena": 8890,
      "Ġpodatak": 8891,
      "Ġbiljesci": 8892,
      "Ġdampinskog": 8893,
      "Ġzastare": 8894,
      "Ġzakonodavne": 8895,
[...]
