{
  "version": "1.0",
  "truncation": null,
  "padding": null,
  "added_tokens": [
    {
      "id": 0,
      "content": "<pad>",
      "single_word": false,
      "lstrip": false,
      "rstrip": false,
      "normalized": false,
      "special": true
    },
    {
      "id": 1,
      "content": "<s>",
      "single_word": false,
      "lstrip": false,
      "rstrip": false,
      "normalized": false,
      "special": true
    },
    {
      "id": 2,
      "content": "</s>",
      "single_word": false,
      "lstrip": false,
      "rstrip": false,
      "normalized": false,
      "special": true
    },
    {
      "id": 3,
      "content": "<unk>",
      "single_word": false,
      "lstrip": false,
      "rstrip": false,
      "normalized": false,
      "special": true
    },
    {
      "id": 4,
      "content": "<mask>",
      "single_word": false,
      "lstrip": false,
      "rstrip": false,
      "normalized": false,
      "special": true
    }
  ],
  "normalizer": {
    "type": "Sequence",
    "normalizers": [
      {
        "type": "NFKD"
      },
      {
        "type": "BertNormalizer",
        "clean_text": true,
        "handle_chinese_chars": true,
        "strip_accents": null,
        "lowercase": true
      }
    ]
  },
  "pre_tokenizer": {
    "type": "Sequence",
    "pretokenizers": [
      {
        "type": "BertPreTokenizer"
      },
      {
        "type": "ByteLevel",
        "add_prefix_space": true,
        "trim_offsets": true,
        "use_regex": true
      }
    ]
  },
  "post_processor": {
    "type": "RobertaProcessing",
    "sep": [
      "</s>",
      2
    ],
    "cls": [
      "<s>",
      1
    ],
    "trim_offsets": true,
    "add_prefix_space": true
  },
  "decoder": {
    "type": "ByteLevel",
    "add_prefix_space": true,
    "trim_offsets": true,
    "use_regex": true
  },
  "model": {
    "type": "BPE",
    "dropout": null,
    "unk_token": "<unk>",
    "continuing_subword_prefix": null,
    "end_of_word_suffix": null,
    "fuse_unk": false,
    "vocab": {
      "<pad>": 0,
      "<s>": 1,
      "</s>": 2,
      "<unk>": 3,
      "<mask>": 4,
      "!": 5,
      "\"": 6,
      "#": 7,
      "$": 8,
      "%": 9,
      "&": 10,
      "'": 11,
      "(": 12,
      ")": 13,
      "*": 14,
      "+": 15,
      ",": 16,
      "-": 17,
      ".": 18,
      "/": 19,
      "0": 20,
      "1": 21,
      "2": 22,
      "3": 23,
      "4": 24,
      "5": 25,
      "6": 26,
      "7": 27,
      "8": 28,
      "9": 29,
      ":": 30,
      ";": 31,
      "<": 32,
      "=": 33,
      ">": 34,
      "?": 35,
      "@": 36,
      "[": 37,
      "\\": 38,
      "]": 39,
      "^": 40,
      "_": 41,
      "`": 42,
      "a": 43,
      "b": 44,
      "c": 45,
      "d": 46,
      "e": 47,
      "f": 48,
      "g": 49,
      "h": 50,
      "i": 51,
      "j": 52,
      "k": 53,
      "l": 54,
      "m": 55,
      "n": 56,
      "o": 57,
      "p": 58,
      "q": 59,
      "r": 60,
      "s": 61,
      "t": 62,
      "u": 63,
      "v": 64,
      "w": 65,
      "x": 66,
      "y": 67,
      "z": 68,
      "{": 69,
      "|": 70,
      "}": 71,
      "~": 72,
      "¡": 73,
      "¢": 74,
      "£": 75,
      "¤": 76,
      "¥": 77,
      "¦": 78,
      "§": 79,
      "¨": 80,
      "©": 81,
      "ª": 82,
      "«": 83,
      "¬": 84,
      "®": 85,
      "¯": 86,
      "°": 87,
      "±": 88,
      "²": 89,
      "³": 90,
      "´": 91,
      "µ": 92,
      "¶": 93,
      "·": 94,
      "¸": 95,
      "¹": 96,
      "º": 97,
      "»": 98,
      "¼": 99,
      "½": 100,
      "¾": 101,
      "¿": 102,
      "Â": 103,
      "Ã": 104,
      "Ä": 105,
      "Å": 106,
      "Æ": 107,
      "Ê": 108,
      "Î": 109,
      "Ï": 110,
      "Ð": 111,
      "Ñ": 112,
      "Ò": 113,
      "Ó": 114,
      "Õ": 115,
      "Ö": 116,
      "à": 117,
      "â": 118,
      "ã": 119,
      "ä": 120,
      "å": 121,
      "æ": 122,
      "ç": 123,
      "è": 124,
      "é": 125,
      "Ġ": 126,
      "Ģ": 127,
      "ģ": 128,
      "Ĥ": 129,
      "ĥ": 130,
      "Ħ": 131,
      "ħ": 132,
      "Ĩ": 133,
      "ĩ": 134,
      "Ī": 135,
      "ī": 136,
      "Ĭ": 137,
      "ĭ": 138,
      "Į": 139,
      "į": 140,
      "İ": 141,
      "ı": 142,
      "Ĳ": 143,
      "ĳ": 144,
      "Ĵ": 145,
      "ĵ": 146,
      "Ķ": 147,
      "ķ": 148,
      "ĸ": 149,
      "Ĺ": 150,
      "ĺ": 151,
      "Ļ": 152,
      "ļ": 153,
      "Ľ": 154,
      "ľ": 155,
      "Ŀ": 156,
      "ŀ": 157,
      "Ł": 158,
      "ł": 159,
      "Ń": 160,
      "Ġt": 161,
      "Ġa": 162,
      "Ġth": 163,
      "Ġo": 164,
      "Ġ.": 165,
      "in": 166,
      "Ġthe": 167,
      "er": 168,
      "Ġ,": 169,
      "on": 170,
      "Ġs": 171,
      "Ġc": 172,
      "re": 173,
      "ti": 174,
      "en": 175,
      "Ġp": 176,
      "ed": 177,
      "Ġof": 178,
      "is": 179,
      "Ġb": 180,
      "or": 181,
      "at": 182,
      "al": 183,
      "es": 184,
      "Ġf": 185,
      "Ġin": 186,
      "nd": 187,
      "tion": 188,
      "Ġd": 189,
      "Ġw": 190,
      "it": 191,
      "Ġm": 192,
      "Ġto": 193,
      "an": 194,
      "Ġ1": 195,
      "Ġn": 196,
      "ar": 197,
      "Ġre": 198,
      "ic": 199,
      "ing": 200,
      "ro": 201,
      "ent": 202,
      "ec": 203,
      "Ġand": 204,
      "Ġh": 205,
      "Ġco": 206,
      "Ġe": 207,
      "Ġ)": 208,
      "Ġ(": 209,
      "Ġl": 210,
      "Ġ2": 211,
      "Ġor": 212,
      "as": 213,
      "ur": 214,
      "ation": 215,
      "Ġ-": 216,
      "le": 217,
      "ce": 218,
      "ment": 219,
      "us": 220,
      "Ġ\\": 221,
      "id": 222,
      "Ġpro": 223,
      "Ġbe": 224,
      "th": 225,
      "Ġfor": 226,
      "Ġthat": 227,
      "Ġcon": 228,
      "il": 229,
      "Ġan": 230,
      "Ġno": 231,
      "un": 232,
      "Ġsu": 233,
      "ve": 234,
      "ate": 235,
      "Ġas": 236,
      "Ġde": 237,
      "ct": 238,
      "Ġst": 239,
      "Ġby": 240,
      "pp": 241,
      "ter": 242,
      "Ġis": 243,
      "Ġwh": 244,
      "Ġ3": 245,
      "im": 246,
      "Ġg": 247,
      "ly": 248,
      "ch": 249,
      "Ġsh": 250,
      "ay": 251,
      "ul": 252,
      "Ġon": 253,
      "Ġsec": 254,
      "ers": 255,
      "Ġcom": 256,
      "ol": 257,
      "Ġapp": 258,
      "ra": 259,
      "Ġ\"": 260,
      "ith": 261,
      "ri": 262,
      "st": 263,
      "Ġv": 264,
      "Ġ19": 265,
      "Ġ;": 266,
      "ion": 267,
      "ut": 268,
      "Ġnot": 269,
      "und": 270,
      "qu": 271,
      "all": 272,
      "Ġj": 273,
      "Ġex": 274,
      "se": 275,
      "Ġwith": 276,
      "ant": 277,
      "Ġch": 278,
      "Ġ4": 279,
      "ll": 280,
      "Ġthis": 281,
      "ab": 282,
      "00": 283,
      "ity": 284,
      "if": 285,
      "end": 286,
      "ess": 287,
      "ge": 288,
      "Ġshall": 289,
      "ud": 290,
      "Ġ5": 291,
      "ist": 292,
      "Ġit": 293,
      "Ġat": 294,
      "ain": 295,
      "ther": 296,
      "ig": 297,
      "Ġ'": 298,
      "ir": 299,
      "Ġwas": 300,
      "ver": 301,
      "ty": 302,
      "ff": 303,
      "Ġad": 304,
      "Ġx": 305,
      "Ġse": 306,
      "lo": 307,
      "Ġany": 308,
      "ad": 309,
      "est": 310,
      "Ġac": 311,
      "Ġhe": 312,
      "Ġâ": 313,
      "vid": 314,
      "ĠâĢ": 315,
      "em": 316,
      "ire": 317,
      "ect": 318,
      "Ġ0": 319,
      "Ġcour": 320,
      "Ġ:": 321,
      "Ġstate": 322,
      "Ġsub": 323,
      "Ġ6": 324,
      "Ġr": 325,
      "ard": 326,
      "res": 327,
      "Ġcomm": 328,
      "per": 329,
      "Ġund": 330,
      "Ġcont": 331,
      "Ġsection": 332,
      "Ġcourt": 333,
      "Ġpar": 334,
      "and": 335,
      "om": 336,
      "am": 337,
      "ary": 338,
      "os": 339,
      "Ġunder": 340,
      "ich": 341,
      "ance": 342,
      "Ġ7": 343,
      "Ġag": 344,
      "Ġmay": 345,
      "Ġle": 346,
      "su": 347,
      "ow": 348,
      "ated": 349,
      "Ġwhich": 350,
      "Ġun": 351,
      "Ġcomp": 352,
      "rom": 353,
      "Ġam": 354,
      "Ġres": 355,
      "ore": 356,
      "lic": 357,
      "Ġfrom": 358,
      "ort": 359,
      "tive": 360,
      "Ġother": 361,
      "able": 362,
      "Ġ8": 363,
      "iv": 364,
      "Ġact": 365,
      "fic": 366,
      "Ġinc": 367,
      "pt": 368,
      "Ġne": 369,
      "ust": 370,
      "Ġper": 371,
      "use": 372,
      "Ġbo": 373,
      "Ġen": 374,
      "Ġfa": 375,
      "ĠÂ": 376,
      "la": 377,
      "ĠÂ§": 378,
      "ere": 379,
      "ci": 380,
      "erson": 381,
      "Ġ200": 382,
      "Ġdis": 383,
      "Ġrequ": 384,
      "Ġ20": 385,
      "ence": 386,
      "Ġsuch": 387,
      "Ġappe": 388,
      "Ġ9": 389,
      "Ġdef": 390,
      "Ġperson": 391,
      "gh": 392,
      "Ġare": 393,
      "li": 394,
      "Ġwe": 395,
      "Ġ]": 396,
      "ase": 397,
      "ans": 398,
      "Ġ[": 399,
      "min": 400,
      "Ġcoun": 401,
      "Ġha": 402,
      "Ġ10": 403,
      "red": 404,
      "Ġrep": 405,
      "ision": 406,
      "ber": 407,
      "iss": 408,
      "Ġif": 409,
      "od": 410,
      "Ġy": 411,
      "Ġpur": 412,
      "ee": 413,
      "Ġar": 414,
      "ations": 415,
      "Ġall": 416,
      "Ġprovid": 417,
      "Ġu": 418,
      "for": 419,
      "Ġal": 420,
      "ap": 421,
      "ts": 422,
      "um": 423,
      "ties": 424,
      "Ġcons": 425,
      "Ġtr": 426,
      "ection": 427,
      "ree": 428,
      "erv": 429,
      "Ġ*": 430,
      "uld": 431,
      "Ġrec": 432,
      "ments": 433,
      "ub": 434,
      "Ġdo": 435,
      "ord": 436,
      "Ġim": 437,
      "Ġla": 438,
      "age": 439,
      "Ġeff": 440,
      "ition": 441,
      "pon": 442,
      "tic": 443,
      "Ġthere": 444,
      "Ġacc": 445,
      "Ġta": 446,
      "ot": 447,
      "Ġpl": 448,
      "Ġass": 449,
      "Ġreg": 450,
      "Ġem": 451,
      "ure": 452,
      "Ġdep": 453,
      "ric": 454,
      "Ġhave": 455,
      "Ġrequire": 456,
      "ission": 457,
      "ill": 458,
      "Ġjud": 459,
      "ial": 460,
      "Ġinter": 461,
      "ach": 462,
      "ke": 463,
      "ru": 464,
      "eral": 465,
      "ted": 466,
      "Ġhis": 467,
      "Ġsp": 468,
      "Ġdec": 469,
      "Ġlaw": 470,
      "iz": 471,
      "Ġi": 472,
      "Ġstat": 473,
      "Ġins": 474,
      "lud": 475,
      "Ġoffic": 476,
      "Ġhas": 477,
      "oun": 478,
      "Ġau": 479,
      "Ġpub": 480,
      "Ġind": 481,
      "Ġme": 482,
      "Ġrev": 483,
      "Ġserv": 484,
      "der": 485,
      "Ġ199": 486,
      "Ġpre": 487,
      "ens": 488,
      "ish": 489,
      "fer": 490,
      "ied": 491,
      "ction": 492,
      "Ġfin": 493,
      "Ġadd": 494,
      "Ġproper": 495,
      "Ġimp": 496,
      "ag": 497,
      "ould": 498,
      "form": 499,
      "ie": 500,
      "ign": 501,
      "ual": 502,
      "art": 503,
      "oc": 504,
      "Ġits": 505,
      "du": 506,
      "Ġemp": 507,
      "Ġ11": 508,
      "Ġleg": 509,
      "ip": 510,
      "Ġso": 511,
      "tit": 512,
      "ib": 513,
      "are": 514,
      "Ġdist": 515,
      "Ġ201": 516,
      "Ġqu": 517,
      "Ġcommission": 518,
      "ime": 519,
      "thor": 520,
      "ice": 521,
      "Ġ198": 522,
      "Ġboard": 523,
      "Ġgo": 524,
      "Ġint": 525,
      "ution": 526,
      "Ġwho": 527,
      "enc": 528,
      "ory": 529,
      "ass": 530,
      "Ġk": 531,
      "loy": 532,
      "Ġauthor": 533,
      "ear": 534,
      "Ġ12": 535,
      "fter": 536,
      "ne": 537,
      "Ġdefend": 538,
      "Ġpay": 539,
      "Ġhad": 540,
      "Ġbeen": 541,
      "ue": 542,
      "Ġissu": 543,
      "Ġcase": 544,
      "Ġemploy": 545,
      "ility": 546,
      "Ġma": 547,
      "Ġ_": 548,
      "Ġdefendant": 549,
      "Ġyear": 550,
      "Ġexp": 551,
      "Ġsa": 552,
      "Ġman": 553,
      "Ġcor": 554,
      "ract": 555,
      "Ġob": 556,
      "ount": 557,
      "ous": 558,
      "Ġmd": 559,
      "apter": 560,
      "Ġpres": 561,
      "ose": 562,
      "rib": 563,
      "ugh": 564,
      "Ġinclud": 565,
      "wn": 566,
      "mit": 567,
      "Ġapplic": 568,
      "artment": 569,
      "Ġab": 570,
      "Ġone": 571,
      "Ġappro": 572,
      "Ġafter": 573,
      "Ġtime": 574,
      "tain": 575,
      "Ġel": 576,
      "ject": 577,
      "Ġacts": 578,
      "Ġgen": 579,
      "ited": 580,
      "Ġpublic": 581,
      "Ġproperty": 582,
      "igh": 583,
      "Ġter": 584,
      "Ġdire": 585,
      "Ġcounty": 586,
      "Ġsubs": 587,
      "Ġtax": 588,
      "Ġli": 589,
      "ome": 590,
      "Ġdepartment": 591,
      "Ġthan": 592,
      "ense": 593,
      "Ġspec": 594,
      "tim": 595,
      "ced": 596,
      "Ġ197": 597,
      "Ġwere": 598,
      "ac": 599,
      "Ġ13": 600,
      "Ġus": 601,
      "Ġest": 602,
      "fore": 603,
      "Ġri": 604,
      "Ġatt": 605,
      "ade": 606,
      "Ġpol": 607,
      "Ġtrans": 608,
      "Ġorder": 609,
      "Ġcer": 610,
      "ame": 611,
      "Ġdes": 612,
      "ef": 613,
      "pos": 614,
      "ond": 615,
      "por": 616,
      "Ġcontract": 617,
      "low": 618,
      "Ġdeter": 619,
      "Ġchapter": 620,
      "ater": 621,
      "ive": 622,
      "Ġ15": 623,
      "Ġinv": 624,
      "ings": 625,
      "Ġmem": 626,
      "Ġevid": 627,
      "Ġbut": 628,
      "Ġdetermin": 629,
      "Ġprovided": 630,
      "Ġupon": 631,
      "Ġnew": 632,
      "Ġwhen": 633,
      "Ġmo": 634,
      "vision": 635,
      "Ġgeneral": 636,
      "ile": 637,
      "ild": 638,
      "tice": 639,
      "Ġwould": 640,
      "ies": 641,
      "oin": 642,
      "Ġmade": 643,
      "Ġdirect": 644,
      "tif": 645,
      "de": 646,
      "ason": 647,
      "ally": 648,
      "Ġamend": 649,
      "Ġjur": 650,
      "Ġfund": 651,
      "Ġtri": 652,
      "Ġpart": 653,
      "ities": 654,
      "ause": 655,
      "Ġrigh": 656,
      "one": 657,
      "stru": 658,
      "ine": 659,
      "we": 660,
      "ency": 661,
      "ise": 662,
      "out": 663,
      "Ġevidence": 664,
      "ceed": 665,
      "Ġ30": 666,
      "Ġ14": 667,
      "Ġcla": 668,
      "Ġagree": 669,
      "Ġeach": 670,
      "Ġdistric": 671,
      "Ġrece": 672,
      "Ġ18": 673,
      "rant": 674,
      "Ġ/": 675,
      "Ġ$": 676,
      "lish": 677,
      "Ġprovision": 678,
      "ors": 679,
      "gra": 680,
      "ult": 681,
      "Ġsupp": 682,
      "ating": 683,
      "Ġappell": 684,
      "Ġsee": 685,
      "alth": 686,
      "Ġreason": 687,
      "Ġout": 688,
      "ĠâĢľ": 689,
      "Ġaction": 690,
      "ph": 691,
      "our": 692,
      "el": 693,
      "Ġpri": 694,
      "Ġfol": 695,
      "Ġlic": 696,
      "duct": 697,
      "Ġdistrict": 698,
      "Ġconc": 699,
      "ption": 700,
      "ven": 701,
      "Ġaff": 702,
      "vern": 703,
      "Ġinform": 704,
      "Ġrecord": 705,
      "Ġfollow": 706,
      "Ġtrial": 707,
      "cip": 708,
      "Ġchar": 709,
      "Ġappeal": 710,
      "Ġbec": 711,
      "Ġ|": 712,
      "Ġmust": 713,
      "Ġwithin": 714,
      "Ġdate": 715,
      "iew": 716,
      "Ġreport": 717,
      "Ġpr": 718,
      "Ġown": 719,
      "ective": 720,
      "Ġgovern": 721,
      "Ġro": 722,
      "Ġfact": 723,
      "Ġwill": 724,
      "ĠâĢĿ": 725,
      "ute": 726,
      "Ġbefore": 727,
      "Ġinterest": 728,
      "Ġ16": 729,
      "Ġclaim": 730,
      "old": 731,
      "Ġday": 732,
      "act": 733,
      "Ġrequired": 734,
      "cu": 735,
      "king": 736,
      "Ġappellant": 737,
      "Ġdisc": 738,
      "ific": 739,
      "ms": 740,
      "Ġmore": 741,
      "Ġ17": 742,
      "Ġ00": 743,
      "Ġoper": 744,
      "ress": 745,
      "80": 746,
      "Ġrem": 747,
      "ĠâĢĻ": 748,
      "Ġfil": 749,
      "Ġher": 750,
      "itt": 751,
      "ld": 752,
      "ces": 753,
      "Ġmar": 754,
      "Ġpe": 755,
      "Ġvi": 756,
      "Ġ21": 757,
      "Ġuse": 758,
      "ices": 759,
      "cept": 760,
      "Ġtw": 761,
      "its": 762,
      "Ġinsur": 763,
      "ved": 764,
      "Ġid": 765,
      "Ġsch": 766,
      "Ġpa": 767,
      "ees": 768,
      "Ġcode": 769,
      "ized": 770,
      "Ġcir": 771,
      "Ġjudge": 772,
      "Ġsubsection": 773,
      "ablish": 774,
      "Ġwhe": 775,
      "land": 776,
      "ical": 777,
      "Ġestablish": 778,
      "Ġamount": 779,
      "Ġtheir": 780,
      "Ġadmin": 781,
      "tific": 782,
      "Ġrel": 783,
      "ule": 784,
      "Ġwhether": 785,
      "sel": 786,
      "ast": 787,
      "so": 788,
      "Ġprogra": 789,
      "Ġloc": 790,
      "Ġcr": 791,
      "Ġcl": 792,
      "Ġben": 793,
      "Ġregul": 794,
      "Ġcorpor": 795,
      "Ġagreement": 796,
      "Ġdid": 797,
      "Ġinformation": 798,
      "Ġlim": 799,
      "Ġbas": 800,
      "Ġlo": 801,
      "Ġservices": 802,
      "Ġonly": 803,
      "Ġ25": 804,
      "cess": 805,
      "Ġtra": 806,
      "Ġchild": 807,
      "Ġfir": 808,
      "Ġjudg": 809,
      "Ġ31": 810,
      "ail": 811,
      "Ġrespon": 812,
      "ates": 813,
      "ible": 814,
      "Ġtit": 815,
      "Ġauthority": 816,
      "ork": 817,
      "ath": 818,
      "Ġ22": 819,
      "led": 820,
      "Ġalso": 821,
      "Ġdoes": 822,
      "ider": 823,
      "Ġpursu": 824,
      "Ġ27": 825,
      "Ġagain": 826,
      "Ġgu": 827,
      "Ġ23": 828,
      "Ġthey": 829,
      "Ġproceed": 830,
      "tial": 831,
      "Ġval": 832,
      "Ġtrust": 833,
      "Ġtitle": 834,
      "Ġviol": 835,
      "Ġplain": 836,
      "Ġservice": 837,
      "Ġsal": 838,
      "aring": 839,
      "Ġpos": 840,
      "Ġed": 841,
      "Ġmeans": 842,
      "Ġset": 843,
      "hip": 844,
      "Ġcost": 845,
      "Ġadded": 846,
      "ability": 847,
      "ged": 848,
      "Ġplan": 849,
      "Ġsy": 850,
      "gu": 851,
      "Ġrule": 852,
      "oint": 853,
      "ry": 854,
      "Ġtes": 855,
      "Ġartic": 856,
      "ecess": 857,
      "unic": 858,
      "Ġgrant": 859,
      "Ġent": 860,
      "ĠâĢĵ": 861,
      "Ġwr": 862,
      "Ġsubject": 863,
      "Ġwhere": 864,
      "Ġconsider": 865,
      "Ġform": 866,
      "Ġnotice": 867,
      "ight": 868,
      "Ġstates": 869,
      "Ġra": 870,
      "Ġ40": 871,
      "Ġpursuant": 872,
      "titution": 873,
      "Ġprovisions": 874,
      "ys": 875,
      "ivision": 876,
      "Ġmass": 877,
      "ck": 878,
      "Ġadminist": 879,
      "Ġinto": 880,
      "Ġtwo": 881,
      "iction": 882,
      "cial": 883,
      "ving": 884,
      "Ġfollowing": 885,
      "Ġreview": 886,
      "pect": 887,
      "Ġfirst": 888,
      "ide": 889,
      "Ġbus": 890,
      "ivid": 891,
      "Ġbecause": 892,
      "nt": 893,
      "tiff": 894,
      "estion": 895,
      "Ġplaintiff": 896,
      "stan": 897,
      "Ġrul": 898,
      "Ġcompan": 899,
      "tition": 900,
      "Ġagainst": 901,
      "Ġxe": 902,
      "Ġequ": 903,
      "Ġright": 904,
      "ong": 905,
      "iness": 906,
      "orne": 907,
      "Ġcar": 908,
      "Ġ196": 909,
      "Ġsame": 910,
      "ici": 911,
      "ents": 912,
      "urn": 913,
      "uring": 914,
      "crib": 915,
      "Ġused": 916,
      "Ġve": 917,
      "Ġ24": 918,
      "Ġfind": 919,
      "lig": 920,
      "Ġincluding": 921,
      "Ġsaid": 922,
      "Ġwithout": 923,
      "ative": 924,
      "Ġ29": 925,
      "Ġ26": 926,
      "Ġnecess": 927,
      "Ġfo": 928,
      "stem": 929,
      "Ġjudgment": 930,
      "Ġoffice": 931,
      "Ġgro": 932,
      "ised": 933,
      "ness": 934,
      "Ġaccord": 935,
      "te": 936,
      "rough": 937,
      "ting": 938,
      "now": 939,
      "Ġhow": 940,
      "Ġmon": 941,
      "Ġsept": 942,
      "Ġhim": 943,
      "Ġop": 944,
      "Ġsystem": 945,
      "Ġattorne": 946,
      "Ġcorporation": 947,
      "Ġcommon": 948,
      "Ġquestion": 949,
      "pri": 950,
      "ever": 951,
      "Ġfac": 952,
      "Ġrequest": 953,
      "Ġcond": 954,
      "Ġhealth": 955,
      "Ġprogram": 956,
      "iod": 957,
      "tified": 958,
      "ool": 959,
      "op": 960,
      "Ġbusiness": 961,
      "Ġcan": 962,
      "Ġperiod": 963,
      "less": 964,
      "Ġmary": 965,
      "Ġcas": 966,
      "Ġshe": 967,
      "Ġagency": 968,
      "Ġlicense": 969,
      "ified": 970,
      "Ġyears": 971,
      "ĠâĢĶ": 972,
      "Ġext": 973,
      "Ġcred": 974,
      "Ġland": 975,
      "Ġbond": 976,
      "mitted": 977,
      "Ġprovide": 978,
      "inal": 979,
      "val": 980,
      "Ġfed": 981,
      "Ġph": 982,
      "Ġfail": 983,
      "velo": 984,
      "ember": 985,
      "Ġwork": 986,
      "ning": 987,
      "Ġthose": 988,
      "tiv": 989,
      "Ġmaryland": 990,
      "Ġpetition": 991,
      "Ġbenef": 992,
      "ected": 993,
      "lement": 994,
      "Ġ28": 995,
      "Ġoff": 996,
      "Ġcontro": 997,
      "Ġpolic": 998,
      "Ġcompany": 999,
      "Ġmain": 1000,
      "Ġpla": 1001,
      "Ġapplication": 1002,
      "Ġamended": 1003,
      "ony": 1004,
      "Ġover": 1005,
      "Ġtre": 1006,
      "pose": 1007,
      "Ġreceiv": 1008,
      "ner": 1009,
      "Ġado": 1010,
      "Ġparty": 1011,
      "Ġjury": 1012,
      "Ġte": 1013,
      "poses": 1014,
      "ration": 1015,
      "Ġfederal": 1016,
      "Ġaddition": 1017,
      "Ġattorney": 1018,
      "Ġarticle": 1019,
      "Ġpow": 1020,
      "velop": 1021,
      "Ġhearing": 1022,
      "Ġconduct": 1023,
      "Ġissue": 1024,
      "ures": 1025,
      "Ġcity": 1026,
      "Ġmember": 1027,
      "Ġinsurance": 1028,
      "ividual": 1029,
      "Ġdecision": 1030,
      "gan": 1031,
      "les": 1032,
      "Ġxa": 1033,
      "Ġindividual": 1034,
      "Ġstand": 1035,
      "ational": 1036,
      "Ġmr": 1037,
      "Ġschool": 1038,
      "Ġpurposes": 1039,
      "bers": 1040,
      "Ġmed": 1041,
      "Ġshould": 1042,
      "struction": 1043,
      "Ġ32": 1044,
      "ks": 1045,
      "Ġofficer": 1046,
      "Ġpresent": 1047,
      "Ġprior": 1048,
      "med": 1049,
      "Ġmin": 1050,
      "atter": 1051,
      "Ġ50": 1052,
      "Ġfiled": 1053,
      "Ġ35": 1054,
      "Ġcondition": 1055,
      "Ġpayment": 1056,
      "Ġperform": 1057,
      "Ġcoll": 1058,
      "Ġthese": 1059,
      "Ġnecessary": 1060,
      "Ġref": 1061,
      "Ġ33": 1062,
      "Ġhere": 1063,
      "Ġbet": 1064,
      "Ġduring": 1065,
      "Ġsupport": 1066,
      "Ġdefin": 1067,
      "Ġappropri": 1068,
      "unicip": 1069,
      "Ġhist": 1070,
      "Ġii": 1071,
      "Ġpurpose": 1072,
      "og": 1073,
      "Ġmunicip": 1074,
      "Ġret": 1075,
      "Ġcertific": 1076,
      "ix": 1077,
      "Ġmunicipal": 1078,
      "Ġxc": 1079,
      "Ġcare": 1080,
      "ator": 1081,
      "Ġoc": 1082,
      "ward": 1083,
      "ily": 1084,
      "Ġden": 1085,
      "rac": 1086,
      "Ġadv": 1087,
      "Ġdevelop": 1088,
      "Ġprot": 1089,
      "Ġdesign": 1090,
      "Ġspecial": 1091,
      "of": 1092,
      "hic": 1093,
      "ession": 1094,
      "umber": 1095,
      "Ġvehic": 1096,
      "Ġcould": 1097,
      "Ġamd": 1098,
      "Ġeffective": 1099,
      "Ġrepe": 1100,
      "Ġsign": 1101,
      "resent": 1102,
      "Ġknow": 1103,
      "ious": 1104,
      "Ġconv": 1105,
      "Ġrules": 1106,
      "Ġer": 1107,
      "Ġenter": 1108,
      "Ġ45": 1109,
      "Ġproced": 1110,
      "Ġmotion": 1111,
      "man": 1112,
      "very": 1113,
      "ges": 1114,
      "cribed": 1115,
      "Ġdays": 1116,
      "til": 1117,
      "Ġpaid": 1118,
      "Ġexam": 1119,
      "Ġann": 1120,
      "Ġexc": 1121,
      "ret": 1122,
      "Ġprin": 1123,
      "lus": 1124,
      "Ġexcept": 1125,
      "Ġmembers": 1126,
      "Ġsup": 1127,
      "Ġmake": 1128,
      "Ġnon": 1129,
      "Ġlegis": 1130,
      "Ġexec": 1131,
      "Ġ?": 1132,
      "Ġcounsel": 1133,
      "lain": 1134,
      "Ġaccount": 1135,
      "Ġthrough": 1136,
      "et": 1137,
      "ident": 1138,
      "Ġ37": 1139,
      "ange": 1140,
      "Ġrefer": 1141,
      "Ġfinan": 1142,
      "ful": 1143,
      "unity": 1144,
      "99": 1145,
      "Ġ34": 1146,
      "Ġ36": 1147,
      "Ġsecur": 1148,
      "ween": 1149,
      "uc": 1150,
      "Ġcommissioner": 1151,
      "ou": 1152,
      "lle": 1153,
      "Ġhistory": 1154,
      "ital": 1155,
      "Ġqual": 1156,
      "Ġpurch": 1157,
      "Ġunited": 1158,
      "Ġapply": 1159,
      "Ġbetween": 1160,
      "ature": 1161,
      "Ġconf": 1162,
      "Ġissued": 1163,
      "Ġ000": 1164,
      "ank": 1165,
      "Ġheld": 1166,
      "ia": 1167,
      "Ġ195": 1168,
      "par": 1169,
      "Ġassess": 1170,
      "ite": 1171,
      "ian": 1172,
      "Ġav": 1173,
      "Ġic": 1174,
      "Ġdivision": 1175,
      "Ġterm": 1176,
      "Ġhold": 1177,
      "Ġthen": 1178,
      "Ġhowever": 1179,
      "Ġassist": 1180,
      "Ġ41": 1181,
      "isd": 1182,
      "Ġposs": 1183,
      "Ġiden": 1184,
      "Ġrepresent": 1185,
      "ended": 1186,
      "Ġadopt": 1187,
      "Ġgovernment": 1188,
      "Ġ39": 1189,
      "wise": 1190,
      "Ġrequirements": 1191,
      "Ġinj": 1192,
      "Ġsur": 1193,
      "aled": 1194,
      "Ġ100": 1195,
      "Ġprocess": 1196,
      "Ġnor": 1197,
      "Ġbu": 1198,
      "Ġsuper": 1199,
      "tig": 1200,
      "Ġdu": 1201,
      "Ġcredit": 1202,
      "raph": 1203,
      "Ġsome": 1204,
      "Ġreasonable": 1205,
      "fe": 1206,
      "Ġenti": 1207,
      "ages": 1208,
      "ister": 1209,
      "Ġeffect": 1210,
      "Ġargu": 1211,
      "Ġdirector": 1212,
      "lar": 1213,
      "Ġparties": 1214,
      "ough": 1215,
      "agraph": 1216,
      "Ġstatement": 1217,
      "Ġshow": 1218,
      "Ġcrim": 1219,
      "ention": 1220,
      "Ġmee": 1221,
      "Ġpolicy": 1222,
      "Ġfee": 1223,
      "Ġ42": 1224,
      "oci": 1225,
      "Ġotherwise": 1226,
      "Ġoblig": 1227,
      "Ġord": 1228,
      "Ġregard": 1229,
      "Ġfound": 1230,
      "Ġpermit": 1231,
      "Ġcosts": 1232,
      "Ġassoci": 1233,
      "Ġorgan": 1234,
      "Ġemployee": 1235,
      "Ġ38": 1236,
      "Ġauthorized": 1237,
      "Ġcontain": 1238,
      "Ġunless": 1239,
      "Ġalle": 1240,
      "Ġgiv": 1241,
      "Ġbal": 1242,
      "Ġrights": 1243,
      "Ġfur": 1244,
      "Ġsuff": 1245,
      "Ġcases": 1246,
      "Ġfunds": 1247,
      "Ġsale": 1248,
      "Ġpriv": 1249,
      "agement": 1250,
      "uted": 1251,
      "Ġmatter": 1252,
      "tify": 1253,
      "Ġexist": 1254,
      "Ġstatute": 1255,
      "Ġyou": 1256,
      "Ġ%": 1257,
      "Ġthem": 1258,
      "ither": 1259,
      "Ġstandard": 1260,
      "Ġsent": 1261,
      "Ġcontin": 1262,
      "Ġcle": 1263,
      "Ġju": 1264,
      "Ġprac": 1265,
      "Ġmone": 1266,
      "Ġindic": 1267,
      "Ġnumber": 1268,
      "Ġcover": 1269,
      "ization": 1270,
      "Ġtest": 1271,
      "sure": 1272,
      "Ġbased": 1273,
      "pr": 1274,
      "Ġcontrol": 1275,
      "vent": 1276,
      "ination": 1277,
      "Ġrespect": 1278,
      "Ġver": 1279,
      "Ġenfor": 1280,
      "Ġfurther": 1281,
      "Ġtestim": 1282,
      "Ġcause": 1283,
      "Ġtransfer": 1284,
      "hn": 1285,
      "Ġprob": 1286,
      "Ġrepealed": 1287,
      "omm": 1288,
      "Ġspecific": 1289,
      "Ġcust": 1290,
      "other": 1291,
      "ticip": 1292,
      "Ġimpro": 1293,
      "ilities": 1294,
      "Ġelection": 1295,
      "ately": 1296,
      "Ġsim": 1297,
      "Ġless": 1298,
      "Ġ43": 1299,
      "Ġappeals": 1300,
      "ren": 1301,
      "Ġcirc": 1302,
      "Ġresult": 1303,
      "Ġtestimony": 1304,
      "air": 1305,
      "Ġcomple": 1306,
      "ife": 1307,
      "Ġcap": 1308,
      "lied": 1309,
      "Ġeduc": 1310,
      "Ġcre": 1311,
      "Ġallow": 1312,
      "Ġestablished": 1313,
      "Ġrest": 1314,
      "isdiction": 1315,
      "Ġlocal": 1316,
      "Ġopin": 1317,
      "aterial": 1318,
      "Ġvehicle": 1319,
      "Ġour": 1320,
      "Ġjurisdiction": 1321,
      "Ġ2009": 1322,
      "Ġboth": 1323,
      "Ġmanagement": 1324,
      "Ġpersons": 1325,
      "ouse": 1326,
      "une": 1327,
      "ential": 1328,
      "pe": 1329,
      "icient": 1330,
      "Ġanother": 1331,
      "Ġneed": 1332,
      "itness": 1333,
      "Ġwar": 1334,
      "03": 1335,
      "Ġneg": 1336,
      "Ġ51": 1337,
      "enses": 1338,
      "Ġopinion": 1339,
      "miss": 1340,
      "Ġterms": 1341,
      "Ġbeing": 1342,
      "Ġaccordance": 1343,
      "Ġasse": 1344,
      "av": 1345,
      "Ġmaterial": 1346,
      "ss": 1347,
      "Ġmonth": 1348,
      "ger": 1349,
      "Ġpropos": 1350,
      "Ġfinancial": 1351,
      "Ġhigh": 1352,
      "Ġthree": 1353,
      "Ġprincip": 1354,
      "tis": 1355,
      "Ġaud": 1356,
      "Ġproject": 1357,
      "Ġpen": 1358,
      "Ġwhat": 1359,
      "Ġrele": 1360,
      "Ġcommitt": 1361,
      "port": 1362,
      "Ġful": 1363,
      "wealth": 1364,
      "Ġinclude": 1365,
      "Ġplace": 1366,
      "Ġpros": 1367,
      "Ġcommonwealth": 1368,
      "way": 1369,
      "empt": 1370,
      "Ġpo": 1371,
      "Ġsecret": 1372,
      "Ġsum": 1373,
      "me": 1374,
      "Ġ&": 1375,
      "Ġapplicable": 1376,
      "stances": 1377,
      "Ġthir": 1378,
      "Ġeng": 1379,
      "Ġinvol": 1380,
      "Ġdam": 1381,
      "Ġdocu": 1382,
      "Ġbank": 1383,
      "itten": 1384,
      "Ġpolice": 1385,
      "Ġentit": 1386,
      "Ġcriminal": 1387,
      "ok": 1388,
      "Ġ2003": 1389,
      "Ġdeli": 1390,
      "Ġrevised": 1391,
      "Ġenforce": 1392,
      "Ġvalue": 1393,
      "Ġseptember": 1394,
      "01": 1395,
      "Ġwitness": 1396,
      "Ġsecond": 1397,
      "Ġjune": 1398,
      "Ġviolation": 1399,
      "Ġuntil": 1400,
      "Ġ01": 1401,
      "ury": 1402,
      "iting": 1403,
      "Ġcompens": 1404,
      "Ġbonds": 1405,
      "Ġavail": 1406,
      "Ġocc": 1407,
      "Ġ44": 1408,
      "Ġclass": 1409,
      "ken": 1410,
      "Ġelect": 1411,
      "Ġ2007": 1412,
      "Ġ47": 1413,
      "Ġsecurity": 1414,
      "Ġwritten": 1415,
      "Ġjan": 1416,
      "Ġfore": 1417,
      "Ġname": 1418,
      "Ġdepos": 1419,
      "Ġappropriate": 1420,
      "Ġobtain": 1421,
      "tical": 1422,
      "Ġcomplain": 1423,
      "Ġdue": 1424,
      "Ġlaws": 1425,
      "Ġappelle": 1426,
      "Ġconcer": 1427,
      "Ġparagraph": 1428,
      "Ġcircu": 1429,
      "Ġgood": 1430,
      "Ġ46": 1431,
      "Ġreal": 1432,
      "Ġbar": 1433,
      "Ġcircuit": 1434,
      "Ġcircum": 1435,
      "Ġparticip": 1436,
      "Ġlimited": 1437,
      "Ġ52": 1438,
      "Ġsecretary": 1439,
      "Ġ54": 1440,
      "Ġsc": 1441,
      "ribution": 1442,
      "Ġowner": 1443,
      "ular": 1444,
      "ural": 1445,
      "Ġreceived": 1446,
      "Ġabout": 1447,
      "Ġacqu": 1448,
      "Ġstated": 1449,
      "Ġ62": 1450,
      "Ġup": 1451,
      "Ġclear": 1452,
      "Ġproduct": 1453,
      "Ġ101": 1454,
      "Ġresid": 1455,
      "Ġorig": 1456,
      "Ġliability": 1457,
      "cil": 1458,
      "Ġbro": 1459,
      "tal": 1460,
      "Ġerr": 1461,
      "quent": 1462,
      "arm": 1463,
      "Ġcertificate": 1464,
      "Ġ2011": 1465,
      "Ġser": 1466,
      "ft": 1467,
      "Ġrecords": 1468,
      "Ġ2005": 1469,
      "Ġmanner": 1470,
      "Ġ55": 1471,
      "ack": 1472,
      "Ġcent": 1473,
      "cent": 1474,
      "ind": 1475,
      "Ġlegal": 1476,
      "rative": 1477,
      "Ġdevelopment": 1478,
      "Ġarea": 1479,
      "Ġfe": 1480,
      "Ġactiv": 1481,
      "pa": 1482,
      "Ġmaintain": 1483,
      "Ġgiven": 1484,
      "Ġleast": 1485,
      "Ġaddress": 1486,
      "Ġlimit": 1487,
      "Ġfacility": 1488,
      "Ġentitled": 1489,
      "ons": 1490,
      "Ġrespons": 1491,
      "Ġpower": 1492,
      "Ġhome": 1493,
      "Ġaccept": 1494,
      "Ġwater": 1495,
      "the": 1496,
      "Ġmoney": 1497,
      "Ġdetermined": 1498,
      "Ġxb": 1499,
      "used": 1500,
      "Ġcal": 1501,
      "Ġcertain": 1502,
      "Ġcommittee": 1503,
      "ased": 1504,
      "Ġadministrative": 1505,
      "isc": 1506,
      "atory": 1507,
      "Ġvot": 1508,
      "Ġordin": 1509,
      "Ġeither": 1510,
      "Ġmedical": 1511,
      "Ġdem": 1512,
      "Ġjus": 1513,
      "Ġwhile": 1514,
      "Ġdescribed": 1515,
      "Ġregist": 1516,
      "Ġ2001": 1517,
      "Ġreturn": 1518,
      "Ġfour": 1519,
      "Ġdif": 1520,
      "ins": 1521,
      "Ġ60": 1522,
      "Ġcouncil": 1523,
      "Ġavailable": 1524,
      "Ġregulations": 1525,
      "icial": 1526,
      "up": 1527,
      "Ġestate": 1528,
      "erc": 1529,
      "uty": 1530,
      "Ġcompensation": 1531,
      "ants": 1532,
      "ibility": 1533,
      "Ġinst": 1534,
      "Ġreti": 1535,
      "Ġamendment": 1536,
      "Ġimpos": 1537,
      "Ġend": 1538,
      "Ġbr": 1539,
      "Ġfacts": 1540,
      "Ġz": 1541,
      "Ġ48": 1542,
      "Ġconstitution": 1543,
      "anding": 1544,
      "Ġaward": 1545,
      "Ġpercent": 1546,
      "Ġpersonal": 1547,
      "Ġadj": 1548,
      "estig": 1549,
      "Ġphys": 1550,
      "Ġdetermine": 1551,
      "Ġfive": 1552,
      "Ġbod": 1553,
      "Ġfees": 1554,
      "over": 1555,
      "Ġpenal": 1556,
      "Ġexceed": 1557,
      "Ġprodu": 1558,
      "Ġsafe": 1559,
      "hib": 1560,
      "Ġcorre": 1561,
      "endent": 1562,
      "Ġrespond": 1563,
      "Ġca": 1564,
      "Ġinde": 1565,
      "Ġcommunity": 1566,
      "Ġinvestig": 1567,
      "Ġprof": 1568,
      "Ġcontinu": 1569,
      "Ġcircumstances": 1570,
      "Ġemployees": 1571,
      "Ġmot": 1572,
      "wer": 1573,
      "Ġ49": 1574,
      "Ġproceedings": 1575,
      "Ġremain": 1576,
      "Ġbasis": 1577,
      "xt": 1578,
      "Ġsus": 1579,
      "Ġpt": 1580,
      "Ġmod": 1581,
      "arent": 1582,
      "Ġcur": 1583,
      "Ġstatut": 1584,
      "Ġduties": 1585,
      "Ġassociation": 1586,
      "Ġ194": 1587,
      "Ġbuild": 1588,
      "Ġlegisl": 1589,
      "Ġinstitution": 1590,
      "to": 1591,
      "Ġsufficient": 1592,
      "Ġadditional": 1593,
      "Ġ81": 1594,
      "Ġbenefits": 1595,
      "Ġofficial": 1596,
      "Ġwell": 1597,
      "Ġconstruction": 1598,
      "Ġ61": 1599,
      "lusion": 1600,
      "Ġ73": 1601,
      "Ġrecomm": 1602,
      "ock": 1603,
      "Ġten": 1604,
      "ctions": 1605,
      "Ġprom": 1606,
      "Ġcop": 1607,
      "Ġ75": 1608,
      "ension": 1609,
      "Ġdefined": 1610,
      "Ġhaving": 1611,
      "ership": 1612,
      "erg": 1613,
      "Ġaudit": 1614,
      "Ġoccur": 1615,
      "Ġgra": 1616,
      "Ġeducation": 1617,
      "lative": 1618,
      "Ġsubstan": 1619,
      "Ġciv": 1620,
      "Ġbenefit": 1621,
      "Ġ53": 1622,
      "Ġconsist": 1623,
      "Ġclaims": 1624,
      "mission": 1625,
      "Ġtermin": 1626,
      "Ġreli": 1627,
      "Ġfinal": 1628,
      "Ġclo": 1629,
      "Ġapproved": 1630,
      "Ġincome": 1631,
      "Ġmean": 1632,
      "Ġ71": 1633,
      "Ġappoint": 1634,
      "Ġprem": 1635,
      "Ġeven": 1636,
      "Ġsupra": 1637,
      "arch": 1638,
      "ron": 1639,
      "Ġwa": 1640,
      "Ġconditions": 1641,
      "Ġmotor": 1642,
      "Ġbill": 1643,
      "Ġdeath": 1644,
      "Ġtaken": 1645,
      "thing": 1646,
      "Ġ57": 1647,
      "uary": 1648,
      "Ġ1999": 1649,
      "Ġrelated": 1650,
      "Ġjuly": 1651,
      "Ġelig": 1652,
      "Ġtotal": 1653,
      "Ġannual": 1654,
      "Ġprosec": 1655,
      "Ġear": 1656,
      "timore": 1657,
      "Ġtake": 1658,
      "Ġgre": 1659,
      "ten": 1660,
      "Ġfire": 1661,
      "Ġdet": 1662,
      "ather": 1663,
      "Ġ65": 1664,
      "lin": 1665,
      "Ġfile": 1666,
      "Ġlicens": 1667,
      "omp": 1668,
      "Ġbaltimore": 1669,
      "Ġagent": 1670,
      "Ġ77": 1671,
      "Ġec": 1672,
      "Ġassign": 1673,
      "ify": 1674,
      "Ġsel": 1675,
      "ception": 1676,
      "Ġstud": 1677,
      "Ġexerc": 1678,
      "Ġground": 1679,
      "Ġpass": 1680,
      "son": 1681,
      "Ġhand": 1682,
      "not": 1683,
      "Ġpage": 1684,
      "Ġ90": 1685,
      "Ġinvest": 1686,
      "Ġ66": 1687,
      "Ġvol": 1688,
      "Ġapproval": 1689,
      "Ġthereof": 1690,
      "Ġ56": 1691,
      "Ġini": 1692,
      "Ġwarrant": 1693,
      "Ġoffer": 1694,
      "Ġadopted": 1695,
      "Ġresol": 1696,
      "Ġdefense": 1697,
      "Ġjudicial": 1698,
      "ably": 1699,
      "Ġ1997": 1700,
      "als": 1701,
      "Ġmort": 1702,
      "vel": 1703,
      "Ġimprove": 1704,
      "Ġinstru": 1705,
      "Ġcall": 1706,
      "Ġrate": 1707,
      "Ġjo": 1708,
      "Ġes": 1709,
      "Ġnote": 1710,
      "fact": 1711,
      "Ġconsidered": 1712,
      "Ġapplicant": 1713,
      "Ġemployment": 1714,
      "Ġmunicipality": 1715,
      "Ġdeb": 1716,
      "ounts": 1717,
      "Ġway": 1718,
      "Ġ1995": 1719,
      "Ġ64": 1720,
      "Ġconn": 1721,
      "ell": 1722,
      "Ġcommit": 1723,
      "Ġ2013": 1724,
      "Ġpartic": 1725,
      "ters": 1726,
      "sum": 1727,
      "Ġcivil": 1728,
      "ending": 1729,
      "Ġloan": 1730,
      "medi": 1731,
      "ortion": 1732,
      "Ġ58": 1733,
      "Ġlist": 1734,
      "Ġofficers": 1735,
      "mb": 1736,
      "olog": 1737,
      "Ġreven": 1738,
      "Ġactual": 1739,
      "Ġfailure": 1740,
      "cing": 1741,
      "Ġlater": 1742,
      "Ġprovides": 1743,
      "ton": 1744,
      "Ġrecei": 1745,
      "Ġdisp": 1746,
      "Ġproposed": 1747,
      "Ġ1989": 1748,
      "Ġjanuary": 1749,
      "Ġparticular": 1750,
      "Ġenforcement": 1751,
      "cies": 1752,
      "Ġvic": 1753,
      "Ġct": 1754,
      "Ġapr": 1755,
      "Ġproceeding": 1756,
      "Ġsepar": 1757,
      "ification": 1758,
      "Ġfiling": 1759,
      "Ġ84": 1760,
      "new": 1761,
      "Ġple": 1762,
      "Ġhos": 1763,
      "Ġprocedures": 1764,
      "Ġappear": 1765,
      "Ġprev": 1766,
      "sequent": 1767,
      "ata": 1768,
      "ior": 1769,
      "ked": 1770,
      "Ġcro": 1771,
      "Ġinsurer": 1772,
      "Ġappellee": 1773,
      "Ġconclud": 1774,
      "Ġlong": 1775,
      "Ġimplement": 1776,
      "Ġorganization": 1777,
      "ket": 1778,
      "Ġ72": 1779,
      "Ġexper": 1780,
      "Ġgranted": 1781,
      "Ġexception": 1782,
      "Ġsell": 1783,
      "Ġexpress": 1784,
      "Ġ59": 1785,
      "ured": 1786,
      "ilar": 1787,
      "Ġfam": 1788,
      "Ġconstit": 1789,
      "Ġ`": 1790,
      "cri": 1791,
      "Ġmortg": 1792,
      "Ġlan": 1793,
      "Ġemployer": 1794,
      "Ġexpenses": 1795,
      "Ġguil": 1796,
      "Ġtreat": 1797,
      "Ġmc": 1798,
      "Ġpost": 1799,
      "Ġdiffer": 1800,
      "rement": 1801,
      "Ġoperation": 1802,
      "ointed": 1803,
      "Ġdri": 1804,
      "Ġ69": 1805,
      "Ġfra": 1806,
      "Ġbody": 1807,
      "Ġhouse": 1808,
      "Ġ79": 1809,
      "Ġtherefore": 1810,
      "Ġentity": 1811,
      "ises": 1812,
      "Ġfull": 1813,
      "Ġdetermination": 1814,
      "Ġmer": 1815,
      "Ġregister": 1816,
      "Ġconstru": 1817,
      "Ġsimilar": 1818,
      "Ġtransport": 1819,
      "Ġconviction": 1820,
      "Ġhosp": 1821,
      "Ġtown": 1822,
      "Ġsix": 1823,
      "Ġaffir": 1824,
      "Ġforth": 1825,
      "ison": 1826,
      "alf": 1827,
      "Ġalleged": 1828,
      "Ġoffense": 1829,
      "Ġpurchase": 1830,
      "Ġsm": 1831,
      "Ġcharge": 1832,
      "Ġduty": 1833,
      "Ġrecommend": 1834,
      "tification": 1835,
      "utive": 1836,
      "Ġdamages": 1837,
      "Ġmaj": 1838,
      "Ġinstruction": 1839,
      "co": 1840,
      "arge": 1841,
      "Ġopp": 1842,
      "02": 1843,
      "Ġ1993": 1844,
      "Ġdenied": 1845,
      "Ġty": 1846,
      "Ġapril": 1847,
      "Ġbeli": 1848,
      "Ġsumm": 1849,
      "Ġextent": 1850,
      "ining": 1851,
      "Ġthird": 1852,
      "Ġassistance": 1853,
      "oss": 1854,
      "Ġsections": 1855,
      "Ġremo": 1856,
      "Ġ2008": 1857,
      "Ġtec": 1858,
      "Ġdra": 1859,
      "Ġ67": 1860,
      "Ġcustod": 1861,
      "Ġpowers": 1862,
      "standing": 1863,
      "Ġentered": 1864,
      "hold": 1865,
      "Ġet": 1866,
      "Ġfacilities": 1867,
      "Ġexamination": 1868,
      "Ġpayments": 1869,
      "Ġsubd": 1870,
      "sed": 1871,
      "xim": 1872,
      "ired": 1873,
      "Ġobj": 1874,
      "Ġstock": 1875,
      "Ġmajor": 1876,
      "Ġroad": 1877,
      "Ġabs": 1878,
      "Ġ63": 1879,
      "Ġ193": 1880,
      "Ġintent": 1881,
      "ize": 1882,
      "Ġperformance": 1883,
      "Ġprivate": 1884,
      "ple": 1885,
      "Ġvo": 1886,
      "Ġsusp": 1887,
      "Ġcompli": 1888,
      "Ġcomplaint": 1889,
      "rent": 1890,
      "Ġdocument": 1891,
      "Ġ74": 1892,
      "Ġ85": 1893,
      "Ġnational": 1894,
      "Ġwil": 1895,
      "Ġalter": 1896,
      "erse": 1897,
      "though": 1898,
      "arily": 1899,
      "Ġaccording": 1900,
      "bur": 1901,
      "Ġstandards": 1902,
      "by": 1903,
      "Ġretirement": 1904,
      "Ġvictim": 1905,
      "Ġdispos": 1906,
      "Ġhospital": 1907,
      "Ġreceive": 1908,
      "Ġcommer": 1909,
      "Ġ76": 1910,
      "Ġdiscre": 1911,
      "Ġ68": 1912,
      "Ġtechn": 1913,
      "omic": 1914,
      "Ġ82": 1915,
      "Ġcler": 1916,
      "Ġ102": 1917,
      "Ġinjury": 1918,
      "nal": 1919,
      "Ġregulation": 1920,
      "ak": 1921,
      "Ġinf": 1922,
      "gin": 1923,
      "Ġalthough": 1924,
      "Ġ80": 1925,
      "Ġvalid": 1926,
      "Ġlease": 1927,
      "Ġoct": 1928,
      "Ġbeh": 1929,
      "Ġmeet": 1930,
      "Ġchildren": 1931,
      "Ġsubdivision": 1932,
      "Ġdisclo": 1933,
      "Ġlegislature": 1934,
      "Ġlike": 1935,
      "Ġredu": 1936,
      "omes": 1937,
      "Ġprincipal": 1938,
      "Ġprohib": 1939,
      "Ġ1987": 1940,
      "Ġdol": 1941,
      "Ġjoint": 1942,
      "Ġpractice": 1943,
      "Ġlet": 1944,
      "Ġste": 1945,
      "Ġprocedure": 1946,
      "tives": 1947,
      "Ġbre": 1948,
      "ict": 1949,
      "Ġcrime": 1950,
      "Ġtestified": 1951,
      "Ġbri": 1952,
      "encies": 1953,
      "Ġblo": 1954,
      "Ġsatis": 1955,
      "Ġstree": 1956,
      "itation": 1957,
      "Ġregistration": 1958,
      "Ġchange": 1959,
      "uation": 1960,
      "with": 1961,
      "Ġlife": 1962,
      "Ġloss": 1963,
      "older": 1964,
      "Ġdr": 1965,
      "Ġris": 1966,
      "Ġunit": 1967,
      "ps": 1968,
      "Ġcopy": 1969,
      "Ġdiscretion": 1970,
      "fici": 1971,
      "Ġimmedi": 1972,
      "Ġcourts": 1973,
      "reme": 1974,
      "Ġdismiss": 1975,
      "Ġdeclar": 1976,
      "ufact": 1977,
      "Ġsubsequent": 1978,
      "Ġimposed": 1979,
      "Ġfun": 1980,
      "Ġ1991": 1981,
      "Ġreferred": 1982,
      "Ġbur": 1983,
      "Ġposition": 1984,
      "Ġdev": 1985,
      "Ġsever": 1986,
      "Ġtaxes": 1987,
      "Ġfinding": 1988,
      "Ġmanufact": 1989,
      "Ġprotection": 1990,
      "Ġ83": 1991,
      "Ġanal": 1992,
      "vey": 1993,
      "Ġdeg": 1994,
      "Ġlocated": 1995,
      "ogn": 1996,
      "Ġdollar": 1997,
      "Ġadministration": 1998,
      "Ġsett": 1999,
      "Ġpartn": 2000,
      "ned": 2001,
      "Ġcourse": 2002,
      "oper": 2003,
      "Ġlicensed": 2004,
      "Ġdefendants": 2005,
      "Ġeligible": 2006,
      "ences": 2007,
      "Ġsafety": 2008,
      "Ġerror": 2009,
      "Ġread": 2010,
      "ium": 2011,
      "chapter": 2012,
      "Ġmaking": 2013,
      "Ġsentence": 2014,
      "Ġactivities": 2015,
      "Ġevery": 2016,
      "Ġqualified": 2017,
      "Ġrelating": 2018,
      "Ġspecified": 2019,
      "Ġrecogn": 2020,
      "au": 2021,
      "Ġassessment": 2022,
      "11": 2023,
      "urer": 2024,
      "Ġlegislative": 2025,
      "Ġneglig": 2026,
      "Ġbuilding": 2027,
      "Ġreceipt": 2028,
      "Ġlab": 2029,
      "Ġpossession": 2030,
      "Ġcannot": 2031,
      "Ġsubchapter": 2032,
      "cy": 2033,
      "Ġincre": 2034,
      "Ġdata": 2035,
      "ender": 2036,
      "Ġtransa": 2037,
      "ace": 2038,
      "Ġ70": 2039,
      "Ġpoint": 2040,
      "Ġpric": 2041,
      "Ġthus": 2042,
      "Ġaccess": 2043,
      "Ġdecember": 2044,
      "Ġ05": 2045,
      "Ġhar": 2046,
      "Ġincluded": 2047,
      "Ġappointed": 2048,
      "Ġoriginal": 2049,
      "ends": 2050,
      "Ġportion": 2051,
      "Ġproducts": 2052,
      "Ġsuc": 2053,
      "io": 2054,
      "Ġobligations": 2055,
      "ave": 2056,
      "Ġconsent": 2057,
      "Ġinsu": 2058,
      "reed": 2059,
      "Ġguilty": 2060,
      "Ġrevenue": 2061,
      "Ġ02": 2062,
      "Ġtreatment": 2063,
      "Ġsuit": 2064,
      "Ġaut": 2065,
      "Ġgoverning": 2066,
      "Ġaug": 2067,
      "Ġgroup": 2068,
      "Ġcompliance": 2069,
      "Ġsin": 2070,
      "Ġtreas": 2071,
      "Ġmeth": 2072,
      "Ġprograms": 2073,
      "Ġconclusion": 2074,
      "Ġbelie": 2075,
      "tially": 2076,
      "vant": 2077,
      "Ġmortgage": 2078,
      "Ġactions": 2079,
      "self": 2080,
      "Ġdesignated": 2081,
      "Ġsta": 2082,
      "Ġdeliver": 2083,
      "Ġconcerning": 2084,
      "Ġrespondent": 2085,
      "lies": 2086,
      "Ġdeal": 2087,
      "rug": 2088,
      "Ġclerk": 2089,
      "Ġdeposit": 2090,
      "Ġregarding": 2091,
      "Ġprevious": 2092,
      "Ġeu": 2093,
      "Ġview": 2094,
      "Ġwhom": 2095,
      "Ġparent": 2096,
      "Ġopen": 2097,
      "Ġprofession": 2098,
      "Ġlangu": 2099,
      "aged": 2100,
      "rest": 2101,
      "Ġiii": 2102,
      "Ġmur": 2103,
      "Ġresolution": 2104,
      "Ġmich": 2105,
      "Ġassemb": 2106,
      "ines": 2107,
      "Ġnow": 2108,
      "ling": 2109,
      "Ġmeas": 2110,
      "Ġdirectors": 2111,
      "Ġdeem": 2112,
      "Ġgive": 2113,
      "Ġshare": 2114,
      "Ġexecutive": 2115,
      "Ġrestric": 2116,
      "nder": 2117,
      "get": 2118,
      "Ġfamily": 2119,
      "Ġprim": 2120,
      "lor": 2121,
      "ood": 2122,
      "Ġcontracts": 2123,
      "Ġresul": 2124,
      "Ġchan": 2125,
      "Ġcount": 2126,
      "Ġsupreme": 2127,
      "Ġfindings": 2128,
      "pay": 2129,
      "Ġ103": 2130,
      "ipment": 2131,
      "Ġevent": 2132,
      "Ġ2006": 2133,
      "Ġart": 2134,
      "Ġ78": 2135,
      "Ġ2015": 2136,
      "Ġdiscus": 2137,
      "Ġdrug": 2138,
      "Ġdegree": 2139,
      "iscal": 2140,
      "Ġsubmitted": 2141,
      "ault": 2142,
      "Ġexercise": 2143,
      "Ġdefinition": 2144,
      "Ġnotes": 2145,
      "ief": 2146,
      "roll": 2147,
      "app": 2148,
      "Ġcurrent": 2149,
      "cer": 2150,
      "Ġpenalty": 2151,
      "Ġjustice": 2152,
      "Ġcharges": 2153,
      "Ġword": 2154,
      "Ġcoverage": 2155,
      "ulation": 2156,
      "Ġlanguage": 2157,
      "Ġfair": 2158,
      "after": 2159,
      "Ġfiscal": 2160,
      "Ġmethod": 2161,
      "ring": 2162,
      "Ġxef": 2163,
      "aries": 2164,
      "Ġcertified": 2165,
      "pective": 2166,
      "Ġformer": 2167,
      "Ġcreated": 2168,
      "05": 2169,
      "Ġtraining": 2170,
      "Ġ91": 2171,
      "Ġstatutory": 2172,
      "ves": 2173,
      "Ġincor": 2174,
      "Ġcarry": 2175,
      "Ġair": 2176,
      "ising": 2177,
      "Ġ2004": 2178,
      "ield": 2179,
      "Ġmonths": 2180,
      "Ġcontribution": 2181,
      "Ġbrief": 2182,
      "Ġemerg": 2183,
      "mental": 2184,
      "Ġstreet": 2185,
      "Ġassembly": 2186,
      "Ġ192": 2187,
      "Ġargument": 2188,
      "Ġattempt": 2189,
      "Ġpurchas": 2190,
      "Ġ104": 2191,
      "Ġ1985": 2192,
      "Ġecon": 2193,
      "Ġ2010": 2194,
      "Ġmeaning": 2195,
      "Ġ300": 2196,
      "Ġholding": 2197,
      "Ġdebt": 2198,
      "Ġconnection": 2199,
      "Ġarrest": 2200,
      "Ġstatements": 2201,
      "Ġresour": 2202,
      "Ġchief": 2203,
      "Ġissues": 2204,
      "Ġback": 2205,
      "Ġstru": 2206,
      "Ġcustom": 2207,
      "ental": 2208,
      "Ġmail": 2209,
      "Ġpetitioner": 2210,
      "Ġbene": 2211,
      "Ġ92": 2212,
      "Ġmill": 2213,
      "own": 2214,
      "overy": 2215,
      "Ġmajority": 2216,
      "Ġcharged": 2217,
      "Ġcross": 2218,
      "kes": 2219,
      "tenance": 2220,
      "Ġfr": 2221,
      "Ġnc": 2222,
      "Ġconsideration": 2223,
      "Ġdollars": 2224,
      "Ġfollows": 2225,
      "Ġmarch": 2226,
      "Ġappellants": 2227,
      "Ġge": 2228,
      "Ġmil": 2229,
      "reg": 2230,
      "Ġpoli": 2231,
      "Ġsubmit": 2232,
      "Ġguard": 2233,
      "Ġ87": 2234,
      "Ġsol": 2235,
      "Ġmost": 2236,
      "Ġforce": 2237,
      "rary": 2238,
      "Ġequipment": 2239,
      "Ġvar": 2240,
      "Ġreports": 2241,
      "Ġhour": 2242,
      "Ġmeeting": 2243,
      "ove": 2244,
      "Ġ99": 2245,
      "ivers": 2246,
      "Ġrenew": 2247,
      "Ġ2012": 2248,
      "int": 2249,
      "Ġintended": 2250,
      "Ġmaintenance": 2251,
      "Ġans": 2252,
      "Ġconsum": 2253,
      "utes": 2254,
      "den": 2255,
      "Ġsatisf": 2256,
      "rator": 2257,
      "law": 2258,
      "cription": 2259,
      "unt": 2260,
      "Ġordinance": 2261,
      "Ġvac": 2262,
      "eric": 2263,
      "Ġsit": 2264,
      "Ġneb": 2265,
      "gg": 2266,
      "Ġke": 2267,
      "Ġrisk": 2268,
      "Ġcorrect": 2269,
      "Ġprec": 2270,
      "Ġsex": 2271,
      "Ġapplied": 2272,
      "Ġpartnership": 2273,
      "Ġeval": 2274,
      "Ġsince": 2275,
      "Ġcooper": 2276,
      "Ġ94": 2277,
      "Ġgovernor": 2278,
      "Ġcomply": 2279,
      "Ġemergency": 2280,
      "Ġprescribed": 2281,
      "Ġlevel": 2282,
      "Ġnam": 2283,
      "Ġ2002": 2284,
      "ship": 2285,
      "Ġprice": 2286,
      "Ġrequirement": 2287,
      "Ġpresented": 2288,
      "Ġequal": 2289,
      "Ġmight": 2290,
      "Ġremed": 2291,
      "Ġ03": 2292,
      "Ġexisting": 2293,
      "utor": 2294,
      "Ġbor": 2295,
      "Ġverd": 2296,
      "ober": 2297,
      "Ġquot": 2298,
      "Ġnat": 2299,
      "Ġknown": 2300,
      "Ġagencies": 2301,
      "Ġlien": 2302,
      "Ġsuccess": 2303,
      "Ġasser": 2304,
      "Ġfurn": 2305,
      "Ġsearch": 2306,
      "ker": 2307,
      "Ġanne": 2308,
      "ob": 2309,
      "Ġcomplete": 2310,
      "leg": 2311,
      "Ġsha": 2312,
      "Ġtim": 2313,
      "ances": 2314,
      "Ġfraud": 2315,
      "Ġcapital": 2316,
      "Ġsubsec": 2317,
      "Ġpolitical": 2318,
      "Ġproperly": 2319,
      "ledge": 2320,
      "pection": 2321,
      "Ġage": 2322,
      "Ġ95": 2323,
      "Ġ1981": 2324,
      "07": 2325,
      "Ġproviding": 2326,
      "Ġrelevant": 2327,
      "Ġchec": 2328,
      "Ġtransportation": 2329,
      "Ġabove": 2330,
      "Ġproof": 2331,
      "Ġregistered": 2332,
      "Ġitem": 2333,
      "Ġautom": 2334,
      "Ġ1983": 2335,
      "Ġnature": 2336,
      "ink": 2337,
      "lay": 2338,
      "Ġbud": 2339,
      "Ġdistribution": 2340,
      "itor": 2341,
      "Ġwhose": 2342,
      "Ġoctober": 2343,
      "Ġinvolved": 2344,
      "ught": 2345,
      "Ġms": 2346,
      "Ġfif": 2347,
      "Ġ88": 2348,
      "Ġfav": 2349,
      "Ġenact": 2350,
      "Ġdisch": 2351,
      "Ġinspection": 2352,
      "Ġtem": 2353,
      "Ġmis": 2354,
      "withstanding": 2355,
      "nel": 2356,
      "Ġ1977": 2357,
      "Ġobligation": 2358,
      "Ġ97": 2359,
      "Ġobs": 2360,
      "imin": 2361,
      "Ġagreed": 2362,
      "cup": 2363,
      "Ġwriting": 2364,
      "Ġbegin": 2365,
      "Ġjohn": 2366,
      "Ġaccident": 2367,
      "Ġ202": 2368,
      "Ġnet": 2369,
      "Ġseparate": 2370,
      "Ġpati": 2371,
      "ived": 2372,
      "Ġmedic": 2373,
      "Ġwor": 2374,
      "Ġhead": 2375,
      "equ": 2376,
      "Ġrelations": 2377,
      "Ġassets": 2378,
      "Ġpermitted": 2379,
      "Ġinspect": 2380,
      "iron": 2381,
      "Ġ98": 2382,
      "has": 2383,
      "Ġserve": 2384,
      "Ġnotwithstanding": 2385,
      "Ġcenter": 2386,
      "Ġsched": 2387,
      "Ġ86": 2388,
      "Ġcustody": 2389,
      "Ġhous": 2390,
      "Ġsole": 2391,
      "Ġ93": 2392,
      "aster": 2393,
      "Ġoccup": 2394,
      "Ġcommercial": 2395,
      "Ġincludes": 2396,
      "Ġopport": 2397,
      "Ġdecid": 2398,
      "Ġred": 2399,
      "Ġinvestment": 2400,
      "pro": 2401,
      "Ġimport": 2402,
      "Ġcarri": 2403,
      "Ġfailed": 2404,
      "Ġtex": 2405,
      "Ġnever": 2406,
      "Ġissuance": 2407,
      "ley": 2408,
      "Ġmaterials": 2409,
      "Ġdifferent": 2410,
      "emption": 2411,
      "Ġincorpor": 2412,
      "Ġrepresentative": 2413,
      "Ġdistrib": 2414,
      "ying": 2415,
      "Ġrelief": 2416,
      "Ġminim": 2417,
      "Ġinvestigation": 2418,
      "Ġoperating": 2419,
      "Ġlow": 2420,
      "Ġrequested": 2421,
      "Ġ1979": 2422,
      "bit": 2423,
      "06": 2424,
      "Ġcontained": 2425,
      "Ġrequires": 2426,
      "vers": 2427,
      "jud": 2428,
      "ined": 2429,
      "Ġ06": 2430,
      "ricult": 2431,
      "Ġinterp": 2432,
      "Ġsing": 2433,
      "Ġline": 2434,
      "Ġemphas": 2435,
      "Ġ96": 2436,
      "Ġsour": 2437,
      "rate": 2438,
      "Ġeconomic": 2439,
      "Ġamounts": 2440,
      "Ġprofessional": 2441,
      "acy": 2442,
      "Ġfurnish": 2443,
      "Ġcommitted": 2444,
      "Ġbehalf": 2445,
      "Ġcommunic": 2446,
      "Ġ500": 2447,
      "ached": 2448,
      "ging": 2449,
      "Ġrender": 2450,
      "Ġtype": 2451,
      "Ġagricult": 2452,
      "Ġincur": 2453,
      "Ġplaintiffs": 2454,
      "Ġdirectly": 2455,
      "sing": 2456,
      "Ġ105": 2457,
      "Ġentire": 2458,
      "Ġ2000": 2459,
      "Ġcovered": 2460,
      "Ġlabor": 2461,
      "Ġinterests": 2462,
      "Ġ1975": 2463,
      "ery": 2464,
      "Ġregion": 2465,
      "Ġ04": 2466,
      "Ġimmediately": 2467,
      "Ġfree": 2468,
      "Ġsummary": 2469,
      "Ġlast": 2470,
      "ctive": 2471,
      "lusive": 2472,
      "erved": 2473,
      "Ġhund": 2474,
      "Ġdan": 2475,
      "Ġadminister": 2476,
      "Ġpayable": 2477,
      "Ġowned": 2478,
      "Ġhundred": 2479,
      "Ġgoods": 2480,
      "Ġ106": 2481,
      "Ġreasonably": 2482,
      "Ġsubstantial": 2483,
      "Ġmy": 2484,
      "Ġunion": 2485,
      "Ġanswer": 2486,
      "lan": 2487,
      "Ġconstitutional": 2488,
      "Ġquestions": 2489,
      "iring": 2490,
      "Ġ1986": 2491,
      "Ġallowed": 2492,
      "Ġfavor": 2493,
      "round": 2494,
      "Ġensure": 2495,
      "Ġindep": 2496,
      "Ġsw": 2497,
      "Ġsay": 2498,
      "Ġdetermining": 2499,
      "Ġrecover": 2500,
      "enty": 2501,
      "Ġnothing": 2502,
      "Ġresponse": 2503,
      "Ġeuro": 2504,
      "ested": 2505,
      "enced": 2506,
      "Ġtrustee": 2507,
      "Ġabuse": 2508,
      "iving": 2509,
      "Ġconducted": 2510,
      "Ġdecree": 2511,
      "Ġ89": 2512,
      "Ġzon": 2513,
      "Ġbudget": 2514,
      "gress": 2515,
      "Ġknowledge": 2516,
      "yer": 2517,
      "Ġspe": 2518,
      "Ġenv": 2519,
      "eme": 2520,
      "Ġxbf": 2521,
      "Ġgenerally": 2522,
      "Ġbound": 2523,
      "ervation": 2524,
      "Ġdiss": 2525,
      "Ġobtained": 2526,
      "Ġtwenty": 2527,
      "Ġadjust": 2528,
      "Ġapplies": 2529,
      "Ġanalys": 2530,
      "Ġarbit": 2531,
      "Ġnegligence": 2532,
      "Ġvis": 2533,
      "Ġ08": 2534,
      "Ġcommissioners": 2535,
      "Ġdocuments": 2536,
      "rought": 2537,
      "Ġphysici": 2538,
      "row": 2539,
      "Ġverdict": 2540,
      "Ġxbd": 2541,
      "Ġtrustees": 2542,
      "ale": 2543,
      "Ġfeb": 2544,
      "Ġforeign": 2545,
      "Ġdeed": 2546,
      "fully": 2547,
      "Ġconsistent": 2548,
      "allen": 2549,
      "Ġprejud": 2550,
      "Ġphysical": 2551,
      "Ġclearly": 2552,
      "Ġunders": 2553,
      "orm": 2554,
      "Ġprevent": 2555,
      "sement": 2556,
      "Ġinternal": 2557,
      "Ġsales": 2558,
      "Ġpreced": 2559,
      "Ġlev": 2560,
      "Ġprivile": 2561,
      "iana": 2562,
      "Ġfish": 2563,
      "Ġbenefici": 2564,
      "ference": 2565,
      "Ġmurder": 2566,
      "Ġvote": 2567,
      "Ġsigned": 2568,
      "Ġresults": 2569,
      "Ġaccomp": 2570,
      "Ġletter": 2571,
      "Ġdon": 2572,
      "tices": 2573,
      "Ġtele": 2574,
      "Ġrail": 2575,
      "Ġir": 2576,
      "Ġfel": 2577,
      "Ġadministrator": 2578,
      "line": 2579,
      "Ġhighway": 2580,
      "Ġadequ": 2581,
      "Ġappointment": 2582,
      "Ġblock": 2583,
      "Ġresources": 2584,
      "Ġenviron": 2585,
      "Ġwife": 2586,
      "Ġobjection": 2587,
      "Ġpremises": 2588,
      "Ġgas": 2589,
      "Ġintention": 2590,
      "Ġ2014": 2591,
      "Ġaltern": 2592,
      "Ġaffect": 2593,
      "Ġmrs": 2594,
      "Ġstaff": 2595,
      "Ġindependent": 2596,
      "vention": 2597,
      "icted": 2598,
      "Ġmanag": 2599,
      "ler": 2600,
      "Ġspecifically": 2601,
      "Ġenc": 2602,
      "Ġbrought": 2603,
      "Ġwee": 2604,
      "Ġsti": 2605,
      "ronic": 2606,
      "Ġpot": 2607,
      "Ġyour": 2608,
      "Ġpolicies": 2609,
      "Ġded": 2610,
      "Ġtempor": 2611,
      "Ġtaxable": 2612,
      "Ġexcess": 2613,
      "ology": 2614,
      "Ġseveral": 2615,
      "arant": 2616,
      "Ġinsured": 2617,
      "Ġminor": 2618,
      "10": 2619,
      "mber": 2620,
      "Ġindust": 2621,
      "Ġrent": 2622,
      "ont": 2623,
      "Ġexcl": 2624,
      "Ġliable": 2625,
      "amp": 2626,
      "Ġcontroll": 2627,
      "Ġthough": 2628,
      "ick": 2629,
      "anch": 2630,
      "Ġnove": 2631,
      "Ġmul": 2632,
      "Ġsignific": 2633,
      "Ġmet": 2634,
      "Ġresponsible": 2635,
      "Ġjuven": 2636,
      "Ġprovider": 2637,
      "graph": 2638,
      "Ġrelease": 2639,
      "Ġorigin": 2640,
      "ask": 2641,
      "Ġstatus": 2642,
      "Ġchallen": 2643,
      "Ġsold": 2644,
      "Ġasked": 2645,
      "Ġnovember": 2646,
      "Ġdeclaration": 2647,
      "Ġdeemed": 2648,
      "ocation": 2649,
      "Ġexch": 2650,
      "uth": 2651,
      "Ġeurope": 2652,
      "Ġfix": 2653,
      "Ġreasons": 2654,
      "Ġmarket": 2655,
      "Ġcli": 2656,
      "Ġrather": 2657,
      "Ġdoub": 2658,
      "Ġsan": 2659,
      "erve": 2660,
      "Ġanalysis": 2661,
      "Ġlight": 2662,
      "Ġ07": 2663,
      "Ġtransaction": 2664,
      "Ġrevers": 2665,
      "band": 2666,
      "Ġpun": 2667,
      "acter": 2668,
      "stance": 2669,
      "iter": 2670,
      "Ġbecome": 2671,
      "Ġplans": 2672,
      "Ġtaxpay": 2673,
      "Ġsingle": 2674,
      "Ġreceiving": 2675,
      "Ġannex": 2676,
      "go": 2677,
      "Ġsecurities": 2678,
      "ns": 2679,
      "Ġoperations": 2680,
      "Ġregular": 2681,
      "Ġshort": 2682,
      "iver": 2683,
      "Ġimm": 2684,
      "ead": 2685,
      "08": 2686,
      "Ġnatural": 2687,
      "Ġmatters": 2688,
      "Ġinstall": 2689,
      "Ġhousing": 2690,
      "Ġdisability": 2691,
      "Ġoccurred": 2692,
      "Ġlocation": 2693,
      "Ġexclud": 2694,
      "Ġnthe": 2695,
      "Ġemphasis": 2696,
      "Ġinitial": 2697,
      "Ġconvey": 2698,
      "Ġidentified": 2699,
      "Ġmental": 2700,
      "Ġball": 2701,
      "Ġguarant": 2702,
      "Ġopportunity": 2703,
      "Ġwitnesses": 2704,
      "Ġoption": 2705,
      "Ġameric": 2706,
      "ators": 2707,
      "Ġtimes": 2708,
      "Ġ2017": 2709,
      "dra": 2710,
      "imbur": 2711,
      "Ġcharacter": 2712,
      "Ġpresum": 2713,
      "uting": 2714,
      "Ġ1971": 2715,
      "Ġincurred": 2716,
      "Ġ1973": 2717,
      "Ġren": 2718,
      "Ġreference": 2719,
      "Ġhum": 2720,
      "Ġlot": 2721,
      "Ġpatient": 2722,
      "Ġguid": 2723,
      "Ġholder": 2724,
      "Ġhear": 2725,
      "Ġoffered": 2726,
      "Ġss": 2727,
      "Ġcash": 2728,
      "Ġexplain": 2729,
      "Ġthink": 2730,
      "uch": 2731,
      "orts": 2732,
      "Ġnext": 2733,
      "Ġbeginning": 2734,
      "Ġimprovement": 2735,
      "Ġelectronic": 2736,
      "ruary": 2737,
      "Ġpossible": 2738,
      "Ġjuvenile": 2739,
      "Ġiv": 2740,
      "Ġaffirm": 2741,
      "Ġamong": 2742,
      "Ġill": 2743,
      "Ġpeop": 2744,
      "Ġcalled": 2745,
      "Ġreimbur": 2746,
      "Ġdetermines": 2747,
      "tility": 2748,
      "Ġaugust": 2749,
      "Ġpersonnel": 2750,
      "Ġtransferred": 2751,
      "Ġfebruary": 2752,
      "Ġnoted": 2753,
      "Ġzoning": 2754,
      "Ġ1974": 2755,
      "Ġmand": 2756,
      "ta": 2757,
      "Ġsuperv": 2758,
      "Ġsystems": 2759,
      "han": 2760,
      "side": 2761,
      "Ġagreements": 2762,
      "Ġperformed": 2763,
      "ope": 2764,
      "Ġrefund": 2765,
      "Ġbelow": 2766,
      "Ġminimum": 2767,
      "Ġareas": 2768,
      "eep": 2769,
      "Ġunc": 2770,
      "Ġtold": 2771,
      "Ġmere": 2772,
      "rial": 2773,
      "Ġleft": 2774,
      "Ġturn": 2775,
      "Ġtermination": 2776,
      "acity": 2777,
      "Ġlimitations": 2778,
      "Ġplaced": 2779,
      "Ġdelivery": 2780,
      "Ġtreasurer": 2781,
      "Ġgovernmental": 2782,
      "state": 2783,
      "Ġplanning": 2784,
      "ently": 2785,
      "Ġproceeds": 2786,
      "Ġsettlement": 2787,
      "Ġherein": 2788,
      "Ġcand": 2789,
      "Ġstruct": 2790,
      "Ġpeople": 2791,
      "Ġ09": 2792,
      "Ġcollect": 2793,
      "Ġaid": 2794,
      "Ġsugg": 2795,
      "Ġentry": 2796,
      "Ġsust": 2797,
      "Ġcollection": 2798,
      "atives": 2799,
      "Ġterr": 2800,
      "Ġcomb": 2801,
      "Ġeuropean": 2802,
      "Ġassistant": 2803,
      "Ġdoct": 2804,
      "liam": 2805,
      "Ġidentification": 2806,
      "Ġ1996": 2807,
      "Ġthirty": 2808,
      "Ġwithdra": 2809,
      "Ġoig": 2810,
      "Ġfut": 2811,
      "Ġ191": 2812,
      "Ġsustain": 2813,
      "Ġdecided": 2814,
      "ral": 2815,
      "Ġev": 2816,
      "Ġpremium": 2817,
      "Ġbelieve": 2818,
      "Ġhours": 2819,
      "Ġ1984": 2820,
      "Ġutility": 2821,
      "Ġwords": 2822,
      "Ġsen": 2823,
      "Ġdisposition": 2824,
      "Ġarticles": 2825,
      "Ġemployed": 2826,
      "Ġserved": 2827,
      "Ġadmitted": 2828,
      "Ġsubstit": 2829,
      "Ġvoting": 2830,
      "onst": 2831,
      "Ġestim": 2832,
      "Ġ110": 2833,
      "Ġjust": 2834,
      "Ġconvicted": 2835,
      "olid": 2836,
      "Ġrefus": 2837,
      "Ġdelivered": 2838,
      "Ġshares": 2839,
      "itable": 2840,
      "Ġexempt": 2841,
      "Ġstudent": 2842,
      "ancy": 2843,
      "Ġmal": 2844,
      "Ġorders": 2845,
      "Ġperman": 2846,
      "ases": 2847,
      "Ġrese": 2848,
      "Ġtaking": 2849,
      "Ġsexual": 2850,
      "Ġsought": 2851,
      "Ġwaste": 2852,
      "Ġnd": 2853,
      "Ġretain": 2854,
      "Ġvehicles": 2855,
      "Ġsite": 2856,
      "Ġordered": 2857,
      "Ġap": 2858,
      "Ġvolunt": 2859,
      "Ġbey": 2860,
      "Ġ107": 2861,
      "Ġarr": 2862,
      "emp": 2863,
      "Ġ1976": 2864,
      "lect": 2865,
      "Ġsuperint": 2866,
      "Ġharm": 2867,
      "iti": 2868,
      "idav": 2869,
      "tt": 2870,
      "Ġaffidav": 2871,
      "Ġcompet": 2872,
      "Ġtemporary": 2873,
      "Ġconcluded": 2874,
      "Ġdown": 2875,
      "missible": 2876,
      "Ġdemand": 2877,
      "Ġliqu": 2878,
      "Ġpreviously": 2879,
      "Ġtownship": 2880,
      "Ġdiv": 2881,
      "Ġlicensee": 2882,
      "Ġdecisions": 2883,
      "Ġburden": 2884,
      "Ġ400": 2885,
      "ograph": 2886,
      "Ġinstrument": 2887,
      "Ġcertification": 2888,
      "Ġprotect": 2889,
      "Ġtrade": 2890,
      "Ġleave": 2891,
      "Ġrelationship": 2892,
      "airs": 2893,
      "Ġamendments": 2894,
      "Ġoutside": 2895,
      "Ġcontrary": 2896,
      "thers": 2897,
      "lier": 2898,
      "Ġadvis": 2899,
      "ient": 2900,
      "Ġclause": 2901,
      "Ġsubpar": 2902,
      "Ġlead": 2903,
      "Ġcandid": 2904,
      "Ġphysician": 2905,
      "Ġactivity": 2906,
      "Ġelectric": 2907,
      "Ġconstitute": 2908,
      "Ġcompleted": 2909,
      "Ġhuman": 2910,
      "Ġthereafter": 2911,
      "Ġdescription": 2912,
      "Ġaffirmed": 2913,
      "Ġgrounds": 2914,
      "Ġowners": 2915,
      "Ġrob": 2916,
      "Ġhus": 2917,
      "Ġsignificant": 2918,
      "isition": 2919,
      "Ġbest": 2920,
      "ble": 2921,
      "Ġadoption": 2922,
      "ience": 2923,
      "Ġexchange": 2924,
      "Ġshown": 2925,
      "ulated": 2926,
      "Ġrecovery": 2927,
      "Ġusing": 2928,
      "Ġfarm": 2929,
      "Ġexemption": 2930,
      "Ġbeyond": 2931,
      "Ġidentify": 2932,
      "Ġfeet": 2933,
      "Ġprimary": 2934,
      "Ġdemonst": 2935,
      "Ġbra": 2936,
      "Ġunivers": 2937,
      "Ġindividuals": 2938,
      "Ġnotify": 2939,
      "Ġwhole": 2940,
      "iff": 2941,
      "Ġdone": 2942,
      "Ġmor": 2943,
      "Ġrecommendations": 2944,
      "Ġpublish": 2945,
      "sh": 2946,
      "gether": 2947,
      "ili": 2948,
      "Ġ1978": 2949,
      "Ġwilliam": 2950,
      "tili": 2951,
      "Ġhusband": 2952,
      "ousand": 2953,
      "Ġseq": 2954,
      "Ġsocial": 2955,
      "Ġthousand": 2956,
      "Ġsupplement": 2957,
      "Ġloans": 2958,
      "Ġ108": 2959,
      "Ġtexas": 2960,
      "Ġcharter": 2961,
      "Ġcontractor": 2962,
      "Ġ1980": 2963,
      "Ġstatutes": 2964,
      "Ġconfid": 2965,
      "Ġele": 2966,
      "Ġ1982": 2967,
      "endar": 2968,
      "Ġfuture": 2969,
      "rie": 2970,
      "Ġfal": 2971,
      "Ġsuperintendent": 2972,
      "Ġrespective": 2973,
      "Ġsuperior": 2974,
      "Ġengaged": 2975,
      "Ġquality": 2976,
      "Ġcaused": 2977,
      "Ġcalendar": 2978,
      "Ġexpend": 2979,
      "Ġmut": 2980,
      "atch": 2981,
      "bor": 2982,
      "Ġmaxim": 2983,
      "ensive": 2984,
      "04": 2985,
      "Ġ111": 2986,
      "Ġ1990": 2987,
      "Ġput": 2988,
      "Ġwaiver": 2989,
      "Ġlack": 2990,
      "Ġdiscuss": 2991,
      "ane": 2992,
      "Ġnur": 2993,
      "Ġprepa": 2994,
      "Ġdetail": 2995,
      "Ġfar": 2996,
      "Ġdanger": 2997,
      "Ġanim": 2998,
      "Ġfaith": 2999,
      "Ġcard": 3000,
      "Ġprosecution": 3001,
      "read": 3002,
      "Ġ1992": 3003,
      "Ġreported": 3004,
      "Ġiniti": 3005,
      "Ġcontinue": 3006,
      "Ġdefinitions": 3007,
      "Ġ113": 3008,
      "holders": 3009,
      "Ġself": 3010,
      "Ġprobation": 3011,
      "Ġargued": 3012,
      "Ġsurv": 3013,
      "Ġcheck": 3014,
      "Ġabsence": 3015,
      "know": 3016,
      "Ġsubstance": 3017,
      "Ġomitted": 3018,
      "Ġtogether": 3019,
      "Ġgross": 3020,
      "Ġappellees": 3021,
      "Ġdriver": 3022,
      "na": 3023,
      "Ġcapacity": 3024,
      "Ġtaxpayer": 3025,
      "Ġassigned": 3026,
      "Ġmother": 3027,
      "Ġincident": 3028,
      "hol": 3029,
      "ordin": 3030,
      "ues": 3031,
      "Ġsav": 3032,
      "Ġcollected": 3033,
      "cted": 3034,
      "aid": 3035,
      "Ġconsult": 3036,
      "Ġreporting": 3037,
      "Ġrecognized": 3038,
      "Ġappellate": 3039,
      "Ġdirected": 3040,
      "Ġrs": 3041,
      "Ġban": 3042,
      "Ġcontention": 3043,
      "work": 3044,
      "Ġpresident": 3045,
      "Ġfalse": 3046,
      "rd": 3047,
      "Ġ301": 3048,
      "Ġdecla": 3049,
      "Ġobject": 3050,
      "Ġdece": 3051,
      "abilities": 3052,
      "Ġmulti": 3053,
      "Ġbure": 3054,
      "Ġinspector": 3055,
      "Ġitself": 3056,
      "Ġdischarge": 3057,
      "Ġcontinued": 3058,
      "Ġtract": 3059,
      "Ġcited": 3060,
      "Ġgreater": 3061,
      "Ġscope": 3062,
      "Ġresearch": 3063,
      "Ġteleph": 3064,
      "uis": 3065,
      "Ġpreceding": 3066,
      "Ġunre": 3067,
      "Ġns": 3068,
      "Ġprojects": 3069,
      "Ġconsumer": 3070,
      "Ġneither": 3071,
      "Ġexceptions": 3072,
      "Ġacquisition": 3073,
      "Ġvery": 3074,
      "Ġ109": 3075,
      "Ġindicated": 3076,
      "Ġnorth": 3077,
      "omestic": 3078,
      "Ġconstrued": 3079,
      "Ġnre": 3080,
      "Ġassu": 3081,
      "Ġindict": 3082,
      "Ġq": 3083,
      "Ġ1988": 3084,
      "ersion": 3085,
      "ware": 3086,
      "Ġess": 3087,
      "Ġda": 3088,
      "tts": 3089,
      "ma": 3090,
      "Ġconflic": 3091,
      "Ġaccounts": 3092,
      "Ġexecuted": 3093,
      "Ġdelay": 3094,
      "Ġfood": 3095,
      "Ġresponsibility": 3096,
      "Ġdomestic": 3097,
      "Ġ1969": 3098,
      "Ġappears": 3099,
      "Ġclient": 3100,
      "Ġincrease": 3101,
      "Ġfails": 3102,
      "achuse": 3103,
      "Ġaffected": 3104,
      "Ġargues": 3105,
      "Ġbl": 3106,
      "Ġcalc": 3107,
      "izing": 3108,
      "Ġoperator": 3109,
      "achusetts": 3110,
      "Ġadmission": 3111,
      "Ġengine": 3112,
      "Ġ112": 3113,
      "Ġrates": 3114,
      "Ġmassachusetts": 3115,
      "Ġauthorities": 3116,
      "Ġ1998": 3117,
      "bert": 3118,
      "Ġagg": 3119,
      "uck": 3120,
      "emn": 3121,
      "Ġconsolid": 3122,
      "Ġcontributions": 3123,
      "Ġlimitation": 3124,
      "Ġgeor": 3125,
      "Ġmont": 3126,
      "Ġexecution": 3127,
      "Ġbalance": 3128,
      "Ġdi": 3129,
      "Ġmarri": 3130,
      "encing": 3131,
      "Ġunif": 3132,
      "Ġsmall": 3133,
      "Ġil": 3134,
      "rodu": 3135,
      "Ġacting": 3136,
      "Ġoperate": 3137,
      "Ġinqu": 3138,
      "Ġreject": 3139,
      "Ġbeneficiary": 3140,
      "Ġpending": 3141,
      "Ġproble": 3142,
      "Ġfinds": 3143,
      "Ġder": 3144,
      "Ġfelony": 3145,
      "Ġpat": 3146,
      "ffic": 3147,
      "Ġresident": 3148,
      "Ġexpendit": 3149,
      "Ġpenalties": 3150,
      "Ġutili": 3151,
      "Ġinstructions": 3152,
      "Ġ203": 3153,
      "Ġrestriction": 3154,
      "Ġpurchaser": 3155,
      "Ġ115": 3156,
      "Ġinvolving": 3157,
      "Ġraised": 3158,
      "Ġmaximum": 3159,
      "Ġsmith": 3160,
      "Ġothers": 3161,
      "Ġmi": 3162,
      "Ġinterpret": 3163,
      "Ġcaus": 3164,
      "cohol": 3165,
      "reat": 3166,
      "Ġlands": 3167,
      "Ġautomob": 3168,
      "Ġbureau": 3169,
      "bo": 3170,
      "itive": 3171,
      "Ġprosecutor": 3172,
      "Ġequity": 3173,
      "Ġremand": 3174,
      "Ġdenial": 3175,
      "Ġlimits": 3176,
      "aren": 3177,
      "ier": 3178,
      "Ġalcohol": 3179,
      "Ġtechnical": 3180,
      "Ġonce": 3181,
      "Ġside": 3182,
      "Ġunderst": 3183,
      "Ġaffidavit": 3184,
      "Ġclose": 3185,
      "ancell": 3186,
      "Ġassault": 3187,
      "Ġpunish": 3188,
      "Ġchanges": 3189,
      "road": 3190,
      "Ġdedu": 3191,
      "Ġdispute": 3192,
      "Ġcorporate": 3193,
      "Ġtraffic": 3194,
      "Ġbreach": 3195,
      "Ġnin": 3196,
      "Ġ189": 3197,
      "Ġcolle": 3198,
      "uel": 3199,
      "Ġrun": 3200,
      "Ġestablishment": 3201,
      "Ġconcur": 3202,
      "Ġtook": 3203,
      "Ġaccepted": 3204,
      "Ġexclusive": 3205,
      "oti": 3206,
      "Ġdisclosure": 3207,
      "Ġregional": 3208,
      "oid": 3209,
      "Ġapparent": 3210,
      "Ġguardian": 3211,
      "Ġnf": 3212,
      "Ġelected": 3213,
      "Ġacquired": 3214,
      "Ġcorp": 3215,
      "ole": 3216,
      "ateral": 3217,
      "Ġexpert": 3218,
      "rison": 3219,
      "Ġfunction": 3220,
      "Ġeducational": 3221,
      "Ġcontrib": 3222,
      "Ġteach": 3223,
      "itary": 3224,
      "Ġtrue": 3225,
      "Ġwal": 3226,
      "Ġkind": 3227,
      "Ġcontact": 3228,
      "Ġretail": 3229,
      "Ġwithdraw": 3230,
      "Ġdivid": 3231,
      "Ġsuspension": 3232,
      "Ġresulting": 3233,
      "Ġbid": 3234,
      "Ġalternative": 3235,
      "Ġsubparagraph": 3236,
      "Ġshowing": 3237,
      "Ġrp": 3238,
      "Ġruling": 3239,
      "Ġjj": 3240,
      "lu": 3241,
      "Ġconfidential": 3242,
      "igan": 3243,
      "Ġenvironmental": 3244,
      "09": 3245,
      "Ġgrants": 3246,
      "itiz": 3247,
      "Ġsavings": 3248,
      "idge": 3249,
      "Ġnine": 3250,
      "Ġps": 3251,
      "orn": 3252,
      "Ġsubstantially": 3253,
      "21": 3254,
      "ene": 3255,
      "Ġconclude": 3256,
      "Ġmany": 3257,
      "Ġfactors": 3258,
      "Ġadequate": 3259,
      "Ġfully": 3260,
      "Ġproc": 3261,
      "Ġwant": 3262,
      "ront": 3263,
      "wh": 3264,
      "Ġfather": 3265,
      "cie": 3266,
      "Ġresidence": 3267,
      "kins": 3268,
      "tics": 3269,
      "Ġpop": 3270,
      "Ġdamage": 3271,
      "Ġimpact": 3272,
      "Ġrecip": 3273,
      "aska": 3274,
      "lf": 3275,
      "Ġ1994": 3276,
      "verage": 3277,
      "Ġprohibited": 3278,
      "Ġuniversity": 3279,
      "Ġkeep": 3280,
      "lying": 3281,
      "iation": 3282,
      "Ġtelephone": 3283,
      "Ġeight": 3284,
      "ea": 3285,
      "Ġexistence": 3286,
      "Ġrenewal": 3287,
      "Ġsher": 3288,
      "Ġuniform": 3289,
      "Ġwrong": 3290,
      "teen": 3291,
      "Ġimprovements": 3292,
      "Ġviolations": 3293,
      "Ġchair": 3294,
      "ifications": 3295,
      "Ġmakes": 3296,
      "Ġvir": 3297,
      "Ġprepared": 3298,
      "opp": 3299,
      "Ġproduction": 3300,
      "Ġgar": 3301,
      "Ġarrange": 3302,
      "Ġur": 3303,
      "Ġquoting": 3304,
      "Ġpotential": 3305,
      "Ġmillion": 3306,
      "Ġmaintained": 3307,
      "Ġweek": 3308,
      "ding": 3309,
      "Ġsource": 3310,
      "Ġclaimed": 3311,
      "Ġmach": 3312,
      "Ġdoubt": 3313,
      "Ġownership": 3314,
      "reh": 3315,
      "Ġoffender": 3316,
      "Ġfield": 3317,
      "Ġnegoti": 3318,
      "Ġ125": 3319,
      "Ġflo": 3320,
      "Ġ1972": 3321,
      "Ġschedule": 3322,
      "ival": 3323,
      "13": 3324,
      "Ġunlaw": 3325,
      "Ġthreat": 3326,
      "Ġwash": 3327,
      "ually": 3328,
      "Ġagricultural": 3329,
      "Ġimproper": 3330,
      "Ġneeds": 3331,
      "Ġthereto": 3332,
      "Ġrequiring": 3333,
      "Ġcontrolled": 3334,
      "po": 3335,
      "Ġrailroad": 3336,
      "ergy": 3337,
      "Ġnone": 3338,
      "Ġresidential": 3339,
      "oked": 3340,
      "Ġdest": 3341,
      "ered": 3342,
      "Ġoperated": 3343,
      "Ġremoval": 3344,
      "Ġ114": 3345,
      "Ġalleg": 3346,
      "Ġofficials": 3347,
      "ones": 3348,
      "asion": 3349,
      "bs": 3350,
      "gth": 3351,
      "Ġstri": 3352,
      "Ġtherein": 3353,
      "Ġautomobile": 3354,
      "onsist": 3355,
      "itory": 3356,
      "Ġsure": 3357,
      "Ġspouse": 3358,
      "Ġrepla": 3359,
      "Ġfunding": 3360,
      "ĠâĢĺ": 3361,
      "Ġcompact": 3362,
      "Ġsk": 3363,
      "Ġ129": 3364,
      "Ġpermanent": 3365,
      "Ġcriter": 3366,
      "Ġorganiz": 3367,
      "ering": 3368,
      "osed": 3369,
      "Ġfunctions": 3370,
      "Ġarising": 3371,
      "unction": 3372,
      "Ġpark": 3373,
      "Ġapproxim": 3374,
      "Ġremaining": 3375,
      "umb": 3376,
      "well": 3377,
      "Ġknowing": 3378,
      "Ġhaz": 3379,
      "hab": 3380,
      "Ġadver": 3381,
      "Ġce": 3382,
      "Ġadjud": 3383,
      "Ġroom": 3384,
      "Ġfinance": 3385,
      "Ġplead": 3386,
      "Ġamerican": 3387,
      "Ġmonitor": 3388,
      "Ġexamin": 3389,
      "Ġprobable": 3390,
      "Ġsolely": 3391,
      "Ġextension": 3392,
      "Ġgrand": 3393,
      "Ġmichigan": 3394,
      "ically": 3395,
      "Ġvarious": 3396,
      "Ġreturned": 3397,
      "Ġpossess": 3398,
      "Ġplea": 3399,
      "Ġactually": 3400,
      "Ġinconsist": 3401,
      "Ġconform": 3402,
      "Ġweight": 3403,
      "Ġrecorded": 3404,
      "Ġtestify": 3405,
      "Ġevaluation": 3406,
      "ington": 3407,
      "ida": 3408,
      "ii": 3409,
      "ston": 3410,
      "Ġreviewed": 3411,
      "cribe": 3412,
      "Ġrecommendation": 3413,
      "Ġcontaining": 3414,
      "ris": 3415,
      "ifying": 3416,
      "Ġsupervision": 3417,
      "Ġenergy": 3418,
      "Ġearlier": 3419,
      "Ġassessed": 3420,
      "Ġacknow": 3421,
      "Ġoil": 3422,
      "Ġdistricts": 3423,
      "Ġstill": 3424,
      "oks": 3425,
      "Ġpension": 3426,
      "rine": 3427,
      "Ġhimself": 3428,
      "Ġitems": 3429,
      "Ġbel": 3430,
      "Ġwest": 3431,
      "Ġevalu": 3432,
      "Ġlitig": 3433,
      "Ġdiscip": 3434,
      "Ġsimp": 3435,
      "Ġmisc": 3436,
      "ext": 3437,
      "Ġstor": 3438,
      "holder": 3439,
      "inct": 3440,
      "Ġviolated": 3441,
      "Ġmeasures": 3442,
      "Ġtimely": 3443,
      "Ġfourth": 3444,
      "arents": 3445,
      "12": 3446,
      "Ġdevice": 3447,
      "Ġpled": 3448,
      "Ġunf": 3449,
      "ored": 3450,
      "Ġcol": 3451,
      "Ġprivilege": 3452,
      "Ġtenant": 3453,
      "eg": 3454,
      "Ġaccru": 3455,
      "Ġcompe": 3456,
      "Ġ123": 3457,
      "Ġmembership": 3458,
      "Ġimpose": 3459,
      "Ġ116": 3460,
      "Ġadverse": 3461,
      "Ġhazard": 3462,
      "ready": 3463,
      "ateg": 3464,
      "Ġwent": 3465,
      "Ġbi": 3466,
      "see": 3467,
      "ously": 3468,
      "Ġserious": 3469,
      "Ġassessments": 3470,
      "Ġheard": 3471,
      "Ġprejudice": 3472,
      "Ġflor": 3473,
      "Ġcontends": 3474,
      "Ġdefault": 3475,
      "Ġhereby": 3476,
      "Ġfirm": 3477,
      "Ġparticipation": 3478,
      "oke": 3479,
      "Ġnamed": 3480,
      "Ġ1967": 3481,
      "Ġbase": 3482,
      "view": 3483,
      "Ġability": 3484,
      "rim": 3485,
      "Ġmemor": 3486,
      "19": 3487,
      "Ġget": 3488,
      "Ġgeorge": 3489,
      "Ġsecured": 3490,
      "Ġforms": 3491,
      "Ġappra": 3492,
      "Ġgoing": 3493,
      "Ġalready": 3494,
      "Ġveter": 3495,
      "Ġlie": 3496,
      "Ġterritory": 3497,
      "Ġ1968": 3498,
      "Ġwhol": 3499,
      "Ġcriteria": 3500,
      "Ġgranting": 3501,
      "Ġ205": 3502,
      "Ġcitiz": 3503,
      "tity": 3504,
      "Ġbroad": 3505,
      "Ġlarge": 3506,
      "Ġrendered": 3507,
      "Ġsubsid": 3508,
      "Ġstanding": 3509,
      "Ġclaimant": 3510,
      "Ġdeposited": 3511,
      "Ġrepresentatives": 3512,
      "Ġlisted": 3513,
      "Ġexpense": 3514,
      "clo": 3515,
      "Ġ120": 3516,
      "15": 3517,
      "Ġport": 3518,
      "att": 3519,
      "Ġ119": 3520,
      "ych": 3521,
      "Ġneeded": 3522,
      "Ġavoid": 3523,
      "Ġcateg": 3524,
      "Ġaccounting": 3525,
      "Ġilleg": 3526,
      "Ġ127": 3527,
      "Ġhalf": 3528,
      "Ġtort": 3529,
      "Ġseem": 3530,
      "Ġtext": 3531,
      "Ġow": 3532,
      "Ġrelative": 3533,
      "Ġdealer": 3534,
      "Ġattend": 3535,
      "Ġcontext": 3536,
      "Ġstating": 3537,
      "Ġhy": 3538,
      "Ġintrodu": 3539,
      "Ġcounties": 3540,
      "Ġtreated": 3541,
      "Ġdesigned": 3542,
      "Ġactive": 3543,
      "Ġcontinuing": 3544,
      "Ġimplementation": 3545,
      "Ġflorida": 3546,
      "Ġbring": 3547,
      "Ġdissol": 3548,
      "Ġcompetent": 3549,
      "Ġconfir": 3550,
      "Ġsupervis": 3551,
      "Ġho": 3552,
      "Ġtesting": 3553,
      "Ġunits": 3554,
      "Ġprep": 3555,
      "Ġhel": 3556,
      "Ġexpressly": 3557,
      "ersey": 3558,
      "Ġ1970": 3559,
      "Ġinstitutions": 3560,
      "Ġworking": 3561,
      "Ġsouth": 3562,
      "Ġimprison": 3563,
      "her": 3564,
      "Ġgif": 3565,
      "Ġparents": 3566,
      "Ġassum": 3567,
      "ark": 3568,
      "Ġequival": 3569,
      "Ġprinciples": 3570,
      "Ġcontrols": 3571,
      "Ġdelin": 3572,
      "Ġprison": 3573,
      "Ġjersey": 3574,
      "Ġinjur": 3575,
      "ries": 3576,
      "Ġfall": 3577,
      "Ġdoctrine": 3578,
      "ls": 3579,
      "Ġpred": 3580,
      "Ġexhib": 3581,
      "Ġpray": 3582,
      "rog": 3583,
      "Ġliving": 3584,
      "Ġprove": 3585,
      "Ġjam": 3586,
      "Ġseller": 3587,
      "Ġexpir": 3588,
      "Ġcollateral": 3589,
      "Ġapproximately": 3590,
      "Ġnum": 3591,
      "Ġmaster": 3592,
      "ang": 3593,
      "Ġadvisory": 3594,
      "ferred": 3595,
      "Ġmanager": 3596,
      "Ġpresence": 3597,
      "Ġmention": 3598,
      "Ġpractices": 3599,
      "Ġexperience": 3600,
      "Ġhigher": 3601,
      "Ġsolic": 3602,
      "Ġmuch": 3603,
      "Ġreversed": 3604,
      "Ġawarded": 3605,
      "Ġfine": 3606,
      "Ġballot": 3607,
      "Ġindictment": 3608,
      "atic": 3609,
      "Ġfinancing": 3610,
      "Ġfixed": 3611,
      "Ġcompletion": 3612,
      "Ġjr": 3613,
      "Ġuses": 3614,
      "Ġ>": 3615,
      "Ġstop": 3616,
      "Ġves": 3617,
      "illa": 3618,
      "Ġinterpretation": 3619,
      "ground": 3620,
      "Ġcontracting": 3621,
      "ote": 3622,
      "Ġsalary": 3623,
      "Ġcollege": 3624,
      "Ġlonger": 3625,
      "Ġ117": 3626,
      "Ġsheriff": 3627,
      "Ġtravel": 3628,
      "Ġforfe": 3629,
      "Ġagents": 3630,
      "Ġrein": 3631,
      "Ġintern": 3632,
      "appro": 3633,
      "Ġestablishing": 3634,
      "ford": 3635,
      "Ġsubstituted": 3636,
      "Ġ124": 3637,
      "Ġpermits": 3638,
      "Ġmutual": 3639,
      "Ġpan": 3640,
      "Ġplant": 3641,
      "Ġaccordingly": 3642,
      "Ġcorporations": 3643,
      "ened": 3644,
      "Ġrepair": 3645,
      "be": 3646,
      "Ġfre": 3647,
      "Ġ133": 3648,
      "Ġdeleg": 3649,
      "Ġfid": 3650,
      "Ġunlawful": 3651,
      "Ġreach": 3652,
      "Ġdiscussion": 3653,
      "Ġcongress": 3654,
      "Ġlower": 3655,
      "gom": 3656,
      "Ġable": 3657,
      "Ġacquire": 3658,
      "ublic": 3659,
      "Ġalong": 3660,
      "Ġauditor": 3661,
      "lfare": 3662,
      "Ġexpiration": 3663,
      "Ġmontgom": 3664,
      "Ġwelfare": 3665,
      "Ġmist": 3666,
      "Ġunable": 3667,
      "Ġdeced": 3668,
      "Ġindiana": 3669,
      "Ġlouis": 3670,
      "Ġinser": 3671,
      "Ġenroll": 3672,
      "Ġseven": 3673,
      "Ġmanufacturer": 3674,
      "endix": 3675,
      "Ġmontgomery": 3676,
      "Ġpsych": 3677,
      "Ġcorrection": 3678,
      "Ġexplained": 3679,
      "Ġgiving": 3680,
      "ocol": 3681,
      "Ġaccur": 3682,
      "Ġdirection": 3683,
      "Ġaccused": 3684,
      "Ġseeking": 3685,
      "93": 3686,
      "men": 3687,
      "Ġvessel": 3688,
      "certain": 3689,
      "Ġhb": 3690,
      "Ġcountry": 3691,
      "uled": 3692,
      "Ġcompanies": 3693,
      "Ġul": 3694,
      "Ġprompt": 3695,
      "Ġgener": 3696,
      "irect": 3697,
      "illed": 3698,
      "Ġbecomes": 3699,
      "Ġ302": 3700,
      "Ġtransactions": 3701,
      "Ġsci": 3702,
      "Ġinteg": 3703,
      "Ġparts": 3704,
      "Ġwrit": 3705,
      "Ġ122": 3706,
      "Ġcandidate": 3707,
      "unities": 3708,
      "Ġforeclo": 3709,
      "Ġprocessing": 3710,
      "Ġparticipate": 3711,
      "Ġquar": 3712,
      "Ġannually": 3713,
      "Ġmerely": 3714,
      "Ġfoot": 3715,
      "Ġinstit": 3716,
      "Ġnear": 3717,
      "Ġaffairs": 3718,
      "17": 3719,
      "Ġles": 3720,
      "Ġ132": 3721,
      "Ġcreate": 3722,
      "Ġtreasury": 3723,
      "uter": 3724,
      "Ġcert": 3725,
      "Ġwhenever": 3726,
      "Ġadjudic": 3727,
      "82": 3728,
      "Ġinconsistent": 3729,
      "Ġrevocation": 3730,
      "Ġhard": 3731,
      "Ġje": 3732,
      "Ġfy": 3733,
      "Ġ130": 3734,
      "Ġliquid": 3735,
      "Ġoh": 3736,
      "Ġ1965": 3737,
      "Ġstorage": 3738,
      "title": 3739,
      "Ġremedy": 3740,
      "Ġali": 3741,
      "Ġprotocol": 3742,
      "Ġbranch": 3743,
      "Ġlen": 3744,
      "Ġnomin": 3745,
      "Ġdise": 3746,
      "Ġorganizations": 3747,
      "rees": 3748,
      "Ġwat": 3749,
      "Ġcho": 3750,
      "Ġnm": 3751,
      "Ġstation": 3752,
      "Ġpurchased": 3753,
      "Ġfuel": 3754,
      "Ġreceives": 3755,
      "Ġ204": 3756,
      "Ġpublished": 3757,
      "ex": 3758,
      "Ġna": 3759,
      "Ġinformed": 3760,
      "ha": 3761,
      "Ġremoved": 3762,
      "anor": 3763,
      "Ġold": 3764,
      "Ġtrib": 3765,
      "Ġassignment": 3766,
      "Ġparticipating": 3767,
      "Ġnames": 3768,
      "Ġlegally": 3769,
      "sequ": 3770,
      "Ġmisd": 3771,
      "Ġpercentage": 3772,
      "alid": 3773,
      "Ġmeasure": 3774,
      "ana": 3775,
      "Ġpartner": 3776,
      "Ġinstead": 3777,
      "Ġgave": 3778,
      "Ġsituation": 3779,
      "Ġoutstanding": 3780,
      "Ġaverage": 3781,
      "Ġbuildings": 3782,
      "Ġarbitration": 3783,
      "ished": 3784,
      "Ġdecedent": 3785,
      "Ġauthorization": 3786,
      "Ġobserved": 3787,
      "Ġapplying": 3788,
      "Ġrequests": 3789,
      "Ġaggreg": 3790,
      "Ġesc": 3791,
      "Ġefforts": 3792,
      "Ġapplications": 3793,
      "Ġeligibility": 3794,
      "Ġerred": 3795,
      "Ġdivor": 3796,
      "Ġassociated": 3797,
      "rence": 3798,
      "Ġbrown": 3799,
      "umbered": 3800,
      "Ġtechnology": 3801,
      "Ġstudents": 3802,
      "ared": 3803,
      "Ġnar": 3804,
      "Ġ401": 3805,
      "Ġpaper": 3806,
      "Ġfri": 3807,
      "Ġmeetings": 3808,
      "Ġsupply": 3809,
      "Ġmoreover": 3810,
      "Ġsubtitle": 3811,
      "Ġ128": 3812,
      "Ġcertificates": 3813,
      "Ġcit": 3814,
      "Ġtyp": 3815,
      "Ġvalidity": 3816,
      "ibilities": 3817,
      "Ġaccompan": 3818,
      "Ġphot": 3819,
      "Ġinjuries": 3820,
      "Ġreserve": 3821,
      "Ġoccasion": 3822,
      "Ġwhy": 3823,
      "Ġnotification": 3824,
      "Ġcf": 3825,
      "Ġequivalent": 3826,
      "Ġcarrier": 3827,
      "rower": 3828,
      "Ġmisdeme": 3829,
      "Ġreimbursement": 3830,
      "ester": 3831,
      "Ġdecide": 3832,
      "Ġincorporated": 3833,
      "Ġstructure": 3834,
      "Ġ118": 3835,
      "Ġordinary": 3836,
      "Ġalloc": 3837,
      "Ġinvalid": 3838,
      "Ġcomment": 3839,
      "Ġanimal": 3840,
      "Ġsuppress": 3841,
      "Ġdoing": 3842,
      "Ġadvance": 3843,
      "timate": 3844,
      "Ġaband": 3845,
      "Ġelement": 3846,
      "Ġwashington": 3847,
      "ipp": 3848,
      "Ġpassed": 3849,
      "Ġdeputy": 3850,
      "Ġcarrying": 3851,
      "Ġward": 3852,
      "Ġmiss": 3853,
      "onduct": 3854,
      "Ġcomments": 3855,
      "Ġsimply": 3856,
      "ille": 3857,
      "Ġrefusal": 3858,
      "bted": 3859,
      "inding": 3860,
      "Ġnorm": 3861,
      "Ġindebted": 3862,
      "Ġrad": 3863,
      "Ġexists": 3864,
      "Ġworks": 3865,
      "Ġoffices": 3866,
      "Ġconcerned": 3867,
      "Ġriver": 3868,
      "Ġreflect": 3869,
      "Ġcompreh": 3870,
      "ash": 3871,
      "Ġrehab": 3872,
      "Ġconservation": 3873,
      "Ġtruck": 3874,
      "Ġcustomer": 3875,
      "Ġrehabil": 3876,
      "Ġknew": 3877,
      "otion": 3878,
      "Ġerrone": 3879,
      "Ġcooperative": 3880,
      "Ġproduced": 3881,
      "Ġacknowled": 3882,
      "Ġabandon": 3883,
      "Ġapartment": 3884,
      "Ġsam": 3885,
      "Ġfifty": 3886,
      "Ġfront": 3887,
      "Ġvoluntary": 3888,
      "Ġcoordin": 3889,
      "Ġreduced": 3890,
      "Ġbla": 3891,
      "Ġcod": 3892,
      "Ġimportant": 3893,
      "Ġfinally": 3894,
      "Ġmid": 3895,
      "Ġdocumentation": 3896,
      "Ġborrower": 3897,
      "yl": 3898,
      "Ġillegal": 3899,
      "Ġsustained": 3900,
      "Ġgreat": 3901,
      "Ġafford": 3902,
      "Ġentities": 3903,
      "sa": 3904,
      "Ġ1957": 3905,
      "Ġquan": 3906,
      "Ġsupported": 3907,
      "Ġdismissed": 3908,
      "chie": 3909,
      "Ġ135": 3910,
      "Ġvoter": 3911,
      "Ġrepresentation": 3912,
      "Ġ1966": 3913,
      "Ġrefused": 3914,
      "Ġmonthly": 3915,
      "Ġyork": 3916,
      "Ġrobber": 3917,
      "ughter": 3918,
      "Ġconflict": 3919,
      "omin": 3920,
      "Ġvilla": 3921,
      "Ġpopulation": 3922,
      "Ġcontains": 3923,
      "urance": 3924,
      "Ġlicensing": 3925,
      "Ġimmediate": 3926,
      "Ġdated": 3927,
      "Ġmilitary": 3928,
      "Ġapprais": 3929,
      "Ġsaw": 3930,
      "Ġregulatory": 3931,
      "Ġexpenditures": 3932,
      "Ġ1947": 3933,
      "Ġ1956": 3934,
      "Ġwood": 3935,
      "Ġpers": 3936,
      "thel": 3937,
      "Ġ206": 3938,
      "Ġinjured": 3939,
      "rated": 3940,
      "Ġinstant": 3941,
      "Ġselected": 3942,
      "Ġdangerous": 3943,
      "Ġ303": 3944,
      "Ġmisdemeanor": 3945,
      "Ġlikely": 3946,
      "ern": 3947,
      "Ġmarriage": 3948,
      "Ġworkers": 3949,
      "ov": 3950,
      "Ġaffili": 3951,
      "Ġviolates": 3952,
      "Ġsatisfied": 3953,
      "Ġcompon": 3954,
      "uity": 3955,
      "Ġinterstate": 3956,
      "Ġjob": 3957,
      "Ġcam": 3958,
      "iciency": 3959,
      "Ġparole": 3960,
      "ses": 3961,
      "Ġ131": 3962,
      "ulg": 3963,
      "Ġsecure": 3964,
      "Ġrestrictions": 3965,
      "Ġjohnson": 3966,
      "tin": 3967,
      "Ġexample": 3968,
      "Ġwhite": 3969,
      "Ġimprisonment": 3970,
      "Ġmec": 3971,
      "Ġ402": 3972,
      "Ġdeclared": 3973,
      "cement": 3974,
      "Ġ2016": 3975,
      "ological": 3976,
      "Ġlevy": 3977,
      "Ġdeveloped": 3978,
      "Ġmoneys": 3979,
      "elines": 3980,
      "Ġnews": 3981,
      "Ġmarke": 3982,
      "Ġsupplied": 3983,
      "Ġindicate": 3984,
      "Ġkn": 3985,
      "Ġattach": 3986,
      "Ġstr": 3987,
      "enti": 3988,
      "Ġdiscussed": 3989,
      "Ġstay": 3990,
      "Ġenacted": 3991,
      "nings": 3992,
      "nes": 3993,
      "ways": 3994,
      "Ġconsp": 3995,
      "rop": 3996,
      "Ġconsequ": 3997,
      "Ġinternational": 3998,
      "Ġresponsibilities": 3999,
      "going": 4000,
      "Ġlegislation": 4001,
      "roller": 4002,
      "Ġutiliz": 4003,
      "Ġauthorize": 4004,
      "Ġunderta": 4005,
      "Ġjudges": 4006,
      "Ġ501": 4007,
      "Ġfollowed": 4008,
      "Ġblood": 4009,
      "Ġnonc": 4010,
      "iry": 4011,
      "tery": 4012,
      "Ġreduction": 4013,
      "Ġdefici": 4014,
      "Ġbear": 4015,
      "Ġohio": 4016,
      "Ġdefer": 4017,
      "Ġpanel": 4018,
      "Ġindustrial": 4019,
      "Ġgreen": 4020,
      "Ġ188": 4021,
      "Ġpresumption": 4022,
      "Ġhelp": 4023,
      "ĠÐ": 4024,
      "Ġbir": 4025,
      "Ġachie": 4026,
      "Ġcompt": 4027,
      "Ġindirect": 4028,
      "Ġpassen": 4029,
      "uci": 4030,
      "Ġessential": 4031,
      "Ġ403": 4032,
      "Ġindemn": 4033,
      "Ġdiscovery": 4034,
      "Ġdebtor": 4035,
      "Ġhon": 4036,
      "Ġ152": 4037,
      "Ġapproach": 4038,
      "Ġcomptroller": 4039,
      "Ġfl": 4040,
      "Ġmayor": 4041,
      "Ġinquiry": 4042,
      "Ġparce": 4043,
      "Ġacceptance": 4044,
      "Ġdivorce": 4045,
      "Ġapprove": 4046,
      "Ġexclusion": 4047,
      "Ġcommunication": 4048,
      "Ġwom": 4049,
      "Ġequitable": 4050,
      "Ġresidents": 4051,
      "theless": 4052,
      "Ġlawyer": 4053,
      "Ġeast": 4054,
      "Ġcome": 4055,
      "Ġmisconduct": 4056,
      "Ġoral": 4057,
      "Ġpreclud": 4058,
      "Ġpast": 4059,
      "Ġmcc": 4060,
      "Ġcame": 4061,
      "Ġ141": 4062,
      "Ġseek": 4063,
      "lord": 4064,
      "Ġdiffic": 4065,
      "Ġmemorand": 4066,
      "Ġindebtedness": 4067,
      "Ġmat": 4068,
      "Ġgun": 4069,
      "Ġimmunity": 4070,
      "ina": 4071,
      "Ġface": 4072,
      "Ġjudgments": 4073,
      "prof": 4074,
      "Ġoffenses": 4075,
      "Ġspeed": 4076,
      "Ġdead": 4077,
      "iture": 4078,
      "Ġconsisting": 4079,
      "Ġsubsequently": 4080,
      "pons": 4081,
      "Ġknowingly": 4082,
      "Ġlar": 4083,
      "Ġoath": 4084,
      "Ġenactment": 4085,
      "Ġ187": 4086,
      "Ġextended": 4087,
      "Ġfurnished": 4088,
      "ires": 4089,
      "Ġschools": 4090,
      "Ġincreased": 4091,
      "Ġmechan": 4092,
      "Ġ180": 4093,
      "fficient": 4094,
      "Ġgr": 4095,
      "ories": 4096,
      "Ġtoward": 4097,
      "Ġmark": 4098,
      "Ġcomprehensive": 4099,
      "time": 4100,
      "Ġagriculture": 4101,
      "Ġmag": 4102,
      "Ġlitigation": 4103,
      "Ġsurvey": 4104,
      "Ġcopies": 4105,
      "Ġlandlord": 4106,
      "Ġfactual": 4107,
      "Ġarm": 4108,
      "Ġlouisiana": 4109,
      "Ġrepresented": 4110,
      "Ġdeceased": 4111,
      "Ġmodification": 4112,
      "Ġcommerce": 4113,
      "Ġelements": 4114,
      "Ġcertify": 4115,
      "Ġaware": 4116,
      "Ġthereon": 4117,
      "Ġsetting": 4118,
      "hood": 4119,
      "Ġattempted": 4120,
      "que": 4121,
      "Ġcounter": 4122,
      "Ġprepar": 4123,
      "Ġenterpr": 4124,
      "Ġcoven": 4125,
      "Ġclassification": 4126,
      "Ġdrugs": 4127,
      "Ġparish": 4128,
      "Ġappealed": 4129,
      "Ġattorneys": 4130,
      "Ġpublication": 4131,
      "Ġsenate": 4132,
      "orter": 4133,
      "ino": 4134,
      "Ġnov": 4135,
      "ott": 4136,
      "Ġtransf": 4137,
      "Ġvoid": 4138,
      "ound": 4139,
      "wide": 4140,
      "Ġ150": 4141,
      "Ġfiduci": 4142,
      "Ġunreason": 4143,
      "Ġregardless": 4144,
      "Ġsil": 4145,
      "Ġthom": 4146,
      "ening": 4147,
      "Ġsubsidi": 4148,
      "Ġrenumbered": 4149,
      "Ġrepublic": 4150,
      "Ġsuspended": 4151,
      "Ġconstitutes": 4152,
      "Ġ600": 4153,
      "Ġprocure": 4154,
      "day": 4155,
      "Ġyes": 4156,
      "Ġsuggest": 4157,
      "Ġdisciplin": 4158,
      "loc": 4159,
      "Ġpractic": 4160,
      "Ġtried": 4161,
      "Ġbecame": 4162,
      "ism": 4163,
      "Ġham": 4164,
      "Ġadult": 4165,
      "Ġbroker": 4166,
      "Ġ121": 4167,
      "Ġindeed": 4168,
      "Ġanything": 4169,
      "Ġaccomplish": 4170,
      "itch": 4171,
      "Ġrobbery": 4172,
      "Ġappendix": 4173,
      "Ġtaxation": 4174,
      "Ġindustry": 4175,
      "Ġearly": 4176,
      "action": 4177,
      "Ġpack": 4178,
      "Ġaf": 4179,
      "Ġmonitoring": 4180,
      "Ð°": 4181,
      "ca": 4182,
      "Ġsocie": 4183,
      "Ġsuccessor": 4184,
      "Ġforward": 4185,
      "Ġboston": 4186,
      "Ġcri": 4187,
      "rast": 4188,
      "Ġvoters": 4189,
      "Ġlib": 4190,
      "Ġnp": 4191,
      "Ġweap": 4192,
      "Ġjames": 4193,
      "Ġdisbur": 4194,
      "rateg": 4195,
      "Ġinn": 4196,
      "Ġdischar": 4197,
      "Ġaven": 4198,
      "Ġsubc": 4199,
      "Ġguidelines": 4200,
      "Ġprinciple": 4201,
      "Ġorganized": 4202,
      "Ġdraw": 4203,
      "Ġrevenues": 4204,
      "Ġtable": 4205,
      "Ġmethods": 4206,
      "riev": 4207,
      "Ġsho": 4208,
      "Ġadmissible": 4209,
      "Ġovers": 4210,
      "Ġaggregate": 4211,
      "Ġ126": 4212,
      "Ġsession": 4213,
      "Ġthereby": 4214,
      "Ġduly": 4215,
      "Ġ215": 4216,
      "esign": 4217,
      "Ġlength": 4218,
      "Ġmanufacture": 4219,
      "Ġprepare": 4220,
      "Ġreduce": 4221,
      "licit": 4222,
      "Ġ153": 4223,
      "Ġinflu": 4224,
      "Ġstore": 4225,
      "Ġcommod": 4226,
      "Ġconven": 4227,
      "Ġsources": 4228,
      "portion": 4229,
      "Ġallowance": 4230,
      "ban": 4231,
      "Ġ~": 4232,
      "Ġengage": 4233,
      "Ġallegations": 4234,
      "Ġlender": 4235,
      "Ġformal": 4236,
      "Ġparticipant": 4237,
      "Ġjac": 4238,
      "xic": 4239,
      "Ġ151": 4240,
      "Ġtrack": 4241,
      "Ġclosing": 4242,
      "Ġmentioned": 4243,
      "oints": 4244,
      "Ġstric": 4245,
      "Ġzone": 4246,
      "Ġvillage": 4247,
      "Ġconvention": 4248,
      "apers": 4249,
      "Ġ1963": 4250,
      "Ġarch": 4251,
      "Ġmove": 4252,
      "Ġchallenge": 4253,
      "Ġparking": 4254,
      "Ġdoor": 4255,
      "Ġsignature": 4256,
      "Ġabsent": 4257,
      "Ġmultiple": 4258,
      "Ġthomas": 4259,
      "Ġsentencing": 4260,
      "illing": 4261,
      "Ġgriev": 4262,
      "Ġobtaining": 4263,
      "ape": 4264,
      "Ġsound": 4265,
      "Ġenj": 4266,
      "limin": 4267,
      "Ġtro": 4268,
      "Ġmoved": 4269,
      "Ġcentral": 4270,
      "Ġmotions": 4271,
      "lass": 4272,
      "Ġcooperation": 4273,
      "Ġexpressed": 4274,
      "Ġrejected": 4275,
      "Ġpromulg": 4276,
      "rap": 4277,
      "Ġoj": 4278,
      "aging": 4279,
      "Ġstrateg": 4280,
      "Ġrelied": 4281,
      "Ġnonprof": 4282,
      "Ġconversion": 4283,
      "Ġappropriations": 4284,
      "Ġdesignation": 4285,
      "Ġchem": 4286,
      "Ġrental": 4287,
      "Ġinterested": 4288,
      "Ġdriving": 4289,
      "Ġwaived": 4290,
      "Ġdoc": 4291,
      "izes": 4292,
      "Ġremains": 4293,
      "Ġ136": 4294,
      "ost": 4295,
      "Ġdenying": 4296,
      "Ġ316": 4297,
      "enth": 4298,
      "ah": 4299,
      "Ġprelimin": 4300,
      "Ġlawful": 4301,
      "yc": 4302,
      "Ġbuyer": 4303,
      "Ġcounts": 4304,
      "under": 4305,
      "Ġborrow": 4306,
      "laim": 4307,
      "Ġterminated": 4308,
      "Ġbooks": 4309,
      "ectives": 4310,
      "Ġnonprofit": 4311,
      "Ġrecent": 4312,
      "gun": 4313,
      "Ġ207": 4314,
      "Ġcreation": 4315,
      "Ġeea": 4316,
      "face": 4317,
      "Ġquarter": 4318,
      "Ġmind": 4319,
      "Ġplat": 4320,
      "iat": 4321,
      "Ġwilliams": 4322,
      "Ġreached": 4323,
      "Ġqualifications": 4324,
      "Ġjurors": 4325,
      "Ġtheory": 4326,
      "Ġ185": 4327,
      "Ġspace": 4328,
      "Ġ250": 4329,
      "Ġinsufficient": 4330,
      "Ġpeace": 4331,
      "Ġstudy": 4332,
      "Ġpertin": 4333,
      "Ġprotected": 4334,
      "Ġ134": 4335,
      "Ġincorporation": 4336,
      "Ġmedicaid": 4337,
      "Ġjones": 4338,
      "Ġnw": 4339,
      "Ġ165": 4340,
      "Ġmerger": 4341,
      "rupt": 4342,
      "Ġproperties": 4343,
      "Ġdisease": 4344,
      "Ġrich": 4345,
      "Ġdelinquent": 4346,
      "asing": 4347,
      "Ġvend": 4348,
      "Ġcrimes": 4349,
      "gers": 4350,
      "Ġheading": 4351,
      "Ġattached": 4352,
      "Ġreb": 4353,
      "Ġredesign": 4354,
      "Ġstruck": 4355,
      "Ġpertinent": 4356,
      "Ġsitu": 4357,
      "Ġaffirmative": 4358,
      "Ġfiduciary": 4359,
      "Ġmen": 4360,
      "Ġminutes": 4361,
      "Ġ186": 4362,
      "Ġlines": 4363,
      "employ": 4364,
      "Ġbasic": 4365,
      "Ġappropriated": 4366,
      "Ġrecre": 4367,
      "Ġexceeding": 4368,
      "Ġissuing": 4369,
      "Ġaddressed": 4370,
      "Ġamb": 4371,
      "Ġsurviving": 4372,
      "Ġremove": 4373,
      "Ġ147": 4374,
      "Ġrange": 4375,
      "ics": 4376,
      "Ġexcluded": 4377,
      "pc": 4378,
      "lated": 4379,
      "Ġnb": 4380,
      "Ġexamine": 4381,
      "Ġavenue": 4382,
      "Ġdiscover": 4383,
      "Ġcompar": 4384,
      "Ġ145": 4385,
      "Ġ<": 4386,
      "Ġascertain": 4387,
      "Ġlear": 4388,
      "Ġmandatory": 4389,
      "Ġsociety": 4390,
      "Ġ1964": 4391,
      "Ġdisposal": 4392,
      "raft": 4393,
      "Ġinjunction": 4394,
      "23": 4395,
      "Ġpertain": 4396,
      "Ġthings": 4397,
      "yn": 4398,
      "24": 4399,
      "Ġpreliminary": 4400,
      "Ġrelation": 4401,
      "Ġfactor": 4402,
      "Ġrecon": 4403,
      "Ġperforming": 4404,
      "Ġdisciplinary": 4405,
      "Ġestimated": 4406,
      "Ġconducting": 4407,
      "ville": 4408,
      "Ġyet": 4409,
      "Ġcarried": 4410,
      "Ġcontents": 4411,
      "Ġcitizens": 4412,
      "Ġphotograph": 4413,
      "qual": 4414,
      "Ġmemorandum": 4415,
      "Ġremedies": 4416,
      "Ġprince": 4417,
      "Ġclin": 4418,
      "Ġfiles": 4419,
      "Ġemb": 4420,
      "Ġpi": 4421,
      "ores": 4422,
      "Ġlessee": 4423,
      "Ġbed": 4424,
      "Ġcomputer": 4425,
      "vin": 4426,
      "14": 4427,
      "Ġprospective": 4428,
      "Ġoccurs": 4429,
      "Ġblack": 4430,
      "Ġarri": 4431,
      "Ġrepl": 4432,
      "Ġmeets": 4433,
      "aker": 4434,
      "Ġnpro": 4435,
      "Ġinterview": 4436,
      "Ġabsol": 4437,
      "Ġ1953": 4438,
      "Ġcreditor": 4439,
      "Ġdepart": 4440,
      "Ġliabilities": 4441,
      "ittle": 4442,
      "Ġmodified": 4443,
      "ug": 4444,
      "eld": 4445,
      "Ġgift": 4446,
      "Ġhearings": 4447,
      "room": 4448,
      "poen": 4449,
      "Ġpharm": 4450,
      "Ġsubpoen": 4451,
      "Ġlicenses": 4452,
      "Ġadjustment": 4453,
      "Ġdwell": 4454,
      "Ġciting": 4455,
      "Ġjuror": 4456,
      "Ġproduce": 4457,
      "Ġ154": 4458,
      "Ġconvictions": 4459,
      "Ġprobate": 4460,
      "Ġhab": 4461,
      "gue": 4462,
      "Ġinterpre": 4463,
      "Ġproblems": 4464,
      "plus": 4465,
      "ament": 4466,
      "Ġaside": 4467,
      "Ġsubmission": 4468,
      "ables": 4469,
      "urch": 4470,
      "Ġjoin": 4471,
      "Ġpoints": 4472,
      "Ġalone": 4473,
      "Ġshows": 4474,
      "Ġguidance": 4475,
      "ives": 4476,
      "Ġeffort": 4477,
      "Ġtoo": 4478,
      "berg": 4479,
      "Ġ304": 4480,
      "Ġdav": 4481,
      "Ġreceiver": 4482,
      "Ġhor": 4483,
      "Ġindicates": 4484,
      "Ġsurplus": 4485,
      "Ġconclusions": 4486,
      "Ġkept": 4487,
      "Ġanticip": 4488,
      "Ġcombination": 4489,
      "Ġliber": 4490,
      "respon": 4491,
      "Ġboundaries": 4492,
      "Ġrobert": 4493,
      "Ġsuspect": 4494,
      "Ġwid": 4495,
      "Ġinvent": 4496,
      "Ġfranch": 4497,
      "Ġamending": 4498,
      "Ġdrawn": 4499,
      "Ġlots": 4500,
      "Ġcontra": 4501,
      "Ġattrib": 4502,
      "Ġdismissal": 4503,
      "Ġgain": 4504,
      "Ġbinding": 4505,
      "Ġ211": 4506,
      "Ġconstruct": 4507,
      "Ġreviewing": 4508,
      "Ġinfer": 4509,
      "Ġrestra": 4510,
      "ingu": 4511,
      "Ġboards": 4512,
      "Ġconsolidated": 4513,
      "Ġtrad": 4514,
      "Ġadmit": 4515,
      "Ġprescribe": 4516,
      "Ġprogress": 4517,
      "mer": 4518,
      "Ġnt": 4519,
      "ontract": 4520,
      "Ġcancell": 4521,
      "atement": 4522,
      "Ġmitig": 4523,
      "Ġobv": 4524,
      "Ġnegligent": 4525,
      "Ġnecessarily": 4526,
      "Ġrehabilitation": 4527,
      "Ġever": 4528,
      "Ġnursing": 4529,
      "Ġproportion": 4530,
      "Ġsurety": 4531,
      "Ġpip": 4532,
      "let": 4533,
      "Ġdeny": 4534,
      "Ġrede": 4535,
      "Ġencour": 4536,
      "Ġderived": 4537,
      "Ġabsolute": 4538,
      "Ġreserv": 4539,
      "Ġchanged": 4540,
      "Ġevents": 4541,
      "Ġdependent": 4542,
      "Ġappropriation": 4543,
      "Ġ1954": 4544,
      "Ġ175": 4545,
      "ecti": 4546,
      "more": 4547,
      "Ġerroneous": 4548,
      "Ġyoun": 4549,
      "Ġdissent": 4550,
      "Ġresulted": 4551,
      "Ġlittle": 4552,
      "Ġadministered": 4553,
      "Ġforeclosure": 4554,
      "Ġomission": 4555,
      "Ġdeliber": 4556,
      "Ġbon": 4557,
      "oy": 4558,
      "Ġgam": 4559,
      "Ġson": 4560,
      "Ġdur": 4561,
      "Ġplus": 4562,
      "Ġpain": 4563,
      "paid": 4564,
      "Ġconfirm": 4565,
      "Ġauthorizing": 4566,
      "Ġcut": 4567,
      "Ġcitation": 4568,
      "Ġwind": 4569,
      "Ġhot": 4570,
      "Ġhistor": 4571,
      "94": 4572,
      "Ġease": 4573,
      "Ġextra": 4574,
      "Ġrecording": 4575,
      "rep": 4576,
      "Ġserving": 4577,
      "rimination": 4578,
      "field": 4579,
      "Ġ208": 4580,
      "Ġissuer": 4581,
      "Ġsixty": 4582,
      "he": 4583,
      "Ġfailing": 4584,
      "Ġtal": 4585,
      "Ġviolence": 4586,
      "Ġexpected": 4587,
      "Ġalaska": 4588,
      "ians": 4589,
      "Ġdirective": 4590,
      "Ġtell": 4591,
      "Ġhol": 4592,
      "Ġ137": 4593,
      "Ġrecipient": 4594,
      "Ġplaces": 4595,
      "Ġasserted": 4596,
      "Ġdisclose": 4597,
      "Ġ1961": 4598,
      "Ġsatisfy": 4599,
      "Ġ161": 4600,
      "Ġextend": 4601,
      "Ġrepeal": 4602,
      "ots": 4603,
      "Ġ142": 4604,
      "Ġpriority": 4605,
      "Ġobjective": 4606,
      "Ġretained": 4607,
      "Ġdissolution": 4608,
      "Ġmunicipalities": 4609,
      "Ġrecommended": 4610,
      "Ġredesignated": 4611,
      "ull": 4612,
      "Ġletters": 4613,
      "Ġwaters": 4614,
      "Ġconting": 4615,
      "Ġpromote": 4616,
      "Ġcommunications": 4617,
      "Ġdifference": 4618,
      "Ġfoc": 4619,
      "Ġ2018": 4620,
      "Ġ149": 4621,
      "aps": 4622,
      "Ġ=": 4623,
      "Ġsevent": 4624,
      "Ġcontempt": 4625,
      "Ġpleas": 4626,
      "Ġdraft": 4627,
      "Ġunderstanding": 4628,
      "Ġimd": 4629,
      "Ġproviders": 4630,
      "Ġwild": 4631,
      "Ġassume": 4632,
      "Ġ209": 4633,
      "Ġintell": 4634,
      "Ġdavis": 4635,
      "Ġlatter": 4636,
      "ists": 4637,
      "Ġpromptly": 4638,
      "Ġdesignate": 4639,
      "uous": 4640,
      "Ġhazardous": 4641,
      "Ġ404": 4642,
      "Ġcharles": 4643,
      "Ġreceipts": 4644,
      "Ġcontemp": 4645,
      "Ġsl": 4646,
      "Ġterminate": 4647,
      "Ġdistingu": 4648,
      "Ġ305": 4649,
      "een": 4650,
      "Ġaway": 4651,
      "agn": 4652,
      "active": 4653,
      "Ġsupporting": 4654,
      "entially": 4655,
      "Ġ514": 4656,
      "Ġunderlying": 4657,
      "Ġmodify": 4658,
      "Ġ139": 4659,
      "Ġdom": 4660,
      "Ġbylaw": 4661,
      "wel": 4662,
      "Ġ455": 4663,
      "Ġgoverned": 4664,
      "Ġadvertis": 4665,
      "Ġcamp": 4666,
      "Ġprevention": 4667,
      "Ġobvious": 4668,
      "Ġconsidering": 4669,
      "inc": 4670,
      "Ġcommitment": 4671,
      "cc": 4672,
      "Ġthroughout": 4673,
      "Ġdistributed": 4674,
      "Ġprecinct": 4675,
      "Ġcommence": 4676,
      "Ġexercised": 4677,
      "enn": 4678,
      "Ġconst": 4679,
      "Ġinference": 4680,
      "iding": 4681,
      "Ġgrow": 4682,
      "Ġisland": 4683,
      "Ġfraudul": 4684,
      "ze": 4685,
      "Ġselect": 4686,
      "Ġallocation": 4687,
      "ald": 4688,
      "Ġ1962": 4689,
      "cript": 4690,
      "Ġbetter": 4691,
      "Ġinm": 4692,
      "Ġsupplemental": 4693,
      "Ġcauses": 4694,
      "Ġconveyance": 4695,
      "Ġimplied": 4696,
      "Ġ155": 4697,
      "Ġsoon": 4698,
      "Ġmiller": 4699,
      "Ġtests": 4700,
      "Ġ246": 4701,
      "Ġclosed": 4702,
      "ading": 4703,
      "Ġ415": 4704,
      "plic": 4705,
      "Ġsentenced": 4706,
      "Ġremanded": 4707,
      "46": 4708,
      "Ġconver": 4709,
      "Ġsurface": 4710,
      "Ġpaying": 4711,
      "house": 4712,
      "Ġhapp": 4713,
      "ari": 4714,
      "Ġfifth": 4715,
      "ney": 4716,
      "Ġwithhold": 4717,
      "ki": 4718,
      "Ġapparently": 4719,
      "gs": 4720,
      "Ġsatisfact": 4721,
      "Ġvested": 4722,
      "Ġtherefor": 4723,
      "Ġ148": 4724,
      "Ġproposition": 4725,
      "Ġll": 4726,
      "Ġmob": 4727,
      "Ġproposal": 4728,
      "Ġwall": 4729,
      "Ġweigh": 4730,
      "Ġstip": 4731,
      "Ġ219": 4732,
      "Ġforest": 4733,
      "Ġunreasonable": 4734,
      "Ġnormal": 4735,
      "Ġannuity": 4736,
      "Ġinvolve": 4737,
      "water": 4738,
      "Ġconcern": 4739,
      "ech": 4740,
      "Ġdisag": 4741,
      "anced": 4742,
      "Ġimplementing": 4743,
      "oting": 4744,
      "Ġweeks": 4745,
      "Ġplacement": 4746,
      "Ġroll": 4747,
      "Ġidentity": 4748,
      "Ġimpair": 4749,
      "Ġunderstand": 4750,
      "Ġdetective": 4751,
      "Ġdisclosed": 4752,
      "Ġunpaid": 4753,
      "Ġ143": 4754,
      "Ġunn": 4755,
      "iders": 4756,
      "Ġpapers": 4757,
      "da": 4758,
      "Ġprohibition": 4759,
      "Ġwages": 4760,
      "Ġ156": 4761,
      "Ġselection": 4762,
      "Ġtestator": 4763,
      "Ġ231": 4764,
      "Ġdepri": 4765,
      "gain": 4766,
      "Ġoverr": 4767,
      "eness": 4768,
      "Ġoppos": 4769,
      "Ġbegan": 4770,
      "Ġholds": 4771,
      "Ġpremiums": 4772,
      "Ġreleased": 4773,
      "Ġexport": 4774,
      "Ġelections": 4775,
      "Ġchancell": 4776,
      "Ġinters": 4777,
      "Ġnotified": 4778,
      "Ġdisplay": 4779,
      "Ġ373": 4780,
      "Ġ001": 4781,
      "Ġneglect": 4782,
      "ste": 4783,
      "Ġdevices": 4784,
      "Ġ183": 4785,
      "Ġarrangement": 4786,
      "Ġclassified": 4787,
      "Ġpoll": 4788,
      "81": 4789,
      "Ġproblem": 4790,
      "Ġenterprise": 4791,
      "Ġentering": 4792,
      "Ġadvice": 4793,
      "Ġwithdrawal": 4794,
      "Ġclean": 4795,
      "Ġsla": 4796,
      "Ġbargain": 4797,
      "ake": 4798,
      "Ġ212": 4799,
      "Ġwhichever": 4800,
      "adem": 4801,
      "Ġroads": 4802,
      "ats": 4803,
      "Ġchancellor": 4804,
      "Ġprohibit": 4805,
      "Ġinserted": 4806,
      "itz": 4807,
      "lined": 4808,
      "Ġirre": 4809,
      "Ġattention": 4810,
      "Ġsubsections": 4811,
      "Ġsolid": 4812,
      "Ġ321": 4813,
      "Ġcommits": 4814,
      "Ġ146": 4815,
      "set": 4816,
      "Ġintermedi": 4817,
      "Ġ213": 4818,
      "Ġretired": 4819,
      "Ġinvestments": 4820,
      "Ġgrievance": 4821,
      "Ġdates": 4822,
      "Ġcritical": 4823,
      "Ġ234": 4824,
      "ump": 4825,
      "Ġpersu": 4826,
      "Ġacted": 4827,
      "Ġparcel": 4828,
      "Ġlieu": 4829,
      "Ġpreparation": 4830,
      "Ġguilt": 4831,
      "Ġexpect": 4832,
      "Ġseiz": 4833,
      "rar": 4834,
      "Ġ210": 4835,
      "Ġ405": 4836,
      "Ġcredited": 4837,
      "inger": 4838,
      "Ġvacancy": 4839,
      "craft": 4840,
      "Ġinventory": 4841,
      "Ġadvised": 4842,
      "Ġrestricted": 4843,
      "Ġtakes": 4844,
      "Ġbylaws": 4845,
      "Ġ252": 4846,
      "Ġprimarily": 4847,
      "Ġ166": 4848,
      "Ġversion": 4849,
      "Ġuncons": 4850,
      "Ġ280": 4851,
      "ilit": 4852,
      "Ġcitations": 4853,
      "Ġtypes": 4854,
      "Ġpool": 4855,
      "Ġlate": 4856,
      "Ġseal": 4857,
      "Ġbackground": 4858,
      "Ġdestro": 4859,
      "Ġseen": 4860,
      "Ġnetwork": 4861,
      "ham": 4862,
      "Ġfifteen": 4863,
      "Ġfishing": 4864,
      "Ġrequesting": 4865,
      "Ġ380": 4866,
      "oking": 4867,
      "Ġvaluation": 4868,
      "Ġcorrespon": 4869,
      "mond": 4870,
      "Ġcalculated": 4871,
      "Ġbirth": 4872,
      "Ġreve": 4873,
      "Ġrelig": 4874,
      "Ġpledge": 4875,
      "Ġnecessity": 4876,
      "Ġsqu": 4877,
      "Ġ414": 4878,
      "Ġmerits": 4879,
      "utory": 4880,
      "Ġcustoms": 4881,
      "ecutive": 4882,
      "Ġ144": 4883,
      "Ġ307": 4884,
      "Ġ388": 4885,
      "Ġnevertheless": 4886,
      "Ġenvironment": 4887,
      "Ġ168": 4888,
      "Ġneigh": 4889,
      "Ġspons": 4890,
      "Ġpassenger": 4891,
      "Ġvirgin": 4892,
      "Ġcategory": 4893,
      "Ġdesignee": 4894,
      "Ġweapon": 4895,
      "Ġ162": 4896,
      "Ġadjusted": 4897,
      "Ġobjectives": 4898,
      "Ġ369": 4899,
      "Ġ172": 4900,
      "Ġpropri": 4901,
      "Ġcum": 4902,
      "Ġprevail": 4903,
      "Ġacadem": 4904,
      "Ġ318": 4905,
      "16": 4906,
      "rand": 4907,
      "atever": 4908,
      "Ġdil": 4909,
      "Ġbad": 4910,
      "Ġlay": 4911,
      "Ġtranscript": 4912,
      "selves": 4913,
      "Ġdrive": 4914,
      "Ġdwelling": 4915,
      "Ġmaine": 4916,
      "Ġcustodian": 4917,
      "Ġfla": 4918,
      "Ġshee": 4919,
      "Ð¸": 4920,
      "Ġconce": 4921,
      "Ġjose": 4922,
      "Ġbelieved": 4923,
      "Ġwhatever": 4924,
      "Ġ375": 4925,
      "Ġordinarily": 4926,
      "veness": 4927,
      "Ġprofit": 4928,
      "Ġelse": 4929,
      "Ġreserved": 4930,
      "Ġ140": 4931,
      "Ġ601": 4932,
      "Ġ306": 4933,
      "Ġjour": 4934,
      "file": 4935,
      "Ġexisted": 4936,
      "Ġfloor": 4937,
      "Ġautomatic": 4938,
      "Ġ138": 4939,
      "Ġforfeiture": 4940,
      "Ġarmed": 4941,
      "Ġsample": 4942,
      "Ġanaly": 4943,
      "Ġinstruct": 4944,
      "Ġ225": 4945,
      "Ġassumed": 4946,
      "Ġmerch": 4947,
      "hs": 4948,
      "Ġ1958": 4949,
      "Ġassemblyfile": 4950,
      "Ġlea": 4951,
      "Ġmarital": 4952,
      "Ġconsiders": 4953,
      "Ġtransit": 4954,
      "Ġcast": 4955,
      "Ġexplan": 4956,
      "Ġinvestigations": 4957,
      "Ġteam": 4958,
      "eel": 4959,
      "pite": 4960,
      "Ġnand": 4961,
      "Ġindirectly": 4962,
      "Ġholders": 4963,
      "Ġcommenced": 4964,
      "Ġjustify": 4965,
      "ude": 4966,
      "Ġprivileges": 4967,
      "Ġmatch": 4968,
      "Ġcontent": 4969,
      "force": 4970,
      "Ġ157": 4971,
      "Ġnth": 4972,
      "Ġpetitioners": 4973,
      "Ġsanction": 4974,
      "Ġearned": 4975,
      "Ġbook": 4976,
      "imony": 4977,
      "Ġaccompanied": 4978,
      "Ġregulated": 4979,
      "Ġowed": 4980,
      "Ġstrict": 4981,
      "Ġforty": 4982,
      "Ġduplic": 4983,
      "Ġshareholders": 4984,
      "Ġ410": 4985,
      "Ġoversight": 4986,
      "Ġseems": 4987,
      "Ġalimony": 4988,
      "rist": 4989,
      "Ġdefect": 4990,
      "Ġtrail": 4991,
      "Ġmaintaining": 4992,
      "Ġven": 4993,
      "Ġetc": 4994,
      "Ġdetailed": 4995,
      "unte": 4996,
      "Ġseries": 4997,
      "Ġincomp": 4998,
      "Ġstep": 4999,
      "Ġopinions": 5000,
      "order": 5001,
      "Ġinher": 5002,
      "raska": 5003,
      "Ġsize": 5004,
      "Ġtransmission": 5005,
      "ridge": 5006,
      "Ġperf": 5007,
      "Ġflow": 5008,
      "ulate": 5009,
      "Ġhousehold": 5010,
      "Ġunfair": 5011,
      "Ġlevied": 5012,
      "net": 5013,
      "Ġ265": 5014,
      "Ġdemur": 5015,
      "Ġstrong": 5016,
      "acc": 5017,
      "Ġnebraska": 5018,
      "Ġmarsh": 5019,
      "Ġinfluence": 5020,
      "Ġ160": 5021,
      "Ġupd": 5022,
      "Ġparticularly": 5023,
      "Ġlabel": 5024,
      "Ġ220": 5025,
      "Ġargue": 5026,
      "Ðµ": 5027,
      "Ġrefuse": 5028,
      "Ġ216": 5029,
      "Ġaccrued": 5030,
      "Ġ163": 5031,
      "Ġvari": 5032,
      "Ġwholly": 5033,
      "rimin": 5034,
      "Ġwarrants": 5035,
      "Ġconstituted": 5036,
      "Ġearnings": 5037,
      "Ġking": 5038,
      "Ġbatter": 5039,
      "Ġcomplaints": 5040,
      "Ġexamined": 5041,
      "Ġ171": 5042,
      "Ġscheduled": 5043,
      "Ġfig": 5044,
      "Ġdealing": 5045,
      "Ġconference": 5046,
      "Ġdiagn": 5047,
      "Ġresc": 5048,
      "Ġpartial": 5049,
      "Ġdischarged": 5050,
      "Ġrace": 5051,
      "Ġstopp": 5052,
      "Ġbox": 5053,
      "Ġcreditors": 5054,
      "Ġlook": 5055,
      "Ġdavid": 5056,
      "Ġchemical": 5057,
      "Ġstatis": 5058,
      "Ġremainder": 5059,
      "Ġ227": 5060,
      "Ġbeneficiaries": 5061,
      "Ġvolunte": 5062,
      "Ġinstruments": 5063,
      "Ġ331": 5064,
      "Ġbul": 5065,
      "phy": 5066,
      "Ġmodel": 5067,
      "Ġcontractual": 5068,
      "Ġrational": 5069,
      "Ġprocurement": 5070,
      "Ġ1951": 5071,
      "Ġhereinafter": 5072,
      "Ġrepay": 5073,
      "utable": 5074,
      "Ġreplacement": 5075,
      "Ġjoseph": 5076,
      "Ġdeduction": 5077,
      "Ġcell": 5078,
      "Ġoften": 5079,
      "Ġlost": 5080,
      "ba": 5081,
      "Ġ182": 5082,
      "enders": 5083,
      "ania": 5084,
      "Ġdepend": 5085,
      "igence": 5086,
      "ially": 5087,
      "Ġchairman": 5088,
      "Ġappeared": 5089,
      "Ġbehav": 5090,
      "Ġgrade": 5091,
      "Ġ173": 5092,
      "Ġ737": 5093,
      "pec": 5094,
      "Ġsubpoena": 5095,
      "atures": 5096,
      "ows": 5097,
      "Ġthence": 5098,
      "Ġhen": 5099,
      "Ġchurch": 5100,
      "represent": 5101,
      "Ġcontest": 5102,
      "Ġchecks": 5103,
      "Ġconced": 5104,
      "Ġyoung": 5105,
      "Ġrichard": 5106,
      "paper": 5107,
      "Ġteacher": 5108,
      "Ġba": 5109,
      "ills": 5110,
      "tile": 5111,
      "Ġvirt": 5112,
      "Ġdisqual": 5113,
      "Ġsettled": 5114,
      "titive": 5115,
      "Ġarguments": 5116,
      "Ġarrested": 5117,
      "Ð¾": 5118,
      "minent": 5119,
      "Ġconvin": 5120,
      "Ġ184": 5121,
      "Ġ261": 5122,
      "Ġconvers": 5123,
      "ides": 5124,
      "do": 5125,
      "Ġcredits": 5126,
      "Ġ222": 5127,
      "Ġdistribute": 5128,
      "Ġsuffered": 5129,
      "Ġplay": 5130,
      "Ġinterrog": 5131,
      "Ġwholes": 5132,
      "Ġappearance": 5133,
      "Ġ260": 5134,
      "ensure": 5135,
      "Ġdetention": 5136,
      "ght": 5137,
      "tible": 5138,
      "Ġexceeds": 5139,
      "Ġrevoked": 5140,
      "Ġallowing": 5141,
      "Ġperiods": 5142,
      "Ġsense": 5143,
      "Ġbridge": 5144,
      "Ġmarketing": 5145,
      "Ġpertaining": 5146,
      "Ġprescription": 5147,
      "Ġlb": 5148,
      "wr": 5149,
      "Ġ170": 5150,
      "Ġbag": 5151,
      "Ġ278": 5152,
      "Ġcurrently": 5153,
      "itional": 5154,
      "Ġhonor": 5155,
      "Ġdistin": 5156,
      "ep": 5157,
      "Ġclar": 5158,
      "Ġfacilit": 5159,
      "Ġ177": 5160,
      "Ġaround": 5161,
      "Ġvotes": 5162,
      "Ġgot": 5163,
      "Ġbanking": 5164,
      "Ġselling": 5165,
      "Ġelimin": 5166,
      "Ġpurport": 5167,
      "aded": 5168,
      "Ġfrank": 5169,
      "Ġvoluntarily": 5170,
      "Ġpil": 5171,
      "Ġprocedural": 5172,
      "Ġconsecutive": 5173,
      "Ġ292": 5174,
      "Ġ1955": 5175,
      "Ġimplemented": 5176,
      "employment": 5177,
      "Ġcollective": 5178,
      "ael": 5179,
      "Ġintroduced": 5180,
      "welve": 5181,
      "Ġinstitute": 5182,
      "Ġnn": 5183,
      "ross": 5184,
      "Ġtwelve": 5185,
      "Ġnurse": 5186,
      "Ġpossibility": 5187,
      "Ġdespite": 5188,
      "Ġformerly": 5189,
      "Ġsubdivisions": 5190,
      "Ġ295": 5191,
      "Ġstar": 5192,
      "Ġinstance": 5193,
      "Ġ1960": 5194,
      "Ġdied": 5195,
      "Ġaccred": 5196,
      "Ġcolumb": 5197,
      "Ġnewspaper": 5198,
      "Ġthemselves": 5199,
      "Ġhall": 5200,
      "Ġmisrepresent": 5201,
      "Ġ293": 5202,
      "Ġ323": 5203,
      "owa": 5204,
      "Ġending": 5205,
      "Ġ+": 5206,
      "Ġ214": 5207,
      "Ġconcerns": 5208,
      "Ġsteps": 5209,
      "Ġrepresenting": 5210,
      "Ġsupplies": 5211,
      "Ġsubsidiary": 5212,
      "Ġprinted": 5213,
      "author": 5214,
      "Ġnav": 5215,
      "Ġunnecess": 5216,
      "person": 5217,
      "itting": 5218,
      "Ġscre": 5219,
      "Ġcancellation": 5220,
      "Ġ178": 5221,
      "Ġ272": 5222,
      "ches": 5223,
      "sements": 5224,
      "Ġmari": 5225,
      "tor": 5226,
      "Ġsurre": 5227,
      "Ġairport": 5228,
      "Ġcontrolling": 5229,
      "Ġspecify": 5230,
      "Ġ003": 5231,
      "Ġexhibit": 5232,
      "Ġcredibility": 5233,
      "Ġtel": 5234,
      "Ġvirginia": 5235,
      "Ġrevision": 5236,
      "Ġtherap": 5237,
      "Ġguarantee": 5238,
      "wood": 5239,
      "Ġrepeated": 5240,
      "Ġ164": 5241,
      "Ġnumer": 5242,
      "Ġbanks": 5243,
      "Ġlosses": 5244,
      "tifies": 5245,
      "Ġreturns": 5246,
      "Ġsubstantive": 5247,
      "Ġkey": 5248,
      "Ġfraudulent": 5249,
      "Ġwaive": 5250,
      "Ġcompell": 5251,
      "ira": 5252,
      "Ġeth": 5253,
      "Ġconstructed": 5254,
      "Ġwide": 5255,
      "Ġ1948": 5256,
      "Ġ406": 5257,
      "Ġey": 5258,
      "Ġ502": 5259,
      "Ġnight": 5260,
      "Ġsecondary": 5261,
      "Ġsomething": 5262,
      "Ġexplo": 5263,
      "Ġphr": 5264,
      "oster": 5265,
      "Ġsem": 5266,
      "Ġalways": 5267,
      "Ġimposition": 5268,
      "Ġprayer": 5269,
      "Ġ255": 5270,
      "Ġdeposits": 5271,
      "Ġgame": 5272,
      "Ġdeclaratory": 5273,
      "Ġdiscovered": 5274,
      "Ġviolate": 5275,
      "lam": 5276,
      "Ġadverti": 5277,
      "Ġconsultation": 5278,
      "Ġattendance": 5279,
      "Ġ309": 5280,
      "Ġlive": 5281,
      "Ġpartners": 5282,
      "Ġveterans": 5283,
      "Ġsubstances": 5284,
      "Ġiowa": 5285,
      "Ġvolum": 5286,
      "Ġ408": 5287,
      "Ġbelief": 5288,
      "gn": 5289,
      "Ġfulf": 5290,
      "Ġdemonstrate": 5291,
      "Ġleased": 5292,
      "Ġsuspend": 5293,
      "Ġspecifications": 5294,
      "Ġrespectively": 5295,
      "Ġpersonally": 5296,
      "Ġexecute": 5297,
      "Ġdiscrimination": 5298,
      "Ġmachine": 5299,
      "Ġbelong": 5300,
      "Ġretro": 5301,
      "Ġpret": 5302,
      "Ġincap": 5303,
      "Ġmiles": 5304,
      "Ġentirely": 5305,
      "Ġenough": 5306,
      "Ġ218": 5307,
      "Ġsewer": 5308,
      "ptive": 5309,
      "Ġstreets": 5310,
      "Ġindicating": 5311,
      "Ġdeposition": 5312,
      "Ġsatisfactory": 5313,
      "uses": 5314,
      "tary": 5315,
      "Ġraise": 5316,
      "Ġjail": 5317,
      "Ġnh": 5318,
      "Ġ179": 5319,
      "Ġresource": 5320,
      "Ġauth": 5321,
      "aking": 5322,
      "Ġthought": 5323,
      "Ġ1950": 5324,
      "Ġbehavior": 5325,
      "irs": 5326,
      "Ġ1959": 5327,
      "Ġexpos": 5328,
      "Ġdestroy": 5329,
      "Ġconsolidation": 5330,
      "Ġseizure": 5331,
      "racy": 5332,
      "Ġ240": 5333,
      "Ġwrongful": 5334,
      "Ġsubcontract": 5335,
      "Ġrestitution": 5336,
      "Ġfoundation": 5337,
      "Ġquestioned": 5338,
      "ran": 5339,
      "Ġcoal": 5340,
      "Ġpunishment": 5341,
      "Ġ159": 5342,
      "bi": 5343,
      "Ġprivacy": 5344,
      "most": 5345,
      "Ġpointed": 5346,
      "Ġmart": 5347,
      "Ġcorrectional": 5348,
      "Ġhun": 5349,
      "000": 5350,
      "Ġdod": 5351,
      "Ġreverse": 5352,
      "Ġsuitable": 5353,
      "Ġinstructed": 5354,
      "Ġstatewide": 5355,
      "Ġ320": 5356,
      "ky": 5357,
      "Ġsenior": 5358,
      "Ġ233": 5359,
      "Ġsatisfaction": 5360,
      "Ġneighbor": 5361,
      "Ġrevoke": 5362,
      "Ġrecovered": 5363,
      "Ġmix": 5364,
      "Ġapportion": 5365,
      "Ġprotective": 5366,
      "Ġcommodity": 5367,
      "Ġnation": 5368,
      "Ġcombined": 5369,
      "Ġcharitable": 5370,
      "Ġdocket": 5371,
      "Ġordinances": 5372,
      "angible": 5373,
      "Ġ253": 5374,
      "Ġ312": 5375,
      "Ġ311": 5376,
      "Ġ276": 5377,
      "Ġber": 5378,
      "ode": 5379,
      "Ġlit": 5380,
      "Ġcustomers": 5381,
      "Ġ324": 5382,
      "Ġachieve": 5383,
      "Ġregistrar": 5384,
      "Ġ235": 5385,
      "Ġdental": 5386,
      "Ġ002": 5387,
      "Ġadvanced": 5388,
      "Ġsend": 5389,
      "Ġqualifying": 5390,
      "Ġsurrender": 5391,
      "Ġcommunities": 5392,
      "Ġreviews": 5393,
      "Ġmobile": 5394,
      "Ġallocated": 5395,
      "Ġexcluding": 5396,
      "Ġparagraphs": 5397,
      "Ġconsequent": 5398,
      "Ġmichael": 5399,
      "Ġenh": 5400,
      "Ġtransfers": 5401,
      "Ġrisks": 5402,
      "ulty": 5403,
      "Ġlesser": 5404,
      "rer": 5405,
      "ectiveness": 5406,
      "Ġ248": 5407,
      "Ġforegoing": 5408,
      "Ġ2019": 5409,
      "Ġ357": 5410,
      "Ġeffects": 5411,
      "Ġasserts": 5412,
      "Ġ325": 5413,
      "Ġbell": 5414,
      "come": 5415,
      "Ġstart": 5416,
      "Ġine": 5417,
      "Ġ263": 5418,
      "ming": 5419,
      "Ġtruth": 5420,
      "Ġ221": 5421,
      "Ġemployers": 5422,
      "Ġadvertising": 5423,
      "Ġapplicability": 5424,
      "Ġcomponent": 5425,
      "organ": 5426,
      "Ġ243": 5427,
      "entiary": 5428,
      "Ġ395": 5429,
      "payment": 5430,
      "Ġmission": 5431,
      "Ġdomic": 5432,
      "Ġlog": 5433,
      "Ġinvolves": 5434,
      "Ġ322": 5435,
      "Ġ226": 5436,
      "Ġ223": 5437,
      "Ġfoster": 5438,
      "Ġcra": 5439,
      "Ġoriginally": 5440,
      "resh": 5441,
      "Ġoriginating": 5442,
      "Ġ254": 5443,
      "ifies": 5444,
      "Ġpermitting": 5445,
      "Ġcalif": 5446,
      "Ġpractition": 5447,
      "Ġ313": 5448,
      "appropri": 5449,
      "Ġfell": 5450,
      "cture": 5451,
      "Ġseized": 5452,
      "Ġanimals": 5453,
      "Ġproducer": 5454,
      "Ġshareholder": 5455,
      "Ġga": 5456,
      "ams": 5457,
      "Ġexperi": 5458,
      "Ġphil": 5459,
      "Ġpermission": 5460,
      "Ġsou": 5461,
      "Ġduration": 5462,
      "Ġpreserve": 5463,
      "Ġtoll": 5464,
      "Ġ775": 5465,
      "Ġ429": 5466,
      "Ġ158": 5467,
      "Ġtarge": 5468,
      "Ġ683": 5469,
      "ornia": 5470,
      "timately": 5471,
      "Ġsamp": 5472,
      "Ġ224": 5473,
      "Ġestimate": 5474,
      "Ġannoun": 5475,
      "Ġvendor": 5476,
      "Ġabandoned": 5477,
      "Ġinstallation": 5478,
      "Ġ334": 5479,
      "Ġshowed": 5480,
      "osis": 5481,
      "Ġpresumed": 5482,
      "Ġfew": 5483,
      "Ġeffectively": 5484,
      "Ġexplanation": 5485,
      "Ġbankrupt": 5486,
      "Ġexaminer": 5487,
      "Ġseparately": 5488,
      "Ġprisoner": 5489,
      "Ġpositions": 5490,
      "ula": 5491,
      "Ġnwe": 5492,
      "Ġattachment": 5493,
      "Ġbail": 5494,
      "Ġdebts": 5495,
      "Ġassurance": 5496,
      "Ġlevels": 5497,
      "Ġavailability": 5498,
      "Ġsimple": 5499,
      "entific": 5500,
      "Ġ273": 5501,
      "Ġjointly": 5502,
      "head": 5503,
      "aylor": 5504,
      "regard": 5505,
      "Ġ275": 5506,
      "tior": 5507,
      "Ġsuggested": 5508,
      "Ġ286": 5509,
      "aine": 5510,
      "Ġcontrovers": 5511,
      "Ġdna": 5512,
      "Ġagrees": 5513,
      "Ġinitially": 5514,
      "orth": 5515,
      "Ġ217": 5516,
      "Ġseparation": 5517,
      "Ġgold": 5518,
      "Ġrelates": 5519,
      "iracy": 5520,
      "Ġawards": 5521,
      "Ġenhance": 5522,
      "Ġran": 5523,
      "Ġsurve": 5524,
      "Ġhands": 5525,
      "Ġconveyed": 5526,
      "Ġutilities": 5527,
      "Ġidentifying": 5528,
      "Ġefficient": 5529,
      "Ġcompel": 5530,
      "Ġalcoholic": 5531,
      "Ġcalifornia": 5532,
      "Ġguardians": 5533,
      "iles": 5534,
      "Ġ232": 5535,
      "Ġfer": 5536,
      "Ġlibrary": 5537,
      "Ġcru": 5538,
      "Ġ344": 5539,
      "Ġfamil": 5540,
      "Ġcontend": 5541,
      "Ġrecognize": 5542,
      "Ġconferred": 5543,
      "Ġaspect": 5544,
      "say": 5545,
      "Ġconspiracy": 5546,
      "Ġdel": 5547,
      "Ġruled": 5548,
      "Ġ190": 5549,
      "Ġcoc": 5550,
      "Ġharris": 5551,
      "Ġappraisal": 5552,
      "Ġ508": 5553,
      "Ġinsurers": 5554,
      "Ġbarred": 5555,
      "Ġarrangements": 5556,
      "ey": 5557,
      "Ġchallenges": 5558,
      "Ġasset": 5559,
      "Ġinterven": 5560,
      "Ġmarine": 5561,
      "Ġdouble": 5562,
      "Ġscientific": 5563,
      "Ġ384": 5564,
      "Ġ174": 5565,
      "igent": 5566,
      "Ġcomplied": 5567,
      "Ġfle": 5568,
      "Ġcolor": 5569,
      "Ġask": 5570,
      "Ġcondemn": 5571,
      "Ġaudits": 5572,
      "Ġ310": 5573,
      "Ġjournal": 5574,
      "Ġequally": 5575,
      "Ġacross": 5576,
      "cribing": 5577,
      "Ġmcl": 5578,
      "Ġinsol": 5579,
      "Ġqualify": 5580,
      "opard": 5581,
      "Ġvs": 5582,
      "abled": 5583,
      "Ġ169": 5584,
      "Ġ407": 5585,
      "Ġassumption": 5586,
      "Ġ315": 5587,
      "itect": 5588,
      "Ġdisagree": 5589,
      "Ġsimilarly": 5590,
      "enture": 5591,
      "Ġscheme": 5592,
      "vi": 5593,
      "Ġtribun": 5594,
      "rew": 5595,
      "Ġindu": 5596,
      "Ġbearing": 5597,
      "Ġdisabilities": 5598,
      "Ġvii": 5599,
      "Ġ383": 5600,
      "Ġvalu": 5601,
      "Ġign": 5602,
      "Ġrole": 5603,
      "Ġ378": 5604,
      "where": 5605,
      "Ġtheft": 5606,
      "Ġleaving": 5607,
      "Ġpreservation": 5608,
      "Ġ256": 5609,
      "Ġstructures": 5610,
      "orti": 5611,
      "Ġbills": 5612,
      "Ġ257": 5613,
      "Ġcomplainant": 5614,
      "Ġjeopard": 5615,
      "Ġ365": 5616,
      "Ġrulings": 5617,
      "Ġassertion": 5618,
      "Ġ251": 5619,
      "Ġrape": 5620,
      "Ġarchitect": 5621,
      "Ġtaxing": 5622,
      "Ġattack": 5623,
      "Ġprejudicial": 5624,
      "Ġ237": 5625,
      "Ġ409": 5626,
      "Ġjurisdictions": 5627,
      "Ġmerit": 5628,
      "idents": 5629,
      "Ġredemption": 5630,
      "Ġerrors": 5631,
      "Ġcontractors": 5632,
      "Ġlicensure": 5633,
      "ommod": 5634,
      "gl": 5635,
      "Ġenable": 5636,
      "Ġcompetitive": 5637,
      "tiorari": 5638,
      "Ġfavorable": 5639,
      "Ġprosecuting": 5640,
      "Ġ350": 5641,
      "quency": 5642,
      "Ġcig": 5643,
      "Ġ167": 5644,
      "onsider": 5645,
      "Ġcertiorari": 5646,
      "eed": 5647,
      "Ġunli": 5648,
      "Ġreading": 5649,
      "Ġconsequences": 5650,
      "Ġcolumbia": 5651,
      "Ġendor": 5652,
      "Ġseeks": 5653,
      "urity": 5654,
      "Ġgoals": 5655,
      "Ġmanif": 5656,
      "Ġobserv": 5657,
      "Ġ176": 5658,
      "xx": 5659,
      "Ġconsequently": 5660,
      "ÑĤ": 5661,
      "Ġattributable": 5662,
      "Ġdig": 5663,
      "Ġregistry": 5664,
      "Ġmanufactured": 5665,
      "Ġunnecessary": 5666,
      "Ġrear": 5667,
      "cs": 5668,
      "Ġconfession": 5669,
      "Ġwin": 5670,
      "Ġ317": 5671,
      "Ġchoice": 5672,
      "Ġtop": 5673,
      "Ġillness": 5674,
      "Ġwarranty": 5675,
      "ards": 5676,
      "Ġparticipants": 5677,
      "Ġpromotion": 5678,
      "Ġexpenditure": 5679,
      "Ġdepartments": 5680,
      "Ġ284": 5681,
      "Ġ242": 5682,
      "Ġrefers": 5683,
      "Ġassociations": 5684,
      "Ġmistake": 5685,
      "Ġ230": 5686,
      "rity": 5687,
      "Ġadditionally": 5688,
      "Ġcovenant": 5689,
      "Ġ267": 5690,
      "Ġ1001": 5691,
      "Ġnonres": 5692,
      "Ġ386": 5693,
      "Ġ271": 5694,
      "Ġnotices": 5695,
      "Ġaccurate": 5696,
      "authorized": 5697,
      "Ġrely": 5698,
      "ounted": 5699,
      "Ġ229": 5700,
      "Ġquoted": 5701,
      "Ġ354": 5702,
      "Ġmess": 5703,
      "Ġproxim": 5704,
      "sey": 5705,
      "Ġsquare": 5706,
      "Ġfurthermore": 5707,
      "bac": 5708,
      "Ġeffectiveness": 5709,
      "Ġpet": 5710,
      "Ġtu": 5711,
      "Ġhill": 5712,
      "Ġfunded": 5713,
      "Ġballots": 5714,
      "Ġsentences": 5715,
      "off": 5716,
      "kson": 5717,
      "Ġacres": 5718,
      "Ġcharging": 5719,
      "ols": 5720,
      "Ġhandgun": 5721,
      "Ġ368": 5722,
      "Ġfirearm": 5723,
      "Ġdistributor": 5724,
      "Ġclub": 5725,
      "Ġrural": 5726,
      "Ġliquor": 5727,
      "Ġ413": 5728,
      "Ġwanted": 5729,
      "Ġenrolled": 5730,
      "Ġbow": 5731,
      "Ġtaylor": 5732,
      "Ġscene": 5733,
      "Ġ277": 5734,
      "Ġcandidates": 5735,
      "Ġbattery": 5736,
      "Ġworked": 5737,
      "ds": 5738,
      "Ġuser": 5739,
      "Ġ372": 5740,
      "tood": 5741,
      "Ġwire": 5742,
      "Ġpracticable": 5743,
      "Ġtask": 5744,
      "Ġmurphy": 5745,
      "Ġnumbers": 5746,
      "Ġdisregard": 5747,
      "Ġthing": 5748,
      "Ġbodily": 5749,
      "Ġwhereas": 5750,
      "Ġrecall": 5751,
      "pet": 5752,
      "Ġdeveloping": 5753,
      "Ġlessor": 5754,
      "Ġdispose": 5755,
      "Ġ268": 5756,
      "Ġreliance": 5757,
      "ights": 5758,
      "Ġsufficiently": 5759,
      "Ġconcurrent": 5760,
      "Ġfab": 5761,
      "urb": 5762,
      "Ġ356": 5763,
      "Ġvisit": 5764,
      "Ġreins": 5765,
      "Ġ181": 5766,
      "Ġstrike": 5767,
      "Ġmoving": 5768,
      "gment": 5769,
      "Ġninety": 5770,
      "Ġmonetary": 5771,
      "itated": 5772,
      "Ġvide": 5773,
      "Ġresolve": 5774,
      "tra": 5775,
      "Ġadvise": 5776,
      "Ġ274": 5777,
      "Ġ269": 5778,
      "teenth": 5779,
      "Ġliens": 5780,
      "Ġadequately": 5781,
      "acent": 5782,
      "Ġportions": 5783,
      "Ġ503": 5784,
      "Ġcance": 5785,
      "Ġsister": 5786,
      "Ġcenters": 5787,
      "Ġrecreational": 5788,
      "Ġintentional": 5789,
      "Ġaffecting": 5790,
      "Ġfisher": 5791,
      "Ġaccommod": 5792,
      "Ġradio": 5793,
      "Ġexclusively": 5794,
      "Ġware": 5795,
      "usion": 5796,
      "utors": 5797,
      "Ġhearsay": 5798,
      "Ġaccum": 5799,
      "Ġreligious": 5800,
      "umer": 5801,
      "Ġsays": 5802,
      "Ġunconstitution": 5803,
      "Ġ341": 5804,
      "Ġacknowledged": 5805,
      "Ġcontinues": 5806,
      "ordination": 5807,
      "Ġled": 5808,
      "Ġpassage": 5809,
      "Ġ262": 5810,
      "Ġintoxic": 5811,
      "utation": 5812,
      "Ġtransact": 5813,
      "Ġintersection": 5814,
      "oming": 5815,
      "Ġ245": 5816,
      "Ġdistinct": 5817,
      "Ġ452": 5818,
      "Ġcommissions": 5819,
      "Ġcoast": 5820,
      "Ġmedicare": 5821,
      "Ġdistinguish": 5822,
      "af": 5823,
      "aired": 5824,
      "Ġ282": 5825,
      "Ġadjacent": 5826,
      "Ġdisappro": 5827,
      "wers": 5828,
      "Ġ602": 5829,
      "Ġeigh": 5830,
      "Ġ258": 5831,
      "Ġ319": 5832,
      "Ġrh": 5833,
      "Ġcertainly": 5834,
      "Ġfamilies": 5835,
      "gar": 5836,
      "Ġken": 5837,
      "reci": 5838,
      "Ġbay": 5839,
      "Ġconfine": 5840,
      "Ġquantity": 5841,
      "adequ": 5842,
      "Ġadvant": 5843,
      "Ġmilk": 5844,
      "aneous": 5845,
      "Ġsued": 5846,
      "Ġ236": 5847,
      "Ġeasement": 5848,
      "Ġinnoc": 5849,
      "Ġclaiming": 5850,
      "Ġultimate": 5851,
      "Ġprocesses": 5852,
      "Ġaddresses": 5853,
      "Ġapplicants": 5854,
      "Ġbever": 5855,
      "Ġprecise": 5856,
      "Ġconsists": 5857,
      "Ġ376": 5858,
      "ĠÕ": 5859,
      "Ġ327": 5860,
      "Ġfem": 5861,
      "Ġ1935": 5862,
      "Ġoffering": 5863,
      "Ġpatients": 5864,
      "Ġpsychiat": 5865,
      "Ġ422": 5866,
      "gins": 5867,
      "Ġ308": 5868,
      "Ġunderstood": 5869,
      "Ġevaluate": 5870,
      "Ġ287": 5871,
      "Ġice": 5872,
      "Ġdeficiency": 5873,
      "Ġsites": 5874,
      "ique": 5875,
      "Ġreferences": 5876,
      "Ġapart": 5877,
      "Ġmedicine": 5878,
      "uana": 5879,
      "Ġ333": 5880,
      "Ġconclusive": 5881,
      "Ġgives": 5882,
      "from": 5883,
      "Ġremained": 5884,
      "Ġedward": 5885,
      "Ġ411": 5886,
      "Ġassuming": 5887,
      "Ġ505": 5888,
      "Ġpromulgated": 5889,
      "Ġfinger": 5890,
      "Ġfairly": 5891,
      "jection": 5892,
      "Ġ279": 5893,
      "vest": 5894,
      "Ġrunning": 5895,
      "Ġguaranteed": 5896,
      "Ġ1938": 5897,
      "Ġultimately": 5898,
      "Ġboundary": 5899,
      "Ġship": 5900,
      "Ġroute": 5901,
      "Ġunex": 5902,
      "Ġinvo": 5903,
      "Ġ655": 5904,
      "Ġincen": 5905,
      "Ġdistance": 5906,
      "iled": 5907,
      "Ġdistinction": 5908,
      "endum": 5909,
      "Ġdivided": 5910,
      "Ġcreating": 5911,
      "lete": 5912,
      "Ġexplicit": 5913,
      "Ġburn": 5914,
      "Ġestopp": 5915,
      "Ġaircraft": 5916,
      "ray": 5917,
      "Ġ343": 5918,
      "Ġwag": 5919,
      "Ġunauthorized": 5920,
      "Ġ345": 5921,
      "Ġ392": 5922,
      "Ġobjections": 5923,
      "Ġ239": 5924,
      "no": 5925,
      "Ġbankruptcy": 5926,
      "Ġboy": 5927,
      "Ġwebs": 5928,
      "Ġresolved": 5929,
      "Ġinspections": 5930,
      "Ġhomes": 5931,
      "Ġunemployment": 5932,
      "Ġstra": 5933,
      "Ġvice": 5934,
      "Ġhoward": 5935,
      "Ġinad": 5936,
      "Ġuph": 5937,
      "Ġstol": 5938,
      "Ġmaintains": 5939,
      "Ġvictims": 5940,
      "Ġ379": 5941,
      "ruit": 5942,
      "Ġadjudication": 5943,
      "Ġpatter": 5944,
      "Ġoccurring": 5945,
      "Ġrecently": 5946,
      "Ġ800": 5947,
      "Ġnto": 5948,
      "Ġdat": 5949,
      "Ġwilson": 5950,
      "upon": 5951,
      "Ġdemurrer": 5952,
      "Ġ374": 5953,
      "Ġformed": 5954,
      "Ġdog": 5955,
      "Ġmanagers": 5956,
      "Ġopening": 5957,
      "oration": 5958,
      "wa": 5959,
      "roc": 5960,
      "Ġperpet": 5961,
      "Ġmalice": 5962,
      "Ġhud": 5963,
      "Ġ700": 5964,
      "Ġsupervisor": 5965,
      "Ġalleging": 5966,
      "Ġprofits": 5967,
      "Ġbargaining": 5968,
      "Ġ342": 5969,
      "Ġ516": 5970,
      "Ġconserv": 5971,
      "Ġdefender": 5972,
      "Ġcontroversy": 5973,
      "Ġwish": 5974,
      "Ġ694": 5975,
      "Ġ330": 5976,
      "Ġ314": 5977,
      "Ġlegi": 5978,
      "Ġtransmit": 5979,
      "ush": 5980,
      "randa": 5981,
      "Ġpresents": 5982,
      "Ġlaid": 5983,
      "Ġ385": 5984,
      "Ġ285": 5985,
      "Ġimplic": 5986,
      "Ġcorrectly": 5987,
      "Ġpractical": 5988,
      "Ġcocaine": 5989,
      "Ġsubstitute": 5990,
      "Ġstren": 5991,
      "Ġtribunal": 5992,
      "Ġsand": 5993,
      "thern": 5994,
      "Ġurban": 5995,
      "Ġreinstate": 5996,
      "Ġreconsider": 5997,
      "Ġmanaged": 5998,
      "Ġ387": 5999,
      "Ġengineer": 6000,
      "Ġoccurrence": 6001,
      "Ġtenants": 6002,
      "Ġ298": 6003,
      "tist": 6004,
      "Ġ238": 6005,
      "Ġinmate": 6006,
      "Ġsixth": 6007,
      "Ġ228": 6008,
      "Ġcommittees": 6009,
      "Ġseat": 6010,
      "Ġbuy": 6011,
      "Ġfrequent": 6012,
      "rieved": 6013,
      "Ġexact": 6014,
      "bb": 6015,
      "Ġol": 6016,
      "Ġarise": 6017,
      "Ġ420": 6018,
      "Ġregularly": 6019,
      "Ġconnected": 6020,
      "note": 6021,
      "Ġ335": 6022,
      "Ġproved": 6023,
      "right": 6024,
      "Ġ397": 6025,
      "Ġ270": 6026,
      "Ġlaboratory": 6027,
      "Ġmiranda": 6028,
      "isite": 6029,
      "Ġ247": 6030,
      "Ġ283": 6031,
      "Ġrebut": 6032,
      "Ġpurchasing": 6033,
      "Ġ504": 6034,
      "Ġ351": 6035,
      "Ġcease": 6036,
      "Ġunlike": 6037,
      "Ġdro": 6038,
      "Ġceme": 6039,
      "Ġrise": 6040,
      "Ġwage": 6041,
      "Ġsurround": 6042,
      "Ġmineral": 6043,
      "zon": 6044,
      "Ġfresh": 6045,
      "Ġenumer": 6046,
      "tained": 6047,
      "Ġvolume": 6048,
      "Ġprima": 6049,
      "Ġsanctions": 6050,
      "Ġescrow": 6051,
      "Ġunsu": 6052,
      "Ġ326": 6053,
      "Ġgl": 6054,
      "Ġwomen": 6055,
      "undel": 6056,
      "Ġstopped": 6057,
      "Ġinstances": 6058,
      "Ġworker": 6059,
      "Ġdaughter": 6060,
      "Ġinternet": 6061,
      "rators": 6062,
      "Ġambig": 6063,
      "Ġvolunteer": 6064,
      "Ġeec": 6065,
      "Ġbusinesses": 6066,
      "Ġfacie": 6067,
      "Ġgeograph": 6068,
      "Ġdoctor": 6069,
      "ontin": 6070,
      "Ġfeed": 6071,
      "Ġpunishable": 6072,
      "Ġshel": 6073,
      "vert": 6074,
      "Ġobligor": 6075,
      "Ġexped": 6076,
      "stein": 6077,
      "Ġhighest": 6078,
      "Ġjustified": 6079,
      "entic": 6080,
      "Ġarundel": 6081,
      "Ġpiec": 6082,
      "Ġ291": 6083,
      "Ġvacated": 6084,
      "rose": 6085,
      "Ġ332": 6086,
      "Ġshot": 6087,
      "Ġexha": 6088,
      "Ġoverall": 6089,
      "icts": 6090,
      "Ġdisabled": 6091,
      "worth": 6092,
      "Ġintegrity": 6093,
      "Ġrenewed": 6094,
      "Ġfranchise": 6095,
      "rell": 6096,
      "Ð½": 6097,
      "mar": 6098,
      "Ġwoman": 6099,
      "Ġ355": 6100,
      "Ġidentical": 6101,
      "itorial": 6102,
      "Ġrating": 6103,
      "Ġdefective": 6104,
      "Ġadvoc": 6105,
      "Ġactu": 6106,
      "Ġserves": 6107,
      "Ġframe": 6108,
      "ibly": 6109,
      "Ġreloc": 6110,
      "Ġ367": 6111,
      "Ġdrain": 6112,
      "Ġhighways": 6113,
      "Ġgroups": 6114,
      "orum": 6115,
      "Ġimproperly": 6116,
      "Ġsufficiency": 6117,
      "Ġnrec": 6118,
      "Ġdeems": 6119,
      "don": 6120,
      "Ġ366": 6121,
      "Ġomb": 6122,
      "Ġ459": 6123,
      "gi": 6124,
      "Ġleases": 6125,
      "Ġmanaging": 6126,
      "Ġtrain": 6127,
      "orem": 6128,
      "Ġstolen": 6129,
      "Ġreck": 6130,
      "Ġsigns": 6131,
      "Ġexposure": 6132,
      "bacco": 6133,
      "Ġcigare": 6134,
      "Ġlee": 6135,
      "Ġenrollment": 6136,
      "Ġslo": 6137,
      "Ġ393": 6138,
      "Ġmagist": 6139,
      "Ġengineering": 6140,
      "Ġnut": 6141,
      "Ġcustodial": 6142,
      "Ġusual": 6143,
      "Ġ264": 6144,
      "Ġbott": 6145,
      "Ġdemonstr": 6146,
      "Ġinitiated": 6147,
      "Ġconcept": 6148,
      "Ġtobacco": 6149,
      "missibility": 6150,
      "Ġfabric": 6151,
      "Ġserge": 6152,
      "Ġphrase": 6153,
      "Ġpac": 6154,
      "Ġ701": 6155,
      "isp": 6156,
      "Ġauthentic": 6157,
      "ulative": 6158,
      "Ġhereto": 6159,
      "Ġcorrective": 6160,
      "Ġjackson": 6161,
      "life": 6162,
      "Ġinadequ": 6163,
      "ars": 6164,
      "Ġfriend": 6165,
      "Ġnex": 6166,
      "Ġ390": 6167,
      "Ġtelec": 6168,
      "ensus": 6169,
      "Ġmanual": 6170,
      "Ġdivisions": 6171,
      "Ġthor": 6172,
      "Ġdidn": 6173,
      "Ġtherefrom": 6174,
      "Ġsucceed": 6175,
      "Ġcontemplated": 6176,
      "Ġspecies": 6177,
      "ommunic": 6178,
      "Ġ!": 6179,
      "ersed": 6180,
      "ulp": 6181,
      "Ġdisaster": 6182,
      "Ġverification": 6183,
      "Ġconformity": 6184,
      "Ġ266": 6185,
      "Ġ353": 6186,
      "Ġvalorem": 6187,
      "Ġ361": 6188,
      "Ġexter": 6189,
      "Ġcapable": 6190,
      "Ġpreclude": 6191,
      "Ġdie": 6192,
      "Ġbrother": 6193,
      "Ġ552": 6194,
      "Ġ412": 6195,
      "arial": 6196,
      "Ġadministering": 6197,
      "Ġnumerous": 6198,
      "Ġ473": 6199,
      "Ġoccupational": 6200,
      "Ġallegation": 6201,
      "Ġinvolunt": 6202,
      "Ġfilled": 6203,
      "Ġdeferred": 6204,
      "Ġ352": 6205,
      "Ġexclude": 6206,
      "Ġappearing": 6207,
      "Ġacre": 6208,
      "Ġencourage": 6209,
      "Ġ337": 6210,
      "Ġmining": 6211,
      "Ġped": 6212,
      "Ġalmost": 6213,
      "Ġacceptable": 6214,
      "zz": 6215,
      "Ġindex": 6216,
      "ÑĢ": 6217,
      "Ġinside": 6218,
      "aa": 6219,
      "Ġfill": 6220,
      "Ġinvestigate": 6221,
      "Ġ241": 6222,
      "Ġcot": 6223,
      "Ġstrength": 6224,
      "eration": 6225,
      "Ġ244": 6226,
      "Ġ329": 6227,
      "Ġassessor": 6228,
      "Ġconcluding": 6229,
      "Ġroy": 6230,
      "Ġviolating": 6231,
      "Ġ382": 6232,
      "Ġ480": 6233,
      "lected": 6234,
      "Ġexcessive": 6235,
      "Ġobligated": 6236,
      "Ġsergeant": 6237,
      "Ġ281": 6238,
      "Ġconversation": 6239,
      "Ġ288": 6240,
      "Ġsupervisors": 6241,
      "Ġlu": 6242,
      "Ġhandling": 6243,
      "Ġteachers": 6244,
      "Ġ249": 6245,
      "Ġdatab": 6246,
      "Ġ394": 6247,
      "Ġ1949": 6248,
      "pper": 6249,
      "Ġclients": 6250,
      "rect": 6251,
      "Ġmans": 6252,
      "Ġpromise": 6253,
      "aily": 6254,
      "Ġ340": 6255,
      "Ġfeas": 6256,
      "Ġchallenged": 6257,
      "Ġdestru": 6258,
      "Ġ294": 6259,
      "Ġeighteen": 6260,
      "gen": 6261,
      "ann": 6262,
      "Ġbeverages": 6263,
      "Ġfred": 6264,
      "Ġentr": 6265,
      "Ġ370": 6266,
      "Ġcab": 6267,
      "Ġparental": 6268,
      "Ġcoordination": 6269,
      "Ġmidd": 6270,
      "Ġdor": 6271,
      "Ġ297": 6272,
      "Ġ364": 6273,
      "Ġ347": 6274,
      "aul": 6275,
      "Ġglo": 6276,
      "Ġmarried": 6277,
      "Ġallegedly": 6278,
      "Ġwildlife": 6279,
      "paign": 6280,
      "Ġrock": 6281,
      "Ġ450": 6282,
      "Ġmetal": 6283,
      "arcer": 6284,
      "Ġemotion": 6285,
      "applic": 6286,
      "Ġirs": 6287,
      "Ġdetails": 6288,
      "mon": 6289,
      "Ġgall": 6290,
      "Ġanyone": 6291,
      "ients": 6292,
      "Ġworkforce": 6293,
      "Ġ389": 6294,
      "Ġtar": 6295,
      "Ġdaily": 6296,
      "Ġforces": 6297,
      "Ġresponded": 6298,
      "Ġadmissibility": 6299,
      "Ġlin": 6300,
      "pati": 6301,
      "Ġmanifest": 6302,
      "Ġclasses": 6303,
      "Ġ360": 6304,
      "Ġrpr": 6305,
      "Ġ296": 6306,
      "Ġpurchases": 6307,
      "Ġ381": 6308,
      "Ġexecutor": 6309,
      "Ġcompetition": 6310,
      "ominium": 6311,
      "Ġwarning": 6312,
      "Ġintentionally": 6313,
      "amental": 6314,
      "Ġrefusing": 6315,
      "Ġcitizen": 6316,
      "Ġestablishes": 6317,
      "Ġ573": 6318,
      "Ġger": 6319,
      "Ġcampaign": 6320,
      "Ġlake": 6321,
      "Ġexpired": 6322,
      "Ġincompet": 6323,
      "Ġconditional": 6324,
      "Ġdifficult": 6325,
      "Ġfacilitate": 6326,
      "Ġpropriet": 6327,
      "bury": 6328,
      "lear": 6329,
      "Ġenjoy": 6330,
      "Ġcities": 6331,
      "Ġ259": 6332,
      "Ġpermissible": 6333,
      "Ġ1008": 6334,
      "Ġlam": 6335,
      "sured": 6336,
      "Ġevidentiary": 6337,
      "Ġreckless": 6338,
      "Ġcomputed": 6339,
      "Ġplanned": 6340,
      "Ġdisposed": 6341,
      "Ġincidental": 6342,
      "Ġrestatement": 6343,
      "itan": 6344,
      "Ġincarcer": 6345,
      "Ġrelate": 6346,
      "Ġcondominium": 6347,
      "Ġ1002": 6348,
      "Ġbodies": 6349,
      "Ġfundamental": 6350,
      "Ġ346": 6351,
      "Ġpractitioner": 6352,
      "Ġconfinement": 6353,
      "Ġlawfully": 6354,
      "Ġcomposed": 6355,
      "Ġimper": 6356,
      "lamation": 6357,
      "Ġvacate": 6358,
      "Ġhereunder": 6359,
      "Ġtender": 6360,
      "rick": 6361,
      "Ġphysicians": 6362,
      "Ġenglish": 6363,
      "Ġmanufacturing": 6364,
      "Ġ290": 6365,
      "Ġut": 6366,
      "che": 6367,
      "Ġmailing": 6368,
      "Ġ377": 6369,
      "Ġsurviv": 6370,
      "Ġanswered": 6371,
      "Ġwithholding": 6372,
      "Ġways": 6373,
      "Ġcategories": 6374,
      "Ġcommand": 6375,
      "Ġ457": 6376,
      "Ġros": 6377,
      "rastru": 6378,
      "Ġunconstitutional": 6379,
      "Ġhotel": 6380,
      "Ġcausing": 6381,
      "Ġgrowth": 6382,
      "Ġpaul": 6383,
      "Ġdomain": 6384,
      "Ġsector": 6385,
      "Ġ362": 6386,
      "Ġexpand": 6387,
      "Ġconsiderations": 6388,
      "Ġaggrieved": 6389,
      "anc": 6390,
      "Ġexaminations": 6391,
      "grav": 6392,
      "Ġinterim": 6393,
      "Ġ328": 6394,
      "cially": 6395,
      "Ġ512": 6396,
      "Ġpec": 6397,
      "Ġcomponents": 6398,
      "Ġespec": 6399,
      "Ġdepository": 6400,
      "Ġexpended": 6401,
      "liance": 6402,
      "Ġ336": 6403,
      "Ġcommencement": 6404,
      "Ġoptions": 6405,
      "Ġworth": 6406,
      "Ġjeopardy": 6407,
      "Ġ363": 6408,
      "Ġinitiative": 6409,
      "Ġok": 6410,
      "Ġcondemnation": 6411,
      "Ġplates": 6412,
      "Ġsupersed": 6413,
      "Ġwilling": 6414,
      "anger": 6415,
      "Ġcc": 6416,
      "eree": 6417,
      "Ġcemetery": 6418,
      "Ġrecognition": 6419,
      "Ġ358": 6420,
      "Ġ349": 6421,
      "sc": 6422,
      "pass": 6423,
      "Ġpilot": 6424,
      "ado": 6425,
      "Ġreasoning": 6426,
      "Ġ423": 6427,
      "Ġmorning": 6428,
      "Ġassert": 6429,
      "eth": 6430,
      "Ġ010": 6431,
      "Ġ647": 6432,
      "Ġanderson": 6433,
      "Ġconfidentiality": 6434,
      "Ġretention": 6435,
      "Ġoperational": 6436,
      "Ġopportunities": 6437,
      "Ġaggrav": 6438,
      "Ġ614": 6439,
      "nish": 6440,
      "istics": 6441,
      "Ġcorro": 6442,
      "Ġpositive": 6443,
      "Ġproduc": 6444,
      "Ġlived": 6445,
      "Ġrevol": 6446,
      "Ġsums": 6447,
      "Ġfocus": 6448,
      "Ġemission": 6449,
      "Ġ900": 6450,
      "Ġ418": 6451,
      "Ġsupplier": 6452,
      "Ġ443": 6453,
      "Ġpresiding": 6454,
      "Ġvisitation": 6455,
      "Ġtangible": 6456,
      "Ġ1952": 6457,
      "Ġdeciding": 6458,
      "Ġdeeds": 6459,
      "Ġsoft": 6460,
      "Ġtab": 6461,
      "Ġ475": 6462,
      "Ġwine": 6463,
      "Ġ398": 6464,
      "Ġpetitions": 6465,
      "Ġsb": 6466,
      "Ġ339": 6467,
      "Ġ453": 6468,
      "rastructure": 6469,
      "Ġrelie": 6470,
      "Ġrefunding": 6471,
      "aff": 6472,
      "Ġenforced": 6473,
      "Ġarrived": 6474,
      "Ġreserves": 6475,
      "Ġoverruled": 6476,
      "Ġmanage": 6477,
      "Ġing": 6478,
      "velopment": 6479,
      "Ġfingerpr": 6480,
      "Ġtic": 6481,
      "Ġperiodic": 6482,
      "icated": 6483,
      "Ġconsumption": 6484,
      "Ġmailed": 6485,
      "Ġrub": 6486,
      "Ġprocessed": 6487,
      "Ġ348": 6488,
      "inson": 6489,
      "Ġvirtue": 6490,
      "vania": 6491,
      "omy": 6492,
      "Ġspent": 6493,
      "Ġ391": 6494,
      "Ġcoming": 6495,
      "Ġpresentation": 6496,
      "Ġ468": 6497,
      "Ġ289": 6498,
      "Ġblocks": 6499,
      "Ġ507": 6500,
      "Ġpunitive": 6501,
      "Ġtrusts": 6502,
      "Ġ004": 6503,
      "Ġ624": 6504,
      "Ġdissenting": 6505,
      "eas": 6506,
      "Ġyouth": 6507,
      "ws": 6508,
      "Ġdemonstrated": 6509,
      "ipped": 6510,
      "thes": 6511,
      "Ġ1003": 6512,
      "Ġcorrections": 6513,
      "Ġcontended": 6514,
      "Ġneighborhood": 6515,
      "cell": 6516,
      "resents": 6517,
      "Ġindian": 6518,
      "Ġinstallment": 6519,
      "Ġsteph": 6520,
      "Ġ460": 6521,
      "Ġespecially": 6522,
      "kets": 6523,
      "Ġarmy": 6524,
      "Ġbuil": 6525,
      "Ġ1939": 6526,
      "Ġsworn": 6527,
      "atern": 6528,
      "Ġdirecting": 6529,
      "Ġintermediate": 6530,
      "nsyl": 6531,
      "Ġell": 6532,
      "mes": 6533,
      "Ġanti": 6534,
      "Ġspecially": 6535,
      "ologist": 6536,
      "uate": 6537,
      "Ġbenefic": 6538,
      "Ġveterin": 6539,
      "Ġreorgan": 6540,
      "Ġmagistrate": 6541,
      "Ġdiscrimin": 6542,
      "Ġ371": 6543,
      "Ġ499": 6544,
      "Ġbench": 6545,
      "Ġhers": 6546,
      "Ġcompr": 6547,
      "Ġimpe": 6548,
      "nsylvania": 6549,
      "Ġoperates": 6550,
      "Ġ299": 6551,
      "Ġbrand": 6552,
      "Ġdelegate": 6553,
      "Ġpollution": 6554,
      "Ġ506": 6555,
      "Ġinstrumental": 6556,
      "Ġalternate": 6557,
      "Ġefficiency": 6558,
      "Ġcovering": 6559,
      "Ġcomparable": 6560,
      "Ġsafegu": 6561,
      "Ġwithdrawn": 6562,
      "Ġregulate": 6563,
      "Ġelev": 6564,
      "Ġva": 6565,
      "Ġpreserved": 6566,
      "Ġinferences": 6567,
      "Ġattempting": 6568,
      "Ġsick": 6569,
      "Ġinterpreted": 6570,
      "Ġimportance": 6571,
      "Ġinfrastructure": 6572,
      "Ġcat": 6573,
      "Ġmisle": 6574,
      "Ġguardianship": 6575,
      "Ġincorrect": 6576,
      "Ġcovenants": 6577,
      "Ġdecre": 6578,
      "part": 6579,
      "Ġmissing": 6580,
      "Ġdies": 6581,
      "itted": 6582,
      "Ġcooperate": 6583,
      "Ġ399": 6584,
      "Ġschedul": 6585,
      "Ġtelecommunic": 6586,
      "ulating": 6587,
      "Ġ702": 6588,
      "Ġkel": 6589,
      "Ġ421": 6590,
      "cher": 6591,
      "Ġmac": 6592,
      "Ġsituated": 6593,
      "Ġchapters": 6594,
      "Ġsuccessful": 6595,
      "Ġdeterminations": 6596,
      "Ġ425": 6597,
      "Ġpennsylvania": 6598,
      "Ġoccupied": 6599,
      "ests": 6600,
      "Ġdiscontin": 6601,
      "Ġ554": 6602,
      "Ġsli": 6603,
      "Ġsharing": 6604,
      "Ġvalues": 6605,
      "Ġvariance": 6606,
      "wal": 6607,
      "Ġ699": 6608,
      "Ġsummar": 6609,
      "Ġ#": 6610,
      "Ġhereafter": 6611,
      "Ġ1000": 6612,
      "Ġhorse": 6613,
      "Ġsuggestion": 6614,
      "Ġpassing": 6615,
      "Ġindication": 6616,
      "Ġpreferred": 6617,
      "Ġmartin": 6618,
      "Ġexercising": 6619,
      "unds": 6620,
      "Ġ359": 6621,
      "nell": 6622,
      "Ġmisrepresentation": 6623,
      "Ġbelieves": 6624,
      "Ġsue": 6625,
      "Ġdeclined": 6626,
      "Ġliberty": 6627,
      "Ġdescribe": 6628,
      "Ġ640": 6629,
      "Ġplacing": 6630,
      "Ġrod": 6631,
      "Ġclinical": 6632,
      "Ġ436": 6633,
      "Ġgradu": 6634,
      "Ġamerica": 6635,
      "Ġminority": 6636,
      "aternity": 6637,
      "ions": 6638,
      "Ġabused": 6639,
      "Ġadvantage": 6640,
      "Ġadul": 6641,
      "Ġineff": 6642,
      "Ġcontingent": 6643,
      "Ġowns": 6644,
      "bar": 6645,
      "Ġsevere": 6646,
      "Ġanticipated": 6647,
      "Ġdisturb": 6648,
      "Ġ432": 6649,
      "Ġ435": 6650,
      "gery": 6651,
      "Ġreservation": 6652,
      "elf": 6653,
      "Ġfigure": 6654,
      "Ġorph": 6655,
      "Ġsn": 6656,
      "Ġ604": 6657,
      "Ġafforded": 6658,
      "Ġturned": 6659,
      "Ġnof": 6660,
      "Ġ338": 6661,
      "Ġoffers": 6662,
      "Ġmm": 6663,
      "Ġspring": 6664,
      "Ġduplicate": 6665,
      "juana": 6666,
      "Ġjustification": 6667,
      "Ġray": 6668,
      "Ġconcent": 6669,
      "Ġmachines": 6670,
      "Ġhospitals": 6671,
      "Ġinjun": 6672,
      "Ġmarijuana": 6673,
      "Î¹": 6674,
      "Ġhur": 6675,
      "Ġreform": 6676,
      "pped": 6677,
      "Ġreferendum": 6678,
      "Ġeaster": 6679,
      "Ġcoup": 6680,
      "Ġ515": 6681,
      "Ġappointing": 6682,
      "Ġrepayment": 6683,
      "eman": 6684,
      "Ġhom": 6685,
      "Ġpic": 6686,
      "Ġmap": 6687,
      "Ġ678": 6688,
      "Ġrepresents": 6689,
      "grant": 6690,
      "Ġinfra": 6691,
      "lock": 6692,
      "Ġquorum": 6693,
      "pub": 6694,
      "cious": 6695,
      "Ġ466": 6696,
      "Ġglass": 6697,
      "Ġ472": 6698,
      "Ġ431": 6699,
      "anged": 6700,
      "Ġsalaries": 6701,
      "ommend": 6702,
      "Ġgir": 6703,
      "Ġproposals": 6704,
      "Ġ1945": 6705,
      "Ġarises": 6706,
      "Ġcensus": 6707,
      "Ġpleadings": 6708,
      "Ġrelies": 6709,
      "Ġstre": 6710,
      "Ġlat": 6711,
      "bre": 6712,
      "Ġnonresident": 6713,
      "tee": 6714,
      "Ġconvincing": 6715,
      "Ġsteel": 6716,
      "Ġintervention": 6717,
      "Ġdefinite": 6718,
      "endment": 6719,
      "Ġsens": 6720,
      "dy": 6721,
      "oline": 6722,
      "Ġconfirmed": 6723,
      "Ġgenerated": 6724,
      "Ġ396": 6725,
      "Ġacademic": 6726,
      "Ġrespondents": 6727,
      "Ġconfined": 6728,
      "Ġadjustments": 6729,
      "va": 6730,
      "Ġsoil": 6731,
      "Ġsurrounding": 6732,
      "Ġoccasions": 6733,
      "Ġphase": 6734,
      "Ġdestruction": 6735,
      "Ñģ": 6736,
      "ada": 6737,
      "Ġservic": 6738,
      "Ġguaranty": 6739,
      "Ġhabit": 6740,
      "Ġenjoin": 6741,
      "Ġtaxpayers": 6742,
      "Ġ424": 6743,
      "Ġod": 6744,
      "Ġverdicts": 6745,
      "ody": 6746,
      "Ġelectrical": 6747,
      "Ġcompare": 6748,
      "Ġsuppression": 6749,
      "owner": 6750,
      "Ġregarded": 6751,
      "Ġcompos": 6752,
      "olk": 6753,
      "Ġlew": 6754,
      "Ġprices": 6755,
      "cking": 6756,
      "Ġwester": 6757,
      "tio": 6758,
      "Ġassignee": 6759,
      "Ġmarks": 6760,
      "Ġsupports": 6761,
      "Ġdish": 6762,
      "Ġlottery": 6763,
      "Ġlane": 6764,
      "Ġflood": 6765,
      "Ġquite": 6766,
      "Ġ543": 6767,
      "Ġinstituted": 6768,
      "Ġ441": 6769,
      "Ġarose": 6770,
      "Ġdestroyed": 6771,
      "zed": 6772,
      "ality": 6773,
      "Ġprud": 6774,
      "Ġheirs": 6775,
      "Ġpays": 6776,
      "Ġimposing": 6777,
      "Ġexemptions": 6778,
      "Ġliquidation": 6779,
      "Ġformula": 6780,
      "Ġthreatened": 6781,
      "key": 6782,
      "Ġ627": 6783,
      "Ġfreed": 6784,
      "Ġauthorizes": 6785,
      "Ġsitting": 6786,
      "Ġconfer": 6787,
      "Î±": 6788,
      "Ġempow": 6789,
      "rix": 6790,
      "Ġallows": 6791,
      "Ġ462": 6792,
      "veloper": 6793,
      "Ġinvestigative": 6794,
      "Ġ574": 6795,
      "Ġpleading": 6796,
      "laughter": 6797,
      "Ġdiscipline": 6798,
      "Ġvan": 6799,
      "Ġlegitimate": 6800,
      "Ġpharmacy": 6801,
      "Ġfurnishing": 6802,
      "Ġ427": 6803,
      "Ġexperts": 6804,
      "Ġfalls": 6805,
      "Ġ456": 6806,
      "Ġmanslaughter": 6807,
      "Ġment": 6808,
      "Ġcrossing": 6809,
      "Ġemotional": 6810,
      "Ġattending": 6811,
      "Ġ605": 6812,
      "Ġalleges": 6813,
      "Ġnarrow": 6814,
      "burg": 6815,
      "Ġallen": 6816,
      "Ġkill": 6817,
      "bal": 6818,
      "Ġqualification": 6819,
      "Ġ437": 6820,
      "Ġstrategic": 6821,
      "Ġopened": 6822,
      "Ġbona": 6823,
      "igned": 6824,
      "Ġ476": 6825,
      "Ġendorsement": 6826,
      "ints": 6827,
      "Ġinclusion": 6828,
      "Ġ509": 6829,
      "Ġchos": 6830,
      "Ġplease": 6831,
      "Ġcorrobor": 6832,
      "Ġessentially": 6833,
      "Ġcasual": 6834,
      "Ġcourses": 6835,
      "Ġparticipated": 6836,
      "Ġshortly": 6837,
      "Ġ416": 6838,
      "Ġpredecess": 6839,
      "Ġcomplies": 6840,
      "Ġpostal": 6841,
      "Ġcorner": 6842,
      "ulations": 6843,
      "Ġinterior": 6844,
      "Ġsets": 6845,
      "Ġimpaired": 6846,
      "Ġsolicitation": 6847,
      "best": 6848,
      "Ġhend": 6849,
      "Ġsomeone": 6850,
      "Ġcalls": 6851,
      "Ġconstructive": 6852,
      "Ġfuneral": 6853,
      "Ġposted": 6854,
      "Ġsponsor": 6855,
      "Ġ464": 6856,
      "Ġmistrial": 6857,
      "Ġconj": 6858,
      "cast": 6859,
      "Ġ474": 6860,
      "Ġ1006": 6861,
      "Ġnegative": 6862,
      "Ġdisputes": 6863,
      "Ġcs": 6864,
      "Ġstudies": 6865,
      "oll": 6866,
      "Ġverified": 6867,
      "Ġsituations": 6868,
      "Ġeas": 6869,
      "Ġpes": 6870,
      "Ġ458": 6871,
      "zer": 6872,
      "Ġtoday": 6873,
      "Ġpreference": 6874,
      "97": 6875,
      "Ġ510": 6876,
      "Ġtherapy": 6877,
      "Ġnuis": 6878,
      "Ġorphans": 6879,
      "Ġfib": 6880,
      "Ġuns": 6881,
      "Ġunexp": 6882,
      "Ġmovement": 6883,
      "amendment": 6884,
      "Ġweekly": 6885,
      "Ġelectors": 6886,
      "Ġ451": 6887,
      "Ġgifts": 6888,
      "amin": 6889,
      "Ġpostpon": 6890,
      "Ġmortgages": 6891,
      "Ġ439": 6892,
      "Ġbehind": 6893,
      "Ġdeclare": 6894,
      "uls": 6895,
      "management": 6896,
      "Ġchairperson": 6897,
      "ffer": 6898,
      "Ġacquiring": 6899,
      "Ġ1004": 6900,
      "Ġcircumstance": 6901,
      "Ġdivers": 6902,
      "Ġnoting": 6903,
      "Ġobjected": 6904,
      "Ġnsu": 6905,
      "Ġadvertisement": 6906,
      "Ġalteration": 6907,
      "Ġcontributed": 6908,
      "patient": 6909,
      "Ġdeveloper": 6910,
      "Ġseason": 6911,
      "Ġ470": 6912,
      "Ġgov": 6913,
      "Ġ1005": 6914,
      "Ġbreak": 6915,
      "rote": 6916,
      "Ġcorpus": 6917,
      "Ġlap": 6918,
      "Ġcompletely": 6919,
      "Ġmaturity": 6920,
      "Ġestoppel": 6921,
      "Ġpretrial": 6922,
      "Ġspir": 6923,
      "Ġford": 6924,
      "Ġscott": 6925,
      "Ġsanitary": 6926,
      "Ġry": 6927,
      "ompliance": 6928,
      "ourse": 6929,
      "Ġrepairs": 6930,
      "inery": 6931,
      "Ġwarranted": 6932,
      "fa": 6933,
      "Ġvessels": 6934,
      "Ġextreme": 6935,
      "Ġgovernments": 6936,
      "Ġ486": 6937,
      "Ġsaying": 6938,
      "Ġunus": 6939,
      "Ġcontracted": 6940,
      "Ġcalculation": 6941,
      "Ġlod": 6942,
      "Ġstage": 6943,
      "Ġ481": 6944,
      "Ġcollector": 6945,
      "Ġunderwr": 6946,
      "Ġplate": 6947,
      "Ġindictments": 6948,
      "held": 6949,
      "Ġcontested": 6950,
      "Ġmerc": 6951,
      "Ġgoal": 6952,
      "Ġ487": 6953,
      "Ġmethodology": 6954,
      "Ġasbest": 6955,
      "Ġmarked": 6956,
      "Ġsignatures": 6957,
      "Ġshooting": 6958,
      "Ġreinstatement": 6959,
      "Ġquarterly": 6960,
      "Ġredevelopment": 6961,
      "Ġinvoluntary": 6962,
      "Ġdhs": 6963,
      "Ġsummons": 6964,
      "Ġfide": 6965,
      "Ġnegotiations": 6966,
      "Ġinadequate": 6967,
      "bid": 6968,
      "Ġassociate": 6969,
      "Ġproving": 6970,
      "Ġpatent": 6971,
      "Ġcomplex": 6972,
      "Ġestimates": 6973,
      "prac": 6974,
      "Ġnarco": 6975,
      "Ġallowable": 6976,
      "Ġadopting": 6977,
      "Ġ521": 6978,
      "Ġlocations": 6979,
      "Ġharmless": 6980,
      "Ġbeneficial": 6981,
      "Ġunin": 6982,
      "Ġtested": 6983,
      "Ġenforceable": 6984,
      "ese": 6985,
      "Ġobviously": 6986,
      "ancies": 6987,
      "Ġconsequence": 6988,
      "rs": 6989,
      "Ġ419": 6990,
      "Ġdisputed": 6991,
      "Ġverify": 6992,
      "Ġ801": 6993,
      "Ġ005": 6994,
      "Ġaccuracy": 6995,
      "Ġplants": 6996,
      "Ġundertaking": 6997,
      "Ġremar": 6998,
      "Ġ603": 6999,
      "Ġ440": 7000,
      "Ġimpeach": 7001,
      "olitan": 7002,
      "Ġcontrast": 7003,
      "Ġengaging": 7004,
      "Ġdividends": 7005,
      "Ġenhan": 7006,
      "Ġgil": 7007,
      "Ġimproved": 7008,
      "con": 7009,
      "Ġjun": 7010,
      "Ġ465": 7011,
      "Ġprobably": 7012,
      "Ġ430": 7013,
      "Ġcents": 7014,
      "Ġhappened": 7015,
      "Ġseed": 7016,
      "Ġcontinuance": 7017,
      "Ġ703": 7018,
      "Ġ540": 7019,
      "haps": 7020,
      "Ġnoff": 7021,
      "Ġlimiting": 7022,
      "Ġbd": 7023,
      "Ġlearned": 7024,
      "Ġatty": 7025,
      "Ġstockholders": 7026,
      "Ġusually": 7027,
      "Ġcy": 7028,
      "Ġ1921": 7029,
      "cribes": 7030,
      "Ġmile": 7031,
      "ik": 7032,
      "Ġremit": 7033,
      "irable": 7034,
      "Ġguide": 7035,
      "Ġ560": 7036,
      "Ġhistoric": 7037,
      "Ġseventy": 7038,
      "Ġbegins": 7039,
      "Ġconsumers": 7040,
      "Ġ445": 7041,
      "Ġrand": 7042,
      "mp": 7043,
      "Ġperhaps": 7044,
      "erick": 7045,
      "Ġpossessed": 7046,
      "Ġchosen": 7047,
      "greg": 7048,
      "Ġwrote": 7049,
      "Ġpul": 7050,
      "Ġheav": 7051,
      "Ġ617": 7052,
      "ropolitan": 7053,
      "practice": 7054,
      "Ġphone": 7055,
      "Ġpursue": 7056,
      "Ġcountries": 7057,
      "Ġreversal": 7058,
      "Ġsuggests": 7059,
      "Ġfines": 7060,
      "Ġfs": 7061,
      "Ġweak": 7062,
      "Ġauction": 7063,
      "lihood": 7064,
      "Ġ483": 7065,
      "Ġdesire": 7066,
      "Ġresides": 7067,
      "Ġkelly": 7068,
      "Ġolder": 7069,
      "wart": 7070,
      "Ġbids": 7071,
      "Ġdisorder": 7072,
      "Ġstriking": 7073,
      "Ġ448": 7074,
      "ico": 7075,
      "Ġcirculation": 7076,
      "Ġ511": 7077,
      "Ġadams": 7078,
      "Ġtelecommunications": 7079,
      "Ġ434": 7080,
      "Ġbelonging": 7081,
      "Ġproceeded": 7082,
      "Ġ438": 7083,
      "Ġnrecommend": 7084,
      "Ġamendmentamendment": 7085,
      "icious": 7086,
      "gical": 7087,
      "Ġ447": 7088,
      "Ġmalpractice": 7089,
      "Ġherself": 7090,
      "Ġvideo": 7091,
      "tifi": 7092,
      "Ġpath": 7093,
      "Ġwithheld": 7094,
      "Ġdatabase": 7095,
      "Ġcars": 7096,
      "Ġsettle": 7097,
      "Ġmetropolitan": 7098,
      "200": 7099,
      "Ġnr": 7100,
      "Ġprotest": 7101,
      "Ġtow": 7102,
      "Ġproducers": 7103,
      "Ġsuccessfully": 7104,
      "Ġimpairment": 7105,
      "Ġenumerated": 7106,
      "Ġtextile": 7107,
      "Ġveget": 7108,
      "Ġconceded": 7109,
      "Ġreadily": 7110,
      "Ġcyc": 7111,
      "Ġeye": 7112,
      "Ġ618": 7113,
      "Ġshif": 7114,
      "Ġthomp": 7115,
      "Ġsheet": 7116,
      "Ġ607": 7117,
      "Ġclark": 7118,
      "Ġregistrant": 7119,
      "iced": 7120,
      "Ġ551": 7121,
      "Ġcult": 7122,
      "Ġinterloc": 7123,
      "Ġparks": 7124,
      "Ġ625": 7125,
      "Ġoccupation": 7126,
      "Ġtwice": 7127,
      "Ġconvenience": 7128,
      "Ġeminent": 7129,
      "Õ¡": 7130,
      "Ġrout": 7131,
      "Ġleading": 7132,
      "Ġgarnish": 7133,
      "Ġnovo": 7134,
      "Ġmultip": 7135,
      "Ġ1923": 7136,
      "Ġsecuring": 7137,
      "Ġexaminers": 7138,
      "Ġ620": 7139,
      "Ġep": 7140,
      "Ġfrequently": 7141,
      "Ġpestic": 7142,
      "Ġcotton": 7143,
      "Ġsoftware": 7144,
      "ressed": 7145,
      "oresaid": 7146,
      "Ġaforesaid": 7147,
      "Ġarbitrator": 7148,
      "Ġ1946": 7149,
      "Ġactuarial": 7150,
      "Ġdele": 7151,
      "Ġcontrad": 7152,
      "Ġspeech": 7153,
      "Ġreinsurance": 7154,
      "Ġtank": 7155,
      "ert": 7156,
      "Ġ513": 7157,
      "Ġattempts": 7158,
      "Ġgrantee": 7159,
      "Ġ633": 7160,
      "Ġreimburse": 7161,
      "ression": 7162,
      "Ġracing": 7163,
      "Ġfootnote": 7164,
      "Ġdeficiencies": 7165,
      "Ġstarted": 7166,
      "Ġassure": 7167,
      "Ġnewly": 7168,
      "tes": 7169,
      "Ġprecedent": 7170,
      "tise": 7171,
      "Ġrealty": 7172,
      "Ġadversely": 7173,
      "tte": 7174,
      "Ġ572": 7175,
      "Ġdispens": 7176,
      "Ġrefuses": 7177,
      "Ġaffiliated": 7178,
      "Ġmoore": 7179,
      "Ġ1007": 7180,
      "Ġhammond": 7181,
      "Ġvoted": 7182,
      "Ġsignificantly": 7183,
      "Ġdiligence": 7184,
      "Ġ1929": 7185,
      "Ġensu": 7186,
      "Ġentitlement": 7187,
      "Ġexhaust": 7188,
      "Ġsir": 7189,
      "hm": 7190,
      "Ġ497": 7191,
      "Ġmeasured": 7192,
      "Ġ545": 7193,
      "cen": 7194,
      "Ġdistributions": 7195,
      "Ġconjunction": 7196,
      "Ġuseful": 7197,
      "Ġoccupancy": 7198,
      "Ġfrederick": 7199,
      "xy": 7200,
      "Ġfiref": 7201,
      "issu": 7202,
      "Ġ417": 7203,
      "Ġthompson": 7204,
      "yers": 7205,
      "ites": 7206,
      "Ġnearly": 7207,
      "Ġ680": 7208,
      "Ġoutcome": 7209,
      "Ġcontinuous": 7210,
      "Ġrespects": 7211,
      "Ġnas": 7212,
      "Ġstamp": 7213,
      "Ġpublicly": 7214,
      "Ġroyal": 7215,
      "Ġwidow": 7216,
      "Ġlooked": 7217,
      "Ġprayers": 7218,
      "ponder": 7219,
      "Ġ693": 7220,
      "Ġdiscretionary": 7221,
      "Ġwholesale": 7222,
      "Ġextensive": 7223,
      "Ġ477": 7224,
      "Ġ463": 7225,
      "Ġkeeping": 7226,
      "Ġsuspic": 7227,
      "Ġcontribute": 7228,
      "Ġusers": 7229,
      "Ġ426": 7230,
      "Ġparli": 7231,
      "Ġasbestos": 7232,
      "Ġ550": 7233,
      "Ġbears": 7234,
      "Ġanswers": 7235,
      "Ġfruit": 7236,
      "Ġdimin": 7237,
      "Ġ1933": 7238,
      "eck": 7239,
      "Ġviewed": 7240,
      "Ġrus": 7241,
      "Ġpick": 7242,
      "Ġ490": 7243,
      "inder": 7244,
      "Ġfat": 7245,
      "Ġ442": 7246,
      "Ġpaternity": 7247,
      "Ġcorresponding": 7248,
      "Ġ750": 7249,
      "Ġwilkins": 7250,
      "Ġdrainage": 7251,
      "Ġvia": 7252,
      "rid": 7253,
      "ops": 7254,
      "Ġparliament": 7255,
      "Î¿": 7256,
      "Ġunw": 7257,
      "Ġnst": 7258,
      "Ġ1941": 7259,
      "Ġreferring": 7260,
      "Ġtransition": 7261,
      "Ġimpar": 7262,
      "Ġnutri": 7263,
      "Ġdecline": 7264,
      "Ġphotographs": 7265,
      "semin": 7266,
      "Ġthorough": 7267,
      "Ġ488": 7268,
      "Ġscience": 7269,
      "Ġtend": 7270,
      "Ġcounseling": 7271,
      "uff": 7272,
      "Ġroutine": 7273,
      "Ġmachinery": 7274,
      "Ġreplaced": 7275,
      "Ġpurchasers": 7276,
      "Ġsignificance": 7277,
      "Ġarbitrary": 7278,
      "Ġconfirmation": 7279,
      "Ġreliable": 7280,
      "Ġvag": 7281,
      "Ġsic": 7282,
      "Ġyield": 7283,
      "Ġinterf": 7284,
      "Ġdifficulty": 7285,
      "ww": 7286,
      "Ġ517": 7287,
      "Ġimposs": 7288,
      "Ġcollecting": 7289,
      "Ġpledged": 7290,
      "Ġ461": 7291,
      "Ġremedial": 7292,
      "Ġpict": 7293,
      "Ġtres": 7294,
      "rol": 7295,
      "za": 7296,
      "Ġunav": 7297,
      "Ġ492": 7298,
      "Ġrhode": 7299,
      "Ġ525": 7300,
      "Ġeffectuate": 7301,
      "Ġvoc": 7302,
      "Ġ471": 7303,
      "Ġtransmitted": 7304,
      "orpor": 7305,
      "Ġcumulative": 7306,
      "ennial": 7307,
      "Ġ469": 7308,
      "Ġventure": 7309,
      "Ġexpans": 7310,
      "Ġ433": 7311,
      "Ġ535": 7312,
      "Ġapproving": 7313,
      "iel": 7314,
      "Ġaccountability": 7315,
      "iety": 7316,
      "Ġ491": 7317,
      "Ġfear": 7318,
      "Ġpreponder": 7319,
      "Ġhomic": 7320,
      "Ġliv": 7321,
      "Ġrailway": 7322,
      "Ġsuits": 7323,
      "Ġtarget": 7324,
      "Ġstab": 7325,
      "Ġelsewhere": 7326,
      "Ġindividually": 7327,
      "Ġtuition": 7328,
      "Ġasking": 7329,
      "Ġendanger": 7330,
      "Ġincentive": 7331,
      "Ġextr": 7332,
      "Ġsnow": 7333,
      "Ġcoordinate": 7334,
      "Ġnuisance": 7335,
      "Ġsigning": 7336,
      "Ġ519": 7337,
      "Ġ920": 7338,
      "Ġunusual": 7339,
      "Ġ580": 7340,
      "Ġmodern": 7341,
      "Ġ1940": 7342,
      "Ġretroactive": 7343,
      "Ġ557": 7344,
      "Ġ541": 7345,
      "Ġcomplained": 7346,
      "Ġphysically": 7347,
      "efin": 7348,
      "Ġindemnity": 7349,
      "Ġestates": 7350,
      "Ġprevailing": 7351,
      "Ġmandate": 7352,
      "struct": 7353,
      "Ġinches": 7354,
      "Ġjustices": 7355,
      "Ġdismissing": 7356,
      "Ġepa": 7357,
      "Ġreliability": 7358,
      "Ġhouses": 7359,
      "abl": 7360,
      "Ġ542": 7361,
      "Ġ1011": 7362,
      "Ġtimber": 7363,
      "Ġviii": 7364,
      "Ġrelying": 7365,
      "vere": 7366,
      "Ġcontinuation": 7367,
      "reshold": 7368,
      "book": 7369,
      "Ġescape": 7370,
      "Ġmisleading": 7371,
      "Ġ901": 7372,
      "Ġinstitutional": 7373,
      "Ġllc": 7374,
      "illance": 7375,
      "Ġcontributory": 7376,
      "Ġnavig": 7377,
      "vis": 7378,
      "aur": 7379,
      "allow": 7380,
      "Ġtrespass": 7381,
      "Ġmus": 7382,
      "Ġfault": 7383,
      "Ġsuccessors": 7384,
      "Ġpreponderance": 7385,
      "Ġundisp": 7386,
      "eline": 7387,
      "istic": 7388,
      "Ġens": 7389,
      "Ġtrooper": 7390,
      "Ġinterference": 7391,
      "Ġ444": 7392,
      "Ġanalog": 7393,
      "Ġlists": 7394,
      "Ġ626": 7395,
      "Ġtelevision": 7396,
      "Ġlikelihood": 7397,
      "astic": 7398,
      "Ġineffective": 7399,
      "Ġ520": 7400,
      "Ġacquitt": 7401,
      "making": 7402,
      "Ġnad": 7403,
      "Ġlikewise": 7404,
      "Ġstephen": 7405,
      "quar": 7406,
      "Ġterminal": 7407,
      "Ġenacting": 7408,
      "Ġratio": 7409,
      "Ġrecipients": 7410,
      "Ġundisputed": 7411,
      "Ġdict": 7412,
      "Ġreaching": 7413,
      "Ġhence": 7414,
      "Ġrecreation": 7415,
      "Ġinstalled": 7416,
      "Ġtraditional": 7417,
      "what": 7418,
      "Ġthreshold": 7419,
      "Ġdentist": 7420,
      "Ġmortgagee": 7421,
      "Ġpal": 7422,
      "Ġrequisite": 7423,
      "oth": 7424,
      "Ġreciproc": 7425,
      "Ġvenue": 7426,
      "Ġintends": 7427,
      "Ġcole": 7428,
      "Ġresign": 7429,
      "Ġwherein": 7430,
      "Ġhyd": 7431,
      "Ġincreases": 7432,
      "asive": 7433,
      "inois": 7434,
      "Ġsurveillance": 7435,
      "Ġalien": 7436,
      "Ġpayroll": 7437,
      "Ġaccredited": 7438,
      "Ġfreedom": 7439,
      "Ġaspects": 7440,
      "Ġaffiliate": 7441,
      "Ġpackage": 7442,
      "Ġdevelopmental": 7443,
      "Ġcontentions": 7444,
      "times": 7445,
      "Ġrestaur": 7446,
      "Ġsubsidiaries": 7447,
      "Ġmic": 7448,
      "Ġabatement": 7449,
      "Ġ556": 7450,
      "lands": 7451,
      "Ġinterrogation": 7452,
      "Ġdeclarations": 7453,
      "Ġ553": 7454,
      "Ġcommodities": 7455,
      "orted": 7456,
      "estock": 7457,
      "Ġmitigation": 7458,
      "Ġ489": 7459,
      "Ġproducing": 7460,
      "Ġtrier": 7461,
      "Ġborn": 7462,
      "Ġ2020": 7463,
      "Ġrestoration": 7464,
      "Ġpermanently": 7465,
      "Ġsuspicion": 7466,
      "Ġ454": 7467,
      "Ġsending": 7468,
      "Ġ522": 7469,
      "Ġ531": 7470,
      "gram": 7471,
      "Ġshar": 7472,
      "Ġsun": 7473,
      "Ġworld": 7474,
      "Ġborrowers": 7475,
      "Ġinadmissible": 7476,
      "Ġeur": 7477,
      "Ġillinois": 7478,
      "Ġlyn": 7479,
      "Ġabandonment": 7480,
      "Ġundertaken": 7481,
      "Ġtorts": 7482,
      "Ġpp": 7483,
      "Ġconfront": 7484,
      "Ġ428": 7485,
      "Ġlivestock": 7486,
      "Ġongoing": 7487,
      "Ġobserve": 7488,
      "Ġreclamation": 7489,
      "Ġappointments": 7490,
      "Ġdelinquency": 7491,
      "Ġprefer": 7492,
      "Ġabol": 7493,
      "Ġ482": 7494,
      "Ġ629": 7495,
      "Ġassessing": 7496,
      "Ġvoir": 7497,
      "Ġinapplic": 7498,
      "Ġshared": 7499,
      "reek": 7500,
      "Ġcreates": 7501,
      "Ġcharacteristics": 7502,
      "Ġobjects": 7503,
      "Ġautomatically": 7504,
      "tainment": 7505,
      "apt": 7506,
      "ander": 7507,
      "bound": 7508,
      "claim": 7509,
      "Ġdefine": 7510,
      "Ġ536": 7511,
      "Ġviews": 7512,
      "Ġhire": 7513,
      "Ġinterfere": 7514,
      "Ġ494": 7515,
      "amb": 7516,
      "Ġ530": 7517,
      "Ġinstallments": 7518,
      "Ġwarden": 7519,
      "Ġannexed": 7520,
      "Ġfit": 7521,
      "Ġ885": 7522,
      "Ġcasualty": 7523,
      "Ġ533": 7524,
      "Ġillust": 7525,
      "Ġsew": 7526,
      "Ġaddressing": 7527,
      "Ġcommitting": 7528,
      "Ġmechanical": 7529,
      "Ġended": 7530,
      "Ġenforcing": 7531,
      "Ġsubcontractor": 7532,
      "Ġdissemin": 7533,
      "Ġsuspected": 7534,
      "Ġ467": 7535,
      "Ġhighly": 7536,
      "Ġquestioning": 7537,
      "Ġlacked": 7538,
      "Ġeld": 7539,
      "Ġdelaw": 7540,
      "Ġ449": 7541,
      "Ġnfor": 7542,
      "lap": 7543,
      "Ġawarding": 7544,
      "Ġrom": 7545,
      "Ġinvested": 7546,
      "ement": 7547,
      "Ġinel": 7548,
      "Ġhenderson": 7549,
      "Ġsubmitting": 7550,
      "Ġpetro": 7551,
      "Ġfeel": 7552,
      "Ġrendering": 7553,
      "Ġindefin": 7554,
      "Ġ479": 7555,
      "Õ¸": 7556,
      "Ġrobinson": 7557,
      "Ġdisbursements": 7558,
      "Ġrejection": 7559,
      "Ġ1010": 7560,
      "Ġknows": 7561,
      "ils": 7562,
      "Ġ616": 7563,
      "Ġaqu": 7564,
      "Ġexternal": 7565,
      "Ġinjunctive": 7566,
      "Ġbrid": 7567,
      "Ġtransferee": 7568,
      "Ġstored": 7569,
      "Ġtb": 7570,
      "Ġdesirable": 7571,
      "Ġpup": 7572,
      "Ġunsa": 7573,
      "Ġinstrumentality": 7574,
      "Ġ446": 7575,
      "Ġmonies": 7576,
      "Ġincreasing": 7577,
      "Ġweb": 7578,
      "Ġdividend": 7579,
      "ety": 7580,
      "Ġfourteenth": 7581,
      "Ġsolicit": 7582,
      "Ġpersuaded": 7583,
      "Ġvest": 7584,
      "Ġgasoline": 7585,
      "Ġ1009": 7586,
      "Ġ643": 7587,
      "Ġeliminate": 7588,
      "Ġchrist": 7589,
      "Ġcorrected": 7590,
      "Ġmoral": 7591,
      "Ġlewis": 7592,
      "Ġhistorical": 7593,
      "Ġrents": 7594,
      "till": 7595,
      "Ġcomprom": 7596,
      "Ġdoe": 7597,
      "Ġ615": 7598,
      "Ġari": 7599,
      "Ġdelaware": 7600,
      "Ġwarehouse": 7601,
      "Ġdescribing": 7602,
      "Ġcrop": 7603,
      "Ġ1012": 7604,
      "aw": 7605,
      "Ġreads": 7606,
      "Ġrr": 7607,
      "Ġfirefigh": 7608,
      "back": 7609,
      "Ġblue": 7610,
      "Ġintroduction": 7611,
      "ancing": 7612,
      "isting": 7613,
      "Ġ1943": 7614,
      "Ġaffidavits": 7615,
      "Ġcompetency": 7616,
      "Ġ528": 7617,
      "Ġresiding": 7618,
      "Ġ727": 7619,
      "Ġcarroll": 7620,
      "Ġ571": 7621,
      "Ġinelig": 7622,
      "leum": 7623,
      "Ġ534": 7624,
      "Ġsat": 7625,
      "Ġtot": 7626,
      "inking": 7627,
      "Ġinformant": 7628,
      "Ġtur": 7629,
      "pping": 7630,
      "Ġnoncompliance": 7631,
      "Ġconstitutionally": 7632,
      "Ġbaker": 7633,
      "Ġ657": 7634,
      "iliar": 7635,
      "Ġreconsideration": 7636,
      "Ġ622": 7637,
      "Ġ606": 7638,
      "Ġ524": 7639,
      "Ġcards": 7640,
      "Ġacquittal": 7641,
      "termin": 7642,
      "Ġath": 7643,
      "ero": 7644,
      "Ġthereunder": 7645,
      "Ġpoly": 7646,
      "Ġsubpart": 7647,
      "Ġutilization": 7648,
      "Ġsugar": 7649,
      "Ġaccumulated": 7650,
      "Ġlisting": 7651,
      "Ġunique": 7652,
      "Ġmeant": 7653,
      "atories": 7654,
      "ttes": 7655,
      "Ġ496": 7656,
      "Ġbeer": 7657,
      "Ġstatistical": 7658,
      "Ġrap": 7659,
      "Ġ537": 7660,
      "Ġunknow": 7661,
      "Ġ555": 7662,
      "ableness": 7663,
      "Ġdc": 7664,
      "Ġcorrespond": 7665,
      "Ġbuilt": 7666,
      "Ġintr": 7667,
      "Ġkilled": 7668,
      "Ġ736": 7669,
      "Ġaccidental": 7670,
      "Ġleasing": 7671,
      "Ġstrategy": 7672,
      "Ġcompelling": 7673,
      "Ġraising": 7674,
      "Ġharass": 7675,
      "Ġasserting": 7676,
      "Ġ562": 7677,
      "Ġconvenient": 7678,
      "Ġinappropri": 7679,
      "Ġhomicide": 7680,
      "Ġ1937": 7681,
      "Ġcareer": 7682,
      "Ġextraordin": 7683,
      "Ġindefinite": 7684,
      "Ġought": 7685,
      "Ġconflicting": 7686,
      "Ġfisheries": 7687,
      "Ġannot": 7688,
      "lantic": 7689,
      "Ġinflic": 7690,
      "Ġscreening": 7691,
      "Ġcontainer": 7692,
      "ques": 7693,
      "Ġinsolvent": 7694,
      "Ġpure": 7695,
      "Ġ518": 7696,
      "ano": 7697,
      "Ġ609": 7698,
      "Ġexceeded": 7699,
      "Ġmeanings": 7700,
      "Ġcorps": 7701,
      "Ġgene": 7702,
      "Ġbeach": 7703,
      "Ġcfr": 7704,
      "Ġlooking": 7705,
      "Ġadvances": 7706,
      "Ġevening": 7707,
      "pla": 7708,
      "Ġpurported": 7709,
      "Ġfranc": 7710,
      "Ġvocational": 7711,
      "Ġmedia": 7712,
      "Ġcolo": 7713,
      "vens": 7714,
      "Ġ523": 7715,
      "Ġhenry": 7716,
      "oted": 7717,
      "Ġ585": 7718,
      "Ġspeaking": 7719,
      "Ġweakness": 7720,
      "Ġmel": 7721,
      "Ġmerchand": 7722,
      "Ġpetroleum": 7723,
      "Ġaver": 7724,
      "Ġboat": 7725,
      "Ġundertake": 7726,
      "Ġhomeland": 7727,
      "Ġwatch": 7728,
      "Ġgray": 7729,
      "Ġreimbursed": 7730,
      "Ġ547": 7731,
      "Ġpleaded": 7732,
      "Ġnob": 7733,
      "Ġskills": 7734,
      "Ġ631": 7735,
      "Ġrestrict": 7736,
      "Ġreorganization": 7737,
      "pl": 7738,
      "Ġderiv": 7739,
      "Ġbiological": 7740,
      "Ġsupervisory": 7741,
      "Ġimpossible": 7742,
      "Ġadjoin": 7743,
      "Ġframework": 7744,
      "Ġoffenders": 7745,
      "Ġ608": 7746,
      "Ġshell": 7747,
      "Ġcollision": 7748,
      "Ġpassengers": 7749,
      "win": 7750,
      "lex": 7751,
      "Ġreporter": 7752,
      "Ġ544": 7753,
      "Ġlt": 7754,
      "Ġforum": 7755,
      "Ġallege": 7756,
      "Ġconsistently": 7757,
      "Ġgamb": 7758,
      "Ġheight": 7759,
      "Ġfelt": 7760,
      "Ġload": 7761,
      "Ġhart": 7762,
      "Ġundue": 7763,
      "Ġpreparing": 7764,
      "Ġhop": 7765,
      "Ġdevise": 7766,
      "Ġprecluded": 7767,
      "Ġacknowledge": 7768,
      "Ġatlantic": 7769,
      "Ġ591": 7770,
      "soever": 7771,
      "Ġsomewhat": 7772,
      "Ġdocumented": 7773,
      "Ġhay": 7774,
      "Ġwillful": 7775,
      "Ġ610": 7776,
      "Ġcalling": 7777,
      "Ġdegrees": 7778,
      "Ġdeductions": 7779,
      "Ġcarol": 7780,
      "Ġprop": 7781,
      "abor": 7782,
      "Ġprovisional": 7783,
      "Ġsometimes": 7784,
      "ional": 7785,
      "Ġnull": 7786,
      "Ġadmitting": 7787,
      "Ġmemorial": 7788,
      "Ġrationale": 7789,
      "Ġ495": 7790,
      "Ġcompelled": 7791,
      "Ġdiagnosis": 7792,
      "Ġpattern": 7793,
      "Ġlearning": 7794,
      "heim": 7795,
      "Ġaccountant": 7796,
      "urers": 7797,
      "Ġrepresentations": 7798,
      "Ġpressure": 7799,
      "Ġjoined": 7800,
      "any": 7801,
      "Ġfbi": 7802,
      "Ġcham": 7803,
      "Ġ641": 7804,
      "Ġconservator": 7805,
      "Ġ539": 7806,
      "Ġos": 7807,
      "Ġopposed": 7808,
      "Ġkid": 7809,
      "Ġpounds": 7810,
      "lation": 7811,
      "Ġ1909": 7812,
      "Ġinherent": 7813,
      "Ġextraordinary": 7814,
      "Ġinability": 7815,
      "Ġmeat": 7816,
      "Ġintend": 7817,
      "sell": 7818,
      "Ġmarshal": 7819,
      "Ġdun": 7820,
      "Ġ612": 7821,
      "Ġappreh": 7822,
      "omet": 7823,
      "az": 7824,
      "Ġrescind": 7825,
      "Ġmcdon": 7826,
      "Ġprohibits": 7827,
      "Ġwillfully": 7828,
      "vency": 7829,
      "Ġstatistics": 7830,
      "Ġelementary": 7831,
      "Ġwebsite": 7832,
      "Ġpregn": 7833,
      "Ġgrantor": 7834,
      "Ġadministrators": 7835,
      "Ġdissolved": 7836,
      "ĠÎ": 7837,
      "Ġreplace": 7838,
      "Ġsurgery": 7839,
      "Ġinvoice": 7840,
      "Ġtouch": 7841,
      "lines": 7842,
      "Ġcpc": 7843,
      "Ġ1013": 7844,
      "Ġexpire": 7845,
      "Ġprejudiced": 7846,
      "quarters": 7847,
      "Ġcommencing": 7848,
      "Ġalj": 7849,
      "Ġadding": 7850,
      "Ġrevolving": 7851,
      "Ġdelegated": 7852,
      "Ġexpansion": 7853,
      "Ġspeak": 7854,
      "Ġupheld": 7855,
      "Ġmiddle": 7856,
      "Ġtrailer": 7857,
      "Ġrestrictive": 7858,
      "Ġexempted": 7859,
      "Ġdeadline": 7860,
      "Ġincompetent": 7861,
      "Ġorth": 7862,
      "Ġhunting": 7863,
      "Ġwrite": 7864,
      "Ġdefe": 7865,
      "Ġmotive": 7866,
      "Ġdeclarant": 7867,
      "Ġrevealed": 7868,
      "Ġapportionment": 7869,
      "Ġpromulgate": 7870,
      "Ġbringing": 7871,
      "Ġcontingency": 7872,
      "Ġnumbered": 7873,
      "bon": 7874,
      "Ġprobative": 7875,
      "Ġoperators": 7876,
      "Ġ611": 7877,
      "Ġconcurring": 7878,
      "Ġnormally": 7879,
      "kers": 7880,
      "tities": 7881,
      "Ġdeducted": 7882,
      "Ġaccomplished": 7883,
      "Ġvul": 7884,
      "Ġ527": 7885,
      "Ġexpires": 7886,
      "Ġordering": 7887,
      "Ġimproving": 7888,
      "Ġenters": 7889,
      "Ġreasonableness": 7890,
      "arms": 7891,
      "Ġexhibits": 7892,
      "Ġnoffice": 7893,
      "Ġpotentially": 7894,
      "umin": 7895,
      "Ġhair": 7896,
      "Ġschol": 7897,
      "Ġ705": 7898,
      "las": 7899,
      "Ġenhanced": 7900,
      "Ġnonetheless": 7901,
      "Ġunknown": 7902,
      "Ġstipulated": 7903,
      "Ġcomes": 7904,
      "Ġprevented": 7905,
      "Ġnomination": 7906,
      "Ġopt": 7907,
      "Ġworkmen": 7908,
      "Ġnuc": 7909,
      "Ġ478": 7910,
      "Ġmitigating": 7911,
      "Ð²": 7912,
      "Ġdrove": 7913,
      "Ġconstituting": 7914,
      "Ġcarriers": 7915,
      "Ġutilized": 7916,
      "Ġenlar": 7917,
      "Ġbeverage": 7918,
      "Ġempowered": 7919,
      "Ġsignal": 7920,
      "Ġ526": 7921,
      "Ġdonor": 7922,
      "Ġteaching": 7923,
      "Ġannounced": 7924,
      "Ġexplicitly": 7925,
      "Ġcigarettes": 7926,
      "Ġcul": 7927,
      "Ġslight": 7928,
      "Ġpoc": 7929,
      "Ġdiscount": 7930,
      "Ġconverted": 7931,
      "Ġshelter": 7932,
      "Ġmerchandise": 7933,
      "Ġimpartial": 7934,
      "Ġcollins": 7935,
      "atus": 7936,
      "isation": 7937,
      "Ġaccepting": 7938,
      "Ġcommonly": 7939,
      "Ġgenu": 7940,
      "Ġcj": 7941,
      "Ġgard": 7942,
      "Ġmodifications": 7943,
      "Ġreflects": 7944,
      "Ġsubjected": 7945,
      "Ġfamiliar": 7946,
      "Ġincidents": 7947,
      "cester": 7948,
      "Ġdraf": 7949,
      "Ġshop": 7950,
      "Ġgri": 7951,
      "Ġdesired": 7952,
      "Ġwhatsoever": 7953,
      "Ġreconcil": 7954,
      "Ġcancel": 7955,
      "Ġpartially": 7956,
      "criber": 7957,
      "Ġredeem": 7958,
      "ocable": 7959,
      "Ġsyn": 7960,
      "Ġhereof": 7961,
      "Ġsupervised": 7962,
      "Ġaust": 7963,
      "Ġupdated": 7964,
      "Ġsuffolk": 7965,
      "Ġfulfill": 7966,
      "put": 7967,
      "Ġassigns": 7968,
      "oney": 7969,
      "Ġclothing": 7970,
      "Ġformat": 7971,
      "Ġdemonstrates": 7972,
      "Ġschedules": 7973,
      "Ġunavail": 7974,
      "feas": 7975,
      "Ġtestament": 7976,
      "Ġready": 7977,
      "tifiable": 7978,
      "Ġexplos": 7979,
      "iling": 7980,
      "Ġexpertise": 7981,
      "Ġdip": 7982,
      "Ġcm": 7983,
      "Ġplainly": 7984,
      "Ġperj": 7985,
      "Ġinfant": 7986,
      "Ġcapt": 7987,
      "ipping": 7988,
      "Ġwidth": 7989,
      "Ġtracks": 7990,
      "oses": 7991,
      "Ġunan": 7992,
      "Ġeldridge": 7993,
      "Ġ1931": 7994,
      "ectual": 7995,
      "Ġreferral": 7996,
      "Ġcomplying": 7997,
      "kin": 7998,
      "Ġxi": 7999,
      "Ġreside": 8000,
      "inity": 8001,
      "Ġsund": 8002,
      "Ġpeter": 8003,
      "ouses": 8004,
      "Ġ642": 8005,
      "Ġhardship": 8006,
      "Ġchain": 8007,
      "Ġchatt": 8008,
      "Ġminister": 8009,
      "Ġpaint": 8010,
      "Ġextract": 8011,
      "orship": 8012,
      "Ġsamples": 8013,
      "dom": 8014,
      "icate": 8015,
      "Ġperce": 8016,
      "west": 8017,
      "Ġinsure": 8018,
      "Ġmortgag": 8019,
      "Ġ613": 8020,
      "Ġevans": 8021,
      "uten": 8022,
      "Ġ651": 8023,
      "Ġsidewal": 8024,
      "Ġstipulation": 8025,
      "bed": 8026,
      "ita": 8027,
      "Ġ665": 8028,
      "Ġdeprived": 8029,
      "Ġnonre": 8030,
      "Ġautomated": 8031,
      "Ġlarcen": 8032,
      "Ġwindow": 8033,
      "mo": 8034,
      "Ġ532": 8035,
      "Ġparcels": 8036,
      "arian": 8037,
      "Ġlun": 8038,
      "Ġlenders": 8039,
      "73": 8040,
      "Ġ653": 8041,
      "Ġuncertain": 8042,
      "Ġkg": 8043,
      "Ġstrip": 8044,
      "Ġaltered": 8045,
      "Ġtemporarily": 8046,
      "Ġadjudicated": 8047,
      "olis": 8048,
      "Ġthereupon": 8049,
      "Ġtan": 8050,
      "orily": 8051,
      "Ġsupplementary": 8052,
      "ka": 8053,
      "Ġeconomy": 8054,
      "earing": 8055,
      "Ġevidenced": 8056,
      "Ġstream": 8057,
      "Ġ485": 8058,
      "Ġaccompanying": 8059,
      "Ġassisted": 8060,
      "iii": 8061,
      "Ġrend": 8062,
      "Ġappreci": 8063,
      "Ġcompound": 8064,
      "Ġrecyc": 8065,
      "Ġ569": 8066,
      "Ġnutrition": 8067,
      "Õ¥": 8068,
      "Ġ493": 8069,
      "Ġtry": 8070,
      "Ġprobability": 8071,
      "Ġremember": 8072,
      "Ġchattel": 8073,
      "Ġfibres": 8074,
      "Ġadjoining": 8075,
      "zing": 8076,
      "Ġbern": 8077,
      "Ġ623": 8078,
      "Ġpend": 8079,
      "Ġinterc": 8080,
      "Ġnmanagement": 8081,
      "Ġreflected": 8082,
      "Ġclerks": 8083,
      "Ġprojected": 8084,
      "Ġendors": 8085,
      "Ġincapac": 8086,
      "Ġshore": 8087,
      "Ġtariff": 8088,
      "Ġ570": 8089,
      "Ġethics": 8090,
      "Ġ645": 8091,
      "Ġdeliberate": 8092,
      "Ġsuffering": 8093,
      "ignment": 8094,
      "Ġrelocation": 8095,
      "Ġrestaurant": 8096,
      "Ġguy": 8097,
      "Ġprotecting": 8098,
      "Ġcounterclaim": 8099,
      "Ġ575": 8100,
      "Ġprohibiting": 8101,
      "Ġclosely": 8102,
      "Ġwo": 8103,
      "Ġreh": 8104,
      "Ġcos": 8105,
      "ecting": 8106,
      "Ġang": 8107,
      "Ġannexation": 8108,
      "Ġmine": 8109,
      "Ġ564": 8110,
      "regular": 8111,
      "Ġdetain": 8112,
      "Ġpsychiatric": 8113,
      "Ġstone": 8114,
      "Ġposts": 8115,
      "bro": 8116,
      "Ġwhereby": 8117,
      "Ġscr": 8118,
      "Ġcomposition": 8119,
      "Ġdealers": 8120,
      "Ġappraiser": 8121,
      "Ġnuclear": 8122,
      "Ġhired": 8123,
      "Ġgoes": 8124,
      "Ġ691": 8125,
      "raud": 8126,
      "Ġtour": 8127,
      "Ġtreaty": 8128,
      "Ġrecorder": 8129,
      "Ġinvolvement": 8130,
      "Ġsud": 8131,
      "Ġheart": 8132,
      "Ġensuring": 8133,
      "Ġemploying": 8134,
      "Ġ628": 8135,
      "Ġsexually": 8136,
      "Ġexposed": 8137,
      "Ġcreek": 8138,
      "ocks": 8139,
      "Ġmediation": 8140,
      "Ġspeedy": 8141,
      "Ġgather": 8142,
      "Ġstorm": 8143,
      "Ġenclo": 8144,
      "Ġross": 8145,
      "Ġwright": 8146,
      "amus": 8147,
      "keep": 8148,
      "Ġaim": 8149,
      "arn": 8150,
      "Ġhost": 8151,
      "Ġdepends": 8152,
      "aves": 8153,
      "Ġmerchant": 8154,
      "Ġadh": 8155,
      "Ġpharmac": 8156,
      "Ġ671": 8157,
      "Ġevaluating": 8158,
      "non": 8159,
      "Ġcoastal": 8160,
      "Ġdefenses": 8161,
      "Ġvariety": 8162,
      "rency": 8163,
      "Ġsubjects": 8164,
      "Ġinitiate": 8165,
      "Ġreprodu": 8166,
      "Ġmaterially": 8167,
      "Ġdry": 8168,
      "Ġlying": 8169,
      "Ġbilling": 8170,
      "Ġ020": 8171,
      "Ġbru": 8172,
      "Ġdriven": 8173,
      "Ġpress": 8174,
      "Ġviolent": 8175,
      "Ġextending": 8176,
      "Ġunderground": 8177,
      "Ġ006": 8178,
      "Ġmentally": 8179,
      "isted": 8180,
      "Ġni": 8181,
      "Ġstores": 8182,
      "Ġsubmits": 8183,
      "Ġinapplicable": 8184,
      "iner": 8185,
      "tivity": 8186,
      "Ġproximate": 8187,
      "Ġ484": 8188,
      "Ġintegrated": 8189,
      "Ġlif": 8190,
      "urate": 8191,
      "Ġunj": 8192,
      "Ġintelligence": 8193,
      "Ġelectricity": 8194,
      "Ġtbd": 8195,
      "Ġdecl": 8196,
      "Ġincarceration": 8197,
      "Ġarguing": 8198,
      "Ġgrad": 8199,
      "Ġtowards": 8200,
      "Ġirrev": 8201,
      "Ġcommunicate": 8202,
      "board": 8203,
      "lr": 8204,
      "Ġ548": 8205,
      "Ġdependents": 8206,
      "Ġvulner": 8207,
      "Ġchoose": 8208,
      "Ġinterlocutory": 8209,
      "Ġthirds": 8210,
      "Ġwww": 8211,
      "Ġ579": 8212,
      "Ġcodified": 8213,
      "laimed": 8214,
      "Ġwol": 8215,
      "Ġengland": 8216,
      "Ġjobs": 8217,
      "Ġ689": 8218,
      "Ġgambling": 8219,
      "Ġreasoned": 8220,
      "Ġ677": 8221,
      "Ġ563": 8222,
      "Ġvary": 8223,
      "Ġrepeatedly": 8224,
      "owners": 8225,
      "Ġheadquarters": 8226,
      "Ġlarceny": 8227,
      "Ġoffset": 8228,
      "Ġincrement": 8229,
      "Ġfewer": 8230,
      "Ġcodes": 8231,
      "Ġkilling": 8232,
      "Ġwhoever": 8233,
      "Ġ621": 8234,
      "Ġsheets": 8235,
      "Ġoce": 8236,
      "Ġ559": 8237,
      "Ġfourteen": 8238,
      "Ġlieuten": 8239,
      "Ġnegotiated": 8240,
      "Ġdiscontinu": 8241,
      "Ġtables": 8242,
      "Ġacce": 8243,
      "Ġcommitments": 8244,
      "Ġirregular": 8245,
      "Ġnim": 8246,
      "Ġobservation": 8247,
      "Ġ1014": 8248,
      "Ġnag": 8249,
      "Ġeastern": 8250,
      "Ġreducing": 8251,
      "Ġinclusive": 8252,
      "Ġjeff": 8253,
      "Ġsewage": 8254,
      "Ġwestern": 8255,
      "Ġcircular": 8256,
      "Ġinnocence": 8257,
      "Ġpages": 8258,
      "Ġbalances": 8259,
      "Ġkent": 8260,
      "Ġpartly": 8261,
      "Ġveteran": 8262,
      "Ġtools": 8263,
      "Ġeighty": 8264,
      "Ġsubordin": 8265,
      "Ġbab": 8266,
      "Ġencumb": 8267,
      "Ġsucceeding": 8268,
      "oe": 8269,
      "Ġmandamus": 8270,
      "Ġdealt": 8271,
      "Ġdefines": 8272,
      "Ġsolution": 8273,
      "Ġentirety": 8274,
      "Ġguarantees": 8275,
      "Ġiron": 8276,
      "Ġbaile": 8277,
      "Ġdetri": 8278,
      "Ġwholesal": 8279,
      "ommit": 8280,
      "Ġpredecessor": 8281,
      "Ġdeadly": 8282,
      "Ġindigent": 8283,
      "Ġ529": 8284,
      "Ġ911": 8285,
      "Ġmixed": 8286,
      "Ġuninsured": 8287,
      "Ġ707": 8288,
      "Ġ051": 8289,
      "Ġwet": 8290,
      "22": 8291,
      "Ġnres": 8292,
      "iann": 8293,
      "Ġ660": 8294,
      "Ġproven": 8295,
      "ompass": 8296,
      "Ġdamaged": 8297,
      "Ġ704": 8298,
      "Ġintellectual": 8299,
      "Ġoperative": 8300,
      "Ġalia": 8301,
      "Ġfirearms": 8302,
      "Ġdomin": 8303,
      "Ġacceler": 8304,
      "Ġnde": 8305,
      "Ġtrading": 8306,
      "Ġxvi": 8307,
      "Ġnus": 8308,
      "Ġineligible": 8309,
      "Ġcp": 8310,
      "Ġ011": 8311,
      "Ġskill": 8312,
      "iden": 8313,
      "Ġwells": 8314,
      "Ġcarter": 8315,
      "Ġdiscussing": 8316,
      "Ġexpression": 8317,
      "Ġvacancies": 8318,
      "Ġborder": 8319,
      "ument": 8320,
      "Ġ1944": 8321,
      "Ġbequ": 8322,
      "Ġencompass": 8323,
      "Ġerroneously": 8324,
      "Ġlieutenant": 8325,
      "Ġelects": 8326,
      "Ġconceal": 8327,
      "Ġretailer": 8328,
      "tures": 8329,
      "Ġ566": 8330,
      "Ġ706": 8331,
      "Ġelector": 8332,
      "Ġ711": 8333,
      "Ġsells": 8334,
      "Ġresu": 8335,
      "berts": 8336,
      "Ġlandowner": 8337,
      "Ġ581": 8338,
      "Ġfriends": 8339,
      "mark": 8340,
      "oned": 8341,
      "ovation": 8342,
      "Ġconditioned": 8343,
      "Ġconspic": 8344,
      "Ġgeographic": 8345,
      "Ġgenuine": 8346,
      "Ġinappropriate": 8347,
      "Ġ709": 8348,
      "Ġtun": 8349,
      "Ġ558": 8350,
      "Ġmandated": 8351,
      "Ġaccurately": 8352,
      "Ġ679": 8353,
      "Ġexpectation": 8354,
      "Ġvital": 8355,
      "Ġknife": 8356,
      "Ġsilver": 8357,
      "Ġarre": 8358,
      "Ġequipped": 8359,
      "Ġclosure": 8360,
      "Ġchanging": 8361,
      "Ġinformal": 8362,
      "Ġheretofore": 8363,
      "Ġdelegation": 8364,
      "Ġforfeited": 8365,
      "fol": 8366,
      "Ġvou": 8367,
      "Ġ731": 8368,
      "Ġtimesh": 8369,
      "Ġmatching": 8370,
      "Ġapproached": 8371,
      "Ġflu": 8372,
      "Ġdemands": 8373,
      "Ġtestifying": 8374,
      "Ġlending": 8375,
      "sures": 8376,
      "Ġexperienced": 8377,
      "vereign": 8378,
      "bby": 8379,
      "Ġentries": 8380,
      "ders": 8381,
      "Ġlarger": 8382,
      "Ġleon": 8383,
      "Ġdeclares": 8384,
      "uly": 8385,
      "rey": 8386,
      "Ġeli": 8387,
      "Ġreplied": 8388,
      "Ġ1015": 8389,
      "Ġspeaker": 8390,
      "Ġsovereign": 8391,
      "tifications": 8392,
      "tically": 8393,
      "Ġdomicile": 8394,
      "Ġprocu": 8395,
      "Ġmad": 8396,
      "Ġlock": 8397,
      "Ġdifferences": 8398,
      "Ġmechanism": 8399,
      "Ġ598": 8400,
      "Ġjudice": 8401,
      "Ġconflicts": 8402,
      "Ġunanim": 8403,
      "ensity": 8404,
      "Ġacademy": 8405,
      "Ġcontainers": 8406,
      "Ġnoncon": 8407,
      "Ġaffix": 8408,
      "tered": 8409,
      "Ġincapacitated": 8410,
      "Ġsealed": 8411,
      "Ġstevens": 8412,
      "Ġ1907": 8413,
      "incorpor": 8414,
      "Ġnarcotics": 8415,
      "Ġauditing": 8416,
      "Ġheat": 8417,
      "Ġfinanced": 8418,
      "Ġ583": 8419,
      "Ġambiguous": 8420,
      "Ġ652": 8421,
      "Ġenvelop": 8422,
      "Ġbulk": 8423,
      "ato": 8424,
      "Ġsurgical": 8425,
      "Ġix": 8426,
      "Ġdeceptive": 8427,
      "Ġchance": 8428,
      "Ġexamining": 8429,
      "ays": 8430,
      "Ġresort": 8431,
      "Ġweighing": 8432,
      "Ġnamely": 8433,
      "Ġposting": 8434,
      "Ġvisits": 8435,
      "Ġreversible": 8436,
      "Ġevaluations": 8437,
      "ago": 8438,
      "Ġ661": 8439,
      "Ġ721": 8440,
      "Ġ1915": 8441,
      "rust": 8442,
      "gia": 8443,
      "Ġ578": 8444,
      "51": 8445,
      "tigu": 8446,
      "Ġreply": 8447,
      "Ġjen": 8448,
      "Ġstewart": 8449,
      "Ġbecoming": 8450,
      "ota": 8451,
      "Ġsouthern": 8452,
      "Ġ593": 8453,
      "Ġny": 8454,
      "Ġpossesses": 8455,
      "oring": 8456,
      "Ġ667": 8457,
      "Ġrezon": 8458,
      "Ġ561": 8459,
      "Ġ632": 8460,
      "Ġimplicit": 8461,
      "Ġkir": 8462,
      "Ġ568": 8463,
      "akes": 8464,
      "Ġnwh": 8465,
      "Ġgaming": 8466,
      "Ġtransported": 8467,
      "ez": 8468,
      "estri": 8469,
      "ruption": 8470,
      "Ġ596": 8471,
      "Ġinmates": 8472,
      "Ġ567": 8473,
      "Ġpesticide": 8474,
      "Ġng": 8475,
      "therly": 8476,
      "apolis": 8477,
      "unk": 8478,
      "Ġmath": 8479,
      "Ġtree": 8480,
      "Ġ803": 8481,
      "Ġprudent": 8482,
      "Ġrestraint": 8483,
      "ambig": 8484,
      "Ġunrelated": 8485,
      "Ġnonp": 8486,
      "gel": 8487,
      "Ġannivers": 8488,
      "Ġ648": 8489,
      "Ġdisbursement": 8490,
      "Ġunambig": 8491,
      "Ġbarnes": 8492,
      "Ġ582": 8493,
      "Ġpiece": 8494,
      "Ġhomest": 8495,
      "Ġtabulation": 8496,
      "Ġrela": 8497,
      "levant": 8498,
      "atrix": 8499,
      "urs": 8500,
      "formation": 8501,
      "Ġforthwith": 8502,
      "Ġ710": 8503,
      "Ġ714": 8504,
      "Ġpatrol": 8505,
      "Ġpayee": 8506,
      "Ġcertainty": 8507,
      "Ġsurvivor": 8508,
      "vol": 8509,
      "Ġallot": 8510,
      "Ġfined": 8511,
      "Ġdefining": 8512,
      "Ġforced": 8513,
      "Ġresale": 8514,
      "Ġprovin": 8515,
      "Ġ590": 8516,
      "Ġaccessible": 8517,
      "Ġtechnici": 8518,
      "Ġchic": 8519,
      "Ġ1017": 8520,
      "Ġanniversary": 8521,
      "Ġappar": 8522,
      "Ġundert": 8523,
      "Ġremoving": 8524,
      "ati": 8525,
      "aces": 8526,
      "Ġbidder": 8527,
      "Ġintervene": 8528,
      "Ġdow": 8529,
      "Ġ498": 8530,
      "Ġinspectors": 8531,
      "oph": 8532,
      "Ġfraction": 8533,
      "Ġdiscriminatory": 8534,
      "Ġcancer": 8535,
      "Ġhomestead": 8536,
      "Ġmck": 8537,
      "Ġenro": 8538,
      "hr": 8539,
      "Ġ805": 8540,
      "Ġcourtroom": 8541,
      "Ġ729": 8542,
      "Ġseparated": 8543,
      "Ġsubgrant": 8544,
      "Ġdistress": 8545,
      "Ġradi": 8546,
      "Ġche": 8547,
      "Ġintermediary": 8548,
      "Ġperfect": 8549,
      "Ġ630": 8550,
      "Ġ1026": 8551,
      "Ġpedestri": 8552,
      "Ġsubscriber": 8553,
      "Ġ695": 8554,
      "Ġeighth": 8555,
      "Ġperjury": 8556,
      "Ġ052": 8557,
      "charge": 8558,
      "Ġnj": 8559,
      "Ġ672": 8560,
      "Ġvacation": 8561,
      "Ġcomputation": 8562,
      "gger": 8563,
      "Ġpeer": 8564,
      "Ġoptional": 8565,
      "Ġdemanded": 8566,
      "Ġpunished": 8567,
      "Ġgeneration": 8568,
      "eding": 8569,
      "ades": 8570,
      "Ġ687": 8571,
      "pi": 8572,
      "nett": 8573,
      "Ġwound": 8574,
      "Ġprosecute": 8575,
      "Ġrefunded": 8576,
      "Ġmt": 8577,
      "Ġanc": 8578,
      "Ġtrials": 8579,
      "lph": 8580,
      "Ġnominated": 8581,
      "Ġawareness": 8582,
      "Ġfd": 8583,
      "Ġ565": 8584,
      "Ġemissions": 8585,
      "Ġchi": 8586,
      "Ġ663": 8587,
      "Ġquotation": 8588,
      "Ġweapons": 8589,
      "Ġfrancis": 8590,
      "Ġncon": 8591,
      "Ġ715": 8592,
      "ried": 8593,
      "Ġbat": 8594,
      "Ġalley": 8595,
      "Ġ844": 8596,
      "Ġbreath": 8597,
      "Ġabsolutely": 8598,
      "Ġmas": 8599,
      "Ġhan": 8600,
      "Ġrevise": 8601,
      "glary": 8602,
      "Ġconsiderable": 8603,
      "Ġlargely": 8604,
      "tiguous": 8605,
      "Ġtas": 8606,
      "Ġmedication": 8607,
      "fs": 8608,
      "Ġexecuting": 8609,
      "cellaneous": 8610,
      "Ġspecifying": 8611,
      "Ġ650": 8612,
      "Ġburglary": 8613,
      "Ġreapp": 8614,
      "Ġconcurred": 8615,
      "Ġdistinguished": 8616,
      "incorporated": 8617,
      "Ġcounted": 8618,
      "Ġcompared": 8619,
      "Ġappropriately": 8620,
      "Ġlawrence": 8621,
      "Ġtransferor": 8622,
      "Ġenrolle": 8623,
      "Ġends": 8624,
      "Ġcomparison": 8625,
      "Ġpu": 8626,
      "Ġpossibly": 8627,
      "Ġdefects": 8628,
      "Ġmicro": 8629,
      "lie": 8630,
      "Ġaffects": 8631,
      "84": 8632,
      "Ġgarage": 8633,
      "Ġdelayed": 8634,
      "39": 8635,
      "Ġexplaining": 8636,
      "Ġelectronically": 8637,
      "Ġadmissions": 8638,
      "Ġtraum": 8639,
      "Ġ1016": 8640,
      "Ġapparatus": 8641,
      "Ġnass": 8642,
      "Ġclauses": 8643,
      "Ð»": 8644,
      "Ġ584": 8645,
      "govern": 8646,
      "Ġerected": 8647,
      "Ġexcuse": 8648,
      "Ġ1936": 8649,
      "Ġartific": 8650,
      "Ġmode": 8651,
      "Ġacknowledgment": 8652,
      "Ġdeclaring": 8653,
      "Ġadapt": 8654,
      "Ġstrictly": 8655,
      "Ġhit": 8656,
      "cks": 8657,
      "Ġ1934": 8658,
      "Ġdim": 8659,
      "Ġopposite": 8660,
      "Ġcarolina": 8661,
      "Ġpipeline": 8662,
      "Ġscholar": 8663,
      "Ġfederally": 8664,
      "Ġcruel": 8665,
      "Ġunincorporated": 8666,
      "Ġlicensees": 8667,
      "Ġdedicated": 8668,
      "Ġ577": 8669,
      "Ġbillion": 8670,
      "Ġdishon": 8671,
      "Ġabst": 8672,
      "Ġceases": 8673,
      "Ġ662": 8674,
      "Ġdisqualification": 8675,
      "Ġssa": 8676,
      "Ġenterprises": 8677,
      "Ġabut": 8678,
      "Ġrestraining": 8679,
      "Ġly": 8680,
      "Ġsea": 8681,
      "Ġwalker": 8682,
      "Ġopposition": 8683,
      "Ġcogn": 8684,
      "ÏĦ": 8685,
      "Ġroof": 8686,
      "ofar": 8687,
      "Ġinserting": 8688,
      "Ġhabeas": 8689,
      "Ġirrelevant": 8690,
      "Ġ722": 8691,
      "Ġquantities": 8692,
      "Ġreally": 8693,
      "Ġcurrency": 8694,
      "Ġ3166": 8695,
      "Ġentrance": 8696,
      "Ġmitch": 8697,
      "Ġclinic": 8698,
      "Ġlies": 8699,
      "Ġ713": 8700,
      "Ġdefam": 8701,
      "Ġencumbr": 8702,
      "Ġnich": 8703,
      "Ġresponding": 8704,
      "Ġconfidence": 8705,
      "Ġwheel": 8706,
      "Ġuncont": 8707,
      "Ġremote": 8708,
      "Ġworcester": 8709,
      "Ġtherewith": 8710,
      "Ġnreport": 8711,
      "rain": 8712,
      "Ġsle": 8713,
      "Ġqualifies": 8714,
      "Ġmiscellaneous": 8715,
      "Ġfranklin": 8716,
      "Ġ597": 8717,
      "Ġcareful": 8718,
      "Ġregulating": 8719,
      "Ġlas": 8720,
      "Ġpropriety": 8721,
      "Ġhtt": 8722,
      "Ġresponses": 8723,
      "Ġ576": 8724,
      "Ġ636": 8725,
      "Ġconsented": 8726,
      "Ġmond": 8727,
      "cyc": 8728,
      "Ġturner": 8729,
      "Ġkingdom": 8730,
      "Ġbias": 8731,
      "Ġholid": 8732,
      "Ġ668": 8733,
      "lements": 8734,
      "Ġgeorgia": 8735,
      "Ġcarefully": 8736,
      "Ġbarber": 8737,
      "Ġrelev": 8738,
      "Ġsequ": 8739,
      "Ġ684": 8740,
      "Ġash": 8741,
      "Ġaudited": 8742,
      "Ġalex": 8743,
      "Ġveterinary": 8744,
      "Ġassociates": 8745,
      "Ġmarkets": 8746,
      "Ġgord": 8747,
      "Ġaviation": 8748,
      "Ġharbor": 8749,
      "Ġton": 8750,
      "Ġblan": 8751,
      "Ġ659": 8752,
      "Ġvaluable": 8753,
      "Ġ634": 8754,
      "Ġportfol": 8755,
      "iques": 8756,
      "Ġnegotiable": 8757,
      "bell": 8758,
      "Ġroberts": 8759,
      "Ġsimult": 8760,
      "Ġsatisfies": 8761,
      "Ġunlawfully": 8762,
      "Ġpreventing": 8763,
      "oms": 8764,
      "aneously": 8765,
      "Ġnacc": 8766,
      "Ġ538": 8767,
      "Ġcable": 8768,
      "Ġraises": 8769,
      "ggs": 8770,
      "Ġslip": 8771,
      "utin": 8772,
      "Ġtransp": 8773,
      "Ġ728": 8774,
      "Ġ1927": 8775,
      "Ġdecrease": 8776,
      "Ġmale": 8777,
      "Ġdesires": 8778,
      "Ġsupervise": 8779,
      "attle": 8780,
      "Ġreciprocal": 8781,
      "Ġreconstruction": 8782,
      "Ġreclass": 8783,
      "Ġ2021": 8784,
      "Ġ1895": 8785,
      "Ġconfrontation": 8786,
      "Ġpresently": 8787,
      "Ġinsofar": 8788,
      "Ġcanv": 8789,
      "wards": 8790,
      "Ġ1019": 8791,
      "Ġeasements": 8792,
      "Ġunexpired": 8793,
      "Ġcath": 8794,
      "Ġ1901": 8795,
      "Ġdrinking": 8796,
      "Ġindemnification": 8797,
      "iler": 8798,
      "Ġlawyers": 8799,
      "Ġimposes": 8800,
      "Ġdeprive": 8801,
      "Ġupdate": 8802,
      "Ġsull": 8803,
      "Ġclearing": 8804,
      "town": 8805,
      "Ġcasino": 8806,
      "Ġlives": 8807,
      "Ġ007": 8808,
      "Ġtransporting": 8809,
      "Ġterritorial": 8810,
      "Ġnorthern": 8811,
      "Ġfabrics": 8812,
      "Ġyarn": 8813,
      "Ġ546": 8814,
      "Ġbroken": 8815,
      "Ġmessage": 8816,
      "Ġfeasible": 8817,
      "Ġmuse": 8818,
      "Ġnch": 8819,
      "Ġ589": 8820,
      "hen": 8821,
      "Ġfemale": 8822,
      "rations": 8823,
      "Ġfingerprints": 8824,
      "Ġbind": 8825,
      "Ġ673": 8826,
      "Ġmount": 8827,
      "Ġmitchell": 8828,
      "Ġ675": 8829,
      "Ġreop": 8830,
      "Ġforesee": 8831,
      "Ġflex": 8832,
      "Ġcompromise": 8833,
      "Ġdefraud": 8834,
      "Ġseventh": 8835,
      "uni": 8836,
      "Ġrelieve": 8837,
      "Ġregents": 8838,
      "Ġwarnings": 8839,
      "Ġtraveling": 8840,
      "Ġsess": 8841,
      "Ġrata": 8842,
      "Ġ1018": 8843,
      "trak": 8844,
      "Ġassistants": 8845,
      "Ġopposing": 8846,
      "Ġcycle": 8847,
      "Ġprivileged": 8848,
      "uities": 8849,
      "Ġdiction": 8850,
      "Ġtowns": 8851,
      "uli": 8852,
      "Ġdeduct": 8853,
      "Ġprere": 8854,
      "igration": 8855,
      "Ġlawsu": 8856,
      "Ġtreating": 8857,
      "Ġachieved": 8858,
      "Ġsafeguard": 8859,
      "Ġproff": 8860,
      "theast": 8861,
      "Ġexcise": 8862,
      "zen": 8863,
      "Ġpoor": 8864,
      "Ġnl": 8865,
      "Ġadvocate": 8866,
      "Ġital": 8867,
      "Ġcompuls": 8868,
      "Ġimports": 8869,
      "Ġconstitutionality": 8870,
      "Ġblind": 8871,
      "Ġintroduce": 8872,
      "Ġanticipation": 8873,
      "Ġaccreditation": 8874,
      "Ġ1906": 8875,
      "Ġwishes": 8876,
      "Ġexecutors": 8877,
      "Ġpipe": 8878,
      "Ġprinting": 8879,
      "Ġmontana": 8880,
      "Ġlos": 8881,
      "Ġ712": 8882,
      "Ġowning": 8883,
      "Ġcontiguous": 8884,
      "Ġtrigger": 8885,
      "Ġ549": 8886,
      "Ġfort": 8887,
      "Ġdirections": 8888,
      "Ġnrequ": 8889,
      "Ġwalk": 8890,
      "Ġ658": 8891,
      "Ġ723": 8892,
      "Ġobservations": 8893,
      "Ġ708": 8894,
      "Ġbrooks": 8895,
      "Ġlad": 8896,
      "Ġdrawing": 8897,
      "Ġpacific": 8898,
      "keeping": 8899,
      "Ġsalv": 8900,
      "Ġbudge": 8901,
[...]
