{
  "version": "1.0",
  "truncation": null,
  "padding": null,
  "added_tokens": [
    {
      "id": 0,
      "content": "<pad>",
      "single_word": false,
      "lstrip": false,
      "rstrip": false,
      "normalized": false,
      "special": true
    },
    {
      "id": 1,
      "content": "<s>",
      "single_word": false,
      "lstrip": false,
      "rstrip": false,
      "normalized": false,
      "special": true
    },
    {
      "id": 2,
      "content": "</s>",
      "single_word": false,
      "lstrip": false,
      "rstrip": false,
      "normalized": false,
      "special": true
    },
    {
      "id": 3,
      "content": "<unk>",
      "single_word": false,
      "lstrip": false,
      "rstrip": false,
      "normalized": false,
      "special": true
    },
    {
      "id": 4,
      "content": "<mask>",
      "single_word": false,
      "lstrip": false,
      "rstrip": false,
      "normalized": false,
      "special": true
    }
  ],
  "normalizer": {
    "type": "Sequence",
    "normalizers": [
      {
        "type": "NFKD"
      },
      {
        "type": "BertNormalizer",
        "clean_text": true,
        "handle_chinese_chars": true,
        "strip_accents": null,
        "lowercase": true
      }
    ]
  },
  "pre_tokenizer": {
    "type": "Sequence",
    "pretokenizers": [
      {
        "type": "BertPreTokenizer"
      },
      {
        "type": "ByteLevel",
        "add_prefix_space": true,
        "trim_offsets": true,
        "use_regex": true
      }
    ]
  },
  "post_processor": {
    "type": "RobertaProcessing",
    "sep": [
      "</s>",
      2
    ],
    "cls": [
      "<s>",
      1
    ],
    "trim_offsets": true,
    "add_prefix_space": true
  },
  "decoder": {
    "type": "ByteLevel",
    "add_prefix_space": true,
    "trim_offsets": true,
    "use_regex": true
  },
  "model": {
    "type": "BPE",
    "dropout": null,
    "unk_token": "<unk>",
    "continuing_subword_prefix": null,
    "end_of_word_suffix": null,
    "fuse_unk": false,
    "vocab": {
      "<pad>": 0,
      "<s>": 1,
      "</s>": 2,
      "<unk>": 3,
      "<mask>": 4,
      "!": 5,
      "\"": 6,
      "#": 7,
      "$": 8,
      "%": 9,
      "&": 10,
      "'": 11,
      "(": 12,
      ")": 13,
      "*": 14,
      "+": 15,
      ",": 16,
      "-": 17,
      ".": 18,
      "/": 19,
      "0": 20,
      "1": 21,
      "2": 22,
      "3": 23,
      "4": 24,
      "5": 25,
      "6": 26,
      "7": 27,
      "8": 28,
      "9": 29,
      ":": 30,
      ";": 31,
      "<": 32,
      "=": 33,
      ">": 34,
      "?": 35,
      "@": 36,
      "[": 37,
      "\\": 38,
      "]": 39,
      "^": 40,
      "_": 41,
      "`": 42,
      "a": 43,
      "b": 44,
      "c": 45,
      "d": 46,
      "e": 47,
      "f": 48,
      "g": 49,
      "h": 50,
      "i": 51,
      "j": 52,
      "k": 53,
      "l": 54,
      "m": 55,
      "n": 56,
      "o": 57,
      "p": 58,
      "q": 59,
      "r": 60,
      "s": 61,
      "t": 62,
      "u": 63,
      "v": 64,
      "w": 65,
      "x": 66,
      "y": 67,
      "z": 68,
      "{": 69,
      "|": 70,
      "}": 71,
      "~": 72,
      "¡": 73,
      "¢": 74,
      "£": 75,
      "¤": 76,
      "¥": 77,
      "¦": 78,
      "§": 79,
      "¨": 80,
      "©": 81,
      "ª": 82,
      "«": 83,
      "¬": 84,
      "®": 85,
      "¯": 86,
      "°": 87,
      "±": 88,
      "²": 89,
      "³": 90,
      "´": 91,
      "µ": 92,
      "¶": 93,
      "·": 94,
      "¸": 95,
      "¹": 96,
      "º": 97,
      "»": 98,
      "¼": 99,
      "½": 100,
      "¾": 101,
      "¿": 102,
      "Â": 103,
      "Ã": 104,
      "Ä": 105,
      "Å": 106,
      "Æ": 107,
      "É": 108,
      "Ê": 109,
      "Ë": 110,
      "Î": 111,
      "Ï": 112,
      "Ð": 113,
      "Ñ": 114,
      "Ò": 115,
      "Ó": 116,
      "Õ": 117,
      "Ö": 118,
      "×": 119,
      "Ø": 120,
      "Ù": 121,
      "Ú": 122,
      "Û": 123,
      "Ü": 124,
      "ß": 125,
      "à": 126,
      "á": 127,
      "â": 128,
      "ã": 129,
      "ä": 130,
      "å": 131,
      "æ": 132,
      "ç": 133,
      "è": 134,
      "é": 135,
      "ê": 136,
      "ï": 137,
      "ð": 138,
      "Ġ": 139,
      "Ģ": 140,
      "ģ": 141,
      "Ĥ": 142,
      "ĥ": 143,
      "Ħ": 144,
      "ħ": 145,
      "Ĩ": 146,
      "ĩ": 147,
      "Ī": 148,
      "ī": 149,
      "Ĭ": 150,
      "ĭ": 151,
      "Į": 152,
      "į": 153,
      "İ": 154,
      "ı": 155,
      "Ĳ": 156,
      "ĳ": 157,
      "Ĵ": 158,
      "ĵ": 159,
      "Ķ": 160,
      "ķ": 161,
      "ĸ": 162,
      "Ĺ": 163,
      "ĺ": 164,
      "Ļ": 165,
      "ļ": 166,
      "Ľ": 167,
      "ľ": 168,
      "Ŀ": 169,
      "ŀ": 170,
      "Ł": 171,
      "ł": 172,
      "Ń": 173,
      "se": 174,
      "Ġk": 175,
      "ta": 176,
      "te": 177,
      "Ġe": 178,
      "tu": 179,
      "mi": 180,
      "va": 181,
      "le": 182,
      "Ġ,": 183,
      "Ġ.": 184,
      "Ġa": 185,
      "ja": 186,
      "li": 187,
      "us": 188,
      "Ġko": 189,
      "ma": 190,
      "da": 191,
      "ri": 192,
      "Ġo": 193,
      "Ġp": 194,
      "si": 195,
      "ti": 196,
      "de": 197,
      "oo": 198,
      "ne": 199,
      "Ġ2": 200,
      "Ġja": 201,
      "Ġ1": 202,
      "me": 203,
      "al": 204,
      "ni": 205,
      "use": 206,
      "Ġva": 207,
      "Ġv": 208,
      "Ġkoh": 209,
      "Ġs": 210,
      "as": 211,
      "oi": 212,
      "di": 213,
      "re": 214,
      "tud": 215,
      "st": 216,
      "Ġ)": 217,
      "Ġse": 218,
      "Ġâ": 219,
      "ga": 220,
      "ks": 221,
      "ĠâĢ": 222,
      "ra": 223,
      "in": 224,
      "Ġl": 225,
      "Ġ(": 226,
      "uu": 227,
      "Ġka": 228,
      "Ġma": 229,
      "Ġte": 230,
      "Ġmi": 231,
      "Ġt": 232,
      "gu": 233,
      "mise": 234,
      "Ġei": 235,
      "ku": 236,
      "en": 237,
      "Ġta": 238,
      "Ġn": 239,
      "gi": 240,
      "uh": 241,
      "sta": 242,
      "alda": 243,
      "ot": 244,
      "Ġ-": 245,
      "Ġ20": 246,
      "ko": 247,
      "ar": 248,
      "lt": 249,
      "Ġh": 250,
      "Ġkohalda": 251,
      "Ġet": 252,
      "es": 253,
      "Ġar": 254,
      "vi": 255,
      "Ġ/": 256,
      "Ġm": 257,
      "id": 258,
      "Ġon": 259,
      "lle": 260,
      "Ġvoi": 261,
      "Ġkohaldata": 262,
      "Ġ3": 263,
      "Ġli": 264,
      "la": 265,
      "Ġku": 266,
      "Ġ0": 267,
      "ik": 268,
      "Ġi": 269,
      "an": 270,
      "mis": 271,
      "Ġ_": 272,
      "ge": 273,
      "Ġeu": 274,
      "pa": 275,
      "Ġc": 276,
      "ke": 277,
      "Ġtu": 278,
      "tik": 279,
      "Ġsa": 280,
      "kse": 281,
      "ol": 282,
      "eri": 283,
      "Ġ|": 284,
      "ĠâĢĵ": 285,
      "na": 286,
      "ud": 287,
      "sa": 288,
      "Ġ:": 289,
      "or": 290,
      "Ġni": 291,
      "Ġu": 292,
      "Ġ5": 293,
      "tuse": 294,
      "dus": 295,
      "Ġ4": 296,
      "uta": 297,
      "Ġartik": 298,
      "el": 299,
      "ou": 300,
      "ts": 301,
      "ii": 302,
      "vad": 303,
      "Ġj": 304,
      "kti": 305,
      "tus": 306,
      "ki": 307,
      "ng": 308,
      "tsi": 309,
      "Ġsi": 310,
      "lise": 311,
      "Ġesi": 312,
      "oh": 313,
      "Ġal": 314,
      "Ġkui": 315,
      "Ġtoo": 316,
      "Ġ200": 317,
      "Ġeur": 318,
      "Ġartikli": 319,
      "Ġmuu": 320,
      "et": 321,
      "on": 322,
      "gus": 323,
      "un": 324,
      "Ġselle": 325,
      "asta": 326,
      "ole": 327,
      "ul": 328,
      "Ġas": 329,
      "lus": 330,
      "Ġre": 331,
      "Ġme": 332,
      "Ġkohtu": 333,
      "tatud": 334,
      "Ġ9": 335,
      "Ġri": 336,
      "Ġ6": 337,
      "mine": 338,
      "tse": 339,
      "Ġnou": 340,
      "ba": 341,
      "he": 342,
      "Ġra": 343,
      "is": 344,
      "Ġmis": 345,
      "ingu": 346,
      "lu": 347,
      "Ġuh": 348,
      "Ġ8": 349,
      "nda": 350,
      "duse": 351,
      "Ġne": 352,
      "Ġ7": 353,
      "Ġf": 354,
      "Ġb": 355,
      "Ġ201": 356,
      "Ġoi": 357,
      "tes": 358,
      "igi": 359,
      "takse": 360,
      "Ġkas": 361,
      "Ġpoh": 362,
      "tte": 363,
      "Ġla": 364,
      "du": 365,
      "Ġole": 366,
      "Ġpa": 367,
      "enda": 368,
      "ivi": 369,
      "Ġloi": 370,
      "Ġr": 371,
      "ka": 372,
      "Ġmaar": 373,
      "Ġmille": 374,
      "stu": 375,
      "Ġle": 376,
      "tsioo": 377,
      "Ġaasta": 378,
      "Ġke": 379,
      "oopa": 380,
      "Ġna": 381,
      "koh": 382,
      "00": 383,
      "idi": 384,
      "liku": 385,
      "Ġpe": 386,
      "Ġeuroopa": 387,
      "Ġning": 388,
      "ste": 389,
      "misj": 390,
      "mist": 391,
      "Ġtule": 392,
      "ve": 393,
      "des": 394,
      "lik": 395,
      "Ġkomisj": 396,
      "Ġ;": 397,
      "Ġpun": 398,
      "Ġtea": 399,
      "kt": 400,
      "Ġval": 401,
      "oni": 402,
      "mes": 403,
      "uste": 404,
      "Ġette": 405,
      "Ġan": 406,
      "Ġkon": 407,
      "Ġvasta": 408,
      "Ġots": 409,
      "nud": 410,
      "Ġoigus": 411,
      "Ġvastu": 412,
      "Ġliik": 413,
      "bi": 414,
      "ded": 415,
      "be": 416,
      "Ġdi": 417,
      "tsiooni": 418,
      "luse": 419,
      "Ġ10": 420,
      "vate": 421,
      "ris": 422,
      "ro": 423,
      "Ġsee": 424,
      "ru": 425,
      "ide": 426,
      "ĠâĢŀ": 427,
      "Ġmitte": 428,
      "Ġ19": 429,
      "ust": 430,
      "Ġkoo": 431,
      "Ġpea": 432,
      "Ġnr": 433,
      "Ġin": 434,
      "Ġmaaruse": 435,
      "mesri": 436,
      "Ġasja": 437,
      "ndi": 438,
      "Ġtai": 439,
      "Ġliikmesri": 440,
      "Ġsaa": 441,
      "Ġkor": 442,
      "tin": 443,
      "miseks": 444,
      "pingu": 445,
      "mata": 446,
      "Ġvii": 447,
      "pe": 448,
      "Ġkre": 449,
      "Ġha": 450,
      "oe": 451,
      "ha": 452,
      "selt": 453,
      "Ġees": 454,
      "Ġkohta": 455,
      "Ġeri": 456,
      "ir": 457,
      "Ġde": 458,
      "usta": 459,
      "Ġoma": 460,
      "Ġeel": 461,
      "kku": 462,
      "diidi": 463,
      "Ġkrediidi": 464,
      "tle": 465,
      "val": 466,
      "Ġkasuta": 467,
      "usi": 468,
      "tuses": 469,
      "Ġ%": 470,
      "Ġari": 471,
      "Ġmakse": 472,
      "testa": 473,
      "Ġve": 474,
      "Ġule": 475,
      "ara": 476,
      "Ġesita": 477,
      "rgi": 478,
      "Ġpii": 479,
      "esole": 480,
      "Ġkin": 481,
      "rekti": 482,
      "Ġsise": 483,
      "ast": 484,
      "ots": 485,
      "ju": 486,
      "Ġ12": 487,
      "Ġkaesole": 488,
      "Ġmuud": 489,
      "Ġpohi": 490,
      "idu": 491,
      "Ġtaga": 492,
      "poo": 493,
      "Ġariuh": 494,
      "Ġpunkti": 495,
      "net": 496,
      "enduse": 497,
      "Ġdirekti": 498,
      "nde": 499,
      "Ġmeet": 500,
      "ĠâĢĶ": 501,
      "Ġsel": 502,
      "Ġ11": 503,
      "Ġkohus": 504,
      "Ġall": 505,
      "Ġnime": 506,
      "bri": 507,
      "uhul": 508,
      "Ġloike": 509,
      "tele": 510,
      "vot": 511,
      "Ġtege": 512,
      "kogu": 513,
      "olli": 514,
      "Ġliidu": 515,
      "Ġsuu": 516,
      "Ġmaksevi": 517,
      "Ġmakseviivi": 518,
      "Ġkuu": 519,
      "Ġkai": 520,
      "Ġkau": 521,
      "Ġlisa": 522,
      "Ġd": 523,
      "Ġmakseviivituses": 524,
      "Ġkrediidiris": 525,
      "Ġkomisjon": 526,
      "kon": 527,
      "Ġmitteole": 528,
      "Ġseo": 529,
      "rg": 530,
      "lised": 531,
      "valt": 532,
      "Ġpoo": 533,
      "Ġos": 534,
      "por": 535,
      "Ġtah": 536,
      "Ġosa": 537,
      "Ġkrediidirisk": 538,
      "Ġkeh": 539,
      "Ġnende": 540,
      "mu": 541,
      "Ġpuu": 542,
      "Ġpar": 543,
      "Ġkes": 544,
      "ise": 545,
      "Ġvalja": 546,
      "Ġlo": 547,
      "liste": 548,
      "Ġ]": 549,
      "Ġ00": 550,
      "Ġ[": 551,
      "ĠâĢĲ": 552,
      "rja": 553,
      "Ġkaesoleva": 554,
      "Ġdirektiivi": 555,
      "Ġg": 556,
      "po": 557,
      "Ġtuleb": 558,
      "usel": 559,
      "Ġhin": 560,
      "Ġmaara": 561,
      "um": 562,
      "Ġarv": 563,
      "ĠâĢĿ": 564,
      "Ġlepingu": 565,
      "used": 566,
      "Ġnoukogu": 567,
      "Ġand": 568,
      "lma": 569,
      "Ġtoi": 570,
      "Ġisi": 571,
      "Ġkomisjoni": 572,
      "Ġvahe": 573,
      "to": 574,
      "Ġvaid": 575,
      "Ġto": 576,
      "Ġ13": 577,
      "Ġkoha": 578,
      "Ġ15": 579,
      "line": 580,
      "Ġul": 581,
      "Ġvoima": 582,
      "Ġpohj": 583,
      "kel": 584,
      "Ġmil": 585,
      "Ġmar": 586,
      "taja": 587,
      "Ġsuh": 588,
      "ksu": 589,
      "Ġnouded": 590,
      "Ġvali": 591,
      "vus": 592,
      "su": 593,
      "gute": 594,
      "ran": 595,
      "pi": 596,
      "misel": 597,
      "Ġotsuse": 598,
      "Ġvaar": 599,
      "Ġlk": 600,
      "10": 601,
      "Ġvot": 602,
      "olu": 603,
      "tava": 604,
      "Ġvke": 605,
      "endus": 606,
      "Ġariuhingu": 607,
      "men": 608,
      "guse": 609,
      "Ġregu": 610,
      "asja": 611,
      "eriu": 612,
      "ine": 613,
      "Ġliikmesriigi": 614,
      "ikide": 615,
      "Ġuu": 616,
      "Ġtaot": 617,
      "Ġkasi": 618,
      "tingi": 619,
      "Ġasu": 620,
      "ses": 621,
      "ĠâĢľ": 622,
      "tuste": 623,
      "hi": 624,
      "Ġmitteolev": 625,
      "od": 626,
      "tr": 627,
      "mete": 628,
      "Ġjarg": 629,
      "Ġpunkt": 630,
      "Ġvoib": 631,
      "leeri": 632,
      "alu": 633,
      "Ġ14": 634,
      "at": 635,
      "Ġkoos": 636,
      "otsuse": 637,
      "Ġ50": 638,
      "asu": 639,
      "Ġteh": 640,
      "Ġartikkel": 641,
      "Ġmo": 642,
      "Ġreguleeri": 643,
      "Ġhu": 644,
      "Ġsatesta": 645,
      "kor": 646,
      "Ġ16": 647,
      "kan": 648,
      "tingim": 649,
      "Ġvaja": 650,
      "sed": 651,
      "Ġseda": 652,
      "Ġeurot": 653,
      "las": 654,
      "endi": 655,
      "tee": 656,
      "Ġsea": 657,
      "Ġlu": 658,
      "Ġrah": 659,
      "Ġriigi": 660,
      "Ġ17": 661,
      "Ġame": 662,
      "Ġris": 663,
      "Ġpro": 664,
      "Ġkind": 665,
      "Ġvah": 666,
      "oma": 667,
      "Ġalusel": 668,
      "rei": 669,
      "ral": 670,
      "Ġjuu": 671,
      "Ġisiku": 672,
      "too": 673,
      "Ġmida": 674,
      "Ġno": 675,
      "20": 676,
      "tis": 677,
      "ksi": 678,
      "Ġmenet": 679,
      "ndus": 680,
      "Ġtoot": 681,
      "Ġsuhtes": 682,
      "jate": 683,
      "mendi": 684,
      "Ġesime": 685,
      "Ġkasitle": 686,
      "joni": 687,
      "fi": 688,
      "Ġrak": 689,
      "Ġvastas": 690,
      "je": 691,
      "Ġesitatud": 692,
      "Ġvor": 693,
      "iv": 694,
      "Ġhage": 695,
      "il": 696,
      "Ġuks": 697,
      "Ġmiljoni": 698,
      "Ġ199": 699,
      "Ġap": 700,
      "Ġkohaselt": 701,
      "Ġkone": 702,
      "vuse": 703,
      "mar": 704,
      "poole": 705,
      "med": 706,
      "Ġpuhul": 707,
      "Ġrei": 708,
      "Ġ18": 709,
      "Ġ30": 710,
      "Ġsis": 711,
      "reitin": 712,
      "reitingute": 713,
      "Ġsisereitingute": 714,
      "ing": 715,
      "irb": 716,
      "Ġkontr": 717,
      "Ġmiljonit": 718,
      "nn": 719,
      "tpa": 720,
      "Ġuhenduse": 721,
      "Ġala": 722,
      "Ġnimetatud": 723,
      "Ġvaidlus": 724,
      "Ġter": 725,
      "Ġhageja": 726,
      "Ġee": 727,
      "Ġel": 728,
      "Ġuld": 729,
      "tpab": 730,
      "Ġ29": 731,
      "Ġteise": 732,
      "Ġsama": 733,
      "Ġseotud": 734,
      "Ġotsus": 735,
      "Ġeda": 736,
      "Ġsoo": 737,
      "Ġvaartpab": 738,
      "Ġ25": 739,
      "mbri": 740,
      "Ġ21": 741,
      "koha": 742,
      "ed": 743,
      "Ġelt": 744,
      "Ġmuude": 745,
      "Ġosuta": 746,
      "eb": 747,
      "tide": 748,
      "ustatud": 749,
      "eva": 750,
      "usim": 751,
      "Ġjare": 752,
      "Ġriski": 753,
      "ting": 754,
      "res": 755,
      "riik": 756,
      "ori": 757,
      "Ġtingim": 758,
      "ch": 759,
      "and": 760,
      "Ġsatestatud": 761,
      "Ġsiis": 762,
      "rbe": 763,
      "kirja": 764,
      "Ġaja": 765,
      "tab": 766,
      "Ġolu": 767,
      "Ġ=": 768,
      "emi": 769,
      "tamise": 770,
      "Ġvastavalt": 771,
      "Ġoli": 772,
      "Ġkehtesta": 773,
      "ala": 774,
      "tused": 775,
      "pordi": 776,
      "Ġvastaspoole": 777,
      "jandus": 778,
      "Ġkir": 779,
      "lekan": 780,
      "nis": 781,
      "teeri": 782,
      "Ġkontrolli": 783,
      "datud": 784,
      "vahe": 785,
      "likult": 786,
      "Ġvaba": 787,
      "pool": 788,
      "Ġjuh": 789,
      "lli": 790,
      "Ġfin": 791,
      "ona": 792,
      "oli": 793,
      "Ġkah": 794,
      "Ġarves": 795,
      "Ġhe": 796,
      "Ġreguleerimata": 797,
      "Ġkusim": 798,
      "Ġ31": 799,
      "it": 800,
      "kes": 801,
      "rs": 802,
      "lekanded": 803,
      "Ġvaartpaberiu": 804,
      "Ġvaartpaberiulekanded": 805,
      "meet": 806,
      "aal": 807,
      "Ġettevot": 808,
      "Ġkuulu": 809,
      "starbe": 810,
      "iki": 811,
      "Ġim": 812,
      "adi": 813,
      "Ġ23": 814,
      "Ġreiting": 815,
      "Ġlah": 816,
      "Ġtoe": 817,
      "Ġmaks": 818,
      "Ġ26": 819,
      "tsioonid": 820,
      "Ġ28": 821,
      "Ġasjaoma": 822,
      "Ġmillega": 823,
      "Ġvked": 824,
      "Ġen": 825,
      "maa": 826,
      "tega": 827,
      "tavate": 828,
      "Ġnagu": 829,
      "isu": 830,
      "Ġ90": 831,
      "Ġarvesse": 832,
      "Ġloo": 833,
      "Ġfinan": 834,
      "Ġkindla": 835,
      "Ġ22": 836,
      "Ġw": 837,
      "Ġarva": 838,
      "os": 839,
      "ida": 840,
      "tust": 841,
      "liselt": 842,
      "otstarbe": 843,
      "tavad": 844,
      "konna": 845,
      "Ġjuhul": 846,
      "jad": 847,
      "Ġkokku": 848,
      "Ġkoneal": 849,
      "Ġkauba": 850,
      "ad": 851,
      "pane": 852,
      "Ġhuvi": 853,
      "ngu": 854,
      "margi": 855,
      "riigi": 856,
      "Ġolema": 857,
      "Ġ<": 858,
      "del": 859,
      "Ġariuhingute": 860,
      "Ġteen": 861,
      "posi": 862,
      "Ġsol": 863,
      "test": 864,
      "Ġ24": 865,
      "tada": 866,
      "Ġava": 867,
      "Ġkogu": 868,
      "ari": 869,
      "eritud": 870,
      "Ġloige": 871,
      "Ġeriotstarbe": 872,
      "ini": 873,
      "Ġnah": 874,
      "gra": 875,
      "Ġtema": 876,
      "osa": 877,
      "sid": 878,
      "Ġraa": 879,
      "Ġnii": 880,
      "nes": 881,
      "maksu": 882,
      "Ġtolli": 883,
      "Ġnoue": 884,
      "like": 885,
      "Ġjao": 886,
      "Ġmoo": 887,
      "misega": 888,
      "Ġkesk": 889,
      "neb": 890,
      "Ġkindlaks": 891,
      "Ġkolma": 892,
      "Ġlop": 893,
      "Ġpoolt": 894,
      "list": 895,
      "Ġlabi": 896,
      "Ġ27": 897,
      "kohtu": 898,
      "Ġriskiposi": 899,
      "Ġdo": 900,
      "tlus": 901,
      "Ġkaitse": 902,
      "Ġneed": 903,
      "Ġkohtuasja": 904,
      "menet": 905,
      "ormi": 906,
      "rite": 907,
      "Ġkorral": 908,
      "vali": 909,
      "Ġjat": 910,
      "ite": 911,
      "Ġtoote": 912,
      "Ġtar": 913,
      "Ġpeab": 914,
      "Ġol": 915,
      "lda": 916,
      "Ġeelotsuse": 917,
      "Ġau": 918,
      "mo": 919,
      "Ġtol": 920,
      "ĠÂ": 921,
      "Ġrikku": 922,
      "ber": 923,
      "sel": 924,
      "Ġvt": 925,
      "Ġmeetod": 926,
      "ani": 927,
      "Ġettepane": 928,
      "Ġmoi": 929,
      "Ġpade": 930,
      "dega": 931,
      "Ġkuni": 932,
      "Ġpr": 933,
      "Ġloikes": 934,
      "kohus": 935,
      "Ġjoo": 936,
      "ottu": 937,
      "Ġriskipositsioonid": 938,
      "Ġx": 939,
      "Ġkohtuots": 940,
      "Ġuhe": 941,
      "dele": 942,
      "akti": 943,
      "kus": 944,
      "Ġparast": 945,
      "malt": 946,
      "dud": 947,
      "asi": 948,
      "san": 949,
      "uri": 950,
      "Ġtaiustatud": 951,
      "Ġliikmesriikide": 952,
      "ika": 953,
      "Ġii": 954,
      "Ġairb": 955,
      "Ġabi": 956,
      "Ġuuri": 957,
      "Ġseoses": 958,
      "Ġhol": 959,
      "stada": 960,
      "umma": 961,
      "Ġsu": 962,
      "Ġmaarus": 963,
      "vaid": 964,
      "Ġpari": 965,
      "Ġhinda": 966,
      "dest": 967,
      "tika": 968,
      "Ġoiguse": 969,
      "Ġkuna": 970,
      "Ġ2009": 971,
      "Ġeks": 972,
      "Ġpunktis": 973,
      "aldus": 974,
      "umi": 975,
      "Ġarve": 976,
      "Ġfinants": 977,
      "Ġsta": 978,
      "taot": 979,
      "vaar": 980,
      "endada": 981,
      "nd": 982,
      "Ġoh": 983,
      "Ġkoosko": 984,
      "usteemi": 985,
      "Ġeriotstarbelised": 986,
      "lepingu": 987,
      "Ġeesmar": 988,
      "likud": 989,
      "Ġregi": 990,
      "ktori": 991,
      "Ġariuhing": 992,
      "lo": 993,
      "duta": 994,
      "Ġ2006": 995,
      "tsioon": 996,
      "Ġkolmanda": 997,
      "ella": 998,
      "maar": 999,
      "Ġparla": 1000,
      "vo": 1001,
      "ci": 1002,
      "ves": 1003,
      "statud": 1004,
      "ali": 1005,
      "Ġmenetlus": 1006,
      "gas": 1007,
      "Ġesimese": 1008,
      "oidu": 1009,
      "Ġteha": 1010,
      "tav": 1011,
      "Ġeest": 1012,
      "Ġco": 1013,
      "Ġain": 1014,
      "ntsi": 1015,
      "tel": 1016,
      "kre": 1017,
      "juta": 1018,
      "Ġkinni": 1019,
      "kul": 1020,
      "40": 1021,
      "ter": 1022,
      "rak": 1023,
      "30": 1024,
      "Ġ40": 1025,
      "kla": 1026,
      "Ġru": 1027,
      "Ġkohtuotsus": 1028,
      "Ġpuuduta": 1029,
      "Ġlii": 1030,
      "Ġluba": 1031,
      "Ġseega": 1032,
      "Ġaval": 1033,
      "Ġex": 1034,
      "er": 1035,
      "tion": 1036,
      "21": 1037,
      "Ġst": 1038,
      "Ġrakenda": 1039,
      "Ġkehti": 1040,
      "Ġsuur": 1041,
      "Ġct": 1042,
      "oodi": 1043,
      "matu": 1044,
      "meid": 1045,
      "mp": 1046,
      "vat": 1047,
      "Ġvoe": 1048,
      "Ġ2004": 1049,
      "Ġapella": 1050,
      "Ġseal": 1051,
      "terja": 1052,
      "Ġiga": 1053,
      "Ġtur": 1054,
      "Ġselles": 1055,
      "Ġtun": 1056,
      "Ġ+": 1057,
      "Ġtolg": 1058,
      "tise": 1059,
      "Ġ2013": 1060,
      "Ġosas": 1061,
      "Ġvaidlustatud": 1062,
      "Ġartiklis": 1063,
      "Ġtoode": 1064,
      "Ġkoda": 1065,
      "Ġmu": 1066,
      "suse": 1067,
      "Ġpiir": 1068,
      "Ġele": 1069,
      "Ġesinda": 1070,
      "Ġtaotle": 1071,
      "Ġ000": 1072,
      "Ġameti": 1073,
      "sti": 1074,
      "ustu": 1075,
      "Ġdoku": 1076,
      "menetluse": 1077,
      "koi": 1078,
      "Ġ01": 1079,
      "Ġasjaolu": 1080,
      "Ġtait": 1081,
      "Ġnahtud": 1082,
      "Ġregist": 1083,
      "Ġosutatud": 1084,
      "mb": 1085,
      "Ġoleks": 1086,
      "Ġkohtuasjas": 1087,
      "Ġ2008": 1088,
      "oigus": 1089,
      "Ġmajandus": 1090,
      "Ġkul": 1091,
      "Ġseisu": 1092,
      "kuse": 1093,
      "Ġtagasi": 1094,
      "Ġeelotsusetaot": 1095,
      "Ġmaksu": 1096,
      "Ġeespool": 1097,
      "misest": 1098,
      "lep": 1099,
      "sp": 1100,
      "nou": 1101,
      "Ġvs": 1102,
      "maks": 1103,
      "Ġkaas": 1104,
      "Ġjo": 1105,
      "Ġsellest": 1106,
      "Ġarvesta": 1107,
      "50": 1108,
      "Ġsuure": 1109,
      "Ġparlamendi": 1110,
      "Ġmitteolevad": 1111,
      "stoo": 1112,
      "Ġ100": 1113,
      "ooni": 1114,
      "normi": 1115,
      "Ġtulene": 1116,
      "Ġ39": 1117,
      "hin": 1118,
      "Ġmenetluse": 1119,
      "nt": 1120,
      "Ġesitanud": 1121,
      "Ġainu": 1122,
      "Ġtoh": 1123,
      "Ġkooskolas": 1124,
      "koige": 1125,
      "Ġeelkoige": 1126,
      "Ġ2011": 1127,
      "ps": 1128,
      "Ġviidatud": 1129,
      "Ġkeel": 1130,
      "Ġtoimi": 1131,
      "kin": 1132,
      "ulgas": 1133,
      "Ġsellise": 1134,
      "Ġtaotluse": 1135,
      "Ġenne": 1136,
      "ur": 1137,
      "Ġ2003": 1138,
      "vasta": 1139,
      "Ġholma": 1140,
      "isi": 1141,
      "Ġhagi": 1142,
      "Ġdetse": 1143,
      "ce": 1144,
      "Ġor": 1145,
      "Ġkonealuse": 1146,
      "Ġ2014": 1147,
      "Ġase": 1148,
      "Ġmarki": 1149,
      "Ġparit": 1150,
      "eg": 1151,
      "Ġpol": 1152,
      "Ġkasu": 1153,
      "Ġ2007": 1154,
      "ĠÂ§": 1155,
      "Ġera": 1156,
      "Ġjooks": 1157,
      "Ġprot": 1158,
      "Ġtee": 1159,
      "niku": 1160,
      "alt": 1161,
      "vah": 1162,
      "Ġpiira": 1163,
      "likku": 1164,
      "fitse": 1165,
      "end": 1166,
      "Ġuksnes": 1167,
      "Ġtuhi": 1168,
      "ksa": 1169,
      "Ġjargmise": 1170,
      "Ġvaide": 1171,
      "ven": 1172,
      "Ġ38": 1173,
      "Ġkelle": 1174,
      "ina": 1175,
      "Ġ32": 1176,
      "reeri": 1177,
      "tsus": 1178,
      "Ġ010": 1179,
      "Ġamet": 1180,
      "mot": 1181,
      "Ġmargi": 1182,
      "Ġkohaldatakse": 1183,
      "ria": 1184,
      "Ġmilles": 1185,
      "Ġof": 1186,
      "Ġsisalda": 1187,
      "Ġek": 1188,
      "enou": 1189,
      "Ġjooksul": 1190,
      "teen": 1191,
      "vaba": 1192,
      "enduses": 1193,
      "vesteeri": 1194,
      "Ġkava": 1195,
      "jel": 1196,
      "Ġkoik": 1197,
      "tsuse": 1198,
      "gani": 1199,
      "Ġsiseriik": 1200,
      "Ġalla": 1201,
      "no": 1202,
      "Ġkohtuotsuse": 1203,
      "Ġimpordi": 1204,
      "Ġvottes": 1205,
      "Ġ33": 1206,
      "Ġkus": 1207,
      "andus": 1208,
      "Ġhaldus": 1209,
      "Ġvahemalt": 1210,
      "misele": 1211,
      "lis": 1212,
      "Ġolukor": 1213,
      "ab": 1214,
      "Ġ2012": 1215,
      "Ġturu": 1216,
      "Ġtootaja": 1217,
      "11": 1218,
      "enouded": 1219,
      "jal": 1220,
      "Ġemu": 1221,
      "lm": 1222,
      "Ġjaenouded": 1223,
      "Ġlis": 1224,
      "nnu": 1225,
      "maara": 1226,
      "Ġare": 1227,
      "Ġneid": 1228,
      "Ġ37": 1229,
      "Ġ36": 1230,
      "Ġvara": 1231,
      "ht": 1232,
      "Ġ34": 1233,
      "Ġju": 1234,
      "ili": 1235,
      "Ġtuu": 1236,
      "saa": 1237,
      "Ġtunni": 1238,
      "Ġ35": 1239,
      "Ġpohjenda": 1240,
      "Ġerine": 1241,
      "Ġsumma": 1242,
      "tusi": 1243,
      "deid": 1244,
      "Ġainult": 1245,
      "Ġ2005": 1246,
      "eriumi": 1247,
      "Ġaru": 1248,
      "gram": 1249,
      "Ġtulem": 1250,
      "Ġsate": 1251,
      "Ġinvesteeri": 1252,
      "Ġise": 1253,
      "Ġdetsembri": 1254,
      "Ġvoimalda": 1255,
      "otsi": 1256,
      "Ġkonku": 1257,
      "kai": 1258,
      "qu": 1259,
      "Ġsatte": 1260,
      "Ġkahju": 1261,
      "ist": 1262,
      "ment": 1263,
      "pro": 1264,
      "teks": 1265,
      "Ġ2001": 1266,
      "Ġlisaks": 1267,
      "Ġteabe": 1268,
      "Ġ>": 1269,
      "Ġoigusakti": 1270,
      "Ġmaterja": 1271,
      "ĠâĢĻ": 1272,
      "Ġtervi": 1273,
      "raa": 1274,
      "Ġvi": 1275,
      "nas": 1276,
      "Ġmoju": 1277,
      "90": 1278,
      "Ġettepaneku": 1279,
      "Ġavalda": 1280,
      "Ġhinna": 1281,
      "seid": 1282,
      "Ġotsusta": 1283,
      "vaa": 1284,
      "Ġkg": 1285,
      "Ġpuudu": 1286,
      "Ġtuleks": 1287,
      "Ġvotta": 1288,
      "Ġarvestades": 1289,
      "Ġge": 1290,
      "Ġettevotja": 1291,
      "Ġosale": 1292,
      "Ġrahvus": 1293,
      "anu": 1294,
      "set": 1295,
      "Ġelekt": 1296,
      "porti": 1297,
      "Ġad": 1298,
      "Ġkoostoo": 1299,
      "voi": 1300,
      "Ġtollimaksu": 1301,
      "dlus": 1302,
      "86": 1303,
      "ca": 1304,
      "ssi": 1305,
      "spidi": 1306,
      "Ġedaspidi": 1307,
      "Ġrakendus": 1308,
      "luma": 1309,
      "Ġeesmargi": 1310,
      "mista": 1311,
      "Ġpoole": 1312,
      "Ġ2010": 1313,
      "Ġ84": 1314,
      "Ġ0106": 1315,
      "Ġlisas": 1316,
      "jekti": 1317,
      "Ġ2002": 1318,
      "Ġ2016": 1319,
      "Ġso": 1320,
      "Ġrahvusvahe": 1321,
      "Ġsolmi": 1322,
      "Ġz": 1323,
      "Ġkuid": 1324,
      "Ġseadus": 1325,
      "Ġkee": 1326,
      "Ġeba": 1327,
      "sse": 1328,
      "kond": 1329,
      "Ġriik": 1330,
      "Ġmit": 1331,
      "Ġ2015": 1332,
      "aste": 1333,
      "tuuri": 1334,
      "meetod": 1335,
      "Ġega": 1336,
      "Ġoigusnormi": 1337,
      "Ġliikmesriigid": 1338,
      "nan": 1339,
      "Ġtegu": 1340,
      "Ġthe": 1341,
      "side": 1342,
      "Ġjuuni": 1343,
      "ritoo": 1344,
      "Ġvoivad": 1345,
      "Ġasuta": 1346,
      "Ġjarel": 1347,
      "Ġviima": 1348,
      "kreet": 1349,
      "ngi": 1350,
      "mitee": 1351,
      "sete": 1352,
      "Ġpo": 1353,
      "Ġsamu": 1354,
      "gia": 1355,
      "Ġkvali": 1356,
      "Ġpida": 1357,
      "tori": 1358,
      "Ġeeskirja": 1359,
      "80": 1360,
      "vara": 1361,
      "Ġtegevus": 1362,
      "maal": 1363,
      "Ġkahe": 1364,
      "Ġdu": 1365,
      "Ġvahel": 1366,
      "Ġ85": 1367,
      "Ġvoimalik": 1368,
      "riteeriumi": 1369,
      "Ġeelotsusetaotluse": 1370,
      "Ġrubri": 1371,
      "Ġenda": 1372,
      "Ġcor": 1373,
      "Ġus": 1374,
      "ralda": 1375,
      "Ġ41": 1376,
      "Ġteataja": 1377,
      "Ġuldi": 1378,
      "Ġsellega": 1379,
      "Ġvo": 1380,
      "Ġtasu": 1381,
      "miste": 1382,
      "oiduki": 1383,
      "Ġjaoks": 1384,
      "Ġsaab": 1385,
      "Ġmeetmete": 1386,
      "lja": 1387,
      "vet": 1388,
      "Ġ2017": 1389,
      "Ġ99": 1390,
      "Ġpolluma": 1391,
      "Ġpiisa": 1392,
      "Ġeuro": 1393,
      "Ġpohimot": 1394,
      "Ġsaksa": 1395,
      "Ġlepinguosa": 1396,
      "endite": 1397,
      "Ġ02": 1398,
      "Ġsamuti": 1399,
      "Ġisik": 1400,
      "Ġeli": 1401,
      "Ġsme": 1402,
      "Ġilma": 1403,
      "Ġ60": 1404,
      "Ġotse": 1405,
      "Ġalga": 1406,
      "Ġlennu": 1407,
      "Ġkirjel": 1408,
      "Ġeesmark": 1409,
      "Ġkuupa": 1410,
      "sektori": 1411,
      "Ġasjakoha": 1412,
      "erioodi": 1413,
      "Ġtaienda": 1414,
      "stus": 1415,
      "riumi": 1416,
      "Ġpohimeetod": 1417,
      "Ġfirb": 1418,
      "puu": 1419,
      "Ġtehni": 1420,
      "udu": 1421,
      "ras": 1422,
      "Ġolemas": 1423,
      "Ġkonkreet": 1424,
      "maaruse": 1425,
      "tamine": 1426,
      "ted": 1427,
      "ktoo": 1428,
      "Ġga": 1429,
      "Ġkan": 1430,
      "Ġselleks": 1431,
      "nik": 1432,
      "Ġhea": 1433,
      "Ġantud": 1434,
      "mentide": 1435,
      "000": 1436,
      "Ġpara": 1437,
      "tiku": 1438,
      "Ġkirja": 1439,
      "Ġmaa": 1440,
      "Ġteenuste": 1441,
      "Ġ44": 1442,
      "Ġ43": 1443,
      "Ġsoovi": 1444,
      "Ġpakku": 1445,
      "iste": 1446,
      "tas": 1447,
      "Ġkaub": 1448,
      "Ġ42": 1449,
      "leval": 1450,
      "par": 1451,
      "koo": 1452,
      "Ġkonkure": 1453,
      "Ġkusimuse": 1454,
      "Ġtra": 1455,
      "Ġsiiski": 1456,
      "kulud": 1457,
      "tiiv": 1458,
      "Ġeut": 1459,
      "Ġtehtud": 1460,
      "Ġkaesolevas": 1461,
      "mber": 1462,
      "Ġsisu": 1463,
      "Ġpal": 1464,
      "Ġkii": 1465,
      "em": 1466,
      "pii": 1467,
      "Ġtahenduses": 1468,
      "Ġalates": 1469,
      "ritooriumi": 1470,
      "Ġkriteeriumi": 1471,
      "Ġnad": 1472,
      "hu": 1473,
      "Ġsisse": 1474,
      "hulgas": 1475,
      "Ġcr": 1476,
      "Ġajal": 1477,
      "Ġkaupa": 1478,
      "Ġ45": 1479,
      "Ġhi": 1480,
      "Ġmoiste": 1481,
      "pte": 1482,
      "Ġarvatud": 1483,
      "olus": 1484,
      "pp": 1485,
      "Ġjargi": 1486,
      "Ġteo": 1487,
      "Ġsealhulgas": 1488,
      "Ġolla": 1489,
      "Ġraames": 1490,
      "Ġmuuda": 1491,
      "Ġseaduse": 1492,
      "ikides": 1493,
      "ms": 1494,
      "Ġjuuli": 1495,
      "Ġuksi": 1496,
      "Ġtarbi": 1497,
      "vale": 1498,
      "prak": 1499,
      "ksid": 1500,
      "rus": 1501,
      "Ġloe": 1502,
      "vust": 1503,
      "Ġtottu": 1504,
      "tuks": 1505,
      "Ġkatte": 1506,
      "ĠÎ": 1507,
      "stamise": 1508,
      "Ġoktoo": 1509,
      "Ġvald": 1510,
      "Ġanalu": 1511,
      "pu": 1512,
      "Ġriikide": 1513,
      "Ġseisukoh": 1514,
      "Ġcc": 1515,
      "Ġ54": 1516,
      "Ġ05": 1517,
      "Ġkasutada": 1518,
      "lisi": 1519,
      "Ġ*": 1520,
      "Ġ46": 1521,
      "Ġpohikohtu": 1522,
      "Ġpool": 1523,
      "70": 1524,
      "Ġroh": 1525,
      "Ġpan": 1526,
      "kas": 1527,
      "tatakse": 1528,
      "Ġes": 1529,
      "nu": 1530,
      "Ġraha": 1531,
      "Ġtingimuste": 1532,
      "Ġariuhingud": 1533,
      "Ġak": 1534,
      "Ġ80": 1535,
      "aluse": 1536,
      "Ġmeetmed": 1537,
      "Ġkaibe": 1538,
      "mote": 1539,
      "Ġ49": 1540,
      "Ġjaanu": 1541,
      "Ġargu": 1542,
      "Ġterritooriumi": 1543,
      "Ġjoustu": 1544,
      "oko": 1545,
      "Ġpunktid": 1546,
      "mendid": 1547,
      "Ġkaubamargi": 1548,
      "Ġsoltu": 1549,
      "Ġson": 1550,
      "Ġhoo": 1551,
      "Ġkohtuprak": 1552,
      "grammi": 1553,
      "Ġlei": 1554,
      "muse": 1555,
      "Ġekl": 1556,
      "tusega": 1557,
      "Ġ2018": 1558,
      "Ġ91": 1559,
      "do": 1560,
      "anud": 1561,
      "Ġsellele": 1562,
      "Ġtegevuse": 1563,
      "Ġula": 1564,
      "Ġkaasa": 1565,
      "sea": 1566,
      "juh": 1567,
      "Ġ52": 1568,
      "rel": 1569,
      "Ġselliste": 1570,
      "Ġmaaratle": 1571,
      "Ġpeavad": 1572,
      "Ġdirektiiv": 1573,
      "Ġ2000": 1574,
      "Ġnove": 1575,
      "Ġbi": 1576,
      "Ġuhendus": 1577,
      "rde": 1578,
      "Ġkulu": 1579,
      "turu": 1580,
      "Ġvabariigi": 1581,
      "Ġpeale": 1582,
      "fitseeri": 1583,
      "Ġ96": 1584,
      "Ġasjaomase": 1585,
      "Ġvaa": 1586,
      "sandi": 1587,
      "Ġolnud": 1588,
      "Ġkaalu": 1589,
      "hvi": 1590,
      "Ġ48": 1591,
      "tusele": 1592,
      "Ġat": 1593,
      "Ġuhtlus": 1594,
      "Ġtaie": 1595,
      "Ġmaarusega": 1596,
      "aru": 1597,
      "Ġtunn": 1598,
      "kaitse": 1599,
      "tege": 1600,
      "Ġpohikohtuasja": 1601,
      "Ġtootmis": 1602,
      "Ġapri": 1603,
      "Ġcorp": 1604,
      "Ġ51": 1605,
      "Ġesitada": 1606,
      "Ġhinnan": 1607,
      "Ġmartsi": 1608,
      "Ġ55": 1609,
      "Ġ95": 1610,
      "Ġkonven": 1611,
      "Ġpiiri": 1612,
      "etottu": 1613,
      "Ġseetottu": 1614,
      "Ġkoigi": 1615,
      "konnas": 1616,
      "ulda": 1617,
      "Ġregistreeri": 1618,
      "vuta": 1619,
      "94": 1620,
      "Ġsepte": 1621,
      "ganisa": 1622,
      "Ġ70": 1623,
      "Ġvar": 1624,
      "tali": 1625,
      "Ġpollumajandus": 1626,
      "Ġlai": 1627,
      "Ġnouetele": 1628,
      "co": 1629,
      "Ġela": 1630,
      "Ġnai": 1631,
      "Ġ56": 1632,
      "Ġtoenda": 1633,
      "Ġ\"": 1634,
      "konda": 1635,
      "pida": 1636,
      "stitu": 1637,
      "22": 1638,
      "Ġuhend": 1639,
      "Ġpik": 1640,
      "fika": 1641,
      "Ġkal": 1642,
      "Ġast": 1643,
      "Ġoktoobri": 1644,
      "lii": 1645,
      "Ġnouete": 1646,
      "Ġtugi": 1647,
      "nime": 1648,
      "Ġhoi": 1649,
      "para": 1650,
      "arve": 1651,
      "Ġjuhtu": 1652,
      "Ġmaterjali": 1653,
      "seme": 1654,
      "Ġpohjendus": 1655,
      "Ġ53": 1656,
      "Ġsotsi": 1657,
      "vas": 1658,
      "Ġrahulda": 1659,
      "levalve": 1660,
      "Ġiii": 1661,
      "Ġjaa": 1662,
      "Ġkonkurentsi": 1663,
      "Ġvaite": 1664,
      "Ġkehtestatud": 1665,
      "Ġtaotlus": 1666,
      "Ġeltl": 1667,
      "pun": 1668,
      "Ġasenda": 1669,
      "Ġtek": 1670,
      "Ġkaesolev": 1671,
      "votja": 1672,
      "Ġ47": 1673,
      "Ġvahenda": 1674,
      "Ġelu": 1675,
      "Ġvajaduse": 1676,
      "Ġvord": 1677,
      "tar": 1678,
      "Ġmaaratud": 1679,
      "Ġkri": 1680,
      "anne": 1681,
      "tsiona": 1682,
      "Ġteine": 1683,
      "Ġmitme": 1684,
      "Ġprotoko": 1685,
      "Ġjaanuari": 1686,
      "nergi": 1687,
      "Ġpran": 1688,
      "Ġedasi": 1689,
      "ette": 1690,
      "Ġpuudutab": 1691,
      "Ġtohus": 1692,
      "Ġkol": 1693,
      "Ġig": 1694,
      "Ġvoetud": 1695,
      "Ġtagada": 1696,
      "eni": 1697,
      "Ġtoime": 1698,
      "Ġ93": 1699,
      "Ġsmec": 1700,
      "dust": 1701,
      "Ġ92": 1702,
      "rans": 1703,
      "rdi": 1704,
      "teg": 1705,
      "Ġsusteemi": 1706,
      "Ġkohtukulud": 1707,
      "Ġras": 1708,
      "neeri": 1709,
      "ame": 1710,
      "Ġtagatud": 1711,
      "Ġsaavuta": 1712,
      "Ġtahes": 1713,
      "so": 1714,
      "mini": 1715,
      "Ġmai": 1716,
      "Ġmojuta": 1717,
      "nike": 1718,
      "Ġuldkohtu": 1719,
      "Ġteenuse": 1720,
      "Ġaastal": 1721,
      "Ġilm": 1722,
      "Ġsaada": 1723,
      "Ġavalik": 1724,
      "Ġmada": 1725,
      "Ġnovembri": 1726,
      "Ġuhis": 1727,
      "Ġ1999": 1728,
      "aja": 1729,
      "Ġaga": 1730,
      "Ġvee": 1731,
      "Ġsotsiaal": 1732,
      "Ġlep": 1733,
      "Ġti": 1734,
      "Ġtoodete": 1735,
      "leppe": 1736,
      "Ġtegutse": 1737,
      "Ġklas": 1738,
      "inud": 1739,
      "Ġrikkumise": 1740,
      "Ġser": 1741,
      "Ġuhise": 1742,
      "ruk": 1743,
      "Ġpohimote": 1744,
      "Ġ?": 1745,
      "ania": 1746,
      "ustada": 1747,
      "sest": 1748,
      "Ġena": 1749,
      "nti": 1750,
      "Ġaprilli": 1751,
      "Ġaju": 1752,
      "Ġ59": 1753,
      "Ġjuurde": 1754,
      "Ġrahasta": 1755,
      "Ġbe": 1756,
      "Ġteavi": 1757,
      "Ġara": 1758,
      "Ġlope": 1759,
      "Ġmuugi": 1760,
      "Ġ2020": 1761,
      "Ġohu": 1762,
      "Ġarvuta": 1763,
      "vor": 1764,
      "stab": 1765,
      "Ġvastuvot": 1766,
      "Ġres": 1767,
      "Ġasutus": 1768,
      "Ġseptembri": 1769,
      "mad": 1770,
      "Ġ2019": 1771,
      "Ġkonventsiooni": 1772,
      "Ġ0086": 1773,
      "Ġliikmesriik": 1774,
      "ning": 1775,
      "Ġsaadud": 1776,
      "Ġ57": 1777,
      "kide": 1778,
      "ule": 1779,
      "Ġkindlus": 1780,
      "Ġhan": 1781,
      "Ġ94": 1782,
      "Ġveeb": 1783,
      "Ġastme": 1784,
      "Ġkinnis": 1785,
      "Ġtootle": 1786,
      "ige": 1787,
      "taali": 1788,
      "Ġsead": 1789,
      "sc": 1790,
      "ĠÐ": 1791,
      "Ġavaliku": 1792,
      "Ġisikute": 1793,
      "oiguse": 1794,
      "Ġ61": 1795,
      "likke": 1796,
      "mus": 1797,
      "Ġpre": 1798,
      "oleku": 1799,
      "Ġpeaks": 1800,
      "endid": 1801,
      "Ġmaarust": 1802,
      "Ġ58": 1803,
      "ebuse": 1804,
      "Ġpu": 1805,
      "Ġki": 1806,
      "Ġkohustus": 1807,
      "esti": 1808,
      "Ġfinantssektori": 1809,
      "statakse": 1810,
      "31": 1811,
      "voe": 1812,
      "Ġulesan": 1813,
      "Ġkeskkonna": 1814,
      "Ġheaks": 1815,
      "Ġpeatu": 1816,
      "Ġvai": 1817,
      "Ġvaida": 1818,
      "misi": 1819,
      "Ġveebru": 1820,
      "Ġpoli": 1821,
      "Ġba": 1822,
      "Ġekspordi": 1823,
      "aine": 1824,
      "Ġ87": 1825,
      "Ġinstitu": 1826,
      "Ġab": 1827,
      "Ġjuba": 1828,
      "Î±": 1829,
      "Ġvab": 1830,
      "voo": 1831,
      "60": 1832,
      "Ġandmete": 1833,
      "Ġandme": 1834,
      "Ġparitolu": 1835,
      "Ġ65": 1836,
      "Ġsun": 1837,
      "Ġ'": 1838,
      "Ġliikmesriigis": 1839,
      "unud": 1840,
      "Ġ98": 1841,
      "Ġkohtuasi": 1842,
      "ev": 1843,
      "Ġsaili": 1844,
      "tamist": 1845,
      "Ġtootja": 1846,
      "tsioonide": 1847,
      "Ġlahe": 1848,
      "listele": 1849,
      "Ġfu": 1850,
      "vahemi": 1851,
      "tamata": 1852,
      "Ġkattesaa": 1853,
      "Ġlt": 1854,
      "korra": 1855,
      "Ġjae": 1856,
      "Ġtolgendada": 1857,
      "tub": 1858,
      "stja": 1859,
      "Ġjatta": 1860,
      "Ġitaali": 1861,
      "uks": 1862,
      "Ġmuudetakse": 1863,
      "Ġ71": 1864,
      "Ġ07": 1865,
      "Ġselgi": 1866,
      "Ġsona": 1867,
      "ande": 1868,
      "hoi": 1869,
      "ondi": 1870,
      "Ġvoli": 1871,
      "Ġvoimalus": 1872,
      "Ġtoidu": 1873,
      "aldu": 1874,
      "kindlus": 1875,
      "odi": 1876,
      "Ġklassi": 1877,
      "Ġuldkohus": 1878,
      "Ġtoostus": 1879,
      "Ġtava": 1880,
      "nah": 1881,
      "ngute": 1882,
      "Ġmuudetud": 1883,
      "Ġkehte": 1884,
      "Ġvalim": 1885,
      "Ġprotokolli": 1886,
      "Ġtoimu": 1887,
      "Ġteavet": 1888,
      "Ġaluse": 1889,
      "Ġkohtupraktika": 1890,
      "áĥ": 1891,
      "Ġvaik": 1892,
      "Ġkaubandus": 1893,
      "Ġuhine": 1894,
      "Ġy": 1895,
      "oloo": 1896,
      "Ġkorra": 1897,
      "gelt": 1898,
      "Ġalus": 1899,
      "Ġkasitleb": 1900,
      "Ġkatse": 1901,
      "Ġtahtaja": 1902,
      "Ġanna": 1903,
      "rii": 1904,
      "komitee": 1905,
      "poh": 1906,
      "Ġkaupade": 1907,
      "eskirja": 1908,
      "Ġveel": 1909,
      "Ġkom": 1910,
      "tsionaal": 1911,
      "tama": 1912,
      "Ð°": 1913,
      "asutus": 1914,
      "Ġpiiran": 1915,
      "nevad": 1916,
      "Ġteatava": 1917,
      "Ġ08": 1918,
      "Ġcon": 1919,
      "sus": 1920,
      "asutused": 1921,
      "Ġliiku": 1922,
      "Ġtaps": 1923,
      "Ġettepanek": 1924,
      "Ġ75": 1925,
      "Ġlaeva": 1926,
      "rid": 1927,
      "Ġnelja": 1928,
      "Ġasutamis": 1929,
      "Ġapellatsiooni": 1930,
      "Ġeriti": 1931,
      "Ġmillele": 1932,
      "Î¿": 1933,
      "sk": 1934,
      "pitali": 1935,
      "Ġvastuolus": 1936,
      "Ġvastuvoe": 1937,
      "Ġjarelevalve": 1938,
      "ak": 1939,
      "Ġstanda": 1940,
      "Ġnor": 1941,
      "Ġlabivaa": 1942,
      "Ġajavahemi": 1943,
      "alune": 1944,
      "Ġpohimotte": 1945,
      "asutuste": 1946,
      "Ġoig": 1947,
      "vaks": 1948,
      "Ġsuurte": 1949,
      "Ġkala": 1950,
      "Ġkusimus": 1951,
      "Ġanaluusi": 1952,
      "Ġteki": 1953,
      "ustamise": 1954,
      "Ġtegemist": 1955,
      "Ġpuh": 1956,
      "Ġtuleneb": 1957,
      "ser": 1958,
      "Ġhis": 1959,
      "sil": 1960,
      "makse": 1961,
      "Ġvabariik": 1962,
      "Ġkasutatakse": 1963,
      "Ġinf": 1964,
      "Ġtoetuse": 1965,
      "Ġpaeva": 1966,
      "Ġho": 1967,
      "Ġkorge": 1968,
      "Ġmeetmeid": 1969,
      "Ġ09": 1970,
      "Ġ64": 1971,
      "Î¹": 1972,
      "Ġpra": 1973,
      "Ġtri": 1974,
      "Ġeelarve": 1975,
      "uhingu": 1976,
      "Ġitaalia": 1977,
      "Ġnaite": 1978,
      "Ġakti": 1979,
      "Ġkehtestatakse": 1980,
      "Ġtaide": 1981,
      "Ġmuut": 1982,
      "Ġvalis": 1983,
      "Ġ88": 1984,
      "tea": 1985,
      "Ġ198": 1986,
      "Ġkattesaada": 1987,
      "punkti": 1988,
      "Ġsaksamaa": 1989,
      "Ġsoiduki": 1990,
      "Ġhispa": 1991,
      "Ġuksik": 1992,
      "Ġmoista": 1993,
      "Ġlc": 1994,
      "Ġkomisjonile": 1995,
      "Ġ62": 1996,
      "Ġkaudu": 1997,
      "Ġveebruari": 1998,
      "lid": 1999,
      "Ġloiget": 2000,
      "Ġteatavate": 2001,
      "tanud": 2002,
      "Ġtap": 2003,
      "Ġkehtetuks": 2004,
      "Ġhil": 2005,
      "Ġ63": 2006,
      "kuning": 2007,
      "Ġ81": 2008,
      "liik": 2009,
      "Ġtoen": 2010,
      "Ġ97": 2011,
      "Ġsar": 2012,
      "Ġhar": 2013,
      "pr": 2014,
      "valised": 2015,
      "Ġuhendkuning": 2016,
      "Ġettenah": 2017,
      "Ġravi": 2018,
      "Ġesindajad": 2019,
      "Ġtingimused": 2020,
      "Ġesiteks": 2021,
      "Ġeral": 2022,
      "Ġ73": 2023,
      "ver": 2024,
      "vatele": 2025,
      "Ġpuugi": 2026,
      "Ġinvesteerimis": 2027,
      "tluse": 2028,
      "mas": 2029,
      "Ġsh": 2030,
      "Ġlahtu": 2031,
      "Ġkinnisvara": 2032,
      "Ġjt": 2033,
      "Ġkons": 2034,
      "nduse": 2035,
      "tamiseks": 2036,
      "reeritud": 2037,
      "duste": 2038,
      "Ġfor": 2039,
      "Ġehi": 2040,
      "Ġtollimaksuvaba": 2041,
      "ensi": 2042,
      "Ġeksporti": 2043,
      "Ġselline": 2044,
      "enud": 2045,
      "susteemi": 2046,
      "gust": 2047,
      "perioodi": 2048,
      "Ġmini": 2049,
      "Ġartiklit": 2050,
      "Ġoigust": 2051,
      "Ġpooled": 2052,
      "nenud": 2053,
      "Ġnimelt": 2054,
      "Ġteiseks": 2055,
      "Ġmassi": 2056,
      "Ġdum": 2057,
      "tult": 2058,
      "Ġuue": 2059,
      "Ġtolgenda": 2060,
      "Ġ03": 2061,
      "Ġ72": 2062,
      "Ġ67": 2063,
      "aasta": 2064,
      "Ġdumpingu": 2065,
      "99": 2066,
      "vote": 2067,
      "sele": 2068,
      "Ġkostja": 2069,
      "andja": 2070,
      "Ġumber": 2071,
      "rsus": 2072,
      "Ġlubatud": 2073,
      "Ġda": 2074,
      "Ġjar": 2075,
      "tor": 2076,
      "Ġjuurdepa": 2077,
      "Ġniisu": 2078,
      "Ġnaiteks": 2079,
      "ratsiooni": 2080,
      "lah": 2081,
      "kava": 2082,
      "ile": 2083,
      "Ġ06": 2084,
      "fe": 2085,
      "Ġsaanud": 2086,
      "Ġkokkuleppe": 2087,
      "Ġettenahtud": 2088,
      "Ġkorralda": 2089,
      "Ġpohjal": 2090,
      "teedi": 2091,
      "egu": 2092,
      "adid": 2093,
      "Ġesimene": 2094,
      "tiste": 2095,
      "Ġversus": 2096,
      "Ġ04": 2097,
      "Ġvalitsus": 2098,
      "Ġmarkida": 2099,
      "Ġnimel": 2100,
      "Ġanda": 2101,
      "tegoo": 2102,
      "Ġhispaania": 2103,
      "vu": 2104,
      "Ġorganisa": 2105,
      "Ġliit": 2106,
      "Ġkodu": 2107,
      "nna": 2108,
      "asse": 2109,
      "Ġpor": 2110,
      "Ġesindaja": 2111,
      "ll": 2112,
      "Ġkoige": 2113,
      "Ġkasutamise": 2114,
      "Ġettevotjate": 2115,
      "Ġag": 2116,
      "tne": 2117,
      "Ġteadus": 2118,
      "Ġkaibemaksu": 2119,
      "12": 2120,
      "Ġtulu": 2121,
      "ndada": 2122,
      "Ġ74": 2123,
      "bu": 2124,
      "Ġteave": 2125,
      "Ġtalle": 2126,
      "Ġ89": 2127,
      "dete": 2128,
      "Ġkindlaksmaara": 2129,
      "sead": 2130,
      "Ġandmed": 2131,
      "Ġ68": 2132,
      "Ġmark": 2133,
      "Ġgru": 2134,
      "Ġlooma": 2135,
      "Ġsest": 2136,
      "Ġca": 2137,
      "tule": 2138,
      "Ð¸": 2139,
      "Ġvaidab": 2140,
      "Ġtuhistada": 2141,
      "piir": 2142,
      "15": 2143,
      "Ġfinantssektorivalised": 2144,
      "Ġkaits": 2145,
      "Ġasjaomaste": 2146,
      "Ġeraldi": 2147,
      "Ġ66": 2148,
      "Ġarvu": 2149,
      "Ġkohtumenetluse": 2150,
      "Ġtohi": 2151,
      "Ġkahj": 2152,
      "ede": 2153,
      "Ġesitas": 2154,
      "tsioonka": 2155,
      "ale": 2156,
      "tt": 2157,
      "Ġkohaldatav": 2158,
      "rooni": 2159,
      "Ġ83": 2160,
      "Ġtrans": 2161,
      "Ġkohaldamis": 2162,
      "Ġkasutatud": 2163,
      "eval": 2164,
      "Ġbel": 2165,
      "Ġkar": 2166,
      "Ġkujuta": 2167,
      "koht": 2168,
      "ndatud": 2169,
      "Ġ78": 2170,
      "Ġtooted": 2171,
      "Ġ69": 2172,
      "Ġro": 2173,
      "Ġkohaldamise": 2174,
      "letud": 2175,
      "Ġrahvusvahelise": 2176,
      "Ġerandi": 2177,
      "Ġkuupaeva": 2178,
      "Ġvalj": 2179,
      "Ġkuuluvad": 2180,
      "Ġpunktides": 2181,
      "das": 2182,
      "portsionaal": 2183,
      "jar": 2184,
      "Ġolid": 2185,
      "Ġloet": 2186,
      "likkuse": 2187,
      "menetlus": 2188,
      "zi": 2189,
      "Ġpers": 2190,
      "Ġkontse": 2191,
      "Ġ79": 2192,
      "Ġemp": 2193,
      "13": 2194,
      "Ġvoimaluse": 2195,
      "teri": 2196,
      "Ġhinnangu": 2197,
      "Ġkriteeriumid": 2198,
      "Ġalg": 2199,
      "Ġterritooriumil": 2200,
      "abi": 2201,
      "Ġartikliga": 2202,
      "Ġ77": 2203,
      "ppe": 2204,
      "Ġarengu": 2205,
      "mark": 2206,
      "Ġpla": 2207,
      "tra": 2208,
      "uhma": 2209,
      "Ġkohtle": 2210,
      "Ġpohjenduse": 2211,
      "tusest": 2212,
      "Ġtsi": 2213,
      "utatud": 2214,
      "Ġaine": 2215,
      "Ġ76": 2216,
      "Ġrahuldamata": 2217,
      "neva": 2218,
      "Ġadvo": 2219,
      "Ġroo": 2220,
      "Ġhupo": 2221,
      "Ġcom": 2222,
      "Ġigal": 2223,
      "Ġtarbija": 2224,
      "mised": 2225,
      "Ġtuhista": 2226,
      "Ġob": 2227,
      "Ġinter": 2228,
      "Ġfuusi": 2229,
      "stru": 2230,
      "sema": 2231,
      "Ġelektri": 2232,
      "Ġmaaruses": 2233,
      "Ġkohustuste": 2234,
      "Ġkaigus": 2235,
      "Ġhupotee": 2236,
      "Ġmoodus": 2237,
      "nast": 2238,
      "Ġvajalik": 2239,
      "Ġtehingu": 2240,
      "Ġide": 2241,
      "Ġprogrammi": 2242,
      "Ġuleta": 2243,
      "Ġspe": 2244,
      "Ġac": 2245,
      "astatud": 2246,
      "Ġuksikasja": 2247,
      "Ġholmab": 2248,
      "Ġkoikide": 2249,
      "Ġmaaratletud": 2250,
      "Ġkohaldada": 2251,
      "Ġvotnud": 2252,
      "Ġpee": 2253,
      "Ġmaha": 2254,
      "Ġrubriiki": 2255,
      "Ġkolme": 2256,
      "sise": 2257,
      "dusega": 2258,
      "nergia": 2259,
      "Ġuurimis": 2260,
      "Ġhilje": 2261,
      "Ġkohan": 2262,
      "ig": 2263,
      "oiguste": 2264,
      "Ġendast": 2265,
      "Ġviisil": 2266,
      "Ġ86": 2267,
      "Ġenam": 2268,
      "Ġteiste": 2269,
      "Ġtaki": 2270,
      "Ð¾": 2271,
      "port": 2272,
      "tesse": 2273,
      "tamis": 2274,
      "oll": 2275,
      "rsi": 2276,
      "Ġhul": 2277,
      "dis": 2278,
      "Ġoiguslik": 2279,
      "Ġuhenduste": 2280,
      "seks": 2281,
      "Ġloa": 2282,
      "Ġrisk": 2283,
      "Ġpri": 2284,
      "vii": 2285,
      "les": 2286,
      "Ġjuri": 2287,
      "Ġadvoka": 2288,
      "Ġsidu": 2289,
      "ck": 2290,
      "Ġvalmista": 2291,
      "fa": 2292,
      "Ġmaaramise": 2293,
      "Ġprojekti": 2294,
      "Ġmaarata": 2295,
      "kulu": 2296,
      "Ġtahenda": 2297,
      "cy": 2298,
      "che": 2299,
      "Ġasutamislepingu": 2300,
      "Ġtuvasta": 2301,
      "Ġapellatsioonka": 2302,
      "Ġkeeldu": 2303,
      "kust": 2304,
      "rd": 2305,
      "Ġloetletud": 2306,
      "ega": 2307,
      "Ġkorval": 2308,
      "Ġsamas": 2309,
      "Ðµ": 2310,
      "Ġit": 2311,
      "kohustus": 2312,
      "Ġnouta": 2313,
      "Ġseis": 2314,
      "Ġmargitud": 2315,
      "Ġtasandi": 2316,
      "Ġkohtule": 2317,
      "24": 2318,
      "Ġpere": 2319,
      "Ġpin": 2320,
      "Ġ2021": 2321,
      "Ġmeetme": 2322,
      "idis": 2323,
      "Ġkapitali": 2324,
      "Ġmaksusta": 2325,
      "kir": 2326,
      "usteem": 2327,
      "prot": 2328,
      "Ġseisukoha": 2329,
      "asutuse": 2330,
      "Ġpolii": 2331,
      "Ġkuigi": 2332,
      "14": 2333,
      "voime": 2334,
      "kata": 2335,
      "Ġjuhti": 2336,
      "seadus": 2337,
      "Ġindi": 2338,
      "23": 2339,
      "Ġsiseturu": 2340,
      "ten": 2341,
      "Ġloikele": 2342,
      "Ġlopp": 2343,
      "Ġeelda": 2344,
      "Ġtrahvi": 2345,
      "Ġvalti": 2346,
      "sis": 2347,
      "Ġotsusega": 2348,
      "Ġdokumentide": 2349,
      "Ġkoiki": 2350,
      "Ġliigi": 2351,
      "mina": 2352,
      "ete": 2353,
      "Ġpohjendatud": 2354,
      "Ġtal": 2355,
      "Ġvoo": 2356,
      "kuu": 2357,
      "Ġteks": 2358,
      "93": 2359,
      "afi": 2360,
      "Ġkaalutlus": 2361,
      "Ġotsuses": 2362,
      "Ġisegi": 2363,
      "Ġbrus": 2364,
      "valja": 2365,
      "Ġjargmiselt": 2366,
      "Ġkasutatavate": 2367,
      "Ġ0094": 2368,
      "polii": 2369,
      "Ġapellatsiooniko": 2370,
      "telu": 2371,
      "Ġkaup": 2372,
      "Ġjaat": 2373,
      "Ġkeela": 2374,
      "Ġiv": 2375,
      "erimis": 2376,
      "Ġjuriidi": 2377,
      "oon": 2378,
      "han": 2379,
      "erimise": 2380,
      "Ġhal": 2381,
      "Ġtootmine": 2382,
      "mne": 2383,
      "Ġtootajate": 2384,
      "Ġimporti": 2385,
      "Ġkohtus": 2386,
      "tasu": 2387,
      "ressi": 2388,
      "teenuste": 2389,
      "lla": 2390,
      "Ġasutuse": 2391,
      "seis": 2392,
      "Ġkategoo": 2393,
      "neda": 2394,
      "Ġmillest": 2395,
      "Ġkindlustus": 2396,
      "Ġjargmist": 2397,
      "Ġproportsionaal": 2398,
      "Ġasjas": 2399,
      "hk": 2400,
      "19": 2401,
      "ie": 2402,
      "Ġ82": 2403,
      "Ġvastab": 2404,
      "Ġriku": 2405,
      "ho": 2406,
      "kk": 2407,
      "umber": 2408,
      "tuul": 2409,
      "ensioni": 2410,
      "jaa": 2411,
      "Ġfa": 2412,
      "ool": 2413,
      "Ġasutuste": 2414,
      "ood": 2415,
      "Ġkutse": 2416,
      "Ġkinnisvaraga": 2417,
      "Ġsisaldab": 2418,
      "Ġkord": 2419,
      "Ġsektori": 2420,
      "Ġhulgas": 2421,
      "mises": 2422,
      "Ġkaks": 2423,
      "Ġ197": 2424,
      "Ġteada": 2425,
      "Ġsoodus": 2426,
      "Ġtera": 2427,
      "dused": 2428,
      "Ġdele": 2429,
      "kord": 2430,
      "Ġhupoteekla": 2431,
      "Ġvaldkonnas": 2432,
      "Ġuhtlustamise": 2433,
      "Ġasutused": 2434,
      "tur": 2435,
      "Ġauto": 2436,
      "Ġoigusaktide": 2437,
      "Ġtead": 2438,
      "Ġeelotsusetaotlus": 2439,
      "Ġliikmesriikides": 2440,
      "Ġesitab": 2441,
      "vaartus": 2442,
      "Ġtaielikult": 2443,
      "Ġtele": 2444,
      "Ġnaha": 2445,
      "Ġkli": 2446,
      "Ġkasitleva": 2447,
      "Ġelektrooni": 2448,
      "stra": 2449,
      "Ġaluseks": 2450,
      "Ġsisaldu": 2451,
      "Ġkuuluvate": 2452,
      "Ġkae": 2453,
      "Ġneil": 2454,
      "jale": 2455,
      "Ġsobi": 2456,
      "Ġasendatakse": 2457,
      "Ġfakti": 2458,
      "Ġteinud": 2459,
      "graafi": 2460,
      "tifika": 2461,
      "ble": 2462,
      "kii": 2463,
      "Ġhiina": 2464,
      "eru": 2465,
      "rimine": 2466,
      "Ġpidada": 2467,
      "Ġhupoteeklaenud": 2468,
      "Ġmor": 2469,
      "Ġreisi": 2470,
      "ana": 2471,
      "Ġsuuna": 2472,
      "Ġkonsul": 2473,
      "endatud": 2474,
      "taks": 2475,
      "Ġsatete": 2476,
      "Ġ110": 2477,
      "Ġequ": 2478,
      "Ġmuuta": 2479,
      "Ġmon": 2480,
      "Ġtaidetud": 2481,
      "Ġteenis": 2482,
      "Ġcn": 2483,
      "Ġini": 2484,
      "Ġam": 2485,
      "Ġpadev": 2486,
      "Ġresolu": 2487,
      "Ġsl": 2488,
      "tist": 2489,
      "loo": 2490,
      "tegevuse": 2491,
      "ettevotja": 2492,
      "Ġperioodi": 2493,
      "lles": 2494,
      "Ġpalu": 2495,
      "Ġkat": 2496,
      "Ġpohja": 2497,
      "Ġtr": 2498,
      "Ġvajalikud": 2499,
      "ngil": 2500,
      "Ġesial": 2501,
      "Ġedasta": 2502,
      "Ġpiisavalt": 2503,
      "Ġvormi": 2504,
      "Ġmere": 2505,
      "Ġloigu": 2506,
      "Ġoo": 2507,
      "ire": 2508,
      "bas": 2509,
      "Ġpoolte": 2510,
      "Ġtaseme": 2511,
      "Ġulemine": 2512,
      "Ġtoimimise": 2513,
      "dub": 2514,
      "Ġfr": 2515,
      "Ġis": 2516,
      "Ġmuuk": 2517,
      "Ġtarni": 2518,
      "Ġkonealune": 2519,
      "25": 2520,
      "Ġmm": 2521,
      "Ġaust": 2522,
      "haru": 2523,
      "ity": 2524,
      "ster": 2525,
      "vahendite": 2526,
      "skrimine": 2527,
      "nga": 2528,
      "Ġmone": 2529,
      "Ð½": 2530,
      "Ġvoetakse": 2531,
      "Ġsch": 2532,
      "Ġturule": 2533,
      "mite": 2534,
      "likuks": 2535,
      "undi": 2536,
      "Ġteksti": 2537,
      "Ġpersona": 2538,
      "Ġkogus": 2539,
      "Ġleiab": 2540,
      "Ġkooli": 2541,
      "Ġkonf": 2542,
      "kem": 2543,
      "Ġkoor": 2544,
      "Ġkomitee": 2545,
      "Ġteatud": 2546,
      "Ġkohtuju": 2547,
      "Ġmenetluses": 2548,
      "Ġfi": 2549,
      "Ġoiguste": 2550,
      "Ġmadalma": 2551,
      "Ġpi": 2552,
      "vast": 2553,
      "uul": 2554,
      "Ġviivi": 2555,
      "Ġpiirangu": 2556,
      "Ġteis": 2557,
      "Ġlih": 2558,
      "Ġpohikohtuasjas": 2559,
      "Ġleping": 2560,
      "ustele": 2561,
      "ruktuuri": 2562,
      "Ġdes": 2563,
      "ngud": 2564,
      "Ġlahenda": 2565,
      "uuri": 2566,
      "Ġteises": 2567,
      "jatele": 2568,
      "Ġleidis": 2569,
      "01": 2570,
      "ÏĦ": 2571,
      "Ġkuning": 2572,
      "Ġprantsuse": 2573,
      "Ġdekla": 2574,
      "Ġgeo": 2575,
      "Ġvas": 2576,
      "Ġartiklile": 2577,
      "pan": 2578,
      "Ġsatteid": 2579,
      "Ġkuulub": 2580,
      "Ĥ¬": 2581,
      "Ġriskika": 2582,
      "Ġteosta": 2583,
      "Ġlab": 2584,
      "kau": 2585,
      "kto": 2586,
      "nor": 2587,
      "Ġvan": 2588,
      "janduse": 2589,
      "Ġeesmarki": 2590,
      "Ġtegelikult": 2591,
      "tsentsi": 2592,
      "parast": 2593,
      "usega": 2594,
      "Ġaktsi": 2595,
      "tsa": 2596,
      "Ġmaterjalide": 2597,
      "Ġterviku": 2598,
      "ĠâĤ¬": 2599,
      "Ġjargmised": 2600,
      "Ġabil": 2601,
      "Î½": 2602,
      "Ġarvates": 2603,
      "Ġrakendamise": 2604,
      "Ġinim": 2605,
      "hinda": 2606,
      "pera": 2607,
      "vide": 2608,
      "tavat": 2609,
      "ktsiooni": 2610,
      "Ġese": 2611,
      "Ġotsust": 2612,
      "Ġvahelise": 2613,
      "paeva": 2614,
      "poliitika": 2615,
      "Ġinime": 2616,
      "kkus": 2617,
      "Ġolemasole": 2618,
      "Ġsatted": 2619,
      "Ġvalitsuse": 2620,
      "puugi": 2621,
      "29": 2622,
      "Ġ104": 2623,
      "nikud": 2624,
      "Ġkaebuse": 2625,
      "ulge": 2626,
      "aeg": 2627,
      "Ġnahtub": 2628,
      "one": 2629,
      "Ġhinnata": 2630,
      "Ġloikega": 2631,
      "Ġraamis": 2632,
      "Ġmaaratakse": 2633,
      "Ġsub": 2634,
      "eeskirja": 2635,
      "Ġuhte": 2636,
      "kru": 2637,
      "Ġgr": 2638,
      "ndamise": 2639,
      "Ġkohustatud": 2640,
      "Ġannab": 2641,
      "Ġtaitmise": 2642,
      "kindlustus": 2643,
      "tuu": 2644,
      "Ġstandardi": 2645,
      "Ġkohustusi": 2646,
      "Ġkolmandate": 2647,
      "za": 2648,
      "Ġeralda": 2649,
      "Ġkulud": 2650,
      "Ġprantsus": 2651,
      "Ġtuva": 2652,
      "Ġjuurdepaasu": 2653,
      "16": 2654,
      "arva": 2655,
      "Ġneile": 2656,
      "its": 2657,
      "33": 2658,
      "Ġsiht": 2659,
      "Ġeesti": 2660,
      "Ġisikud": 2661,
      "Ġ1998": 2662,
      "Ġtahta": 2663,
      "Ġriskikaalu": 2664,
      "Ġkoostood": 2665,
      "Ġnouetekoha": 2666,
      "Ġeta": 2667,
      "ustab": 2668,
      "Ġjou": 2669,
      "Ġai": 2670,
      "elu": 2671,
      "juu": 2672,
      "Ġkonealuste": 2673,
      "mid": 2674,
      "Ġhari": 2675,
      "Ġesialg": 2676,
      "Ġtoetus": 2677,
      "moo": 2678,
      "Ġ&": 2679,
      "ÑĢ": 2680,
      "Ġkaja": 2681,
      "Ġrohkem": 2682,
      "Ġtehakse": 2683,
      "Ġch": 2684,
      "Ġulesanne": 2685,
      "Ġdirektiiviga": 2686,
      "Ġoluline": 2687,
      "Ġkree": 2688,
      "Ġargumendid": 2689,
      "Ġtoena": 2690,
      "toe": 2691,
      "Ġnimi": 2692,
      "ze": 2693,
      "lan": 2694,
      "Ġede": 2695,
      "noukogu": 2696,
      "fondi": 2697,
      "ktor": 2698,
      "Ġequity": 2699,
      "Ġaastat": 2700,
      "Ġtingimusel": 2701,
      "Ġsisuliselt": 2702,
      "th": 2703,
      "Ġsolmitud": 2704,
      "Ġkao": 2705,
      "Ġkasitlevad": 2706,
      "Ġvaat": 2707,
      "Ġlan": 2708,
      "rand": 2709,
      "Ïģ": 2710,
      "Ġkohaldamist": 2711,
      "17": 2712,
      "Ġkoosta": 2713,
      "Ġhalda": 2714,
      "Ġkuj": 2715,
      "Ġmeetodi": 2716,
      "Ġtootmisharu": 2717,
      "Ġspetsi": 2718,
      "oloogi": 2719,
      "Ġsonas": 2720,
      "iselt": 2721,
      "Ġtaotleja": 2722,
      "desse": 2723,
      "Ġpl": 2724,
      "34": 2725,
      "ohu": 2726,
      "Ġsilma": 2727,
      "Ġasjaomane": 2728,
      "Ġasjakoh": 2729,
      "Ġeriotstarbelistele": 2730,
      "gid": 2731,
      "vilja": 2732,
      "Ġeesmargil": 2733,
      "Ġloetelu": 2734,
      "Ġminu": 2735,
      "Ġpeatuki": 2736,
      "Ġtervikuna": 2737,
      "Ġesitatakse": 2738,
      "Ġasjaol": 2739,
      "Ġslsc": 2740,
      "Ġvaartus": 2741,
      "0000": 2742,
      "Ġbas": 2743,
      "Ġltd": 2744,
      "Ġuhendkuningriigi": 2745,
      "Ġhindamise": 2746,
      "Ġesitamise": 2747,
      "maarus": 2748,
      "Ġkehtestada": 2749,
      "utada": 2750,
      "Ġalapunkti": 2751,
      "Ġlaadi": 2752,
      "Ġbelgia": 2753,
      "valjaanne": 2754,
      "loa": 2755,
      "Ġkasutamine": 2756,
      "Ġvoimaldab": 2757,
      "Ġlaen": 2758,
      "Ġkasutus": 2759,
      "istu": 2760,
      "Ġprak": 2761,
      "Ġtunnista": 2762,
      "Ġdelege": 2763,
      "Ġvalmi": 2764,
      "Ġliid": 2765,
      "Ġasjakohane": 2766,
      "Ġmuutu": 2767,
      "gune": 2768,
      "ndu": 2769,
      "muu": 2770,
      "Ġkoon": 2771,
      "Ġteisi": 2772,
      "Ġhind": 2773,
      "Ġtuge": 2774,
      "ingus": 2775,
      "tised": 2776,
      "deks": 2777,
      "Ġuni": 2778,
      "Ġpuudub": 2779,
      "Ġsur": 2780,
      "pla": 2781,
      "Ġolene": 2782,
      "Ġpersonali": 2783,
      "Ġkaud": 2784,
      "kud": 2785,
      "Ġerivaljaanne": 2786,
      "Ġkorvalda": 2787,
      "nad": 2788,
      "taal": 2789,
      "Ġlap": 2790,
      "Ġeelne": 2791,
      "Ġmassist": 2792,
      "Ġteeni": 2793,
      "Ġpoola": 2794,
      "18": 2795,
      "Ġmaksi": 2796,
      "tsta": 2797,
      "Ġuhtse": 2798,
      "Ġteel": 2799,
      "Ġtehase": 2800,
      "Ġsal": 2801,
      "Ġandmeid": 2802,
      "Ġsiseriiklik": 2803,
      "Ġhanke": 2804,
      "teh": 2805,
      "Ġraam": 2806,
      "hha": 2807,
      "Ġantakse": 2808,
      "Ġkusimusele": 2809,
      "Ġjarelda": 2810,
      "andmete": 2811,
      "Ġtasandil": 2812,
      "duses": 2813,
      "Ġolemasolu": 2814,
      "ÑĤ": 2815,
      "Ġtas": 2816,
      "jarg": 2817,
      "ty": 2818,
      "hinnast": 2819,
      "Ġpak": 2820,
      "Ġbrussel": 2821,
      "vahendi": 2822,
      "02": 2823,
      "Ġton": 2824,
      "Ġtahendab": 2825,
      "Ġpreside": 2826,
      "Ġkaitstud": 2827,
      "Ġluh": 2828,
      "Ġvotab": 2829,
      "esi": 2830,
      "Ġholmatud": 2831,
      "teenuse": 2832,
      "Ġgeograafi": 2833,
      "aa": 2834,
      "Ġkorda": 2835,
      "detud": 2836,
      "Ġvaidlusaluse": 2837,
      "Ġvaatlus": 2838,
      "Ġregistreeritud": 2839,
      "Ġsiseriikliku": 2840,
      "Ġturul": 2841,
      "Ġdokumendi": 2842,
      "mal": 2843,
      "Ġdokumen": 2844,
      "Ġsooda": 2845,
      "Ġviia": 2846,
      "Ġmoist": 2847,
      "Ġkasitlevate": 2848,
      "Ġesimeses": 2849,
      "Ġtagajar": 2850,
      "Ġteeb": 2851,
      "Ġvola": 2852,
      "Ġvaga": 2853,
      "Ġvarasema": 2854,
      "Ġvordlus": 2855,
      "Îµ": 2856,
      "Ġkontrollida": 2857,
      "Ġrikkumine": 2858,
      "Ġtegev": 2859,
      "amet": 2860,
      "Ġolukorda": 2861,
      "Ġviimati": 2862,
      "ebus": 2863,
      "Ġmort": 2864,
      "Ġlihts": 2865,
      "must": 2866,
      "Ġmillel": 2867,
      "gused": 2868,
      "Ġkand": 2869,
      "Ġpensioni": 2870,
      "Ġkontroll": 2871,
      "tid": 2872,
      "Ġ101": 2873,
      "Ġobjekti": 2874,
      "ntsiaal": 2875,
      "lase": 2876,
      "Ġmeede": 2877,
      "Ġmole": 2878,
      "Ġiiri": 2879,
      "Ġeeskirjade": 2880,
      "for": 2881,
      "Ġvastavad": 2882,
      "Ġpiirkond": 2883,
      "Ġoigusnormid": 2884,
      "Ġtasa": 2885,
      "Ġendi": 2886,
      "Ġkirjeldatud": 2887,
      "ag": 2888,
      "uumi": 2889,
      "Ġ220": 2890,
      "Ġoleva": 2891,
      "tal": 2892,
      "Ġtarii": 2893,
      "Ġportu": 2894,
      "08": 2895,
      "Ġjal": 2896,
      "68": 2897,
      "Ġsan": 2898,
      "kaal": 2899,
      "jarel": 2900,
      "Ġlisatud": 2901,
      "Ġregula": 2902,
      "Ġnouda": 2903,
      "Ġkreeka": 2904,
      "Ġeeskirjad": 2905,
      "Ġmoel": 2906,
      "Ġsamal": 2907,
      "Ġkaris": 2908,
      "Ġ040": 2909,
      "Ġjarelikult": 2910,
      "Ġtaas": 2911,
      "tusel": 2912,
      "Ġtse": 2913,
      "Ġkolmas": 2914,
      "Ġolukorra": 2915,
      "Ġtekki": 2916,
      "per": 2917,
      "lisest": 2918,
      "Ġmeen": 2919,
      "Ġulatuses": 2920,
      "Ġkohaldamisal": 2921,
      "Ġaudi": 2922,
      "Ġkauple": 2923,
      "Ġtuub": 2924,
      "dusi": 2925,
      "mat": 2926,
      "Ġheakskii": 2927,
      "Ġluu": 2928,
      "Ġslo": 2929,
      "rist": 2930,
      "aloo": 2931,
      "Ġloodus": 2932,
      "raaki": 2933,
      "Ġmuid": 2934,
      "cu": 2935,
      "Ġvastastik": 2936,
      "kontr": 2937,
      "Ġdiskrimine": 2938,
      "pc": 2939,
      "materja": 2940,
      "hhanis": 2941,
      "Ġkulude": 2942,
      "Ġhagejad": 2943,
      "meetmete": 2944,
      "Ġdumpinguvasta": 2945,
      "Ġtehasehinnast": 2946,
      "lika": 2947,
      "minaal": 2948,
      "Ġlepinguosalised": 2949,
      "Ġpaku": 2950,
      "toi": 2951,
      "uhingute": 2952,
      "Ġjuhtudel": 2953,
      "Ġlukata": 2954,
      "Ġsisaldavad": 2955,
      "lusid": 2956,
      "Ġkodanike": 2957,
      "Î¿Ï": 2958,
      "27": 2959,
      "Ġtoodel": 2960,
      "Ġgu": 2961,
      "kuju": 2962,
      "Ġnoud": 2963,
      "Ġhuvitatud": 2964,
      "Ġjah": 2965,
      "Ġkuidas": 2966,
      "ade": 2967,
      "Ġkaesoleval": 2968,
      "Ġsarna": 2969,
      "Ġkirjeldus": 2970,
      "Ġosad": 2971,
      "mast": 2972,
      "Ġrubriigi": 2973,
      "kand": 2974,
      "Ġastu": 2975,
      "Ġharta": 2976,
      "kra": 2977,
      "Ġring": 2978,
      "Ġkuupaev": 2979,
      "Ġinte": 2980,
      "Ġkategooria": 2981,
      "Ġtor": 2982,
      "Ġ030": 2983,
      "05": 2984,
      "ikin": 2985,
      "Ġpohimotet": 2986,
      "ele": 2987,
      "Ġint": 2988,
      "Ġseejarel": 2989,
      "Ġkokkule": 2990,
      "tavaid": 2991,
      "kokku": 2992,
      "teenused": 2993,
      "Ġjoustub": 2994,
      "Ġlisatakse": 2995,
      "Ġvastuva": 2996,
      "selgelt": 2997,
      "Ġtegele": 2998,
      "ns": 2999,
      "Ġotsuste": 3000,
      "land": 3001,
      "our": 3002,
      "enia": 3003,
      "Ġvastup": 3004,
      "Ġaty": 3005,
      "Ġvahetult": 3006,
      "Ġsilmas": 3007,
      "sig": 3008,
      "ress": 3009,
      "Ġkla": 3010,
      "Ġvol": 3011,
      "Ñģ": 3012,
      "ameti": 3013,
      "Ġvaliku": 3014,
      "Ġmcy": 3015,
      "Ġkasutamiseks": 3016,
      "Ġkvaliteedi": 3017,
      "direkti": 3018,
      "kro": 3019,
      "atuse": 3020,
      "Ġraamatu": 3021,
      "Ġtingi": 3022,
      "Ġotseselt": 3023,
      "keel": 3024,
      "Ġarvamuse": 3025,
      "juures": 3026,
      "Ġlepinguosalise": 3027,
      "ami": 3028,
      "gude": 3029,
      "Ġkood": 3030,
      "toodete": 3031,
      "26": 3032,
      "Ġorganisatsiooni": 3033,
      "her": 3034,
      "Ġema": 3035,
      "nemise": 3036,
      "Ġlabivaatamise": 3037,
      "Ġtranspordi": 3038,
      "Ġkohtuistu": 3039,
      "vil": 3040,
      "rem": 3041,
      "Ġandmise": 3042,
      "Ġliitu": 3043,
      "ikinni": 3044,
      "Ġliide": 3045,
      "45": 3046,
      "Ġiso": 3047,
      "Ġtootjate": 3048,
      "Ġtuubikinni": 3049,
      "kid": 3050,
      "Ġmarkuse": 3051,
      "Ġriigisise": 3052,
      "Ġulemineku": 3053,
      "Ġjargmis": 3054,
      "Ġaruande": 3055,
      "Ġsoidu": 3056,
      "Ġriigis": 3057,
      "suh": 3058,
      "Ġraud": 3059,
      "Ġuus": 3060,
      "Ġnous": 3061,
      "Ġstra": 3062,
      "Ġkeemi": 3063,
      "var": 3064,
      "Ġettevote": 3065,
      "tuur": 3066,
      "elda": 3067,
      "Ġ107": 3068,
      "Ġmitu": 3069,
      "Ġvalmistatud": 3070,
      "Ġtulenevalt": 3071,
      "Ġosaliselt": 3072,
      "kinud": 3073,
      "Ġvabasta": 3074,
      "miselt": 3075,
      "Ġpaeval": 3076,
      "au": 3077,
      "Ġprantsusmaa": 3078,
      "Ġkasutamist": 3079,
      "Ġaustria": 3080,
      "Ġkolm": 3081,
      "Ġkohaldamine": 3082,
      "Ġmaksukohustus": 3083,
      "Ġriigiabi": 3084,
      "ustel": 3085,
      "Ġkuju": 3086,
      "Ġtahe": 3087,
      "bel": 3088,
      "tsu": 3089,
      "Ġsve": 3090,
      "Ġmaini": 3091,
      "Ġtonni": 3092,
      "Ġsk": 3093,
      "Ġkohtul": 3094,
      "Ġpiiratud": 3095,
      "umbri": 3096,
      "stri": 3097,
      "Ġteatajas": 3098,
      "Ġkanda": 3099,
      "Ġkohanda": 3100,
      "ttevot": 3101,
      "Ġsuhkru": 3102,
      "Ġseeparast": 3103,
      "Ġsellist": 3104,
      "ilma": 3105,
      "ruhma": 3106,
      "Ġ1994": 3107,
      "Ġaa": 3108,
      "Ġmarkis": 3109,
      "Ġkohustuse": 3110,
      "07": 3111,
      "Ġrakendusmaaruse": 3112,
      "Ġvalitse": 3113,
      "Ġlepingut": 3114,
      "Ġmenetlusse": 3115,
      "Ġnaeb": 3116,
      "nema": 3117,
      "komisj": 3118,
      "Ġtaime": 3119,
      "ndamine": 3120,
      "Ġtervise": 3121,
      "Ġkriminaal": 3122,
      "Ġneljanda": 3123,
      "Ġselge": 3124,
      "Ġvaartpaberi": 3125,
      "Ġselgelt": 3126,
      "Ġasjaolude": 3127,
      "Ġstatis": 3128,
      "kiri": 3129,
      "Ġhindamis": 3130,
      "Ġasjaolus": 3131,
      "Ġebaseadus": 3132,
      "fta": 3133,
      "Ġjatku": 3134,
      "luba": 3135,
      "Ġvastupidi": 3136,
      "Ġ020": 3137,
      "kirju": 3138,
      "kka": 3139,
      "Ġlahtudes": 3140,
      "sin": 3141,
      "Ġpohjenduses": 3142,
      "Ġkusimused": 3143,
      "Ġtoim": 3144,
      "Ġkodakond": 3145,
      "Ġkonkreetse": 3146,
      "Ġaad": 3147,
      "ktiiv": 3148,
      "Ġmedi": 3149,
      "Ġvahendite": 3150,
      "03": 3151,
      "go": 3152,
      "Ġuurimise": 3153,
      "we": 3154,
      "Ġjaga": 3155,
      "Ġkellel": 3156,
      "lad": 3157,
      "Ġoigusnormide": 3158,
      "Ġnoustu": 3159,
      "04": 3160,
      "74": 3161,
      "Ġtulemus": 3162,
      "Ġpalub": 3163,
      "Ġing": 3164,
      "Ġside": 3165,
      "tare": 3166,
      "kohta": 3167,
      "bre": 3168,
      "erimine": 3169,
      "ulgeoleku": 3170,
      "teeritud": 3171,
      "Ġtunnistatakse": 3172,
      "ces": 3173,
      "ntide": 3174,
      "Ġil": 3175,
      "Ġnt": 3176,
      "Ġasjaolusid": 3177,
      "muni": 3178,
      "Ġmargib": 3179,
      "ate": 3180,
      "Ġnendega": 3181,
      "misvaar": 3182,
      "Ġvorrel": 3183,
      "anduse": 3184,
      "landi": 3185,
      "tional": 3186,
      "shoi": 3187,
      "Ġkonteks": 3188,
      "Ġsiseriiklike": 3189,
      "Ġnoude": 3190,
      "Ġproble": 3191,
      "Ġkorvale": 3192,
      "Ġdelegeeritud": 3193,
      "spe": 3194,
      "pohi": 3195,
      "Ġtsivi": 3196,
      "ren": 3197,
      "Ġapellatsioonikoja": 3198,
      "Ġvil": 3199,
      "teid": 3200,
      "am": 3201,
      "Ġidenti": 3202,
      "Ġkoodi": 3203,
      "lb": 3204,
      "Ġolukorras": 3205,
      "Ġtoodud": 3206,
      "lause": 3207,
      "Ġjargmisega": 3208,
      "06": 3209,
      "Ġpolu": 3210,
      "op": 3211,
      "tavalt": 3212,
      "Ġasjaoludel": 3213,
      "Ġkahjusta": 3214,
      "lises": 3215,
      "Ġkrediidiasutused": 3216,
      "oloogia": 3217,
      "Ġhr": 3218,
      "Ġanaluus": 3219,
      "nge": 3220,
      "jou": 3221,
      "Ġtingimustel": 3222,
      "Ġmarkimisvaar": 3223,
      "39": 3224,
      "Ġfun": 3225,
      "Ġaugus": 3226,
      "Ġgra": 3227,
      "kute": 3228,
      "im": 3229,
      "tati": 3230,
      "tic": 3231,
      "dire": 3232,
      "Ġraamistik": 3233,
      "doku": 3234,
      "ipo": 3235,
      "Ġrx": 3236,
      "Ġsoltumatu": 3237,
      "Ġuhelt": 3238,
      "nouete": 3239,
      "bo": 3240,
      "Ġvastava": 3241,
      "kulude": 3242,
      "vald": 3243,
      "tner": 3244,
      "misse": 3245,
      "Ġ207": 3246,
      "ase": 3247,
      "Ġvastavus": 3248,
      "ane": 3249,
      "Ġ1996": 3250,
      "aval": 3251,
      "dab": 3252,
      "Ġmeta": 3253,
      "Ġ1997": 3254,
      "Ġbu": 3255,
      "Ġloplik": 3256,
      "lite": 3257,
      "Ġtegi": 3258,
      "Ġkalapuugi": 3259,
      "rast": 3260,
      "undus": 3261,
      "Ġsaaks": 3262,
      "Ġ125": 3263,
      "Ġpadevuse": 3264,
      "Ġce": 3265,
      "Ġ1995": 3266,
      "vatest": 3267,
      "Ġvahem": 3268,
      "Ġnoudeid": 3269,
      "Ġalam": 3270,
      "Ġesma": 3271,
      "Ġkaubamark": 3272,
      "Ġuht": 3273,
      "Ġkohustused": 3274,
      "Ġop": 3275,
      "Ġpet": 3276,
      "Ġkeda": 3277,
      "ltoo": 3278,
      "Ġec": 3279,
      "noo": 3280,
      "Ġjms": 3281,
      "Ġoigusega": 3282,
      "Ġlabiraaki": 3283,
      "kar": 3284,
      "ode": 3285,
      "Ġsellised": 3286,
      "Ġhool": 3287,
      "Ġajuti": 3288,
      "Ġvastulause": 3289,
      "Ġkanna": 3290,
      "Ġpadevus": 3291,
      "ny": 3292,
      "Ġexc": 3293,
      "Ġvalla": 3294,
      "Ġtoimub": 3295,
      "Ġver": 3296,
      "mer": 3297,
      "Ġ112": 3298,
      "Ġpeatukk": 3299,
      "Ġusaldus": 3300,
      "Ġehk": 3301,
      "Ġkujul": 3302,
      "lisandi": 3303,
      "Ġlitsentsi": 3304,
      "Ġluua": 3305,
      "likul": 3306,
      "Â°": 3307,
      "Ġerand": 3308,
      "nemis": 3309,
      "jat": 3310,
      "Ġeuipo": 3311,
      "Ġsuunatud": 3312,
      "ÅĤ": 3313,
      "Ġtulemuse": 3314,
      "pai": 3315,
      "vastu": 3316,
      "kontrolli": 3317,
      "Ġrahva": 3318,
      "Ġtosi": 3319,
      "mbu": 3320,
      "edi": 3321,
      "Ġkvalifitse": 3322,
      "Ġsamavaar": 3323,
      "Ġposi": 3324,
      "guste": 3325,
      "Ġohus": 3326,
      "voodi": 3327,
      "Ġhulka": 3328,
      "Ġpusi": 3329,
      "28": 3330,
      "muste": 3331,
      "Ġjoone": 3332,
      "Ġliidus": 3333,
      "Ġtulenevad": 3334,
      "moju": 3335,
      "menetluses": 3336,
      "Ġbr": 3337,
      "Ġkohtuistungil": 3338,
      "Ġkasitletakse": 3339,
      "Ġtoimunud": 3340,
      "38": 3341,
      "Ġie": 3342,
      "Ġvorreldes": 3343,
      "ustamine": 3344,
      "Ġsunni": 3345,
      "Ġot": 3346,
      "Ġtsiviil": 3347,
      "erida": 3348,
      "Ġkavandatud": 3349,
      "Ġtingimus": 3350,
      "Ġmuul": 3351,
      "gaasi": 3352,
      "Ġdigi": 3353,
      "Ġ115": 3354,
      "endeid": 3355,
      "Ġisikutele": 3356,
      "Ġseisukohta": 3357,
      "Ġobjektiiv": 3358,
      "Ġasjaolud": 3359,
      "Ġkalandus": 3360,
      "Ġkonsulteeri": 3361,
      "35": 3362,
      "Ġpt": 3363,
      "Ġgb": 3364,
      "Ġlause": 3365,
      "Ġbg": 3366,
      "ked": 3367,
      "eeskirjade": 3368,
      "Ġpeaksid": 3369,
      "Ġnormi": 3370,
      "jo": 3371,
      "mum": 3372,
      "Ġteiselt": 3373,
      "Ġsatestab": 3374,
      "Ġrootsi": 3375,
      "Ġjulgeoleku": 3376,
      "Ġhiljemalt": 3377,
      "Ġsuuni": 3378,
      "toot": 3379,
      "Ġkohtlemise": 3380,
      "Ġlinna": 3381,
      "Ġrea": 3382,
      "organisa": 3383,
      "Ġallkirja": 3384,
      "direktiivi": 3385,
      "Ġkohaldamisel": 3386,
      "Ġsertifika": 3387,
      "Ġartiklite": 3388,
      "Ġlapse": 3389,
      "Ġvars": 3390,
      "ĠâĪ": 3391,
      "lepingute": 3392,
      "likule": 3393,
      "ss": 3394,
      "Ġ080": 3395,
      "77": 3396,
      "Ġparlament": 3397,
      "itsi": 3398,
      "ndid": 3399,
      "Ġass": 3400,
      "siidi": 3401,
      "Ġcz": 3402,
      "Ġsusteem": 3403,
      "Ġoht": 3404,
      "Ġpole": 3405,
      "Ġapellatsioonkaebuse": 3406,
      "Ġvaited": 3407,
      "Ġtag": 3408,
      "Ġsiduv": 3409,
      "Î·": 3410,
      "Ġstratee": 3411,
      "Ġtagamiseks": 3412,
      "Ġviida": 3413,
      "vord": 3414,
      "Ġosutamise": 3415,
      "liseks": 3416,
      "Ġuhendkuningriik": 3417,
      "Ġtapsusta": 3418,
      "Ġenergia": 3419,
      "Ġtaani": 3420,
      "peal": 3421,
      "Ġteist": 3422,
      "Ġuuesti": 3423,
      "Ġheit": 3424,
      "Ġdirektiivis": 3425,
      "Ġnoo": 3426,
      "osti": 3427,
      "mbh": 3428,
      "Ġlopuks": 3429,
      "Ġkum": 3430,
      "Ġlas": 3431,
      "Ġparagra": 3432,
      "Ġ300": 3433,
      "Ġpikenda": 3434,
      "Ġmahaarva": 3435,
      "Ġteenuseid": 3436,
      "Ġsekku": 3437,
      "Ġrikutud": 3438,
      "sem": 3439,
      "bli": 3440,
      "Ġjuhtumi": 3441,
      "Ġpuudutavad": 3442,
      "Ġtabe": 3443,
      "Ġgmbh": 3444,
      "Ġtut": 3445,
      "pin": 3446,
      "vel": 3447,
      "leid": 3448,
      "Ġraja": 3449,
      "Ġindivi": 3450,
      "Ġvaidluse": 3451,
      "Ġkomp": 3452,
      "Ġpadevad": 3453,
      "Ġpanga": 3454,
      "pade": 3455,
      "Ġpiiriule": 3456,
      "Ġpiirangute": 3457,
      "Ġmadala": 3458,
      "lisel": 3459,
      "Ġunga": 3460,
      "Ġindividu": 3461,
      "Ġ103": 3462,
      "Ġlabipa": 3463,
      "Ġsmer": 3464,
      "Ġcar": 3465,
      "44": 3466,
      "Ġotsustas": 3467,
      "liikmesri": 3468,
      "neeritud": 3469,
      "cia": 3470,
      "Ġkehtib": 3471,
      "Ġdel": 3472,
      "teet": 3473,
      "programmi": 3474,
      "Ġhiljem": 3475,
      "Ġjargmine": 3476,
      "Ġtaitmiseks": 3477,
      "Ġkaubamar": 3478,
      "Ġorgani": 3479,
      "Ġolenemata": 3480,
      "Ġdokumendid": 3481,
      "Ġotsustab": 3482,
      "Ġuute": 3483,
      "Ġartiklid": 3484,
      "Ġkohtuotsuses": 3485,
      "Ð²": 3486,
      "Ġtugev": 3487,
      "Ġkr": 3488,
      "Ġkoikides": 3489,
      "Ġmiini": 3490,
      "Ġpaig": 3491,
      "Ġmaksimaal": 3492,
      "Ġeurope": 3493,
      "pidamis": 3494,
      "Ġcas": 3495,
      "Ġvaike": 3496,
      "Ġtutare": 3497,
      "Ġsatestatakse": 3498,
      "Ġteenused": 3499,
      "saini": 3500,
      "Ġkulm": 3501,
      "Ġjargmisi": 3502,
      "cht": 3503,
      "ct": 3504,
      "piirkonna": 3505,
      "likus": 3506,
      "Ġulatus": 3507,
      "hinna": 3508,
      "Ġkoguvaartus": 3509,
      "ttevotja": 3510,
      "Ġeesmarkide": 3511,
      "Ġgaasi": 3512,
      "Ġviibi": 3513,
      "Ġolevate": 3514,
      "Ġprotse": 3515,
      "der": 3516,
      "sust": 3517,
      "Ġoigusi": 3518,
      "Ġomanda": 3519,
      "tah": 3520,
      "ene": 3521,
      "Ġtoendeid": 3522,
      "Ġkantud": 3523,
      "Ġtoodeldud": 3524,
      "Ġpohineb": 3525,
      "Ġoigusnor": 3526,
      "Ġtehn": 3527,
      "Ġinstitutsiooni": 3528,
      "Ġkohaldamisalasse": 3529,
      "veo": 3530,
      "Ġkodukorra": 3531,
      "nevate": 3532,
      "Ġerinev": 3533,
      "Ġklassifitseeri": 3534,
      "ton": 3535,
      "Ġkoogi": 3536,
      "85": 3537,
      "Ġnumber": 3538,
      "jus": 3539,
      "tari": 3540,
      "Ġlevi": 3541,
      "Ġnet": 3542,
      "stoi": 3543,
      "Ġtagasta": 3544,
      "Ġsellel": 3545,
      "Ġcy": 3546,
      "dusele": 3547,
      "Ġkujutab": 3548,
      "Ġloomade": 3549,
      "meetmed": 3550,
      "raamis": 3551,
      "Ġtingimustele": 3552,
      "Ġveo": 3553,
      "Ġkolle": 3554,
      "Ġpoor": 3555,
      "Ġrohuta": 3556,
      "Ð»": 3557,
      "terna": 3558,
      "Ġasjasse": 3559,
      "listest": 3560,
      "mba": 3561,
      "tamisel": 3562,
      "lane": 3563,
      "Ġhuvides": 3564,
      "Ġassotsi": 3565,
      "Ġautori": 3566,
      "korral": 3567,
      "Ġaugusti": 3568,
      "Ġ105": 3569,
      "Ïĥ": 3570,
      "pli": 3571,
      "Ġlaenu": 3572,
      "Ġneto": 3573,
      "Ġtagab": 3574,
      "Ġajutise": 3575,
      "Ġriigid": 3576,
      "Ġkrediidiriski": 3577,
      "Ġtoodetud": 3578,
      "kolb": 3579,
      "Ġmingi": 3580,
      "95": 3581,
      "Ġvottis": 3582,
      "Ġkonealused": 3583,
      "pealt": 3584,
      "Ġpoliitika": 3585,
      "91": 3586,
      "Ġjarje": 3587,
      "Ġkoostoi": 3588,
      "identsiaal": 3589,
      "Ġbul": 3590,
      "Ġmarkuses": 3591,
      "Ġuhiskomitee": 3592,
      "Ġpuuduvad": 3593,
      "Ġvaljas": 3594,
      "evad": 3595,
      "Ġajakoh": 3596,
      "Ġloigus": 3597,
      "kl": 3598,
      "Ġmoeldud": 3599,
      "tions": 3600,
      "Ġkoigepealt": 3601,
      "vee": 3602,
      "Ġvale": 3603,
      "Ġ108": 3604,
      "Ġtahise": 3605,
      "Ġkooskol": 3606,
      "Ġkaibemaks": 3607,
      "Ġliikmete": 3608,
      "Ġvotma": 3609,
      "menti": 3610,
      "Ġtingimusi": 3611,
      "Ġmenetlust": 3612,
      "Ġliikme": 3613,
      "nni": 3614,
      "Ġettevotte": 3615,
      "korda": 3616,
      "Ġviimase": 3617,
      "tusa": 3618,
      "Ġvaartuse": 3619,
      "Ġkavanda": 3620,
      "Ġrahastamis": 3621,
      "kondade": 3622,
      "Ġindividuaal": 3623,
      "Ġmot": 3624,
      "atide": 3625,
      "telli": 3626,
      "66": 3627,
      "Ġnl": 3628,
      "ettevot": 3629,
      "Ġkoguse": 3630,
      "Ġvastata": 3631,
      "Ġkasva": 3632,
      "Ġuurimisperioodi": 3633,
      "Ġkokkulepe": 3634,
      "lisele": 3635,
      "Ġtakista": 3636,
      "Ġpidades": 3637,
      "tamatu": 3638,
      "Ġkasutatavad": 3639,
      "Ġvahi": 3640,
      "Ġsaavutada": 3641,
      "Ġkorras": 3642,
      "Ġoiguskaitse": 3643,
      "tted": 3644,
      "Ġenergi": 3645,
      "kind": 3646,
      "kondades": 3647,
      "break": 3648,
      "Ġnaitaja": 3649,
      "Ġajavahemiku": 3650,
      "Ġpraegu": 3651,
      "gen": 3652,
      "jed": 3653,
      "Ġliikmesriikidele": 3654,
      "Ġpiirkonna": 3655,
      "Ġkaitsta": 3656,
      "Ġmt": 3657,
      "dekla": 3658,
      "Ġasukoht": 3659,
      "sainilah": 3660,
      "ustee": 3661,
      "tuaal": 3662,
      "Ġhet": 3663,
      "andes": 3664,
      "gel": 3665,
      "Ġtegevust": 3666,
      "Ġraudtee": 3667,
      "fo": 3668,
      "Ġartiklites": 3669,
      "Ġkusimuses": 3670,
      "peri": 3671,
      "stuja": 3672,
      "Ġ1993": 3673,
      "Ġsveitsi": 3674,
      "Ġstandard": 3675,
      "kvali": 3676,
      "risti": 3677,
      "iil": 3678,
      "Ġgene": 3679,
      "Ġungari": 3680,
      "Ġlabipaist": 3681,
      "noud": 3682,
      "Ġriigihan": 3683,
      "Ġtariif": 3684,
      "aldusega": 3685,
      "Ġhindamine": 3686,
      "Ġtooandja": 3687,
      "Ġasutatud": 3688,
      "Ġiirimaa": 3689,
      "Ġlepingute": 3690,
      "met": 3691,
      "Ġcpc": 3692,
      "Ġpika": 3693,
      "ent": 3694,
      "Ġkohustust": 3695,
      "ft": 3696,
      "wa": 3697,
      "cc": 3698,
      "viljad": 3699,
      "Ġliiki": 3700,
      "Ġpeamiselt": 3701,
      "Ġkohtupraktik": 3702,
      "Ġloik": 3703,
      "ustega": 3704,
      "seaduse": 3705,
      "Ġvene": 3706,
      "Ġhinnang": 3707,
      "Ġlee": 3708,
      "Ġvaljakuju": 3709,
      "vates": 3710,
      "tsiini": 3711,
      "hhi": 3712,
      "Ġxx": 3713,
      "Ġuldise": 3714,
      "Ġveebi": 3715,
      "Ġsuurenda": 3716,
      "Ġ500": 3717,
      "Ġaspe": 3718,
      "Ġfondi": 3719,
      "ktoris": 3720,
      "Ġasukoha": 3721,
      "vest": 3722,
      "Ġ1992": 3723,
      "sen": 3724,
      "Ġuhes": 3725,
      "36": 3726,
      "Ġmaaral": 3727,
      "41": 3728,
      "Ġvaljaspool": 3729,
      "Ġvaljakujunenud": 3730,
      "Ġtoimeaine": 3731,
      "Ġhai": 3732,
      "Ġetteval": 3733,
      "olo": 3734,
      "ati": 3735,
      "aria": 3736,
      "udro": 3737,
      "viisi": 3738,
      "Ġtegemise": 3739,
      "pis": 3740,
      "Ġstruktuuri": 3741,
      "male": 3742,
      "Ġparagrahvi": 3743,
      "Ġkasutusele": 3744,
      "Ġneist": 3745,
      "koor": 3746,
      "Ġteatavad": 3747,
      "gud": 3748,
      "Ġmarkused": 3749,
      "Ġvahendada": 3750,
      "Ġandnud": 3751,
      "Ġvalmis": 3752,
      "huvi": 3753,
      "Ġer": 3754,
      "Ġalgmaaruse": 3755,
      "Ġjalgi": 3756,
      "Ġtehti": 3757,
      "Ġaegu": 3758,
      "Ġpalju": 3759,
      "Ġmah": 3760,
      "Ġmaja": 3761,
      "Ġseadmed": 3762,
      "Ġloppe": 3763,
      "Ġ106": 3764,
      "rige": 3765,
      "Ġkandi": 3766,
      "Ġdetsembril": 3767,
      "pre": 3768,
      "Ġmadalmaade": 3769,
      "Ġisikuandmete": 3770,
      "Ġqu": 3771,
      "tuna": 3772,
      "Ġvesi": 3773,
      "Ġtaita": 3774,
      "Ġnouetekohaselt": 3775,
      "Ġniisuguse": 3776,
      "uud": 3777,
      "Ġkohtuasjades": 3778,
      "Ġtekst": 3779,
      "Ġkeskpan": 3780,
      "Ġtoendi": 3781,
      "Ġtugineda": 3782,
      "Ġkoordi": 3783,
      "ĠÕ": 3784,
      "Ġinimeste": 3785,
      "Ġkonfidentsiaal": 3786,
      "32": 3787,
      "Ġ102": 3788,
      "signeeri": 3789,
      "avad": 3790,
      "Ġbio": 3791,
      "09": 3792,
      "Ġkellele": 3793,
      "Ġloetakse": 3794,
      "tuseks": 3795,
      "Ġtekkinud": 3796,
      "dakse": 3797,
      "Ġmoodu": 3798,
      "Ġreser": 3799,
      "47": 3800,
      "Ġviitab": 3801,
      "Ġeesmargiga": 3802,
      "entide": 3803,
      "geri": 3804,
      "Ġsaade": 3805,
      "Ġkomisjonil": 3806,
      "Ġpunktile": 3807,
      "har": 3808,
      "Ġvkede": 3809,
      "likkust": 3810,
      "Ġkattesaadavaks": 3811,
      "Ġhagiaval": 3812,
      "Ġameeri": 3813,
      "Ġsuuruse": 3814,
      "meta": 3815,
      "58": 3816,
      "pone": 3817,
      "Ġkohtujurist": 3818,
      "Ġomavali": 3819,
      "rit": 3820,
      "Ġsuurem": 3821,
      "Ġdire": 3822,
      "Ġehitus": 3823,
      "Ġriiklike": 3824,
      "Ġasjakohased": 3825,
      "49": 3826,
      "Ġgi": 3827,
      "Ġmoot": 3828,
      "pel": 3829,
      "Ġvolitatud": 3830,
      "Ġkriisi": 3831,
      "Ġfran": 3832,
      "Ġhanki": 3833,
      "oro": 3834,
      "Ġnouab": 3835,
      "kte": 3836,
      "Ġmootor": 3837,
      "Ġparitol": 3838,
      "fen": 3839,
      "Ġproportsionaalsuse": 3840,
      "Ġkaesolevat": 3841,
      "Ġvorra": 3842,
      "Ġmuus": 3843,
      "Ġlepingus": 3844,
      "Ġraske": 3845,
      "Ġvoiks": 3846,
      "Ġbulga": 3847,
      "Ġseadusandja": 3848,
      "Ġtollimaks": 3849,
      "sessi": 3850,
      "meenia": 3851,
      "Ġtoetust": 3852,
      "Ġintressi": 3853,
      "stamis": 3854,
      "keemi": 3855,
      "Ġoigusvasta": 3856,
      "Ġvarem": 3857,
      "vabariigi": 3858,
      "Ġkonta": 3859,
      "oovi": 3860,
      "Ġkuiva": 3861,
      "37": 3862,
      "Ġinvesteerimisuhingu": 3863,
      "Ġvordse": 3864,
      "Ġpohimotteliselt": 3865,
      "omandi": 3866,
      "Ġportuga": 3867,
      "Ġ2022": 3868,
      "Ġotsustada": 3869,
      "Ġseisukohale": 3870,
      "Ġteisele": 3871,
      "Ġelamis": 3872,
      "Ġrikkunud": 3873,
      "Ġpare": 3874,
      "Ġkorrige": 3875,
      "Ġapr": 3876,
      "tii": 3877,
      "Ġettevotjad": 3878,
      "ÏĢ": 3879,
      "korras": 3880,
      "Ġsai": 3881,
      "Ġpartner": 3882,
      "Ġasjaomased": 3883,
      "Ġtuupi": 3884,
      "Ġseisukohast": 3885,
      "Ġkasumi": 3886,
      "Ġsaavutamiseks": 3887,
      "Ġtugine": 3888,
      "und": 3889,
      "Ġban": 3890,
      "Ġkeelatud": 3891,
      "kaalu": 3892,
      "tarvi": 3893,
      "Ġluge": 3894,
      "ustamist": 3895,
      "Ġloigetes": 3896,
      "Ġameerika": 3897,
      "Ġsor": 3898,
      "lust": 3899,
      "Ġprp": 3900,
      "meetodi": 3901,
      "Ġvaltida": 3902,
      "Ġoiguspara": 3903,
      "Ġvastuvaite": 3904,
      "resti": 3905,
      "geni": 3906,
      "Ġkuuenda": 3907,
      "Ġtoenao": 3908,
      "naar": 3909,
      "Ġjuunil": 3910,
      "Ġpollumajanduse": 3911,
      "46": 3912,
      "mente": 3913,
      "saat": 3914,
      "Ġtagavad": 3915,
      "Ġkuri": 3916,
      "Ġkoostoimes": 3917,
      "ski": 3918,
      "Ġrakendusmaarus": 3919,
      "laste": 3920,
      "Ġeelnou": 3921,
      "atus": 3922,
      "ardi": 3923,
      "Ġtarne": 3924,
      "Ġhagejate": 3925,
      "Ġkuud": 3926,
      "likkus": 3927,
      "Ġilmneb": 3928,
      "tia": 3929,
      "Ġpohik": 3930,
      "ppi": 3931,
      "mate": 3932,
      "Ġkodanik": 3933,
      "Ġdk": 3934,
      "komisjoni": 3935,
      "Ġpidanud": 3936,
      "kasuta": 3937,
      "tingimused": 3938,
      "Ġmuudatuste": 3939,
      "Ġtooteid": 3940,
      "oigust": 3941,
      "Ġkurite": 3942,
      "Ġtuvastada": 3943,
      "Ġrakendatakse": 3944,
      "Ġkana": 3945,
      "Ġum": 3946,
      "kom": 3947,
      "Ġrikkumist": 3948,
      "Ġvoimalust": 3949,
      "Ġtasakaal": 3950,
      "Ġkehtivad": 3951,
      "Ġviimane": 3952,
      "Ġorga": 3953,
      "Ġth": 3954,
      "Ġabika": 3955,
      "Ġkeeles": 3956,
      "jare": 3957,
      "Ġkohaldatavad": 3958,
      "Ġteda": 3959,
      "Ġvaljasta": 3960,
      "Ġpaigalda": 3961,
      "Ġbo": 3962,
      "Ġkuningriik": 3963,
      "ly": 3964,
      "Ġtehniliste": 3965,
      "Ġkordu": 3966,
      "shoiu": 3967,
      "Ġinglise": 3968,
      "Ġkoostatud": 3969,
      "seloo": 3970,
      "dala": 3971,
      "Ġmoni": 3972,
      "Ġesitama": 3973,
      "Ġheakskiit": 3974,
      "ustest": 3975,
      "kude": 3976,
      "Ġloikest": 3977,
      "ĠâĪĴ": 3978,
      "Ġinstru": 3979,
      "Ġtulenevaid": 3980,
      "Ġkontser": 3981,
      "Ġversi": 3982,
      "Ġpeamised": 3983,
      "tsioone": 3984,
      "pes": 3985,
      "Ġcm": 3986,
      "pide": 3987,
      "rah": 3988,
      "Ġcomp": 3989,
      "Ġkirjuta": 3990,
      "Ġoluliselt": 3991,
      "Ġolukord": 3992,
      "Ġteenistus": 3993,
      "Ġviisa": 3994,
      "puh": 3995,
      "Ġjoonealuse": 3996,
      "Ġkuivord": 3997,
      "Ġeseme": 3998,
      "Ġrekla": 3999,
      "Ġsada": 4000,
      "Ġtapse": 4001,
      "Ġresolutsioon": 4002,
      "Ġbar": 4003,
      "tro": 4004,
      "Ġhindamisel": 4005,
      "kki": 4006,
      "summa": 4007,
      "Ġravimi": 4008,
      "Ġkahtlus": 4009,
      "Ġotsused": 4010,
      "Ġkvalifitseeru": 4011,
      "Ġpohjendused": 4012,
      "Ġinterna": 4013,
      "rato": 4014,
      "adus": 4015,
      "ord": 4016,
      "alase": 4017,
      "Ġametiasutuste": 4018,
      "Ġanti": 4019,
      "ees": 4020,
      "Ġalkoh": 4021,
      "rude": 4022,
      "Ġ196": 4023,
      "Ġnimekirja": 4024,
      "Ġnendest": 4025,
      "Ġtootmise": 4026,
      "Ġkindlaksmaaratud": 4027,
      "Ġametiasutused": 4028,
      "Ġsuudi": 4029,
      "Ġtoendid": 4030,
      "88": 4031,
      "Ġuksuse": 4032,
      "Ġkinnitab": 4033,
      "Ġmahu": 4034,
      "nev": 4035,
      "Ġper": 4036,
      "Ġpadevate": 4037,
      "vabas": 4038,
      "Ġkaitu": 4039,
      "jaanud": 4040,
      "Ġapellatsioonkaebus": 4041,
      "Ġkuritarvi": 4042,
      "Î»": 4043,
      "Ġtohusa": 4044,
      "Ġtahi": 4045,
      "Ġjattis": 4046,
      "Ġuleand": 4047,
      "Ġlv": 4048,
      "ond": 4049,
      "ondu": 4050,
      "Ġseadmete": 4051,
      "rea": 4052,
      "Ġvahendi": 4053,
      "Ġkoosneb": 4054,
      "kli": 4055,
      "Îº": 4056,
      "tisse": 4057,
      "puutu": 4058,
      "pn": 4059,
      "Ġminimaal": 4060,
      "Ġseadusand": 4061,
      "nguid": 4062,
      "Ġidentifitseeri": 4063,
      "Ġpeadire": 4064,
      "Ġiseloo": 4065,
      "Ġmist": 4066,
      "Ġhuvitise": 4067,
      "Ġtagatis": 4068,
      "Ġsund": 4069,
      "Ġkoosoleku": 4070,
      "ĠÃ": 4071,
      "Ġkusimust": 4072,
      "Ġene": 4073,
      "Ġjagu": 4074,
      "Ġkirjelda": 4075,
      "Ġriikliku": 4076,
      "Ġpage": 4077,
      "voima": 4078,
      "ministe": 4079,
      "Ġsage": 4080,
      "Ġoppe": 4081,
      "ooli": 4082,
      "Ġparanda": 4083,
      "Ġmiinimum": 4084,
      "75": 4085,
      "Ġparan": 4086,
      "71": 4087,
      "Ġkuuluv": 4088,
      "Ġreeg": 4089,
      "Ġsp": 4090,
      "vormi": 4091,
      "Ġmarkus": 4092,
      "Ġviivitamata": 4093,
      "sion": 4094,
      "neesi": 4095,
      "Ġviie": 4096,
      "ngs": 4097,
      "Ġtolgendus": 4098,
      "Ġuldsuse": 4099,
      "Ġkontekstis": 4100,
      "Ġesitaja": 4101,
      "Ġkohtujuristi": 4102,
      "Ġjaotise": 4103,
      "Ġellu": 4104,
      "Ġmistottu": 4105,
      "siooni": 4106,
      "leping": 4107,
      "Ġgo": 4108,
      "Ġaruanne": 4109,
      "Ġope": 4110,
      "Ġuro": 4111,
      "Ġjuulil": 4112,
      "Ġtode": 4113,
      "ratsioon": 4114,
      "mel": 4115,
      "Ġinfor": 4116,
      "sina": 4117,
      "Ġomandi": 4118,
      "Ġtais": 4119,
      "nouded": 4120,
      "Ġohusoiduki": 4121,
      "Ġisikule": 4122,
      "marg": 4123,
      "Ġohutus": 4124,
      "lee": 4125,
      "asa": 4126,
      "Ġtegema": 4127,
      "Ġjaanuaril": 4128,
      "Ġkasutades": 4129,
      "Ġrahvusvaheliste": 4130,
      "Ġlabivi": 4131,
      "Ġteisiti": 4132,
      "gad": 4133,
      "Ġpagebreak": 4134,
      "Ġjuurdepaas": 4135,
      "usti": 4136,
      "tsust": 4137,
      "Ġye": 4138,
      "Ġleid": 4139,
      "Ġmainitud": 4140,
      "Ġjoonealuses": 4141,
      "seadmed": 4142,
      "Ġriikidest": 4143,
      "Ġpohjustel": 4144,
      "Ġkuupaevast": 4145,
      "Ġef": 4146,
      "Ġtutvu": 4147,
      "Ġulem": 4148,
      "Ġkehtivus": 4149,
      "viga": 4150,
      "Ġolev": 4151,
      "hoid": 4152,
      "rida": 4153,
      "este": 4154,
      "Ġza": 4155,
      "Ġapellant": 4156,
      "Ġadvokaat": 4157,
      "Ġtulenevate": 4158,
      "Ġviis": 4159,
      "Ġesitasid": 4160,
      "Ġoigusliku": 4161,
      "Ġkohaldamisala": 4162,
      "Ġpohioiguste": 4163,
      "dal": 4164,
      "Ġtsehhi": 4165,
      "84": 4166,
      "Ġavaldamist": 4167,
      "Ġintelle": 4168,
      "Ġaf": 4169,
      "Ġkahtluse": 4170,
      "Ġsuuri": 4171,
      "Ġmootori": 4172,
      "Ġ120": 4173,
      "Ġebaoi": 4174,
      "Ġloodud": 4175,
      "Ġkartelli": 4176,
      "vin": 4177,
      "ono": 4178,
      "Ġsellisel": 4179,
      "vahendid": 4180,
      "man": 4181,
      "Ġeurato": 4182,
      "poolest": 4183,
      "msuse": 4184,
      "juhti": 4185,
      "Ðº": 4186,
      "Ġlepinguosaline": 4187,
      "materjali": 4188,
      "meeri": 4189,
      "Ġsonaselgelt": 4190,
      "Ġturuosa": 4191,
      "Ġusaldusvaar": 4192,
      "Ġuldiselt": 4193,
      "Ġsg": 4194,
      "mpera": 4195,
      "fitseeritud": 4196,
      "ustus": 4197,
      "taht": 4198,
      "Ġpraktik": 4199,
      "koe": 4200,
      "allu": 4201,
      "Ġkonealust": 4202,
      "Ġjaotus": 4203,
      "Ġkulusid": 4204,
      "tavaks": 4205,
      "Ġkiir": 4206,
      "tifitseeri": 4207,
      "Ġtuhistamis": 4208,
      "Ġjuhi": 4209,
      "Ġliha": 4210,
      "cz": 4211,
      "Ġanaloo": 4212,
      "Ġprogram": 4213,
      "Ġohtu": 4214,
      "Ġkontsent": 4215,
      "Ġpuutu": 4216,
      "Ġtingimuse": 4217,
      "Ġoleksid": 4218,
      "meetmeid": 4219,
      "Ġoige": 4220,
      "riikide": 4221,
      "Ġjaanuarist": 4222,
      "Ġsusi": 4223,
      "Ġmartsil": 4224,
      "Ġtoendada": 4225,
      "Ġnahakse": 4226,
      "gal": 4227,
      "Ġaadress": 4228,
      "Ġmojutada": 4229,
      "Ġeelnevalt": 4230,
      "relda": 4231,
      "Ġseisundi": 4232,
      "Ġsoovib": 4233,
      "Ġsuhte": 4234,
      "Ġsaavad": 4235,
      "Ġmul": 4236,
      "98": 4237,
      "red": 4238,
      "Ġlepinguga": 4239,
      "Ġmehhanis": 4240,
      "seadmete": 4241,
      "Ġliige": 4242,
      "Ġsoome": 4243,
      "ktuaal": 4244,
      "ges": 4245,
      "Ġvorrelda": 4246,
      "Ġsiin": 4247,
      "Ġ136": 4248,
      "Ġlisada": 4249,
      "Ġmeenutada": 4250,
      "Ġjaab": 4251,
      "kaub": 4252,
      "ike": 4253,
      "Ġomaniku": 4254,
      "oone": 4255,
      "Ġveteri": 4256,
      "Ġzz": 4257,
      "Ġkodaniku": 4258,
      "Ġkari": 4259,
      "Ġtahtaeg": 4260,
      "Ġposti": 4261,
      "Ġpadeva": 4262,
      "Ġveini": 4263,
      "Ġloom": 4264,
      "Ġvarvi": 4265,
      "Ġtoendite": 4266,
      "Ġmene": 4267,
      "Ġou": 4268,
      "Ġkusi": 4269,
      "Ġintellektuaal": 4270,
      "Ġistu": 4271,
      "rubri": 4272,
      "Ġselliseid": 4273,
      "Ġsolmimise": 4274,
      "Ġmail": 4275,
      "Ġlepi": 4276,
      "tilise": 4277,
      "Ġvoeti": 4278,
      "Ġlg": 4279,
      "Ġproje": 4280,
      "Ġinc": 4281,
      "Ïī": 4282,
      "Ġmaarusele": 4283,
      "Ġportugali": 4284,
      "Ġyear": 4285,
      "Ġruhma": 4286,
      "stamine": 4287,
      "Ġligi": 4288,
      "matuse": 4289,
      "reid": 4290,
      "vaja": 4291,
      "Ġoiguses": 4292,
      "Ġules": 4293,
      "Ġeesmargid": 4294,
      "Ġbla": 4295,
      "made": 4296,
      "Ġpresident": 4297,
      "Ġtaiendava": 4298,
      "55": 4299,
      "Ġolulise": 4300,
      "Ġschen": 4301,
      "Ġesitati": 4302,
      "Ġvaidet": 4303,
      "Ġsat": 4304,
      "Ġsamasu": 4305,
      "Ġtugevda": 4306,
      "Ġbilan": 4307,
      "moi": 4308,
      "Ġpai": 4309,
      "Ġkpn": 4310,
      "Ġigasu": 4311,
      "vootide": 4312,
      "Ġinstitutsioonide": 4313,
      "Ġvaljenda": 4314,
      "Ġuhtegi": 4315,
      "Ġvoidakse": 4316,
      "tsid": 4317,
      "Ġalles": 4318,
      "xi": 4319,
      "Ġkaitset": 4320,
      "akte": 4321,
      "Ġvarju": 4322,
      "Ġder": 4323,
      "Ġseondu": 4324,
      "Ġsaamiseks": 4325,
      "Ġvastus": 4326,
      "Ġlenn": 4327,
      "energia": 4328,
      "Ġrumeenia": 4329,
      "Ġloh": 4330,
      "ff": 4331,
      "Ġair": 4332,
      "Ġpiires": 4333,
      "Ġeeltoo": 4334,
      "Ġsissejuh": 4335,
      "ĠâĢ¢": 4336,
      "ÏĤ": 4337,
      "ainete": 4338,
      "tades": 4339,
      "Ġmenetle": 4340,
      "Ġbulgaaria": 4341,
      "idid": 4342,
      "43": 4343,
      "Ġosal": 4344,
      "Ġ118": 4345,
      "Ġtootajad": 4346,
      "Ġ1510": 4347,
      "kvaliteedi": 4348,
      "Ġpersonalieeskirjade": 4349,
      "Ġtahelep": 4350,
      "Ġsaaste": 4351,
      "obi": 4352,
      "ry": 4353,
      "Ġkuningriigi": 4354,
      "tises": 4355,
      "Ġrakendamine": 4356,
      "200": 4357,
      "Ġori": 4358,
      "stuse": 4359,
      "Ġhilise": 4360,
      "Ġkuul": 4361,
      "aastase": 4362,
      "Ġparitolusta": 4363,
      "Ġteatavaks": 4364,
      "liikmesriigi": 4365,
      "Ġjm": 4366,
      "Ġvaitis": 4367,
      "Ġsaamise": 4368,
      "Ġulesannete": 4369,
      "Ġpalga": 4370,
      "Ġvastavuse": 4371,
      "Ġautomaa": 4372,
      "Ġsuut": 4373,
      "Ġvormis": 4374,
      "Ġartiklist": 4375,
      "Ġtarvi": 4376,
      "Ġnuud": 4377,
      "Ġlou": 4378,
      "Ġ210": 4379,
      "uut": 4380,
      "Ġhor": 4381,
      "mmi": 4382,
      "Ġerinevate": 4383,
      "oksi": 4384,
      "Ġvahendid": 4385,
      "Ġnorra": 4386,
      "Ġtali": 4387,
      "Ġesimest": 4388,
      "Ġturgu": 4389,
      "Ġvastuvotmise": 4390,
      "Ġpiima": 4391,
      "duda": 4392,
      "Ġpikaaja": 4393,
      "Ġnimetus": 4394,
      "Ġtehnilise": 4395,
      "tajate": 4396,
      "votu": 4397,
      "Ġeksi": 4398,
      "Ġalterna": 4399,
      "Ġperekonna": 4400,
      "Ġolevat": 4401,
      "Ġgrupp": 4402,
      "voli": 4403,
      "Ġedu": 4404,
      "Ġholmavad": 4405,
      "Ġ150": 4406,
      "Ġmuutmise": 4407,
      "tingimuste": 4408,
      "eskirjad": 4409,
      "Ġasjassepuutu": 4410,
      "Ġtoole": 4411,
      "Ġseevastu": 4412,
      "Ġpiiraks": 4413,
      "Ġmeditsiini": 4414,
      "raal": 4415,
      "Ġliidetud": 4416,
      "vaartuse": 4417,
      "Ġekp": 4418,
      "Ġnovembril": 4419,
      "Ġaeg": 4420,
      "Ġlik": 4421,
      "tsep": 4422,
      "Ġnega": 4423,
      "Ġkusjuures": 4424,
      "Ġmaan": 4425,
      "nemine": 4426,
      "tiline": 4427,
      "arves": 4428,
      "Ġlaienda": 4429,
      "Ġuksuste": 4430,
      "Ġvastastikuse": 4431,
      "Ġrikkus": 4432,
      "listel": 4433,
      "Ġadres": 4434,
      "59": 4435,
      "Ġneljas": 4436,
      "Ġref": 4437,
      "Ġsidus": 4438,
      "Ġsoli": 4439,
      "Ġuhenduses": 4440,
      "Ġvastama": 4441,
      "Ġvalmistamine": 4442,
      "Ġtooda": 4443,
      "Ġkokkulep": 4444,
      "Ġeesi": 4445,
      "menkla": 4446,
      "Ġkorraldus": 4447,
      "tri": 4448,
      "Ġteised": 4449,
      "Ġuksikasjalikud": 4450,
      "Ġkonealuses": 4451,
      "Ġsy": 4452,
      "likust": 4453,
      "astu": 4454,
      "Ġvolg": 4455,
      "Ġtunnistamise": 4456,
      "Ġ070": 4457,
      "majandus": 4458,
      "paras": 4459,
      "Ġost": 4460,
      "tavus": 4461,
      "taotluse": 4462,
      "Ġmuudatused": 4463,
      "tsed": 4464,
      "Ġkohase": 4465,
      "Ġkohtusse": 4466,
      "Ġvaada": 4467,
      "dro": 4468,
      "Ġimport": 4469,
      "Ġviide": 4470,
      "tun": 4471,
      "Ġvahekohtu": 4472,
      "Ġkollektiiv": 4473,
      "Ġpraktika": 4474,
      "Ġvaidlusal": 4475,
      "Ġvaljaand": 4476,
      "paiga": 4477,
      "Ġjargmiste": 4478,
      "Ġher": 4479,
      "ano": 4480,
      "cial": 4481,
      "Ġgrou": 4482,
      "Ġnegatiiv": 4483,
      "Ġsoi": 4484,
      "Ġ109": 4485,
      "Ġkeskmise": 4486,
      "Ġarvata": 4487,
      "Ġpohjusel": 4488,
      "endused": 4489,
      "Ġlennuettevotja": 4490,
      "chi": 4491,
      "rison": 4492,
      "Ġomanik": 4493,
      "54": 4494,
      "Ġkull": 4495,
      "Ġmaarab": 4496,
      "Ġsonul": 4497,
      "Ġjuures": 4498,
      "53": 4499,
      "Ġoktoobril": 4500,
      "Ġsuurendada": 4501,
      "Ġulevot": 4502,
      "Ġalamrubri": 4503,
      "Ġspp": 4504,
      "Ġvoimalikult": 4505,
      "noue": 4506,
      "Ġkuuluva": 4507,
      "Ġajakohasta": 4508,
      "kr": 4509,
      "Ġwe": 4510,
      "Ġmetsa": 4511,
      "Ġvabataht": 4512,
      "torid": 4513,
      "Ġriuhingute": 4514,
      "nia": 4515,
      "Ġadmini": 4516,
      "9300": 4517,
      "57": 4518,
      "Ġrakendamiseks": 4519,
      "Ġtaotleda": 4520,
      "Ġtulemusel": 4521,
      "Ð´": 4522,
      "ndude": 4523,
      "andud": 4524,
      "Ġgrupi": 4525,
      "Ġkavatse": 4526,
      "Ġfunk": 4527,
      "ised": 4528,
      "Ġvoimaldavad": 4529,
      "Ġlahku": 4530,
      "Ġtuvastatud": 4531,
      "Ġinfo": 4532,
      "listes": 4533,
      "Ġ{": 4534,
      "Ġettehe": 4535,
      "Ġukra": 4536,
      "Ġ}": 4537,
      "Ġtutarettevotja": 4538,
      "Ġkokkus": 4539,
      "Ġschengeni": 4540,
      "luste": 4541,
      "Ġuldine": 4542,
      "ndist": 4543,
      "jaid": 4544,
      "Ġvkedele": 4545,
      "Ġvastuvoetama": 4546,
      "Ġaprillil": 4547,
      "atoo": 4548,
      "Ġaastaks": 4549,
      "Ġhuvitamise": 4550,
      "rium": 4551,
      "Ġjareldus": 4552,
      "idud": 4553,
      "Ġ114": 4554,
      "Ġsiseriiklikud": 4555,
      "Ġkvalifitseeruvad": 4556,
      "Ġkultuuri": 4557,
      "Ġnumbri": 4558,
      "Ġoigused": 4559,
      "likele": 4560,
      "ula": 4561,
      "zo": 4562,
      "Ġmuudele": 4563,
      "Ġklii": 4564,
      "Ġkolmandaks": 4565,
      "xe": 4566,
      "ys": 4567,
      "ranspordi": 4568,
      "Ġoigustatud": 4569,
      "Ġpriori": 4570,
      "Ġtoor": 4571,
      "massi": 4572,
      "Ġtari": 4573,
      "Ġulekan": 4574,
      "nistuse": 4575,
      "vatsiooni": 4576,
      "Ġmine": 4577,
      "Î¼": 4578,
      "kusim": 4579,
      "Ġinspe": 4580,
      "kesk": 4581,
      "Ġkiire": 4582,
      "laad": 4583,
      "Ġinternational": 4584,
      "Ġinteg": 4585,
      "62": 4586,
      "cha": 4587,
      "Ġvajadus": 4588,
      "Ġseni": 4589,
      "nemist": 4590,
      "81": 4591,
      "kokkuleppe": 4592,
      "Ġpiiranguteta": 4593,
      "meetri": 4594,
      "Ġq": 4595,
      "Ġtahtaega": 4596,
      "Ġturusta": 4597,
      "Ġeris": 4598,
      "Ġvorgu": 4599,
      "Ġloetel": 4600,
      "Ġseisukohal": 4601,
      "Ġhorison": 4602,
      "fikatsiooni": 4603,
      "Ġesimesele": 4604,
      "Ġslova": 4605,
      "tooted": 4606,
      "42": 4607,
      "Ġkoopi": 4608,
      "Ġkvoodi": 4609,
      "baasi": 4610,
      "Ġmakstud": 4611,
      "Ġprodu": 4612,
      "Ġadvokaadid": 4613,
      "Ġainete": 4614,
      "Ġjareldada": 4615,
      "mere": 4616,
      "Ġkontserni": 4617,
      "Ġparitolunime": 4618,
      "Ġ870": 4619,
      "Ġ549300": 4620,
      "Ġjaatmete": 4621,
      "Ġvaldkonna": 4622,
      "raamistiku": 4623,
      "Ġblack": 4624,
      "Ġprotsendi": 4625,
      "regi": 4626,
      "Ġeira": 4627,
      "Ġjuht": 4628,
      "marja": 4629,
      "Ġinvest": 4630,
      "Ġliikumise": 4631,
      "wi": 4632,
      "Ġvotavad": 4633,
      "Ġservi": 4634,
      "Ġvoimalusena": 4635,
      "Ġmoon": 4636,
      "soiduki": 4637,
      "Ġhindade": 4638,
      "olide": 4639,
      "Ġasi": 4640,
      "Ġtahtsuse": 4641,
      "Ġjatmise": 4642,
      "nete": 4643,
      "Ġuhtlustamis": 4644,
      "Ġulejaanud": 4645,
      "Ġholb": 4646,
      "Ġkonsulta": 4647,
      "Ġettevalmista": 4648,
      "Ġhtt": 4649,
      "Ġruh": 4650,
      "Ġ138": 4651,
      "Ġkohtuallu": 4652,
      "Ġvaatamata": 4653,
      "bad": 4654,
      "Ġasub": 4655,
      "Ġnoutud": 4656,
      "Ġraamatupidamis": 4657,
      "Ġolevad": 4658,
      "Ġasjakohaste": 4659,
      "kade": 4660,
      "ĠÂ·": 4661,
      "Ġkoosseis": 4662,
      "Ġpiisav": 4663,
      "Ġautomaatse": 4664,
      "Ġprobleemi": 4665,
      "Ġnen": 4666,
      "52": 4667,
      "Ġintellektuaalomandi": 4668,
      "ustes": 4669,
      "Ġrakendada": 4670,
      "mika": 4671,
      "Ġseire": 4672,
      "Ġtase": 4673,
      "Ġmetuul": 4674,
      "Ġsega": 4675,
      "Ġtuh": 4676,
      "Ġmal": 4677,
      "Ġnu": 4678,
      "Ġtegeliku": 4679,
      "Ġmitmes": 4680,
      "Ġmaailma": 4681,
      "ker": 4682,
      "beri": 4683,
      "pri": 4684,
      "56": 4685,
      "Ġtoenaos": 4686,
      "Ġpide": 4687,
      "Ġregistri": 4688,
      "Ġtru": 4689,
      "Ġ1991": 4690,
      "Ġkehtivuse": 4691,
      "Ġreside": 4692,
      "Ġlaste": 4693,
      "katt": 4694,
      "Ġtehnoloogia": 4695,
      "51": 4696,
      "usa": 4697,
      "Ġtootlemata": 4698,
      "uula": 4699,
      "Ġkooskolasta": 4700,
      "Ġpeetakse": 4701,
      "Ġkokkusobi": 4702,
      "jarelevalve": 4703,
      "Ġvein": 4704,
      "turul": 4705,
      "Ġeeskatt": 4706,
      "nts": 4707,
      "hagi": 4708,
      "gevuse": 4709,
      "Ġlepinguosaliste": 4710,
      "Ġhagejale": 4711,
      "tut": 4712,
      "Ġliikmed": 4713,
      "Ġeelneva": 4714,
      "Ġsarnas": 4715,
      "Ġ!": 4716,
      "Ġuuenevad": 4717,
      "Ġtunnusta": 4718,
      "Ġolles": 4719,
      "hape": 4720,
      "ĠÎ±": 4721,
      "Ġassigneeri": 4722,
      "Ġmingit": 4723,
      "Ġ116": 4724,
      "ard": 4725,
      "surs": 4726,
      "Ġseptembril": 4727,
      "Ġci": 4728,
      "Ġmaterjalidest": 4729,
      "ger": 4730,
      "uugi": 4731,
      "Ġaastast": 4732,
      "seeritud": 4733,
      "Ġvastutus": 4734,
      "Ġlaevade": 4735,
      "Ġsoidukite": 4736,
      "Ġperioodil": 4737,
      "Ġtapsemalt": 4738,
      "Ġtihe": 4739,
      "Ġ540": 4740,
      "labi": 4741,
      "Ġkompone": 4742,
      "Ġkogusumma": 4743,
      "erimist": 4744,
      "Ġliikmesriikidel": 4745,
      "Ġkeskmine": 4746,
      "maksete": 4747,
      "jatel": 4748,
      "udi": 4749,
      "nal": 4750,
      "Ġsotsiaalkindlustus": 4751,
      "Ġtunnustatud": 4752,
      "Ġcu": 4753,
      "zii": 4754,
      "Ġapellatsioonikoda": 4755,
      "Ġrt": 4756,
      "Ġasutusele": 4757,
      "Ġent": 4758,
      "ang": 4759,
      "Ġ400": 4760,
      "loi": 4761,
      "cal": 4762,
      "Ġeuratom": 4763,
      "Ġveer": 4764,
      "Î¿Ïħ": 4765,
      "Ġtollise": 4766,
      "Ġsailitada": 4767,
      "Ġosade": 4768,
      "Ġae": 4769,
      "Ġsuurus": 4770,
      "Ġaspekti": 4771,
      "tasid": 4772,
      "Õ¡": 4773,
      "Ġkohandatud": 4774,
      "oku": 4775,
      "Ġmaksustamise": 4776,
      "Ġhas": 4777,
      "lasi": 4778,
      "Ġbilansi": 4779,
      "Ġametisse": 4780,
      "Ġml": 4781,
      "Ġerinevad": 4782,
      "Ġlennujaa": 4783,
      "oto": 4784,
      "Ġinno": 4785,
      "Ġpiirata": 4786,
      "vid": 4787,
      "87": 4788,
      "Ġhaa": 4789,
      "Ġpeatada": 4790,
      "tta": 4791,
      "Ġkvalifitseeri": 4792,
      "Ġ117": 4793,
      "tavuse": 4794,
      "Ġfili": 4795,
      "Ġtagama": 4796,
      "92": 4797,
      "Ġinterne": 4798,
      "Ġkuupaeval": 4799,
      "Ġvalista": 4800,
      "tiliste": 4801,
      "reeg": 4802,
      "Ġpunktiga": 4803,
      "Ġseadme": 4804,
      "Ġhuvide": 4805,
      "Ġtasuta": 4806,
      "Ġkandida": 4807,
      "Ġ126": 4808,
      "Ġlukse": 4809,
      "Ġartikleid": 4810,
      "Ġturgi": 4811,
      "Ġettevotete": 4812,
      "tustega": 4813,
      "tisi": 4814,
      "Ġtark": 4815,
      "Ġesialgse": 4816,
      "ban": 4817,
      "Ġmeel": 4818,
      "gh": 4819,
      "Ġnormaal": 4820,
      "kumne": 4821,
      "likest": 4822,
      "Ġteenistuse": 4823,
      "iku": 4824,
      "kindluse": 4825,
      "are": 4826,
      "Ġettevotjatele": 4827,
      "Ġloobu": 4828,
      "bia": 4829,
      "Ġkuula": 4830,
      "Ġtehnilised": 4831,
      "matud": 4832,
      "Ġkonkreetselt": 4833,
      "Ġkeele": 4834,
      "Ġluksembu": 4835,
      "Ġje": 4836,
      "Ġtolliseadus": 4837,
      "Ġloetellu": 4838,
      "idata": 4839,
      "Ġaruta": 4840,
      "Ġhuve": 4841,
      "Ġmaaratlus": 4842,
      "Ġmaterjalist": 4843,
      "mon": 4844,
      "tegevus": 4845,
      "den": 4846,
      "Ġlahte": 4847,
      "Ġâī": 4848,
      "fri": 4849,
      "Ġveebruaril": 4850,
      "tive": 4851,
      "Ġregistreerimise": 4852,
      "Ġben": 4853,
      "Ġun": 4854,
      "Ġ520": 4855,
      "Ġkasitada": 4856,
      "Ġpohjusta": 4857,
      "Ġpate": 4858,
      "sertifika": 4859,
      "Ġedenda": 4860,
      "Ġkirjas": 4861,
      "Ġtulemused": 4862,
      "Ġtavaliselt": 4863,
      "liha": 4864,
      "Ġkombi": 4865,
      "Ġmiks": 4866,
      "Ġkoge": 4867,
      "Ġhaale": 4868,
      "jes": 4869,
      "Ġ123": 4870,
      "nid": 4871,
      "Ġeelduse": 4872,
      "Ġturva": 4873,
      "kogus": 4874,
      "Ġvaidlusalune": 4875,
      "Ġkil": 4876,
      "Ġjaatme": 4877,
      "hari": 4878,
      "Ġavatud": 4879,
      "Ġtootjad": 4880,
      "dia": 4881,
      "Ġomavahendite": 4882,
      "kapitali": 4883,
      "Ġseits": 4884,
      "Ġaruand": 4885,
      "Ġtunnistada": 4886,
      "ding": 4887,
      "Ġastuja": 4888,
      "ĠÂ»": 4889,
      "Ġfer": 4890,
      "Ġtran": 4891,
      "Ġlahenemis": 4892,
      "Ġtaitmist": 4893,
      "Ġklientide": 4894,
      "Ġtavapara": 4895,
      "Ġeesistuja": 4896,
      "Ġkeeru": 4897,
      "Ġpresidendi": 4898,
      "pakku": 4899,
      "Ġriigihanke": 4900,
      "Ġministe": 4901,
      "Ġkoordineeri": 4902,
      "Ġkinnitatud": 4903,
      "oigusi": 4904,
      "Ġvastutuse": 4905,
      "astme": 4906,
      "Ġesitamist": 4907,
      "Ġeesmarke": 4908,
      "Ġeeskirju": 4909,
      "Ġ127": 4910,
      "ngus": 4911,
      "Ġtervishoiu": 4912,
      "Ġpohikir": 4913,
      "Ġsoe": 4914,
      "Ġbru": 4915,
      "Ġinvesteeringute": 4916,
      "Ġvahistamis": 4917,
      "Ġloiked": 4918,
      "Ġkrediidiasutuste": 4919,
      "mistaot": 4920,
      "Ġpeal": 4921,
      "Ġprae": 4922,
      "Ġkorralduse": 4923,
      "usid": 4924,
      "Ġkohtuotsused": 4925,
      "Ġteade": 4926,
      "pal": 4927,
      "Ġrakenduse": 4928,
      "menetlust": 4929,
      "teriaal": 4930,
      "Ġsele": 4931,
      "82": 4932,
      "ned": 4933,
      "Ġkohtuvaid": 4934,
      "Ġgaran": 4935,
      "que": 4936,
      "kteeri": 4937,
      "risse": 4938,
      "Ġparandada": 4939,
      "Ġsul": 4940,
      "Ġ320": 4941,
      "Ġkapitalinouete": 4942,
      "Ġtrib": 4943,
      "riday": 4944,
      "Ġvarjupaiga": 4945,
      "Ġkohe": 4946,
      "Ġpas": 4947,
      "Ġmaksuvabas": 4948,
      "Ġrist": 4949,
      "Ġsoja": 4950,
      "Ġannavad": 4951,
      "Ġinimoiguste": 4952,
      "Ġandis": 4953,
      "Ġpohjus": 4954,
      "Ġnn": 4955,
      "perdi": 4956,
      "Ġfriday": 4957,
      "Ġvastutav": 4958,
      "eel": 4959,
      "ler": 4960,
      "Ġtulemusena": 4961,
      "ravi": 4962,
      "Ġliikide": 4963,
      "Ġvalge": 4964,
      "Ġsonastatud": 4965,
      "Ġkriisilah": 4966,
      "Ġjne": 4967,
      "Ġkohtlemine": 4968,
      "Ġvorgus": 4969,
      "Ġmujal": 4970,
      "Ġkvaliteet": 4971,
      "Ġnaib": 4972,
      "uroopa": 4973,
      "Ġ119": 4974,
      "Ġoigesti": 4975,
      "kohustuse": 4976,
      "Ġpohjused": 4977,
      "Ġanaluusida": 4978,
      "Ġkaubad": 4979,
      "Ġpil": 4980,
      "Ġteevad": 4981,
      "tamisega": 4982,
      "Ġvin": 4983,
      "Ġhooli": 4984,
      "Ġreguleerimis": 4985,
      "Ġtugineb": 4986,
      "Ġkaubanduse": 4987,
      "Ïħ": 4988,
      "Ġvastav": 4989,
      "Ġniisugune": 4990,
      "ĠÂ«": 4991,
      "Ġmer": 4992,
      "Ġkodakondsuse": 4993,
      "Ġkohaldatavate": 4994,
      "Ġnoukogule": 4995,
      "Ġkaesolevale": 4996,
      "poli": 4997,
      "Ġpohikirja": 4998,
      "ws": 4999,
      "Ġesineb": 5000,
      "Ġvoimaldada": 5001,
      "Ġman": 5002,
      "Ġspa": 5003,
      "Ġpiirangud": 5004,
      "Ġriikides": 5005,
      "Ġ267": 5006,
      "Ġasjakohaseid": 5007,
      "Ġalguse": 5008,
      "Ġsatetega": 5009,
      "Ġkehtestab": 5010,
      "pohimote": 5011,
      "Ġemaettevotja": 5012,
      "Ġpohimottega": 5013,
      "Ġasutustele": 5014,
      "Ġkale": 5015,
      "Ġaste": 5016,
      "Ġkasitlev": 5017,
      "Ġajavahemikul": 5018,
      "ron": 5019,
      "89": 5020,
      "Ġkaubamargid": 5021,
      "Ġnoutav": 5022,
      "ĠÎ´": 5023,
      "Ġvastuse": 5024,
      "Ġlahendada": 5025,
      "all": 5026,
      "Ġlopliku": 5027,
      "Ġolgu": 5028,
      "Ġtoohoi": 5029,
      "Ġkohaldatava": 5030,
      "Ġapellandi": 5031,
      "Ġinforma": 5032,
      "Ġkutuse": 5033,
      "Ġsuuniste": 5034,
      "Ġtoimus": 5035,
      "Ġ113": 5036,
      "Ġ600": 5037,
      "Ġber": 5038,
      "Ġtaite": 5039,
      "Ġtuua": 5040,
      "Ġuldkohtul": 5041,
      "Ġjareleval": 5042,
      "Ġkaetud": 5043,
      "Ġmeelde": 5044,
      "Ġlubada": 5045,
      "Ġteatavaid": 5046,
      "Ġraadi": 5047,
      "Ġliikmesriiki": 5048,
      "Ġadministra": 5049,
      "Ġdokument": 5050,
      "tan": 5051,
      "Ġkasutatava": 5052,
      "Ġriiklik": 5053,
      "Ġaktsia": 5054,
      "Ġalumi": 5055,
      "Ġbra": 5056,
      "seisu": 5057,
      "Ġhk": 5058,
      "Ġ130": 5059,
      "ude": 5060,
      "100": 5061,
      "vatel": 5062,
      "juhtu": 5063,
      "Ġkra": 5064,
      "Ġtehingute": 5065,
      "Ġagen": 5066,
      "Ġtaitmine": 5067,
      "Ġelukoha": 5068,
      "Ġdetsember": 5069,
      "Ġlati": 5070,
      "Ġ250": 5071,
      "Ġ140": 5072,
      "Ġopi": 5073,
      "Ġrask": 5074,
      "Ġmaterjal": 5075,
      "Ġoigusakte": 5076,
      "Ġkuue": 5077,
      "tolli": 5078,
      "Ġasjakohas": 5079,
      "Ġkaeba": 5080,
      "Ġkasitatakse": 5081,
      "Ġhooldus": 5082,
      "Ġsaat": 5083,
      "foni": 5084,
      "Ġnoutakse": 5085,
      "Ġjatka": 5086,
      "Ġtahelepanu": 5087,
      "menda": 5088,
      "Ġulevaa": 5089,
      "alduse": 5090,
      "maid": 5091,
      "Ġvana": 5092,
      "Ġvarske": 5093,
      "gericht": 5094,
      "Ġpohjendustest": 5095,
      "Ġterri": 5096,
      "randa": 5097,
      "Ġjust": 5098,
      "Ġ620": 5099,
      "Ġkontrollimise": 5100,
      "Ġtoetuseks": 5101,
      "vesi": 5102,
      "mehhanis": 5103,
      "Ġkasutaja": 5104,
      "83": 5105,
      "Ġalternatiiv": 5106,
      "seduuri": 5107,
      "kretar": 5108,
      "Ġeraoigus": 5109,
      "Ġkahepool": 5110,
      "Ġvastutab": 5111,
      "Ġmaaratluse": 5112,
      "Ġvalgus": 5113,
      "Ġuldist": 5114,
      "Ġpoora": 5115,
      "Ġjarele": 5116,
      "cion": 5117,
      "Ġtuubikinnitus": 5118,
      "Ġkaitaja": 5119,
      "sole": 5120,
      "Ġjp": 5121,
      "lin": 5122,
      "Ġpuudumine": 5123,
      "tlemise": 5124,
      "Ġsoodalisandi": 5125,
      "Ġarvutamisel": 5126,
      "Ġkoogivilja": 5127,
      "Ġhoid": 5128,
      "Ġbri": 5129,
      "Ġbro": 5130,
      "happe": 5131,
      "Ġvajalikke": 5132,
      "Ġleedu": 5133,
      "laa": 5134,
      "tavas": 5135,
      "Ġteatab": 5136,
      "Ġbun": 5137,
      "hy": 5138,
      "Ġoigusaktid": 5139,
      "Ġpinna": 5140,
      "munika": 5141,
      "ind": 5142,
      "Ġ1990": 5143,
      "Ġomavah": 5144,
      "Ġtapsustatud": 5145,
      "deklaratsiooni": 5146,
      "Ġah": 5147,
      "Ġeksperdi": 5148,
      "Ġisikut": 5149,
      "Ġkategoori": 5150,
      "pol": 5151,
      "Ġaktiiv": 5152,
      "Ġuhtne": 5153,
      "menta": 5154,
      "Ġtaotletud": 5155,
      "Ð¸Ñ": 5156,
      "Ġteabevahe": 5157,
      "Ġjaem": 5158,
      "Ġesitavad": 5159,
      "Ġaktsep": 5160,
      "Ġasjakohase": 5161,
      "Ġtuba": 5162,
      "mahu": 5163,
      "Ġkolmandas": 5164,
      "lased": 5165,
      "Ġ721": 5166,
      "Ġtul": 5167,
      "osuta": 5168,
      "Ġtempera": 5169,
      "Ġprog": 5170,
      "chts": 5171,
      "liini": 5172,
      "Ġuhinemis": 5173,
      "Ġselgitada": 5174,
      "Ġvalitud": 5175,
      "rastruktuuri": 5176,
      "Ġarenda": 5177,
      "Ġjaetakse": 5178,
      "satsiooni": 5179,
      "unda": 5180,
      "Ġoigusnorme": 5181,
      "Ġlaane": 5182,
      "Ġseos": 5183,
      "fii": 5184,
      "Ġargumentide": 5185,
      "Ġkasv": 5186,
      "Ġkoigile": 5187,
      "pidamise": 5188,
      "Ġheite": 5189,
      "Õ¸": 5190,
      "satted": 5191,
      "Ġdeklaratsiooni": 5192,
      "dena": 5193,
      "Ġuhenda": 5194,
      "Ġcour": 5195,
      "Ġkaristus": 5196,
      "Ġavaldatud": 5197,
      "Ġvenemaa": 5198,
      "Ġnousoleku": 5199,
      "Ġviii": 5200,
      "Ġtariifik": 5201,
      "likel": 5202,
      "gy": 5203,
      "Ġebaoig": 5204,
      "Ġtingitud": 5205,
      "Ġtelli": 5206,
      "organisatsiooni": 5207,
      "inamarja": 5208,
      "art": 5209,
      "Ġtegemiseks": 5210,
      "pohimot": 5211,
      "sul": 5212,
      "Ġtagatise": 5213,
      "raha": 5214,
      "Ġvaidavad": 5215,
      "Ġkokkuvot": 5216,
      "48": 5217,
      "Ġslove": 5218,
      "Ġstrateegi": 5219,
      "Ġpohjendamatu": 5220,
      "96": 5221,
      "stan": 5222,
      "Ġ111": 5223,
      "vorgu": 5224,
      "cie": 5225,
      "Ġpohjendustes": 5226,
      "moodi": 5227,
      "Ġvaljatoo": 5228,
      "liigi": 5229,
      "tehingu": 5230,
      "Ġvois": 5231,
      "Ġpandud": 5232,
      "riigid": 5233,
      "Ġmootorsoiduki": 5234,
      "ric": 5235,
      "Ġkalava": 5236,
      "Ġran": 5237,
      "Ġvordne": 5238,
      "Ġtunnus": 5239,
      "Ġrahalise": 5240,
      "Ġhoida": 5241,
      "Ġkaeva": 5242,
      "Ġassotsia": 5243,
      "Ġmilleks": 5244,
      "Ġmuudest": 5245,
      "Ġaastas": 5246,
      "Ġpul": 5247,
      "Ġsummad": 5248,
      "Ġriiki": 5249,
      "stust": 5250,
      "Ġmarkusi": 5251,
      "Ġmoistet": 5252,
      "Ġaega": 5253,
      "aali": 5254,
      "Ġvastavate": 5255,
      "ududest": 5256,
      "Ġteenuseosuta": 5257,
      "Ġrakendamist": 5258,
      "aruande": 5259,
      "Ġlipu": 5260,
      "Ġalgatusel": 5261,
      "Ġoigusparas": 5262,
      "Ġkonsolide": 5263,
      "Ġteate": 5264,
      "Ġkalend": 5265,
      "jaat": 5266,
      "kah": 5267,
      "Ġterro": 5268,
      "Ġuued": 5269,
      "Ġstaa": 5270,
      "Ġpollumajandustoot": 5271,
      "Ġgeograafilise": 5272,
      "villa": 5273,
      "Ġ850": 5274,
      "Ġametiasutus": 5275,
      "Ġnouet": 5276,
      "ction": 5277,
      "Ġgroup": 5278,
      "oderatsiooni": 5279,
      "Ġjoustumist": 5280,
      "latsiooni": 5281,
      "Ġsil": 5282,
      "hed": 5283,
      "Ġkehtivate": 5284,
      "Ġkasutab": 5285,
      "Ġsubsiidi": 5286,
      "Ġalusta": 5287,
      "Ġkajasta": 5288,
      "Ġvalmistamiseks": 5289,
      "Ġlange": 5290,
      "Ġajutiste": 5291,
      "Ġdigitaal": 5292,
      "Ġpunktist": 5293,
      "Ġliikumis": 5294,
      "Ġste": 5295,
      "Ġaruan": 5296,
      "uhenduse": 5297,
      "Ġuurimisperioodil": 5298,
      "Ġaafri": 5299,
      "Ġkoht": 5300,
      "Ġmaksta": 5301,
      "Ġtaielik": 5302,
      "Ġkl": 5303,
      "ben": 5304,
      "Ġtsu": 5305,
      "Ġnafta": 5306,
      "Ġkm": 5307,
      "Ġvahendeid": 5308,
      "nita": 5309,
      "miseni": 5310,
      "Ġkuum": 5311,
      "Ġarak": 5312,
      "margina": 5313,
      "Ġkooskola": 5314,
      "Ġdivide": 5315,
      "teise": 5316,
      "juhul": 5317,
      "Ġproovi": 5318,
      "Ġuusi": 5319,
      "Ġtoob": 5320,
      "Ġreklaami": 5321,
      "Ġametnike": 5322,
      "Ġveda": 5323,
      "Ġeksper": 5324,
      "Ġkoja": 5325,
      "Ġ121": 5326,
      "Ġfen": 5327,
      "Ġpiirkonnas": 5328,
      "Ġnendes": 5329,
      "Ġasuda": 5330,
      "Ġkliima": 5331,
      "Ġmottes": 5332,
      "tavale": 5333,
      "Ġuhist": 5334,
      "Ġtodeda": 5335,
      "Î¹Î±": 5336,
      "Ġrange": 5337,
      "mah": 5338,
      "alaste": 5339,
      "65": 5340,
      "Ġtoolepingu": 5341,
      "Ġhudro": 5342,
      "punkt": 5343,
      "Ġkoostis": 5344,
      "Ġoigusaktidega": 5345,
      "Ġhorvaa": 5346,
      "riski": 5347,
      "Ġkusimusega": 5348,
      "Ġerinevalt": 5349,
      "Ġajutiselt": 5350,
      "Ġkorg": 5351,
      "Ġkuus": 5352,
      "normide": 5353,
      "Ġostu": 5354,
      "lusse": 5355,
      "Ġukski": 5356,
      "Ġtuup": 5357,
      "Ġulesandeid": 5358,
      "Ġtabel": 5359,
      "uksuse": 5360,
      "Ġvaheline": 5361,
      "Ġalkoholi": 5362,
      "Ġlam": 5363,
      "ingust": 5364,
      "ride": 5365,
      "Ġpolitse": 5366,
      "Ġseisukoht": 5367,
      "Ġtuhistamise": 5368,
      "Ġwit": 5369,
      "Ġvaidetavalt": 5370,
      "Ġotsusele": 5371,
      "Ġ145": 5372,
      "number": 5373,
      "litsentsi": 5374,
      "Ġjuha": 5375,
      "Ġparandus": 5376,
      "kaesole": 5377,
      "Ġplas": 5378,
      "Ġaktsiisi": 5379,
      "Ġtaiendavad": 5380,
      "Ġvalda": 5381,
      "Ġkumu": 5382,
      "Ġtuli": 5383,
      "Ġmikro": 5384,
      "Ġlopule": 5385,
      "Ġkohtud": 5386,
      "tsele": 5387,
      "Ġpealegi": 5388,
      "Ġdokumente": 5389,
      "Ġtootmiseks": 5390,
      "Ġvahendamise": 5391,
      "ktora": 5392,
      "Ġuldkoh": 5393,
      "Ġkasitleda": 5394,
      "Ġtuuma": 5395,
      "Ġharidus": 5396,
      "Ġturvali": 5397,
      "seadme": 5398,
      "Ġtaasta": 5399,
      "struk": 5400,
      "Ġ139": 5401,
      "Ġebas": 5402,
      "ji": 5403,
      "Ġtekitatud": 5404,
      "ree": 5405,
      "Ġhoia": 5406,
      "projekti": 5407,
      "Ġarvamust": 5408,
      "Ġmenetluste": 5409,
      "taval": 5410,
      "Ġlahendus": 5411,
      "ĠÂ°": 5412,
      "Ġvoime": 5413,
      "Ġuurida": 5414,
      "Ġteatise": 5415,
      "Ġfinal": 5416,
      "Ġsissenoud": 5417,
      "Ġtuginedes": 5418,
      "ruu": 5419,
      "Ġsood": 5420,
      "laadi": 5421,
      "cs": 5422,
      "Ġalusmaaruse": 5423,
      "ĠâĢ²": 5424,
      "Ġww": 5425,
      "79": 5426,
      "Ġauton": 5427,
      "Ġlabivii": 5428,
      "tz": 5429,
      "Ġ135": 5430,
      "Ġliht": 5431,
      "fin": 5432,
      "Ġtekib": 5433,
      "sisaldusega": 5434,
      "Ġtegelik": 5435,
      "ĠÎ¼": 5436,
      "Ġlie": 5437,
      "Ġkohtuvaidluse": 5438,
      "oode": 5439,
      "Ġkomple": 5440,
      "aruanne": 5441,
      "Ġkoonda": 5442,
      "Ġbis": 5443,
      "Ġkaitsega": 5444,
      "Ġkohaliku": 5445,
      "Ġkoosseisus": 5446,
      "Ġpaigu": 5447,
      "Ġhinnad": 5448,
      "Ġlahtuvalt": 5449,
      "gna": 5450,
      "Ġvajalike": 5451,
      "bera": 5452,
      "Ġregulatiiv": 5453,
      "usaa": 5454,
      "kandja": 5455,
      "Ġkaudselt": 5456,
      "Ġmaksus": 5457,
      "hind": 5458,
      "Ġmuutmine": 5459,
      "Ġlopetamise": 5460,
      "Ġavaldamise": 5461,
      "Ġpohimotteid": 5462,
      "Ġmaaelu": 5463,
      "Ġtootmisvoi": 5464,
      "61": 5465,
      "torite": 5466,
      "Ġkasuks": 5467,
      "Ġtootasu": 5468,
      "kindlustuse": 5469,
      "Ġreguleeritud": 5470,
      "Ġilmselgelt": 5471,
      "Ġkumne": 5472,
      "Ġtaotlust": 5473,
      "Ġotsuseid": 5474,
      "piiran": 5475,
      "Ġlugeda": 5476,
      "deli": 5477,
      "Ġettepanekut": 5478,
      "Ġvoimu": 5479,
      "Ġluuakse": 5480,
      "fel": 5481,
      "Ġtoenaoliselt": 5482,
      "sinad": 5483,
      "Ġtoetada": 5484,
      "usteemis": 5485,
      "Ġ263": 5486,
      "Ġhorisontaal": 5487,
      "Ġkrediidikvaliteedi": 5488,
      "Ġruumi": 5489,
      "ner": 5490,
      "Ġosaleda": 5491,
      "Ġtoohoive": 5492,
      "ai": 5493,
      "leh": 5494,
      "ruumi": 5495,
      "Ġnomenkla": 5496,
      "010": 5497,
      "Ġkohapeal": 5498,
      "Ġravimite": 5499,
      "Ġvoimaliku": 5500,
      "73": 5501,
      "Ġveterinaar": 5502,
      "jargi": 5503,
      "Ġnendele": 5504,
      "Ġjatkuvalt": 5505,
      "Ġalati": 5506,
      "rge": 5507,
      "Ġomal": 5508,
      "musi": 5509,
      "inaal": 5510,
      "Ġ720": 5511,
      "Ġreisijate": 5512,
      "Ġterritori": 5513,
      "pita": 5514,
      "Ġeeldab": 5515,
      "ua": 5516,
      "Ġvaiksem": 5517,
      "Ġjoud": 5518,
      "Ġuk": 5519,
      "mikus": 5520,
      "Ġtapselt": 5521,
      "Ġstab": 5522,
      "pak": 5523,
      "joue": 5524,
      "metalli": 5525,
      "tarbi": 5526,
      "ring": 5527,
      "Ġtootlemise": 5528,
      "liikide": 5529,
      "tulu": 5530,
      "Ġsoltub": 5531,
      "Ġloigete": 5532,
      "Ġkustu": 5533,
      "Ġliiklus": 5534,
      "Ġalumiini": 5535,
      "Ġallpool": 5536,
      "Ġmg": 5537,
      "ima": 5538,
      "Ġotsi": 5539,
      "Ġtervik": 5540,
      "Ġkodakondsus": 5541,
      "Ġcps": 5542,
      "sisaldus": 5543,
      "Ġcha": 5544,
      "vahelise": 5545,
      "Ġelektroonilise": 5546,
      "Ġstrateegia": 5547,
      "Ġtagamise": 5548,
      "Ġosaluse": 5549,
      "vise": 5550,
      "Ġmaterjalid": 5551,
      "davad": 5552,
      "Ġomavahel": 5553,
      "Ġmol": 5554,
      "Ġ122": 5555,
      "Ġkohane": 5556,
      "Ġkulmutatud": 5557,
      "Ġstabiil": 5558,
      "Ġ132": 5559,
      "Ġkusimustele": 5560,
      "Ġjaetud": 5561,
      "Ġosalemise": 5562,
      "nie": 5563,
      "Ġmajandustegevuse": 5564,
      "Ġregistreerimis": 5565,
      "Ġladus": 5566,
      "Ġáĥ": 5567,
      "Ġche": 5568,
      "son": 5569,
      "Ġtunnustamise": 5570,
      "periood": 5571,
      "Ġerakorra": 5572,
      "Ġsamalaad": 5573,
      "Ġelus": 5574,
      "Ġ611": 5575,
      "Ġ160": 5576,
      "Ġbundes": 5577,
      "Ġund": 5578,
      "Ġjatmine": 5579,
      "Ġeraldatud": 5580,
      "Ġotsusest": 5581,
      "Ġ2574": 5582,
      "Ġ440": 5583,
      "Ġtahtsust": 5584,
      "Ġty": 5585,
      "Ġsaast": 5586,
      "bjekti": 5587,
      "Î³": 5588,
      "63": 5589,
      "Ġ124": 5590,
      "Ġvaljastatud": 5591,
      "mino": 5592,
      "Ġmuust": 5593,
      "Ġteadusuuri": 5594,
      "Ġvabaduse": 5595,
      "ĠÏĦ": 5596,
      "did": 5597,
      "mide": 5598,
      "Ġuniver": 5599,
      "protse": 5600,
      "Ġaafrika": 5601,
      "Ġoiguskindluse": 5602,
      "Ġkliendi": 5603,
      "Ġ141": 5604,
      "Ġarvestada": 5605,
      "Ġkuuluvast": 5606,
      "endu": 5607,
      "Ġluka": 5608,
      "gne": 5609,
      "roo": 5610,
      "Ġasemel": 5611,
      "Ġod": 5612,
      "susteem": 5613,
      "Ġsaaja": 5614,
      "Ġrahaliste": 5615,
      "Ġtarbijate": 5616,
      "Ġtel": 5617,
      "Ġkauge": 5618,
      "Ġrahastamise": 5619,
      "maja": 5620,
      "Ġiden": 5621,
      "Ġtulemuste": 5622,
      "Ġandmebaasi": 5623,
      "Ġtaotluste": 5624,
      "hinnaga": 5625,
      "dad": 5626,
      "Ġiseene": 5627,
      "Ġkinnitus": 5628,
      "Ġtaieliku": 5629,
      "Ġavaldata": 5630,
      "mse": 5631,
      "Ġkun": 5632,
      "Ġsertifitseeri": 5633,
      "sate": 5634,
      "Ġteavitatud": 5635,
      "Ġtood": 5636,
      "Ġpote": 5637,
      "Ġkombineeritud": 5638,
      "moist": 5639,
      "Ġindia": 5640,
      "Ġsoltumata": 5641,
      "Ġkaeb": 5642,
      "wer": 5643,
      "isse": 5644,
      "Ġolemasolevate": 5645,
      "Ġteavitab": 5646,
      "67": 5647,
      "Ġjuhtimis": 5648,
      "Ġkeskkonnamoju": 5649,
      "Ġheitko": 5650,
      "Ġkaebus": 5651,
      "Ġmaksejoue": 5652,
      "egel": 5653,
      "Ġpollumajandustoodete": 5654,
      "Ġreda": 5655,
      "Ġkohaldamiseks": 5656,
      "Ġiseenesest": 5657,
      "Ġtaastu": 5658,
      "Ġterasest": 5659,
      "stas": 5660,
      "Ġkeskvali": 5661,
      "seeri": 5662,
      "Ġpakendi": 5663,
      "Ġ134": 5664,
      "Ġresolutsiooni": 5665,
      "tiliselt": 5666,
      "Ġlennundus": 5667,
      "Ġkiiresti": 5668,
      "gru": 5669,
      "Ġkoondu": 5670,
      "ph": 5671,
      "Ġnoor": 5672,
      "mused": 5673,
      "Ġtohususe": 5674,
      "Ġlaie": 5675,
      "Õ¥": 5676,
      "Ġ350": 5677,
      "Ġvaatlusaluse": 5678,
      "Ġkonesole": 5679,
      "uts": 5680,
      "Ġvajalikuks": 5681,
      "Ġdekre": 5682,
      "Ġkalala": 5683,
      "Ġpadevust": 5684,
      "Ġby": 5685,
      "Ġisikust": 5686,
      "Ġinn": 5687,
      "sol": 5688,
      "Ġimporditud": 5689,
      "Ġmadalmaad": 5690,
      "kohal": 5691,
      "Ġ129": 5692,
      "Ġtulumaksu": 5693,
      "Ġmitmeaastase": 5694,
      "Ġkaupu": 5695,
      "Ġ730": 5696,
      "Ġuuringu": 5697,
      "mann": 5698,
      "Ġveerus": 5699,
      "rismi": 5700,
      "Ġkohtute": 5701,
      "Ġkriteeriumide": 5702,
      "Ġrida": 5703,
      "Ġettepanekus": 5704,
      "Ġarvutatakse": 5705,
      "Ġimo": 5706,
      "alle": 5707,
      "Ġviinamarja": 5708,
      "Ġsertifikaadi": 5709,
      "gete": 5710,
      "Ġametnik": 5711,
      "Ġnaitab": 5712,
      "Ġmenetlused": 5713,
      "Ġkusimuste": 5714,
      "Ġnimetamata": 5715,
      "Ġkemika": 5716,
      "ohus": 5717,
      "Ġkusimusi": 5718,
      "kke": 5719,
      "Ġneu": 5720,
      "Ġprakti": 5721,
      "Ġarendus": 5722,
      "neesia": 5723,
      "Ġtund": 5724,
      "Ġtoendatud": 5725,
      "Ġpuudumise": 5726,
      "Ġviidud": 5727,
      "Ġsissejuha": 5728,
      "Ġtuleneva": 5729,
      "Ġlouna": 5730,
      "Ġvastuvoetamatu": 5731,
      "Ñĥ": 5732,
      "Ġkuh": 5733,
      "gede": 5734,
      "Ġkomisjonilt": 5735,
      "Ġtuubikinnituse": 5736,
      "otsus": 5737,
      "Ġtoostusdi": 5738,
      "Ġreguleerivad": 5739,
      "cor": 5740,
      "Ġpohinevad": 5741,
      "Ġhetkel": 5742,
      "tusvoime": 5743,
      "ture": 5744,
      "Ġkattesaadav": 5745,
      "Ġwww": 5746,
      "Ġflu": 5747,
      "kirjuta": 5748,
      "Ġkorrapara": 5749,
      "Ġtabeli": 5750,
      "Ġotstarbe": 5751,
      "rian": 5752,
      "Ġlahuta": 5753,
      "Ġpalus": 5754,
      "flu": 5755,
      "tul": 5756,
      "Ġtehniline": 5757,
      "munikatsiooni": 5758,
      "Ġjaotis": 5759,
      "Ġtahtsusega": 5760,
      "koostoo": 5761,
      "Ġtingimata": 5762,
      "Ġteistele": 5763,
      "Ġorig": 5764,
      "Ġuhest": 5765,
      "Ġuurimine": 5766,
      "Ġpositiiv": 5767,
      "fine": 5768,
      "Ġuv": 5769,
      "Ġkusimustes": 5770,
      "Ġmateriaal": 5771,
      "Ġseemne": 5772,
      "Ġkestus": 5773,
      "Ġpatendi": 5774,
      "Ġkohtupraktikast": 5775,
      "Ġtaht": 5776,
      "hv": 5777,
      "Ġhy": 5778,
      "9900": 5779,
      "Ġmaksete": 5780,
      "Ġtoostusdisainilah": 5781,
      "Ġteostada": 5782,
      "Ġkaibemaksudirektiivi": 5783,
      "msus": 5784,
      "Ġsatetele": 5785,
      "Ġtagajargi": 5786,
      "Ġassotsiatsiooni": 5787,
      "taseme": 5788,
      "Ġuut": 5789,
      "olekul": 5790,
      "limi": 5791,
      "Ġdisainilah": 5792,
      "Ġkujutis": 5793,
      "Ġif": 5794,
      "Ġjaatmed": 5795,
      "Ġhinnangul": 5796,
      "kood": 5797,
      "Ġmetalli": 5798,
      "Ġkehtiva": 5799,
      "Ġhada": 5800,
      "kasva": 5801,
      "Ġviienda": 5802,
      "69": 5803,
      "Ġstatistika": 5804,
      "Ġtruki": 5805,
      "rie": 5806,
      "Ġanaloogia": 5807,
      "Ġpiisab": 5808,
      "Ġtaiendavaid": 5809,
      "Ġkriisilahendus": 5810,
      "last": 5811,
      "Ġprognoo": 5812,
      "Ġseisneb": 5813,
      "oodus": 5814,
      "ea": 5815,
      "Ġmaksmise": 5816,
      "toimi": 5817,
      "Ġ230": 5818,
      "Ġseadusega": 5819,
      "yl": 5820,
      "teenuseid": 5821,
      "Ġindust": 5822,
      "ena": 5823,
      "Ġmoonuta": 5824,
      "Ġuldsusele": 5825,
      "susteemide": 5826,
      "Ġuhel": 5827,
      "leri": 5828,
      "ttevote": 5829,
      "kategoo": 5830,
      "Ġselliselt": 5831,
      "Ġpeatukis": 5832,
      "Ġlossi": 5833,
      "Ġrahvusvaheline": 5834,
      "Ġmuta": 5835,
      "bus": 5836,
      "raine": 5837,
      "Ġterritooriumile": 5838,
      "maarust": 5839,
      "Ġnaidi": 5840,
      "ĠÎº": 5841,
      "psi": 5842,
      "Ġfar": 5843,
      "ulesan": 5844,
      "mit": 5845,
      "Ġettekandja": 5846,
      "tustest": 5847,
      "Ġeksportija": 5848,
      "astus": 5849,
      "Ġbrusse": 5850,
      "Ġfo": 5851,
      "Ġkirjalikult": 5852,
      "Ġvarade": 5853,
      "Ġea": 5854,
      "Ġpereliik": 5855,
      "Ġjargne": 5856,
      "Ġjuriidilise": 5857,
      "Ġligika": 5858,
      "koda": 5859,
      "Ġmargitakse": 5860,
      "Ġalapunktis": 5861,
      "Ġpakkuja": 5862,
      "Ġsoori": 5863,
      "Ġtuhistamishagi": 5864,
      "Ġ133": 5865,
      "Ġtech": 5866,
      "Ġasuva": 5867,
      "riigis": 5868,
      "Ġametliku": 5869,
      "Ġsec": 5870,
      "ons": 5871,
      "Ġriigist": 5872,
      "Ġtohiks": 5873,
      "Ġtalli": 5874,
      "joo": 5875,
      "Ġkinnitas": 5876,
      "Ġviies": 5877,
      "Ġrel": 5878,
      "Ġmeedet": 5879,
      "Ġmoodustavad": 5880,
      "inde": 5881,
      "Ġeurodes": 5882,
      "Ġandmine": 5883,
      "Ġtuleva": 5884,
      "Ġtegutseb": 5885,
      "Ġother": 5886,
      "ros": 5887,
      "Ġehitust": 5888,
      "ettevotjate": 5889,
      "likes": 5890,
      "Ġsih": 5891,
      "gade": 5892,
      "Ġrendi": 5893,
      "tata": 5894,
      "Ġjoustumise": 5895,
      "Ġumb": 5896,
      "Ġukraina": 5897,
      "kri": 5898,
      "Ġkasutavad": 5899,
      "Ġpohjendamis": 5900,
      "Ġkoopia": 5901,
      "Ġsadama": 5902,
      "Ġvastuvoetamatuse": 5903,
      "Ġ128": 5904,
      "Ġtaidab": 5905,
      "Ġwith": 5906,
      "Ġesile": 5907,
      "Ġilmne": 5908,
      "Ġinvesteeringu": 5909,
      "Ġraamotsuse": 5910,
      "Ġuhele": 5911,
      "64": 5912,
      "Ġalust": 5913,
      "Ġeg": 5914,
      "Ġavalikusta": 5915,
      "meetme": 5916,
      "Ġelukoht": 5917,
      "Ġveed": 5918,
      "Ġtarbe": 5919,
      "malda": 5920,
      "kohtade": 5921,
      "ration": 5922,
      "Ġhuvitist": 5923,
      "Ġpige": 5924,
      "tarii": 5925,
      "Ġsum": 5926,
      "Ġkolb": 5927,
      "keelne": 5928,
      "Ġkohtukulude": 5929,
      "Ġinvesteerimisuhingud": 5930,
      "Ġkindlakstege": 5931,
      "Ġkoolitus": 5932,
      "Ġolulist": 5933,
      "Ġprovin": 5934,
      "vaartused": 5935,
      "Ġarakuula": 5936,
      "Ġpigem": 5937,
      "muugi": 5938,
      "Ġpaberi": 5939,
      "Ġkemikaali": 5940,
      "Ġtoimiku": 5941,
      "Ġed": 5942,
      "Ġglu": 5943,
      "Ġmets": 5944,
      "Ġkonkreetsete": 5945,
      "Ġ131": 5946,
      "Ġhorvaatia": 5947,
      "Ġkonealuseid": 5948,
      "Ġjareldusele": 5949,
      "Ġexcl": 5950,
      "Ġ050": 5951,
      "Ġvajaliku": 5952,
      "anda": 5953,
      "Ġspetsiaal": 5954,
      "kad": 5955,
      "Ġgeme": 5956,
      "Ġkaasatud": 5957,
      "Ġperi": 5958,
      "Ġmojutab": 5959,
      "Ġeemalda": 5960,
      "Ġtoetab": 5961,
      "selge": 5962,
      "ohutusa": 5963,
      "Ġelektrienergia": 5964,
      "Ġdemo": 5965,
      "aega": 5966,
      "Ġkontsessi": 5967,
      "Ġsc": 5968,
      "Ġosta": 5969,
      "Ġtoosuh": 5970,
      "Ġjuhtimise": 5971,
      "rad": 5972,
      "Ġkoosseisu": 5973,
      "Ġtulevi": 5974,
      "Ġargument": 5975,
      "Ġrahvavabariigi": 5976,
      "riteeriu": 5977,
      "Ġkata": 5978,
      "Ġpel": 5979,
      "asutusele": 5980,
      "Ġkannab": 5981,
      "Ġterritoriaal": 5982,
      "Ġvastavust": 5983,
      "Ġvastuvotmist": 5984,
      "pensioni": 5985,
      "Ġvaatlusal": 5986,
      "Ġjaavad": 5987,
      "Ġ157": 5988,
      "pea": 5989,
      "Ġtac": 5990,
      "Ġseejuures": 5991,
      "Ġarvestus": 5992,
      "Ġspordi": 5993,
      "Ġtoepoolest": 5994,
      "ndis": 5995,
      "Ġesemeks": 5996,
      "Ġoigusaktides": 5997,
      "Ġsula": 5998,
      "Ġvalimisse": 5999,
      "Ġlepingule": 6000,
      "97": 6001,
      "Ġpiiranguid": 6002,
      "Ġcou": 6003,
      "pohise": 6004,
      "Ġkohtuse": 6005,
      "kisi": 6006,
      "Ġrn": 6007,
      "stes": 6008,
      "Ġedendada": 6009,
      "eli": 6010,
      "Ġsuhe": 6011,
      "Ġxi": 6012,
      "Ġuletada": 6013,
      "Ġpooleli": 6014,
      "Ġmolemad": 6015,
      "Ġopera": 6016,
      "Ġjareldub": 6017,
      "Ġkaubamarki": 6018,
      "Ġinvesteerimisuhingute": 6019,
      "Ġotsene": 6020,
      "Ġtabelis": 6021,
      "Ġtoostusdisainilahendused": 6022,
      "matus": 6023,
      "Ġsegu": 6024,
      "Ġkahjustada": 6025,
      "Ġtagatakse": 6026,
      "usalda": 6027,
      "Ġleidnud": 6028,
      "Ġuksus": 6029,
      "Ġolemuse": 6030,
      "Ġosalise": 6031,
      "Ġaastatel": 6032,
      "Ġwto": 6033,
      "Ġtapsustada": 6034,
      "Ġveebisa": 6035,
      "Ġebasood": 6036,
      "Ġvajadust": 6037,
      "Ġoiguslikku": 6038,
      "andmed": 6039,
      "Ġtosta": 6040,
      "Ġpartnerlus": 6041,
      "Ġfinantsraamistiku": 6042,
      "Ġtolgenduse": 6043,
      "Ġvahelist": 6044,
      "Ġulal": 6045,
      "Ġpur": 6046,
      "Ġlopu": 6047,
      "Ġoluliste": 6048,
      "Ġbor": 6049,
      "unal": 6050,
      "Ġkuivatatud": 6051,
      "Ġtunnistatud": 6052,
      "viis": 6053,
      "Ġoiguslikud": 6054,
      "Ġpunktide": 6055,
      "Ġesimees": 6056,
      "cher": 6057,
      "Ġkatke": 6058,
      "Ġandma": 6059,
      "ket": 6060,
      "Ġolulised": 6061,
      "Ġuli": 6062,
      "jp": 6063,
      "Ġulatust": 6064,
      "Ġhindamist": 6065,
      "Ġtagajarjed": 6066,
      "Ġsam": 6067,
      "piirkond": 6068,
      "ruh": 6069,
      "Ġbelgi": 6070,
      "jao": 6071,
      "Ġmaksuh": 6072,
      "Ġvabastatud": 6073,
      "Ġoigusest": 6074,
      "Ġassotsie": 6075,
      "Ġkupro": 6076,
      "siis": 6077,
      "Ġarvutamise": 6078,
      "Ġsolida": 6079,
      "Ġtaimekaitse": 6080,
      "Ġseaduses": 6081,
      "Ġpoi": 6082,
      "Ġohutuse": 6083,
      "bur": 6084,
      "stiku": 6085,
      "Ġmingil": 6086,
      "Ġ610": 6087,
      "kuj": 6088,
      "via": 6089,
      "sektoris": 6090,
      "Ġluksemburgi": 6091,
      "Ġkasum": 6092,
      "standa": 6093,
      "atrium": 6094,
      "Ġvaljendatud": 6095,
      "toime": 6096,
      "Ġwa": 6097,
      "Ġefsa": 6098,
      "Ġtegevusega": 6099,
      "Ġulekand": 6100,
      "Ġ1049": 6101,
      "Ġvalisma": 6102,
      "Ġreformi": 6103,
      "fitsi": 6104,
      "Ġuldjuhul": 6105,
      "Ġkonventsioon": 6106,
      "tikat": 6107,
      "Ġpuuvilla": 6108,
      "Ġ147": 6109,
      "Ġreg": 6110,
      "Ġmuudatusi": 6111,
      "onne": 6112,
      "Ġluxe": 6113,
      "Ġuhtlasi": 6114,
      "Ġ340": 6115,
      "Ġuletab": 6116,
      "Ġtana": 6117,
      "Ġdeuts": 6118,
      "Ġsellesse": 6119,
      "Ġ218": 6120,
      "Ġprotokoll": 6121,
      "Ġinde": 6122,
      "Ġjusti": 6123,
      "Ġtaotlusel": 6124,
      "tilised": 6125,
      "Ġvolausalda": 6126,
      "Ġniisiis": 6127,
      "Ġpeadirektora": 6128,
      "ivord": 6129,
      "Ġalgatatud": 6130,
      "Ġvajadusel": 6131,
      "rup": 6132,
      "Ġdekreedi": 6133,
      "Ġuksikisi": 6134,
      "ifi": 6135,
      "Ġjuhatuse": 6136,
      "sesse": 6137,
      "suu": 6138,
      "Ġjaeti": 6139,
      "Ġeristusvoime": 6140,
      "Ġteravilja": 6141,
      "cio": 6142,
      "Ġkaubamarkide": 6143,
      "Ġelluvii": 6144,
      "Ġhiline": 6145,
      "ongi": 6146,
      "Ġvoor": 6147,
      "nai": 6148,
      "Ġtoodet": 6149,
      "Ġtoimingute": 6150,
      "Ġniivord": 6151,
      "Ġmaitse": 6152,
      "Ġhoolimata": 6153,
      "Ġjarelevalvet": 6154,
      "Ġallakirjuta": 6155,
      "Ġkindlaksmaaramisel": 6156,
      "Ġhttp": 6157,
      "dunud": 6158,
      "ments": 6159,
      "Ġsolmida": 6160,
      "ĠÃĹ": 6161,
      "Ġedastab": 6162,
      "Ġisikuid": 6163,
      "Ġkohtunikud": 6164,
      "Ġgh": 6165,
      "erium": 6166,
      "ok": 6167,
      "raani": 6168,
      "Ġtarnija": 6169,
      "Ġtolliseadustiku": 6170,
      "Ġprojektide": 6171,
      "pani": 6172,
      "Ġvanema": 6173,
      "Ġpohine": 6174,
      "Ġfinantse": 6175,
      "Ġolulisi": 6176,
      "Ġgruppi": 6177,
      "Ġrasva": 6178,
      "Ġ700": 6179,
      "klori": 6180,
      "Ġvastusta": 6181,
      "sell": 6182,
      "tsuste": 6183,
      "ĠÎµ": 6184,
      "Ġsugu": 6185,
      "Ġkaalutud": 6186,
      "tajad": 6187,
      "Ġeeldada": 6188,
      "Ġvorm": 6189,
      "Ġ0000": 6190,
      "Ġ180": 6191,
      "Ġmeetmetest": 6192,
      "Ġdip": 6193,
      "Ġalal": 6194,
      "Ġroi": 6195,
      "Ġpeamine": 6196,
      "Ġefta": 6197,
      "Ġmakstakse": 6198,
      "votmise": 6199,
      "toidu": 6200,
      "Ġprogrammide": 6201,
      "teabe": 6202,
      "Ġgmi": 6203,
      "Ġmaksuhaldu": 6204,
      "Ġiseseis": 6205,
      "Ġrakenduseeskirjad": 6206,
      "umis": 6207,
      "Ġpeetud": 6208,
      "Ġligikaudu": 6209,
      "Ġsoodsa": 6210,
      "Ġkolmandatest": 6211,
      "Ġainus": 6212,
      "Ġkumb": 6213,
      "Ġasjaomast": 6214,
      "rr": 6215,
      "Ġrs": 6216,
      "miid": 6217,
      "Ġkrediidiasutuse": 6218,
      "Ġmais": 6219,
      "Ġjareldused": 6220,
      "Ġpakkumis": 6221,
      "Ġ143": 6222,
      "Ġkokkuvote": 6223,
      "tavatele": 6224,
      "Ġgminy": 6225,
      "Ġjargneva": 6226,
      "fc": 6227,
      "Ġjaemuugi": 6228,
      "ĠÏĢ": 6229,
      "Ġtubaka": 6230,
      "Ġpidi": 6231,
      "skeemi": 6232,
      "ĠÐ¿": 6233,
      "Ġtasakaalusta": 6234,
      "kohustuste": 6235,
      "vere": 6236,
      "Ġloppu": 6237,
      "eme": 6238,
      "Ġkutsu": 6239,
      "Ġtaitmata": 6240,
      "eria": 6241,
      "Ġoiguslikult": 6242,
      "Ġargumendi": 6243,
      "Ġkaheks": 6244,
      "Ġ1987": 6245,
      "Ġtakistada": 6246,
      "Ġsattes": 6247,
      "Ġtuubi": 6248,
      "Ġorganisatsioonide": 6249,
      "Ġaidata": 6250,
      "Ġkrediidilimi": 6251,
      "Ġrahaline": 6252,
      "Ġsubsiidiumi": 6253,
      "fos": 6254,
      "Ġseatud": 6255,
      "Ġida": 6256,
      "Ġhagiavalduse": 6257,
      "Ġluxemb": 6258,
      "Ġasjaomasele": 6259,
      "Ġminist": 6260,
      "Ġ182": 6261,
      "Ġik": 6262,
      "Ġaitab": 6263,
      "Ġsatet": 6264,
      "Ġpohimotete": 6265,
      "Ġlepingud": 6266,
      "int": 6267,
      "Ġinnovatsiooni": 6268,
      "Ġsummat": 6269,
      "Ġteenistu": 6270,
      "Ġkohusta": 6271,
      "Ġpohjuse": 6272,
      "Ġvaldkondades": 6273,
      "berg": 6274,
      "Ġsti": 6275,
      "mistah": 6276,
      "utakse": 6277,
      "Ġesitamine": 6278,
      "Ġsank": 6279,
      "Ġ1989": 6280,
      "Ġtutvuda": 6281,
      "stamiseks": 6282,
      "kuulu": 6283,
      "Ġautonoo": 6284,
      "Ġmarg": 6285,
      "Ġuvjp": 6286,
      "Ġheakskiidetud": 6287,
      "Ġ1234": 6288,
      "Ġhaldamise": 6289,
      "Ġland": 6290,
      "Ġkulje": 6291,
      "Ġ900": 6292,
      "nitaar": 6293,
      "pil": 6294,
      "Ġplaneeri": 6295,
      "Ġdetsembrini": 6296,
      "Ġkahte": 6297,
      "Ġraamistiku": 6298,
      "Ġliikmesriigile": 6299,
      "Ġ137": 6300,
      "Ġesine": 6301,
      "Ġmajandusliku": 6302,
      "Ġ148": 6303,
      "ohutuse": 6304,
      "Ġpikkuse": 6305,
      "Ġpohis": 6306,
      "Ġindo": 6307,
      "min": 6308,
      "Ġalgatamise": 6309,
      "Ġebaseadusliku": 6310,
      "Ġkantsele": 6311,
      "Ġreegli": 6312,
      "lisuse": 6313,
      "transpordi": 6314,
      "Ġametniku": 6315,
      "Ġetteheide": 6316,
      "protsessi": 6317,
      "endis": 6318,
      "tunud": 6319,
      "Ġkuhu": 6320,
      "Ġkonkursi": 6321,
      "Ġkohtualluvuse": 6322,
      "Ġmaksma": 6323,
      "Ġkgt": 6324,
      "Ġringlusse": 6325,
      "kohast": 6326,
      "Ġartiklitega": 6327,
      "Ġuksused": 6328,
      "Ġtasemel": 6329,
      "Ġsaksamaal": 6330,
      "Ġasutamislepingut": 6331,
      "wie": 6332,
      "Ġkohast": 6333,
      "Ġ168": 6334,
      "Ġerandina": 6335,
      "Ġlikvide": 6336,
      "tsused": 6337,
      "Ġkohtusekretar": 6338,
      "Ġ178": 6339,
      "Ġtribunal": 6340,
      "Ġjarjes": 6341,
      "Ġmenetlusosa": 6342,
      "Ġkirje": 6343,
      "tatiiv": 6344,
      "ttevotte": 6345,
      "Ġdiskrimineeri": 6346,
      "Ġotsustanud": 6347,
      "Ġlae": 6348,
      "Ġjatkata": 6349,
      "Ġid": 6350,
      "sula": 6351,
      "Ġluhi": 6352,
      "ÐµÐ½": 6353,
      "oonide": 6354,
      "Ġvordle": 6355,
      "wal": 6356,
      "Ġajutine": 6357,
      "Ġ640": 6358,
      "Ġvastutava": 6359,
      "Ġjareldust": 6360,
      "organi": 6361,
      "Ġerinevaid": 6362,
      "Ġportugal": 6363,
      "Ġisikutel": 6364,
      "Ġpost": 6365,
      "Ġ142": 6366,
      "Ġkohustuslik": 6367,
      "Ġile": 6368,
      "Ġmees": 6369,
      "Ġmuudatuse": 6370,
      "Ġmolema": 6371,
      "normid": 6372,
      "Ġpikendada": 6373,
      "usli": 6374,
      "artik": 6375,
      "Ġkasitletud": 6376,
      "Ġkasutuses": 6377,
      "tatav": 6378,
      "Ġvaadata": 6379,
      "Ġtariifi": 6380,
      "metuul": 6381,
      "Ġredaktsiooni": 6382,
      "ell": 6383,
      "akt": 6384,
      "Ġtagajarjel": 6385,
      "mee": 6386,
      "Ġvanuse": 6387,
      "Ġprotsessi": 6388,
      "Ġ234": 6389,
      "arv": 6390,
      "Ġusa": 6391,
      "78": 6392,
      "Ġpuit": 6393,
      "Ġmaksustamis": 6394,
      "sursside": 6395,
      "Ġ0207": 6396,
      "allika": 6397,
      "Ġfur": 6398,
      "Ġjuris": 6399,
      "ulatu": 6400,
      "vedu": 6401,
      "Ġ630": 6402,
      "nistus": 6403,
      "Ġneli": 6404,
      "Ġlong": 6405,
      "Ġkodanikud": 6406,
      "Ġmalta": 6407,
      "Ġnoustuda": 6408,
      "Ġliigid": 6409,
      "Ġveelgi": 6410,
      "Ġvalida": 6411,
      "Ġtelekom": 6412,
      "Ġtemperatuuri": 6413,
      "Ġ722": 6414,
      "Ġmoodustab": 6415,
      "Ġsuured": 6416,
      "Ġtolgendamise": 6417,
      "tavast": 6418,
      "finan": 6419,
      "Ġrakendamisel": 6420,
      "Ġtaiesti": 6421,
      "stsi": 6422,
      "Ġseada": 6423,
      "meti": 6424,
      "pee": 6425,
      "Ġsei": 6426,
      "Ġinfrastruktuuri": 6427,
      "Ġkrediidilimiit": 6428,
      "lal": 6429,
      "Ġfe": 6430,
      "Ġvabalt": 6431,
      "Ġseisukohad": 6432,
      "Ġkontakt": 6433,
      "Ġ170": 6434,
      "jud": 6435,
      "Ġtegutsevad": 6436,
      "ziimi": 6437,
      "Ġpolitsei": 6438,
      "tai": 6439,
      "Ġsr": 6440,
      "Ġaktsiona": 6441,
      "Ġedasikindlustus": 6442,
      "Ġlisan": 6443,
      "Ġeuropean": 6444,
      "Ġautomaatselt": 6445,
      "Ð¼": 6446,
      "nte": 6447,
      "ret": 6448,
      "Ġmillise": 6449,
      "toode": 6450,
      "ya": 6451,
      "Ġtaitmisel": 6452,
      "Ġluxembou": 6453,
      "Ġtahtis": 6454,
      "tingimusi": 6455,
      "ente": 6456,
      "Ġpanna": 6457,
      "inid": 6458,
      "Ġisikul": 6459,
      "Ġ310": 6460,
      "lused": 6461,
      "kur": 6462,
      "vab": 6463,
      "Ġpohimotted": 6464,
      "Ġloete": 6465,
      "Ġarvuti": 6466,
      "Ġtooraine": 6467,
      "Ġlubab": 6468,
      "Ġsuute": 6469,
      "Ġtaiendav": 6470,
      "Ġrepu": 6471,
      "laeva": 6472,
      "Ġkulge": 6473,
      "Ġvaitega": 6474,
      "hai": 6475,
      "Ġkuuluvaid": 6476,
      "Ġavaldada": 6477,
      "Ġaluslepingu": 6478,
      "Ġakt": 6479,
      "gis": 6480,
      "Ġliikmesriike": 6481,
      "ĠÑģ": 6482,
      "Ġjaanuar": 6483,
      "kutse": 6484,
      "Ġsusteemide": 6485,
      "Ġarvutatud": 6486,
      "Ġriskide": 6487,
      "Ġtegevusala": 6488,
      "asjades": 6489,
      "Ġkaug": 6490,
      "Ġhel": 6491,
      "Ġjatkus": 6492,
      "Ġrolli": 6493,
      "katse": 6494,
      "Ġrikkumiste": 6495,
      "Ġtegevuste": 6496,
      "Ġtoke": 6497,
      "Ġuhekord": 6498,
      "Ġeeli": 6499,
      "valdkonna": 6500,
      "Ġinvestori": 6501,
      "cation": 6502,
      "Ġ152": 6503,
      "Ġosutaja": 6504,
      "alane": 6505,
      "oimi": 6506,
      "Ġkasutajate": 6507,
      "Ġkindlas": 6508,
      "Ġvaidluste": 6509,
      "stamist": 6510,
      "Ġmaht": 6511,
      "kaibe": 6512,
      "enti": 6513,
      "Ġbank": 6514,
      "Ġulde": 6515,
      "Ġ800": 6516,
      "bilise": 6517,
      "toodi": 6518,
      "Ġuhendusse": 6519,
      "produ": 6520,
      "ator": 6521,
      "Ġlihtsalt": 6522,
      "Ġcl": 6523,
      "Ġkonto": 6524,
      "Ġfuusilisest": 6525,
      "Ġteatas": 6526,
      "reside": 6527,
      "Ġmajanduse": 6528,
      "lide": 6529,
      "Ġolenevalt": 6530,
      "Ġjargida": 6531,
      "Ġkaibemaksus": 6532,
      "Ġaugustil": 6533,
      "Ġ151": 6534,
      "Ġsoit": 6535,
      "Ġtoiduohutusa": 6536,
      "Ġemi": 6537,
      "Ġnaevad": 6538,
      "kohustust": 6539,
      "Ġpaik": 6540,
      "hela": 6541,
      "Ġpaks": 6542,
      "Ġkriteeriu": 6543,
      "ut": 6544,
      "Ġpraeguse": 6545,
      "Ġuhtlustatud": 6546,
      "Ġneis": 6547,
      "Ġvaites": 6548,
      "Ġavaldatakse": 6549,
      "bid": 6550,
      "Ġkiri": 6551,
      "Ġviiakse": 6552,
      "Ġ999": 6553,
      "vastase": 6554,
      "Ġimporditolli": 6555,
      "Ġsilm": 6556,
      "Ġmaarati": 6557,
      "Ġliig": 6558,
      "raja": 6559,
      "Ġasjaomases": 6560,
      "Ġvaidlustada": 6561,
      "Ġ529900": 6562,
      "Ġalgatuse": 6563,
      "Ġabsol": 6564,
      "Ġmilline": 6565,
      "chten": 6566,
      "Ġtagasimaks": 6567,
      "Ġmoned": 6568,
      "korraldus": 6569,
      "Ġtulenev": 6570,
      "Ġ155": 6571,
      "taria": 6572,
      "Ġkoduli": 6573,
      "Ġmasina": 6574,
      "Ġsellises": 6575,
      "voolu": 6576,
      "korralduse": 6577,
      "Ġkindlad": 6578,
      "keskuse": 6579,
      "Ġklaas": 6580,
      "Ġkerg": 6581,
      "Ġhakka": 6582,
      "72": 6583,
      "Õ¡Õ": 6584,
      "Ġinterneti": 6585,
      "ilmaterja": 6586,
      "Ġsidusruhma": 6587,
      "haani": 6588,
      "Ġavalduse": 6589,
      "Ġdumpinguvastase": 6590,
      "Ġav": 6591,
      "Ġalgatus": 6592,
      "leegi": 6593,
      "Ġpiiril": 6594,
      "Ġsalve": 6595,
      "Ġkalalaeva": 6596,
      "uhoone": 6597,
      "sch": 6598,
      "stani": 6599,
      "maksed": 6600,
      "Ġlahendamise": 6601,
      "poolse": 6602,
      "Ġpadevale": 6603,
      "Ġtelefoni": 6604,
      "Î¹Îº": 6605,
      "Õ«": 6606,
      "Ġpotentsiaal": 6607,
      "ndeid": 6608,
      "Ġriie": 6609,
      "Ġonne": 6610,
      "Ġix": 6611,
      "Ġtaotlused": 6612,
      "ÏīÎ½": 6613,
      "lia": 6614,
      "Ġjark": 6615,
      "Ġmaaramine": 6616,
      "Ġsummade": 6617,
      "Ġjareldas": 6618,
      "Ġmeetmetega": 6619,
      "nage": 6620,
      "Ġulatuse": 6621,
      "jargne": 6622,
      "Ġlamba": 6623,
      "Ġvaiksema": 6624,
      "Ġ146": 6625,
      "Ġsektoris": 6626,
      "Ġfrance": 6627,
      "Ġmitmesu": 6628,
      "Ġsoovitus": 6629,
      "matult": 6630,
      "detakse": 6631,
      "Ġvastuvaide": 6632,
      "Ġmones": 6633,
      "vabaduse": 6634,
      "Ġkujutavad": 6635,
      "Ġparitolustaatuse": 6636,
      "Ġjargmisel": 6637,
      "Î¿ÏĤ": 6638,
      "lukka": 6639,
      "Ġloiku": 6640,
      "orf": 6641,
      "Ġmarts": 6642,
      "Ġvalik": 6643,
      "delda": 6644,
      "Ġell": 6645,
      "Ġmari": 6646,
      "Ġkauplemise": 6647,
      "tariif": 6648,
      "Ġaastase": 6649,
      "Ġetapis": 6650,
      "Ġ149": 6651,
      "Ġvaari": 6652,
      "Ġuldiste": 6653,
      "Ġkeelduda": 6654,
      "Ġtahis": 6655,
      "Ġkontrollima": 6656,
      "Ġmin": 6657,
      "Ġtahiste": 6658,
      "Ġkorvaldada": 6659,
      "vabariik": 6660,
      "zy": 6661,
      "valise": 6662,
      "Ġkaalutlusi": 6663,
      "Ġjuriidiline": 6664,
      "Ġfiliaali": 6665,
      "Ġteabele": 6666,
      "strumentide": 6667,
      "diin": 6668,
      "Ġts": 6669,
      "situd": 6670,
      "Ġsisaldama": 6671,
      "Ġoigusnorm": 6672,
      "Ġiseloomu": 6673,
      "Ġandmist": 6674,
      "onale": 6675,
      "Ġtaristu": 6676,
      "Ġ330": 6677,
      "Ġsegia": 6678,
      "Ġ550": 6679,
      "Ġoigusnormidega": 6680,
      "Ġteistes": 6681,
      "gaaside": 6682,
      "Ġlopetada": 6683,
      "Ġomama": 6684,
      "pen": 6685,
      "tees": 6686,
      "tie": 6687,
      "kuste": 6688,
      "Ġnouetega": 6689,
      "Ġxii": 6690,
      "Ġ1988": 6691,
      "Ġkriteeriumidele": 6692,
      "Ġtaiendavate": 6693,
      "Ġalalise": 6694,
      "Ġarusaa": 6695,
      "Ġvaidle": 6696,
      "Ġallika": 6697,
      "Ġpeatamise": 6698,
      "Ġfis": 6699,
      "tera": 6700,
      "Ġtaotletakse": 6701,
      "Ġola": 6702,
      "Ġtasumisele": 6703,
      "Ġarengut": 6704,
      "Ġjarjepide": 6705,
      "Ġtoopaeva": 6706,
      "stsipli": 6707,
      "Ġhankija": 6708,
      "Ġdiskrimineerimise": 6709,
      "Ġstaadi": 6710,
      "diskrimine": 6711,
      "feren": 6712,
      "Ġpoordu": 6713,
      "Ġasuvad": 6714,
      "Ġoiguslike": 6715,
      "Ġkaugemale": 6716,
      "olek": 6717,
      "Ġjj": 6718,
      "Ġiseloom": 6719,
      "Ġkuuluvatest": 6720,
      "Ġkoikidele": 6721,
      "Ġlinn": 6722,
      "Ġpagu": 6723,
      "Ġjargmises": 6724,
      "Ġsloveenia": 6725,
      "Ġtoendanud": 6726,
      "paev": 6727,
      "Ġuldkohtus": 6728,
      "Ġrakendusakti": 6729,
      "Ġvarsked": 6730,
      "Ġantava": 6731,
      "Ġwh": 6732,
      "jamise": 6733,
      "Ġoktoober": 6734,
      "Ġkest": 6735,
      "Ġden": 6736,
      "Ġtegevuskava": 6737,
      "Ġtaitma": 6738,
      "Ġparlamendile": 6739,
      "Ġtradi": 6740,
      "Ġettevotjale": 6741,
      "Ġ261": 6742,
      "Ġkasvuhoone": 6743,
      "vae": 6744,
      "Ġeuropa": 6745,
      "Ġjala": 6746,
      "Ġseadusandliku": 6747,
      "Ġbur": 6748,
      "Ġlahenemisviisi": 6749,
      "uuta": 6750,
      "Ġtoetuste": 6751,
      "Ġkorgeim": 6752,
      "kuupaeva": 6753,
      "Ġvede": 6754,
      "oppe": 6755,
      "Ġalaline": 6756,
      "Ġpuidu": 6757,
      "korralda": 6758,
      "Ġrafine": 6759,
      "Ġtiheda": 6760,
      "00000": 6761,
      "Ġteatatud": 6762,
      "Ġpakkuda": 6763,
      "Ġdie": 6764,
      "uhing": 6765,
      "staa": 6766,
      "Ġarvel": 6767,
      "teerium": 6768,
      "teist": 6769,
      "Ġkella": 6770,
      "Ġmoistliku": 6771,
      "Ġedastatud": 6772,
      "Ġkohaldatud": 6773,
      "Ġmuudatus": 6774,
      "Ġuheks": 6775,
      "Ġvide": 6776,
      "Ġnational": 6777,
      "Ġesindajate": 6778,
      "Ġvolitused": 6779,
      "Ġsamad": 6780,
      "Ġsuurema": 6781,
      "Ġstruk": 6782,
      "Ġkeskse": 6783,
      "Ġtre": 6784,
      "rismetalli": 6785,
      "ustamiseks": 6786,
      "Ġpankro": 6787,
      "Ġ167": 6788,
      "tusta": 6789,
      "Ġteenus": 6790,
      "erimata": 6791,
      "orga": 6792,
      "Ġparitolunimetusega": 6793,
      "Ġmittediskrimine": 6794,
      "Ġteadusuuringute": 6795,
      "Ġkontrollib": 6796,
      "Ġislandi": 6797,
      "kredi": 6798,
      "Ġsaadetud": 6799,
      "Ġ1408": 6800,
      "Ġrahandus": 6801,
      "noude": 6802,
      "Ġtagasiulatu": 6803,
      "Ġtaiendavat": 6804,
      "Ġasjaoludest": 6805,
      "miin": 6806,
      "Ġpiirmaara": 6807,
      "Ġkilo": 6808,
      "Ġselgu": 6809,
      "Ġtekstiil": 6810,
      "Ġkeskpangad": 6811,
      "andmeid": 6812,
      "Ġkehtestamise": 6813,
      "toetuse": 6814,
      "kaubandus": 6815,
      "Ġem": 6816,
      "Ġkanada": 6817,
      "Ġhalve": 6818,
      "Ġvahendus": 6819,
      "Ġ144": 6820,
      "Ġulemaara": 6821,
      "Ġkontrollimine": 6822,
      "onal": 6823,
      "Ġkoostoos": 6824,
      "Ġavalikkuse": 6825,
      "Ġsto": 6826,
      "Ġlabivaatamisega": 6827,
      "Ġvalju": 6828,
      "Ġkehtiv": 6829,
      "Ġkvar": 6830,
      "Ġ165": 6831,
      "Ġest": 6832,
      "Ġkirjed": 6833,
      "Ġdocu": 6834,
      "fu": 6835,
      "Ġtulemusi": 6836,
      "ustamis": 6837,
      "chtenste": 6838,
      "proportsionaal": 6839,
      "Ġtaust": 6840,
      "ktid": 6841,
      "ora": 6842,
      "Ġdirektiivile": 6843,
      "alse": 6844,
      "Ġvahendamine": 6845,
      "Ġ410": 6846,
      "Ġpuugipiirkonna": 6847,
      "Ġarutelu": 6848,
      "Ġend": 6849,
      "Ġlahendamiseks": 6850,
      "Ġhindamiseks": 6851,
      "Ġkasitlevaid": 6852,
      "Ġ414": 6853,
      "Ġ060": 6854,
      "Ġuhendriigid": 6855,
      "Ġinvesteeringud": 6856,
      "ties": 6857,
      "lepingus": 6858,
      "Ġedastamise": 6859,
      "Ġmulle": 6860,
      "ministeeriumi": 6861,
      "oigused": 6862,
      "kkas": 6863,
      "Ġmarkimisvaarselt": 6864,
      "ĠpoÅĤ": 6865,
      "Ġtingimust": 6866,
      "Ġabisaa": 6867,
      "Ġpm": 6868,
      "Ġsala": 6869,
      "euroopa": 6870,
      "Ġnaiste": 6871,
      "Ġnovember": 6872,
      "Ġjaakide": 6873,
      "raan": 6874,
      "Ġkasutatav": 6875,
      "Ġuhinemise": 6876,
      "Ġsaabus": 6877,
      "Ġtekstiilmaterja": 6878,
      "Ġpuudumisel": 6879,
      "Ġkirjaliku": 6880,
      "auto": 6881,
      "Ġarvamus": 6882,
      "Ġsatetest": 6883,
      "likas": 6884,
      "Ġvalistada": 6885,
      "mbina": 6886,
      "Ġvane": 6887,
      "protoko": 6888,
      "Ġkogutud": 6889,
      "quis": 6890,
      "Ġhinnanguline": 6891,
      "Ġuheta": 6892,
      "Ġtrahvide": 6893,
      "Ġarvamusega": 6894,
      "Ġsaar": 6895,
      "Ġmy": 6896,
      "Ġvarasem": 6897,
      "kat": 6898,
      "Ġkvalifikatsiooni": 6899,
      "Ġsuurusega": 6900,
      "Ġkeelu": 6901,
      "Ġuhiku": 6902,
      "Ġgemeinde": 6903,
      "kumnenda": 6904,
      "Ġsisend": 6905,
      "Ġosu": 6906,
      "Ġtolgendamine": 6907,
      "Ġmono": 6908,
      "Ġpuudus": 6909,
      "Ġtoodangu": 6910,
      "Ġvotmata": 6911,
      "Ġtasutud": 6912,
      "Ġrohutab": 6913,
      "Ġpaber": 6914,
      "ska": 6915,
      "ries": 6916,
      "Ġametikoha": 6917,
      "saasta": 6918,
      "Ġoiguslikke": 6919,
      "Ġlabipaistvuse": 6920,
      "Ġjargmistest": 6921,
      "Ġmaksimaalne": 6922,
      "Ġ156": 6923,
      "Ġtootajatele": 6924,
      "Ġsisaldus": 6925,
      "Ġsonasta": 6926,
      "Ġmoisteid": 6927,
      "Ġlin": 6928,
      "Ġteisest": 6929,
      "Ġfinantsi": 6930,
      "Ġdg": 6931,
      "hudro": 6932,
      "Ġmajanduslikku": 6933,
      "teatise": 6934,
      "Ġtohusalt": 6935,
      "ino": 6936,
      "Ġvastavushinda": 6937,
      "any": 6938,
      "Ġdumpinguhinnaga": 6939,
      "Ġgen": 6940,
      "76": 6941,
      "Ġkaitseks": 6942,
      "piisa": 6943,
      "Ġkuues": 6944,
      "Ġmaksude": 6945,
      "Ġendale": 6946,
      "Ġ480": 6947,
      "Ġvastutavad": 6948,
      "gul": 6949,
      "pul": 6950,
      "Ġrul": 6951,
      "Ġmaksum": 6952,
      "Ġkonser": 6953,
      "Ġsatestada": 6954,
      "vade": 6955,
      "Ġkonkurentsivoime": 6956,
      "Ġomadused": 6957,
      "Ġmoisted": 6958,
      "Ġsolidaar": 6959,
      "iiri": 6960,
      "Ġaprill": 6961,
      "Ġjatkusuut": 6962,
      "Ġkattesaadavad": 6963,
      "Ġolen": 6964,
      "Ġliechtenste": 6965,
      "kate": 6966,
      "Ġpiisavad": 6967,
      "Ġholmata": 6968,
      "Ġ153": 6969,
      "Ġspetsiifi": 6970,
      "sehi": 6971,
      "Ġajaks": 6972,
      "Ġebapiisa": 6973,
      "Ġmaksukohustuslase": 6974,
      "kta": 6975,
      "Ġsubsi": 6976,
      "Ġvahistamismaaruse": 6977,
      "Ġâī¤": 6978,
      "Ġesimesel": 6979,
      "Ġraskus": 6980,
      "Ġmeri": 6981,
      "Ġassigneeringud": 6982,
      "alal": 6983,
      "Ġias": 6984,
      "Ġliitvabariigi": 6985,
      "Ġteistsu": 6986,
      "Ġneutra": 6987,
      "Ġ175": 6988,
      "rve": 6989,
      "Ġpardal": 6990,
      "Ġerista": 6991,
      "Ġviib": 6992,
      "Ġvedu": 6993,
      "Ġsealt": 6994,
      "inast": 6995,
      "Ġcpa": 6996,
      "Ġsaabu": 6997,
      "piirkonnas": 6998,
      "komisjon": 6999,
      "Ġpidu": 7000,
      "kategooria": 7001,
      "Ġsaama": 7002,
      "hof": 7003,
      "Ð·": 7004,
      "Ġvotmise": 7005,
      "ktri": 7006,
      "Ġjaanud": 7007,
      "Ġidentifitseerimis": 7008,
      "Ġanal": 7009,
      "kriteeriumi": 7010,
      "oloogilise": 7011,
      "tike": 7012,
      "ĠÂ±": 7013,
      "Ġtegelikku": 7014,
      "Ġpubli": 7015,
      "Ġsamamoodi": 7016,
      "Ġ2150": 7017,
      "Ġulesanded": 7018,
      "Ġoigusparase": 7019,
      "tuleku": 7020,
      "Ġhaig": 7021,
      "Ġgov": 7022,
      "Ġkoigis": 7023,
      "Ġkeeld": 7024,
      "Ġversiooni": 7025,
      "Ġpakkumise": 7026,
      "Ġ270": 7027,
      "Ġkindel": 7028,
      "Ġdokumentidega": 7029,
      "Ġkeskkonnakaitse": 7030,
      "tehn": 7031,
      "Ġ940": 7032,
      "Ġtegevusloa": 7033,
      "Ġametnikud": 7034,
      "Ġjaotuse": 7035,
      "Ġosutab": 7036,
      "Ġkasvu": 7037,
      "Ġulesehi": 7038,
      "zz": 7039,
      "Ġmuua": 7040,
      "Ġehkki": 7041,
      "Ġ154": 7042,
      "fikatsioon": 7043,
      "Ġport": 7044,
      "Ġ1107": 7045,
      "itor": 7046,
      "Ġ0805": 7047,
      "Ġigas": 7048,
      "Ġvoimalikku": 7049,
      "Ġasjaomasel": 7050,
      "Ġruu": 7051,
      "roko": 7052,
      "matuks": 7053,
      "Ġmangu": 7054,
      "Ġstandardite": 7055,
      "Ġdokumenti": 7056,
      "Ġkaebaja": 7057,
      "Ġkorre": 7058,
      "pik": 7059,
      "Ġ184": 7060,
      "Ġ204": 7061,
      "Ġkontrollimiseks": 7062,
      "Ġavaldab": 7063,
      "Ġebaproportsionaal": 7064,
      "Ġlimi": 7065,
      "Ġleh": 7066,
      "Ġusalda": 7067,
      "Ġvaatle": 7068,
      "Ġvolituste": 7069,
      "Ġandmisest": 7070,
      "Ġjuhataja": 7071,
      "cts": 7072,
      "Ġvastuolu": 7073,
      "Ġalt": 7074,
      "Ġtolgendamist": 7075,
      "diaar": 7076,
      "tund": 7077,
      "Ġkos": 7078,
      "Ġvoimsuse": 7079,
      "Ġkonventsiooniosa": 7080,
      "Ġfuusiliste": 7081,
      "Ġimpordivaartused": 7082,
      "Ġph": 7083,
      "Ġseisukohti": 7084,
      "majanduse": 7085,
      "Ġ161": 7086,
      "Ġturustu": 7087,
      "tegu": 7088,
      "Ġtrahvisumma": 7089,
      "ÑĢÐ°": 7090,
      "Ġ171": 7091,
      "Ġuniversa": 7092,
      "Ð³": 7093,
      "Ġabsoluu": 7094,
      "scha": 7095,
      "mees": 7096,
      "Ġmittereside": 7097,
      "Ġseletus": 7098,
      "Ġmitut": 7099,
      "norme": 7100,
      "Ġkrediidiasutus": 7101,
      "Ġmln": 7102,
      "Ġles": 7103,
      "car": 7104,
      "Ġmeenuta": 7105,
      "Ġhalduse": 7106,
      "marginaali": 7107,
      "Ġvaldkonda": 7108,
      "Ġ1001": 7109,
      "puuk": 7110,
      "ikidesse": 7111,
      "tisin": 7112,
      "Ġteema": 7113,
      "miku": 7114,
      "Ġmaksed": 7115,
      "Ġraj": 7116,
      "Ġasendus": 7117,
      "Ġreage": 7118,
      "Ġkandmise": 7119,
      "Ġheide": 7120,
      "Ġabikolb": 7121,
      "Ġnormide": 7122,
      "glu": 7123,
      "rom": 7124,
      "Ġnadala": 7125,
      "Ġsubsidiaar": 7126,
      "Ġ158": 7127,
      "Ġlabiraakimisi": 7128,
      "Ġsarnased": 7129,
      "raali": 7130,
      "bili": 7131,
      "seisundi": 7132,
      "Ġchi": 7133,
      "Ġresolutiiv": 7134,
      "Ġkw": 7135,
      "Ġmag": 7136,
      "Ġsummas": 7137,
      "Ġpaind": 7138,
      "Ġuksteise": 7139,
      "Ġvastuvoetud": 7140,
      "Ġkogused": 7141,
      "Ġvetes": 7142,
      "Ġnaatrium": 7143,
      "Ġreguleerivate": 7144,
      "Ġmsc": 7145,
      "Ġvordvaar": 7146,
      "Ġvahetus": 7147,
      "Ġmehaani": 7148,
      "Ġkahes": 7149,
      "Ġerandit": 7150,
      "asjade": 7151,
      "Ġ1068": 7152,
      "vis": 7153,
      "cto": 7154,
      "Ġimportija": 7155,
      "Ġuurimist": 7156,
      "Ġjaos": 7157,
      "Ġoigusele": 7158,
      "Ġigale": 7159,
      "Ġotsese": 7160,
      "Ġnouande": 7161,
      "Ġvaartust": 7162,
      "Ġkohtulah": 7163,
      "Ġuhendriikide": 7164,
      "toetuste": 7165,
      "Ġtugines": 7166,
      "Ġomb": 7167,
      "teeti": 7168,
      "Ġkande": 7169,
      "Ġsonastus": 7170,
      "Ġriskipositsiooni": 7171,
      "Ġtooaja": 7172,
      "Ġkaasneb": 7173,
      "ow": 7174,
      "Ġasendada": 7175,
      "veeritud": 7176,
      "Ġfunktsionaal": 7177,
      "kavade": 7178,
      "Ġviisi": 7179,
      "Ġgeneral": 7180,
      "Ġparemini": 7181,
      "Ġlabivaatamine": 7182,
      "Ġfaktiliste": 7183,
      "Ġhindu": 7184,
      "Ġkohal": 7185,
      "Ġ176": 7186,
      "Ġlinnu": 7187,
      "Ġkonkreetseid": 7188,
      "Ġmuutunud": 7189,
      "kohas": 7190,
      "aruan": 7191,
      "Ġomavalitsus": 7192,
      "Ġmajanduspiirkonna": 7193,
      "Ġuhisturu": 7194,
      "Ġosalus": 7195,
      "Ġmootorsoidukite": 7196,
      "Ġrubriik": 7197,
      "Ġvaidetava": 7198,
      "onga": 7199,
      "Ġkriteeriume": 7200,
      "Ġlubade": 7201,
      "Ġabikaasa": 7202,
      "Ġliikumist": 7203,
      "Ġnae": 7204,
      "Ġindeks": 7205,
      "lau": 7206,
      "ls": 7207,
      "Ġaktsepteeri": 7208,
      "erimiseks": 7209,
      "aegselt": 7210,
      "Ġinstitutsioonid": 7211,
      "susega": 7212,
      "chen": 7213,
      "Ġasjaomaseid": 7214,
      "uli": 7215,
      "Ġ337": 7216,
      "Ġallu": 7217,
      "Ġuul": 7218,
      "Ġuuenda": 7219,
      "Ġpankroti": 7220,
      "Ġmala": 7221,
      "Ġfil": 7222,
      "Ġvahendatud": 7223,
      "Ġ@": 7224,
      "Ġkohased": 7225,
      "masinad": 7226,
      "Ġliiga": 7227,
      "Ġosutada": 7228,
      "riaasta": 7229,
      "Ġjargmistel": 7230,
      "Ġ169": 7231,
      "Ġsegiajamise": 7232,
      "Ġtehtavate": 7233,
      "Ġkonkreetset": 7234,
      "Ġnul": 7235,
      "Ġtaitmisele": 7236,
      "Ġjarelduse": 7237,
      "Ġtelekommunikatsiooni": 7238,
      "Ġtagamaks": 7239,
      "Ġalapunkt": 7240,
      "990": 7241,
      "tvormi": 7242,
      "Ġjurisdi": 7243,
      "Ġtaotluses": 7244,
      "Ġkalavarude": 7245,
      "Ġkalendriaasta": 7246,
      "standardi": 7247,
      "loogi": 7248,
      "Ġplc": 7249,
      "Ġrq": 7250,
      "Ġkaotanud": 7251,
      "paas": 7252,
      "bra": 7253,
      "Ð½Ð°": 7254,
      "alast": 7255,
      "Ġluhike": 7256,
      "Ġliite": 7257,
      "Ġacquis": 7258,
      "Ġtraditsiooni": 7259,
      "Ġkaubamargiga": 7260,
      "Ġkoostali": 7261,
      "Ġvaatlusalusel": 7262,
      "Ġseptember": 7263,
      "Ġnew": 7264,
      "stati": 7265,
      "Ġfuusiline": 7266,
      "Ġrikub": 7267,
      "strumendid": 7268,
      "lusi": 7269,
      "Ġasjaolust": 7270,
      "Ġvaru": 7271,
      "Ġsad": 7272,
      "Ġkohtuotsuste": 7273,
      "Ġcommis": 7274,
      "com": 7275,
      "Ġbal": 7276,
      "Ġasuvate": 7277,
      "valitsuse": 7278,
      "Ġvoimalusi": 7279,
      "paneku": 7280,
      "oksiidi": 7281,
      "Ġmetoodi": 7282,
      "maat": 7283,
      "áĥĲ": 7284,
      "Ġresolutiivosa": 7285,
      "Ġdeklareeri": 7286,
      "fere": 7287,
      "Ġkokkulepi": 7288,
      "Ġkorea": 7289,
      "pas": 7290,
      "Ġrahalist": 7291,
      "Ġrohe": 7292,
      "rahasta": 7293,
      "Ġjarelduste": 7294,
      "Ġerapoole": 7295,
      "Ġtootlemine": 7296,
      "Ġpikkus": 7297,
      "det": 7298,
      "Ġvarus": 7299,
      "Ġjahutatud": 7300,
      "Ġasjaomastele": 7301,
      "Ġesitamiseks": 7302,
      "Ġparalle": 7303,
      "Ġtooturu": 7304,
      "Ġmonte": 7305,
      "Ġ510": 7306,
      "taeg": 7307,
      "Ġ847": 7308,
      "Ġ299": 7309,
      "Ġkoostab": 7310,
      "tena": 7311,
      "Ġotsta": 7312,
      "riiki": 7313,
      "Ġmass": 7314,
      "Ġjareldusi": 7315,
      "Ġuhtlustamisameti": 7316,
      "Ġvastustaja": 7317,
      "Ġkitse": 7318,
      "Ġterve": 7319,
      "Ġparda": 7320,
      "roi": 7321,
      "Ġpuhasta": 7322,
      "Ġ166": 7323,
      "Ġkriteerium": 7324,
      "Ġtransiidi": 7325,
      "Ġsaata": 7326,
      "Ġkohandada": 7327,
      "Ġsailitamise": 7328,
      "Ġformaal": 7329,
      "Ġsilmkoe": 7330,
      "haali": 7331,
      "Ġtaotletava": 7332,
      "Ġnetomassi": 7333,
      "Ġmarga": 7334,
      "Ġkeeldumise": 7335,
      "Ġali": 7336,
      "Ġkohaste": 7337,
      "Ġuhiste": 7338,
      "Ġmittevasta": 7339,
      "Ġmaaratleda": 7340,
      "Ġassotsieerimis": 7341,
      "Ġtuhistamist": 7342,
      "mik": 7343,
      "Ġteatis": 7344,
      "1000": 7345,
      "numbri": 7346,
      "Ġdesti": 7347,
      "Ġdividendi": 7348,
      "ld": 7349,
      "Ġtesti": 7350,
      "uuksi": 7351,
      "ple": 7352,
      "stele": 7353,
      "aegu": 7354,
      "ngo": 7355,
      "koos": 7356,
      "Ġturustusaasta": 7357,
      "Ġostja": 7358,
      "Ġainuuksi": 7359,
      "perioodil": 7360,
      "Ġkva": 7361,
      "Ġ239": 7362,
      "Ġkehtinud": 7363,
      "Ġlennujaama": 7364,
      "Ġ1985": 7365,
      "konto": 7366,
      "Ġkutseala": 7367,
      "pelt": 7368,
      "Ġaset": 7369,
      "Ġolukorraga": 7370,
      "Ġsaaksid": 7371,
      "Ġumbes": 7372,
      "Ġeelise": 7373,
      "Ġtulenevat": 7374,
      "musega": 7375,
      "Ġtype": 7376,
      "Ġdokumentidele": 7377,
      "Ġendiselt": 7378,
      "Ġleht": 7379,
      "program": 7380,
      "Ġghs": 7381,
      "Ġjarjestik": 7382,
      "Ġfinantsmaaruse": 7383,
      "Ġsisenemise": 7384,
      "Ġcoo": 7385,
      "Ġregulaar": 7386,
      "Ġkodanikele": 7387,
      "Ġriiklikud": 7388,
      "Ġmojutavad": 7389,
      "Ġveebisaidi": 7390,
      "Ġslovaki": 7391,
      "Ġvaikse": 7392,
      "Ġleida": 7393,
      "Ġtoimingu": 7394,
      "kohustused": 7395,
      "vigatsiooni": 7396,
      "tite": 7397,
      "Ġkehtestamine": 7398,
      "Ġkonkreetsed": 7399,
      "Ġmaksukohustuslane": 7400,
      "Ġtasumise": 7401,
      "Ġteenust": 7402,
      "Ġpiisava": 7403,
      "get": 7404,
      "Ġpiirdu": 7405,
      "dar": 7406,
      "stad": 7407,
      "Ġhalla": 7408,
      "Ġkoostisosa": 7409,
      "Ġeksport": 7410,
      "Ġkv": 7411,
      "Ġlopus": 7412,
      "Ġmee": 7413,
      "tuvad": 7414,
      "Ġ840": 7415,
      "Ġfrak": 7416,
      "dokumendi": 7417,
      "analu": 7418,
      "fondide": 7419,
      "Ġtaitnud": 7420,
      "Ġloomater": 7421,
      "Ġparitolustaa": 7422,
      "Ġandmekaitse": 7423,
      "Ġkompen": 7424,
      "Ġkooskolastatud": 7425,
      "pole": 7426,
      "Ġprogramm": 7427,
      "udude": 7428,
      "Ġsisalduvad": 7429,
      "liseeritud": 7430,
      "Ġir": 7431,
      "Ġbv": 7432,
      "Ġtoendus": 7433,
      "Ġkattetoime": 7434,
      "Ġvastuvoetav": 7435,
      "Ġkliini": 7436,
      "Ġheegel": 7437,
      "Ġdelega": 7438,
      "Ġkohaldama": 7439,
      "Ġhilju": 7440,
      "Ġautorioiguse": 7441,
      "Ġ347": 7442,
      "Ġtaiendatakse": 7443,
      "Ġ260": 7444,
      "pesu": 7445,
      "nc": 7446,
      "Ġprotses": 7447,
      "ttevotjate": 7448,
      "Ġintegreeritud": 7449,
      "Ġlisale": 7450,
      "Ġsamasse": 7451,
      "Ġvae": 7452,
      "Ġfoto": 7453,
      "Ġhetke": 7454,
      "Ġkasvuhoonegaaside": 7455,
      "Ġtopelt": 7456,
      "Ġtemalt": 7457,
      "Ġuksikasjad": 7458,
      "Ġ2023": 7459,
      "Ġ164": 7460,
      "Ġosalemine": 7461,
      "Ġ1515": 7462,
      "Ġitali": 7463,
      "put": 7464,
      "Ġkrii": 7465,
      "Ġrahvusvahelised": 7466,
      "Ġseadustiku": 7467,
      "Ġekstra": 7468,
      "sor": 7469,
      "Ġreto": 7470,
      "Ġrsms": 7471,
      "Ġtingimustes": 7472,
      "Ġviidatakse": 7473,
      "Ġnomenklatuuri": 7474,
      "Ġ205": 7475,
      "Ġtegemisel": 7476,
      "Ġ343": 7477,
      "Ġsaadakse": 7478,
      "Ġargumente": 7479,
      "Ġsmot": 7480,
      "Ġrqrr": 7481,
      "uses": 7482,
      "Ġedastada": 7483,
      "Ġsoolad": 7484,
      "Ġhoolda": 7485,
      "nikul": 7486,
      "inou": 7487,
      "Ġkehtestati": 7488,
      "Ġtundi": 7489,
      "Ġtulevikus": 7490,
      "Ġhuvitis": 7491,
      "Ġolemasoleva": 7492,
      "Ġsekkumis": 7493,
      "Ġvarustatud": 7494,
      "Ġfos": 7495,
      "Ġkinnitavad": 7496,
      "Ġseisukohalt": 7497,
      "pv": 7498,
      "oosi": 7499,
      "tatava": 7500,
      "Ġheegeldatud": 7501,
      "Ġproku": 7502,
      "Ġvastuvotva": 7503,
      "Ġkonfoderatsiooni": 7504,
      "Ġparalleel": 7505,
      "astmes": 7506,
      "Ġpadevatele": 7507,
      "Ġtollimaksude": 7508,
      "kis": 7509,
      "Ġfra": 7510,
      "raamistik": 7511,
      "ah": 7512,
      "reloo": 7513,
      "Ġvooranda": 7514,
      "Ġliitvabariik": 7515,
      "Ġlisasse": 7516,
      "cd": 7517,
      "siiv": 7518,
      "Ġtegemine": 7519,
      "Ġskeemi": 7520,
      "Ġtehis": 7521,
      "Ġfuusilise": 7522,
      "Ġpiirkondade": 7523,
      "Ġpuudutas": 7524,
      "Ġeesmarkidel": 7525,
      "Ġkaal": 7526,
      "Ġterrorismi": 7527,
      "hl": 7528,
      "riva": 7529,
      "soo": 7530,
      "Ġomakorda": 7531,
      "mm": 7532,
      "Ġ185": 7533,
      "Ġametivoi": 7534,
      "karb": 7535,
      "Ġlaht": 7536,
      "Ġheli": 7537,
      "Ġ0003": 7538,
      "Ġ190": 7539,
      "kulusid": 7540,
      "Ġpuudutava": 7541,
      "Ġomandatud": 7542,
      "Ġmuudel": 7543,
      "Ġooda": 7544,
      "Ġstabilise": 7545,
      "Ġpindala": 7546,
      "Ġuhetao": 7547,
      "Ġvahet": 7548,
      "Ġvolgniku": 7549,
      "Ġps": 7550,
      "Ġvastaspool": 7551,
      "Ġosalevad": 7552,
      "Ġsaamist": 7553,
      "Ġabielu": 7554,
      "Ġ187": 7555,
      "Ġpraktikas": 7556,
      "Ġ163": 7557,
      "Ġedastatakse": 7558,
      "tlemata": 7559,
      "Ġkonteksti": 7560,
      "Ġluhiaja": 7561,
      "oa": 7562,
      "Ġpuuvilja": 7563,
      "Ġeeldusel": 7564,
      "Ġminister": 7565,
      "Ð¾Ð²": 7566,
      "Ġkolmandale": 7567,
      "Ġsisalduva": 7568,
      "Ġ211": 7569,
      "maail": 7570,
      "Ġpuudutavas": 7571,
      "Ġkaardi": 7572,
      "Ġsiseriiklikus": 7573,
      "Ġpohineva": 7574,
      "Ġterase": 7575,
      "kal": 7576,
      "Ġkoodide": 7577,
      "Ġvaltimiseks": 7578,
      "Ġkonkreetne": 7579,
      "viimise": 7580,
      "Ġtou": 7581,
      "Ġavalike": 7582,
      "Ġhagejat": 7583,
      "Ġkohas": 7584,
      "Ġvaartpaberite": 7585,
      "Ġtruk": 7586,
      "Ġtoiduaine": 7587,
      "kiududest": 7588,
      "Ġ1000": 7589,
      "Ġeiok": 7590,
      "Ġuri": 7591,
      "Ġloikeid": 7592,
      "Ġjargima": 7593,
      "Ġ226": 7594,
      "Ġloogi": 7595,
      "Ġrev": 7596,
      "Ġ388": 7597,
      "Ġloplikult": 7598,
      "Ġpakenda": 7599,
      "mistaotluse": 7600,
      "Ġlahetatud": 7601,
      "Ġetuul": 7602,
      "kao": 7603,
      "Ġvalisp": 7604,
      "ministeerium": 7605,
      "Ġuhiselt": 7606,
      "Ġsamavaarne": 7607,
      "Ġsamasuguse": 7608,
      "padevus": 7609,
      "Ġhuvitiste": 7610,
      "Ġkehtima": 7611,
      "Ġjatab": 7612,
      "Ġkasutanud": 7613,
      "Ġoffi": 7614,
      "Ġsekre": 7615,
      "Ġelektrooniliste": 7616,
      "Ġkohalike": 7617,
      "Ġtoimimist": 7618,
      "Ġoel": 7619,
      "Ġhavi": 7620,
      "Ġmeele": 7621,
      "Ġvaitel": 7622,
      "satte": 7623,
      "pid": 7624,
      "Ġakv": 7625,
      "Ġglo": 7626,
      "regist": 7627,
      "kasu": 7628,
      "Ġ543": 7629,
      "Ġkokkulepitud": 7630,
      "ĠÐ½": 7631,
      "Ġkogumise": 7632,
      "Ġnatu": 7633,
      "juht": 7634,
      "Ġkaivi": 7635,
      "rgy": 7636,
      "Ġhinnangut": 7637,
      "Ġnimed": 7638,
      "Ġmaterjale": 7639,
      "Ġkantseleisse": 7640,
      "setest": 7641,
      "Ġsuuda": 7642,
      "Ġ450": 7643,
      "Ġintegra": 7644,
      "klas": 7645,
      "viid": 7646,
      "Ġapellandid": 7647,
      "Î´": 7648,
      "mitees": 7649,
      "Ġdeta": 7650,
      "Ġettevotjaid": 7651,
      "Ġriikidega": 7652,
      "Ġorgaani": 7653,
      "Ġ172": 7654,
      "tehni": 7655,
      "vahetuse": 7656,
      "Ġvalismaal": 7657,
      "Ġmaroko": 7658,
      "Ġomavalitsuse": 7659,
      "konnast": 7660,
      "Ġtoendama": 7661,
      "Ġelementide": 7662,
      "Ġklassifitseeritud": 7663,
      "Ġmassiprotse": 7664,
      "Ġpeadirektoraadi": 7665,
      "Ġlabiraakimiste": 7666,
      "Ġkantakse": 7667,
      "veri": 7668,
      "Ġseelabi": 7669,
      "Ġkehtivusaja": 7670,
      "Ġvalistatud": 7671,
      "ktsioon": 7672,
      "Ġenergiat": 7673,
      "Ġpealkirja": 7674,
      "Ġ2694": 7675,
      "Ġosakonna": 7676,
      "Ġadvokaadi": 7677,
      "toiduks": 7678,
      "Ġtaotleb": 7679,
      "Ġoigusakt": 7680,
      "Ġjargides": 7681,
      "Ġheakskiitmise": 7682,
      "Ġ162": 7683,
      "moodu": 7684,
      "era": 7685,
      "Ġkonkureeri": 7686,
      "Ġobjektiivselt": 7687,
      "Ġcan": 7688,
      "Ġsiinkohal": 7689,
      "Ġerineva": 7690,
      "Ġettepanekuga": 7691,
      "Ġosalenud": 7692,
      "Ġcp": 7693,
      "tuda": 7694,
      "Ġ290": 7695,
      "Ġaruandlus": 7696,
      "Ġrv": 7697,
      "iseid": 7698,
      "Ġkokkupuu": 7699,
      "Ġhollandi": 7700,
      "Ġkontrollide": 7701,
      "Ġkinnitatakse": 7702,
      "gast": 7703,
      "Ġbrusseli": 7704,
      "Ġpuuviljad": 7705,
      "Ġavaldus": 7706,
      "Ġhaal": 7707,
      "Ġpatsi": 7708,
      "Ġ253": 7709,
      "Ġ820": 7710,
      "Ġregistrisse": 7711,
      "Ġeeltoodud": 7712,
      "Ġomaduste": 7713,
      "Ġkasutamata": 7714,
      "Ġkahest": 7715,
      "Ġerandid": 7716,
      "evi": 7717,
      "Ġcla": 7718,
      "Ġorganisatsioon": 7719,
      "Ġharilik": 7720,
      "Ġmuudab": 7721,
      "Ġtulnud": 7722,
      "Ġtugevdada": 7723,
      "ita": 7724,
      "planeeri": 7725,
      "Ġiec": 7726,
      "Ġtoimuva": 7727,
      "Ġvalimis": 7728,
      "Ġresidendist": 7729,
      "cao": 7730,
      "setz": 7731,
      "Ġcompany": 7732,
      "Ġlaiendada": 7733,
      "Ġhinnatakse": 7734,
      "Ġoigla": 7735,
      "vater": 7736,
      "Ġkapte": 7737,
      "Ġradi": 7738,
      "Ġuldpohimot": 7739,
      "Ġpohjendada": 7740,
      "Ġoiglase": 7741,
      "Ġpuutub": 7742,
      "Ġkapita": 7743,
      "matust": 7744,
      "Ġpleegi": 7745,
      "Ġ189": 7746,
      "ux": 7747,
      "ministri": 7748,
      "Ġsurma": 7749,
      "Ġlabivaatamist": 7750,
      "Ġriigile": 7751,
      "kraat": 7752,
      "Ġulemaail": 7753,
      "oonis": 7754,
      "Ġnar": 7755,
      "Ġmillised": 7756,
      "vaartust": 7757,
      "Ġtarkvara": 7758,
      "kvootide": 7759,
      "tre": 7760,
      "Ġsuurust": 7761,
      "Ġuldised": 7762,
      "Ġleian": 7763,
      "Ġsuste": 7764,
      "Ġmahaarvamise": 7765,
      "Ġvoimalike": 7766,
      "vahendeid": 7767,
      "tase": 7768,
      "Ġtom": 7769,
      "Ġtuletada": 7770,
      "ling": 7771,
      "Ġ2138": 7772,
      "puhkuse": 7773,
      "nos": 7774,
      "Ġisiklikult": 7775,
      "Ġaastane": 7776,
      "maht": 7777,
      "stusi": 7778,
      "turgude": 7779,
      "Ġkohtlemist": 7780,
      "Ġpoolest": 7781,
      "Ġpuudutavate": 7782,
      "ive": 7783,
      "sena": 7784,
      "Ġeksportiva": 7785,
      "Ġigasugune": 7786,
      "Ġsobiva": 7787,
      "Ġmitmeke": 7788,
      "Ġkavandatava": 7789,
      "jargu": 7790,
      "geen": 7791,
      "Ġpohjenduseks": 7792,
      "sad": 7793,
      "vol": 7794,
      "Ġviga": 7795,
      "Ġkorrigeeri": 7796,
      "miga": 7797,
      "sto": 7798,
      "Ġreprodu": 7799,
      "Ġerandeid": 7800,
      "Ġuldkohtule": 7801,
      "Ġvalisriigi": 7802,
      "Ġvaltel": 7803,
      "Ġkehtivust": 7804,
      "Ġteistest": 7805,
      "Ġlege": 7806,
      "kloriid": 7807,
      "Ġvahendatakse": 7808,
      "áĥĶ": 7809,
      "Ġkoostamise": 7810,
      "riga": 7811,
      "Ġargumenti": 7812,
      "paika": 7813,
      "teerimis": 7814,
      "bor": 7815,
      "marki": 7816,
      "Ġ2204": 7817,
      "Ġkuuluta": 7818,
      "Ġinspekteeri": 7819,
      "sertifikaadi": 7820,
      "reloomu": 7821,
      "Ġtagasisaat": 7822,
      "yz": 7823,
      "kaesolev": 7824,
      "mbris": 7825,
      "Ġveebruar": 7826,
      "Ġkaristuse": 7827,
      "Ġsegud": 7828,
      "Ġlaev": 7829,
      "Ġslovakki": 7830,
      "Ġkiireloomu": 7831,
      "ahela": 7832,
      "agen": 7833,
      "Ġkulmuta": 7834,
      "Ġleev": 7835,
      "Ġtaies": 7836,
      "Ġkarja": 7837,
      "Ġpohjustatud": 7838,
      "gos": 7839,
      "Ġvolikogu": 7840,
      "Ġmenetluspool": 7841,
      "Ġkirjaga": 7842,
      "Ġkivi": 7843,
      "Ġmuna": 7844,
      "Ġuniversaal": 7845,
      "Ġtehnika": 7846,
      "Ġmaarused": 7847,
      "Ġur": 7848,
      "Ġjuulist": 7849,
      "Ġkokkulepete": 7850,
      "Ġvon": 7851,
      "Ġpeaaegu": 7852,
      "Ġcorpo": 7853,
      "Ġkauplemis": 7854,
      "wo": 7855,
      "setele": 7856,
      "Ġinst": 7857,
      "rile": 7858,
      "Ġpakkumuse": 7859,
      "Ġkusimustiku": 7860,
      "Ġsuurim": 7861,
      "Ġriigisisese": 7862,
      "ute": 7863,
      "Ġregistreerimist": 7864,
      "joud": 7865,
      "Ġmun": 7866,
      "Ġwil": 7867,
      "Ġaero": 7868,
      "Ġnoorte": 7869,
      "Ġomista": 7870,
      "Ġtegutseda": 7871,
      "Ġkeelata": 7872,
      "Ġ1986": 7873,
      "Ġametlik": 7874,
      "Ġvere": 7875,
      "Ġlubatakse": 7876,
      "Ġfinantsin": 7877,
      "Ġpiirdub": 7878,
      "Ġteostab": 7879,
      "Ġ258": 7880,
      "Ġekspertide": 7881,
      "tunn": 7882,
      "Ġdistsipli": 7883,
      "Ġtoetavad": 7884,
      "Ġosutamine": 7885,
      "Ġrubriikide": 7886,
      "tti": 7887,
      "Ġeesmarkidega": 7888,
      "Ġ950": 7889,
      "Ġsonastusest": 7890,
      "Ġrohutada": 7891,
      "Ġbos": 7892,
      "kaardi": 7893,
      "hklid": 7894,
      "jaatmed": 7895,
      "votmine": 7896,
      "Ġprognoosi": 7897,
      "alasse": 7898,
      "Ġkorraldamise": 7899,
      "Ġsuunised": 7900,
      "Ġpiirkondades": 7901,
      "protokolli": 7902,
      "Ġkonsolideeritud": 7903,
      "Ġlaw": 7904,
      "Ġnaida": 7905,
      "Ġwor": 7906,
      "tusteen": 7907,
      "Ġeksportivate": 7908,
      "deta": 7909,
      "Ġnon": 7910,
      "try": 7911,
      "Ġjuriidiliste": 7912,
      "Ġoigusparasuse": 7913,
      "Ġkavatseb": 7914,
      "Ġkinnisasja": 7915,
      "Ġootuse": 7916,
      "Ġmoote": 7917,
      "tegevust": 7918,
      "protses": 7919,
      "Ġkindlaksmaaramise": 7920,
      "protseduuri": 7921,
      "0010": 7922,
      "Ġjoustumine": 7923,
      "Ġinimtoiduks": 7924,
      "Ġmarkinud": 7925,
      "Ġosaline": 7926,
      "Ġvastutust": 7927,
      "Ġarvutus": 7928,
      "Ġsoltuvalt": 7929,
      "Ġvea": 7930,
      "Ġapellatsioonikojas": 7931,
      "cro": 7932,
      "Ġ580": 7933,
      "ia": 7934,
      "Ġinfos": 7935,
      "Ġdumpinguvastane": 7936,
      "Ġaar": 7937,
      "Ġjul": 7938,
      "Ġrws": 7939,
      "zione": 7940,
      "Ġ213800": 7941,
      "rio": 7942,
      "Ġnot": 7943,
      "Ġmaaras": 7944,
      "Ġoigusta": 7945,
      "Ġpiiravaid": 7946,
      "Ġket": 7947,
      "jana": 7948,
      "Ġolevaid": 7949,
      "Ġlikviid": 7950,
      "Ġrau": 7951,
      "Ġteadmata": 7952,
      "Ġnouavad": 7953,
      "Ġ731": 7954,
      "Ġnoudnud": 7955,
      "Ġeelarveaasta": 7956,
      "Ġkategooriasse": 7957,
      "Ġaktsiate": 7958,
      "rias": 7959,
      "Ġlisab": 7960,
      "Ġmoodumist": 7961,
      "Ġhaagi": 7962,
      "Ġmarke": 7963,
      "aduse": 7964,
      "deldud": 7965,
      "Ġesitamisega": 7966,
      "Ġmuutus": 7967,
      "Ġheida": 7968,
      "nen": 7969,
      "Ã¸": 7970,
      "Ġviited": 7971,
      "Ġdro": 7972,
      "Ġstaatuse": 7973,
      "kultuuri": 7974,
      "Ġsoci": 7975,
      "Ġmaagaasi": 7976,
      "Ġkasutama": 7977,
      "Ġinformatsiooni": 7978,
      "Ġuhendkuningriigis": 7979,
      "Ġpus": 7980,
      "Ġoko": 7981,
      "Ġsustemaa": 7982,
      "Ġakredi": 7983,
      "ngust": 7984,
      "mt": 7985,
      "Ġkorraparaselt": 7986,
      "rt": 7987,
      "Ġandmetele": 7988,
      "Ġ240": 7989,
      "Ġuhendatud": 7990,
      "Ġnendel": 7991,
      "Ġtuvastas": 7992,
      "Ġkohtuliku": 7993,
      "Ġ256": 7994,
      "Ġtoendab": 7995,
      "Ġtulude": 7996,
      "Ġloomine": 7997,
      "Ġtarbeks": 7998,
      "Ġtoendamis": 7999,
      "Ġ181": 8000,
      "oonium": 8001,
      "Ġvoimaldaks": 8002,
      "Ġkasutamisega": 8003,
      "Ġpuhta": 8004,
      "Ġjuur": 8005,
      "klo": 8006,
      "Ġheakski": 8007,
      "Ġuuringute": 8008,
      "Ġkoigist": 8009,
      "Ġamm": 8010,
      "Ġsurve": 8011,
      "Ġreguleerib": 8012,
      "Ġtehnilisi": 8013,
      "andjate": 8014,
      "Ġpohjendamatuse": 8015,
      "Ġkohaldamisalast": 8016,
      "Ġdan": 8017,
      "Ġulik": 8018,
      "Ġkonkurents": 8019,
      "Ġmadalmaa": 8020,
      "Ġ221": 8021,
      "eta": 8022,
      "Ġleiti": 8023,
      "Ġaruandes": 8024,
      "Ġlahtuda": 8025,
      "Ġmodi": 8026,
      "Ġparitolustaatuseta": 8027,
      "aktiiv": 8028,
      "Ġ191": 8029,
      "Ġtoetusesaa": 8030,
      "Ġsiseturul": 8031,
      "Ġinstitutsioon": 8032,
      "Ġsisalduvate": 8033,
      "Ġhulgi": 8034,
      "jenda": 8035,
      "setes": 8036,
      "Ġ203": 8037,
      "Ġvarad": 8038,
      "Ġtapsustab": 8039,
      "galt": 8040,
      "Ġlohna": 8041,
      "Ġsaatis": 8042,
      "Ġdekreet": 8043,
      "Ġsellegi": 8044,
      "Ġtuletisin": 8045,
      "Ġtaim": 8046,
      "Ġriigikogu": 8047,
      "Ġvaidete": 8048,
      "Ġaegumistah": 8049,
      "ÏģÎ±": 8050,
      "kooli": 8051,
      "Õ¥Õ": 8052,
      "Ġ192": 8053,
      "Ġ159": 8054,
      "Ġraadio": 8055,
      "Ġpiiriulese": 8056,
      "Ġjurisdiktsiooni": 8057,
      "sega": 8058,
      "drops": 8059,
      "Ġcourt": 8060,
      "Ġpangandus": 8061,
      "Ġsw": 8062,
      "Ġsuunas": 8063,
      "Ġmaaramiseks": 8064,
      "Ġlepingust": 8065,
      "Ġsaagi": 8066,
      "Ġloomise": 8067,
      "Ġseost": 8068,
      "Ġajavahemikku": 8069,
      "vusega": 8070,
      "saaduste": 8071,
      "Ġturgude": 8072,
      "asti": 8073,
      "piiri": 8074,
      "ÑģÑĤ": 8075,
      "Ġsellegipoolest": 8076,
      "Ġsobiv": 8077,
      "Ġistungi": 8078,
      "Ġkuumtoo": 8079,
      "trolle": 8080,
      "Ġeripara": 8081,
      "Ġrahuldada": 8082,
      "Ġrehvi": 8083,
      "Ġrefor": 8084,
      "Ġpuhke": 8085,
      "Ġnaidatud": 8086,
      "mangu": 8087,
      "Ġvaldkond": 8088,
      "mpa": 8089,
      "Ġsellistel": 8090,
      "Ġprotseduuri": 8091,
      "Ġlaiendatud": 8092,
      "Ġvu": 8093,
      "noudeid": 8094,
      "Ġrahvater": 8095,
      "territooriumi": 8096,
      "Ġkindlaksmaaramine": 8097,
      "Ġpohimottest": 8098,
      "Ġjaapani": 8099,
      "Ġenergy": 8100,
      "Ġale": 8101,
      "Ġmagus": 8102,
      "Ġminimaalne": 8103,
      "bes": 8104,
      "Ġhydro": 8105,
      "Ġmitmepool": 8106,
      "Ġriskiga": 8107,
      "oos": 8108,
      "Ġkeskvalitsused": 8109,
      "jargse": 8110,
      "Ġdirektiivide": 8111,
      "menetluste": 8112,
      "Ġmeetodit": 8113,
      "Ġeelmise": 8114,
      "cen": 8115,
      "Ġkaitsele": 8116,
      "Ġ236": 8117,
      "Ġstate": 8118,
      "Ġendine": 8119,
      "Ġ194": 8120,
      "Ġ1980": 8121,
      "toksu": 8122,
      "Ġdumpinguvastaste": 8123,
      "Ġsulge": 8124,
      "ds": 8125,
      "Ġsuundu": 8126,
      "Ġpoorduda": 8127,
      "Ġtoendavad": 8128,
      "Ġpohjenduste": 8129,
      "Ġjaagid": 8130,
      "Ġkinnipida": 8131,
      "Ġ216": 8132,
      "uuh": 8133,
      "stide": 8134,
      "nimi": 8135,
      "Ġulemp": 8136,
      "Ġhindama": 8137,
      "Ġametiasutuse": 8138,
      "Ġkaitle": 8139,
      "Ġlasta": 8140,
      "Ġlukkas": 8141,
      "Ġsolminud": 8142,
      "nder": 8143,
      "Ġtehnoloogi": 8144,
      "taga": 8145,
      "Ġsuudista": 8146,
      "Ġkaalutlustest": 8147,
      "Ġtasuda": 8148,
      "teena": 8149,
      "Ġmajandusaasta": 8150,
      "nikku": 8151,
      "Ġkasutamisel": 8152,
      "Ġpohisumma": 8153,
      "Ġtoiduainete": 8154,
      "Ġkinnitada": 8155,
      "Ġmehhanismi": 8156,
      "Ġumbe": 8157,
      "koodi": 8158,
      "Ġjattes": 8159,
      "Ġpakub": 8160,
      "Ġtetra": 8161,
      "Ġvaheliste": 8162,
      "hindade": 8163,
      "Ġ208": 8164,
      "Ġmenetlusega": 8165,
      "juhtimise": 8166,
      "Ġnaitajad": 8167,
      "Ġtuuni": 8168,
      "Ġbruto": 8169,
      "egi": 8170,
      "Ġfode": 8171,
      "Ġtahke": 8172,
      "Ġ209": 8173,
      "Ġliiduga": 8174,
      "Ġtransport": 8175,
      "Ġained": 8176,
      "Ġniisuguste": 8177,
      "tatavate": 8178,
      "Ġkasutas": 8179,
      "Ġuhisturuga": 8180,
      "Ġtous": 8181,
      "Ġ174": 8182,
      "Ġmuuja": 8183,
      "Ġ173": 8184,
      "Ġigasuguse": 8185,
      "Ġ183": 8186,
      "fer": 8187,
      "Ġeelis": 8188,
      "Ġavaldamata": 8189,
      "Ġjoustus": 8190,
      "kumnendal": 8191,
      "Ġrikkumises": 8192,
      "koefitsi": 8193,
      "Ġkeeldumis": 8194,
      "Ġ202": 8195,
      "Ġtahisega": 8196,
      "Ġkaasne": 8197,
      "Ġalused": 8198,
      "Ġmuudes": 8199,
      "Ġtoll": 8200,
      "Ġ296": 8201,
      "Ġmuutmist": 8202,
      "kutuse": 8203,
      "Ġmaaramisel": 8204,
      "Ġrahvavabariigist": 8205,
      "Ġkondi": 8206,
      "Ġasjaolule": 8207,
      "dova": 8208,
      "usse": 8209,
      "olukorra": 8210,
      "Ġmuudeti": 8211,
      "dokumentide": 8212,
      "Ġsoiduk": 8213,
      "kala": 8214,
      "ĠâĮ": 8215,
      "Ġrahalised": 8216,
      "Ġkoond": 8217,
      "Ġpohjust": 8218,
      "Ġ217": 8219,
      "Ġlennuki": 8220,
      "Ġ193": 8221,
      "Ġpidevalt": 8222,
      "Ġ621": 8223,
      "Ġarvutamiseks": 8224,
      "tungs": 8225,
      "Ġaktide": 8226,
      "Ġulekande": 8227,
      "tootlus": 8228,
      "fond": 8229,
      "Ġkohtumaaruse": 8230,
      "Ġteatada": 8231,
      "Ġtuhistamine": 8232,
      "koormuse": 8233,
      "Ġoigustada": 8234,
      "Ġveise": 8235,
      "Ġ883": 8236,
      "Ġnormid": 8237,
      "Ġgarantii": 8238,
      "Ġuldse": 8239,
      "Ġtehingud": 8240,
      "ĠâĹ": 8241,
      "Ġoliivi": 8242,
      "Ġpoliiti": 8243,
      "Ġvaltimise": 8244,
      "Ġkaupadele": 8245,
      "Ġiraani": 8246,
      "Ġebasoodsa": 8247,
      "Ġkoigil": 8248,
      "Ġkuprose": 8249,
      "Ġ179": 8250,
      "Ġvaljaandmise": 8251,
      "Ġhudroksu": 8252,
      "Ġmaine": 8253,
      "Ġajakava": 8254,
      "Ġvastuses": 8255,
      "Ġkorraldada": 8256,
      "Ġelektro": 8257,
      "Ġparitolustaatusega": 8258,
      "Ġkaudne": 8259,
      "Ġpadevusse": 8260,
      "meede": 8261,
      "Ġvarude": 8262,
      "Ġtarbijakaitse": 8263,
      "Ġammenda": 8264,
      "ek": 8265,
      "Ġteatavat": 8266,
      "pt": 8267,
      "paeval": 8268,
      "Ġvajalikku": 8269,
      "Ġteostamise": 8270,
      "Ġkonventsiooniga": 8271,
      "Ġkehtestamist": 8272,
      "Ġpakutud": 8273,
      "Ġmaksejouetus": 8274,
      "Ġvaaralt": 8275,
      "Ġkuljest": 8276,
      "Ġkumbki": 8277,
      "Ġvahepeal": 8278,
      "Ġfinantsmoju": 8279,
      "kondi": 8280,
      "Ġklausli": 8281,
      "Ġpiirkondliku": 8282,
      "Ġisikutega": 8283,
      "Ġlaevad": 8284,
      "Ġseose": 8285,
      "bii": 8286,
      "Ġvis": 8287,
      "toetus": 8288,
      "Ġkestuse": 8289,
      "Ġpettuse": 8290,
      "Ġtolgendamisel": 8291,
      "Ġdialoo": 8292,
      "polluma": 8293,
      "Ġeeskirjadega": 8294,
      "Ġlimited": 8295,
      "Ġvorgustiku": 8296,
      "Ġhaldamine": 8297,
      "Ġoste": 8298,
      "late": 8299,
      "Ġosales": 8300,
      "Ġtahendus": 8301,
      "Ġteatanud": 8302,
      "lusega": 8303,
      "materjal": 8304,
      "Ġvastavat": 8305,
      "Ġmaksumaks": 8306,
      "Ġalumiinium": 8307,
      "Ġfede": 8308,
      "Ġhrv": 8309,
      "Ġseisukohtade": 8310,
      "nami": 8311,
      "Ġkasutati": 8312,
      "Ġselgitatud": 8313,
      "Ġhinnaga": 8314,
      "Ġoks": 8315,
      "Ġwi": 8316,
      "Î¿Î½": 8317,
      "Ġsunniaeg": 8318,
      "uhis": 8319,
      "Ġsuits": 8320,
      "Ġalgatada": 8321,
      "Ġleiavad": 8322,
      "tait": 8323,
      "Ġkvoo": 8324,
      "Ġosalis": 8325,
      "Ġmuugiloa": 8326,
      "Ġkohaldatavaid": 8327,
      "alas": 8328,
      "Ġkoori": 8329,
      "Ġimpordilitsentsi": 8330,
      "Ġasso": 8331,
      "Ġtoend": 8332,
      "jatega": 8333,
      "Ġ228": 8334,
      "Ġkanne": 8335,
      "tude": 8336,
      "kaubanduse": 8337,
      "Ġtagant": 8338,
      "Ġ0001": 8339,
      "minister": 8340,
      "Ġinvesteering": 8341,
      "Ġkunagi": 8342,
      "Ġtoiduohutusamet": 8343,
      "Ġ177": 8344,
      "Ġranniku": 8345,
      "tamatult": 8346,
      "Ġist": 8347,
      "liin": 8348,
      "Ġ251": 8349,
      "rma": 8350,
      "rgis": 8351,
      "Ġuhendust": 8352,
      "Ġjargimise": 8353,
      "Ġmajanda": 8354,
      "Ġ750": 8355,
      "tanni": 8356,
      "Ġmahe": 8357,
      "Ġkoostada": 8358,
      "moot": 8359,
      "Ġpohiseaduse": 8360,
      "Ġlisatasu": 8361,
      "lubade": 8362,
      "Ġkvalifitseeritud": 8363,
      "Ġsilmkoelised": 8364,
      "Ġalaea": 8365,
      "Ġeesmargiks": 8366,
      "Ġ255": 8367,
      "ĠÎ¿": 8368,
      "Ġtaielikku": 8369,
      "nii": 8370,
      "Ġkutte": 8371,
      "Ġindoneesia": 8372,
      "Ġgeograafiliste": 8373,
      "Ġdemokraat": 8374,
      "jaga": 8375,
      "Ġsileri": 8376,
      "fun": 8377,
      "Ġpen": 8378,
      "usteemide": 8379,
      "Ġque": 8380,
      "Ġbet": 8381,
      "Ġebaseaduslikult": 8382,
      "Ġcal": 8383,
      "ope": 8384,
      "Ġnaidis": 8385,
      "tiga": 8386,
      "Ġliini": 8387,
      "Ġrikkumisega": 8388,
      "tukid": 8389,
      "meeni": 8390,
      "Ġrubriikidesse": 8391,
      "Ġusu": 8392,
      "Ġsilerinna": 8393,
      "xy": 8394,
      "Ġliikmesriigil": 8395,
      "lepingud": 8396,
      "Ġvarian": 8397,
      "Ġdistsiplinaar": 8398,
      "Ġ590": 8399,
      "Ġkloro": 8400,
      "Ġ575": 8401,
      "Ġeelnenud": 8402,
      "Ġselgub": 8403,
      "Ġotstar": 8404,
      "ÏĦÎ±": 8405,
      "Ġtegevuses": 8406,
      "Ġelis": 8407,
      "Ġatlandi": 8408,
      "Ġdocument": 8409,
      "Ġpressi": 8410,
      "Ġact": 8411,
      "Ġsonastuses": 8412,
      "Ġettevotlus": 8413,
      "Ġpartne": 8414,
      "Ġliikumine": 8415,
      "Ġpru": 8416,
      "Ġdis": 8417,
      "Ġaqu": 8418,
      "Ġkontrollitud": 8419,
      "osas": 8420,
      "Ġkohustusest": 8421,
      "Ġasjaoludele": 8422,
      "Ġ659": 8423,
      "Ġchemi": 8424,
      "Ġvaliste": 8425,
      "Ġvarasemate": 8426,
      "Ġ213": 8427,
      "Ġpulbri": 8428,
      "vein": 8429,
      "ela": 8430,
      "bis": 8431,
      "Ġhagejal": 8432,
      "Ġ215": 8433,
      "Ġcen": 8434,
      "vahelist": 8435,
      "pekti": 8436,
      "Ġteatamise": 8437,
      "Ġsageli": 8438,
      "Ġtekitada": 8439,
      "Ġâī¥": 8440,
      "Ġintegreeri": 8441,
      "Ġtoit": 8442,
      "teerimise": 8443,
      "Ġtootada": 8444,
      "Ġkoosnevad": 8445,
      "Ġ288": 8446,
      "Ġofc": 8447,
      "Ġ396": 8448,
      "jas": 8449,
      "Ġmarkuste": 8450,
      "Ġ530": 8451,
      "Ġsoola": 8452,
      "ovi": 8453,
      "Ġpike": 8454,
      "eks": 8455,
      "Ġvaara": 8456,
      "ĠÐ²": 8457,
      "Ġtootega": 8458,
      "Ġooke": 8459,
      "Ġlindude": 8460,
      "Ġteadaole": 8461,
      "kuludest": 8462,
      "eeskirjad": 8463,
      "Ġkorgem": 8464,
      "Ġ231": 8465,
      "Ġuhegi": 8466,
      "Ġmarja": 8467,
      "Ġerilist": 8468,
      "Ġpuhkuse": 8469,
      "mia": 8470,
      "Ġvaluuta": 8471,
      "Ñı": 8472,
      "Ġasjakohast": 8473,
      "Ġ225": 8474,
      "Ġpaksusega": 8475,
      "laat": 8476,
      "Ġlaenud": 8477,
      "gua": 8478,
      "Ġisa": 8479,
      "Ġhoole": 8480,
      "taste": 8481,
      "Ġinput": 8482,
      "istiku": 8483,
      "Ġfik": 8484,
      "Ġtoenaosus": 8485,
      "tingimustes": 8486,
      "Ġvahemere": 8487,
      "seadustiku": 8488,
      "dul": 8489,
      "Ġeduta": 8490,
      "hinnad": 8491,
      "Ġvalduses": 8492,
      "bank": 8493,
      "Ġvideo": 8494,
      "Ġproo": 8495,
      "ÖĢ": 8496,
      "vahend": 8497,
      "Ġmax": 8498,
      "Ġkvootide": 8499,
      "Ġmauri": 8500,
      "Ġsusteemis": 8501,
      "Ġreaal": 8502,
      "Ġjoustunud": 8503,
      "Ġalamrubriigi": 8504,
      "Ġhiinast": 8505,
      "Ġedastamine": 8506,
      "Ð¸Ñı": 8507,
      "Ġpohjendusest": 8508,
      "Ġtundub": 8509,
      "Ġkoguste": 8510,
      "Ġamino": 8511,
      "Ġvoitluse": 8512,
      "Ġfaktilisi": 8513,
      "Ġhaldusnoukogu": 8514,
      "Ġkn": 8515,
      "Ġsili": 8516,
      "Ġnimega": 8517,
      "áĥĺ": 8518,
      "Ġveere": 8519,
      "Ġmaaruste": 8520,
      "tlused": 8521,
      "lennu": 8522,
      "Ġsyste": 8523,
      "Ġtehtava": 8524,
      "Ġajavahemik": 8525,
      "ngeid": 8526,
      "partner": 8527,
      "Ġ090": 8528,
      "Ġ760": 8529,
      "Ġdiag": 8530,
      "lisse": 8531,
      "Ġtahistab": 8532,
      "muna": 8533,
      "ÏģÎ¹": 8534,
      "Ġkursi": 8535,
      "Ġjuhtum": 8536,
      "delt": 8537,
      "Ġ0406": 8538,
      "Ġtolgendust": 8539,
      "Ġregiona": 8540,
      "Ġdeklaratsioon": 8541,
      "Ġkaltsi": 8542,
      "hindamise": 8543,
      "Ġtahele": 8544,
      "Ġmajanduslik": 8545,
      "odeid": 8546,
      "Ġosaks": 8547,
      "Ġsagedus": 8548,
      "varus": 8549,
      "Ġtunnistuse": 8550,
      "Ġikka": 8551,
      "cre": 8552,
      "Ġesp": 8553,
      "Ġkaasas": 8554,
      "Ġintressimaara": 8555,
      "tikaal": 8556,
      "Ġtan": 8557,
      "Ġpiiritle": 8558,
      "Ġajavahemikus": 8559,
      "Ġkokkuleppel": 8560,
      "Ġbrasi": 8561,
      "Ġvaljasaat": 8562,
      "ĠÐ´": 8563,
      "Ġsonad": 8564,
      "Ġvahetu": 8565,
      "Ġuhendusesise": 8566,
      "Ġkohtumaarus": 8567,
      "Ġsigna": 8568,
      "Ġgas": 8569,
      "Ġkindlaksmaaramiseks": 8570,
      "Ġohtlike": 8571,
      "Ġtrq": 8572,
      "Ġkohandus": 8573,
      "Ġ206": 8574,
      "liga": 8575,
      "Ġhamba": 8576,
      "Ġmanu": 8577,
      "Ġasus": 8578,
      "Ġmaaravad": 8579,
      "Ġ016": 8580,
      "Ġvoinud": 8581,
      "Ġ195": 8582,
      "chus": 8583,
      "Ġsordi": 8584,
      "Ġkolmandad": 8585,
      "Ġtervisele": 8586,
      "Ġsas": 8587,
      "oonia": 8588,
      "Ġkontsessiooni": 8589,
      "Ġsees": 8590,
      "Ġtootjatele": 8591,
      "Ġvahendamist": 8592,
      "Ġjargu": 8593,
      "Ġpuugipiirkond": 8594,
      "Ġmaantee": 8595,
      "Ġ212": 8596,
      "Ġtootajaid": 8597,
      "Ġholbustada": 8598,
      "fenuul": 8599,
      "Ġnace": 8600,
      "Ġmed": 8601,
      "Ġpaevast": 8602,
      "Ġviet": 8603,
      "Ġringhaali": 8604,
      "Ġprote": 8605,
      "Ġkoogiviljad": 8606,
      "Ġvallas": 8607,
      "Ġtootlemiseks": 8608,
      "Ġkeeldumispoh": 8609,
      "Ġassocia": 8610,
      "oot": 8611,
      "Ġservices": 8612,
      "Ġkestust": 8613,
      "ĠÐ¸": 8614,
      "Ġlopptarbi": 8615,
      "Ġanaluusis": 8616,
      "Ġkohaldamata": 8617,
      "Ġxxx": 8618,
      "Ġecono": 8619,
      "Ġsaavutatud": 8620,
      "asutustele": 8621,
      "Ġmaksumaara": 8622,
      "programmide": 8623,
      "Ġpelgalt": 8624,
      "tannia": 8625,
      "Ġalgus": 8626,
      "oz": 8627,
      "kiud": 8628,
      "Ġklaasi": 8629,
      "usest": 8630,
      "Ġuldpohimote": 8631,
      "Ġkonealusel": 8632,
      "Ġkorgema": 8633,
      "Ġ235": 8634,
      "Ġ2933": 8635,
      "Ġcer": 8636,
      "Ġoriginaal": 8637,
      "Ġomakapitali": 8638,
      "Ġkaab": 8639,
      "Ġomadus": 8640,
      "Ġpaase": 8641,
      "Ġ1006": 8642,
      "Ġpes": 8643,
      "Ġsissemakse": 8644,
      "Ġ232": 8645,
      "Ġerinevat": 8646,
      "Ġuhi": 8647,
      "Ġenn": 8648,
      "Ġdeklareeritud": 8649,
      "Ġtehnilist": 8650,
      "Ġemps": 8651,
      "kahju": 8652,
      "verentsi": 8653,
      "mud": 8654,
      "dae": 8655,
      "Ġosutatakse": 8656,
      "Ġvm": 8657,
      "Ġmad": 8658,
      "Ġriigisiseste": 8659,
      "Ġ021": 8660,
      "vola": 8661,
      "Ġnouetekohase": 8662,
      "Ġlaua": 8663,
      "tos": 8664,
      "Ġpandi": 8665,
      "Ġtest": 8666,
      "Ġ249": 8667,
      "Ġpeadirektor": 8668,
      "mootori": 8669,
      "Ġkorraldatud": 8670,
      "Ġpuudumist": 8671,
      "assigneeri": 8672,
      "Ġuhinenud": 8673,
      "Ġerasektori": 8674,
      "ktsi": 8675,
      "Ġsaastva": 8676,
      "Ð¿": 8677,
      "Ġprof": 8678,
      "Ġtaane": 8679,
      "Ġrelva": 8680,
      "keskus": 8681,
      "Ġtootab": 8682,
      "Ġvanadus": 8683,
      "Ġlukati": 8684,
      "Ġvaiteid": 8685,
      "Ġtoovoime": 8686,
      "Ġ280": 8687,
      "keelu": 8688,
      "Ġkits": 8689,
      "jaks": 8690,
      "Ġpohivaba": 8691,
      "Ġlisades": 8692,
      "Ġsatelli": 8693,
      "Ġpohjendamiseks": 8694,
      "Ġpuud": 8695,
      "Ġkahekumnendal": 8696,
      "lepe": 8697,
      "Ġliites": 8698,
      "Ġteenistujate": 8699,
      "Ġliidumaa": 8700,
      "als": 8701,
      "ken": 8702,
      "Ġhaire": 8703,
      "Ġsailitamine": 8704,
      "Ġmeie": 8705,
      "Ġeristada": 8706,
      "Ġtehes": 8707,
      "Ġvarase": 8708,
      "Ġjai": 8709,
      "Ġvastuvotmisel": 8710,
      "Ġsusivesi": 8711,
      "rivaadid": 8712,
      "nolo": 8713,
      "Ġjaotamise": 8714,
      "tatsiooni": 8715,
      "Ġteatavatel": 8716,
      "Ġ295": 8717,
      "Ġregistreerida": 8718,
      "Ġvaita": 8719,
      "Ġdirektori": 8720,
      "Ġvees": 8721,
      "Ġmineraal": 8722,
      "Ġtootmist": 8723,
      "Ġabikava": 8724,
      "Ġifrs": 8725,
      "Ġsundi": 8726,
      "Ġeestis": 8727,
      "Ġpohikohtuasi": 8728,
      "Ġnisu": 8729,
      "Ġulekaalu": 8730,
      "Ġseaduslikult": 8731,
      "Ġ268": 8732,
      "Ġsotsiaalse": 8733,
      "Ġsisendkaibe": 8734,
      "Ġtoojou": 8735,
      "Ġturg": 8736,
      "Ġhoone": 8737,
      "nouetele": 8738,
      "Ġhankemenetluse": 8739,
      "ott": 8740,
      "Ġ1977": 8741,
      "Ġmetall": 8742,
      "Ġlabiraakimis": 8743,
      "Ġkajastatakse": 8744,
      "ĠâĹ»": 8745,
      "cti": 8746,
      "Ġpsuh": 8747,
      "Ġ468": 8748,
      "Ġmaaranud": 8749,
      "Ġ025": 8750,
      "Ġajutised": 8751,
      "uksus": 8752,
      "Ġpp": 8753,
      "gie": 8754,
      "Ġpeali": 8755,
      "Ġkonkurentide": 8756,
      "Ġprobleeme": 8757,
      "Ġsuurbri": 8758,
      "Ġsuntees": 8759,
      "Ġtagasinoud": 8760,
      "gro": 8761,
      "ined": 8762,
      "hool": 8763,
      "riin": 8764,
      "Ġvastust": 8765,
      "Ġenampakku": 8766,
      "Ġesitatut": 8767,
      "vestus": 8768,
      "uhin": 8769,
      "Ġrasv": 8770,
      "Ġsveits": 8771,
      "Ġhaldusmenetluse": 8772,
      "Ġriisi": 8773,
      "Ġlihtsustatud": 8774,
      "Ġkorr": 8775,
      "mude": 8776,
      "Ġlepinguid": 8777,
      "Ġkogumis": 8778,
      "Ġtoodetele": 8779,
      "eskirjade": 8780,
      "Ġelanik": 8781,
      "Ġvastuvotmine": 8782,
      "Ġslovakkia": 8783,
      "Ġteenindus": 8784,
      "Ġsuve": 8785,
      "Ġtootavad": 8786,
      "Ġkaheksa": 8787,
      "kauba": 8788,
      "Ġartic": 8789,
      "Ġnaitavad": 8790,
      "Ġkeeldumine": 8791,
      "Ġvaidlusaluste": 8792,
      "Ġtuvastamise": 8793,
      "koik": 8794,
      "Ġpuuda": 8795,
      "Ġandmiseks": 8796,
      "Ġaus": 8797,
      "Ġheakskiidu": 8798,
      "cki": 8799,
      "Ġ302": 8800,
      "Ġfinantsa": 8801,
      "Ġproportsionaalne": 8802,
      "dade": 8803,
      "Ġpiiravad": 8804,
      "Ġmaksust": 8805,
      "bro": 8806,
      "Ġheitkoguste": 8807,
      "Ġkohaldamisest": 8808,
      "toote": 8809,
      "Ġdepar": 8810,
      "Ġpohjendusi": 8811,
      "schaft": 8812,
      "Ġtegevdire": 8813,
      "Ġic": 8814,
      "idide": 8815,
      "Ġ223": 8816,
      "Ġorgan": 8817,
      "Ġdirektiivist": 8818,
      "tikas": 8819,
      "ĠâĢĺ": 8820,
      "Ġlopeb": 8821,
      "los": 8822,
      "Ġbrasiili": 8823,
      "Ġalguses": 8824,
      "Ġ186": 8825,
      "Ġteadlik": 8826,
      "Ġarvestatakse": 8827,
      "Ġfle": 8828,
      "gene": 8829,
      "zu": 8830,
      "df": 8831,
      "Ġvotmist": 8832,
      "sektor": 8833,
      "Ġpiirang": 8834,
      "anis": 8835,
      "Ġfir": 8836,
      "Ġariuhingule": 8837,
      "Ġkaibemaksuga": 8838,
      "ĠÃ°": 8839,
      "Ġtaidavad": 8840,
      "Ġsamadel": 8841,
      "Ġpollu": 8842,
      "Ġauditi": 8843,
      "Ġartiklitele": 8844,
      "unduse": 8845,
      "valiste": 8846,
      "cer": 8847,
      "Ġtaset": 8848,
      "valve": 8849,
      "Ġev": 8850,
      "Ġneder": 8851,
      "Ġcre": 8852,
      "Ġniis": 8853,
      "Ġelamisloa": 8854,
      "Ġkonsulteerimist": 8855,
      "Ġjaotises": 8856,
      "Ġsuurt": 8857,
      "Ð±": 8858,
      "Ġbud": 8859,
      "sii": 8860,
      "Ġtariifikvoodi": 8861,
      "Ġmooda": 8862,
      "Ġvalu": 8863,
[...]
