{
  "version": "1.0",
  "truncation": null,
  "padding": null,
  "added_tokens": [
    {
      "id": 0,
      "content": "<pad>",
      "single_word": false,
      "lstrip": false,
      "rstrip": false,
      "normalized": false,
      "special": true
    },
    {
      "id": 1,
      "content": "<s>",
      "single_word": false,
      "lstrip": false,
      "rstrip": false,
      "normalized": false,
      "special": true
    },
    {
      "id": 2,
      "content": "</s>",
      "single_word": false,
      "lstrip": false,
      "rstrip": false,
      "normalized": false,
      "special": true
    },
    {
      "id": 3,
      "content": "<unk>",
      "single_word": false,
      "lstrip": false,
      "rstrip": false,
      "normalized": false,
      "special": true
    },
    {
      "id": 4,
      "content": "<mask>",
      "single_word": false,
      "lstrip": false,
      "rstrip": false,
      "normalized": false,
      "special": true
    }
  ],
  "normalizer": {
    "type": "Sequence",
    "normalizers": [
      {
        "type": "NFKD"
      },
      {
        "type": "BertNormalizer",
        "clean_text": true,
        "handle_chinese_chars": true,
        "strip_accents": null,
        "lowercase": true
      }
    ]
  },
  "pre_tokenizer": {
    "type": "Sequence",
    "pretokenizers": [
      {
        "type": "BertPreTokenizer"
      },
      {
        "type": "ByteLevel",
        "add_prefix_space": true,
        "trim_offsets": true,
        "use_regex": true
      }
    ]
  },
  "post_processor": {
    "type": "RobertaProcessing",
    "sep": [
      "</s>",
      2
    ],
    "cls": [
      "<s>",
      1
    ],
    "trim_offsets": true,
    "add_prefix_space": true
  },
  "decoder": {
    "type": "ByteLevel",
    "add_prefix_space": true,
    "trim_offsets": true,
    "use_regex": true
  },
  "model": {
    "type": "BPE",
    "dropout": null,
    "unk_token": "<unk>",
    "continuing_subword_prefix": null,
    "end_of_word_suffix": null,
    "fuse_unk": false,
    "vocab": {
      "<pad>": 0,
      "<s>": 1,
      "</s>": 2,
      "<unk>": 3,
      "<mask>": 4,
      "!": 5,
      "\"": 6,
      "#": 7,
      "$": 8,
      "%": 9,
      "&": 10,
      "'": 11,
      "(": 12,
      ")": 13,
      "*": 14,
      "+": 15,
      ",": 16,
      "-": 17,
      ".": 18,
      "/": 19,
      "0": 20,
      "1": 21,
      "2": 22,
      "3": 23,
      "4": 24,
      "5": 25,
      "6": 26,
      "7": 27,
      "8": 28,
      "9": 29,
      ":": 30,
      ";": 31,
      "<": 32,
      "=": 33,
      ">": 34,
      "?": 35,
      "@": 36,
      "[": 37,
      "\\": 38,
      "]": 39,
      "^": 40,
      "_": 41,
      "`": 42,
      "a": 43,
      "b": 44,
      "c": 45,
      "d": 46,
      "e": 47,
      "f": 48,
      "g": 49,
      "h": 50,
      "i": 51,
      "j": 52,
      "k": 53,
      "l": 54,
      "m": 55,
      "n": 56,
      "o": 57,
      "p": 58,
      "q": 59,
      "r": 60,
      "s": 61,
      "t": 62,
      "u": 63,
      "v": 64,
      "w": 65,
      "x": 66,
      "y": 67,
      "z": 68,
      "{": 69,
      "|": 70,
      "}": 71,
      "~": 72,
      "¡": 73,
      "¢": 74,
      "£": 75,
      "¤": 76,
      "¥": 77,
      "¦": 78,
      "§": 79,
      "¨": 80,
      "©": 81,
      "ª": 82,
      "«": 83,
      "¬": 84,
      "®": 85,
      "¯": 86,
      "°": 87,
      "±": 88,
      "²": 89,
      "³": 90,
      "´": 91,
      "µ": 92,
      "¶": 93,
      "·": 94,
      "¸": 95,
      "¹": 96,
      "º": 97,
      "»": 98,
      "¼": 99,
      "½": 100,
      "¾": 101,
      "¿": 102,
      "Â": 103,
      "Ã": 104,
      "Ä": 105,
      "Å": 106,
      "Æ": 107,
      "Ç": 108,
      "È": 109,
      "É": 110,
      "Ê": 111,
      "Ë": 112,
      "Í": 113,
      "Î": 114,
      "Ï": 115,
      "Ð": 116,
      "Ñ": 117,
      "Ò": 118,
      "Ó": 119,
      "Ô": 120,
      "Õ": 121,
      "Ö": 122,
      "×": 123,
      "Ø": 124,
      "Ù": 125,
      "Ú": 126,
      "Û": 127,
      "Ü": 128,
      "Ý": 129,
      "Þ": 130,
      "ß": 131,
      "à": 132,
      "á": 133,
      "â": 134,
      "ã": 135,
      "ä": 136,
      "å": 137,
      "æ": 138,
      "ç": 139,
      "è": 140,
      "é": 141,
      "ê": 142,
      "ð": 143,
      "ñ": 144,
      "ò": 145,
      "ó": 146,
      "Ġ": 147,
      "Ģ": 148,
      "ģ": 149,
      "Ĥ": 150,
      "ĥ": 151,
      "Ħ": 152,
      "ħ": 153,
      "Ĩ": 154,
      "ĩ": 155,
      "Ī": 156,
      "ī": 157,
      "Ĭ": 158,
      "ĭ": 159,
      "Į": 160,
      "į": 161,
      "İ": 162,
      "ı": 163,
      "Ĳ": 164,
      "ĳ": 165,
      "Ĵ": 166,
      "ĵ": 167,
      "Ķ": 168,
      "ķ": 169,
      "ĸ": 170,
      "Ĺ": 171,
      "ĺ": 172,
      "Ļ": 173,
      "ļ": 174,
      "Ľ": 175,
      "ľ": 176,
      "Ŀ": 177,
      "ŀ": 178,
      "Ł": 179,
      "ł": 180,
      "Ń": 181,
      "Ġ-": 182,
      "ta": 183,
      "Ġta": 184,
      "li": 185,
      "Ġi": 186,
      "ti": 187,
      "Ġm": 188,
      "Ä§": 189,
      "on": 190,
      "Ġk": 191,
      "Ġa": 192,
      "en": 193,
      "Ġ,": 194,
      "Ġâ": 195,
      "ĠâĢ": 196,
      "Ġs": 197,
      "Ġf": 198,
      "Ġ.": 199,
      "ri": 200,
      "Ġd": 201,
      "jon": 202,
      "Ġg": 203,
      "Ġp": 204,
      "ji": 205,
      "ra": 206,
      "Ġl": 207,
      "joni": 208,
      "Ä§a": 209,
      "ĠâĢĻ": 210,
      "zz": 211,
      "Ġtal": 212,
      "et": 213,
      "Ġli": 214,
      "Ġu": 215,
      "ll": 216,
      "er": 217,
      "ka": 218,
      "ja": 219,
      "Ġb": 220,
      "ĠgÄ§a": 221,
      "zzjoni": 222,
      "Ġ2": 223,
      "re": 224,
      "in": 225,
      "Ġ1": 226,
      "pp": 227,
      "un": 228,
      "bb": 229,
      "ar": 230,
      "ss": 231,
      "ro": 232,
      "Ġil": 233,
      "or": 234,
      "Ġ)": 235,
      "hu": 236,
      "Ġe": 237,
      "Ġ(": 238,
      "la": 239,
      "Ġt": 240,
      "Ġji": 241,
      "an": 242,
      "Ġin": 243,
      "Ġfi": 244,
      "Ġapp": 245,
      "bbli": 246,
      "em": 247,
      "di": 248,
      "Ġj": 249,
      "ent": 250,
      "Ġmhu": 251,
      "Ġmhux": 252,
      "ko": 253,
      "tu": 254,
      "lika": 255,
      "jiet": 256,
      "ci": 257,
      "lu": 258,
      "Ġapplika": 259,
      "Ġti": 260,
      "st": 261,
      "Ġma": 262,
      "Ġn": 263,
      "om": 264,
      "za": 265,
      "Ġc": 266,
      "Ġmi": 267,
      "Ġ'": 268,
      "Ġ/": 269,
      "gÄ§": 270,
      "Ġ20": 271,
      "Ġapplikabbli": 272,
      "sta": 273,
      "mi": 274,
      "Ġre": 275,
      "ju": 276,
      "Ġ_": 277,
      "ment": 278,
      "zi": 279,
      "enti": 280,
      "ru": 281,
      "Ġri": 282,
      "Ġ0": 283,
      "Ġpro": 284,
      "vi": 285,
      "wa": 286,
      "Ġ3": 287,
      "Ġo": 288,
      "fi": 289,
      "Ġkon": 290,
      "Ġdi": 291,
      "du": 292,
      "gi": 293,
      "va": 294,
      "ew": 295,
      "Ġmin": 296,
      "da": 297,
      "um": 298,
      "Ġar": 299,
      "ĠgÄ§an": 300,
      "tti": 301,
      "Ġ:": 302,
      "tiko": 303,
      "ha": 304,
      "Ġ|": 305,
      "te": 306,
      "ie": 307,
      "Ġfil": 308,
      "pe": 309,
      "Ġq": 310,
      "ma": 311,
      "si": 312,
      "Ġ5": 313,
      "kk": 314,
      "Ġ4": 315,
      "Ġim": 316,
      "Ġir": 317,
      "tt": 318,
      "el": 319,
      "ĠgÄ§all": 320,
      "Ġartiko": 321,
      "ej": 322,
      "sti": 323,
      "Ġjew": 324,
      "sp": 325,
      "ĠgÄ§al": 326,
      "ali": 327,
      "go": 328,
      "ess": 329,
      "Ġartikolu": 330,
      "kun": 331,
      "Ġda": 332,
      "Ġka": 333,
      "zzjonijiet": 334,
      "war": 335,
      "Ġh": 336,
      "uq": 337,
      "Ġmill": 338,
      "hom": 339,
      "Ġis": 340,
      "Ġbi": 341,
      "Ġr": 342,
      "Ġminn": 343,
      "etti": 344,
      "kon": 345,
      "Ġde": 346,
      "Ġkum": 347,
      "Ġdan": 348,
      "ni": 349,
      "Ġsa": 350,
      "zjoni": 351,
      "Ġ200": 352,
      "Ġrego": 353,
      "Ġki": 354,
      "Ġkun": 355,
      "na": 356,
      "eg": 357,
      "Ġpar": 358,
      "Ġid": 359,
      "fika": 360,
      "ur": 361,
      "Ġ6": 362,
      "ssi": 363,
      "Ġ201": 364,
      "wi": 365,
      "Ġfl": 366,
      "Ġ9": 367,
      "sk": 368,
      "Ġhu": 369,
      "Ġ8": 370,
      "Ġper": 371,
      "Ġfuq": 372,
      "enza": 373,
      "ĠgÄ§and": 374,
      "Ġmo": 375,
      "ter": 376,
      "Ġpre": 377,
      "Ġ7": 378,
      "gu": 379,
      "Ġregola": 380,
      "Ġtar": 381,
      "Ġtad": 382,
      "emb": 383,
      "ĠtagÄ§": 384,
      "jali": 385,
      "me": 386,
      "to": 387,
      "ssjoni": 388,
      "ku": 389,
      "ĠÄ§": 390,
      "Ġx": 391,
      "Ġv": 392,
      "00": 393,
      "at": 394,
      "Ġkom": 395,
      "Ġew": 396,
      "Ġimp": 397,
      "iex": 398,
      "Ġko": 399,
      "ul": 400,
      "cc": 401,
      "missjoni": 402,
      "Ġtas": 403,
      "Ġtat": 404,
      "Ġme": 405,
      "Ġz": 406,
      "ett": 407,
      "xx": 408,
      "Ġregolament": 409,
      "ĠâĢĵ": 410,
      "Ġdwar": 411,
      "Ġan": 412,
      "bbi": 413,
      "uni": 414,
      "ekk": 415,
      "Ġja": 416,
      "ba": 417,
      "tar": 418,
      "po": 419,
      "Ġgu": 420,
      "Ġkummissjoni": 421,
      "enta": 422,
      "koll": 423,
      "ce": 424,
      "Ġkont": 425,
      "Ġtra": 426,
      "min": 427,
      "Ġista": 428,
      "Ġ;": 429,
      "qa": 430,
      "gg": 431,
      "do": 432,
      "Ġ%": 433,
      "Ġpa": 434,
      "Ġdaw": 435,
      "era": 436,
      "turi": 437,
      "Ġsi": 438,
      "Ġit": 439,
      "pj": 440,
      "ejn": 441,
      "ĠâĢĲ": 442,
      "Ġna": 443,
      "gÄ§u": 444,
      "Ġsta": 445,
      "ff": 446,
      "ell": 447,
      "Ġdin": 448,
      "Ġra": 449,
      "redi": 450,
      "orti": 451,
      "bi": 452,
      "Ġkredi": 453,
      "Ġrisk": 454,
      "gÄ§a": 455,
      "Ġmemb": 456,
      "Ġ10": 457,
      "Ġaw": 458,
      "Ġkreditu": 459,
      "dem": 460,
      "Ġdir": 461,
      "Ġriskju": 462,
      "eri": 463,
      "ĠâĢľ": 464,
      "ĠâĢĿ": 465,
      "Ġsu": 466,
      "Ä§ra": 467,
      "Ġpo": 468,
      "jonali": 469,
      "Ġkons": 470,
      "cjali": 471,
      "sa": 472,
      "ĠoÄ§ra": 473,
      "Ġqorti": 474,
      "Ġskon": 475,
      "ija": 476,
      "Ġdeci": 477,
      "Ġw": 478,
      "ed": 479,
      "Ġpun": 480,
      "ĠgÄ§andu": 481,
      "Ġinter": 482,
      "Ġun": 483,
      "Ġina": 484,
      "zu": 485,
      "Ġspe": 486,
      "Ġ=": 487,
      "Ġewro": 488,
      "ettiva": 489,
      "for": 490,
      "Ġjin": 491,
      "ĠbÄ§a": 492,
      "ol": 493,
      "Ġdecizjoni": 494,
      "Ġ19": 495,
      "zja": 496,
      "Ġall": 497,
      "Ġmod": 498,
      "Ġba": 499,
      "eÄ§": 500,
      "Ġinadem": 501,
      "Ġinadempj": 502,
      "tta": 503,
      "Ġnru": 504,
      "klu": 505,
      "Ġinadempjenti": 506,
      "Ġwa": 507,
      "tur": 508,
      "Ġkif": 509,
      "Ġparti": 510,
      "Ġso": 511,
      "ga": 512,
      "Ġjigi": 513,
      "Ġ[": 514,
      "le": 515,
      "zza": 516,
      "Ġunjoni": 517,
      "Ġfa": 518,
      "Ġfin": 519,
      "bbili": 520,
      "Ġfir": 521,
      "Ġfis": 522,
      "zzjonali": 523,
      "tura": 524,
      "ĠâĢĶ": 525,
      "ĠgÄ§andhom": 526,
      "de": 527,
      "ttivi": 528,
      "Ġjkun": 529,
      "Ġkien": 530,
      "Ġpri": 531,
      "Ġhuwa": 532,
      "Ġskont": 533,
      "tajiet": 534,
      "Ġke": 535,
      "pa": 536,
      "gwar": 537,
      "Ġkor": 538,
      "Ġ]": 539,
      "Ġlill": 540,
      "Ġdirettiva": 541,
      "ktar": 542,
      "Ġsme": 543,
      "tori": 544,
      "Ġhija": 545,
      "Ġ12": 546,
      "gra": 547,
      "Ġ11": 548,
      "Ġbil": 549,
      "Ġappro": 550,
      "Ġam": 551,
      "ĠgÄ§andha": 552,
      "Ġkunsi": 553,
      "Ġmal": 554,
      "je": 555,
      "Ġpunt": 556,
      "Ġdri": 557,
      "Ġmar": 558,
      "Ġser": 559,
      "Ġjekk": 560,
      "Ġ00": 561,
      "kor": 562,
      "ffi": 563,
      "emm": 564,
      "Ġprodo": 565,
      "Ġku": 566,
      "Ġawtori": 567,
      "ran": 568,
      "jr": 569,
      "hi": 570,
      "Ġdawn": 571,
      "ubbli": 572,
      "Ġqa": 573,
      "fa": 574,
      "ddi": 575,
      "etta": 576,
      "Ġkomuni": 577,
      "ĠtagÄ§ha": 578,
      "spo": 579,
      "Ġkontro": 580,
      "Ġproce": 581,
      "xxi": 582,
      "Ġsab": 583,
      "van": 584,
      "gward": 585,
      "orta": 586,
      "ani": 587,
      "una": 588,
      "Ġse": 589,
      "ĠbÄ§ala": 590,
      "Ġsabiex": 591,
      "Ġsent": 592,
      "ini": 593,
      "rri": 594,
      "Ġgen": 595,
      "Ġtie": 596,
      "Ġrigward": 597,
      "Ġewrope": 598,
      "sid": 599,
      "tra": 600,
      "fikazzjoni": 601,
      "Ġeur": 602,
      "las": 603,
      "per": 604,
      "ppre": 605,
      "Ġkunsill": 606,
      "Ġpers": 607,
      "ĠÄ§a": 608,
      "razzjoni": 609,
      "Ġrikor": 610,
      "Ġkla": 611,
      "Ġva": 612,
      "fu": 613,
      "Ġhuma": 614,
      "Ġkoll": 615,
      "Ġann": 616,
      "kkon": 617,
      "pi": 618,
      "sem": 619,
      "Ġmembri": 620,
      "jn": 621,
      "ĠÄ§las": 622,
      "Ġav": 623,
      "semmi": 624,
      "ki": 625,
      "Ġprocedu": 626,
      "cip": 627,
      "ens": 628,
      "Ġ15": 629,
      "ve": 630,
      "Ġjista": 631,
      "Ġiz": 632,
      "Ġ13": 633,
      "ĠtiegÄ§u": 634,
      "erali": 635,
      "Ġter": 636,
      "zzi": 637,
      "10": 638,
      "ĠtagÄ§hom": 639,
      "lo": 640,
      "bu": 641,
      "ch": 642,
      "Ġjigu": 643,
      "pora": 644,
      "oni": 645,
      "Ġewropea": 646,
      "menti": 647,
      "Ġapprocc": 648,
      "Ġtkun": 649,
      "wali": 650,
      "Ġikun": 651,
      "Ġindi": 652,
      "kwi": 653,
      "Ġte": 654,
      "Ġmeta": 655,
      "Ġ50": 656,
      "Ġklassi": 657,
      "Ġbiex": 658,
      "Ġstabbili": 659,
      "zat": 660,
      "forma": 661,
      "Ġservi": 662,
      "qas": 663,
      "ulta": 664,
      "Ġkaw": 665,
      "ppro": 666,
      "ema": 667,
      "Ġbla": 668,
      "par": 669,
      "zenta": 670,
      "spozi": 671,
      "Ġsentenza": 672,
      "Ġspecjali": 673,
      "Ġistati": 674,
      "Ġle": 675,
      "rat": 676,
      "mu": 677,
      "zzat": 678,
      "Ġirb": 679,
      "Ġkorpora": 680,
      "elf": 681,
      "Ġdo": 682,
      "Ġgenerali": 683,
      "Ġprin": 684,
      "eni": 685,
      "mita": 686,
      "stan": 687,
      "enji": 688,
      "Ġtigi": 689,
      "ega": 690,
      "Ġtin": 691,
      "Ġdispozi": 692,
      "Ġkkon": 693,
      "anzja": 694,
      "parti": 695,
      "Ġ14": 696,
      "jar": 697,
      "lim": 698,
      "Ġci": 699,
      "Ġ&": 700,
      "Ġklassifikazzjoni": 701,
      "stjoni": 702,
      "Ġmil": 703,
      "Ġfte": 704,
      "cer": 705,
      "jo": 706,
      "lari": 707,
      "Ġkaz": 708,
      "Ġmizu": 709,
      "Ġftehi": 710,
      "Ġ16": 711,
      "bba": 712,
      "Ġdritt": 713,
      "Ġprincip": 714,
      "Ġkawza": 715,
      "Ġga": 716,
      "Ġeu": 717,
      "Ġue": 718,
      "mina": 719,
      "Ġkull": 720,
      "Ġno": 721,
      "Ġkontroparti": 722,
      "Ġself": 723,
      "Ġist": 724,
      "Ä§Ä§a": 725,
      "Ġwara": 726,
      "ĠtaÄ§": 727,
      "ut": 728,
      "Ġukoll": 729,
      "Ġmembru": 730,
      "Ġ17": 731,
      "ir": 732,
      "Ġkonsenji": 733,
      "Ġnazzjonali": 734,
      "Ġfejn": 735,
      "Ġprodotti": 736,
      "Ġfor": 737,
      "bda": 738,
      "Ġjirri": 739,
      "Ġiktar": 740,
      "Ġkollha": 741,
      "Ġfinanzja": 742,
      "Ġtista": 743,
      "ver": 744,
      "Ġftehim": 745,
      "stri": 746,
      "Ġanness": 747,
      "Ġinforma": 748,
      "20": 749,
      "Ġfit": 750,
      "ssa": 751,
      "Ġpartiko": 752,
      "embru": 753,
      "ubblika": 754,
      "lta": 755,
      "Ġbejn": 756,
      "ort": 757,
      "Ġsko": 758,
      "Ġrikorr": 759,
      "Ġel": 760,
      "testa": 761,
      "Ġ18": 762,
      "Ġprocedura": 763,
      "Ġgusti": 764,
      "Ġag": 765,
      "Ġto": 766,
      "Ġapplikazzjoni": 767,
      "Ġ25": 768,
      "pre": 769,
      "wel": 770,
      "arra": 771,
      "ĠgÄ§ajr": 772,
      "Ġspecjalizzat": 773,
      "ord": 774,
      "Ġjit": 775,
      "Ġewwel": 776,
      "Ġdik": 777,
      "lla": 778,
      "Ġebda": 779,
      "Ġkomp": 780,
      "Ġ<": 781,
      "zzja": 782,
      "ttiv": 783,
      "semmija": 784,
      "Ġ30": 785,
      "Ġpartijiet": 786,
      "Ġpartikolari": 787,
      "cerna": 788,
      "Ġdata": 789,
      "ragra": 790,
      "Ġjist": 791,
      "Ġinformazzjoni": 792,
      "Ġla": 793,
      "perturi": 794,
      "Ġ21": 795,
      "Ġdak": 796,
      "Ġliv": 797,
      "Ġcer": 798,
      "Ġistat": 799,
      "mer": 800,
      "Ġuni": 801,
      "zulta": 802,
      "Ġqu": 803,
      "Ġfid": 804,
      "Ġperme": 805,
      "ĠjistgÄ§u": 806,
      "Ġpermezz": 807,
      "Ġgustizzja": 808,
      "Ġ\"": 809,
      "Ġskoperturi": 810,
      "mp": 811,
      "pprezenta": 812,
      "dan": 813,
      "Ġfinanzjar": 814,
      "Ġservizzi": 815,
      "Ġ29": 816,
      "nti": 817,
      "Ġmizuri": 818,
      "bbilta": 819,
      "su": 820,
      "qu": 821,
      "cita": 822,
      "ĠgÄ§ad": 823,
      "Ġair": 824,
      "Ġbazi": 825,
      "Ġguri": 826,
      "Ġbiss": 827,
      "vo": 828,
      "Ġkump": 829,
      "Ġobbli": 830,
      "ddiem": 831,
      "ist": 832,
      "lment": 833,
      "Ġspeci": 834,
      "Ġavvan": 835,
      "cess": 836,
      "limenta": 837,
      "ĠoÄ§rajn": 838,
      "Ġesp": 839,
      "Ġlivell": 840,
      "Ġbl": 841,
      "ttiva": 842,
      "Ġvalu": 843,
      "we": 844,
      "Ġsist": 845,
      "pera": 846,
      "ĠtaÄ§t": 847,
      "Ġprop": 848,
      "Ġ199": 849,
      "ragrafu": 850,
      "ina": 851,
      "Ġeff": 852,
      "Ġavvanzat": 853,
      "Ġairb": 854,
      "Ġ26": 855,
      "jji": 856,
      "tor": 857,
      "Ġ23": 858,
      "es": 859,
      "Ġfatt": 860,
      "Ġuffi": 861,
      "Ġpersuna": 862,
      "Ġkuntra": 863,
      "Ġ22": 864,
      "enzi": 865,
      "Ġinklu": 866,
      "Ġne": 867,
      "Ġdawk": 868,
      "Ġrikorrenti": 869,
      "Ġquddiem": 870,
      "val": 871,
      "Ġaktar": 872,
      "zzazzjoni": 873,
      "Ġpajji": 874,
      "Ġii": 875,
      "Ġ31": 876,
      "Ġhekk": 877,
      "erm": 878,
      "Ġligi": 879,
      "Ġez": 880,
      "sso": 881,
      "jun": 882,
      "ven": 883,
      "Ġsuq": 884,
      "ffer": 885,
      "Ġct": 886,
      "qi": 887,
      "mo": 888,
      "kko": 889,
      "ĠmagÄ§": 890,
      "Ġjkunu": 891,
      "fer": 892,
      "Ġ24": 893,
      "Ä§ti": 894,
      "sser": 895,
      "ex": 896,
      "Ġhemm": 897,
      "Ġdispozizzjonijiet": 898,
      "stitu": 899,
      "Ġcor": 900,
      "Ġvs": 901,
      "Ġimporta": 902,
      "Ġtan": 903,
      "mon": 904,
      "Ġkonsum": 905,
      "bel": 906,
      "zla": 907,
      "Ġ28": 908,
      "Ġara": 909,
      "Ġappell": 910,
      "wal": 911,
      "lan": 912,
      "Ġbarra": 913,
      "Ġkundi": 914,
      "pew": 915,
      "Ġkontra": 916,
      "Ġlil": 917,
      "pplika": 918,
      "spon": 919,
      "Ġispe": 920,
      "Ġrela": 921,
      "Ġuzu": 922,
      "Ġlegi": 923,
      "ena": 924,
      "Ġsens": 925,
      "jje": 926,
      "Ġewropew": 927,
      "rati": 928,
      "Ġlo": 929,
      "Ġ27": 930,
      "ĠmingÄ§a": 931,
      "Ġkri": 932,
      "Ġjid": 933,
      "Ġdom": 934,
      "rig": 935,
      "Ġregoli": 936,
      "wazzjoni": 937,
      "Ġfon": 938,
      "Ġtali": 939,
      "denza": 940,
      "Ġgej": 941,
      "Ġset": 942,
      "Ġ90": 943,
      "Ġprodu": 944,
      "Ġvi": 945,
      "xxa": 946,
      "ing": 947,
      "Ġ+": 948,
      "Ġistess": 949,
      "pprov": 950,
      "Ġor": 951,
      "Ġtalba": 952,
      "kollu": 953,
      "Ġxi": 954,
      "eÄ§Ä§": 955,
      "ĠgÄ§": 956,
      "Ġkonfor": 957,
      "zju": 958,
      "egali": 959,
      "ĠgÄ§at": 960,
      "kunsid": 961,
      "Ġtit": 962,
      "Ġmiljun": 963,
      "Ġcorp": 964,
      "test": 965,
      "Ġinve": 966,
      "jodu": 967,
      "Ġ000": 968,
      "Ġimplimenta": 969,
      "nza": 970,
      "ement": 971,
      "Ġprote": 972,
      "ost": 973,
      "Ġtratta": 974,
      "Ġst": 975,
      "ng": 976,
      "minist": 977,
      "tat": 978,
      "Ġbilli": 979,
      "omi": 980,
      "Ġex": 981,
      "Ġcerti": 982,
      "Ġrep": 983,
      "Ġca": 984,
      "Ġqabel": 985,
      "Ġkienet": 986,
      "tion": 987,
      "essi": 988,
      "Ġco": 989,
      "Ġparagrafu": 990,
      "Ġth": 991,
      "Ġinvesti": 992,
      "Ġsistema": 993,
      "Ġ2009": 994,
      "tazzjoni": 995,
      "Ġattivi": 996,
      "Ġsmec": 997,
      "Ġstat": 998,
      "ĠmingÄ§ajr": 999,
      "Ġen": 1000,
      "ln": 1001,
      "enda": 1002,
      "lament": 1003,
      "Ġpubbli": 1004,
      "Ġacc": 1005,
      "Ġjo": 1006,
      "hekk": 1007,
      "se": 1008,
      "Ġkonsuma": 1009,
      "Ġtieni": 1010,
      "Ġprotezzjoni": 1011,
      "ca": 1012,
      "Ġado": 1013,
      "Ġprodott": 1014,
      "ene": 1015,
      "Ġmater": 1016,
      "ttijiet": 1017,
      "Ġatt": 1018,
      "Ġawtoritajiet": 1019,
      "Ġwie": 1020,
      "Ġkummer": 1021,
      "ĠgÄ§as": 1022,
      "Ġkapi": 1023,
      "Ġammon": 1024,
      "kka": 1025,
      "ĠnaÄ§a": 1026,
      "dici": 1027,
      "jjez": 1028,
      "gist": 1029,
      "Ġpropo": 1030,
      "Ġamminist": 1031,
      "Ġkuntest": 1032,
      "Ġdrittijiet": 1033,
      "mb": 1034,
      "Ġmln": 1035,
      "Ġpropr": 1036,
      "mien": 1037,
      "zjali": 1038,
      "sur": 1039,
      "ĠaÄ§Ä§a": 1040,
      "ijiet": 1041,
      "ggetti": 1042,
      "Ġparlament": 1043,
      "Ġrag": 1044,
      "Ġimplimentazzjoni": 1045,
      "ĠgÄ§ar": 1046,
      "Ġikunu": 1047,
      "anda": 1048,
      "Ġjikkon": 1049,
      "ĠjagÄ§": 1050,
      "denti": 1051,
      "Ġlegizla": 1052,
      "feri": 1053,
      "Ġimpri": 1054,
      "Ġksur": 1055,
      "Ġkompet": 1056,
      "Ġæ": 1057,
      "ĠmeÄ§ti": 1058,
      "Ġnatura": 1059,
      "ĠaÄ§Ä§ar": 1060,
      "Ġawtorita": 1061,
      "Ġjirrizulta": 1062,
      "lja": 1063,
      "Ġgi": 1064,
      "Ġistitu": 1065,
      "21": 1066,
      "Ġassi": 1067,
      "kwe": 1068,
      "pri": 1069,
      "Ġ40": 1070,
      "fini": 1071,
      "Ä§u": 1072,
      "levan": 1073,
      "Ġ2013": 1074,
      "Ġopera": 1075,
      "Ġrepubblika": 1076,
      "Ġwkoll": 1077,
      "Ġkwal": 1078,
      "Ġpunti": 1079,
      "Ġkonklu": 1080,
      "anti": 1081,
      "tali": 1082,
      "Ġkwalun": 1083,
      "stit": 1084,
      "ĠgÄ§alhekk": 1085,
      "Ġlegali": 1086,
      "Ġkwalunkwe": 1087,
      "Ġmoti": 1088,
      "Ġru": 1089,
      "Ġkar": 1090,
      "gura": 1091,
      "Ġkundizzjonijiet": 1092,
      "Ġmani": 1093,
      "skri": 1094,
      "Ġgo": 1095,
      "jeta": 1096,
      "pro": 1097,
      "Ġ010": 1098,
      "Ġ2006": 1099,
      "Ġfun": 1100,
      "Ġpi": 1101,
      "30": 1102,
      "cja": 1103,
      "Ġkorporattivi": 1104,
      "Ġinterpre": 1105,
      "eÄ§or": 1106,
      "Ġ2008": 1107,
      "qt": 1108,
      "40": 1109,
      "Ġjapplika": 1110,
      "nu": 1111,
      "Ġxo": 1112,
      "Ġprevi": 1113,
      "ĠieÄ§or": 1114,
      "Ä§abba": 1115,
      "ĠminÄ§abba": 1116,
      "Ġem": 1117,
      "kwizi": 1118,
      "Ġ>": 1119,
      "Ġekon": 1120,
      "Ġispejjez": 1121,
      "stitwi": 1122,
      "Ġimsemmija": 1123,
      "Ġmit": 1124,
      "Ä§ed": 1125,
      "Ġ2014": 1126,
      "zjonijiet": 1127,
      "tolu": 1128,
      "Ġtaxxa": 1129,
      "Ġic": 1130,
      "lli": 1131,
      "Ġbej": 1132,
      "Ġrekwizi": 1133,
      "Ġmark": 1134,
      "kazzjoni": 1135,
      "id": 1136,
      "Ġvalur": 1137,
      "Ġeval": 1138,
      "Ġrin": 1139,
      "eter": 1140,
      "al": 1141,
      "Ġsena": 1142,
      "zizzjoni": 1143,
      "Ġ2011": 1144,
      "Ġha": 1145,
      "dar": 1146,
      "Ġje": 1147,
      "Ġprincipali": 1148,
      "ĠbÄ§al": 1149,
      "fikat": 1150,
      "Ġinterna": 1151,
      "tika": 1152,
      "mali": 1153,
      "egw": 1154,
      "Ġikkon": 1155,
      "Ġkomunita": 1156,
      "ĠwieÄ§ed": 1157,
      "Ġmadan": 1158,
      "levanti": 1159,
      "Ġge": 1160,
      "kludi": 1161,
      "kat": 1162,
      "Ġizda": 1163,
      "Ġgdi": 1164,
      "Ġufficjali": 1165,
      "ĠxogÄ§": 1166,
      "essa": 1167,
      "Ġorg": 1168,
      "Ġmid": 1169,
      "tati": 1170,
      "ĠgÄ§ajn": 1171,
      "Ġfinanzjarji": 1172,
      "50": 1173,
      "naq": 1174,
      "Ġkonven": 1175,
      "Ġtrade": 1176,
      "erazzjoni": 1177,
      "Ġjaq": 1178,
      "Ġ*": 1179,
      "qis": 1180,
      "Ġjir": 1181,
      "Ġpersuni": 1182,
      "Ġmadankollu": 1183,
      "qie": 1184,
      "Ġkorporazzjonijiet": 1185,
      "Ġthe": 1186,
      "Ġkumpan": 1187,
      "xxu": 1188,
      "Ġro": 1189,
      "Ġ39": 1190,
      "tub": 1191,
      "mpj": 1192,
      "Ġinkwi": 1193,
      "mm": 1194,
      "oti": 1195,
      "jenti": 1196,
      "Ġammont": 1197,
      "Ġ?": 1198,
      "Ġtrasp": 1199,
      "Ġ0106": 1200,
      "Ġinkwistjoni": 1201,
      "ggett": 1202,
      "Ġdiffer": 1203,
      "Ġprov": 1204,
      "Ġof": 1205,
      "Ġal": 1206,
      "umenti": 1207,
      "bbilixxi": 1208,
      "Ġgew": 1209,
      "11": 1210,
      "Ġdic": 1211,
      "Ġmatu": 1212,
      "Ġzmien": 1213,
      "Ġkienu": 1214,
      "Ä§ul": 1215,
      "ĠgÄ§ali": 1216,
      "pprovdi": 1217,
      "Ġmanif": 1218,
      "dis": 1219,
      "86": 1220,
      "ĠdÄ§ul": 1221,
      "vazzjoni": 1222,
      "Ġtri": 1223,
      "Ġproposta": 1224,
      "Ġkkunsid": 1225,
      "ĠseÄ§Ä§": 1226,
      "Ġdicembru": 1227,
      "Ġsit": 1228,
      "Ġeza": 1229,
      "Ġrikors": 1230,
      "Ġekonomi": 1231,
      "Ġskond": 1232,
      "mitat": 1233,
      "ona": 1234,
      "Ġinti": 1235,
      "Ġkonformita": 1236,
      "Ġartikoli": 1237,
      "Ġprincipju": 1238,
      "lupp": 1239,
      "Ġ2004": 1240,
      "ĠgÄ§ajnuna": 1241,
      "Ġ2012": 1242,
      "Ġstabbiliti": 1243,
      "ty": 1244,
      "vilupp": 1245,
      "rali": 1246,
      "Ġmatul": 1247,
      "Ġtek": 1248,
      "Ġ33": 1249,
      "Ġkemm": 1250,
      "Ġ2007": 1251,
      "Ġpoli": 1252,
      "Ġnuq": 1253,
      "ber": 1254,
      "Ġmsemmija": 1255,
      "limina": 1256,
      "Ġkriter": 1257,
      "Ġkkontesta": 1258,
      "Ġkwi": 1259,
      "Ġpossi": 1260,
      "Ġnum": 1261,
      "anja": 1262,
      "Ġmu": 1263,
      "Ġ100": 1264,
      "Ġ38": 1265,
      "gÄ§ata": 1266,
      "Ġkuntratt": 1267,
      "Ä§da": 1268,
      "Ġ32": 1269,
      "Ġkampj": 1270,
      "Ġorgani": 1271,
      "Ġperess": 1272,
      "ĠbejgÄ§": 1273,
      "Ġrespon": 1274,
      "Ġ34": 1275,
      "Ġkwistjoni": 1276,
      "Ġcom": 1277,
      "fikati": 1278,
      "Ġfirb": 1279,
      "Ġcr": 1280,
      "Ġmir": 1281,
      "Ġcir": 1282,
      "Ġ36": 1283,
      "Ġinqas": 1284,
      "jin": 1285,
      "ef": 1286,
      "Ġ35": 1287,
      "Ġrilevanti": 1288,
      "Ġamministra": 1289,
      "Ġresponsa": 1290,
      "cie": 1291,
      "Ġ37": 1292,
      "Ġindu": 1293,
      "Ġadotta": 1294,
      "Ġpubbliku": 1295,
      "zati": 1296,
      "gija": 1297,
      "Ġproceduri": 1298,
      "Ġrapp": 1299,
      "cessar": 1300,
      "ewg": 1301,
      "ranti": 1302,
      "Ġriz": 1303,
      "Ġet": 1304,
      "Ġpajjizi": 1305,
      "sklu": 1306,
      "Ġkonsumatur": 1307,
      "Ġkw": 1308,
      "lita": 1309,
      "Ġsig": 1310,
      "Ġtid": 1311,
      "Ġidenti": 1312,
      "Ġtermin": 1313,
      "ejj": 1314,
      "Ġzewg": 1315,
      "Ġakk": 1316,
      "dika": 1317,
      "Ġregist": 1318,
      "ĠxogÄ§ol": 1319,
      "stanzi": 1320,
      "Ġorig": 1321,
      "Ġnuqqas": 1322,
      "sir": 1323,
      "Ġspecifi": 1324,
      "Ġkell": 1325,
      "jan": 1326,
      "jd": 1327,
      "Ġkomunitar": 1328,
      "ĠmaÄ§": 1329,
      "spru": 1330,
      "Ġraguni": 1331,
      "Ġgurispru": 1332,
      "Ġkkoncerna": 1333,
      "Ġindustri": 1334,
      "Ġ2010": 1335,
      "emi": 1336,
      "Ġdawl": 1337,
      "peti": 1338,
      "Ġgurisprudenza": 1339,
      "Ġperjodu": 1340,
      "Ġvet": 1341,
      "Ġezi": 1342,
      "Ġ2003": 1343,
      "Ġosser": 1344,
      "Ġot": 1345,
      "Ġkompetenti": 1346,
      "dju": 1347,
      "Ġperi": 1348,
      "Ġelett": 1349,
      "Ġsmes": 1350,
      "Ġesporta": 1351,
      "Ġest": 1352,
      "liminari": 1353,
      "Ġpreliminari": 1354,
      "Ġlu": 1355,
      "Ġproprjeta": 1356,
      "Ġ2016": 1357,
      "Ġgie": 1358,
      "Ġsub": 1359,
      "Ġ2015": 1360,
      "Ġdispozizzjoni": 1361,
      "Ġaccess": 1362,
      "Ġrekwiziti": 1363,
      "Ġrinvi": 1364,
      "ds": 1365,
      "Ġterri": 1366,
      "uri": 1367,
      "Ġni": 1368,
      "Ġkodici": 1369,
      "ulju": 1370,
      "kemm": 1371,
      "Ġrinviju": 1372,
      "mar": 1373,
      "Ġtip": 1374,
      "Ġemenda": 1375,
      "Ġobbligu": 1376,
      "ĠwaÄ§da": 1377,
      "Ġkampjun": 1378,
      "Ġcc": 1379,
      "daq": 1380,
      "90": 1381,
      "Ġdikja": 1382,
      "Ġmet": 1383,
      "vat": 1384,
      "kar": 1385,
      "Ġdefini": 1386,
      "dja": 1387,
      "endi": 1388,
      "Ġevalwazzjoni": 1389,
      "pperm": 1390,
      "Ġterritor": 1391,
      "ettivi": 1392,
      "Ġinf": 1393,
      "perazzjoni": 1394,
      "bir": 1395,
      "bra": 1396,
      "stant": 1397,
      "Ġgver": 1398,
      "Ġtirri": 1399,
      "Ġmik": 1400,
      "jru": 1401,
      "Ġkumpanni": 1402,
      "Ġprogra": 1403,
      "Ġkkontestata": 1404,
      "Ġgun": 1405,
      "ĠmogÄ§": 1406,
      "Ġjippre": 1407,
      "Ġoggetti": 1408,
      "nt": 1409,
      "bj": 1410,
      "bo": 1411,
      "ks": 1412,
      "Ġ84": 1413,
      "94": 1414,
      "Ġgiet": 1415,
      "zija": 1416,
      "Ġlegizlazzjoni": 1417,
      "liet": 1418,
      "nar": 1419,
      "Ġgunju": 1420,
      "Ġtikkon": 1421,
      "kati": 1422,
      "sc": 1423,
      "emp": 1424,
      "Ġimsemmi": 1425,
      "mula": 1426,
      "Ġgdid": 1427,
      "Ġint": 1428,
      "dazzjoni": 1429,
      "Ġtac": 1430,
      "Ġprezz": 1431,
      "Ġban": 1432,
      "sam": 1433,
      "entali": 1434,
      "rar": 1435,
      "vid": 1436,
      "80": 1437,
      "daqstant": 1438,
      "Ġå": 1439,
      "Ġstabbilit": 1440,
      "ĠgÄ§aldaqstant": 1441,
      "Ġy": 1442,
      "Ġresid": 1443,
      "Ġmanifat": 1444,
      "Ġpajjiz": 1445,
      "Ġtaz": 1446,
      "Ġmt": 1447,
      "gazzjoni": 1448,
      "Ġinternazzjonali": 1449,
      "Ġtax": 1450,
      "Ġ41": 1451,
      "Ġ44": 1452,
      "qsi": 1453,
      "Ġsal": 1454,
      "Ġ2001": 1455,
      "Ġajru": 1456,
      "Ġezist": 1457,
      "wn": 1458,
      "Ġnumru": 1459,
      "urta": 1460,
      "Ġtran": 1461,
      "Ġkompeti": 1462,
      "Ġkapitolu": 1463,
      "Ġattivitajiet": 1464,
      "enju": 1465,
      "entement": 1466,
      "Ġmaterjali": 1467,
      "Ġwi": 1468,
      "Ġbene": 1469,
      "Ġprem": 1470,
      "Ġ85": 1471,
      "Ġkee": 1472,
      "Ġkwali": 1473,
      "Ġkriterji": 1474,
      "urna": 1475,
      "Ġprovvi": 1476,
      "kkostitwi": 1477,
      "disfa": 1478,
      "Ġsett": 1479,
      "Ġlin": 1480,
      "Ġlulju": 1481,
      "Ġsp": 1482,
      "Ġjiz": 1483,
      "Ġsajd": 1484,
      "man": 1485,
      "Ġkumitat": 1486,
      "ĠmogÄ§ti": 1487,
      "ssen": 1488,
      "Ġsar": 1489,
      "Ġstabbilita": 1490,
      "Ġsuggett": 1491,
      "Ġlan": 1492,
      "eda": 1493,
      "Ġrapprezenta": 1494,
      "ffic": 1495,
      "Ġinkluzi": 1496,
      "Ġesklu": 1497,
      "Ġand": 1498,
      "Ġservizz": 1499,
      "tuza": 1500,
      "Ġtfu": 1501,
      "gan": 1502,
      "Ġ2017": 1503,
      "fas": 1504,
      "Ġbenefi": 1505,
      "Ġrefer": 1506,
      "Ġtfue": 1507,
      "Ġ54": 1508,
      "Ġtw": 1509,
      "zjon": 1510,
      "Ġkontroll": 1511,
      "tal": 1512,
      "Ġmer": 1513,
      "ula": 1514,
      "Ġnett": 1515,
      "Ġppro": 1516,
      "Ä§all": 1517,
      "Ġ~": 1518,
      "Ġ43": 1519,
      "Ġqafas": 1520,
      "ez": 1521,
      "Ġfr": 1522,
      "Ġ01": 1523,
      "mel": 1524,
      "ĠsaÄ§Ä§a": 1525,
      "dizz": 1526,
      "Ġtekni": 1527,
      "Ġ45": 1528,
      "Ġ42": 1529,
      "Ġcent": 1530,
      "no": 1531,
      "Ġdok": 1532,
      "Ġgerm": 1533,
      "ge": 1534,
      "Ġkummercjali": 1535,
      "Ġistituzzjonijiet": 1536,
      "one": 1537,
      "Ġss": 1538,
      "Ġtnaq": 1539,
      "Ġjkoll": 1540,
      "ĠmeÄ§tiega": 1541,
      "000": 1542,
      "Ġ60": 1543,
      "Ġgurna": 1544,
      "Ġ2018": 1545,
      "rupp": 1546,
      "Ġenti": 1547,
      "sponi": 1548,
      "Ġsigurta": 1549,
      "Ġhi": 1550,
      "Ġrenju": 1551,
      "kali": 1552,
      "Ġinte": 1553,
      "Ġ2002": 1554,
      "gwarda": 1555,
      "Ġmis": 1556,
      "Ġver": 1557,
      "Ġgabra": 1558,
      "ggi": 1559,
      "ts": 1560,
      "Ġmarzu": 1561,
      "Ġkonten": 1562,
      "us": 1563,
      "Ġfran": 1564,
      "Ġtrattat": 1565,
      "kkun": 1566,
      "Ġecc": 1567,
      "gÄ§at": 1568,
      "ensjoni": 1569,
      "citata": 1570,
      "ettaq": 1571,
      "Ġsin": 1572,
      "Ġdomanda": 1573,
      "Ġisem": 1574,
      "dizzjoni": 1575,
      "tubru": 1576,
      "Ġottubru": 1577,
      "ttp": 1578,
      "os": 1579,
      "Ġpubblika": 1580,
      "Ġ46": 1581,
      "Ġjan": 1582,
      "Ġkli": 1583,
      "Ġproduzzjoni": 1584,
      "22": 1585,
      "rata": 1586,
      "ne": 1587,
      "Ġpost": 1588,
      "Ġmej": 1589,
      "riet": 1590,
      "Ġsost": 1591,
      "Ġmad": 1592,
      "Ġqed": 1593,
      "Ġlok": 1594,
      "Ġdifferenti": 1595,
      "rut": 1596,
      "miex": 1597,
      "Ġ2019": 1598,
      "Ġnov": 1599,
      "Ġjistabbilixxi": 1600,
      "70": 1601,
      "Ġgrupp": 1602,
      "qs": 1603,
      "Ġaddi": 1604,
      "Ġlimi": 1605,
      "oli": 1606,
      "ttad": 1607,
      "enzjoni": 1608,
      "Ġ2005": 1609,
      "Ġcittad": 1610,
      "Ġ52": 1611,
      "Ġ99": 1612,
      "biet": 1613,
      "cipa": 1614,
      "Ġ48": 1615,
      "ella": 1616,
      "Ġgvern": 1617,
      "Ġ49": 1618,
      "Ġprece": 1619,
      "Ġprez": 1620,
      "Ġhttp": 1621,
      "Ġbord": 1622,
      "Ġad": 1623,
      "Ġ0086": 1624,
      "Ġ55": 1625,
      "Ġtrasport": 1626,
      "Ġabba": 1627,
      "Ġnovembru": 1628,
      "Ġazzjoni": 1629,
      "ndar": 1630,
      "Ġreg": 1631,
      "rija": 1632,
      "gun": 1633,
      "Ġbba": 1634,
      "ccju": 1635,
      "Ġju": 1636,
      "Ġabbazi": 1637,
      "waqt": 1638,
      "her": 1639,
      "versi": 1640,
      "Ġterritorju": 1641,
      "lob": 1642,
      "Ġjannar": 1643,
      "Ġmarbu": 1644,
      "Ġimprizi": 1645,
      "Ġfilwaqt": 1646,
      "elet": 1647,
      "Ġqasam": 1648,
      "Ġmejju": 1649,
      "60": 1650,
      "zata": 1651,
      "mmi": 1652,
      "Ġgejjin": 1653,
      "Ġasso": 1654,
      "Ġcirku": 1655,
      "Ġsn": 1656,
      "enn": 1657,
      "Ġnoti": 1658,
      "Ġppre": 1659,
      "Ġipprezenta": 1660,
      "Ġkoo": 1661,
      "Ġfondazzjoni": 1662,
      "pril": 1663,
      "ho": 1664,
      "Ġtnaqqis": 1665,
      "Ġeffetti": 1666,
      "kien": 1667,
      "Ġhawn": 1668,
      "Ġsettembru": 1669,
      "pen": 1670,
      "ress": 1671,
      "Ġtest": 1672,
      "Ġbid": 1673,
      "Ġanni": 1674,
      "Ġ47": 1675,
      "Ġforma": 1676,
      "Ġdikjarazzjoni": 1677,
      "diet": 1678,
      "vu": 1679,
      "Ġtielet": 1680,
      "Ġ80": 1681,
      "Ġnego": 1682,
      "Ġgurnal": 1683,
      "Ġkbir": 1684,
      "Ġindivid": 1685,
      "bar": 1686,
      "Ġsk": 1687,
      "Ġapril": 1688,
      "Ġsitwazzjoni": 1689,
      "Ġ51": 1690,
      "Ġfo": 1691,
      "Ġrelatati": 1692,
      "Ġprodut": 1693,
      "Ġimmo": 1694,
      "gga": 1695,
      "zjalment": 1696,
      "Ġik": 1697,
      "Ä§i": 1698,
      "sferi": 1699,
      "Ġgra": 1700,
      "Ġdogan": 1701,
      "Ġavu": 1702,
      "Ġbe": 1703,
      "Ġjitqie": 1704,
      "Ġqie": 1705,
      "Ġjipprovdi": 1706,
      "inali": 1707,
      "Ġimpriza": 1708,
      "Ġlc": 1709,
      "Ġxa": 1710,
      "Ġpra": 1711,
      "Ġling": 1712,
      "Ġinkluz": 1713,
      "Ġdoganali": 1714,
      "Ġman": 1715,
      "Ġbo": 1716,
      "etermina": 1717,
      "Ġcon": 1718,
      "Ġdu": 1719,
      "Ġeuro": 1720,
      "limkien": 1721,
      "Ġdokumenti": 1722,
      "kono": 1723,
      "Ġpozizzjoni": 1724,
      "andi": 1725,
      "sin": 1726,
      "Ġmic": 1727,
      "Ġflimkien": 1728,
      "teri": 1729,
      "Ġini": 1730,
      "Ġdisponi": 1731,
      "fieri": 1732,
      "Ġimpo": 1733,
      "Ġat": 1734,
      "raq": 1735,
      "ementi": 1736,
      "Ġmeto": 1737,
      "ssu": 1738,
      "Ġkooperazzjoni": 1739,
      "Ġjigifieri": 1740,
      "ĠmogÄ§tija": 1741,
      "Ġjp": 1742,
      "Ġinterpretazzjoni": 1743,
      "ttra": 1744,
      "Ġsti": 1745,
      "olo": 1746,
      "Ġop": 1747,
      "Ġsnin": 1748,
      "Ġsakemm": 1749,
      "Ġ91": 1750,
      "les": 1751,
      "Ġreferenza": 1752,
      "Ġforni": 1753,
      "Ġbasti": 1754,
      "minat": 1755,
      "Ġmanifattura": 1756,
      "ppermetti": 1757,
      "Ġmag": 1758,
      "Ġtrattament": 1759,
      "zzati": 1760,
      "Ġnor": 1761,
      "wie": 1762,
      "Ġobbligi": 1763,
      "Ġelementi": 1764,
      "Ġmizura": 1765,
      "Ġrestri": 1766,
      "Ġtari": 1767,
      "Ġ95": 1768,
      "vedi": 1769,
      "Ġut": 1770,
      "Ġ53": 1771,
      "Ġragunijiet": 1772,
      "Ġdiretta": 1773,
      "Ġnecessar": 1774,
      "Ġannimali": 1775,
      "Ġawtorizzazzjoni": 1776,
      "Ġeffett": 1777,
      "Ġener": 1778,
      "Ġliber": 1779,
      "Ġ96": 1780,
      "Ġintesta": 1781,
      "Ġprecedenti": 1782,
      "Ġkonsegw": 1783,
      "ĠâĢĺ": 1784,
      "Ġagri": 1785,
      "Ġtem": 1786,
      "Ġspecifici": 1787,
      "Ġanali": 1788,
      "Ġvo": 1789,
      "Ġ70": 1790,
      "Ġrri": 1791,
      "Ġprocess": 1792,
      "dda": 1793,
      "Ġabb": 1794,
      "Ġtotali": 1795,
      "Ġibba": 1796,
      "Ġessen": 1797,
      "Ġdecizjonijiet": 1798,
      "Ġkapa": 1799,
      "Ġfih": 1800,
      "Ġizvilupp": 1801,
      "Ġord": 1802,
      "tament": 1803,
      "wiex": 1804,
      "Ġ57": 1805,
      "Ġzba": 1806,
      "rego": 1807,
      "Ġkg": 1808,
      "wett": 1809,
      "Ġperijodu": 1810,
      "Ġimmobbli": 1811,
      "Ġproto": 1812,
      "il": 1813,
      "Ġ2000": 1814,
      "har": 1815,
      "Ġambj": 1816,
      "Ġagg": 1817,
      "Ġrizulta": 1818,
      "Ġsussi": 1819,
      "Ġkunsid": 1820,
      "Ġjintuza": 1821,
      "tri": 1822,
      "Ġiii": 1823,
      "Ġfinijiet": 1824,
      "Ġgestjoni": 1825,
      "vizjoni": 1826,
      "Ġ56": 1827,
      "eh": 1828,
      "let": 1829,
      "kan": 1830,
      "Ġmilli": 1831,
      "Ġipo": 1832,
      "eku": 1833,
      "Ġ59": 1834,
      "Ġkonvenzjoni": 1835,
      "jament": 1836,
      "zzijiet": 1837,
      "qui": 1838,
      "decie": 1839,
      "ati": 1840,
      "Ġprezzijiet": 1841,
      "Ġprog": 1842,
      "kola": 1843,
      "ĠtÄ§a": 1844,
      "Ġfihom": 1845,
      "zijiet": 1846,
      "Ġsentenzi": 1847,
      "Ġsocjali": 1848,
      "Ġnet": 1849,
      "ruttura": 1850,
      "stici": 1851,
      "tin": 1852,
      "Ġpremessa": 1853,
      "Ġkompetizzjoni": 1854,
      "orsi": 1855,
      "Ġ2020": 1856,
      "ffa": 1857,
      "Ġ93": 1858,
      "Ġdeskri": 1859,
      "Ġtfi": 1860,
      "Ġipote": 1861,
      "Ġkorporattiv": 1862,
      "Ġlista": 1863,
      "kja": 1864,
      "arch": 1865,
      "tx": 1866,
      "Ġimpa": 1867,
      "Ġpolitika": 1868,
      "Ġkkunsidrat": 1869,
      "Ġinvo": 1870,
      "Ġinvestigazzjoni": 1871,
      "egwi": 1872,
      "Ġcar": 1873,
      "co": 1874,
      "pula": 1875,
      "Ġintern": 1876,
      "Ġkummerc": 1877,
      "Ġkwalita": 1878,
      "Ġkarta": 1879,
      "Ġsettur": 1880,
      "Ġzona": 1881,
      "Ġpresid": 1882,
      "Ġorigini": 1883,
      "Ġfrar": 1884,
      "zji": 1885,
      "Ġindustrija": 1886,
      "kkostitwixxi": 1887,
      "Ġtir": 1888,
      "tata": 1889,
      "ttieÄ§": 1890,
      "Ġdisponibbli": 1891,
      "15": 1892,
      "Ġatti": 1893,
      "Ġjint": 1894,
      "Ġ92": 1895,
      "erifika": 1896,
      "Ġattivita": 1897,
      "duta": 1898,
      "ĠmeÄ§tieg": 1899,
      "Ġste": 1900,
      "gurazzjoni": 1901,
      "Ġsott": 1902,
      "Ġfiha": 1903,
      "Ġ73": 1904,
      "Ġæľ": 1905,
      "Ġ02": 1906,
      "vel": 1907,
      "Ġinteress": 1908,
      "Ġ65": 1909,
      "tego": 1910,
      "Ġterzi": 1911,
      "Ġxie": 1912,
      "jal": 1913,
      "Ġjapplikaw": 1914,
      "Ġarg": 1915,
      "Ġannu": 1916,
      "Ġdiversi": 1917,
      "ĠÂ": 1918,
      "Ġkal": 1919,
      "Ġregolamenti": 1920,
      "ĠæĹ": 1921,
      "Ġ58": 1922,
      "Ġsearch": 1923,
      "Ġå¹": 1924,
      "ĠæĹ¥": 1925,
      "Ġlejn": 1926,
      "Ġkumpannija": 1927,
      "Ġå¹´": 1928,
      "Ġterminu": 1929,
      "Ġrapport": 1930,
      "kkor": 1931,
      "ck": 1932,
      "Ġxieraq": 1933,
      "Ä§ol": 1934,
      "Ġprotokoll": 1935,
      "Ġ87": 1936,
      "ĠæľĪ": 1937,
      "12": 1938,
      "Ġezeku": 1939,
      "ĠmagÄ§mula": 1940,
      "ĠÄ§li": 1941,
      "Ġkoper": 1942,
      "Ġappo": 1943,
      "Ġkontri": 1944,
      "lin": 1945,
      "djar": 1946,
      "Ġisk": 1947,
      "Ġpersunal": 1948,
      "Ġch": 1949,
      "Ġ94": 1950,
      "og": 1951,
      "Ġsimi": 1952,
      "Ġjirrigwarda": 1953,
      "ssodisfa": 1954,
      "Ġing": 1955,
      "jiex": 1956,
      "Ġpiz": 1957,
      "eb": 1958,
      "99": 1959,
      "Ġzi": 1960,
      "Ġmedi": 1961,
      "Ġekwi": 1962,
      "ata": 1963,
      "ten": 1964,
      "dam": 1965,
      "13": 1966,
      "Ġslo": 1967,
      "ettivament": 1968,
      "ers": 1969,
      "Ġ98": 1970,
      "Ġassocja": 1971,
      "ww": 1972,
      "Ġstati": 1973,
      "Ġtul": 1974,
      "Ġjizgura": 1975,
      "Ġcirkustanzi": 1976,
      "tecipa": 1977,
      "Ġkatego": 1978,
      "Ġprogramm": 1979,
      "Ġkongun": 1980,
      "Ġdig": 1981,
      "Ġrisp": 1982,
      "Ġlingwa": 1983,
      "Ġrikorrent": 1984,
      "ĠÄ§lief": 1985,
      "Ġ63": 1986,
      "Ġtliet": 1987,
      "Ġpratti": 1988,
      "Ġagenzi": 1989,
      "Ġiv": 1990,
      "Ġgudizz": 1991,
      "Ġaddizzjonali": 1992,
      "Ġpprov": 1993,
      "roni": 1994,
      "Ġistanza": 1995,
      "Ġkontenut": 1996,
      "bid": 1997,
      "ĠgÄ§anijiet": 1998,
      "vol": 1999,
      "Ġvat": 2000,
      "Ġosserva": 2001,
      "Ġfinali": 2002,
      "zor": 2003,
      "Ġon": 2004,
      "Ġindika": 2005,
      "Ġtaqsi": 2006,
      "Ġfinanzjarja": 2007,
      "Ġ75": 2008,
      "kolu": 2009,
      "eÄ§u": 2010,
      "Ġ07": 2011,
      "Ġintestatura": 2012,
      "Ġlic": 2013,
      "ãĥ": 2014,
      "Ġpropor": 2015,
      "ump": 2016,
      "Ġfer": 2017,
      "ana": 2018,
      "Ġwaqt": 2019,
      "kla": 2020,
      "Ġimpatt": 2021,
      "Ġmotiv": 2022,
      "Ġopp": 2023,
      "ĠgÄ§oti": 2024,
      "zer": 2025,
      "Ġkonkluzjonijiet": 2026,
      "Ġsimili": 2027,
      "Ġjimp": 2028,
      "eÄ§ti": 2029,
      "Ġikel": 2030,
      "barra": 2031,
      "Ġdiga": 2032,
      "th": 2033,
      "fikata": 2034,
      "fin": 2035,
      "pr": 2036,
      "Ġska": 2037,
      "Ġtrasferi": 2038,
      "Ġgudizzjar": 2039,
      "Ġippro": 2040,
      "Ġ0094": 2041,
      "Ġze": 2042,
      "Ġtalbiet": 2043,
      "Ġawt": 2044,
      "rea": 2045,
      "Ġjinsa": 2046,
      "Ġminbarra": 2047,
      "Ġpr": 2048,
      "Ġpresident": 2049,
      "Ġbel": 2050,
      "mir": 2051,
      "ejja": 2052,
      "Ġregistrazzjoni": 2053,
      "Ġkuntratti": 2054,
      "Ġ67": 2055,
      "Ġunit": 2056,
      "rika": 2057,
      "tarju": 2058,
      "Ġdigriet": 2059,
      "Ġimportazzjonijiet": 2060,
      "injoni": 2061,
      "Ġinkunsid": 2062,
      "Ġopinjoni": 2063,
      "Ġ88": 2064,
      "ek": 2065,
      "ĠtingÄ§ata": 2066,
      "Ġinkunsiderazzjoni": 2067,
      "ero": 2068,
      "Ġ64": 2069,
      "Ġ62": 2070,
      "nie": 2071,
      "Ġpaga": 2072,
      "Ġfro": 2073,
      "Ġpossibbli": 2074,
      "eÄ§tieg": 2075,
      "ĠÄ§ti": 2076,
      "ssal": 2077,
      "zo": 2078,
      "93": 2079,
      "Ġmini": 2080,
      "Ġezami": 2081,
      "Ġannulla": 2082,
      "Ġpprezenta": 2083,
      "Ġ08": 2084,
      "lem": 2085,
      "Ġjib": 2086,
      "Ġdel": 2087,
      "jbi": 2088,
      "Ġezer": 2089,
      "gusti": 2090,
      "egÄ§": 2091,
      "Ġjistax": 2092,
      "Ġisp": 2093,
      "Ġikkoncerna": 2094,
      "Ġ72": 2095,
      "Ġprodutturi": 2096,
      "Ġlt": 2097,
      "Ġus": 2098,
      "Ġoffer": 2099,
      "Ġmerkan": 2100,
      "ejjed": 2101,
      "kkunsid": 2102,
      "Ġuzati": 2103,
      "Ġpja": 2104,
      "Ġmarbuta": 2105,
      "Ġecce": 2106,
      "Ġ71": 2107,
      "sposta": 2108,
      "Ġipp": 2109,
      "Ġjippro": 2110,
      "Ġ1999": 2111,
      "Ġresponsabbli": 2112,
      "gen": 2113,
      "Ġwww": 2114,
      "Ġpubblici": 2115,
      "Ġkunc": 2116,
      "ostni": 2117,
      "arja": 2118,
      "Ġevi": 2119,
      "Ġenergija": 2120,
      "Ġavukat": 2121,
      "Ġtel": 2122,
      "Ġapprovazzjoni": 2123,
      "Ġkontribu": 2124,
      "Ġ09": 2125,
      "Ġza": 2126,
      "Ġrata": 2127,
      "Ġinvestiment": 2128,
      "Ġcentrali": 2129,
      "ĠtagÄ§ti": 2130,
      "Ġjum": 2131,
      "Ġ61": 2132,
      "Ġimportazzjoni": 2133,
      "Ġsubpa": 2134,
      "Ġanki": 2135,
      "Ġfat": 2136,
      "ĠÄ§ie": 2137,
      "cu": 2138,
      "Ġsistemi": 2139,
      "Ġprim": 2140,
      "Ġjikkoncerna": 2141,
      "Ġmerkanzija": 2142,
      "Ġkonsumaturi": 2143,
      "Ġprevisti": 2144,
      "fju": 2145,
      "Ġ74": 2146,
      "Ġsuper": 2147,
      "pprovdu": 2148,
      "Ġfinanzjarju": 2149,
      "Ġ97": 2150,
      "Ġart": 2151,
      "Ġtu": 2152,
      "Ġelettroni": 2153,
      "Ġbagi": 2154,
      "Ġindiri": 2155,
      "Ġlimita": 2156,
      "Ġprof": 2157,
      "Ġer": 2158,
      "Ġekonomika": 2159,
      "Ġ83": 2160,
      "ĠmicÄ§u": 2161,
      "lat": 2162,
      "den": 2163,
      "Ġmassi": 2164,
      "kument": 2165,
      "Ġtaqsima": 2166,
      "rug": 2167,
      "Ġezistenza": 2168,
      "Ġdokument": 2169,
      "Ġappogg": 2170,
      "wer": 2171,
      "mes": 2172,
      "ox": 2173,
      "Ġprincipji": 2174,
      "ĠÐ": 2175,
      "Ġdetta": 2176,
      "cy": 2177,
      "Ġinteressi": 2178,
      "Ġkazijiet": 2179,
      "Ġvan": 2180,
      "ec": 2181,
      "Ġprovi": 2182,
      "raw": 2183,
      "Ġawla": 2184,
      "Ġjkunx": 2185,
      "zjonali": 2186,
      "Ġufficcju": 2187,
      "Ġ81": 2188,
      "nijiet": 2189,
      "rispon": 2190,
      "essjoni": 2191,
      "Ġ66": 2192,
      "ps": 2193,
      "Ġdde": 2194,
      "Ġstandar": 2195,
      "Ġkomunikazzjoni": 2196,
      "Ġlanqas": 2197,
      "Ġargumenti": 2198,
      "Ġappa": 2199,
      "Ġsmer": 2200,
      "zzata": 2201,
      "Ġflu": 2202,
      "Ġvalutazzjoni": 2203,
      "ĠsÄ§i": 2204,
      "stanza": 2205,
      "Ġrizorsi": 2206,
      "Ġac": 2207,
      "hiex": 2208,
      "dita": 2209,
      "ĠgÄ§alihom": 2210,
      "Ġjen": 2211,
      "Ġassigurazzjoni": 2212,
      "Ġdirettament": 2213,
      "deciedi": 2214,
      "wettaq": 2215,
      "Ġ05": 2216,
      "Ġanalizi": 2217,
      "Ġsubparagrafu": 2218,
      "Ġtapplika": 2219,
      "muni": 2220,
      "Ä§ar": 2221,
      "Ġallo": 2222,
      "Ġresidenza": 2223,
      "ssar": 2224,
      "Ġ68": 2225,
      "Ġkomunitarja": 2226,
      "Ġdej": 2227,
      "Ġ78": 2228,
      "Ġorganizzazzjoni": 2229,
      "Ġgermanja": 2230,
      "voli": 2231,
      "Ġill": 2232,
      "Ġkapacita": 2233,
      "Ġpu": 2234,
      "Ġbir": 2235,
      "Ġvetturi": 2236,
      "Ġprovvista": 2237,
      "fikaw": 2238,
      "Ġbis": 2239,
      "pati": 2240,
      "ĠtagÄ§mir": 2241,
      "Ġ89": 2242,
      "fficjenti": 2243,
      "Ġkumpens": 2244,
      "Ġpjan": 2245,
      "kkar": 2246,
      "miet": 2247,
      "Ġrisposta": 2248,
      "Ġmm": 2249,
      "Ġnota": 2250,
      "Ġentitajiet": 2251,
      "cent": 2252,
      "egat": 2253,
      "rapp": 2254,
      "Ġass": 2255,
      "Ġhuwiex": 2256,
      "Ġistituzzjoni": 2257,
      "uti": 2258,
      "luzzjoni": 2259,
      "Ġlicen": 2260,
      "tici": 2261,
      "kludu": 2262,
      "Ġgodda": 2263,
      "lementa": 2264,
      "Ġkuncett": 2265,
      "onali": 2266,
      "ĠqiegÄ§": 2267,
      "Ġfatti": 2268,
      "Ġadozzjoni": 2269,
      "Ġdejta": 2270,
      "Ġvali": 2271,
      "ulti": 2272,
      "Ġresponsabbilta": 2273,
      "ĠÄ§sa": 2274,
      "vata": 2275,
      "Ġkwanti": 2276,
      "elli": 2277,
      "Ġ198": 2278,
      "seb": 2279,
      "Ġ2021": 2280,
      "mat": 2281,
      "lon": 2282,
      "Ġkonkluzjoni": 2283,
      "Ġix": 2284,
      "Ġ86": 2285,
      "Ġtfisser": 2286,
      "Ġmotivi": 2287,
      "ors": 2288,
      "dji": 2289,
      "Ġjkollhom": 2290,
      "regist": 2291,
      "Ġpossibbilta": 2292,
      "14": 2293,
      "Ġequi": 2294,
      "llas": 2295,
      "vati": 2296,
      "nut": 2297,
      "Ġsan": 2298,
      "Ġtistax": 2299,
      "Ä§tieg": 2300,
      "Ġfondi": 2301,
      "vent": 2302,
      "Ġes": 2303,
      "Ġ76": 2304,
      "ratteri": 2305,
      "razzjonijiet": 2306,
      "Ġkamp": 2307,
      "Ġfundam": 2308,
      "Ġ69": 2309,
      "Ġspecifika": 2310,
      "ffett": 2311,
      "Ġstess": 2312,
      "Ġsussidjar": 2313,
      "Ð°": 2314,
      "ffettwa": 2315,
      "ux": 2316,
      "tro": 2317,
      "Ġsuss": 2318,
      "erazzjonijiet": 2319,
      "Ġissa": 2320,
      "23": 2321,
      "erqa": 2322,
      "Ġsussegw": 2323,
      "ĠÄ§addi": 2324,
      "Ġittra": 2325,
      "Ġgaran": 2326,
      "Ġirri": 2327,
      "danna": 2328,
      "Ġssir": 2329,
      "Ġdet": 2330,
      "gusta": 2331,
      "lici": 2332,
      "Ġpara": 2333,
      "Ġxierqa": 2334,
      "ĠÄ§in": 2335,
      "ĠjingÄ§ata": 2336,
      "Ġtermini": 2337,
      "Ġ77": 2338,
      "Ġ79": 2339,
      "Ġindipen": 2340,
      "Ġmhumiex": 2341,
      "jenza": 2342,
      "19": 2343,
      "ls": 2344,
      "Ġvol": 2345,
      "fakkar": 2346,
      "Ġfundamentali": 2347,
      "Ġtil": 2348,
      "Ġfiskali": 2349,
      "Ġgaranti": 2350,
      "arju": 2351,
      "janza": 2352,
      "uta": 2353,
      "Ġjs": 2354,
      "Ġannullament": 2355,
      "geri": 2356,
      "viment": 2357,
      "Ġstipula": 2358,
      "zjona": 2359,
      "Ġindividwali": 2360,
      "ensi": 2361,
      "Ġprevist": 2362,
      "Ġcittadini": 2363,
      "Ġsl": 2364,
      "Ġintro": 2365,
      "Ġkundizzjoni": 2366,
      "Ġprocedi": 2367,
      "Ġminist": 2368,
      "mlu": 2369,
      "ĠÄ§addiema": 2370,
      "Ġtipprovdi": 2371,
      "Ġrab": 2372,
      "od": 2373,
      "Ġdazju": 2374,
      "Ġagenzija": 2375,
      "Ġ04": 2376,
      "Ġesportazzjoni": 2377,
      "Ġlaq": 2378,
      "Ġguris": 2379,
      "ciz": 2380,
      "rid": 2381,
      "ressa": 2382,
      "Ġiska": 2383,
      "Ġkontraenti": 2384,
      "Ġimpji": 2385,
      "Ġbru": 2386,
      "Ġraba": 2387,
      "Ġewropej": 2388,
      "Ġjintuzaw": 2389,
      "unti": 2390,
      "pru": 2391,
      "Ġzee": 2392,
      "Ġpersonali": 2393,
      "Ġisko": 2394,
      "zon": 2395,
      "Ġ03": 2396,
      "Ġlinji": 2397,
      "Ġdomandi": 2398,
      "minali": 2399,
      "Ġstru": 2400,
      "pc": 2401,
      "Ġsitt": 2402,
      "ggaranti": 2403,
      "Ġtib": 2404,
      "24": 2405,
      "Ġezekuzzjoni": 2406,
      "Ġequity": 2407,
      "Ġtis": 2408,
      "ot": 2409,
      "Ġprot": 2410,
      "Ġezistenti": 2411,
      "Ġrikono": 2412,
      "Ġkonformi": 2413,
      "Ġkkoncernati": 2414,
      "riku": 2415,
      "Ġfaci": 2416,
      "Ġminnhom": 2417,
      "Ġkonsulta": 2418,
      "Ġistru": 2419,
      "Ġemendat": 2420,
      "Ġamministrattiva": 2421,
      "ĠgÄ§add": 2422,
      "ĠjenÄ§tieg": 2423,
      "ĠÎ": 2424,
      "Ġtwa": 2425,
      "ĠÄ§ieles": 2426,
      "statat": 2427,
      "Ġtaj": 2428,
      "Ġpe": 2429,
      "Ġgurisdizzjoni": 2430,
      "Ġcivi": 2431,
      "Ġfost": 2432,
      "ĠgÄ§andux": 2433,
      "ciza": 2434,
      "ĠÄ§ames": 2435,
      "stenza": 2436,
      "voka": 2437,
      "Ġilma": 2438,
      "mijiet": 2439,
      "Ġ06": 2440,
      "res": 2441,
      "moni": 2442,
      "16": 2443,
      "Ġfu": 2444,
      "Ġbar": 2445,
      "Ġdd": 2446,
      "Ġakkwi": 2447,
      "ĠÄ§sara": 2448,
      "Ġtistabbilixxi": 2449,
      "met": 2450,
      "fna": 2451,
      "Ġtrasferiment": 2452,
      "Ġnotifika": 2453,
      "25": 2454,
      "stru": 2455,
      "Ġtif": 2456,
      "Ġbaziku": 2457,
      "Ġprova": 2458,
      "duzzjoni": 2459,
      "Ġxejn": 2460,
      "ft": 2461,
      "ei": 2462,
      "Ġgoog": 2463,
      "gÄ§et": 2464,
      "Ġsemp": 2465,
      "retta": 2466,
      "Ġmizju": 2467,
      "Ġtiz": 2468,
      "ret": 2469,
      "Ġins": 2470,
      "Ġhijiex": 2471,
      "Ġccitata": 2472,
      "Ġterz": 2473,
      "Ġgoogle": 2474,
      "empju": 2475,
      "Ġmas": 2476,
      "lji": 2477,
      "Ġjinkludi": 2478,
      "Ġdannu": 2479,
      "jega": 2480,
      "Ġagriko": 2481,
      "Ġada": 2482,
      "ĠjeÄ§tieg": 2483,
      "Ġdar": 2484,
      "Ġfiz": 2485,
      "Ġanti": 2486,
      "Ġkriminali": 2487,
      "Ġkollu": 2488,
      "Ġteknici": 2489,
      "Ġamministrazzjoni": 2490,
      "Ġmiktub": 2491,
      "Ġkellha": 2492,
      "ĠtagÄ§mel": 2493,
      "yl": 2494,
      "cjar": 2495,
      "Ġasp": 2496,
      "Ġlimitu": 2497,
      "Ð¸": 2498,
      "Ġmulti": 2499,
      "regola": 2500,
      "Ġmif": 2501,
      "stika": 2502,
      "landa": 2503,
      "Ġdisti": 2504,
      "Ġminnu": 2505,
      "Ġvettura": 2506,
      "stijiet": 2507,
      "Ġtitolu": 2508,
      "Ġannwali": 2509,
      "Ġkondi": 2510,
      "kw": 2511,
      "ĠÄ§afna": 2512,
      "rapprezenta": 2513,
      "Ġtippre": 2514,
      "Ġjipprovdu": 2515,
      "fr": 2516,
      "Ġtranza": 2517,
      "gÄ§ar": 2518,
      "kkani": 2519,
      "Ġekwival": 2520,
      "Ġkienx": 2521,
      "Ġjizguraw": 2522,
      "Ġdisk": 2523,
      "mul": 2524,
      "inazzjoni": 2525,
      "Ġprocedimenti": 2526,
      "Ġau": 2527,
      "gÄ§i": 2528,
      "Ġelen": 2529,
      "Ġmekkani": 2530,
      "Ġprezenti": 2531,
      "qet": 2532,
      "zzejjed": 2533,
      "Ġmitlu": 2534,
      "Ġosservazzjonijiet": 2535,
      "len": 2536,
      "Ġoperaturi": 2537,
      "Ġesper": 2538,
      "ke": 2539,
      "rin": 2540,
      "Ġazzjonijiet": 2541,
      "jati": 2542,
      "Ġbastimenti": 2543,
      "Ġkunsiderazzjonijiet": 2544,
      "Ġtwetti": 2545,
      "ĠgÄ§azla": 2546,
      "Ġtaxxabbli": 2547,
      "wida": 2548,
      "Ġagenti": 2549,
      "Ġkkoncernata": 2550,
      "Ġtn": 2551,
      "Ġtiddeciedi": 2552,
      "ĠÄ§dan": 2553,
      "Ġmort": 2554,
      "Ġkaratteri": 2555,
      "niedem": 2556,
      "Ġ82": 2557,
      "17": 2558,
      "ms": 2559,
      "Ġbniedem": 2560,
      "Ġrapprezentanti": 2561,
      "Ġsew": 2562,
      "minazzjoni": 2563,
      "Ġcertifikat": 2564,
      "Ġbizzejjed": 2565,
      "Ġfami": 2566,
      "tezza": 2567,
      "Ġprevista": 2568,
      "Ġmaterjal": 2569,
      "Ġpor": 2570,
      "Ġiccitata": 2571,
      "ranga": 2572,
      "ĠjittieÄ§": 2573,
      "bri": 2574,
      "dikja": 2575,
      "Ġtitji": 2576,
      "Ġliema": 2577,
      "Ġtqa": 2578,
      "lar": 2579,
      "Ġambjent": 2580,
      "Ġtinkludi": 2581,
      "mma": 2582,
      "18": 2583,
      "lazzjoni": 2584,
      "Ġkorp": 2585,
      "cidiet": 2586,
      "zin": 2587,
      "Ġinterpretat": 2588,
      "tarji": 2589,
      "ãĤ": 2590,
      "Ġkumpanniji": 2591,
      "Ġtwettiq": 2592,
      "Ġug": 2593,
      "Ġispeci": 2594,
      "Ġce": 2595,
      "ĠimÄ§all": 2596,
      "hem": 2597,
      "Ġapparat": 2598,
      "Ġverifika": 2599,
      "Ġipprezentat": 2600,
      "ĠjistgÄ§ux": 2601,
      "Ġpartecipa": 2602,
      "ĠjagÄ§mlu": 2603,
      "Ġcivili": 2604,
      "Ġzieda": 2605,
      "Ġperm": 2606,
      "Ġeskluzi": 2607,
      "Ġimnut": 2608,
      "Ġmat": 2609,
      "Ġibbazat": 2610,
      "Ä§am": 2611,
      "Ġjirre": 2612,
      "rigina": 2613,
      "Ġargu": 2614,
      "Ġezerci": 2615,
      "jat": 2616,
      "Ġqrati": 2617,
      "Ġkkonstatat": 2618,
      "Ġzvilupp": 2619,
      "tus": 2620,
      "Ġarti": 2621,
      "Ä§aq": 2622,
      "Ġgro": 2623,
      "Ġfinanzjament": 2624,
      "gat": 2625,
      "Ġargument": 2626,
      "zzazzjonijiet": 2627,
      "Ġbruss": 2628,
      "bwi": 2629,
      "fasi": 2630,
      "Ġ0000": 2631,
      "so": 2632,
      "Ġmink": 2633,
      "ĠgÄ§andhomx": 2634,
      "Ġsom": 2635,
      "ogra": 2636,
      "ĠmagÄ§mul": 2637,
      "ĠÄ§rug": 2638,
      "zzju": 2639,
      "Ġjissodisfa": 2640,
      "Ġkomunitarju": 2641,
      "arji": 2642,
      "Ġekonomici": 2643,
      "cca": 2644,
      "Ġgermani": 2645,
      "mbju": 2646,
      "Ġappellata": 2647,
      "Ġminkejja": 2648,
      "Ġarranga": 2649,
      "suba": 2650,
      "Ġlir": 2651,
      "eterminat": 2652,
      "Ġklaw": 2653,
      "Ġentita": 2654,
      "ccji": 2655,
      "Ġprofi": 2656,
      "Ġjkollha": 2657,
      "Ġfizi": 2658,
      "mun": 2659,
      "ssibbli": 2660,
      "Ġemissjoni": 2661,
      "Ġipoteki": 2662,
      "kart": 2663,
      "Ġadottati": 2664,
      "Ä§ad": 2665,
      "zmu": 2666,
      "siru": 2667,
      "Ġrabta": 2668,
      "komp": 2669,
      "zjonament": 2670,
      "Ġessenzjalment": 2671,
      "Ġkalkolu": 2672,
      "Ġarmoni": 2673,
      "ggetta": 2674,
      "ggusti": 2675,
      "Ġpl": 2676,
      "Ġaccetta": 2677,
      "Ġtrans": 2678,
      "duti": 2679,
      "ĠsetgÄ§a": 2680,
      "as": 2681,
      "wieq": 2682,
      "Ġgwida": 2683,
      "Ġhumiex": 2684,
      "Ġkapital": 2685,
      "Ġaggusta": 2686,
      "ĠaÄ§": 2687,
      "ĠjagÄ§ti": 2688,
      "Ġbas": 2689,
      "Ġfed": 2690,
      "orji": 2691,
      "Ġmoviment": 2692,
      "Ġ110": 2693,
      "ettu": 2694,
      "Ġprepa": 2695,
      "29": 2696,
      "hur": 2697,
      "ologi": 2698,
      "Ġef": 2699,
      "ettiv": 2700,
      "Ġur": 2701,
      "Î¹": 2702,
      "Ġnegozja": 2703,
      "ressqa": 2704,
      "Ġtippermetti": 2705,
      "Ġkompo": 2706,
      "Ġmetodu": 2707,
      "Ġkka": 2708,
      "rav": 2709,
      "Ġintegra": 2710,
      "ĠruÄ§": 2711,
      "Ġsch": 2712,
      "rezza": 2713,
      "Ġmon": 2714,
      "Ġtippro": 2715,
      "Ġkwistjonijiet": 2716,
      "Ġak": 2717,
      "Ġlura": 2718,
      "zx": 2719,
      "Ġnon": 2720,
      "dotta": 2721,
      "ĠÄ§aj": 2722,
      "Ġkis": 2723,
      "33": 2724,
      "Ġkoperti": 2725,
      "tiku": 2726,
      "wettqu": 2727,
      "Ġfunzjonament": 2728,
      "Ġdeskrizzjoni": 2729,
      "Ġkuntrar": 2730,
      "Ġistabbili": 2731,
      "Ġ197": 2732,
      "Ġslsc": 2733,
      "Ġsupp": 2734,
      "Ġfond": 2735,
      "Ġspj": 2736,
      "zil": 2737,
      "ehma": 2738,
      "Ġmqa": 2739,
      "Ð¾": 2740,
      "gÄ§ad": 2741,
      "ted": 2742,
      "Ġmiz": 2743,
      "Ġporta": 2744,
      "Ġssostni": 2745,
      "Ġkorpi": 2746,
      "noti": 2747,
      "Ġsustanzi": 2748,
      "fikanti": 2749,
      "Ġiffi": 2750,
      "Ġjidde": 2751,
      "Ġbelg": 2752,
      "ĠjaqgÄ§u": 2753,
      "Ġjorigina": 2754,
      "din": 2755,
      "Ġua": 2756,
      "Ġvolu": 2757,
      "Î¿": 2758,
      "Ġezercizzju": 2759,
      "Î±": 2760,
      "Ġspecifiku": 2761,
      "Ġjitqies": 2762,
      "49": 2763,
      "ĠgÄ§andhiex": 2764,
      "Ġikkontesta": 2765,
      "Ġcittadin": 2766,
      "Ġliberta": 2767,
      "sch": 2768,
      "Ġapplikant": 2769,
      "Ġbu": 2770,
      "zar": 2771,
      "orvel": 2772,
      "Ðµ": 2773,
      "Ġinizja": 2774,
      "Ġxahar": 2775,
      "Ġkonsegwentement": 2776,
      "Ġdump": 2777,
      "Ġjippermetti": 2778,
      "Ġtr": 2779,
      "ea": 2780,
      "Ġtun": 2781,
      "Ġdumping": 2782,
      "bija": 2783,
      "Ġxhur": 2784,
      "Ġpartecipazzjoni": 2785,
      "ĠgÄ§az": 2786,
      "Ġpassi": 2787,
      "Ġkategorija": 2788,
      "Ĥ¬": 2789,
      "Ġevalwa": 2790,
      "Ġintito": 2791,
      "ferma": 2792,
      "Ġjinkludu": 2793,
      "Ġmoni": 2794,
      "stina": 2795,
      "Ġseduta": 2796,
      "Ġiff": 2797,
      "Ġbit": 2798,
      "Ġsepa": 2799,
      "Ġkini": 2800,
      "Ġzo": 2801,
      "Ġsej": 2802,
      "Ġjsir": 2803,
      "Ġmib": 2804,
      "fiki": 2805,
      "Ġmist": 2806,
      "Ġricer": 2807,
      "Ġmedic": 2808,
      "Ġkinitx": 2809,
      "ĠmeÄ§u": 2810,
      "Ġtelf": 2811,
      "det": 2812,
      "Ġgdida": 2813,
      "Ġekwivalenti": 2814,
      "Ġsaret": 2815,
      "Ġrizultati": 2816,
      "ota": 2817,
      "Ġassocjazzjoni": 2818,
      "ĠtieÄ§u": 2819,
      "ĠjagÄ§mel": 2820,
      "Ġtab": 2821,
      "Ġbzon": 2822,
      "Ġoperazzjonijiet": 2823,
      "Ġtempo": 2824,
      "xi": 2825,
      "eÄ§du": 2826,
      "bizx": 2827,
      "Ġester": 2828,
      "Ġdiret": 2829,
      "Ġgarantit": 2830,
      "Ġordni": 2831,
      "Ġdetermina": 2832,
      "Ġdisin": 2833,
      "Ġtfa": 2834,
      "Ġjinsabu": 2835,
      "Ġadatta": 2836,
      "Ġelettriku": 2837,
      "Ġprogrammi": 2838,
      "Ġaggrav": 2839,
      "Ġden": 2840,
      "Ġipprocessar": 2841,
      "Ġallega": 2842,
      "zercita": 2843,
      "Ġsuggetti": 2844,
      "gh": 2845,
      "ĠjaÄ§": 2846,
      "Ġsustanza": 2847,
      "Ġjezi": 2848,
      "Ġjirrizultaw": 2849,
      "Ġprovvizor": 2850,
      "Ġricerka": 2851,
      "34": 2852,
      "aniji": 2853,
      "Ġzoni": 2854,
      "Ġfri": 2855,
      "zzjon": 2856,
      "Ġinfur": 2857,
      "Ġregolator": 2858,
      "gni": 2859,
      "Ġpubblikazzjoni": 2860,
      "kkom": 2861,
      "Ġkumpaniji": 2862,
      "Ġrekwizit": 2863,
      "Ġfamilja": 2864,
      "Ġadottat": 2865,
      "Ġguridika": 2866,
      "omm": 2867,
      "Ġimplementa": 2868,
      "toli": 2869,
      "Ġamministrattivi": 2870,
      "Ġlimiti": 2871,
      "68": 2872,
      "Ġimportanti": 2873,
      "27": 2874,
      "Ġent": 2875,
      "Ġkongunt": 2876,
      "Ġjintla": 2877,
      "Ġbeneficjar": 2878,
      "Ġjikkostitwixxi": 2879,
      "Ä§allas": 2880,
      "Ġrizultat": 2881,
      "tora": 2882,
      "Ġnaturali": 2883,
      "Ġtwe": 2884,
      "31": 2885,
      "Ġintra": 2886,
      "Ġidentifikazzjoni": 2887,
      "Ġspanja": 2888,
      "est": 2889,
      "Ġprofess": 2890,
      "Ġzball": 2891,
      "ĠâĤ¬": 2892,
      "Ġregjonali": 2893,
      "Ġzgu": 2894,
      "Ġemissjonijiet": 2895,
      "Ġuasi": 2896,
      "Ġappellanti": 2897,
      "gna": 2898,
      "Ġillegali": 2899,
      "Ġmezzi": 2900,
      "kopri": 2901,
      "Ġtkunx": 2902,
      "Ġtrib": 2903,
      "Ġavvi": 2904,
      "spi": 2905,
      "Ġpp": 2906,
      "Ġmarks": 2907,
      "Ġnegozju": 2908,
      "Ġtq": 2909,
      "Ġuzat": 2910,
      "Ġikkoncernat": 2911,
      "ct": 2912,
      "Ġbastiment": 2913,
      "eru": 2914,
      "gÄ§la": 2915,
      "Ġbagit": 2916,
      "der": 2917,
      "Ġperez": 2918,
      "Ġtimp": 2919,
      "Ġbidu": 2920,
      "Ġdome": 2921,
      "strija": 2922,
      "rom": 2923,
      "ski": 2924,
      "sab": 2925,
      "Ġkompetenza": 2926,
      "Ġtitlob": 2927,
      "Ġessenzjali": 2928,
      "orju": 2929,
      "Ġfabb": 2930,
      "Ġstra": 2931,
      "Ġdazji": 2932,
      "kkunsidra": 2933,
      "duci": 2934,
      "Ġfrunti": 2935,
      "Ġsehem": 2936,
      "Ġoperatur": 2937,
      "Ġkaratteristici": 2938,
      "Ġsostan": 2939,
      "Ġligijiet": 2940,
      "ĠogÄ§la": 2941,
      "Ġimpjieg": 2942,
      "tagg": 2943,
      "late": 2944,
      "Ġprofessjonali": 2945,
      "Ġgeogra": 2946,
      "Ġkondizzjonijiet": 2947,
      "struttura": 2948,
      "kkomanda": 2949,
      "Ġmagni": 2950,
      "Ġtqis": 2951,
      "Ġie": 2952,
      "Ġsiku": 2953,
      "ĠmicÄ§ud": 2954,
      "ĠtaÄ§rig": 2955,
      "Ð½": 2956,
      "zzar": 2957,
      "zaw": 2958,
      "Ġindikat": 2959,
      "Ġkompon": 2960,
      "Ġnu": 2961,
      "Ġmassimu": 2962,
      "Ġjkollu": 2963,
      "ĠÂ·": 2964,
      "Ġjem": 2965,
      "Ġiskema": 2966,
      "vja": 2967,
      "land": 2968,
      "Ġprattika": 2969,
      "Ġmizjud": 2970,
      "Ġtikkostitwixxi": 2971,
      "ssir": 2972,
      "Ġuniku": 2973,
      "Ġab": 2974,
      "Ġattwali": 2975,
      "Ġdestina": 2976,
      "Ġeli": 2977,
      "Ġtribuna": 2978,
      "Ġaty": 2979,
      "tan": 2980,
      "Ġkomunitajiet": 2981,
      "rett": 2982,
      "74": 2983,
      "Ġbrussell": 2984,
      "Ġho": 2985,
      "genza": 2986,
      "bil": 2987,
      "26": 2988,
      "Ġanqas": 2989,
      "Ġmcy": 2990,
      "ffiku": 2991,
      "Ġjikko": 2992,
      "til": 2993,
      "Ġdiskri": 2994,
      "Ġidde": 2995,
      "ĠgÄ§alkemm": 2996,
      "Ġlicenzja": 2997,
      "des": 2998,
      "0000": 2999,
      "bet": 3000,
      "Ġkliem": 3001,
      "ĠgÄ§alf": 3002,
      "Ġkawzi": 3003,
      "Ġgb": 3004,
      "Ġhl": 3005,
      "ttjar": 3006,
      "Ġjitqiesu": 3007,
      "Ġdefinizzjoni": 3008,
      "Ġltd": 3009,
      "Ġbank": 3010,
      "wo": 3011,
      "bbene": 3012,
      "Ġmotivazzjoni": 3013,
      "Ġinc": 3014,
      "Ġjaqb": 3015,
      "Ġnetwer": 3016,
      "Ġzej": 3017,
      "Ġjaqbizx": 3018,
      "Ġswieq": 3019,
      "Ġpt": 3020,
      "Ġnormali": 3021,
      "Ġjkunux": 3022,
      "ung": 3023,
      "Ġmulta": 3024,
      "Ġslottjar": 3025,
      "Ġdistri": 3026,
      "Ġbbazata": 3027,
      "Ġjemenda": 3028,
      "wettqa": 3029,
      "Ġtabella": 3030,
      "Ġproporzjonali": 3031,
      "sijiet": 3032,
      "ding": 3033,
      "Ġkko": 3034,
      "vita": 3035,
      "Ġriferi": 3036,
      "ĠjagÄ§tu": 3037,
      "Ġammonti": 3038,
      "Ġagi": 3039,
      "Ġobj": 3040,
      "Ġperezempju": 3041,
      "Ġedu": 3042,
      "fien": 3043,
      "ĠjieÄ§du": 3044,
      "Ġdub": 3045,
      "ĠmagÄ§ru": 3046,
      "Ġekonomiku": 3047,
      "bilita": 3048,
      "Ġrx": 3049,
      "Ġjis": 3050,
      "Ġgaranzija": 3051,
      "Ġpozi": 3052,
      "Ġistabbiliment": 3053,
      "Ġgass": 3054,
      "Ġsufficjenti": 3055,
      "toragg": 3056,
      "ĠsÄ§iÄ§": 3057,
      "Ġec": 3058,
      "ppermettu": 3059,
      "ridu": 3060,
      "Ġrati": 3061,
      "Ġlokali": 3062,
      "Ġsorvel": 3063,
      "Ġjippermettu": 3064,
      "Ġeccezzjoni": 3065,
      "Ġtinsab": 3066,
      "ĠbÄ§all": 3067,
      "Ġmonitoragg": 3068,
      "Ġferro": 3069,
      "Ġprezenta": 3070,
      "Ġ{": 3071,
      "Ġjipprevedi": 3072,
      "mani": 3073,
      "Ġrestrizzjonijiet": 3074,
      "jodi": 3075,
      "38": 3076,
      "miem": 3077,
      "Ġragone": 3078,
      "Ġezenzjoni": 3079,
      "Ġftehimiet": 3080,
      "Ġsikurezza": 3081,
      "ragrafi": 3082,
      "kupru": 3083,
      "45": 3084,
      "litajiet": 3085,
      "gibbli": 3086,
      "Ġbeneficcji": 3087,
      "Ġprojbi": 3088,
      "Ġindustrijali": 3089,
      "rijiet": 3090,
      "Ġregi": 3091,
      "Ġtemporan": 3092,
      "Ġfornitur": 3093,
      "Ġtraz": 3094,
      "Ġpla": 3095,
      "Ä§Ä§": 3096,
      "Ġriskji": 3097,
      "Ġgudizzjarja": 3098,
      "jana": 3099,
      "larment": 3100,
      "Ġinfra": 3101,
      "Ġkwota": 3102,
      "Ġuniti": 3103,
      "Ġtipi": 3104,
      "Ġita": 3105,
      "Ġfrott": 3106,
      "eroga": 3107,
      "Ġpjanti": 3108,
      "determina": 3109,
      "fici": 3110,
      "ban": 3111,
      "Ġistandar": 3112,
      "umenta": 3113,
      "Ġtaq": 3114,
      "Ġresidenti": 3115,
      "Ġelenkati": 3116,
      "kkorrispon": 3117,
      "Ġkin": 3118,
      "Ġsini": 3119,
      "Ġperman": 3120,
      "Ġrapprezentant": 3121,
      "sh": 3122,
      "Ġkontin": 3123,
      "ly": 3124,
      "Ġtwettaq": 3125,
      "ces": 3126,
      "Ġ130": 3127,
      "Ġlit": 3128,
      "otta": 3129,
      "Ġoppo": 3130,
      "medja": 3131,
      "lib": 3132,
      "ratt": 3133,
      "Ġkompati": 3134,
      "Ġmedicinali": 3135,
      "Ġambjentali": 3136,
      "juri": 3137,
      "Ġsegwi": 3138,
      "Ġjipp": 3139,
      "Ġpromo": 3140,
      "Ġrevizjoni": 3141,
      "Ġregistru": 3142,
      "Ġ220": 3143,
      "jut": 3144,
      "orja": 3145,
      "Ġilment": 3146,
      "oma": 3147,
      "Ġkellu": 3148,
      "Ġfinan": 3149,
      "Ġteknika": 3150,
      "Ġtekn": 3151,
      "Ġiggaranti": 3152,
      "ĠgÄ§ax": 3153,
      "kje": 3154,
      "Ġtmiem": 3155,
      "walment": 3156,
      "enni": 3157,
      "Ġgrad": 3158,
      "Ġbg": 3159,
      "Ġsorveljanza": 3160,
      "Ġfabbrika": 3161,
      "Ġassistenza": 3162,
      "Ġkontrolli": 3163,
      "Ġportu": 3164,
      "finanzja": 3165,
      "dum": 3166,
      "sslu": 3167,
      "Ġsso": 3168,
      "Ġtitqie": 3169,
      "Ġ1998": 3170,
      "Ġawstrija": 3171,
      "Ġimpjega": 3172,
      "Ġdistribu": 3173,
      "Ġkumpanija": 3174,
      "formi": 3175,
      "Ġmhi": 3176,
      "Ġnom": 3177,
      "Ġdaqs": 3178,
      "nella": 3179,
      "Ġilli": 3180,
      "Ġturi": 3181,
      "egwa": 3182,
      "Ġunita": 3183,
      "ein": 3184,
      "Ġbeneficcju": 3185,
      "Ġzbalja": 3186,
      "Ġinkluza": 3187,
      "zola": 3188,
      "77": 3189,
      "Ġmodi": 3190,
      "stu": 3191,
      "Ġbilan": 3192,
      "Ġzgurat": 3193,
      "ĠaÄ§jar": 3194,
      "ĠgÄ§aliha": 3195,
      "tional": 3196,
      "lati": 3197,
      "Ġogg": 3198,
      "Ġrw": 3199,
      "Ġ030": 3200,
      "Ġobbligat": 3201,
      "Ġzokkor": 3202,
      "Ġpen": 3203,
      "ont": 3204,
      "39": 3205,
      "Ġsussegwentement": 3206,
      "Ġjikkostitwi": 3207,
      "Ġpoten": 3208,
      "Ġkellhom": 3209,
      "Ġcz": 3210,
      "Ġ!": 3211,
      "Ġjidher": 3212,
      "qqa": 3213,
      "Ġimposti": 3214,
      "Ġddecidiet": 3215,
      "Ġimma": 3216,
      "Ġdeterminazzjoni": 3217,
      "Ġvii": 3218,
      "lic": 3219,
      "wissu": 3220,
      "28": 3221,
      "Ġsemplici": 3222,
      "Ġinsta": 3223,
      "Ġjoriginaw": 3224,
      "Ġinizjattiva": 3225,
      "opera": 3226,
      "Ġaf": 3227,
      "Ġobbliga": 3228,
      "Ġmud": 3229,
      "ÑĢ": 3230,
      "Ġcy": 3231,
      "dew": 3232,
      "Ġtranzi": 3233,
      "bili": 3234,
      "Ġjistabbili": 3235,
      "levat": 3236,
      "Ġjikkostitwixxu": 3237,
      "Ġelement": 3238,
      "did": 3239,
      "Ġarrangamenti": 3240,
      "Ġsotto": 3241,
      "Ġkonvenut": 3242,
      "Ġeffettiv": 3243,
      "Ġbzonn": 3244,
      "rezzjoni": 3245,
      "bie": 3246,
      "Ġfehma": 3247,
      "Ġavviz": 3248,
      "vali": 3249,
      "fo": 3250,
      "denzjali": 3251,
      "Ġdetent": 3252,
      "Ġfranza": 3253,
      "Ġmressqa": 3254,
      "ĠÄ§tiega": 3255,
      "sie": 3256,
      "Ġtard": 3257,
      "landi": 3258,
      "Ġopport": 3259,
      "Ġprogetti": 3260,
      "Ġverzjoni": 3261,
      "tie": 3262,
      "niet": 3263,
      "Ġtribunal": 3264,
      "Ġnl": 3265,
      "tijiet": 3266,
      "Ġmuni": 3267,
      "Ġproprje": 3268,
      "ĠjidÄ§ol": 3269,
      "Ġrikonoxxi": 3270,
      "is": 3271,
      "Ġexc": 3272,
      "Ġstandard": 3273,
      "Ġinteressa": 3274,
      "Ġpermanenti": 3275,
      "Ġ107": 3276,
      "ressaq": 3277,
      "ĠÄ§id": 3278,
      "Ġjistabbilixxu": 3279,
      "Ġpensjoni": 3280,
      "qgÄ§u": 3281,
      "ĠsetgÄ§et": 3282,
      "Ġgr": 3283,
      "Ġkwantita": 3284,
      "35": 3285,
      "Ġglob": 3286,
      "Ġtunnella": 3287,
      "Ġsinifikanti": 3288,
      "Ġabbo": 3289,
      "Ġmanda": 3290,
      "bl": 3291,
      "nd": 3292,
      "ĠteÄ§": 3293,
      "01": 3294,
      "Ġitalja": 3295,
      "Ġglobali": 3296,
      "Ġ101": 3297,
      "44": 3298,
      "cci": 3299,
      "Ġrikonoxximent": 3300,
      "Ġkonkluz": 3301,
      "Ġaggravju": 3302,
      "Ġmitluba": 3303,
      "Ġjwa": 3304,
      "Ġana": 3305,
      "Ġrakkomanda": 3306,
      "sist": 3307,
      "wil": 3308,
      "Ġkontribuzzjoni": 3309,
      "set": 3310,
      "Ġdarba": 3311,
      "Ä§arri": 3312,
      "up": 3313,
      "pijiet": 3314,
      "jjeb": 3315,
      "Ġinammi": 3316,
      "Ġmument": 3317,
      "ÅĤ": 3318,
      "Ġmalti": 3319,
      "Ġriferiment": 3320,
      "Ġstipulati": 3321,
      "Ġakkwist": 3322,
      "dil": 3323,
      "cht": 3324,
      "Ġparagrafi": 3325,
      "sisti": 3326,
      "diku": 3327,
      "Ġedizzjoni": 3328,
      "cipro": 3329,
      "Ġbbazat": 3330,
      "tarja": 3331,
      "Ġrea": 3332,
      "36": 3333,
      "Ġrifju": 3334,
      "reg": 3335,
      "Ġeffettiva": 3336,
      "ĠÄ§tigi": 3337,
      "Ġawwissu": 3338,
      "ĠbaÄ§ar": 3339,
      "Ġoppozizzjoni": 3340,
      "Ġagrikoli": 3341,
      "Ġsoc": 3342,
      "Ġfornituri": 3343,
      "ĠtiegÄ§i": 3344,
      "ĠjoÄ§": 3345,
      "Ġpprovduti": 3346,
      "ere": 3347,
      "Ä§arrig": 3348,
      "Ġtilwi": 3349,
      "Ġkontenzju": 3350,
      "ĠmeÄ§uda": 3351,
      "Ġirlanda": 3352,
      "sub": 3353,
      "Ġvolum": 3354,
      "Ġrecipro": 3355,
      "ĠgÄ§am": 3356,
      "jl": 3357,
      "Ġesti": 3358,
      "Ġtizgura": 3359,
      "Ġrelazzjoni": 3360,
      "Ġpremessi": 3361,
      "ĠgÄ§oli": 3362,
      "Ġtele": 3363,
      "Ġtariff": 3364,
      "Ġbr": 3365,
      "Ġikoll": 3366,
      "Ġade": 3367,
      "Ġtotal": 3368,
      "ine": 3369,
      "luq": 3370,
      "Ġproporzjon": 3371,
      "Ġadottata": 3372,
      "Ġdani": 3373,
      "gurata": 3374,
      "Ġtranzazzjonijiet": 3375,
      "85": 3376,
      "verifika": 3377,
      "Ġemendata": 3378,
      "riji": 3379,
      "ĠteÄ§id": 3380,
      "Ġopportuni": 3381,
      "Ġadegwa": 3382,
      "dut": 3383,
      "Ġtirrigwarda": 3384,
      "95": 3385,
      "ssibbilta": 3386,
      "Ġpresta": 3387,
      "Ġtikk": 3388,
      "Ġspi": 3389,
      "Ġ207": 3390,
      "Ġtikkoncerna": 3391,
      "lijiet": 3392,
      "Ġnecessarju": 3393,
      "Ġvaluri": 3394,
      "egÄ§id": 3395,
      "Ġiggarantiti": 3396,
      "wu": 3397,
      "Ġstrumenti": 3398,
      "Ġxjenti": 3399,
      "Ġkkoncernat": 3400,
      "Ġpermess": 3401,
      "stata": 3402,
      "Ġdelega": 3403,
      "Ġmari": 3404,
      "Ġspjega": 3405,
      "gudizz": 3406,
      "Ġkimi": 3407,
      "Ġkonn": 3408,
      "Ġret": 3409,
      "Ġnew": 3410,
      "Ġawdi": 3411,
      "vizz": 3412,
      "fs": 3413,
      "Ä§Ä§al": 3414,
      "menta": 3415,
      "Ġfre": 3416,
      "ser": 3417,
      "04": 3418,
      "Ġpagamenti": 3419,
      "ĠruÄ§ha": 3420,
      "Ġjikkoncernaw": 3421,
      "ĠjittieÄ§du": 3422,
      "zamina": 3423,
      "ad": 3424,
      "Ġproporzjonalita": 3425,
      "Ġtitqies": 3426,
      "Ġpagna": 3427,
      "Ġbaxxi": 3428,
      "Ġtirre": 3429,
      "fl": 3430,
      "Ġnm": 3431,
      "Ġtitoli": 3432,
      "ger": 3433,
      "ph": 3434,
      "tions": 3435,
      "Ġlib": 3436,
      "Ġguridiku": 3437,
      "Ġuk": 3438,
      "Ġlinja": 3439,
      "ĠtqegÄ§id": 3440,
      "Ġspa": 3441,
      "Ġkwoti": 3442,
      "Ġindipendenti": 3443,
      "rita": 3444,
      "Ġewlen": 3445,
      "fe": 3446,
      "Ġemendi": 3447,
      "xa": 3448,
      "Ġtadotta": 3449,
      "cia": 3450,
      "Ġkoncent": 3451,
      "Ġezamina": 3452,
      "ĠsÄ§a": 3453,
      "Ġkinux": 3454,
      "Ġofferti": 3455,
      "Ġjindika": 3456,
      "bon": 3457,
      "66": 3458,
      "Ġrregist": 3459,
      "zzaw": 3460,
      "inn": 3461,
      "Ġkompi": 3462,
      "ĠjieÄ§u": 3463,
      "Ġ115": 3464,
      "Ġoqs": 3465,
      "Ġaci": 3466,
      "Ġimpenji": 3467,
      "Ġvin": 3468,
      "Ġmadwar": 3469,
      "Ġjitfakkar": 3470,
      "Ġzz": 3471,
      "Ġnega": 3472,
      "Ġ112": 3473,
      "Ġazzar": 3474,
      "Ġprojbizzjoni": 3475,
      "Ġgermaniz": 3476,
      "Ġagir": 3477,
      "Ġminnha": 3478,
      "Ġrizo": 3479,
      "Ġassenza": 3480,
      "Ġinvolu": 3481,
      "Ġbelgju": 3482,
      "pozi": 3483,
      "died": 3484,
      "Ġproba": 3485,
      "Ġ104": 3486,
      "geb": 3487,
      "Ġippubblika": 3488,
      "Ġwett": 3489,
      "sien": 3490,
      "Ġgbir": 3491,
      "Ġorganizzazzjonijiet": 3492,
      "terna": 3493,
      "ĠlaÄ§am": 3494,
      "Ġas": 3495,
      "Ġpregudizz": 3496,
      "ddikja": 3497,
      "ãģ": 3498,
      "Ġdifferenza": 3499,
      "Ġoqsma": 3500,
      "Ġerba": 3501,
      "Ġklawzola": 3502,
      "ÑĤ": 3503,
      "Ġtirrizulta": 3504,
      "ĠÄ§ar": 3505,
      "ĠÄ§ajja": 3506,
      "Ġapplikazzjonijiet": 3507,
      "ltura": 3508,
      "Ġ020": 3509,
      "Ġzejt": 3510,
      "Ġkoord": 3511,
      "Ġtezi": 3512,
      "Ġdifi": 3513,
      "Ġrelatata": 3514,
      "Ġportata": 3515,
      "gb": 3516,
      "Ġtraspar": 3517,
      "Ġutenti": 3518,
      "Ġimplementazzjoni": 3519,
      "Ġkkun": 3520,
      "Ġindikazzjoni": 3521,
      "ĠtneÄ§Ä§": 3522,
      "Ġeffettivi": 3523,
      "Ġlegitti": 3524,
      "ĠÄ§idma": 3525,
      "05": 3526,
      "Ġrifjut": 3527,
      "omija": 3528,
      "Ġseg": 3529,
      "Ġapplikat": 3530,
      "Ġsol": 3531,
      "02": 3532,
      "Ġfatturi": 3533,
      "32": 3534,
      "Ġpregudizzju": 3535,
      "dati": 3536,
      "Ġgenera": 3537,
      "kata": 3538,
      "uma": 3539,
      "Ġadezjoni": 3540,
      "Ġ125": 3541,
      "kaw": 3542,
      "Ġbini": 3543,
      "bitu": 3544,
      "Ġsosteni": 3545,
      "Ġliberu": 3546,
      "Ġevent": 3547,
      "Ġhr": 3548,
      "ĠgÄ§ol": 3549,
      "Ġkan": 3550,
      "Ġprocedurali": 3551,
      "Ġdigi": 3552,
      "Ä§qu": 3553,
      "Ġmetodi": 3554,
      "Ġindirizz": 3555,
      "juni": 3556,
      "tribwi": 3557,
      "Ä§assar": 3558,
      "Ġdirettivi": 3559,
      "Ġkategoriji": 3560,
      "ÏĦ": 3561,
      "Ġproposti": 3562,
      "Ġrrilevat": 3563,
      "Ġmsemmi": 3564,
      "Ġtrid": 3565,
      "ipo": 3566,
      "Ġeskluzjoni": 3567,
      "jent": 3568,
      "put": 3569,
      "Ġhemmx": 3570,
      "ĠgÄ§arfien": 3571,
      "wx": 3572,
      "37": 3573,
      "Ġrizer": 3574,
      "Ġkbar": 3575,
      "Ġdist": 3576,
      "Ġkriterju": 3577,
      "Ġwas": 3578,
      "reak": 3579,
      "ĠjgÄ§": 3580,
      "Ġ1994": 3581,
      "Ġdifiza": 3582,
      "Ġragonevoli": 3583,
      "Ġei": 3584,
      "Ġcn": 3585,
      "Ġflus": 3586,
      "Ġeuipo": 3587,
      "Ġipprezentati": 3588,
      "struzzjoni": 3589,
      "Ġdk": 3590,
      "emo": 3591,
      "logija": 3592,
      "tanti": 3593,
      "Ġpartikolarment": 3594,
      "Ġdes": 3595,
      "ltajiet": 3596,
      "enja": 3597,
      "Ġapplikati": 3598,
      "Ġjinsab": 3599,
      "Ġenfasi": 3600,
      "91": 3601,
      "Ġoriginali": 3602,
      "stiku": 3603,
      "Ġammi": 3604,
      "Ġeurope": 3605,
      "Ġ2022": 3606,
      "Ġkuntrattwali": 3607,
      "ry": 3608,
      "orna": 3609,
      "Ġlivelli": 3610,
      "Ġkbi": 3611,
      "dat": 3612,
      "Ġprestazzjoni": 3613,
      "Ġkbira": 3614,
      "Ġpari": 3615,
      "Ġnef": 3616,
      "Ġajrup": 3617,
      "Ġawtorizzat": 3618,
      "tuÄ§": 3619,
      "kkundanna": 3620,
      "tes": 3621,
      "Ġinizjali": 3622,
      "fiku": 3623,
      "ĠlaqgÄ§a": 3624,
      "Ġzamma": 3625,
      "Ġgre": 3626,
      "Ġprogett": 3627,
      "Ġderoga": 3628,
      "Ġpagament": 3629,
      "Ġkunfi": 3630,
      "Ġkej": 3631,
      "Ġjor": 3632,
      "Ġttra": 3633,
      "Ġdirett": 3634,
      "ld": 3635,
      "Ġarbi": 3636,
      "Ġsel": 3637,
      "vanza": 3638,
      "ĠgÄ§alih": 3639,
      "nulla": 3640,
      "sira": 3641,
      "Ġosservat": 3642,
      "Ġ}": 3643,
      "Ġistatus": 3644,
      "Ġcpc": 3645,
      "eza": 3646,
      "Ġtrasporta": 3647,
      "Ġimpjegati": 3648,
      "Ġul": 3649,
      "Ġinsost": 3650,
      "ĠgÄ§aliex": 3651,
      "Ġpassiggi": 3652,
      "Ġjadotta": 3653,
      "ejjem": 3654,
      "arr": 3655,
      "Ġbidla": 3656,
      "Ġ300": 3657,
      "Ġformali": 3658,
      "Ġkonvenuta": 3659,
      "58": 3660,
      "ssazzjoni": 3661,
      "Ġspecifikati": 3662,
      "tirar": 3663,
      "Ġeffettivament": 3664,
      "Ġsoluzzjoni": 3665,
      "Ġddikja": 3666,
      "laterali": 3667,
      "Ġjiff": 3668,
      "Ġevidenza": 3669,
      "Ġinsostenn": 3670,
      "Ġbanek": 3671,
      "logi": 3672,
      "Ġsc": 3673,
      "mbh": 3674,
      "Ġkwa": 3675,
      "Ġakkord": 3676,
      "Ġminimu": 3677,
      "Ġtariffi": 3678,
      "Ġagent": 3679,
      "Ġedukazzjoni": 3680,
      "ejje": 3681,
      "stament": 3682,
      "Ġinbid": 3683,
      "Ġ140": 3684,
      "Ġungeri": 3685,
      "Ġ040": 3686,
      "Ġderi": 3687,
      "jam": 3688,
      "Ġbilanc": 3689,
      "Ġlis": 3690,
      "41": 3691,
      "mati": 3692,
      "vament": 3693,
      "Ġkie": 3694,
      "Ġilmijiet": 3695,
      "Ġgmbh": 3696,
      "jazzjoni": 3697,
      "Ġcertu": 3698,
      "Ġisf": 3699,
      "Ġinno": 3700,
      "rej": 3701,
      "Ġintiza": 3702,
      "Ġkkunsidra": 3703,
      "Ġspecifikat": 3704,
      "vizzera": 3705,
      "taw": 3706,
      "Ġalterna": 3707,
      "ĠÕ": 3708,
      "venzjoni": 3709,
      "Ġffi": 3710,
      "Ñģ": 3711,
      "Ġsaru": 3712,
      "47": 3713,
      "Ġkomple": 3714,
      "tex": 3715,
      "wazzjonijiet": 3716,
      "fat": 3717,
      "klassi": 3718,
      "88": 3719,
      "Î½": 3720,
      "ljati": 3721,
      "Ġbbazati": 3722,
      "Ġkomunitarji": 3723,
      "Ġom": 3724,
      "Ġnefqa": 3725,
      "tiet": 3726,
      "sserva": 3727,
      "ral": 3728,
      "lonja": 3729,
      "Ġ120": 3730,
      "Ġiskop": 3731,
      "Ġufficja": 3732,
      "Ġimportanza": 3733,
      "Ġkonsultazzjoni": 3734,
      "Ġ500": 3735,
      "Ġfunzjonijiet": 3736,
      "Ġseta": 3737,
      "Ġgruppi": 3738,
      "Ġinteressati": 3739,
      "Ġdispozittiv": 3740,
      "tecip": 3741,
      "Ġawton": 3742,
      "Ġee": 3743,
      "Ġkostruzzjoni": 3744,
      "Ġdikjarazzjonijiet": 3745,
      "kament": 3746,
      "Ġinfrastruttura": 3747,
      "qiegÄ§": 3748,
      "Ġsoggetti": 3749,
      "Ġkunsiderazzjoni": 3750,
      "ttieÄ§ed": 3751,
      "dmu": 3752,
      "qsu": 3753,
      "Ġjibbene": 3754,
      "Ġnetwerk": 3755,
      "Ġsucc": 3756,
      "Ġrizoluzzjoni": 3757,
      "Ġpolonja": 3758,
      "ĠsÄ§iÄ§a": 3759,
      "Ġims": 3760,
      "Ġproduttur": 3761,
      "Ġfederali": 3762,
      "ear": 3763,
      "and": 3764,
      "ĠxogÄ§lijiet": 3765,
      "Ġintrapri": 3766,
      "Ġoperazzjoni": 3767,
      "Ġjix": 3768,
      "Ġkorrispon": 3769,
      "Ġjirrigwardaw": 3770,
      "Ġannessi": 3771,
      "Ġattiva": 3772,
      "Ġjipprezenta": 3773,
      "Ġirrego": 3774,
      "Ġdew": 3775,
      "bati": 3776,
      "gÄ§o": 3777,
      "Îµ": 3778,
      "Ġfibri": 3779,
      "Ġabbozz": 3780,
      "Ġlv": 3781,
      "Ġkunfidenzjali": 3782,
      "Ġjinki": 3783,
      "Ġintitolat": 3784,
      "ant": 3785,
      "Ġjezercita": 3786,
      "Ġosservanza": 3787,
      "jj": 3788,
      "Ġawtorizzati": 3789,
      "Ġimposta": 3790,
      "46": 3791,
      "Ġnt": 3792,
      "Ġarmonizzazzjoni": 3793,
      "Ġinci": 3794,
      "Ġkap": 3795,
      "Ġspejjez": 3796,
      "Ġ150": 3797,
      "ze": 3798,
      "Ġsitwazzjonijiet": 3799,
      "Ġmoda": 3800,
      "mur": 3801,
      "para": 3802,
      "Ġzgurata": 3803,
      "Ġbul": 3804,
      "Ġstabbiliment": 3805,
      "tegi": 3806,
      "anza": 3807,
      "Ġdiskriminazzjoni": 3808,
      "Ġmedja": 3809,
      "Ġdenom": 3810,
      "Ġkolon": 3811,
      "Ġinfurzar": 3812,
      "ddikjara": 3813,
      "Ġlikwi": 3814,
      "Ġsostitwi": 3815,
      "Ġskart": 3816,
      "Ġapr": 3817,
      "Ġjikkorrispon": 3818,
      "xxija": 3819,
      "Ġsostnu": 3820,
      "Ġlimitat": 3821,
      "rif": 3822,
      "Ġisso": 3823,
      "ĠmicÄ§uda": 3824,
      "ĠsÄ§u": 3825,
      "Ġtannulla": 3826,
      "Ġsosp": 3827,
      "75": 3828,
      "Ġinstalla": 3829,
      "Ġikkontestat": 3830,
      "rib": 3831,
      "Â°": 3832,
      "Ġstu": 3833,
      "Ġrice": 3834,
      "valu": 3835,
      "Ġlr": 3836,
      "ĠjingÄ§ataw": 3837,
      "Ġintizi": 3838,
      "Ġprp": 3839,
      "rapporta": 3840,
      "Ġfacilita": 3841,
      "Ġoggett": 3842,
      "ĠtittieÄ§ed": 3843,
      "Ġtess": 3844,
      "Ġdanni": 3845,
      "Ġjirregola": 3846,
      "naqqas": 3847,
      "Ġ108": 3848,
      "Ġposta": 3849,
      "Ġmix": 3850,
      "Ġmeq": 3851,
      "Ġkop": 3852,
      "Ä§allsu": 3853,
      "Ġkklassi": 3854,
      "Ġirkupru": 3855,
      "Ġinde": 3856,
      "maw": 3857,
      "Ġkontijiet": 3858,
      "Ġhinn": 3859,
      "Ġjaffettwa": 3860,
      "Ġmqabb": 3861,
      "Ġeligibbli": 3862,
      "Ġappropr": 3863,
      "Ġmhuwiex": 3864,
      "Ġjagi": 3865,
      "Ġjridu": 3866,
      "Ġdovu": 3867,
      "ĠÄ§x": 3868,
      "spetta": 3869,
      "zamm": 3870,
      "Ġprijo": 3871,
      "hma": 3872,
      "Ġvalidita": 3873,
      "Ġdigitali": 3874,
      "Ġallokazzjoni": 3875,
      "Ġdettalji": 3876,
      "Ġjsiru": 3877,
      "Ġformo": 3878,
      "Ġmargni": 3879,
      "Ġkuntrarju": 3880,
      "Ġkomponenti": 3881,
      "Ġippre": 3882,
      "Ġikka": 3883,
      "Ġistandards": 3884,
      "Ġiffir": 3885,
      "Ġcomp": 3886,
      "ĠmaÄ§suba": 3887,
      "Ġdirettur": 3888,
      "Ġikk": 3889,
      "Ġmekkanizmu": 3890,
      "Ġnecessarji": 3891,
      "Ġtaqa": 3892,
      "Ġjircie": 3893,
      "Ġmedju": 3894,
      "Ġdrapp": 3895,
      "Ġ1996": 3896,
      "Ġ105": 3897,
      "Ġmandat": 3898,
      "Ġjuzaw": 3899,
      "Ġmeqju": 3900,
      "Ġofferta": 3901,
      "Ġdewmien": 3902,
      "69": 3903,
      "bli": 3904,
      "Ġ1997": 3905,
      "Ġutf": 3906,
      "Ġjisso": 3907,
      "Ġ080": 3908,
      "Ġpakk": 3909,
      "Ġtindika": 3910,
      "Ġvar": 3911,
      "giba": 3912,
      "Ġdistribuzzjoni": 3913,
      "Ġtemenda": 3914,
      "lle": 3915,
      "Ġrispettivament": 3916,
      "Ġsg": 3917,
      "vattivi": 3918,
      "Ġimmedja": 3919,
      "Ġreali": 3920,
      "Ġbri": 3921,
      "Ġkkal": 3922,
      "ĠÄ§addiem": 3923,
      "Ġiso": 3924,
      "Ġkapaci": 3925,
      "Ġguridici": 3926,
      "tieh": 3927,
      "Ġlegizlatur": 3928,
      "vers": 3929,
      "gy": 3930,
      "Ġesportatur": 3931,
      "Ġavukati": 3932,
      "Ġdebi": 3933,
      "vverifika": 3934,
      "Ġtikkundanna": 3935,
      "Ġinjam": 3936,
      "Ġrestrizzjoni": 3937,
      "62": 3938,
      "Ġkaratt": 3939,
      "Ġveri": 3940,
      "Ġkonta": 3941,
      "ĠÄ§alib": 3942,
      "71": 3943,
      "Ïģ": 3944,
      "mexxija": 3945,
      "Ġby": 3946,
      "Ġidro": 3947,
      "Ġappen": 3948,
      "65": 3949,
      "Ġikkoncernati": 3950,
      "Ġcirko": 3951,
      "Ġkr": 3952,
      "Ġ5493": 3953,
      "Ġtrazmissjoni": 3954,
      "ĠÄ§ut": 3955,
      "Ġkunsin": 3956,
      "veri": 3957,
      "ezami": 3958,
      "Ġappendici": 3959,
      "Ġeta": 3960,
      "Ġxiri": 3961,
      "Ġaspetti": 3962,
      "fis": 3963,
      "Ġsinjal": 3964,
      "Ġsodisfa": 3965,
      "ĠgÄ§olja": 3966,
      "67": 3967,
      "Ġespre": 3968,
      "Ġmudell": 3969,
      "Ġkollox": 3970,
      "Ġmagna": 3971,
      "Ġibbazata": 3972,
      "Ġelettronika": 3973,
      "red": 3974,
      "Ġprobl": 3975,
      "Ġdisinn": 3976,
      "Ġ1995": 3977,
      "kseb": 3978,
      "ork": 3979,
      "ĠÄ§tigijiet": 3980,
      "Ġezaminat": 3981,
      "Ġfranciz": 3982,
      "Ġintier": 3983,
      "Ġparzjalment": 3984,
      "Ġsekon": 3985,
      "Ġvantagg": 3986,
      "Ġgran": 3987,
      "Ġç": 3988,
      "Ġoffi": 3989,
      "Ġsie": 3990,
      "Ġmistenni": 3991,
      "ster": 3992,
      "ssjonijiet": 3993,
      "Ġrapporti": 3994,
      "Ġproprji": 3995,
      "Ġinvestimenti": 3996,
      "Ġinternet": 3997,
      "ond": 3998,
      "Ġtwassal": 3999,
      "kazzjonijiet": 4000,
      "Ġintervent": 4001,
      "Ġmizm": 4002,
      "kompli": 4003,
      "die": 4004,
      "ĠtneÄ§Ä§ija": 4005,
      "ang": 4006,
      "Ġmhijiex": 4007,
      "ĠÄ§az": 4008,
      "Ġfunzjoni": 4009,
      "Ġtifsira": 4010,
      "Ġig": 4011,
      "Ġ102": 4012,
      "Ġklijenti": 4013,
      "Ġink": 4014,
      "ĠgÄ§o": 4015,
      "Ġufficjal": 4016,
      "okk": 4017,
      "Ġmwettqa": 4018,
      "gie": 4019,
      "Ġfore": 4020,
      "Ġsospensjoni": 4021,
      "Ġkunta": 4022,
      "Ä§ej": 4023,
      "Ġewropa": 4024,
      "Ġ549300": 4025,
      "Ġjitlob": 4026,
      "Ġtassazzjoni": 4027,
      "ĠsetgÄ§at": 4028,
      "inarju": 4029,
      "Ġprezun": 4030,
      "marka": 4031,
      "peci": 4032,
      "Ġingli": 4033,
      "Ġjibqa": 4034,
      "ĠmaÄ§ru": 4035,
      "llimita": 4036,
      "Ġyear": 4037,
      "Ġsuggetta": 4038,
      "84": 4039,
      "Ġkk": 4040,
      "Ġinterni": 4041,
      "Ġfav": 4042,
      "Ġtidde": 4043,
      "Ġtisso": 4044,
      "Ġarbitra": 4045,
      "Ġkolla": 4046,
      "Ġkongunta": 4047,
      "Ġkwantitajiet": 4048,
      "Ġkul": 4049,
      "ĠsÄ§ubija": 4050,
      "Ġber": 4051,
      "cs": 4052,
      "Ġrime": 4053,
      "ttri": 4054,
      "ĠtagÄ§rif": 4055,
      "Ġrelazzjonijiet": 4056,
      "jol": 4057,
      "Ġkkundanna": 4058,
      "Ġpreskri": 4059,
      "Ġesportaturi": 4060,
      "Ġugwali": 4061,
      "Ġpm": 4062,
      "Ġtajba": 4063,
      "Ġsoli": 4064,
      "Ġsetturi": 4065,
      "Ġsottomi": 4066,
      "Ġunitajiet": 4067,
      "ĠâĢ¢": 4068,
      "Ġintenzjoni": 4069,
      "55": 4070,
      "Ġmanifattur": 4071,
      "Ġaggorna": 4072,
      "Ġinvali": 4073,
      "Ġope": 4074,
      "Ġapplikata": 4075,
      "jazzjonijiet": 4076,
      "ssemb": 4077,
      "Ġsostenibbli": 4078,
      "Ġjisti": 4079,
      "Ġjapp": 4080,
      "Ġprevenzjoni": 4081,
      "roa": 4082,
      "wtori": 4083,
      "Ġjissodisfaw": 4084,
      "Ġuniformi": 4085,
      "Ġsussegwenti": 4086,
      "luw": 4087,
      "Ð²": 4088,
      "Ġnegozjati": 4089,
      "ziji": 4090,
      "Ġjirrapprezenta": 4091,
      "Ġelettronici": 4092,
      "Ġkur": 4093,
      "Ġjiks": 4094,
      "korpora": 4095,
      "Ġestensjoni": 4096,
      "Ġsov": 4097,
      "Ġtitjib": 4098,
      "Ġkonsegwenzi": 4099,
      "lha": 4100,
      "98": 4101,
      "lea": 4102,
      "rog": 4103,
      "Ġishma": 4104,
      "Ġintiz": 4105,
      "Ġewlenin": 4106,
      "Ġrispettivi": 4107,
      "Ġkieku": 4108,
      "Ġpageb": 4109,
      "Ġpagebreak": 4110,
      "Ġtaxxi": 4111,
      "Ġaggustament": 4112,
      "Ġfavur": 4113,
      "Ġtur": 4114,
      "ssembur": 4115,
      "ĠmingÄ§and": 4116,
      "Ġdejn": 4117,
      "Ġpromozzjoni": 4118,
      "enu": 4119,
      "Ġcina": 4120,
      "Ġlimitata": 4121,
      "Ġlussembur": 4122,
      "Ġidentifikati": 4123,
      "ĠmaÄ§ruga": 4124,
      "Ġtni": 4125,
      "Ġnorma": 4126,
      "Ġkonk": 4127,
      "Ġdejjem": 4128,
      "Ġjuri": 4129,
      "Ġkontribuzzjonijiet": 4130,
      "bot": 4131,
      "cial": 4132,
      "Ġtikkunsidra": 4133,
      "centi": 4134,
      "Ġlea": 4135,
      "Ġregjun": 4136,
      "Ġskala": 4137,
      "Ġabbu": 4138,
      "Ġpassiggieri": 4139,
      "zmi": 4140,
      "jata": 4141,
      "ĠmÄ§all": 4142,
      "xxiet": 4143,
      "Ġfruntieri": 4144,
      "Ġoff": 4145,
      "it": 4146,
      "Ġtriq": 4147,
      "Ġissir": 4148,
      "Ġ103": 4149,
      "be": 4150,
      "Ġistruttura": 4151,
      "Ġtintuza": 4152,
      "rie": 4153,
      "Ġforom": 4154,
      "Ġsy": 4155,
      "Ġinterven": 4156,
      "Ġtfal": 4157,
      "Ġfar": 4158,
      "tit": 4159,
      "Ġder": 4160,
      "Ġprimar": 4161,
      "Ġjipprekludi": 4162,
      "Ġimba": 4163,
      "Ġespressa": 4164,
      "pli": 4165,
      "ys": 4166,
      "limentari": 4167,
      "Ġrimb": 4168,
      "Ġlid": 4169,
      "ges": 4170,
      "Ġtariffa": 4171,
      "Ġdetentur": 4172,
      "wan": 4173,
      "Ġjikkonforma": 4174,
      "Ġwettqet": 4175,
      "Ġgli": 4176,
      "Ġcha": 4177,
      "Ġlat": 4178,
      "Ġfizici": 4179,
      "Ġpprovduta": 4180,
      "Ġwith": 4181,
      "llo": 4182,
      "Ġpartecip": 4183,
      "Ä§lu": 4184,
      "artecipa": 4185,
      "vj": 4186,
      "Ġirregolari": 4187,
      "tol": 4188,
      "ĠjaÄ§dmu": 4189,
      "inat": 4190,
      "Ġintroduzzjoni": 4191,
      "ann": 4192,
      "07": 4193,
      "ting": 4194,
      "42": 4195,
      "fferma": 4196,
      "Ġformula": 4197,
      "ction": 4198,
      "tru": 4199,
      "57": 4200,
      "Ġcentru": 4201,
      "Ġph": 4202,
      "Ġbarran": 4203,
      "kom": 4204,
      "Ġogge": 4205,
      "Ð»": 4206,
      "Ġ1510": 4207,
      "Ä§ejji": 4208,
      "Ġambitu": 4209,
      "Ġparzjali": 4210,
      "Ġdistin": 4211,
      "Ġapproprjazzjonijiet": 4212,
      "Ġgvernijiet": 4213,
      "Ġakkordju": 4214,
      "59": 4215,
      "Ġqbil": 4216,
      "Ġbarranin": 4217,
      "03": 4218,
      "Ġnie": 4219,
      "Ġprezenza": 4220,
      "Ġkompiti": 4221,
      "rt": 4222,
      "luwenza": 4223,
      "Ġpprezentat": 4224,
      "Ġmira": 4225,
      "poni": 4226,
      "art": 4227,
      "Ġsinji": 4228,
      "81": 4229,
      "Ġmezz": 4230,
      "Ġcertifikati": 4231,
      "Ġminimi": 4232,
      "lia": 4233,
      "ĠtgÄ§": 4234,
      "ostnu": 4235,
      "karju": 4236,
      "Ġimpenn": 4237,
      "Ġjinf": 4238,
      "Ġmiksuba": 4239,
      "Ġkandi": 4240,
      "waljanza": 4241,
      "Ġkarattru": 4242,
      "Ġlicenzji": 4243,
      "Ġbin": 4244,
      "Ġlegalita": 4245,
      "Ġkolonna": 4246,
      "Ġkura": 4247,
      "fuzjoni": 4248,
      "Ġsomma": 4249,
      "Ġindikazzjonijiet": 4250,
      "spozizzjoni": 4251,
      "Ġtint": 4252,
      "mping": 4253,
      "Ġrwol": 4254,
      "Ġirtirar": 4255,
      "qq": 4256,
      "Ġkonfr": 4257,
      "ĠjibqgÄ§u": 4258,
      "Ġamministrattiv": 4259,
      "Ġtunnellata": 4260,
      "43": 4261,
      "ĠsetgÄ§u": 4262,
      "Ġfuqhom": 4263,
      "Ġtezisti": 4264,
      "ĠlaqgÄ§at": 4265,
      "Ġed": 4266,
      "Ġjaqa": 4267,
      "trolla": 4268,
      "Ġtras": 4269,
      "lata": 4270,
      "Ġsocjeta": 4271,
      "Ġria": 4272,
      "elo": 4273,
      "Ġoperat": 4274,
      "Ġdepozi": 4275,
      "Ġjikk": 4276,
      "ard": 4277,
      "Ġaq": 4278,
      "Ġakbar": 4279,
      "Ġisir": 4280,
      "ris": 4281,
      "Ġjittra": 4282,
      "Ġkompletament": 4283,
      "Î¿Ï": 4284,
      "Ġsostanzjali": 4285,
      "Ġekonomija": 4286,
      "53": 4287,
      "nizz": 4288,
      "rr": 4289,
      "63": 4290,
      "Ġregolari": 4291,
      "87": 4292,
      "sens": 4293,
      "Ġiskambju": 4294,
      "Ġfju": 4295,
      "hir": 4296,
      "Ġjfi": 4297,
      "Ġori": 4298,
      "stituzzjoni": 4299,
      "sieb": 4300,
      "Ġprivat": 4301,
      "Ġprattiki": 4302,
      "Ġisiru": 4303,
      "Ġsussidjarja": 4304,
      "Ġele": 4305,
      "Ġplu": 4306,
      "Ġkonfront": 4307,
      "Ġcertezza": 4308,
      "Ġdanimarka": 4309,
      "Ġtissodisfa": 4310,
      "Ġjuru": 4311,
      "Ġintell": 4312,
      "Ġtekniku": 4313,
      "54": 4314,
      "omati": 4315,
      "Ġgeografika": 4316,
      "Ġtirreferi": 4317,
      "Ġpopo": 4318,
      "Ġifi": 4319,
      "Ġ1992": 4320,
      "Ġkoordinazzjoni": 4321,
      "Ġawtur": 4322,
      "Ġbeneficjarji": 4323,
      "Ġstruttura": 4324,
      "xy": 4325,
      "dumping": 4326,
      "sistenti": 4327,
      "Ġhol": 4328,
      "Ġjiggusti": 4329,
      "Ġistrumenti": 4330,
      "Ġantidumping": 4331,
      "61": 4332,
      "Ġtistaqsi": 4333,
      "Ġiskadenza": 4334,
      "he": 4335,
      "Ġalko": 4336,
      "Ġinterme": 4337,
      "umpanja": 4338,
      "Ġfic": 4339,
      "Ġpotenzjali": 4340,
      "Ġobjettivi": 4341,
      "Ġkunsens": 4342,
      "Ġddeterminat": 4343,
      "Ġweb": 4344,
      "dentement": 4345,
      "Ġother": 4346,
      "fikazzjonijiet": 4347,
      "Ġinterpretati": 4348,
      "lasijiet": 4349,
      "Ġprezentazzjoni": 4350,
      "Ġikko": 4351,
      "Ġprotetta": 4352,
      "Ġinput": 4353,
      "Ġindiretta": 4354,
      "Ġirregist": 4355,
      "64": 4356,
      "Ġ1993": 4357,
      "Ġfazi": 4358,
      "retti": 4359,
      "bit": 4360,
      "Ġcu": 4361,
      "ĠÄ§lasijiet": 4362,
      "Ġassen": 4363,
      "Ġfrodi": 4364,
      "Ġdiretti": 4365,
      "Ġjinvol": 4366,
      "Ġprincipa": 4367,
      "Ġdistinti": 4368,
      "gbu": 4369,
      "Ġremun": 4370,
      "valwa": 4371,
      "fli": 4372,
      "Ġqieset": 4373,
      "ffaci": 4374,
      "ĠjogÄ§": 4375,
      "Ġrestrittivi": 4376,
      "Ġprofessjoni": 4377,
      "Ġjil": 4378,
      "Ġstandards": 4379,
      "Ġnazzjonalita": 4380,
      "ĠgÄ§ac": 4381,
      "Ġinvestiga": 4382,
      "Ġgaranziji": 4383,
      "Ġppubblika": 4384,
      "ĠtoÄ§": 4385,
      "Ġspan": 4386,
      "Ġkorrispondenti": 4387,
      "Ġfattura": 4388,
      "egg": 4389,
      "Ġtessuti": 4390,
      "Ġeventwali": 4391,
      "rici": 4392,
      "Ġjim": 4393,
      "Ġmard": 4394,
      "Ġsekondar": 4395,
      "89": 4396,
      "Ġ250": 4397,
      "Î·": 4398,
      "xin": 4399,
      "loq": 4400,
      "Ġinammissibbli": 4401,
      "Ġcm": 4402,
      "Ġvarja": 4403,
      "Ġkkunsidrati": 4404,
      "ĠÄ§ol": 4405,
      "Ġikollu": 4406,
      "ĠtaÄ§li": 4407,
      "Ġpoliti": 4408,
      "hyl": 4409,
      "Ġtmexxija": 4410,
      "Ġea": 4411,
      "Ġugwaljanza": 4412,
      "fri": 4413,
      "Ġtibdil": 4414,
      "ggar": 4415,
      "Ġiddikja": 4416,
      "Ġprivati": 4417,
      "Ġport": 4418,
      "landja": 4419,
      "Ġsupre": 4420,
      "fficjenza": 4421,
      "Ġkapitali": 4422,
      "Ġtariffarja": 4423,
      "Ġteknologi": 4424,
      "ĠbÄ§alma": 4425,
      "83": 4426,
      "Ġinternational": 4427,
      "Ġjopera": 4428,
      "Ġjiss": 4429,
      "ĠÃ": 4430,
      "Ġsupervi": 4431,
      "Ġxx": 4432,
      "ologija": 4433,
      "Ġfra": 4434,
      "Ġqab": 4435,
      "Ġpprezentati": 4436,
      "Ġprefer": 4437,
      "daÄ§Ä§al": 4438,
      "Ġqrib": 4439,
      "Ġtestijiet": 4440,
      "Ġind": 4441,
      "Ġten": 4442,
      "Ġgejja": 4443,
      "Ġlussemburgu": 4444,
      "Ġ106": 4445,
      "Ġrelatat": 4446,
      "Ġcin": 4447,
      "Ġagrikoltura": 4448,
      "Ġintervenjenti": 4449,
      "Ġkontenzjuza": 4450,
      "skludi": 4451,
      "Ġbulga": 4452,
      "egalment": 4453,
      "Ġiskart": 4454,
      "Ġè": 4455,
      "92": 4456,
      "Ġallegat": 4457,
      "Ġtraduzzjoni": 4458,
      "cÄ§ad": 4459,
      "82": 4460,
      "ori": 4461,
      "hy": 4462,
      "ttom": 4463,
      "Ġproprjetarju": 4464,
      "Ġpolla": 4465,
      "Ġkompatibbli": 4466,
      "statazzjoni": 4467,
      "zam": 4468,
      "Ġmutur": 4469,
      "Ġwicc": 4470,
      "Ġbaxx": 4471,
      "Ġsostnuti": 4472,
      "Ġtkopri": 4473,
      "Ġgroup": 4474,
      "Ġjimplimenta": 4475,
      "Ġben": 4476,
      "52": 4477,
      "ĠmagÄ§qu": 4478,
      "qal": 4479,
      "gaw": 4480,
      "ĠzgÄ§ar": 4481,
      "Ġsegre": 4482,
      "Ġinciz": 4483,
      "Ġtim": 4484,
      "Ġikkunsid": 4485,
      "Ġkonstatazzjoni": 4486,
      "Ġmetall": 4487,
      "Ġkonsegwenza": 4488,
      "mement": 4489,
      "Ġtraffiku": 4490,
      "Ġpartecipanti": 4491,
      "Ġms": 4492,
      "Ġesperti": 4493,
      "sulta": 4494,
      "diri": 4495,
      "Ġbce": 4496,
      "Ġtop": 4497,
      "qset": 4498,
      "egi": 4499,
      "smu": 4500,
      "ttx": 4501,
      "Ġinkluzjoni": 4502,
      "Ġattri": 4503,
      "jed": 4504,
      "Õ¡": 4505,
      "ano": 4506,
      "ttex": 4507,
      "Ġtrasparenza": 4508,
      "del": 4509,
      "Ġtix": 4510,
      "Ġikollhom": 4511,
      "ons": 4512,
      "Ġingliz": 4513,
      "veni": 4514,
      "ettwali": 4515,
      "Ġsat": 4516,
      "Ġaffettwa": 4517,
      "Ġtka": 4518,
      "Ġpercent": 4519,
      "Ġisegwi": 4520,
      "Ġhk": 4521,
      "jaw": 4522,
      "Ġdiza": 4523,
      "Ġvizi": 4524,
      "Ġcas": 4525,
      "ĠgÄ§amlet": 4526,
      "Ġintellettwali": 4527,
      "Ġtor": 4528,
      "pl": 4529,
      "enzjali": 4530,
      "Ġya": 4531,
      "Ġulter": 4532,
      "Ġsanzjonijiet": 4533,
      "Ġschen": 4534,
      "Ġkejl": 4535,
      "ratom": 4536,
      "pendi": 4537,
      "Ġkonformement": 4538,
      "ĠftuÄ§": 4539,
      "ĠmagÄ§ruf": 4540,
      "ssil": 4541,
      "51": 4542,
      "Ġregjuni": 4543,
      "ĠjintlaÄ§aq": 4544,
      "Ġjz": 4545,
      "Ġfajl": 4546,
      "op": 4547,
      "Ġdiffiku": 4548,
      "Ġmarbut": 4549,
      "Ġinka": 4550,
      "Ġkoncess": 4551,
      "Ġemi": 4552,
      "aw": 4553,
      "Ġmg": 4554,
      "inati": 4555,
      "Ġdeter": 4556,
      "Ġrs": 4557,
      "Ġistu": 4558,
      "06": 4559,
      "Ġinvoluti": 4560,
      "lid": 4561,
      "Ġmanife": 4562,
      "tegija": 4563,
      "Ġtranzazzjoni": 4564,
      "Ġton": 4565,
      "Ġformola": 4566,
      "Ġpreciza": 4567,
      "Ġaffa": 4568,
      "Ġministeru": 4569,
      "Ġeuratom": 4570,
      "Ġtre": 4571,
      "cal": 4572,
      "zel": 4573,
      "Ġpart": 4574,
      "Ġ109": 4575,
      "Ġcini": 4576,
      "Ġjirregolaw": 4577,
      "Ġapprovat": 4578,
      "Ġdenominazzjoni": 4579,
      "venti": 4580,
      "ĠsejÄ§a": 4581,
      "che": 4582,
      "Ġfranciza": 4583,
      "dd": 4584,
      "Ġosta": 4585,
      "far": 4586,
      "Ġippubblikata": 4587,
      "Ġgudizzjarji": 4588,
      "Ġkrediti": 4589,
      "vezja": 4590,
      "wana": 4591,
      "vut": 4592,
      "Ġrizerva": 4593,
      "Ġjikkontribwi": 4594,
      "sto": 4595,
      "erija": 4596,
      "Ġabbord": 4597,
      "gani": 4598,
      "Ġinvokat": 4599,
      "urg": 4600,
      "pol": 4601,
      "Ġripro": 4602,
      "Ġ210": 4603,
      "Ġbarrani": 4604,
      "Ġindividwi": 4605,
      "bin": 4606,
      "Ġzjut": 4607,
      "Ġsr": 4608,
      "ĠmaÄ§du": 4609,
      "Ġkoncentrazzjoni": 4610,
      "Ġkummenti": 4611,
      "Ġveteri": 4612,
      "Ġ114": 4613,
      "orks": 4614,
      "Ġskema": 4615,
      "Ġinvokati": 4616,
      "und": 4617,
      "torji": 4618,
      "Ġiva": 4619,
      "Ġprotetti": 4620,
      "Ġland": 4621,
      "Ġorizz": 4622,
      "Ġbra": 4623,
      "line": 4624,
      "Ġnetw": 4625,
      "Ġpozizzjonijiet": 4626,
      "Ġras": 4627,
      "Ġjorbot": 4628,
      "Ġstar": 4629,
      "Ġkuntatt": 4630,
      "Ġnormalment": 4631,
      "Ġviza": 4632,
      "Ġschengen": 4633,
      "Ġtipprevedi": 4634,
      "Ġunika": 4635,
      "Ġukra": 4636,
      "Ġcell": 4637,
      "Ġ267": 4638,
      "Ġsur": 4639,
      "ya": 4640,
      "Ġtk": 4641,
      "Ġgri": 4642,
      "Ġjiddi": 4643,
      "Ġkonnessjoni": 4644,
      "Ġ870": 4645,
      "Ġmaq": 4646,
      "Ġaffi": 4647,
      "Ġsto": 4648,
      "Ġpolitiki": 4649,
      "Ġjitwettqu": 4650,
      "Ġjwettaq": 4651,
      "ssim": 4652,
      "Ġlingwi": 4653,
      "Ġtbati": 4654,
      "qsa": 4655,
      "zen": 4656,
      "sim": 4657,
      "Ġafferma": 4658,
      "Ġdro": 4659,
      "levanza": 4660,
      "Ġospi": 4661,
      "Ġopportunitajiet": 4662,
      "Ġkumpl": 4663,
      "ĠÄ§sieb": 4664,
      "Ġcps": 4665,
      "Ġfizika": 4666,
      "Ġsaf": 4667,
      "ria": 4668,
      "ĠjittieÄ§ed": 4669,
      "sposti": 4670,
      "jur": 4671,
      "Ġtrattati": 4672,
      "data": 4673,
      "tiehem": 4674,
      "zy": 4675,
      "Ġpreci": 4676,
      "Ġkoncerna": 4677,
      "Ġseba": 4678,
      "Ġsmi": 4679,
      "Ġsorsi": 4680,
      "Ġdivizjoni": 4681,
      "pecifika": 4682,
      "Ġremunerazzjoni": 4683,
      "Ġjibbenefikaw": 4684,
      "ters": 4685,
      "Ġpressjoni": 4686,
      "Ġsad": 4687,
      "bs": 4688,
      "ddim": 4689,
      "Ġtajjeb": 4690,
      "Ġolandi": 4691,
      "09": 4692,
      "Ġtilwima": 4693,
      "Ġtqassim": 4694,
      "Ġkompetenzi": 4695,
      "bbir": 4696,
      "100": 4697,
      "Ġungerija": 4698,
      "rji": 4699,
      "Ġmizmuma": 4700,
      "Ġqr": 4701,
      "ffacilita": 4702,
      "Ġferrovi": 4703,
      "seku": 4704,
      "Ġumani": 4705,
      "tail": 4706,
      "jet": 4707,
      "Ġrepu": 4708,
      "Ġveterinar": 4709,
      "Ġdistinzjoni": 4710,
      "Ġkonver": 4711,
      "Ġgover": 4712,
      "gudika": 4713,
      "Ġeg": 4714,
      "Ġeffettivita": 4715,
      "72": 4716,
      "Ġjikka": 4717,
      "Ġkonser": 4718,
      "Ġmala": 4719,
      "ĠmagÄ§quda": 4720,
      "Ġkonsultazzjonijiet": 4721,
      "rament": 4722,
      "kludiet": 4723,
      "Ġtiddikjara": 4724,
      "Ġmassa": 4725,
      "Ġ136": 4726,
      "Ġ540": 4727,
      "Ġxorta": 4728,
      "tolbu": 4729,
      "Ġforniment": 4730,
      "Ïĥ": 4731,
      "qqi": 4732,
      "Ġlegis": 4733,
      "Ġsem": 4734,
      "Ġkostijiet": 4735,
      "Ġjif": 4736,
      "Ġsalva": 4737,
      "kolanti": 4738,
      "Ġdopp": 4739,
      "Ġdubju": 4740,
      "flo": 4741,
      "ĠteÄ§tieg": 4742,
      "Ġkoe": 4743,
      "Ġslova": 4744,
      "ĠruÄ§u": 4745,
      "Ġgewwa": 4746,
      "ĠjÄ§assar": 4747,
      "Ġesperjenza": 4748,
      "Ġprobabbilta": 4749,
      "dija": 4750,
      "ĠmaÄ§sub": 4751,
      "Ġispi": 4752,
      "Ġpet": 4753,
      "Ġleave": 4754,
      "Ġ520": 4755,
      "Ġdefinittiv": 4756,
      "bali": 4757,
      "Ġbon": 4758,
      "wtorizza": 4759,
      "Ġagenziji": 4760,
      "ĠistÄ§arrig": 4761,
      "Ġriezami": 4762,
      "Ġnni": 4763,
      "ĠÄ§arsien": 4764,
      "vore": 4765,
      "Ġqaw": 4766,
      "Ġjaqsmu": 4767,
      "edi": 4768,
      "Ġipotekarju": 4769,
      "Ġjidh": 4770,
      "Ġcrr": 4771,
      "79": 4772,
      "Ðº": 4773,
      "Ġdiparti": 4774,
      "Ġssodisfa": 4775,
      "ĠticÄ§ad": 4776,
      "Ġpriva": 4777,
      "Ġirrapprezenta": 4778,
      "mpli": 4779,
      "Ġvja": 4780,
      "stituzzjonali": 4781,
      "73": 4782,
      "ommu": 4783,
      "Ġdefinit": 4784,
      "Ġsupervizjoni": 4785,
      "Ġsors": 4786,
      "Ġbeneficjarju": 4787,
      "Ġtkabbir": 4788,
      "Ġres": 4789,
      "Ġ118": 4790,
      "Ġjirreferi": 4791,
      "Ġjitolbu": 4792,
      "Ġjimponi": 4793,
      "Ġspjegazzjoni": 4794,
      "hmu": 4795,
      "Ġelettroniku": 4796,
      "ĠimÄ§allfin": 4797,
      "Ġfruntiera": 4798,
      "lab": 4799,
      "mwo": 4800,
      "qien": 4801,
      "Ġpret": 4802,
      "Ġsec": 4803,
      "Ġqos": 4804,
      "Ġuzata": 4805,
      "Ġnaqset": 4806,
      "Ġgem": 4807,
      "fsu": 4808,
      "Ġringie": 4809,
      "Ġval": 4810,
      "dri": 4811,
      "ĠmgÄ§a": 4812,
      "Ġtelef": 4813,
      "ĠcaÄ§": 4814,
      "Ġarbitragg": 4815,
      "Ġsinjifika": 4816,
      "Ġspp": 4817,
      "Ġvelo": 4818,
      "Ġakko": 4819,
      "Ġruman": 4820,
      "Ġrat": 4821,
      "Ġ070": 4822,
      "velar": 4823,
      "Ġtimponi": 4824,
      "Ġgudizzjarju": 4825,
      "vjar": 4826,
      "Ġmaritti": 4827,
      "Ġhe": 4828,
      "ĠÄ§olqien": 4829,
      "Ġadattat": 4830,
      "ttivita": 4831,
      "48": 4832,
      "Ġrispett": 4833,
      "tina": 4834,
      "ĠmagÄ§rufa": 4835,
      "Ġvinkolanti": 4836,
      "vorevoli": 4837,
      "Õ¸": 4838,
      "cn": 4839,
      "Ġjezistu": 4840,
      "Ġsostenn": 4841,
      "Ġpjanijiet": 4842,
      "Ġglieda": 4843,
      "Ġ123": 4844,
      "bagÄ§": 4845,
      "Ġ400": 4846,
      "Ġemer": 4847,
      "ĠtÄ§addim": 4848,
      "Ġprincipalment": 4849,
      "Ġmaterja": 4850,
      "kli": 4851,
      "Ġtalbet": 4852,
      "alment": 4853,
      "Ġserju": 4854,
      "Ġmoq": 4855,
      "Ġospitanti": 4856,
      "Ġirid": 4857,
      "Ġsinjali": 4858,
      "Ġjikkontesta": 4859,
      "Ġsul": 4860,
      "Ġqli": 4861,
      "Ġtaljan": 4862,
      "ĠqiegÄ§da": 4863,
      "Ġarja": 4864,
      "Ġnofs": 4865,
      "Ġittri": 4866,
      "Ġentrati": 4867,
      "ws": 4868,
      "Ġpenali": 4869,
      "Ġ119": 4870,
      "ĠjidÄ§lu": 4871,
      "Ġ111": 4872,
      "Ġoperazzjonali": 4873,
      "Ġjinvoka": 4874,
      "Ġtikkontesta": 4875,
      "Ġcertifikazzjoni": 4876,
      "Ġportuga": 4877,
      "Ġjiddetermina": 4878,
      "Ġefficjenza": 4879,
      "Ġdettaljati": 4880,
      "gericht": 4881,
      "Ġbidliet": 4882,
      "Ġrumanija": 4883,
      "ĠÄ§i": 4884,
      "dro": 4885,
      "Ġverbali": 4886,
      "Ġ138": 4887,
      "ste": 4888,
      "Ġ320": 4889,
      "sal": 4890,
      "Ġindikaturi": 4891,
      "ssijiet": 4892,
      "Ġminuri": 4893,
      "ejjex": 4894,
      "Ġtmur": 4895,
      "Ġrimbors": 4896,
      "Ġmodalitajiet": 4897,
      "Ġfacilitajiet": 4898,
      "ĠÄ§xejjex": 4899,
      "zoli": 4900,
      "Ġgapp": 4901,
      "Ġnomen": 4902,
      "logu": 4903,
      "Ġsemplic": 4904,
      "Ġfrekw": 4905,
      "Ġapplikanti": 4906,
      "ĠgÄ§adhom": 4907,
      "Ġkonsistenti": 4908,
      "Ġsemplicement": 4909,
      "genti": 4910,
      "Ġiwa": 4911,
      "Ġkopja": 4912,
      "Ġceka": 4913,
      "Ġinvalidita": 4914,
      "Ġtuza": 4915,
      "Ġ#": 4916,
      "Ġistrument": 4917,
      "Ġjissu": 4918,
      "Ġdestinazzjoni": 4919,
      "Ġfe": 4920,
      "Ġstipulat": 4921,
      "Ġincid": 4922,
      "9900": 4923,
      "tili": 4924,
      "Ġenfasizzat": 4925,
      "por": 4926,
      "Ġinfluwenza": 4927,
      "Ġtwelid": 4928,
      "Ġzbaljat": 4929,
      "Ġaffarijiet": 4930,
      "Ġavveni": 4931,
      "Ġkonservazzjoni": 4932,
      "Ġdokumenta": 4933,
      "Ġdisku": 4934,
      "Ġdire": 4935,
      "klatura": 4936,
      "Ġ600": 4937,
      "Ġkampjuni": 4938,
      "Ġavjazzjoni": 4939,
      "ÏĢ": 4940,
      "Ġisti": 4941,
      "Ġverifiki": 4942,
      "ejjaÄ§": 4943,
      "Ġacidu": 4944,
      "lhom": 4945,
      "Ä§Ä§aÄ§": 4946,
      "Ġidentita": 4947,
      "dor": 4948,
      "Ġcirkostanzi": 4949,
      "Ġskambju": 4950,
      "bidel": 4951,
      "Ġinkom": 4952,
      "mpa": 4953,
      "Ġkoer": 4954,
      "Ġtipprezenta": 4955,
      "Ġqat": 4956,
      "Ġrekla": 4957,
      "Ġdwana": 4958,
      "enzja": 4959,
      "Ġnot": 4960,
      "Ġimpjiegi": 4961,
      "Ġ113": 4962,
      "int": 4963,
      "que": 4964,
      "finali": 4965,
      "Ġrelevanti": 4966,
      "cion": 4967,
      "Ġpprezentata": 4968,
      "mulin": 4969,
      "Ġnomenklatura": 4970,
      "Ġimpozizzjoni": 4971,
      "ĠtidÄ§ol": 4972,
      "Ġtibqa": 4973,
      "78": 4974,
      "ole": 4975,
      "fur": 4976,
      "Ġdiskre": 4977,
      "Ġtempera": 4978,
      "ĠÄ§jut": 4979,
      "Ġammissibbilta": 4980,
      "Ġlilha": 4981,
      "Ġjer": 4982,
      "venza": 4983,
      "licita": 4984,
      "jjem": 4985,
      "spendi": 4986,
      "fasizza": 4987,
      "ĠmagÄ§mulin": 4988,
      "Ġkonkluzi": 4989,
      "Ġistadju": 4990,
      "Ġistra": 4991,
      "Ġagrikola": 4992,
      "Ġintraprizi": 4993,
      "Ġtaljana": 4994,
      "Ġimo": 4995,
      "Ġmanut": 4996,
      "Ġpersp": 4997,
      "Ġcour": 4998,
      "qar": 4999,
      "Ġeccezzjonali": 5000,
      "Ġlimitazzjoni": 5001,
      "Ġjimplika": 5002,
      "ducu": 5003,
      "Ġnisa": 5004,
      "Ġintegrazzjoni": 5005,
      "ĠjintlaÄ§qu": 5006,
      "Ġdra": 5007,
      "Ġportugi": 5008,
      "Ġjidhir": 5009,
      "lt": 5010,
      "Ġbor": 5011,
      "Ġulterjuri": 5012,
      "llat": 5013,
      "Ġholding": 5014,
      "Ġinkompati": 5015,
      "Ġmanutenzjoni": 5016,
      "Ġjistipula": 5017,
      "stra": 5018,
      "gar": 5019,
      "fc": 5020,
      "Ġjwettqu": 5021,
      "Ġnecessarjament": 5022,
      "Ġsegw": 5023,
      "ĠgÄ§adha": 5024,
      "Ġritor": 5025,
      "Ġrilevanza": 5026,
      "Ġggusti": 5027,
      "Ġsoggett": 5028,
      "Ġquddiemha": 5029,
      "tikament": 5030,
      "Ġmertu": 5031,
      "Ġistatu": 5032,
      "men": 5033,
      "Ġtro": 5034,
      "antu": 5035,
      "Ð´": 5036,
      "leva": 5037,
      "Ġindici": 5038,
      "Ġbilaterali": 5039,
      "mot": 5040,
      "Ġesterni": 5041,
      "Ġserje": 5042,
      "Ġjippartecipa": 5043,
      "Ġsegwit": 5044,
      "Ġezenti": 5045,
      "Ġferrovjar": 5046,
      "egÄ§a": 5047,
      "tieq": 5048,
      "Ġtmien": 5049,
      "200": 5050,
      "ĠÄ§atra": 5051,
      "Ġtitlu": 5052,
      "Ġkarbon": 5053,
      "darba": 5054,
      "Ġmigbu": 5055,
      "Ġobjettiv": 5056,
      "Ġfix": 5057,
      "stem": 5058,
      "dal": 5059,
      "Ġkunsinna": 5060,
      "Ġinkorpora": 5061,
      "fjuta": 5062,
      "Ġmisto": 5063,
      "Ġddefini": 5064,
      "Ġxul": 5065,
      "Ġmigra": 5066,
      "Ġlegizlattiv": 5067,
      "Ġstadju": 5068,
      "daÄ§Ä§": 5069,
      "Ġxulxin": 5070,
      "Ġindikati": 5071,
      "Ġtezercita": 5072,
      "ĠcaÄ§det": 5073,
      "Ġproseku": 5074,
      "Ġtnejn": 5075,
      "Ġkollate": 5076,
      "ble": 5077,
      "Ġlegittimi": 5078,
      "urce": 5079,
      "ege": 5080,
      "Ġiggusti": 5081,
      "Ġrce": 5082,
      "Ġdifferenzi": 5083,
      "Ġutli": 5084,
      "onja": 5085,
      "Ġmistoqsi": 5086,
      "sgÄ§a": 5087,
      "mata": 5088,
      "ĠsÄ§ana": 5089,
      "fisha": 5090,
      "Ġazil": 5091,
      "Ġbulgarija": 5092,
      "essibbli": 5093,
      "Ġnecessarja": 5094,
      "Ġfigura": 5095,
      "Ġpan": 5096,
      "aa": 5097,
      "bbiltajiet": 5098,
      "Ġprofitt": 5099,
      "Ġkel": 5100,
      "Ġjikkonsisti": 5101,
      "Ġpretensjoni": 5102,
      "Ġezercita": 5103,
      "Ġbejji": 5104,
      "Ġjsostnu": 5105,
      "ejjel": 5106,
      "inanti": 5107,
      "Ġame": 5108,
      "Ġgeni": 5109,
      "jp": 5110,
      "ĠÄ§adid": 5111,
      "ttivament": 5112,
      "qqaf": 5113,
      "ccetta": 5114,
      "spettivament": 5115,
      "Ġkunfli": 5116,
      "Ġbro": 5117,
      "Ġtipp": 5118,
      "ture": 5119,
      "Ġinn": 5120,
      "Ġikbar": 5121,
      "qisu": 5122,
      "ok": 5123,
      "Ġinkella": 5124,
      "Ġjam": 5125,
      "Ġjidhru": 5126,
      "Ġkultura": 5127,
      "gieg": 5128,
      "Ä§in": 5129,
      "Ġretail": 5130,
      "Ġfattur": 5131,
      "ron": 5132,
      "Ġregolatorji": 5133,
      "Ġkimici": 5134,
      "tet": 5135,
      "Ġtaba": 5136,
      "Ġdefiniti": 5137,
      "Ġreciproku": 5138,
      "Ġtwegiba": 5139,
      "Ġfjuwil": 5140,
      "laq": 5141,
      "Ġprima": 5142,
      "Ġgurnata": 5143,
      "Ġteknologija": 5144,
      "Ġ117": 5145,
      "Ġlabo": 5146,
      "finixxi": 5147,
      "Ġespressjoni": 5148,
      "Ġrq": 5149,
      "Ġeffika": 5150,
      "ĠtaÄ§lita": 5151,
      "orb": 5152,
      "Ġmakk": 5153,
      "Ġrpc": 5154,
      "pu": 5155,
      "Ġé": 5156,
      "Ġritorn": 5157,
      "testjar": 5158,
      "Ġimmani": 5159,
      "koli": 5160,
      "Ġmarka": 5161,
      "Ġawtomati": 5162,
      "ml": 5163,
      "Ġewli": 5164,
      "rori": 5165,
      "cija": 5166,
      "Ġmaterji": 5167,
      "Ġarre": 5168,
      "gn": 5169,
      "Ġsupervizor": 5170,
      "Ġmqabbla": 5171,
      "Ġeko": 5172,
      "ĠtÄ§allas": 5173,
      "Ġ620": 5174,
      "mal": 5175,
      "Ġ720": 5176,
      "ĠjitÄ§allsu": 5177,
      "Ġtranskon": 5178,
      "Ġezempju": 5179,
      "Ġprezunzjoni": 5180,
      "Ġbun": 5181,
      "Ġjaqblu": 5182,
      "Ġrappor": 5183,
      "kup": 5184,
      "Ġ2574": 5185,
      "Ġpreparazzjonijiet": 5186,
      "Ġtezamina": 5187,
      "Ġispa": 5188,
      "Ġzbaljata": 5189,
      "Ġjibda": 5190,
      "Ġsuprema": 5191,
      "Ġfavorevoli": 5192,
      "Ġwaq": 5193,
      "Ġassocjati": 5194,
      "bha": 5195,
      "Ġkoncessjoni": 5196,
      "Ġipprovdu": 5197,
      "Ġfire": 5198,
      "stanti": 5199,
      "Ġakku": 5200,
      "orsjoni": 5201,
      "Ġimqa": 5202,
      "Ġrurali": 5203,
      "Ġnnoti": 5204,
      "Ġdefinizzjonijiet": 5205,
      "Ġklima": 5206,
      "Ġtue": 5207,
      "Ġministru": 5208,
      "96": 5209,
      "Ġ263": 5210,
      "Ġod": 5211,
      "Ġqam": 5212,
      "Ġewlieni": 5213,
      "Ġmekkanizmi": 5214,
      "taÄ§": 5215,
      "Ġtwaqqi": 5216,
      "Ġfrisk": 5217,
      "Ġtkompli": 5218,
      "56": 5219,
      "Ġsource": 5220,
      "Ġiss": 5221,
      "omet": 5222,
      "Ġsottomissjoni": 5223,
      "Ġeccessi": 5224,
      "Ġftit": 5225,
      "Ġfinal": 5226,
      "Ġtidher": 5227,
      "tejjeb": 5228,
      "inarji": 5229,
      "010": 5230,
      "flok": 5231,
      "Ġsh": 5232,
      "Ġ611": 5233,
      "talab": 5234,
      "Ġinfon": 5235,
      "Ġmiftu": 5236,
      "Ġsegwenti": 5237,
      "Õ¥": 5238,
      "fy": 5239,
      "Ġcere": 5240,
      "Ġsostitwit": 5241,
      "Ġsha": 5242,
      "Ġjwassal": 5243,
      "ĠcaÄ§da": 5244,
      "rja": 5245,
      "rutturi": 5246,
      "Ġdomestici": 5247,
      "Ġdistorsjoni": 5248,
      "Ġrikonoxxu": 5249,
      "ded": 5250,
      "guna": 5251,
      "scha": 5252,
      "ow": 5253,
      "Îº": 5254,
      "Ġfirxa": 5255,
      "Ġrakkomandazzjoni": 5256,
      "Ġtranzitu": 5257,
      "Ġmiksi": 5258,
      "Ġlegalment": 5259,
      "Ġpassa": 5260,
      "Ġistatistika": 5261,
      "Ġperjodi": 5262,
      "stat": 5263,
      "ĠqamÄ§": 5264,
      "Ġdispo": 5265,
      "Ġstrategi": 5266,
      "Ġkomunikazzjonijiet": 5267,
      "hoo": 5268,
      "lda": 5269,
      "Ġtinvoka": 5270,
      "Ġipprocess": 5271,
      "get": 5272,
      "ab": 5273,
      "Ġprovvizorji": 5274,
      "Ġkkaw": 5275,
      "Ä§ejjija": 5276,
      "Ġtjur": 5277,
      "Ġfirma": 5278,
      "ordna": 5279,
      "Ġtranskonfinali": 5280,
      "ĠstÄ§arrig": 5281,
      "Ġespressament": 5282,
      "inanzja": 5283,
      "Ġtig": 5284,
      "ĠqegÄ§": 5285,
      "Ġizjed": 5286,
      "ling": 5287,
      "Ġplasti": 5288,
      "Ġkummercjalizzazzjoni": 5289,
      "ĠgÄ§adu": 5290,
      "Ġmessa": 5291,
      "Ġ1991": 5292,
      "lient": 5293,
      "Ġawtorizzazzjonijiet": 5294,
      "ĠgÄ§ot": 5295,
      "Ġkompara": 5296,
      "veg": 5297,
      "Ġsalvagward": 5298,
      "Ġjrid": 5299,
      "ĠmagÄ§hom": 5300,
      "jma": 5301,
      "Ġvelocita": 5302,
      "genu": 5303,
      "Ġezaminati": 5304,
      "cio": 5305,
      "jt": 5306,
      "Ġminflok": 5307,
      "Ġperspettiva": 5308,
      "ĠÄ§gieg": 5309,
      "Ġsupplimentari": 5310,
      "Ġanalogija": 5311,
      "djo": 5312,
      "fermat": 5313,
      "Ġgrecja": 5314,
      "Ġjezisti": 5315,
      "Ġreto": 5316,
      "Ġrakkomandazzjonijiet": 5317,
      "renti": 5318,
      "ii": 5319,
      "ĠsmigÄ§": 5320,
      "Ġaz": 5321,
      "Ġwin": 5322,
      "Ġmakkinarju": 5323,
      "Ġdeterminat": 5324,
      "Ġ121": 5325,
      "rim": 5326,
      "Ġ721": 5327,
      "Ġddetermina": 5328,
      "Ġkompatibbilta": 5329,
      "Ġriforma": 5330,
      "Ġsensi": 5331,
      "Ġiddefini": 5332,
      "Ġkodicijiet": 5333,
      "Ġbijo": 5334,
      "Ġindipendenza": 5335,
      "Ġklawzoli": 5336,
      "Ġ139": 5337,
      "Ġyahoo": 5338,
      "ejÄ§a": 5339,
      "Ġrsms": 5340,
      "Ġrimedju": 5341,
      "Ġjikkorrispondi": 5342,
      "Ġ135": 5343,
      "Ġinni": 5344,
      "Ġterritorjali": 5345,
      "Ġqrre": 5346,
      "Ġ440": 5347,
      "Ġgim": 5348,
      "Ġsmot": 5349,
      "Ġrqrr": 5350,
      "Ġine": 5351,
      "Ġâī": 5352,
      "Ġvolon": 5353,
      "Ġmetodo": 5354,
      "Ġstima": 5355,
      "ĠqiegÄ§ed": 5356,
      "Ġobbligazzjonijiet": 5357,
      "Ġminerali": 5358,
      "Ġterrori": 5359,
      "Ġtabakk": 5360,
      "Ġirrispettivament": 5361,
      "Ġty": 5362,
      "Ġinkw": 5363,
      "Ġesportazzjonijiet": 5364,
      "Ġrelatur": 5365,
      "Ġradju": 5366,
      "Ġmanifest": 5367,
      "Ġsloven": 5368,
      "sib": 5369,
      "torju": 5370,
      "Ġefficjenti": 5371,
      "Ġmitlub": 5372,
      "Ġirre": 5373,
      "ĠtgÄ§id": 5374,
      "Ġawtenti": 5375,
      "sil": 5376,
      "bbaza": 5377,
      "Ġjinkiseb": 5378,
      "sen": 5379,
      "Ġnorveg": 5380,
      "Ġiddecidiet": 5381,
      "Ġurl": 5382,
      "ĠâĪ": 5383,
      "Ġmeqjusa": 5384,
      "Ġimpost": 5385,
      "errej": 5386,
      "Ġtiddetermina": 5387,
      "Ġnorvegja": 5388,
      "Ġfuqha": 5389,
      "Ġintestaturi": 5390,
      "zammu": 5391,
      "ĠÄ§azna": 5392,
      "ou": 5393,
      "ĠgÄ§e": 5394,
      "Ġderivattivi": 5395,
      "Ġglu": 5396,
      "Ġtiff": 5397,
      "Ġeskluz": 5398,
      "ssat": 5399,
      "onu": 5400,
      "Ġout": 5401,
      "Ġiffri": 5402,
      "Ġtrasportatur": 5403,
      "Ġakkumpanja": 5404,
      "Ġutent": 5405,
      "Ġportugall": 5406,
      "Ġtluq": 5407,
      "Ġcara": 5408,
      "Ġinnovazzjoni": 5409,
      "Ġtikkonstata": 5410,
      "Ġress": 5411,
      "plika": 5412,
      "Ġalu": 5413,
      "mazzjoni": 5414,
      "ogga": 5415,
      "Ġgassijiet": 5416,
      "Ġprogress": 5417,
      "Ġpaci": 5418,
      "Ġlam": 5419,
      "Ġjaqbez": 5420,
      "Ġbandi": 5421,
      "Ġrapportar": 5422,
      "Ġparamet": 5423,
      "Ġprovvisti": 5424,
      "Ġdrappijiet": 5425,
      "Ġfol": 5426,
      "ler": 5427,
      "Ġpropost": 5428,
      "Ġkkundannata": 5429,
      "ras": 5430,
      "Ġlimitazzjonijiet": 5431,
      "Ġmel": 5432,
      "Ġ116": 5433,
      "gs": 5434,
      "Ġrila": 5435,
      "Ġfini": 5436,
      "Ġdiv": 5437,
      "Ġnavi": 5438,
      "naqqsu": 5439,
      "Ġrist": 5440,
      "Ġjizdied": 5441,
      "Ġorizzon": 5442,
      "Ġ529900": 5443,
      "Ġkomponent": 5444,
      "Ġtle": 5445,
      "Ġterritorji": 5446,
      "Ġtikko": 5447,
      "Ġstrument": 5448,
      "Ġprovvizorju": 5449,
      "Ġringiela": 5450,
      "Ġawtoma": 5451,
      "ben": 5452,
      "gÄ§atat": 5453,
      "versali": 5454,
      "dru": 5455,
      "Ġnegattiv": 5456,
      "ratur": 5457,
      "ita": 5458,
      "sion": 5459,
      "Ġidejn": 5460,
      "Ġund": 5461,
      "Ġkorretta": 5462,
      "Ġbandiera": 5463,
      "Ġtraspozizzjoni": 5464,
      "Ġ850": 5465,
      "ranza": 5466,
      "Ġjezercitaw": 5467,
      "Ġvveri": 5468,
      "Ġprocessi": 5469,
      "Ġwasslu": 5470,
      "endar": 5471,
      "Ġrregola": 5472,
      "Ġkonteni": 5473,
      "Ġregolatorja": 5474,
      "Ġmiksub": 5475,
      "Ġmax": 5476,
      "stni": 5477,
      "Ġddikjarat": 5478,
      "Ġismijiet": 5479,
      "Ġisfel": 5480,
      "Ġkost": 5481,
      "Ġviii": 5482,
      "Ġpd": 5483,
      "Ġdinji": 5484,
      "Ġimwettqa": 5485,
      "Ġpin": 5486,
      "Ġsommar": 5487,
      "Ġassolu": 5488,
      "ĠjogÄ§go": 5489,
      "ets": 5490,
      "unzja": 5491,
      "Ġtemperatura": 5492,
      "ĠmiftuÄ§a": 5493,
      "ejjer": 5494,
      "Ġprivata": 5495,
      "Ġkandidati": 5496,
      "Ġemitt": 5497,
      "Ġskopijiet": 5498,
      "Ġinsu": 5499,
      "wija": 5500,
      "mpjega": 5501,
      "Ġtemporanju": 5502,
      "Ġdomestiku": 5503,
      "97": 5504,
      "Ġestern": 5505,
      "Ġpostijiet": 5506,
      "kopru": 5507,
      "Ġcd": 5508,
      "Ġdiskrezzjoni": 5509,
      "Ġmemo": 5510,
      "Ġspezzjoni": 5511,
      "Ġmassima": 5512,
      "Ġgustament": 5513,
      "ĠtagÄ§bija": 5514,
      "Ġ132": 5515,
      "cin": 5516,
      "ĠwiesgÄ§a": 5517,
      "ĠjogÄ§gobha": 5518,
      "Ġkaxxa": 5519,
      "Ġdisposi": 5520,
      "Ġdovuta": 5521,
      "Ġtrab": 5522,
      "Ġnuk": 5523,
      "Ġcan": 5524,
      "Ġtwi": 5525,
      "Ä§olqu": 5526,
      "Ġlibera": 5527,
      "ĠruÄ§hom": 5528,
      "Ġtivverifika": 5529,
      "Ġadminist": 5530,
      "Ġexcl": 5531,
      "tos": 5532,
      "Ġawtorizzata": 5533,
      "Ġob": 5534,
      "Ġkulu": 5535,
      "torja": 5536,
      "Ġprele": 5537,
      "kjedi": 5538,
      "ĠmÄ§allsa": 5539,
      "Ġsinte": 5540,
      "Ġfosthom": 5541,
      "nota": 5542,
      "Ġ127": 5543,
      "Ġaut": 5544,
      "Ġ\\": 5545,
      "Ġtevalwa": 5546,
      "Ġ124": 5547,
      "lassi": 5548,
      "ĠtaÄ§litiet": 5549,
      "Ġtech": 5550,
      "ferenza": 5551,
      "formula": 5552,
      "Ġbio": 5553,
      "Ġmigbura": 5554,
      "ech": 5555,
      "Ġmalta": 5556,
      "lsa": 5557,
      "Ġprijori": 5558,
      "Ġoggezzjonijiet": 5559,
      "Ġperijodi": 5560,
      "Ġdg": 5561,
      "Ġsottom": 5562,
      "Ð¸Ñ": 5563,
      "Ġbazici": 5564,
      "Ġissostni": 5565,
      "Ġsubin": 5566,
      "ken": 5567,
      "Ġãĥ": 5568,
      "Ġjaqsam": 5569,
      "Ġspjegat": 5570,
      "Ġkonsul": 5571,
      "Ġspecifikament": 5572,
      "Ġjiddeciedi": 5573,
      "Ġ126": 5574,
      "Ġjipprekludu": 5575,
      "miss": 5576,
      "Ġ122": 5577,
      "ggeri": 5578,
      "ĠjeÄ§tiegu": 5579,
      "Ġvalida": 5580,
      "Ġorizzontali": 5581,
      "chi": 5582,
      "bat": 5583,
      "Ġformulazzjoni": 5584,
      "ag": 5585,
      "Ġpluri": 5586,
      "Ġcereali": 5587,
      "Ġjircievu": 5588,
      "Ġezekuttiv": 5589,
      "Ġ141": 5590,
      "Ġkkunsidrata": 5591,
      "Ġmija": 5592,
      "Ġhy": 5593,
      "Ġladarba": 5594,
      "Ġisostni": 5595,
      "Ġjkopri": 5596,
      "Ġjipprezentaw": 5597,
      "ĠjinÄ§a": 5598,
      "llazzjoni": 5599,
      "Ġjiska": 5600,
      "ssess": 5601,
      "sbu": 5602,
      "Ġgustifikazzjoni": 5603,
      "Ġgga": 5604,
      "riga": 5605,
      "ennali": 5606,
      "Ġrappur": 5607,
      "Ġgust": 5608,
      "Ġattenzjoni": 5609,
      "Ġkkonkludiet": 5610,
      "Ġmaggo": 5611,
      "Ġinterpretata": 5612,
      "ĠqegÄ§din": 5613,
      "Ġartifi": 5614,
      "ska": 5615,
      "Ġfattwali": 5616,
      "cil": 5617,
      "Ġjoperaw": 5618,
      "Ġjagixxu": 5619,
      "Ġmanu": 5620,
      "Ġintermedjar": 5621,
      "Ġsess": 5622,
      "Ġinvestigazzjonijiet": 5623,
      "Ġformat": 5624,
      "Ġdisinni": 5625,
      "Ġ@": 5626,
      "tive": 5627,
      "Ġmanifestament": 5628,
      "Ġfinlandja": 5629,
      "Ġsostniet": 5630,
      "ssigura": 5631,
      "Ġsezzjoni": 5632,
      "Ġtikseb": 5633,
      "Ġacqui": 5634,
      "Ġdebitur": 5635,
      "Ġispiza": 5636,
      "Ġfarma": 5637,
      "Ġingenji": 5638,
      "fiq": 5639,
      "Ġggaranti": 5640,
      "ziv": 5641,
      "Ġkopert": 5642,
      "Ġabbuz": 5643,
      "Ġskemi": 5644,
      "pt": 5645,
      "Ġklijent": 5646,
      "Ġrikje": 5647,
      "Ġiji": 5648,
      "Ä§ud": 5649,
      "Ġnr": 5650,
      "leari": 5651,
      "qan": 5652,
      "Ġ133": 5653,
      "Ġ160": 5654,
      "cipali": 5655,
      "ĠqligÄ§": 5656,
      "Ġ730": 5657,
      "dy": 5658,
      "ĠsetgÄ§etx": 5659,
      "Ġmikro": 5660,
      "operaw": 5661,
      "Ġsid": 5662,
      "lie": 5663,
      "Ġsisa": 5664,
      "diedu": 5665,
      "Ġ350": 5666,
      "pertura": 5667,
      "fficj": 5668,
      "Ġiffissar": 5669,
      "Ġkm": 5670,
      "minanti": 5671,
      "ĠlogÄ§o": 5672,
      "Ġrre": 5673,
      "sche": 5674,
      "Ġimpj": 5675,
      "ĠlogÄ§ob": 5676,
      "Ġkisba": 5677,
      "Ġtikkonsisti": 5678,
      "Ġjiena": 5679,
      "08": 5680,
      "Ġjuza": 5681,
      "Ġjiksbu": 5682,
      "finanzjarji": 5683,
      "ton": 5684,
      "Ġvitt": 5685,
      "Ġthi": 5686,
      "Ġfluss": 5687,
      "Ġreat": 5688,
      "Ġeskluzivament": 5689,
      "Ġdiffikultajiet": 5690,
      "Ġdelegat": 5691,
      "Ġrrikono": 5692,
      "dni": 5693,
      "Ġnonfinanzjarji": 5694,
      "Ġcip": 5695,
      "Ġreklamar": 5696,
      "Ġ134": 5697,
      "Ġlegizlattiva": 5698,
      "Ġstmat": 5699,
      "Ġkulju": 5700,
      "Ġdovut": 5701,
      "kija": 5702,
      "Ġkuljum": 5703,
      "Ġdokumentazzjoni": 5704,
      "Ġ129": 5705,
      "cation": 5706,
      "Ġseparata": 5707,
      "ving": 5708,
      "Ġkarbonju": 5709,
      "ĠjgÄ§a": 5710,
      "Ġtaf": 5711,
      "ome": 5712,
      "Ġistruzzjonijiet": 5713,
      "Ġopportunita": 5714,
      "Ġapparati": 5715,
      "Ġemergenza": 5716,
      "Ġinkwantu": 5717,
      "Ġkuntrarjament": 5718,
      "Ġkklassifikati": 5719,
      "Ġaspetta": 5720,
      "Ġnar": 5721,
      "Ġattiv": 5722,
      "randum": 5723,
      "Ġ218": 5724,
      "ggarantixxi": 5725,
      "Ġthed": 5726,
      "Ġprovizor": 5727,
      "Ġprovin": 5728,
      "sporta": 5729,
      "orru": 5730,
      "Ġizvelar": 5731,
      "Ġquali": 5732,
      "Ġkomposta": 5733,
      "Ġlibertajiet": 5734,
      "Ġkonsenja": 5735,
      "Ġarrest": 5736,
      "Ġimpjegat": 5737,
      "76": 5738,
      "Ġpluriennali": 5739,
      "kora": 5740,
      "Ġtnaqqas": 5741,
      "Ġimk": 5742,
      "Ġjinqa": 5743,
      "Ġijiem": 5744,
      "Ġttratta": 5745,
      "Ġaddittiv": 5746,
      "notifika": 5747,
      "Ġlitw": 5748,
      "Ġispecifikazzjonijiet": 5749,
      "Ġ128": 5750,
      "Ġbie": 5751,
      "Ġprovvedi": 5752,
      "Ġ050": 5753,
      "tej": 5754,
      "Ġeccezzjonijiet": 5755,
      "cher": 5756,
      "Ġ1990": 5757,
      "chts": 5758,
      "Ġmfa": 5759,
      "Ġjillimita": 5760,
      "Ġkonfuzjoni": 5761,
      "loro": 5762,
      "gÄ§ax": 5763,
      "Ġarrangament": 5764,
      "Ġpat": 5765,
      "Ġfur": 5766,
      "komuni": 5767,
      "Ġtosserva": 5768,
      "stein": 5769,
      "ljata": 5770,
      "Ġibbazati": 5771,
      "Ġidentifikat": 5772,
      "plu": 5773,
      "Ġqosor": 5774,
      "fet": 5775,
      "Ġwto": 5776,
      "kro": 5777,
      "Ġjinzammu": 5778,
      "Ġtoro": 5779,
      "Ġicc": 5780,
      "Ġsafejn": 5781,
      "luzzjonijiet": 5782,
      "Ġallegatament": 5783,
      "ĠtgÄ§a": 5784,
      "Ġnazzjonijiet": 5785,
      "Ġlang": 5786,
      "Ġbundes": 5787,
      "Ġbij": 5788,
      "Ġistatut": 5789,
      "hus": 5790,
      "Ġjapplikax": 5791,
      "Ġtaffettwa": 5792,
      "Ġefsa": 5793,
      "Ġbicca": 5794,
      "Ġregistratur": 5795,
      "Ġindja": 5796,
      "Ġkompozizzjoni": 5797,
      "Ġregolatorju": 5798,
      "Ġdeskritti": 5799,
      "Ġprezentata": 5800,
      "ÏĤ": 5801,
      "Ïī": 5802,
      "Ġ1049": 5803,
      "Ġlatvja": 5804,
      "ede": 5805,
      "Ġamministratur": 5806,
      "bagÄ§tu": 5807,
      "spjega": 5808,
      "nam": 5809,
      "Ġkroa": 5810,
      "ĠÄ§ielsa": 5811,
      "Ġsentejn": 5812,
      "Ġmor": 5813,
      "stab": 5814,
      "Ġmac": 5815,
      "Ġkkalkola": 5816,
      "Ġkroazja": 5817,
      "Ġtilwim": 5818,
      "Ġ145": 5819,
      "Ġell": 5820,
      "Ġrappurtar": 5821,
      "Ġallowan": 5822,
      "Ġmunicipali": 5823,
      "Ġcittadinanza": 5824,
      "umula": 5825,
      "Ġinsol": 5826,
      "ĠimÄ§allsa": 5827,
      "bagÄ§at": 5828,
      "Ġpol": 5829,
      "Ġorali": 5830,
      "Ġjaffettwaw": 5831,
      "Ġpakkett": 5832,
      "Ġdiffic": 5833,
      "Ġevitat": 5834,
      "Ġperikolu": 5835,
      "Ġinkompatibbli": 5836,
      "Ġtagi": 5837,
      "Ġsussidju": 5838,
      "Ġprelevata": 5839,
      "Ġif": 5840,
      "Ġbih": 5841,
      "Ġnukleari": 5842,
      "Ġistrategija": 5843,
      "miny": 5844,
      "Ġpermessi": 5845,
      "Ġkonkre": 5846,
      "Ġmr": 5847,
      "Ġtress": 5848,
      "ssigurazzjoni": 5849,
      "Ġstart": 5850,
      "Ġmaggoranza": 5851,
      "neÄ§Ä§": 5852,
      "Ġtwil": 5853,
      "Ġkaro": 5854,
      "Ġgarr": 5855,
      "Ġtapp": 5856,
      "ĠmaÄ§rug": 5857,
      "Ġproblemi": 5858,
      "Ġmsc": 5859,
      "Ġtigdid": 5860,
      "viet": 5861,
      "Ġmistennija": 5862,
      "Ġsodisfatti": 5863,
      "Ġgminy": 5864,
      "Ġtinzamm": 5865,
      "Ġpercentwali": 5866,
      "ong": 5867,
      "feru": 5868,
      "Ġacquis": 5869,
      "Ġdemo": 5870,
      "lew": 5871,
      "konoxxi": 5872,
      "han": 5873,
      "ren": 5874,
      "Ġinten": 5875,
      "Ġ230": 5876,
      "Ġreferenzi": 5877,
      "Ġcertament": 5878,
      "ĠmagÄ§zu": 5879,
      "Ġhawnhekk": 5880,
      "ĠsiegÄ§a": 5881,
      "Î»": 5882,
      "Ġpussess": 5883,
      "Ġdifficli": 5884,
      "Ġqabdiet": 5885,
      "dt": 5886,
      "Ġsewqan": 5887,
      "Ġmol": 5888,
      "Ġdja": 5889,
      "jbixxi": 5890,
      "Ġmemorandum": 5891,
      "Ġffir": 5892,
      "Ġsemi": 5893,
      "Ġezenta": 5894,
      "ug": 5895,
      "Ġgeneralment": 5896,
      "Ġoq": 5897,
      "orgu": 5898,
      "Ġsil": 5899,
      "Î¼": 5900,
      "kil": 5901,
      "Ġreati": 5902,
      "Ġinstallazzjoni": 5903,
      "Ġdiskrezzjonali": 5904,
      "Ġdeskritt": 5905,
      "Ġkalendar": 5906,
      "Ġaktarx": 5907,
      "Ġlitwanja": 5908,
      "Ġgietx": 5909,
      "Ġdivid": 5910,
      "any": 5911,
      "Ġkana": 5912,
      "ungs": 5913,
      "Ġmqajma": 5914,
      "Ġkollateral": 5915,
      "Ġsovran": 5916,
      "Ġalumin": 5917,
      "Ġ143": 5918,
      "Ġ157": 5919,
      "Ġprattici": 5920,
      "Ġikollha": 5921,
      "Ġpjatta": 5922,
      "Ġkisret": 5923,
      "Ġkelma": 5924,
      "Ġaffida": 5925,
      "cjalment": 5926,
      "Ġbajd": 5927,
      "rit": 5928,
      "dod": 5929,
      "Ġartificjali": 5930,
      "Ġkompr": 5931,
      "Ġmunita": 5932,
      "Ġjikkonformaw": 5933,
      "Ġmie": 5934,
      "cha": 5935,
      "ĠgÄ§eluq": 5936,
      "cievi": 5937,
      "Ġpartiku": 5938,
      "Ġtti": 5939,
      "Ġjadottaw": 5940,
      "Ġbicci": 5941,
      "volment": 5942,
      "Ġdetenzjoni": 5943,
      "ĠjitqiegÄ§": 5944,
      "bejjed": 5945,
      "Ġgilda": 5946,
      "mann": 5947,
      "tc": 5948,
      "Ġjosserva": 5949,
      "Ġdeut": 5950,
      "port": 5951,
      "nego": 5952,
      "gin": 5953,
      "Ġrive": 5954,
      "vin": 5955,
      "Ġuniversi": 5956,
      "Ġkkalku": 5957,
      "fficjentement": 5958,
      "Ġjagixxi": 5959,
      "Ġtru": 5960,
      "Ġimmedjatament": 5961,
      "ĠtÄ§ejjija": 5962,
      "Ġamm": 5963,
      "Ġxjentifika": 5964,
      "Ġbeni": 5965,
      "Ġmizjuda": 5966,
      "Ġib": 5967,
      "fug": 5968,
      "Ġimressqa": 5969,
      "Ġparent": 5970,
      "Ġtime": 5971,
      "Ġqasir": 5972,
      "Ġinizjalment": 5973,
      "ĠimgÄ§ax": 5974,
      "Ġjiv": 5975,
      "Ġtircievi": 5976,
      "Ġtransfr": 5977,
      "Ġindirizzata": 5978,
      "Ġsubintesta": 5979,
      "Ġkiri": 5980,
      "Ġkostituzzjonali": 5981,
      "lef": 5982,
      "lor": 5983,
      "Ġeuropean": 5984,
      "Õ¡Õ": 5985,
      "eden": 5986,
      "flu": 5987,
      "Ġrekor": 5988,
      "Ġdistintiv": 5989,
      "inament": 5990,
      "Ġdisa": 5991,
      "vjaggar": 5992,
      "Ġlaborat": 5993,
      "Ġtradi": 5994,
      "Ġup": 5995,
      "Ġgravita": 5996,
      "Ġmehmu": 5997,
      "Ġcirkustanza": 5998,
      "Ġai": 5999,
      "Ġare": 6000,
      "erat": 6001,
      "Ġdubji": 6002,
      "Ġnumri": 6003,
      "Ġbicciet": 6004,
      "cument": 6005,
      "lz": 6006,
      "kki": 6007,
      "Ġimplika": 6008,
      "Ġpendenti": 6009,
      "Ġinammissibbilta": 6010,
      "ĠjingÄ§ad": 6011,
      "qiegÄ§ed": 6012,
      "Ġapprovati": 6013,
      "kiseb": 6014,
      "Ġkwe": 6015,
      "ĠngÄ§ata": 6016,
      "Ġfutur": 6017,
      "Ġkompju": 6018,
      "Ġoggettivi": 6019,
      "Ġaccessorji": 6020,
      "Ġ131": 6021,
      "Ġprijorita": 6022,
      "Ġjippromwo": 6023,
      "Ġittestjar": 6024,
      "Ġsufficjentement": 6025,
      "Ġxandi": 6026,
      "Ġjoff": 6027,
      "Ġrn": 6028,
      "fletti": 6029,
      "cts": 6030,
      "ĠÄ§e": 6031,
      "Ġgeografici": 6032,
      "wr": 6033,
      "ĠâĪĴ": 6034,
      "Ġmim": 6035,
      "Ġattribwi": 6036,
      "Ġbankar": 6037,
      "Ġindipendentement": 6038,
      "jani": 6039,
      "Ġwaslet": 6040,
      "ezzjoni": 6041,
      "ssib": 6042,
      "Ġraff": 6043,
      "Ġappar": 6044,
      "Ġtransfrunti": 6045,
      "Ġevalwata": 6046,
      "Ġgemein": 6047,
      "akk": 6048,
      "Ġimportaturi": 6049,
      "Ġmalajr": 6050,
      "Ġ340": 6051,
      "Ġ180": 6052,
      "Ġ182": 6053,
      "am": 6054,
      "Ġxorb": 6055,
      "Ġdocument": 6056,
      "Õ«": 6057,
      "Ġproblema": 6058,
      "Ġcommi": 6059,
      "Ġimplimentati": 6060,
      "Ġpreparazzjoni": 6061,
      "Ġtressaq": 6062,
      "Ġbv": 6063,
      "Ġdovuti": 6064,
      "Ġtha": 6065,
      "Ġsussidjarjament": 6066,
      "Ġjikkorrispondu": 6067,
      "Ġestra": 6068,
      "tz": 6069,
      "Ġisfor": 6070,
      "gÄ§od": 6071,
      "Ġristruttura": 6072,
      "Ġtranzizzjoni": 6073,
      "bru": 6074,
      "Ġipprezentata": 6075,
      "cus": 6076,
      "Ġffinanzja": 6077,
      "ssidu": 6078,
      "lc": 6079,
      "Ġalternattivi": 6080,
      "Ġjon": 6081,
      "Ġmoqri": 6082,
      "Ġevalwat": 6083,
      "Ġilmenti": 6084,
      "Ġimg": 6085,
      "Ġjircievi": 6086,
      "Ġ168": 6087,
      "Ġdemok": 6088,
      "Ġeuropa": 6089,
      "Ġsussidjarji": 6090,
      "ĠmiegÄ§u": 6091,
      "Ġvverifikat": 6092,
      "Ġkomprensi": 6093,
      "Ġimmi": 6094,
      "Ġaggre": 6095,
      "Ġ610": 6096,
      "Ġkreditizja": 6097,
      "Ġordna": 6098,
      "sting": 6099,
      "Ġfalli": 6100,
      "Ġammissibbli": 6101,
      "Ġlimitati": 6102,
      "Ġjindikaw": 6103,
      "hof": 6104,
      "ĠjgÄ§id": 6105,
      "Ġiran": 6106,
      "Ġcinizi": 6107,
      "tugÄ§": 6108,
      "Ġsuppli": 6109,
      "Ġistokk": 6110,
      "Ġmy": 6111,
      "Ġsanzjoni": 6112,
      "oz": 6113,
      "Ġifisser": 6114,
      "dirizza": 6115,
      "sig": 6116,
      "ĠÄ§zin": 6117,
      "Ġigp": 6118,
      "Ġmedici": 6119,
      "Ġserji": 6120,
      "Ġjinvolvu": 6121,
      "zzid": 6122,
      "Ġserra": 6123,
      "Ġindirizzati": 6124,
      "Ġikkal": 6125,
      "Ġkkunsidraw": 6126,
      "xxipli": 6127,
      "Ġstretta": 6128,
      "naqqsa": 6129,
      "Ġkumplessi": 6130,
      "Ġkarbu": 6131,
      "ĠÄ§adet": 6132,
      "Ġpuli": 6133,
      "Ġivvjaggar": 6134,
      "Ġkomposti": 6135,
      "Ġsommarju": 6136,
      "Ġkosta": 6137,
      "skrivi": 6138,
      "Ġroti": 6139,
      "Ġqies": 6140,
      "Ġkonsid": 6141,
      "ĠgÄ§axar": 6142,
      "negozja": 6143,
      "Ġfac": 6144,
      "Ġawdituri": 6145,
      "wza": 6146,
      "Ġtitjira": 6147,
      "Ġlilu": 6148,
      "Ġsostituzzjoni": 6149,
      "Ġaccettazzjoni": 6150,
      "dotti": 6151,
      "Ġpju": 6152,
      "Ġtordna": 6153,
      "Ġrevoka": 6154,
      "Ġrinno": 6155,
      "Ġispazju": 6156,
      "sistenza": 6157,
      "vedu": 6158,
      "ssja": 6159,
      "gÄ§ir": 6160,
      "ttost": 6161,
      "Ġdominanti": 6162,
      "sje": 6163,
      "Ġnaqas": 6164,
      "ĠmagÄ§zula": 6165,
      "Ġpjuttost": 6166,
      "riera": 6167,
      "Ġentrata": 6168,
      "Ġpaj": 6169,
      "Ġcla": 6170,
      "ĠgÄ§odod": 6171,
      "Ġevalwazzjonijiet": 6172,
      "ring": 6173,
      "Ġiec": 6174,
      "Ġkompetituri": 6175,
      "Ġmodu": 6176,
      "Ġjiffacilita": 6177,
      "Ġ310": 6178,
      "ĠwaÄ§": 6179,
      "Ġ148": 6180,
      "Ġ170": 6181,
      "Ġawdit": 6182,
      "Ġplc": 6183,
      "Ġestiz": 6184,
      "fen": 6185,
      "ĠxaÄ§am": 6186,
      "Ġminsu": 6187,
      "Ġmono": 6188,
      "Ġpopolazzjoni": 6189,
      "Ġnavigazzjoni": 6190,
      "Ġlogi": 6191,
      "fih": 6192,
      "Ġjezamina": 6193,
      "Ġesterna": 6194,
      "ĠjoÄ§orgu": 6195,
      "Ġgross": 6196,
      "Ġtissospendi": 6197,
      "Ġjippartecipaw": 6198,
      "ire": 6199,
      "mbo": 6200,
      "Ġek": 6201,
      "Ġsuperjuri": 6202,
      "Ġgg": 6203,
      "Ġmetalli": 6204,
      "ĠmagÄ§ha": 6205,
      "Ġpreskrizzjoni": 6206,
      "Ġ142": 6207,
      "Ġä": 6208,
      "Ġdettall": 6209,
      "Ġvanta": 6210,
      "Ġtkec": 6211,
      "Ġcp": 6212,
      "Ġcerta": 6213,
      "ĠalkoÄ§": 6214,
      "Ġobbligata": 6215,
      "Ġskop": 6216,
      "Ġjigg": 6217,
      "Ġdividendi": 6218,
      "Ġ137": 6219,
      "Ġtiss": 6220,
      "Ġkatina": 6221,
      "Ġisvezja": 6222,
      "Ġregim": 6223,
      "Ġnegozjar": 6224,
      "Ġnetwork": 6225,
      "Ġmifti": 6226,
      "Ġ167": 6227,
      "els": 6228,
      "ĠjoÄ§rog": 6229,
      "Ġkapacitajiet": 6230,
      "Ġesklussi": 6231,
      "Ġturkija": 6232,
      "Ġminnufih": 6233,
      "ĠjseÄ§Ä§": 6234,
      "Ġjiffor": 6235,
      "ties": 6236,
      "Ġefta": 6237,
      "Ġkorrezzjoni": 6238,
      "Ġjitnaqqas": 6239,
      "Ġidentifika": 6240,
      "Ġseq": 6241,
      "Ġclient": 6242,
      "Ġpesk": 6243,
      "Ġmiftiehma": 6244,
      "Ġprofitti": 6245,
      "Ġiwettqu": 6246,
      "Ġou": 6247,
      "Ġnetwerks": 6248,
      "Ġaggustamenti": 6249,
      "Ġvarjabbli": 6250,
      "Ġxerrej": 6251,
      "ttometti": 6252,
      "ĠÄ§azin": 6253,
      "artj": 6254,
      "Ġfriski": 6255,
      "Ġtagixxi": 6256,
      "ght": 6257,
      "tivi": 6258,
      "Ġkollettiv": 6259,
      "xu": 6260,
      "Ġdiskriminat": 6261,
      "Ġsoggetta": 6262,
      "ĠãĤ": 6263,
      "llin": 6264,
      "ĠtisÄ§i": 6265,
      "Ġpulizija": 6266,
      "Ġ700": 6267,
      "Ġmarbutin": 6268,
      "Ġdetenturi": 6269,
      "Ġrip": 6270,
      "vjeni": 6271,
      "fic": 6272,
      "Ġãģ": 6273,
      "ĠÄ§am": 6274,
      "Ġjirrapprezentaw": 6275,
      "Ġzer": 6276,
      "Ġstrutturali": 6277,
      "Ġaspettattivi": 6278,
      "Ġezaminata": 6279,
      "Ġlegislazzjoni": 6280,
      "berg": 6281,
      "Ġace": 6282,
      "Ġteskludi": 6283,
      "Ġgewx": 6284,
      "Ġkontinwu": 6285,
      "ĠtisÄ§iÄ§": 6286,
      "Ġjakk": 6287,
      "Ġsimpli": 6288,
      "togra": 6289,
      "Ġraguna": 6290,
      "Ïħ": 6291,
      "Ġfrance": 6292,
      "Ġispecijiet": 6293,
      "ĠÄ§o": 6294,
      "ĠÂ°": 6295,
      "Ġferrovija": 6296,
      "ssion": 6297,
      "komplu": 6298,
      "Ġgov": 6299,
      "volvi": 6300,
      "xxut": 6301,
      "Ġtibda": 6302,
      "Ġtemporanja": 6303,
      "Ġelleni": 6304,
      "Ġmassimi": 6305,
      "fed": 6306,
      "stjon": 6307,
      "Ġchi": 6308,
      "Ġcol": 6309,
      "Ġrkupru": 6310,
      "ritika": 6311,
      "Ġ640": 6312,
      "Ġgenituri": 6313,
      "nn": 6314,
      "Ġimfi": 6315,
      "Ġbagitarja": 6316,
      "Ġinkon": 6317,
      "Ġtelekomuni": 6318,
      "Ġobbligatorja": 6319,
      "Ġkurrenti": 6320,
      "Ġpetro": 6321,
      "Ġ147": 6322,
      "jna": 6323,
      "bor": 6324,
      "Ġpreciz": 6325,
      "Ġ1234": 6326,
      "Ġblo": 6327,
      "Ġjivverifika": 6328,
      "trici": 6329,
      "Ġstam": 6330,
      "Ġkontinwa": 6331,
      "Ġapprossi": 6332,
      "Ġjwasslu": 6333,
      "Ġ152": 6334,
      "Ġkorrett": 6335,
      "Ġzbalji": 6336,
      "Ġpreferenzjali": 6337,
      "cizat": 6338,
      "Ġve": 6339,
      "Ġrilaxx": 6340,
      "Ġfiss": 6341,
      "ãĥ¼": 6342,
      "ud": 6343,
      "Ġ630": 6344,
      "sq": 6345,
      "Ġtl": 6346,
      "Ġkwazi": 6347,
      "Ġtaqta": 6348,
      "vaw": 6349,
      "Ġ149": 6350,
      "ĠimsejÄ§a": 6351,
      "vil": 6352,
      "Ġjiggustifikaw": 6353,
      "Ġjikseb": 6354,
      "bitat": 6355,
      "Ġmetodologija": 6356,
      "Ġretti": 6357,
      "Ġillegalita": 6358,
      "zzanti": 6359,
      "Ġnuqqa": 6360,
      "Ġ234": 6361,
      "oton": 6362,
      "Ġippakk": 6363,
      "Ġtwaqqif": 6364,
      "Ġlilhom": 6365,
      "Ġgemeinde": 6366,
      "Ġnuqqasijiet": 6367,
      "rendi": 6368,
      "Ġdixxipli": 6369,
      "ĠtagÄ§lim": 6370,
      "Ġfunzjonali": 6371,
      "Ġgz": 6372,
      "Ġmarg": 6373,
      "Ġwo": 6374,
      "Ġinvestituri": 6375,
      "Ġbh": 6376,
      "tazzjonijiet": 6377,
      "ĠpoÅĤ": 6378,
      "Ġinsolvenza": 6379,
      "Ġqoton": 6380,
      "Ñĥ": 6381,
      "Ġimballa": 6382,
      "Ġestiza": 6383,
      "Ġimportatur": 6384,
      "Ġjitwettaq": 6385,
      "Ġajruport": 6386,
      "Ġwhi": 6387,
      "Ġdem": 6388,
      "dia": 6389,
      "Ġtrasportaturi": 6390,
      "Ġprovvizorja": 6391,
      "Ġ2150": 6392,
      "tel": 6393,
      "Ġdeterminanti": 6394,
      "kur": 6395,
      "nita": 6396,
      "Ġcifri": 6397,
      "Ġ151": 6398,
      "laf": 6399,
      "Ġjidenti": 6400,
      "ans": 6401,
      "Ġgovern": 6402,
      "Ġokka": 6403,
      "Ġbejniet": 6404,
      "Ġdipartiment": 6405,
      "Ġoperattivi": 6406,
      "Ġtittra": 6407,
      "Ġrregistrata": 6408,
      "Ġkulturali": 6409,
      "Ġferm": 6410,
      "Ġdomi": 6411,
      "Ġintrapriza": 6412,
      "Ġjiffi": 6413,
      "Ġworks": 6414,
      "Ġselva": 6415,
      "Ġminima": 6416,
      "Ġtubi": 6417,
      "Ġ261": 6418,
      "Ġ155": 6419,
      "Ġbosta": 6420,
      "Ġbt": 6421,
      "Ġspro": 6422,
      "Ġps": 6423,
      "00000": 6424,
      "Ġmiri": 6425,
      "Ġnewtra": 6426,
      "Ġkkomuni": 6427,
      "Ġaccessibbli": 6428,
      "cedi": 6429,
      "koraggi": 6430,
      "Ġbejniethom": 6431,
      "Ġ722": 6432,
      "ttxija": 6433,
      "Ġfinanzi": 6434,
      "Ġdistrett": 6435,
      "Ġsussidji": 6436,
      "Ġriassigurazzjoni": 6437,
      "Ġbb": 6438,
      "ĠimbagÄ§ad": 6439,
      "Ġsiti": 6440,
      "unt": 6441,
      "Ġgzejjer": 6442,
      "Ġdpo": 6443,
      "ĠimÄ§allef": 6444,
      "Ġmfakkar": 6445,
      "Ġimsa": 6446,
      "Ġmaniger": 6447,
      "Ġjidhirli": 6448,
      "cz": 6449,
      "Ġseparati": 6450,
      "3800": 6451,
      "Ġaccettat": 6452,
      "Ġsf": 6453,
      "Ġalia": 6454,
      "safar": 6455,
      "Ġprivattiva": 6456,
      "Ġpprojbi": 6457,
      "Ġidentici": 6458,
      "Ġgermaniza": 6459,
      "Ġzzomm": 6460,
      "Ġjikkontribwixxu": 6461,
      "Ġast": 6462,
      "daÄ§Ä§lu": 6463,
      "Ġrregistrati": 6464,
      "Ġdisposizzjonijiet": 6465,
      "Ġthan": 6466,
      "Ġsede": 6467,
      "sia": 6468,
      "Ġpostali": 6469,
      "ĠgÄ§asafar": 6470,
      "disfat": 6471,
      "Ġcentri": 6472,
      "Ġispezzjoni": 6473,
      "Ġtqabbi": 6474,
      "Ġtrasparenti": 6475,
      "dul": 6476,
      "Ġ0003": 6477,
      "ĠxaÄ§": 6478,
      "Ġjirreferu": 6479,
      "tter": 6480,
      "Ġ178": 6481,
      "Ġimmuni": 6482,
      "Ġ550": 6483,
      "sslet": 6484,
      "Ġlaw": 6485,
      "Ġjigb": 6486,
      "xix": 6487,
      "Ġnnifisha": 6488,
      "ĠtoÄ§loq": 6489,
      "hl": 6490,
      "Ġimwettaq": 6491,
      "Ġiridu": 6492,
      "nja": 6493,
      "porzjon": 6494,
      "Ġfidu": 6495,
      "Ġfrekwenza": 6496,
      "ĠmgÄ§amm": 6497,
      "rum": 6498,
      "ĠâĮ": 6499,
      "Ġtillimita": 6500,
      "Ġ213800": 6501,
      "Ġ330": 6502,
      "Ġmhix": 6503,
      "Ġstatus": 6504,
      "Ġirrapprezentata": 6505,
      "Ġciklu": 6506,
      "Ġpiena": 6507,
      "Ġqatt": 6508,
      "Ġtitwettaq": 6509,
      "Ġrec": 6510,
      "Ġher": 6511,
      "ĠmibgÄ§u": 6512,
      "Ġtonn": 6513,
      "Ġ800": 6514,
      "lissa": 6515,
      "Ġfformula": 6516,
      "ering": 6517,
      "Ġiskemi": 6518,
      "ggjar": 6519,
      "Ġ560": 6520,
      "Ġelimina": 6521,
      "Ġesplicita": 6522,
      "Ġsoft": 6523,
      "Ġjinforma": 6524,
      "Ġolandiz": 6525,
      "Ġdestinatarju": 6526,
      "Ġzerri": 6527,
      "tikolu": 6528,
      "Ġxjentifiku": 6529,
      "hr": 6530,
      "Ġinvol": 6531,
      "Ġjinbidel": 6532,
      "Ġphp": 6533,
      "fra": 6534,
      "Ġazj": 6535,
      "Ġcipru": 6536,
      "Ġdiff": 6537,
      "Ġtikkonforma": 6538,
      "Ġindex": 6539,
      "deciedu": 6540,
      "Ġinnifsu": 6541,
      "Ġ1068": 6542,
      "Ġhttps": 6543,
      "Ġragunament": 6544,
      "Ġfalliment": 6545,
      "Ġgene": 6546,
      "Ġekwita": 6547,
      "Ġrls": 6548,
      "zlu": 6549,
      "Ġ165": 6550,
      "cew": 6551,
      "Ġiffirmar": 6552,
      "Ġinfiq": 6553,
      "nici": 6554,
      "Ġtfassil": 6555,
      "Ġkrizi": 6556,
      "dott": 6557,
      "rant": 6558,
      "Ġvege": 6559,
      "jtu": 6560,
      "Ġkwalifiki": 6561,
      "Ġaluminju": 6562,
      "Ġrrapporta": 6563,
      "gos": 6564,
      "Ġkunfidenzjalita": 6565,
      "Ġdim": 6566,
      "hn": 6567,
      "Ġmba": 6568,
      "zul": 6569,
      "Ġ410": 6570,
      "dien": 6571,
      "Ġtispecifika": 6572,
      "etu": 6573,
      "Ġkkontestati": 6574,
      "Ġjipproducu": 6575,
      "bbilment": 6576,
      "Ġkonverzjoni": 6577,
      "Ġtikkonkludi": 6578,
      "Ġtipproduci": 6579,
      "Ġsussidjarjeta": 6580,
      "Ġdeli": 6581,
      "Ġntqal": 6582,
      "Ġnational": 6583,
      "Ġgeneral": 6584,
      "Ġinteg": 6585,
      "urmaw": 6586,
      "Ġds": 6587,
      "nizzla": 6588,
      "Ġawditjar": 6589,
      "Ġeva": 6590,
      "Ġspanjo": 6591,
      "tana": 6592,
      "Ġxeb": 6593,
      "ccedi": 6594,
      "Ġjiddeciedu": 6595,
      "Ġ414": 6596,
      "Ġ153": 6597,
      "sistu": 6598,
      "Ġskadenza": 6599,
      "Ġ144": 6600,
      "Ġdipen": 6601,
      "tha": 6602,
      "Ġfinalment": 6603,
      "1000": 6604,
      "Ġkwestjon": 6605,
      "Ġtrasferimenti": 6606,
      "bez": 6607,
      "Ġtv": 6608,
      "Ġindirettament": 6609,
      "raf": 6610,
      "Ġoperattiva": 6611,
      "Ġricevi": 6612,
      "Ġidd": 6613,
      "Ġlisti": 6614,
      "Ġjiggustifika": 6615,
      "Ġstandardi": 6616,
      "Ġteknologiji": 6617,
      "Ġked": 6618,
      "cle": 6619,
      "Ġ060": 6620,
      "Ġwild": 6621,
      "Ġklassijiet": 6622,
      "Ġtradizzjonali": 6623,
      "Ġlegizlattivi": 6624,
      "Ġdmi": 6625,
      "Ġparagun": 6626,
      "ĠmgÄ§o": 6627,
      "Ġuniversali": 6628,
      "Ġtinvolvi": 6629,
      "Ġrealta": 6630,
      "Ġjevita": 6631,
      "lx": 6632,
      "Ġtimpjega": 6633,
      "ĠzerriegÄ§a": 6634,
      "Ġjikkunsidra": 6635,
      "Ġ480": 6636,
      "Ġappellant": 6637,
      "Ġkkonfermat": 6638,
      "Ġolaf": 6639,
      "Ġbc": 6640,
      "Ä§ass": 6641,
      "citati": 6642,
      "Ġadministrati": 6643,
      "Ġ146": 6644,
      "ĠâĢ²": 6645,
      "Ġ154": 6646,
      "Ġ1408": 6647,
      "ĠbejjiegÄ§": 6648,
      "decieda": 6649,
      "jetajiet": 6650,
      "Ġiffinanzja": 6651,
      "kku": 6652,
      "spondi": 6653,
      "Ġprosp": 6654,
      "Ġassemb": 6655,
      "Ġmedda": 6656,
      "Ġintrojtu": 6657,
      "etz": 6658,
      "Ġstatu": 6659,
      "Ġtibbaza": 6660,
      "orjali": 6661,
      "Ġtinkiseb": 6662,
      "ych": 6663,
      "Ġbei": 6664,
      "Ġdeh": 6665,
      "Ġjizvilupp": 6666,
      "ence": 6667,
      "Ġbud": 6668,
      "monta": 6669,
      "Ġfuqu": 6670,
      "Ġtiggusti": 6671,
      "ĠtoÄ§rog": 6672,
      "Ġpunent": 6673,
      "Ġsas": 6674,
      "yz": 6675,
      "Ġtoroq": 6676,
      "ãĥ³": 6677,
      "Ġsejbiet": 6678,
      "ligenza": 6679,
      "Ġtissu": 6680,
      "Ġsim": 6681,
      "Ġ847": 6682,
      "Ġzviluppati": 6683,
      "Ġtiggustifika": 6684,
      "Ġjaf": 6685,
      "Ġstatistika": 6686,
      "licitu": 6687,
      "arjament": 6688,
      "Ġ900": 6689,
      "Ġoneru": 6690,
      "terran": 6691,
      "ssla": 6692,
      "tba": 6693,
      "Ġimportati": 6694,
      "Ġmk": 6695,
      "fying": 6696,
      "Ġkonsoli": 6697,
      "bbs": 6698,
      "ĠÎµ": 6699,
      "Ġrefug": 6700,
      "Ġtipprekludi": 6701,
      "Ġesposti": 6702,
      "ros": 6703,
      "janar": 6704,
      "mika": 6705,
      "Ġbagitarji": 6706,
      "Ġtikkorrispon": 6707,
      "Ġjipprevedu": 6708,
      "Ġipprepa": 6709,
      "Ġdisp": 6710,
      "ĠtÄ§assib": 6711,
      "Ġjinkisbu": 6712,
      "Ġtikkorrispondi": 6713,
      "jant": 6714,
      "giel": 6715,
      "Ġestonja": 6716,
      "Ġsuccess": 6717,
      "Ġsproporzjon": 6718,
      "Ġakkumula": 6719,
      "Ġemittenti": 6720,
      "ĠgÄ§amel": 6721,
      "Ġabit": 6722,
      "cor": 6723,
      "Ġ0207": 6724,
      "datta": 6725,
      "Ġinst": 6726,
      "Ġkwalifika": 6727,
      "Ġkopertura": 6728,
      "Ġkorre": 6729,
      "Ġ1107": 6730,
      "Ġmeqjus": 6731,
      "Ġpurament": 6732,
      "net": 6733,
      "ĠÄ§axix": 6734,
      "eno": 6735,
      "zivi": 6736,
      "Ġffa": 6737,
      "Ġfaku": 6738,
      "Ġreciproka": 6739,
      "oxrin": 6740,
      "ĠgimgÄ§a": 6741,
      "dae": 6742,
      "ĠgÄ§oxrin": 6743,
      "Ġkonju": 6744,
      "Ġkedb": 6745,
      "diskri": 6746,
      "Ġgar": 6747,
      "ĠtÄ§assar": 6748,
      "Ġsetax": 6749,
      "fattura": 6750,
      "Ġdiretturi": 6751,
      "ĠgÄ§alfejn": 6752,
      "ÐµÐ½": 6753,
      "Ġindividwu": 6754,
      "bank": 6755,
      "bbenefika": 6756,
      "Ġkomplu": 6757,
      "Ġufficcji": 6758,
      "Ġnitro": 6759,
      "Ġjzommu": 6760,
      "Ġdija": 6761,
      "Ġincenti": 6762,
      "Ġdeciz": 6763,
      "Ġrevol": 6764,
      "Ġ156": 6765,
      "Ġtariffarji": 6766,
      "ljat": 6767,
      "Ġindividwalment": 6768,
      "Ġattwalment": 6769,
      "Ġtawtorizza": 6770,
      "ĠbÄ§alissa": 6771,
      "Ġressqet": 6772,
      "ĠmelÄ§": 6773,
      "mt": 6774,
      "Ä§al": 6775,
      "Ġallokati": 6776,
      "Ġpensjonijiet": 6777,
      "Ġxandir": 6778,
      "Ġ184": 6779,
      "Ġkulur": 6780,
      "Ġpoplu": 6781,
      "Ġrevolving": 6782,
      "vuti": 6783,
      "ĠjoÄ§loq": 6784,
      "Ġqualifying": 6785,
      "Ġfakulta": 6786,
      "sco": 6787,
      "Ġnn": 6788,
      "Ġ1989": 6789,
      "tto": 6790,
      "nixx": 6791,
      "Ġstri": 6792,
      "Ġbut": 6793,
      "stiti": 6794,
      "Ġemendati": 6795,
      "Ġ1987": 6796,
      "Ġcca": 6797,
      "Ġdif": 6798,
      "ĠÎ±": 6799,
      "Ġirce": 6800,
      "Ġtinqa": 6801,
      "Ġmediterran": 6802,
      "win": 6803,
      "Ġdec": 6804,
      "Ġadegwat": 6805,
      "Ġrikonoxxuti": 6806,
      "Ä§addem": 6807,
      "Ġpru": 6808,
      "ĠmiftuÄ§": 6809,
      "Ġrispon": 6810,
      "Ġakkwa": 6811,
      "ker": 6812,
      "Ġxebh": 6813,
      "Ġsinjifikattiv": 6814,
      "Ġnut": 6815,
      "Ġkwadru": 6816,
      "Ġali": 6817,
      "rc": 6818,
      "Ġ940": 6819,
      "Ġrrifju": 6820,
      "Ġarmi": 6821,
      "Ġriproduzzjoni": 6822,
      "Ġkontenituri": 6823,
      "janti": 6824,
      "Ġkonsistenza": 6825,
      "Ġinteropera": 6826,
      "ĠÃĹ": 6827,
      "Ġjqis": 6828,
      "Ġ343": 6829,
      "kkunsidraw": 6830,
      "Ġdiss": 6831,
      "Ġmudelli": 6832,
      "Ġ1515": 6833,
      "tenstein": 6834,
      "zid": 6835,
      "Ġdop": 6836,
      "Ġpprecizat": 6837,
      "ĠimsejjaÄ§": 6838,
      "Ġespert": 6839,
      "Ġ2023": 6840,
      "Ġinnoti": 6841,
      "Ġseparat": 6842,
      "vizzja": 6843,
      "Ġ175": 6844,
      "Ġkonjugi": 6845,
      "rus": 6846,
      "Ġliech": 6847,
      "Ġpir": 6848,
      "Ġdomestika": 6849,
      "Ġikkunsidrat": 6850,
      "Ġpollakk": 6851,
      "iz": 6852,
      "Ġpolitici": 6853,
      "rio": 6854,
      "zagÄ§": 6855,
      "ner": 6856,
      "Ġrifl": 6857,
      "Ġtizdied": 6858,
      "Ġmilita": 6859,
      "tiva": 6860,
      "Ġvap": 6861,
      "Ġgappuni": 6862,
      "Ġmarki": 6863,
      "Ġtinforma": 6864,
      "Ġjikkonsistu": 6865,
      "Ġbdie": 6866,
      "Ġsospi": 6867,
      "Ġmotivata": 6868,
      "Ġiskeda": 6869,
      "Ġimpossibbli": 6870,
      "Ġparametri": 6871,
      "Ġbdiewa": 6872,
      "omu": 6873,
      "Ġ2694": 6874,
      "ĠfergÄ§a": 6875,
      "Ġsv": 6876,
      "tis": 6877,
      "Ġslovenja": 6878,
      "ĠjgÄ§i": 6879,
      "Ġannullata": 6880,
      "Ġspanjol": 6881,
      "ĠzgÄ§a": 6882,
      "Ġwisq": 6883,
      "Ġinfondat": 6884,
      "Ġ169": 6885,
      "Ġliechtenstein": 6886,
      "Ġtt": 6887,
      "guri": 6888,
      "lanti": 6889,
      "Ġnondiskri": 6890,
      "torat": 6891,
      "Ġotti": 6892,
      "Ġaggravji": 6893,
      "Ġ$": 6894,
      "Ġwasslet": 6895,
      "ĠxagÄ§ar": 6896,
      "ĠjitÄ§allas": 6897,
      "Ġprassi": 6898,
      "Ġelettrici": 6899,
      "Ġterrorizmu": 6900,
      "Ġ347": 6901,
      "Ġaddittivi": 6902,
      "Î¹Î±": 6903,
      "ĠmaÄ§duma": 6904,
      "ĠzgÄ§azagÄ§": 6905,
      "Ġ158": 6906,
      "Ġtkeccija": 6907,
      "Ġcourt": 6908,
      "Ġkarti": 6909,
      "Ġmediku": 6910,
      "wera": 6911,
      "Ġsoluzzjonijiet": 6912,
      "Ġgeneri": 6913,
      "ĠmaÄ§dumin": 6914,
      "Ġamerika": 6915,
      "Ġipotezi": 6916,
      "Ġonline": 6917,
      "Ġplastik": 6918,
      "Ġkanada": 6919,
      "Ġmqabbel": 6920,
      "Ġellenika": 6921,
      "Ġjikkunsidraw": 6922,
      "Ġmibju": 6923,
      "ĠÄ§iliet": 6924,
      "Ġisvizzera": 6925,
      "iel": 6926,
      "Ġirregolaritajiet": 6927,
      "Ġtenfasizza": 6928,
      "Ġ161": 6929,
      "nika": 6930,
      "eggi": 6931,
      "Ġkoperta": 6932,
      "Ġapprovata": 6933,
      "Ġdipl": 6934,
      "Ġreputazzjoni": 6935,
      "Ġwar": 6936,
      "Ġnetti": 6937,
      "kijiet": 6938,
      "ced": 6939,
      "Ġdmirijiet": 6940,
      "Ġincidentali": 6941,
      "Ġ543": 6942,
      "Ġaspett": 6943,
      "Ġassocjazzjonijiet": 6944,
      "Ġcilin": 6945,
      "Î¿Ïħ": 6946,
      "Ġanke": 6947,
      "Ġmissjoni": 6948,
      "Ġsuccessi": 6949,
      "Ġjest": 6950,
      "Ġjippregudika": 6951,
      "Ġfrom": 6952,
      "Ġjqisu": 6953,
      "tarjat": 6954,
      "Ġ260": 6955,
      "Ġirregistrata": 6956,
      "dos": 6957,
      "Ġlesti": 6958,
      "Ġjsostni": 6959,
      "ĠgÄ§amla": 6960,
      "jjar": 6961,
      "Ġiddikjarat": 6962,
      "ĠÎ¼": 6963,
      "Ġkru": 6964,
      "Ġbarranija": 6965,
      "Ġargumenta": 6966,
      "Ġiskopijiet": 6967,
      "sic": 6968,
      "Ġ176": 6969,
      "Ġsea": 6970,
      "Ġjikkomuni": 6971,
      "Ġdixxiplina": 6972,
      "Ġ290": 6973,
      "Ġ510": 6974,
      "bbija": 6975,
      "Ġdepoziti": 6976,
      "arrab": 6977,
      "Ġbur": 6978,
      "Ġvolumi": 6979,
      "erevoli": 6980,
      "Ġjibbenefika": 6981,
      "Ġttrasferi": 6982,
      "Ġvjagg": 6983,
      "ura": 6984,
      "Ġ171": 6985,
      "Ġtressqet": 6986,
      "ĠsaÄ§a": 6987,
      "Ġspecjalment": 6988,
      "Ġjinvolvi": 6989,
      "tejn": 6990,
      "Ġtimplika": 6991,
      "Ġqal": 6992,
      "Ġrikorsi": 6993,
      "pponi": 6994,
      "Ġuzi": 6995,
      "Ġavvenimenti": 6996,
      "enzjonijiet": 6997,
      "Ġskeda": 6998,
      "Ġjappogga": 6999,
      "uli": 7000,
      "new": 7001,
      "Ġbuti": 7002,
      "Ġjitnaqqsu": 7003,
      "Ġipprocessati": 7004,
      "ĠalkoÄ§ol": 7005,
      "Ġiwassal": 7006,
      "mino": 7007,
      "Ġwh": 7008,
      "Ġmilitari": 7009,
      "Ġindone": 7010,
      "ensa": 7011,
      "Ġjizdiedu": 7012,
      "Ġdivi": 7013,
      "Ġimpar": 7014,
      "Ġforesti": 7015,
      "Ġrapporta": 7016,
      "Ġintegrita": 7017,
      "vuta": 7018,
      "enna": 7019,
      "Ġkonferma": 7020,
      "Ġdisponibbilta": 7021,
      "Ġkwar": 7022,
      "Ġgom": 7023,
      "kultura": 7024,
      "Ġazzjonisti": 7025,
      "Ġone": 7026,
      "Ġ164": 7027,
      "Ġthis": 7028,
      "Ġimpjanti": 7029,
      "Ġkoperazzjoni": 7030,
      "Ġeskluziva": 7031,
      "Ġ450": 7032,
      "Ġgravi": 7033,
      "Ġthat": 7034,
      "Ġissu": 7035,
      "Ġpur": 7036,
      "Ġov": 7037,
      "Ġmetil": 7038,
      "etra": 7039,
      "oc": 7040,
      "Ġkam": 7041,
      "Ġ185": 7042,
      "Ġistituzzjonali": 7043,
      "Ġjm": 7044,
      "Ġkongunti": 7045,
      "Ġpretensjonijiet": 7046,
      "Ġtibbenefika": 7047,
      "Ġdimensjoni": 7048,
      "Ġxjentifici": 7049,
      "Ġkja": 7050,
      "Ġtessi": 7051,
      "Ġwiesa": 7052,
      "Ġedi": 7053,
      "walt": 7054,
      "ĠjgÄ§in": 7055,
      "Ġiner": 7056,
      "korri": 7057,
      "Ġomm": 7058,
      "Ġimpre": 7059,
      "Ġinvokata": 7060,
      "Ġpajpijiet": 7061,
      "ervi": 7062,
      "Ġjimplimentaw": 7063,
      "Ġsigar": 7064,
      "dorf": 7065,
      "schaft": 7066,
      "Ġtransa": 7067,
      "Ġrregistrat": 7068,
      "Ġikkonferma": 7069,
      "Ġprotett": 7070,
      "Ġjiddefinixxi": 7071,
      "Ġopinjonijiet": 7072,
      "Ġtessili": 7073,
      "Ġmodifika": 7074,
      "oloq": 7075,
      "ĠjoÄ§olqu": 7076,
      "Ġakkomo": 7077,
      "ĠmaÄ§dum": 7078,
      "Ġmobbli": 7079,
      "Ġjinzamm": 7080,
      "Ġjiddeterminaw": 7081,
      "Ġzja": 7082,
      "urs": 7083,
      "rejn": 7084,
      "Ġcorpora": 7085,
      "Ġobbligatorju": 7086,
      "Ġtype": 7087,
      "Ġram": 7088,
      "luqa": 7089,
      "Ä§Ä§i": 7090,
      "Ġ166": 7091,
      "Ġfonda": 7092,
      "Ġtiddependi": 7093,
      "Ġ211": 7094,
      "Ġrws": 7095,
      "Ġ1988": 7096,
      "tun": 7097,
      "Ġprivil": 7098,
      "Ġ163": 7099,
      "Ġger": 7100,
      "jer": 7101,
      "ments": 7102,
      "Ġdirezzjoni": 7103,
      "Ġinterim": 7104,
      "ruzzjoni": 7105,
      "Ġtlesti": 7106,
      "Ġkonfed": 7107,
      "ark": 7108,
      "ĠbagÄ§": 7109,
      "Ġ162": 7110,
      "tela": 7111,
      "Ġdelegati": 7112,
      "Ġ1001": 7113,
      "Ġbzonnijiet": 7114,
      "Ġnecess": 7115,
      "bja": 7116,
      "Ġkreditur": 7117,
      "Ġfolji": 7118,
      "ĠÄ§xuna": 7119,
      "Ġissodisfa": 7120,
      "Ġaa": 7121,
      "Ġjikkomp": 7122,
      "stitwixxi": 7123,
      "Ġnegozji": 7124,
      "Ġcons": 7125,
      "Ġurgenza": 7126,
      "ressqu": 7127,
      "Ġ258": 7128,
      "Ġbelt": 7129,
      "Ġikkontestata": 7130,
      "Ġjmur": 7131,
      "Ġezenzjonijiet": 7132,
      "Ġafrika": 7133,
      "Ġdjalogu": 7134,
      "Ġmone": 7135,
      "Ġimparzjali": 7136,
      "Ġintrodu": 7137,
      "bies": 7138,
      "ÑĽ": 7139,
      "Ġhemmhekk": 7140,
      "pensa": 7141,
      "ĠmbagÄ§ad": 7142,
      "Ġukrajna": 7143,
      "Ġsolas": 7144,
      "Ġkarozzi": 7145,
      "dent": 7146,
      "Ġlegittimu": 7147,
      "rent": 7148,
      "Ġjeskludi": 7149,
      "Ġjzomm": 7150,
      "ettar": 7151,
      "Ġtalab": 7152,
      "Ġdoppja": 7153,
      "Ġiqis": 7154,
      "Î¹Îº": 7155,
      "Ġgan": 7156,
      "Î³": 7157,
      "Ġmarokk": 7158,
      "ep": 7159,
      "Ġjimponu": 7160,
      "Ġht": 7161,
      "ĠÂ±": 7162,
      "Ġmedji": 7163,
      "×¾": 7164,
      "Ä§Ä§u": 7165,
      "Ġmun": 7166,
      "Ġmh": 7167,
      "Ġiskopertura": 7168,
      "Ġmistoqsijiet": 7169,
      "nia": 7170,
      "Ġln": 7171,
      "dali": 7172,
      "Ġtunnellati": 7173,
      "ola": 7174,
      "dida": 7175,
      "Ġforza": 7176,
      "Õ¥Õ": 7177,
      "unbbs": 7178,
      "Ġdiver": 7179,
      "rutta": 7180,
      "Ġwettaq": 7181,
      "Ġtirrifjuta": 7182,
      "Ġsystem": 7183,
      "Ġspecifikata": 7184,
      "Ġcs": 7185,
      "Ġqsim": 7186,
      "ĠgÄ§azliet": 7187,
      "Ġkance": 7188,
      "ĠÄ§ajji": 7189,
      "Ġolanda": 7190,
      "mini": 7191,
      "Ġtniggi": 7192,
      "telli": 7193,
      "Ġ299": 7194,
      "Ġcompany": 7195,
      "Ġpakketti": 7196,
      "Ġawtomatikament": 7197,
      "Ġprecedentement": 7198,
      "Ġresidwi": 7199,
      "Ġminister": 7200,
      "Ġvantaggi": 7201,
      "Ġinstallazzjonijiet": 7202,
      "kri": 7203,
      "Ġkumula": 7204,
      "Ġnegattivi": 7205,
      "Ġani": 7206,
      "Ġmed": 7207,
      "ĠjitÄ§all": 7208,
      "Ġskamb": 7209,
      "Ġ253": 7210,
      "Ġratiti": 7211,
      "Ġprecizjoni": 7212,
      "Ġaff": 7213,
      "Ġofficial": 7214,
      "Ġwasla": 7215,
      "Ġtwegi": 7216,
      "bbliga": 7217,
      "Ġkro": 7218,
      "kkijiet": 7219,
      "Ġofc": 7220,
      "Ġperiklu": 7221,
      "rei": 7222,
      "Ġorganizza": 7223,
      "elles": 7224,
      "Ġbat": 7225,
      "Ġkunflitt": 7226,
      "Ġsubintestatura": 7227,
      "Ġmarda": 7228,
      "Ġration": 7229,
      "Ġitali": 7230,
      "Ġakkredi": 7231,
      "Ġvegetali": 7232,
      "Ġeligi": 7233,
      "Ġpom": 7234,
      "Ġfissa": 7235,
      "Ġadegwati": 7236,
      "Ġsalvagwardja": 7237,
      "Ġzzid": 7238,
      "Ġ840": 7239,
      "tejbu": 7240,
      "Ġinstitu": 7241,
      "Ġpprocess": 7242,
      "Ġjigux": 7243,
      "Ġ239": 7244,
      "Ġagrikolu": 7245,
      "Ġzve": 7246,
      "Ġrussja": 7247,
      "Ġdefinittiva": 7248,
      "Ġrendi": 7249,
      "Ġ172": 7250,
      "Ġjassigura": 7251,
      "ĠmibgÄ§uta": 7252,
      "Ġsettorjali": 7253,
      "Ġkonfederazzjoni": 7254,
      "Ġmnaqqsa": 7255,
      "Ġsuppliment": 7256,
      "Ġip": 7257,
      "anu": 7258,
      "Ġinhu": 7259,
      "orn": 7260,
      "Ġjar": 7261,
      "modi": 7262,
      "of": 7263,
      "Ġ337": 7264,
      "Ġtqabbil": 7265,
      "blic": 7266,
      "ĠâĹ": 7267,
      "Ġpprovdut": 7268,
      "Ġtwett": 7269,
      "Ġjikkonferma": 7270,
      "Ġfirem": 7271,
      "Ġallegazzjoni": 7272,
      "Ġdie": 7273,
      "nc": 7274,
      "pedi": 7275,
      "Ġkomparabbli": 7276,
      "sse": 7277,
      "Ġpreparat": 7278,
      "Ġofficio": 7279,
      "Ġportugiza": 7280,
      "Ġxxx": 7281,
      "Ġiwettaq": 7282,
      "Ġpacifiku": 7283,
      "Ġiskoperturi": 7284,
      "Ġajruporti": 7285,
      "Ġoriginarji": 7286,
      "Ġrapi": 7287,
      "Ġsekondarji": 7288,
      "Ġfos": 7289,
      "Ġdemokrati": 7290,
      "Ġmanifatturi": 7291,
      "Ġjibdew": 7292,
      "Ġtajbin": 7293,
      "Ð¼": 7294,
      "qos": 7295,
      "Ġol": 7296,
      "by": 7297,
      "Ä§ba": 7298,
      "Ġamministrazzjonijiet": 7299,
      "Ġjappartj": 7300,
      "Ġservices": 7301,
      "Ġippakkjar": 7302,
      "rew": 7303,
      "Ġ270": 7304,
      "Ġ0001": 7305,
      "Ġeskluza": 7306,
      "Ġantiko": 7307,
      "lig": 7308,
      "Ġ205": 7309,
      "Ġvul": 7310,
      "Ġkombu": 7311,
      "Ġnippro": 7312,
      "Ġfuturi": 7313,
      "ettijiet": 7314,
      "Ġadegwata": 7315,
      "ino": 7316,
      "Ġgeor": 7317,
      "Ġingenju": 7318,
      "Ġmilqu": 7319,
      "Ġistandard": 7320,
      "kolazzjoni": 7321,
      "yer": 7322,
      "natura": 7323,
      "cker": 7324,
      "Ġezemp": 7325,
      "Ġkkonferma": 7326,
      "Ġâī¤": 7327,
      "Ġtikka": 7328,
      "strin": 7329,
      "ziva": 7330,
      "Ġprimju": 7331,
      "gas": 7332,
      "car": 7333,
      "Ġqari": 7334,
      "Ġ190": 7335,
      "faul": 7336,
      "Ġ240": 7337,
      "eneb": 7338,
      "Ġ189": 7339,
      "ĠjaÄ§dem": 7340,
      "Ġssu": 7341,
      "Ġprijoritajiet": 7342,
      "Ġsuf": 7343,
      "Ġistima": 7344,
      "sis": 7345,
      "Ġresponsabbiltajiet": 7346,
      "Ġneg": 7347,
      "fus": 7348,
      "Ġgiex": 7349,
      "Ġprosekutur": 7350,
      "Ġmateri": 7351,
      "ming": 7352,
      "Ġ999": 7353,
      "tlu": 7354,
      "Ġ204": 7355,
      "Ġkontesta": 7356,
      "metru": 7357,
      "Ġretroa": 7358,
      "Ġimballagg": 7359,
      "Ð½Ð°": 7360,
      "Ġjikkooperaw": 7361,
      "cidi": 7362,
      "Ġizba": 7363,
      "wejj": 7364,
      "Ġmodalita": 7365,
      "ĠjilÄ§qu": 7366,
      "Ġkellhiex": 7367,
      "teni": 7368,
      "Ġnin": 7369,
      "Ġrimedji": 7370,
      "Ġadattament": 7371,
      "Ġaffettwati": 7372,
      "Ġqawwa": 7373,
      "Ð·": 7374,
      "Ġtwegibiet": 7375,
      "ĠmeÄ§ud": 7376,
      "Ġrabtiet": 7377,
      "wejjeg": 7378,
      "ĠÄ§tigiet": 7379,
      "Ġratione": 7380,
      "artikolu": 7381,
      "Ġbiha": 7382,
      "ensita": 7383,
      "Ġbihom": 7384,
      "dova": 7385,
      "Ġtinter": 7386,
      "Ġdinja": 7387,
      "disin": 7388,
      "Ġipprov": 7389,
      "Ġverzjonijiet": 7390,
      "Ġtall": 7391,
      "ĠÄ§wejjeg": 7392,
      "Ġterminazzjoni": 7393,
      "Ð³": 7394,
      "Ġvot": 7395,
      "Ġarmonizzati": 7396,
      "Ġslovakk": 7397,
      "Ġkomb": 7398,
      "Ġprz": 7399,
      "ĠÐ¿": 7400,
      "ĠtaÄ§dem": 7401,
      "Ġdivul": 7402,
      "ky": 7403,
      "konoxxu": 7404,
      "Ġsegretarjat": 7405,
      "Ġxah": 7406,
      "Ġkontabbilta": 7407,
      "ĠzgÄ§ir": 7408,
      "jenta": 7409,
      "Ġkonkret": 7410,
      "Ġikkontestati": 7411,
      "dra": 7412,
      "Ġhabitat": 7413,
      "Ġxahrejn": 7414,
      "Ġenergy": 7415,
      "Ġevitati": 7416,
      "Ġtapplikax": 7417,
      "Ġjippromwovu": 7418,
      "Ġjkopru": 7419,
      "Ġned": 7420,
      "wita": 7421,
      "Ġtesti": 7422,
      "Ġ883": 7423,
      "Ġusa": 7424,
      "kser": 7425,
      "essibbilta": 7426,
      "vabbli": 7427,
      "inata": 7428,
      "Ġkorea": 7429,
      "Ġpaz": 7430,
      "Ġrifuzjoni": 7431,
      "ĠgÄ§odda": 7432,
      "Ġminuti": 7433,
      "Ġmethyl": 7434,
      "Ġbaxxa": 7435,
      "Ġoutput": 7436,
      "Ġobbligati": 7437,
      "Ġ191": 7438,
      "Ġlimited": 7439,
      "Ġparaguna": 7440,
      "Ġmedika": 7441,
      "Ġfissi": 7442,
      "Ġmiti": 7443,
      "bc": 7444,
      "Ġawto": 7445,
      "kum": 7446,
      "ÖĢ": 7447,
      "Ġmultilaterali": 7448,
      "Ġnecessita": 7449,
      "Ġkimika": 7450,
      "Ġbiz": 7451,
      "gata": 7452,
      "ore": 7453,
      "Ġml": 7454,
      "orbi": 7455,
      "Ġimpjant": 7456,
      "tribwixxi": 7457,
      "Ġjikkontribwixxi": 7458,
      "Ġakkomodazzjoni": 7459,
      "Ġapprossimazzjoni": 7460,
      "Ġprezzju": 7461,
      "ĠÏĦ": 7462,
      "Ġ159": 7463,
      "Ġ187": 7464,
      "qija": 7465,
      "ĠtÄ§assir": 7466,
      "Ġrettifika": 7467,
      "ĠgÄ§eneb": 7468,
      "mine": 7469,
      "Ġzejda": 7470,
      "Ġprecizament": 7471,
      "Ġippubblikat": 7472,
      "Ġdefaul": 7473,
      "ses": 7474,
      "ĠÄ§aga": 7475,
      "Ġelettro": 7476,
      "Ġregu": 7477,
      "sky": 7478,
      "Ġimmun": 7479,
      "ac": 7480,
      "Ġpoter": 7481,
      "wanti": 7482,
      "Ġuman": 7483,
      "umpensa": 7484,
      "Ġtikkontribwixxi": 7485,
      "ats": 7486,
      "Ġinvolviment": 7487,
      "Ġpartikulari": 7488,
      "dux": 7489,
      "Ġles": 7490,
      "Ġirrilevanti": 7491,
      "pplimenta": 7492,
      "Ġtelevizjoni": 7493,
      "Ġjipprekludix": 7494,
      "Ġkol": 7495,
      "Ġ221": 7496,
      "tiona": 7497,
      "Ġsegretarju": 7498,
      "Ġabitwali": 7499,
      "Ġinformat": 7500,
      "Ġ575": 7501,
      "Ġkontribut": 7502,
      "Ġindonezja": 7503,
      "Ġ192": 7504,
      "Ġjg": 7505,
      "Ġgewz": 7506,
      "mpeti": 7507,
      "Ġ208": 7508,
      "Ġalternattiva": 7509,
      "kt": 7510,
      "Ġippjanar": 7511,
      "ĠjgÄ§od": 7512,
      "Ġjinter": 7513,
      "Ġiffirmat": 7514,
      "chen": 7515,
      "Ġmedia": 7516,
      "Ġsho": 7517,
      "Ġpreparati": 7518,
      "Ġkompitu": 7519,
      "Ġveterinarji": 7520,
      "ĠdgÄ§a": 7521,
      "Ġtiswija": 7522,
      "Ġkontropartijiet": 7523,
      "Ġossi": 7524,
      "Ġewlenija": 7525,
      "Ġrregolati": 7526,
      "ĠÄ§ajjin": 7527,
      "Ġ226": 7528,
      "xxew": 7529,
      "Ġmc": 7530,
      "Ġ216": 7531,
      "Ġpariri": 7532,
      "Ġporti": 7533,
      "Ġvalidu": 7534,
      "Ġkopji": 7535,
      "Ġregistri": 7536,
      "Ġ256": 7537,
      "Ġazzjon": 7538,
      "Ġderivati": 7539,
      "ves": 7540,
      "Ġgarantita": 7541,
      "lus": 7542,
      "Ġ255": 7543,
      "ĠâĹ»": 7544,
      "Ġipprovdut": 7545,
      "Ġ580": 7546,
      "klo": 7547,
      "Ġ1985": 7548,
      "Ġtfittex": 7549,
      "Ġantikompeti": 7550,
      "qj": 7551,
      "Ġ174": 7552,
      "Ġingred": 7553,
      "Ġekologi": 7554,
      "Ġcari": 7555,
      "Ġdomicil": 7556,
      "Ġfarmacew": 7557,
      "ny": 7558,
      "dif": 7559,
      "Ġcl": 7560,
      "ia": 7561,
      "Ġincer": 7562,
      "Ġcro": 7563,
      "Ġdistanza": 7564,
      "Ġparir": 7565,
      "Ġevitata": 7566,
      "Ġddeterminata": 7567,
      "biegÄ§": 7568,
      "Ġ181": 7569,
      "Ġ0805": 7570,
      "Ġgovernanza": 7571,
      "dom": 7572,
      "Ġcera": 7573,
      "Ġawtomatiku": 7574,
      "Ġjawtorizza": 7575,
      "vant": 7576,
      "Ġpsi": 7577,
      "Ġmanig": 7578,
      "ĠdaÄ§": 7579,
      "Ġallowance": 7580,
      "Ġkummercja": 7581,
      "Ġdomicilju": 7582,
      "mitati": 7583,
      "mbli": 7584,
      "Ġ194": 7585,
      "pprova": 7586,
      "Ã¸": 7587,
      "ĠÑģ": 7588,
      "Ġjintro": 7589,
      "zjal": 7590,
      "ĠÄ§ajt": 7591,
      "tea": 7592,
      "Ġtikser": 7593,
      "Ġkambju": 7594,
      "Ġ236": 7595,
      "Ġqox": 7596,
      "wista": 7597,
      "Ġnaq": 7598,
      "Ġjirrisje": 7599,
      "Ġ820": 7600,
      "Ġtramun": 7601,
      "pra": 7602,
      "Ġigg": 7603,
      "Ġezegwi": 7604,
      "Ġjmorru": 7605,
      "erti": 7606,
      "Ġdrabi": 7607,
      "Ġkredituri": 7608,
      "Ġstabbilixxiet": 7609,
      "Ġmmi": 7610,
      "Ġsostnut": 7611,
      "Ġesplicitu": 7612,
      "statazzjonijiet": 7613,
      "ĠngÄ§atat": 7614,
      "Ġtniggis": 7615,
      "Ġstudju": 7616,
      "ĠjitÄ§allew": 7617,
      "Ġjaccetta": 7618,
      "Ġtramuntana": 7619,
      "Ġizo": 7620,
      "Ġzebb": 7621,
      "cul": 7622,
      "peri": 7623,
      "Ġ173": 7624,
      "Ġizvizzera": 7625,
      "Ġkkontestat": 7626,
      "kistan": 7627,
      "Ġmore": 7628,
      "Ġkwestjonarju": 7629,
      "Ġdero": 7630,
      "Ġross": 7631,
      "Ġintitolata": 7632,
      "Ġrinnovabbli": 7633,
      "Ġppar": 7634,
      "Ġallegata": 7635,
      "Ġprovvedimenti": 7636,
      "Ġrimi": 7637,
      "btu": 7638,
      "Ġspir": 7639,
      "Ġvon": 7640,
      "Ġoffru": 7641,
      "Ġpjattaforma": 7642,
      "Ġnipproponi": 7643,
      "Ġregolamenta": 7644,
      "Ġmigrazzjoni": 7645,
      "Ġapplikabbilta": 7646,
      "cao": 7647,
      "Ġkollettivi": 7648,
      "Ġlabar": 7649,
      "Ġcredi": 7650,
      "Ġeffikacja": 7651,
      "Ġqoxra": 7652,
      "Ġprobabbli": 7653,
      "Ġtheddida": 7654,
      "Ġpatri": 7655,
      "Ġistabbilta": 7656,
      "Ġecon": 7657,
      "Ġstudji": 7658,
      "Ġsottomissjonijiet": 7659,
      "trollati": 7660,
      "Ġdown": 7661,
      "Ġartijiet": 7662,
      "Ġaggornament": 7663,
      "Ġmaj": 7664,
      "Ġkoerenza": 7665,
      "Ġpic": 7666,
      "Ġtlestija": 7667,
      "Ġtirrispondi": 7668,
      "Ġnof": 7669,
      "Ġfen": 7670,
      "yn": 7671,
      "Ġkonstatazzjonijiet": 7672,
      "Ġeng": 7673,
      "chtshof": 7674,
      "ĠdaÄ§al": 7675,
      "Ġjinnota": 7676,
      "Ġved": 7677,
      "Ġdaqqa": 7678,
      "ĠtibgÄ§at": 7679,
      "Ġkoerenti": 7680,
      "hie": 7681,
      "gib": 7682,
      "Ġpond": 7683,
      "Ġterza": 7684,
      "Ġmimli": 7685,
      "Ġlaboratorju": 7686,
      "Ġtimplimenta": 7687,
      "eÄ§Ä§a": 7688,
      "Ġç´": 7689,
      "Ġjiddikjara": 7690,
      "Ġppubblikata": 7691,
      "ettur": 7692,
      "Ġwei": 7693,
      "Ä§argu": 7694,
      "Ġeuropol": 7695,
      "ĠngÄ§ataw": 7696,
      "zione": 7697,
      "Ġ011": 7698,
      "tek": 7699,
      "Ġkoncernati": 7700,
      "Ġqbid": 7701,
      "lux": 7702,
      "Ġbelgjan": 7703,
      "Ġtikkonferma": 7704,
      "sitra": 7705,
      "Ġtradem": 7706,
      "Ġfigurattiva": 7707,
      "Ġflo": 7708,
      "Ġwaqfien": 7709,
      "ĠjiddaÄ§Ä§al": 7710,
      "Ġtixrid": 7711,
      "Ġseparazzjoni": 7712,
      "Ġtransp": 7713,
      "Ġ203": 7714,
      "Ġwera": 7715,
      "Ġbazika": 7716,
      "Ġekwivalenza": 7717,
      "Ġtitjiriet": 7718,
      "Ġkonsulenza": 7719,
      "Ġvu": 7720,
      "Ġ296": 7721,
      "ummer": 7722,
      "ĠxaÄ§mijiet": 7723,
      "Ġeurostat": 7724,
      "Ġkonvenuti": 7725,
      "Ġawtonomu": 7726,
      "Ġqi": 7727,
      "Ġmmani": 7728,
      "ĠseÄ§Ä§ew": 7729,
      "trat": 7730,
      "Ġtipproponi": 7731,
      "Ġdizabbilta": 7732,
      "ologika": 7733,
      "Ġchar": 7734,
      "Ġjimm": 7735,
      "Ġimnixx": 7736,
      "Ġmanteni": 7737,
      "Ġderogi": 7738,
      "Ġjezigi": 7739,
      "bw": 7740,
      "Ġ177": 7741,
      "Ġvalutazzjonijiet": 7742,
      "Ġkapitlu": 7743,
      "Ġorjenta": 7744,
      "zol": 7745,
      "jieda": 7746,
      "Ġimmunita": 7747,
      "Ġglo": 7748,
      "Ġevo": 7749,
      "Ġreklu": 7750,
      "gumenta": 7751,
      "Ġjirrapporta": 7752,
      "Ġ179": 7753,
      "Ġbqija": 7754,
      "Ġtetra": 7755,
      "cji": 7756,
      "cr": 7757,
      "Ġxej": 7758,
      "Ġikklassi": 7759,
      "Ġprevedi": 7760,
      "ppa": 7761,
      "Ġirka": 7762,
      "mark": 7763,
      "Ġmili": 7764,
      "Ġtirrapprezenta": 7765,
      "Ġ213": 7766,
      "Ġpoly": 7767,
      "Ġvvalu": 7768,
      "ologici": 7769,
      "xejn": 7770,
      "Ġ193": 7771,
      "ĠmaÄ§tura": 7772,
      "Ġdoppju": 7773,
      "Ġimgiba": 7774,
      "Ġslovakka": 7775,
      "Ġias": 7776,
      "Ġisforzi": 7777,
      "Ġfan": 7778,
      "Ġjiddependi": 7779,
      "Ġtrazm": 7780,
      "Ġbritta": 7781,
      "Ġattribu": 7782,
      "Ġssodisfati": 7783,
      "Ġfiducja": 7784,
      "dirizzaw": 7785,
      "Ġsuccessjoni": 7786,
      "Ġjikkontestaw": 7787,
      "Ġdot": 7788,
      "Ġdecimali": 7789,
      "Ġtallega": 7790,
      "Ġtransi": 7791,
      "Ġpreli": 7792,
      "Ġirgiel": 7793,
      "Ġawtonoma": 7794,
      "kel": 7795,
      "ĠimÄ§allas": 7796,
      "Ġjfisser": 7797,
      "Ġukraina": 7798,
      "Ġmanteniment": 7799,
      "Ġavveniment": 7800,
      "dentifika": 7801,
      "Ġfli": 7802,
      "Ġ217": 7803,
      "spri": 7804,
      "Ġawtonomija": 7805,
      "Ġespress": 7806,
      "ĠmagÄ§zul": 7807,
      "py": 7808,
      "Ġblu": 7809,
      "Ġtabil": 7810,
      "Ġgenerazzjoni": 7811,
      "dizzjon": 7812,
      "Ġtiddi": 7813,
      "Ġmessagg": 7814,
      "vjenu": 7815,
      "Ġatlanti": 7816,
      "Ġarmonizzata": 7817,
      "Ġsintetici": 7818,
      "Ġffirmat": 7819,
      "Ġ183": 7820,
      "Ġecha": 7821,
      "Ġprelimin": 7822,
      "Ġwisa": 7823,
      "Ġosservati": 7824,
      "Ġjispecifika": 7825,
      "lly": 7826,
      "Ġpotenzjal": 7827,
      "jk": 7828,
      "fija": 7829,
      "Ġesta": 7830,
      "Ġ621": 7831,
      "ĠÄ§asil": 7832,
      "strieÄ§": 7833,
      "Ġmicro": 7834,
      "ins": 7835,
      "Ġassigu": 7836,
      "Ġproducts": 7837,
      "Ä§aqq": 7838,
      "talment": 7839,
      "Ġ090": 7840,
      "Ġadita": 7841,
      "ning": 7842,
      "Ġsessjoni": 7843,
      "Ġruma": 7844,
      "ĠtabilÄ§aqq": 7845,
      "burg": 7846,
      "Ġ288": 7847,
      "Ġ280": 7848,
      "Ġcoun": 7849,
      "vc": 7850,
      "Ġ209": 7851,
      "Ġbonds": 7852,
      "Ġimmaniggjar": 7853,
      "Ġjindirizzaw": 7854,
      "Ġwest": 7855,
      "Ġespozizzjoni": 7856,
      "Ġpozittiv": 7857,
      "ĠsetgÄ§ux": 7858,
      "Ġhydro": 7859,
      "Ġcommission": 7860,
      "Ġhea": 7861,
      "Ġtopera": 7862,
      "Ġ659": 7863,
      "Ġbrussel": 7864,
      "Ġ1177": 7865,
      "Ġjizviluppaw": 7866,
      "Ġmarittimu": 7867,
      "ĠsÄ§ab": 7868,
      "Ġprecizi": 7869,
      "Ġ278": 7870,
      "Ġjusti": 7871,
      "Ġ530": 7872,
      "Ġannullat": 7873,
      "Ġtb": 7874,
      "Ġreazzjoni": 7875,
      "tudni": 7876,
      "tell": 7877,
      "Ġ225": 7878,
      "Ġekwipa": 7879,
      "mbolu": 7880,
      "Ġaro": 7881,
      "Ġindikata": 7882,
      "Ġintegrati": 7883,
      "Ġfree": 7884,
      "ĠwÄ§ud": 7885,
      "Ð¾Ð²": 7886,
      "tira": 7887,
      "Ġipprovduti": 7888,
      "endu": 7889,
      "Ġ231": 7890,
      "var": 7891,
      "Ġifr": 7892,
      "Ġikopri": 7893,
      "Ġnno": 7894,
      "Ġhar": 7895,
      "Ġindikatur": 7896,
      "Ġtfakkar": 7897,
      "lementari": 7898,
      "Ġsani": 7899,
      "Ġ202": 7900,
      "Ġkuncetti": 7901,
      "Ġispecifikazzjoni": 7902,
      "eld": 7903,
      "Ġambi": 7904,
      "Ġjirrispetta": 7905,
      "Ġ228": 7906,
      "uer": 7907,
      "Ġtintalab": 7908,
      "ĠgÄ§otjiet": 7909,
      "mara": 7910,
      "ĠsigÄ§at": 7911,
      "Ġjinnoti": 7912,
      "Ġrik": 7913,
      "Ġ950": 7914,
      "Ġdisswa": 7915,
      "finanzjament": 7916,
      "ĠÄ§all": 7917,
      "ĠsaÄ§an": 7918,
      "Ġ215": 7919,
      "Ġunion": 7920,
      "Ġkostanti": 7921,
      "Ġdublin": 7922,
      "Ġdettaljata": 7923,
      "Ġparagunabbli": 7924,
      "Ġstipulata": 7925,
      "Ġpolitiku": 7926,
      "Ġofferent": 7927,
      "Ġbijodi": 7928,
      "ttorja": 7929,
      "Ġgappun": 7930,
      "ĠsaÄ§ansitra": 7931,
      "ĠÏĢ": 7932,
      "Ġidentifikata": 7933,
      "Ġwriet": 7934,
      "Ġdefaulted": 7935,
      "ĠingÄ§ata": 7936,
      "ĠmgÄ§ammra": 7937,
      "Ġmnizzla": 7938,
      "Ġcommuni": 7939,
      "Ġassocia": 7940,
      "flet": 7941,
      "Ġsis": 7942,
      "Ġsewwieq": 7943,
      "Ä§oloq": 7944,
      "Ġizommu": 7945,
      "Ġtiggarantixxi": 7946,
      "Ġfederazzjoni": 7947,
      "Ġbov": 7948,
      "Ġsodju": 7949,
      "ssumi": 7950,
      "Ġnetworks": 7951,
      "Ġfondatezza": 7952,
      "Ġtaw": 7953,
      "poli": 7954,
      "Ġact": 7955,
      "Ġjinnotifikaw": 7956,
      "Ġisim": 7957,
      "Ġingusta": 7958,
      "Ġstate": 7959,
      "hieda": 7960,
      "Ġportijiet": 7961,
      "mide": 7962,
      "Ġ251": 7963,
      "Ġkwalifikanti": 7964,
      "Ġimmagni": 7965,
      "Ġetta": 7966,
      "Õ¸Õ": 7967,
      "Ġxhieda": 7968,
      "Ġrlz": 7969,
      "ĠÄ§att": 7970,
      "Ġjipproduci": 7971,
      "qiq": 7972,
      "Ġjigix": 7973,
      "bok": 7974,
      "Ġvittmi": 7975,
      "Ġrelattiva": 7976,
      "Ġmsemmijin": 7977,
      "Ġkunsinni": 7978,
      "Ġkompost": 7979,
      "sieÄ§ba": 7980,
      "ns": 7981,
      "Ġpy": 7982,
      "Ġnotifiki": 7983,
      "fushom": 7984,
      "stati": 7985,
      "Ġidrogenu": 7986,
      "Ġoggezzjoni": 7987,
      "Ġstabbli": 7988,
      "vk": 7989,
      "Ġlvant": 7990,
      "Ġ232": 7991,
      "Ġtidentifika": 7992,
      "Ġjien": 7993,
      "Ġagenda": 7994,
      "Ġintegrali": 7995,
      "Ġjsa": 7996,
      "Ġfla": 7997,
      "Ġinerenti": 7998,
      "sko": 7999,
      "Ġkklassifikat": 8000,
      "Ġtemporanji": 8001,
      "Ġaffidabbli": 8002,
      "Ġrev": 8003,
      "Ġfilm": 8004,
      "Ġmsa": 8005,
      "fidi": 8006,
      "Ġ750": 8007,
      "qf": 8008,
      "Ġirregolarita": 8009,
      "Ġ195": 8010,
      "Ġbet": 8011,
      "dijiet": 8012,
      "Ġmaturi": 8013,
      "Ġ212": 8014,
      "Ġimpu": 8015,
      "jja": 8016,
      "tain": 8017,
      "Ġmew": 8018,
      "riment": 8019,
      "ĠÎº": 8020,
      "Ġdirettorat": 8021,
      "Ġinkor": 8022,
      "Ġcirkolazzjoni": 8023,
      "Ġ2645": 8024,
      "ĠqatgÄ§at": 8025,
      "0010": 8026,
      "Ġesplicitament": 8027,
      "bur": 8028,
      "Ġ388": 8029,
      "ÑĢÐ°": 8030,
      "Ġrceviet": 8031,
      "Ġkoncessjonijiet": 8032,
      "bien": 8033,
      "Ġtqajjem": 8034,
      "Ġgappuniz": 8035,
      "Ġ235": 8036,
      "Ġpprezentaw": 8037,
      "120": 8038,
      "Ġ222": 8039,
      "Ġ241": 8040,
      "Ġvertika": 8041,
      "disfatta": 8042,
      "Ġjaqbzu": 8043,
      "Ġnv": 8044,
      "ĠÄ§elu": 8045,
      "med": 8046,
      "Ġplan": 8047,
      "Ġsupervizorji": 8048,
      "Ġpdf": 8049,
      "Ġkre": 8050,
      "Ġdivulgazzjoni": 8051,
      "lamenti": 8052,
      "Ġprekaw": 8053,
      "ffavo": 8054,
      "Ġfal": 8055,
      "lani": 8056,
      "Ġ188": 8057,
      "Ġpal": 8058,
      "Ġjittratta": 8059,
      "Ġtna": 8060,
      "batu": 8061,
      "Ä§un": 8062,
      "ĠgÄ§otja": 8063,
      "Ġliberali": 8064,
      "Ġimpera": 8065,
      "Ġmiljuni": 8066,
      "Ġggustifikata": 8067,
      "Ġ268": 8068,
      "Ġrekords": 8069,
      "lina": 8070,
      "Ġsm": 8071,
      "Ġmitigazzjoni": 8072,
      "erati": 8073,
      "Ġragonevolment": 8074,
      "Ġssostitwi": 8075,
      "Ġkoncernat": 8076,
      "Ġfeg": 8077,
      "Ġmaqs": 8078,
      "inarja": 8079,
      "Ġelec": 8080,
      "Ġsen": 8081,
      "ĠsÄ§aÄ§": 8082,
      "gawdu": 8083,
      "Ġdr": 8084,
      "Ġtikketta": 8085,
      "Ġforesta": 8086,
      "Ġdataba": 8087,
      "Ġzero": 8088,
      "Ġtippreciza": 8089,
      "Ġveterinarju": 8090,
      "ĠtinÄ§a": 8091,
      "sinhar": 8092,
      "Ġffissa": 8093,
      "Ġkancellazzjoni": 8094,
      "Ġjitwa": 8095,
      "Ġfacilment": 8096,
      "Ġrispons": 8097,
      "Ġtex": 8098,
      "Ġcorporation": 8099,
      "Ġmoldova": 8100,
      "Ġ2025": 8101,
      "kis": 8102,
      "Ġordnijiet": 8103,
      "ĠÃ°": 8104,
      "Ġistudji": 8105,
      "Ġgol": 8106,
      "ĠÂ§": 8107,
      "Ġezentati": 8108,
      "Ġnondiskriminazzjoni": 8109,
      "Ġintegrata": 8110,
      "Ġ590": 8111,
      "Ġbtng": 8112,
      "fficjent": 8113,
      "bilan": 8114,
      "Ġintelli": 8115,
      "Ġpuri": 8116,
      "Ġbdil": 8117,
      "tot": 8118,
      "Ġsovra": 8119,
      "kkupa": 8120,
      "kologi": 8121,
      "bal": 8122,
      "Ġ321": 8123,
      "him": 8124,
      "Ġjoffru": 8125,
      "ance": 8126,
      "meri": 8127,
      "Ġtinf": 8128,
      "020": 8129,
      "Ġragg": 8130,
      "Ġkontrollur": 8131,
      "zost": 8132,
      "Ġfinlandi": 8133,
      "Ġaccettata": 8134,
      "Ġtotalment": 8135,
      "Ġiggustifikata": 8136,
      "use": 8137,
      "ãĤ¯": 8138,
      "Ġaccettati": 8139,
      "Ġinezami": 8140,
      "Ġjitqa": 8141,
      "Ġsatelli": 8142,
      "Ġ760": 8143,
      "Ġ245": 8144,
      "Ġsaqa": 8145,
      "Ġindirizzat": 8146,
      "Ġffaci": 8147,
      "Ġspecijiet": 8148,
      "Ġpercentwal": 8149,
      "ĠbogÄ§od": 8150,
      "llu": 8151,
      "Ġproprjetajiet": 8152,
      "Ġ206": 8153,
      "Ġorigina": 8154,
      "Ġnegattiva": 8155,
      "bona": 8156,
      "Ġvjet": 8157,
      "Ġesportati": 8158,
      "Ġinterventi": 8159,
      "Ġpass": 8160,
      "Ġ1980": 8161,
      "Ġeffikaci": 8162,
      "Ġevazjoni": 8163,
      "Ġflussi": 8164,
      "Ġjinvokaw": 8165,
      "Ġtiffi": 8166,
      "gati": 8167,
      "Ġffinanzjati": 8168,
      "Ġtirrikonoxxi": 8169,
      "bro": 8170,
      "Ġrig": 8171,
      "Ġegzost": 8172,
      "Ġkostituzzjoni": 8173,
      "jad": 8174,
      "Ġordinament": 8175,
      "Ġlon": 8176,
      "Ä§alla": 8177,
      "Ġvici": 8178,
      "Ġditti": 8179,
      "Ġttrattati": 8180,
      "umi": 8181,
      "Ġ249": 8182,
      "Ġganc": 8183,
      "gÄ§in": 8184,
      "Ġannimal": 8185,
      "Ġdona": 8186,
      "ette": 8187,
      "ÏīÎ½": 8188,
      "ĠtitÄ§allas": 8189,
      "Ġassenjat": 8190,
      "Ġdebitament": 8191,
      "Ġiddecieda": 8192,
      "Ġ2204": 8193,
      "Ġnnotat": 8194,
      "¤ľ": 8195,
      "ĠgÄ§amlu": 8196,
      "Ġ252": 8197,
      "Ġ61162": 8198,
      "Ġnofsinhar": 8199,
      "ummercjali": 8200,
      "Ġ223": 8201,
      "ĠjgÄ§addi": 8202,
      "Ġservice": 8203,
      "Ġcod": 8204,
      "ggerixxi": 8205,
      "stabu": 8206,
      "ĠiseÄ§Ä§": 8207,
      "Ġssodisfatti": 8208,
      "Ġhand": 8209,
      "rossa": 8210,
      "Ġ1986": 8211,
      "Ġæ¤ľ": 8212,
      "ese": 8213,
      "Ġbal": 8214,
      "Ġizviluppi": 8215,
      "Ġezawr": 8216,
      "Ġrikjesta": 8217,
      "Ġç´¢": 8218,
      "Ġ420": 8219,
      "Ġadattati": 8220,
      "Ġaffermazzjoni": 8221,
      "Ġkondizzjoni": 8222,
      "Ġiddefinit": 8223,
      "Ġdinjija": 8224,
      "Ġvarjeta": 8225,
      "Ġaggornata": 8226,
      "wed": 8227,
      "tors": 8228,
      "Ġswa": 8229,
      "Ġimfa": 8230,
      "ete": 8231,
      "Ġvarjetajiet": 8232,
      "Ġjirrikjedi": 8233,
      "Ġibbli": 8234,
      "Ġgoverna": 8235,
      "Ġtigix": 8236,
      "Ġreklutagg": 8237,
      "Ġestrazzjoni": 8238,
      "Ġvjol": 8239,
      "ssija": 8240,
      "Ġdevel": 8241,
      "Ġezawrjenti": 8242,
      "Ġjiggaranti": 8243,
      "Ġ238": 8244,
      "Ġprodotta": 8245,
      "Ġtelefon": 8246,
      "Ġtba": 8247,
      "Ġkontabilita": 8248,
      "Ġinvestitur": 8249,
      "Ġkoefficjent": 8250,
      "Ġkkalkolat": 8251,
      "Ġkard": 8252,
      "Ġkartun": 8253,
      "varja": 8254,
      "Ġrussa": 8255,
      "Ġtisti": 8256,
      "star": 8257,
      "Ġkusto": 8258,
      "Ġsogg": 8259,
      "daw": 8260,
      "tiehmu": 8261,
      "Ġingusti": 8262,
      "Ġkkwali": 8263,
      "Ġtajers": 8264,
      "Ġzdied": 8265,
      "Ġingrossa": 8266,
      "duciet": 8267,
      "Ġistudju": 8268,
      "Ġ333": 8269,
      "Ġjicca": 8270,
      "cilja": 8271,
      "Ġgreen": 8272,
      "Ġintenzjon": 8273,
      "Ġznatura": 8274,
      "Ġtinnotifika": 8275,
      "Ġizvezja": 8276,
      "Ġkontenzjuzi": 8277,
      "Ġinsufficjenti": 8278,
      "Ġinclu": 8279,
      "ĠfergÄ§at": 8280,
      "Ġbre": 8281,
      "lub": 8282,
      "pan": 8283,
      "ressi": 8284,
      "Ġjevalwa": 8285,
      "ĠjibgÄ§at": 8286,
      "Ġesk": 8287,
      "ezr": 8288,
      "Ġkkalkulat": 8289,
      "Ġkonkreti": 8290,
      "Ġwe": 8291,
      "certi": 8292,
      "Ġjiffacilitaw": 8293,
      "Ġkra": 8294,
      "ht": 8295,
      "Ġdestinatarji": 8296,
      "Ġgovt": 8297,
      "enyl": 8298,
      "con": 8299,
      "Ġinizjattivi": 8300,
      "orts": 8301,
      "Ġ429": 8302,
      "ttxu": 8303,
      "zidu": 8304,
      "Ġ521": 8305,
      "Ġerja": 8306,
      "Ġddefiniti": 8307,
      "ware": 8308,
      "Ġdenomina": 8309,
      "Ġkariga": 8310,
      "Ġdirec": 8311,
      "Ġwassal": 8312,
      "llari": 8313,
      "Ġsteel": 8314,
      "Ġdeutsch": 8315,
      "Ġdwarhom": 8316,
      "Ġkonnessi": 8317,
      "Ġpreliminarjament": 8318,
      "Ġfedera": 8319,
      "Ġia": 8320,
      "Ġrelig": 8321,
      "Ġrevi": 8322,
      "Ġonx": 8323,
      "Ġrezi": 8324,
      "Ġsettijiet": 8325,
      "rakkomanda": 8326,
      "Ġtaqsimiet": 8327,
      "ĠjiddaÄ§Ä§lu": 8328,
      "Ġdijametru": 8329,
      "nera": 8330,
      "Ġoe": 8331,
      "Ġtikkostitwixxix": 8332,
      "qiegÄ§da": 8333,
      "Ġnotifikat": 8334,
      "Ġae": 8335,
      "soli": 8336,
      "Ġlment": 8337,
      "Ġjinga": 8338,
      "Ġassigura": 8339,
      "Ġpopolari": 8340,
      "Ġazjenda": 8341,
      "Ġgomma": 8342,
      "Ġucu": 8343,
      "Ġober": 8344,
      "Ġ266": 8345,
      "Ġ247": 8346,
      "Ġtintla": 8347,
      "egal": 8348,
      "ĠjÄ§a": 8349,
      "Ġrecenti": 8350,
      "Ġmovi": 8351,
      "Ġddetta": 8352,
      "Ġtechn": 8353,
      "oi": 8354,
      "orzju": 8355,
      "Ġsostnuta": 8356,
      "Ġincident": 8357,
      "Ġrct": 8358,
      "wiecie": 8359,
      "Ġkompjuter": 8360,
      "Ġkisi": 8361,
      "Ġjirrifletti": 8362,
      "geni": 8363,
      "onal": 8364,
      "Ġmalli": 8365,
      "Ġoggettiva": 8366,
      "Ġtirrikjedi": 8367,
      "Ġjiggarantixxu": 8368,
      "Ġ273": 8369,
      "Ġbutir": 8370,
      "ĠtiftaÄ§": 8371,
      "Î¿ÏĤ": 8372,
      "Ġ295": 8373,
      "Ġkomplet": 8374,
      "Ġferrovjarja": 8375,
      "jls": 8376,
      "organi": 8377,
      "Ġmorali": 8378,
      "Ġ186": 8379,
      "Ġeventwalment": 8380,
      "Ġcovid": 8381,
      "Ä§add": 8382,
      "cjati": 8383,
      "Ġ680": 8384,
      "flettu": 8385,
      "Ġeduka": 8386,
      "ĠjÄ§allas": 8387,
      "Ġkotba": 8388,
      "Ġmaturita": 8389,
      "Ġobbligatorji": 8390,
      "Ġtera": 8391,
      "Ġritra": 8392,
      "Ġ325": 8393,
      "Ġrizervi": 8394,
      "com": 8395,
      "Ġ2024": 8396,
      "Ġxvi": 8397,
      "Ġkompetittivita": 8398,
      "Ġawdjo": 8399,
      "Ġwhich": 8400,
      "Ġ254": 8401,
      "pha": 8402,
      "Ġ269": 8403,
      "Ġarlo": 8404,
      "Ġistabbilimenti": 8405,
      "ĠjgÄ§ad": 8406,
      "Ġpowiecie": 8407,
      "Ġkriminalita": 8408,
      "ĠbagÄ§tet": 8409,
      "Ġrikonoxxut": 8410,
      "hei": 8411,
      "Ġintrodotti": 8412,
      "Ġammissjoni": 8413,
      "Ġesa": 8414,
      "Ġjmiss": 8415,
      "Ġprotection": 8416,
      "Ġregula": 8417,
      "dad": 8418,
      "cf": 8419,
      "ĠiÄ§allas": 8420,
      "Ġ570": 8421,
      "Ġnominali": 8422,
      "Ġhigh": 8423,
      "Ġeligibbilta": 8424,
      "300": 8425,
      "ĠtintbagÄ§at": 8426,
      "2000": 8427,
      "Ġbrej": 8428,
      "ĠÄ§el": 8429,
      "Ġbdiet": 8430,
      "Ġinbejjed": 8431,
      "rju": 8432,
      "Ġstabbilimenti": 8433,
      "Ġseparatament": 8434,
      "cju": 8435,
      "Ġjafu": 8436,
      "Ġspiza": 8437,
      "formazzjoni": 8438,
      "Ġlikwidita": 8439,
      "Ġsostna": 8440,
      "ensabbli": 8441,
      "stitw": 8442,
      "Ġ282": 8443,
      "Ġimplimentata": 8444,
      "Ġextra": 8445,
      "Ġstandardizzat": 8446,
      "Ġcredit": 8447,
      "Ġserja": 8448,
      "Ġcrm": 8449,
      "Ġtindif": 8450,
      "Ġtaqbez": 8451,
      "Ġtlie": 8452,
      "Ġtirregola": 8453,
      "Ġdipartimenti": 8454,
      "Ġjikkawza": 8455,
      "Ġallegazzjonijiet": 8456,
      "Ġsjieda": 8457,
      "edded": 8458,
      "Ġvera": 8459,
      "Ġ308": 8460,
      "Ġsomom": 8461,
      "ĠqamÄ§ir": 8462,
      "foll": 8463,
      "llega": 8464,
      "boli": 8465,
      "mas": 8466,
      "Ġappogga": 8467,
      "Ġinteressata": 8468,
      "Ġsekondarju": 8469,
      "030": 8470,
      "ĠtisÄ§in": 8471,
      "Ġsegwitu": 8472,
      "Ġispezzjonijiet": 8473,
      "Ġstan": 8474,
      "cho": 8475,
      "Ġikkalku": 8476,
      "Ġtiddefinixxi": 8477,
      "Ġferroviji": 8478,
      "end": 8479,
      "ĠizgÄ§ar": 8480,
      "Ġale": 8481,
      "Ġespressi": 8482,
      "oniet": 8483,
      "Ġrtirar": 8484,
      "Ġikkonstatat": 8485,
      "Ġikkaw": 8486,
      "ekon": 8487,
      "Ġneder": 8488,
      "ĠimÄ§a": 8489,
      "Ġsostanzjalment": 8490,
      "Ġappellat": 8491,
      "Ġstrategija": 8492,
      "lori": 8493,
      "Ġkalendarja": 8494,
      "Ġiggustifikat": 8495,
      "Ġinta": 8496,
      "Ġorganici": 8497,
      "Ġsfor": 8498,
      "Ġimmigra": 8499,
      "Ġzvan": 8500,
      "Ġrapprezentattiv": 8501,
      "Ġenerge": 8502,
      "Ġimressaq": 8503,
      "ĠtaÄ§lit": 8504,
      "Ġdmir": 8505,
      "Ġtindirizza": 8506,
      "Ġ214": 8507,
      "Ġmiksijin": 8508,
      "Ġ243": 8509,
      "Ġtwissija": 8510,
      "Ġgtc": 8511,
      "ĠtÄ§alli": 8512,
      "Ġkoezjoni": 8513,
      "Ġap": 8514,
      "Ġmoder": 8515,
      "Ġkorr": 8516,
      "Ġiskala": 8517,
      "ĠqtugÄ§": 8518,
      "Ġzriera": 8519,
      "110": 8520,
      "Ġjipprojbixxi": 8521,
      "Ġdixxiplinari": 8522,
      "Ġvulnera": 8523,
      "Ġjoq": 8524,
      "Ġsirja": 8525,
      "Ġjirriflettu": 8526,
      "Ġgai": 8527,
      "ssel": 8528,
      "emma": 8529,
      "pressjoni": 8530,
      "Ġpatrimon": 8531,
      "Ġekwipagg": 8532,
      "talbu": 8533,
      "spost": 8534,
      "Ġ297": 8535,
      "Ġkkundannat": 8536,
      "lands": 8537,
      "Ġppubblikat": 8538,
      "ĠzrieragÄ§": 8539,
      "Ġepi": 8540,
      "Ġallin": 8541,
      "Ġchemi": 8542,
      "Ġjqa": 8543,
      "Ġcat": 8544,
      "Ġsimplifikazzjoni": 8545,
      "Ġoperattiv": 8546,
      "nija": 8547,
      "Ġaccettabbli": 8548,
      "Ġassenjati": 8549,
      "ĠsseÄ§Ä§": 8550,
      "neÄ§Ä§a": 8551,
      "Ġsodisfacenti": 8552,
      "Ġccitati": 8553,
      "Ġgrieg": 8554,
      "ĠjgÄ§addu": 8555,
      "Ð¸Ñı": 8556,
      "Ġjinftiehem": 8557,
      "Ġddeterminati": 8558,
      "Ġ335": 8559,
      "Ġsz": 8560,
      "Ġbic": 8561,
      "metti": 8562,
      "Ġdati": 8563,
      "Ġportafoll": 8564,
      "Ġ301": 8565,
      "ĠingÄ§atat": 8566,
      "Ġdiligenza": 8567,
      "Ġgs": 8568,
      "Ġjallega": 8569,
      "Ġikkun": 8570,
      "Ġmistoqsija": 8571,
      "Ġsalarju": 8572,
      "Ġidentiku": 8573,
      "Ġjiem": 8574,
      "Ġ248": 8575,
      "qot": 8576,
      "ĠjitqiegÄ§du": 8577,
      "Ġlg": 8578,
      "Ġmfi": 8579,
      "ĠtiegÄ§": 8580,
      "bilizzazzjoni": 8581,
      "Ġklassifikati": 8582,
      "Ġshall": 8583,
      "Ġjintemm": 8584,
      "ãĥĪ": 8585,
      "Ġ302": 8586,
      "ye": 8587,
      "ÑģÑĤ": 8588,
      "Ġssi": 8589,
      "Ġmwa": 8590,
      "Ġstrettament": 8591,
      "Ġfp": 8592,
      "Ġimwa": 8593,
      "wieg": 8594,
      "Ġimplikazzjonijiet": 8595,
      "porazzjoni": 8596,
      "Ġ224": 8597,
      "gawdi": 8598,
      "Ġkamra": 8599,
      "Ġ196": 8600,
      "Ġkapitoli": 8601,
      "Ġ584": 8602,
      "Ġcur": 8603,
      "Ġvalidi": 8604,
      "Ġjillimitaw": 8605,
      "Ġarki": 8606,
      "Ġindustriji": 8607,
      "ĠsemgÄ§et": 8608,
      "ÃŁ": 8609,
      "Ġmf": 8610,
      "Ġifrs": 8611,
      "ĠdaÄ§Ä§al": 8612,
      "9000": 8613,
      "Ġjippreciza": 8614,
      "Ġpon": 8615,
      "ĠgÄ§er": 8616,
      "Ġmizmum": 8617,
      "nac": 8618,
      "Ġfranci": 8619,
      "waltungs": 8620,
      "Ġsidien": 8621,
      "Ġappelli": 8622,
      "Ġparigi": 8623,
      "Ġess": 8624,
      "Ġprivattivi": 8625,
      "sts": 8626,
      "Ġyl": 8627,
      "ĠÄ§oss": 8628,
      "Ġ233": 8629,
      "Ġcelloli": 8630,
      "Ġ275": 8631,
      "Ġque": 8632,
      "Ġestratt": 8633,
      "Ġtam": 8634,
      "Ġeccessiv": 8635,
      "Ġpjanci": 8636,
      "Ġapparti": 8637,
      "Ġbazijiet": 8638,
      "Ġoi": 8639,
      "Ġband": 8640,
      "rieti": 8641,
      "Ġkundanna": 8642,
      "Ġsostitwita": 8643,
      "Ġ1000": 8644,
      "Ġjemendaw": 8645,
      "Ġrd": 8646,
      "fon": 8647,
      "Ġ219": 8648,
      "Ġmaqbu": 8649,
      "Ġprofitta": 8650,
      "Ġkondotta": 8651,
      "Ġgermanizi": 8652,
      "Ġtranzitorji": 8653,
      "Ġjirrikonoxxu": 8654,
      "600": 8655,
      "bigÄ§": 8656,
      "ĠfaÄ§am": 8657,
      "iela": 8658,
      "Ġtixtieq": 8659,
      "Ġtemporis": 8660,
      "Ġmargini": 8661,
      "Ġft": 8662,
      "Ġum": 8663,
      "Ġ650": 8664,
      "Ġleg": 8665,
      "Ġ262": 8666,
      "llera": 8667,
      "Ġtalbu": 8668,
      "bt": 8669,
      "skim": 8670,
      "Ġanci": 8671,
      "Ġzgurati": 8672,
      "Ġtestendi": 8673,
      "gia": 8674,
      "ĠtiegÄ§ek": 8675,
      "valuta": 8676,
      "Ġjiffissa": 8677,
      "Ġexce": 8678,
      "Ġrezil": 8679,
      "Ä§Ä§ad": 8680,
      "king": 8681,
      "ptu": 8682,
      "ery": 8683,
      "Ġorganu": 8684,
      "Ġrisposti": 8685,
      "Ġtfix": 8686,
      "Ġkumpensat": 8687,
      "Ġtaric": 8688,
      "Ġgwar": 8689,
      "Ġezercitat": 8690,
      "Ġdeskritta": 8691,
      "Ġinaq": 8692,
      "Ġtirrileva": 8693,
      "Ġprogressi": 8694,
      "Ġfertili": 8695,
      "Ġâī¥": 8696,
      "Ġkustodja": 8697,
      "gÄ§arraf": 8698,
      "Ġdia": 8699,
      "Ġincidenti": 8700,
      "Ġspanjola": 8701,
      "Ġdefinittivi": 8702,
      "Ġkombustjoni": 8703,
      "Ġvjetnam": 8704,
      "eli": 8705,
      "Ġala": 8706,
      "Ġtnissil": 8707,
      "Ġ271": 8708,
      "Ġdon": 8709,
      "Ġoggettivament": 8710,
      "Ġmanigerjali": 8711,
      "br": 8712,
      "Ġitwal": 8713,
      "Ġformoli": 8714,
      "web": 8715,
      "Ġkaptan": 8716,
      "nii": 8717,
      "Ġunder": 8718,
      "fac": 8719,
      "vela": 8720,
      "djati": 8721,
      "Ġlikwidi": 8722,
      "Ġisostnu": 8723,
      "ĠjagÄ§zlu": 8724,
      "Ġmehmuza": 8725,
      "Ġeskl": 8726,
      "Ġtispjega": 8727,
      "Ġabjad": 8728,
      "Ġbn": 8729,
      "Ġfatturat": 8730,
      "Ġezatta": 8731,
      "Ġezitu": 8732,
      "Õ«Õ": 8733,
      "ĠÄ§amrija": 8734,
      "Ġrotta": 8735,
      "Ġjintalab": 8736,
      "Ġristrutturazzjoni": 8737,
      "Ġcru": 8738,
      "Ġdil": 8739,
      "Ġnies": 8740,
      "Ġterga": 8741,
      "Ġpn": 8742,
      "Ġ257": 8743,
      "ulari": 8744,
      "ordina": 8745,
      "Ġtaccetta": 8746,
      "Ġjerga": 8747,
      "Ġspiss": 8748,
      "Ġprzez": 8749,
      "Ġjivverifikaw": 8750,
      "Ġango": 8751,
      "ossi": 8752,
      "ĠÐ¸": 8753,
      "Ġsottoskri": 8754,
      "Ġppubblikati": 8755,
      "Ġpotenzjalment": 8756,
      "Ġnikil": 8757,
      "Ġ293": 8758,
      "Ġakp": 8759,
      "lio": 8760,
      "Ġrt": 8761,
      "arrba": 8762,
      "Ġmodifikati": 8763,
      "Ġnewtralita": 8764,
      "Ġ1977": 8765,
      "vy": 8766,
      "Ġportugiz": 8767,
      "ĠÄ§azniet": 8768,
      "900": 8769,
      "Ġhan": 8770,
      "Ġvj": 8771,
      "ĠÐ½": 8772,
      "Ġinteroperabbilta": 8773,
      "Ġclo": 8774,
      "Ä§iet": 8775,
      "oka": 8776,
      "Ġkomun": 8777,
      "Ġinvolut": 8778,
      "sz": 8779,
      "Ġinkariga": 8780,
      "milx": 8781,
      "Ġ229": 8782,
      "Ġsuperfic": 8783,
      "ttu": 8784,
      "Ġjiffurmaw": 8785,
      "Ġfinancial": 8786,
      "Ġela": 8787,
      "Ġ2201": 8788,
      "rutin": 8789,
      "Ġ810": 8790,
      "Ġelettrika": 8791,
      "ĠjingÄ§a": 8792,
      "Ġry": 8793,
      "Ġ287": 8794,
      "Ġwajer": 8795,
      "Ġimmedjat": 8796,
      "Ġkjari": 8797,
      "Ġ291": 8798,
      "Ġfili": 8799,
      "Ġtoq": 8800,
      "gesetz": 8801,
      "Ġtasal": 8802,
      "Ġwyz": 8803,
      "ogg": 8804,
      "Ġtp": 8805,
      "Ġkonsultattiv": 8806,
      "Ġdemm": 8807,
      "Ġevidenti": 8808,
      "Ġspazju": 8809,
      "ske": 8810,
      "Ġly": 8811,
      "Ġqar": 8812,
      "ĠtilÄ§aq": 8813,
      "ĠuÄ§ud": 8814,
      "mit": 8815,
      "Ġimplimentat": 8816,
      "Ġ279": 8817,
      "Ġinvest": 8818,
      "Ġ9695": 8819,
      "Ġrotanti": 8820,
      "Ġpublic": 8821,
      "ssaÄ§Ä§aÄ§": 8822,
      "Ġgh": 8823,
      "ĠjitneÄ§Ä§": 8824,
      "tiequ": 8825,
      "Ġkali": 8826,
      "Ġtqie": 8827,
      "wieni": 8828,
      "ure": 8829,
      "Ġ244": 8830,
      "Ġjikkontrolla": 8831,
      "Ġbankarji": 8832,
      "Ġgha": 8833,
      "Ġante": 8834,
      "Ġungeriz": 8835,
      "Ġtag": 8836,
      "Ġkawzali": 8837,
      "Ġittratta": 8838,
      "Ġpizijiet": 8839,
      "sjoni": 8840,
      "Ġatomi": 8841,
      "Ġizz": 8842,
      "tre": 8843,
      "Ġsottostanti": 8844,
      "stakola": 8845,
      "Ġmaz": 8846,
      "Ġ259": 8847,
      "ettjar": 8848,
      "Ġinkorporati": 8849,
      "Ġmerlu": 8850,
      "Ġzin": 8851,
      "Ġparall": 8852,
      "Ġakkordji": 8853,
      "Ġsoftwer": 8854,
      "Ġdis": 8855,
      "Ġ318": 8856,
      "Ġelenkat": 8857,
      "Ġtipprojbixxi": 8858,
      "Ġinfrast": 8859,
      "ggu": 8860,
      "Ġinfer": 8861,
      "fikar": 8862,
      "040": 8863,
      "Ġkostitw": 8864,
      "ques": 8865,
      "annwali": 8866,
      "Ġstruzzjonijiet": 8867,
      "Ġrelattivi": 8868,
      "Ġkorrispondenza": 8869,
      "Ġhs": 8870,
      "Ġxew": 8871,
      "ĠtqiegÄ§ed": 8872,
      "Ġrapprezentazzjoni": 8873,
      "Ġ468": 8874,
      "Ġrkup": 8875,
      "Ġregolarment": 8876,
      "lum": 8877,
      "Ġwiki": 8878,
      "Ġinterkon": 8879,
      "Ġnle": 8880,
      "Ġ470": 8881,
      "Ġreferenzja": 8882,
      "Ġintermedjarju": 8883,
      "Ġmovimenti": 8884,
      "Ġforum": 8885,
      "Ġsigi": 8886,
      "oro": 8887,
      "Ġezercitata": 8888,
      "Ġnnifsu": 8889,
      "Ġhp": 8890,
      "Ġslovakkja": 8891,
      "Ġswi": 8892,
      "Ġizlanda": 8893,
      "erata": 8894,
      "tegu": 8895,
      "Ġusg": 8896,
      "Ġfull": 8897,
      "Ġrapprezentanza": 8898,
      "Ġtaqsam": 8899,
      "Ġdiffikulta": 8900,
      "Ġczes": 8901,
      "Ġintermedjarji": 8902,
      "Ġjitti": 8903,
      "rael": 8904,
      "Ġkacca": 8905,
      "Ġkollabo": 8906,
      "Ġjvarja": 8907,
      "Ġos": 8908,
      "Ġtitressaq": 8909,
      "dlu": 8910,
      "Ġkilo": 8911,
      "Ġjose": 8912,
      "Ġdifferenzja": 8913,
      "Ġgewwieni": 8914,
      "Ġnieqsa": 8915,
      "jmu": 8916,
      "Ġsoci": 8917,
      "Ġdemokratika": 8918,
      "Ġbankarja": 8919,
      "ĠdaÄ§let": 8920,
      "Ġkonferenza": 8921,
      "ÑĨ": 8922,
      "Ġ710": 8923,
      "Ġkawkaw": 8924,
      "Ġtnax": 8925,
      "Ġsoggorn": 8926,
      "Ġsolidum": 8927,
      "Ġeliminazzjoni": 8928,
      "thom": 8929,
      "Ġbran": 8930,
      "Ġawstrijak": 8931,
      "Ġdqiq": 8932,
      "Ġfibra": 8933,
      "Ġancillari": 8934,
      "fox": 8935,
      "Ġjta": 8936,
      "ssier": 8937,
      "Ġ283": 8938,
      "ĠjaqgÄ§ux": 8939,
      "hol": 8940,
      "Ġkaratteristika": 8941,
      "Ġjixtiequ": 8942,
      "Ġjeccedi": 8943,
      "Ġtist": 8944,
      "Ġestratti": 8945,
      "ettati": 8946,
      "Ġ265": 8947,
      "Ġ294": 8948,
      "Ġ360": 8949,
      "Ġdeciza": 8950,
      "rir": 8951,
      "Ġlikwidu": 8952,
      "Ġjenn": 8953,
      "bad": 8954,
      "Ġsimulta": 8955,
      "Ġkorri": 8956,
      "rutinju": 8957,
      "Ġdefinita": 8958,
      "Ġjipprotegu": 8959,
      "Ġrregolata": 8960,
[...]
