{
  "version": "1.0",
  "truncation": null,
  "padding": null,
  "added_tokens": [
    {
      "id": 0,
      "content": "<pad>",
      "single_word": false,
      "lstrip": false,
      "rstrip": false,
      "normalized": false,
      "special": true
    },
    {
      "id": 1,
      "content": "<s>",
      "single_word": false,
      "lstrip": false,
      "rstrip": false,
      "normalized": false,
      "special": true
    },
    {
      "id": 2,
      "content": "</s>",
      "single_word": false,
      "lstrip": false,
      "rstrip": false,
      "normalized": false,
      "special": true
    },
    {
      "id": 3,
      "content": "<unk>",
      "single_word": false,
      "lstrip": false,
      "rstrip": false,
      "normalized": false,
      "special": true
    },
    {
      "id": 4,
      "content": "<mask>",
      "single_word": false,
      "lstrip": false,
      "rstrip": false,
      "normalized": false,
      "special": true
    }
  ],
  "normalizer": {
    "type": "Sequence",
    "normalizers": [
      {
        "type": "NFKD"
      },
      {
        "type": "BertNormalizer",
        "clean_text": true,
        "handle_chinese_chars": true,
        "strip_accents": null,
        "lowercase": true
      }
    ]
  },
  "pre_tokenizer": {
    "type": "Sequence",
    "pretokenizers": [
      {
        "type": "BertPreTokenizer"
      },
      {
        "type": "ByteLevel",
        "add_prefix_space": true,
        "trim_offsets": true,
        "use_regex": true
      }
    ]
  },
  "post_processor": {
    "type": "RobertaProcessing",
    "sep": [
      "</s>",
      2
    ],
    "cls": [
      "<s>",
      1
    ],
    "trim_offsets": true,
    "add_prefix_space": true
  },
  "decoder": {
    "type": "ByteLevel",
    "add_prefix_space": true,
    "trim_offsets": true,
    "use_regex": true
  },
  "model": {
    "type": "BPE",
    "dropout": null,
    "unk_token": "<unk>",
    "continuing_subword_prefix": null,
    "end_of_word_suffix": null,
    "fuse_unk": false,
    "vocab": {
      "<pad>": 0,
      "<s>": 1,
      "</s>": 2,
      "<unk>": 3,
      "<mask>": 4,
      "!": 5,
      "\"": 6,
      "#": 7,
      "$": 8,
      "%": 9,
      "&": 10,
      "'": 11,
      "(": 12,
      ")": 13,
      "*": 14,
      "+": 15,
      ",": 16,
      "-": 17,
      ".": 18,
      "/": 19,
      "0": 20,
      "1": 21,
      "2": 22,
      "3": 23,
      "4": 24,
      "5": 25,
      "6": 26,
      "7": 27,
      "8": 28,
      "9": 29,
      ":": 30,
      ";": 31,
      "<": 32,
      "=": 33,
      ">": 34,
      "?": 35,
      "@": 36,
      "[": 37,
      "\\": 38,
      "]": 39,
      "^": 40,
      "_": 41,
      "`": 42,
      "a": 43,
      "b": 44,
      "c": 45,
      "d": 46,
      "e": 47,
      "f": 48,
      "g": 49,
      "h": 50,
      "i": 51,
      "j": 52,
      "k": 53,
      "l": 54,
      "m": 55,
      "n": 56,
      "o": 57,
      "p": 58,
      "q": 59,
      "r": 60,
      "s": 61,
      "t": 62,
      "u": 63,
      "v": 64,
      "w": 65,
      "x": 66,
      "y": 67,
      "z": 68,
      "{": 69,
      "|": 70,
      "}": 71,
      "~": 72,
      "¡": 73,
      "¢": 74,
      "£": 75,
      "¤": 76,
      "¥": 77,
      "¦": 78,
      "§": 79,
      "¨": 80,
      "©": 81,
      "ª": 82,
      "«": 83,
      "¬": 84,
      "®": 85,
      "¯": 86,
      "°": 87,
      "±": 88,
      "²": 89,
      "³": 90,
      "´": 91,
      "µ": 92,
      "¶": 93,
      "·": 94,
      "¸": 95,
      "¹": 96,
      "º": 97,
      "»": 98,
      "¼": 99,
      "½": 100,
      "¾": 101,
      "¿": 102,
      "Â": 103,
      "Ã": 104,
      "Ä": 105,
      "Å": 106,
      "Æ": 107,
      "É": 108,
      "Ê": 109,
      "Ë": 110,
      "Î": 111,
      "Ï": 112,
      "Ð": 113,
      "Ñ": 114,
      "Ò": 115,
      "Ó": 116,
      "Õ": 117,
      "Ö": 118,
      "×": 119,
      "Ø": 120,
      "Ù": 121,
      "Ú": 122,
      "Û": 123,
      "ß": 124,
      "à": 125,
      "á": 126,
      "â": 127,
      "ã": 128,
      "ä": 129,
      "å": 130,
      "æ": 131,
      "ç": 132,
      "è": 133,
      "é": 134,
      "ê": 135,
      "ð": 136,
      "Ġ": 137,
      "Ģ": 138,
      "ģ": 139,
      "Ĥ": 140,
      "ĥ": 141,
      "Ħ": 142,
      "ħ": 143,
      "Ĩ": 144,
      "ĩ": 145,
      "Ī": 146,
      "ī": 147,
      "Ĭ": 148,
      "ĭ": 149,
      "Į": 150,
      "į": 151,
      "İ": 152,
      "ı": 153,
      "Ĳ": 154,
      "ĳ": 155,
      "Ĵ": 156,
      "ĵ": 157,
      "Ķ": 158,
      "ķ": 159,
      "ĸ": 160,
      "Ĺ": 161,
      "ĺ": 162,
      "Ļ": 163,
      "ļ": 164,
      "Ľ": 165,
      "ľ": 166,
      "Ŀ": 167,
      "ŀ": 168,
      "Ł": 169,
      "ł": 170,
      "Ń": 171,
      "ie": 172,
      "as": 173,
      "Ġp": 174,
      "Ġ.": 175,
      "Ġ,": 176,
      "ar": 177,
      "Ġn": 178,
      "ta": 179,
      "Ġs": 180,
      "Ġk": 181,
      "Ġa": 182,
      "um": 183,
      "ti": 184,
      "Ġi": 185,
      "er": 186,
      "an": 187,
      "Ġv": 188,
      "is": 189,
      "ja": 190,
      "Ġu": 191,
      "al": 192,
      "es": 193,
      "ci": 194,
      "Ġt": 195,
      "iem": 196,
      "Ġd": 197,
      "re": 198,
      "Ġno": 199,
      "Ġne": 200,
      "in": 201,
      "Ġl": 202,
      "Ġ2": 203,
      "Ġ1": 204,
      "ad": 205,
      "ib": 206,
      "ai": 207,
      "Ġun": 208,
      "tu": 209,
      "ies": 210,
      "Ġpar": 211,
      "ma": 212,
      "os": 213,
      "Ġat": 214,
      "Ġ)": 215,
      "jum": 216,
      "Ġâ": 217,
      "ĠâĢ": 218,
      "ks": 219,
      "te": 220,
      "Ġko": 221,
      "ra": 222,
      "ka": 223,
      "Ġsa": 224,
      "Ġm": 225,
      "ts": 226,
      "dz": 227,
      "us": 228,
      "Ġb": 229,
      "Ġ(": 230,
      "Ġg": 231,
      "Ġe": 232,
      "ro": 233,
      "Ġar": 234,
      "Ġir": 235,
      "iemer": 236,
      "ien": 237,
      "Ġiz": 238,
      "il": 239,
      "en": 240,
      "Ġnep": 241,
      "iemero": 242,
      "Ġka": 243,
      "Ġap": 244,
      "em": 245,
      "to": 246,
      "ik": 247,
      "jas": 248,
      "Ġc": 249,
      "Ġuz": 250,
      "00": 251,
      "Ġ/": 252,
      "la": 253,
      "ur": 254,
      "Ġnepiemero": 255,
      "Ġre": 256,
      "un": 257,
      "di": 258,
      "Ġ_": 259,
      "Ġie": 260,
      "Ġpa": 261,
      "ibas": 262,
      "Ġpie": 263,
      "Ġ3": 264,
      "ot": 265,
      "ri": 266,
      "Ġ-": 267,
      "iz": 268,
      "on": 269,
      "Ġvai": 270,
      "ig": 271,
      "Ġta": 272,
      "ada": 273,
      "tas": 274,
      "Ġkas": 275,
      "ina": 276,
      "Ġties": 277,
      "anas": 278,
      "nie": 279,
      "Ġ|": 280,
      "or": 281,
      "Ġja": 282,
      "uma": 283,
      "als": 284,
      "Ġpan": 285,
      "unk": 286,
      "tie": 287,
      "gu": 288,
      "ju": 289,
      "de": 290,
      "Ġ5": 291,
      "Ġ0": 292,
      "ba": 293,
      "Ġf": 294,
      "Ġ4": 295,
      "ana": 296,
      "pe": 297,
      "tr": 298,
      "umu": 299,
      "Ġkom": 300,
      "ir": 301,
      "Ġr": 302,
      "am": 303,
      "li": 304,
      "ĠâĢĵ": 305,
      "Ġ20": 306,
      "Ġpunk": 307,
      "zi": 308,
      "el": 309,
      "Ġ:": 310,
      "Ġdar": 311,
      "ibu": 312,
      "Ġj": 313,
      "Ġies": 314,
      "jumu": 315,
      "ak": 316,
      "Ġattie": 317,
      "rie": 318,
      "Ġti": 319,
      "ek": 320,
      "Ġ200": 321,
      "teik": 322,
      "ras": 323,
      "ija": 324,
      "Ġin": 325,
      "Ġdal": 326,
      "pas": 327,
      "Ġpro": 328,
      "tis": 329,
      "bu": 330,
      "Ġgada": 331,
      "om": 332,
      "ez": 333,
      "Ġpanta": 334,
      "Ġ9": 335,
      "Ġna": 336,
      "lu": 337,
      "tiv": 338,
      "jam": 339,
      "ver": 340,
      "eta": 341,
      "Ġ6": 342,
      "ei": 343,
      "isti": 344,
      "dr": 345,
      "ums": 346,
      "las": 347,
      "juma": 348,
      "adi": 349,
      "Ġattieci": 350,
      "des": 351,
      "Ġregu": 352,
      "Ġkur": 353,
      "Ġ8": 354,
      "Ġ7": 355,
      "sa": 356,
      "Ġlie": 357,
      "Ġsaisti": 358,
      "Ġ201": 359,
      "Ġsav": 360,
      "Ġci": 361,
      "Ġz": 362,
      "Ġatb": 363,
      "Ġo": 364,
      "Ġlai": 365,
      "pil": 366,
      "Ġnoteik": 367,
      "cijas": 368,
      "da": 369,
      "redi": 370,
      "Ġpama": 371,
      "Ġnav": 372,
      "Ġkredi": 373,
      "era": 374,
      "Ġpas": 375,
      "anu": 376,
      "ter": 377,
      "Ġpre": 378,
      "isk": 379,
      "Ġmin": 380,
      "Ġkon": 381,
      "du": 382,
      "Ġsas": 383,
      "Ġli": 384,
      "Ġkomis": 385,
      "maks": 386,
      "me": 387,
      "ga": 388,
      "Ġvis": 389,
      "Ġaps": 390,
      "Ġto": 391,
      "Ġdi": 392,
      "tos": 393,
      "le": 394,
      "Ġvar": 395,
      "eja": 396,
      "ĠâĢĿ": 397,
      "Ġdalib": 398,
      "Ġpras": 399,
      "Ġpunkta": 400,
      "at": 401,
      "prie": 402,
      "ĠâĢĶ": 403,
      "ej": 404,
      "Ġbez": 405,
      "ĠâĢľ": 406,
      "bas": 407,
      "kar": 408,
      "Ġnor": 409,
      "Ġ;": 410,
      "gs": 411,
      "rek": 412,
      "iro": 413,
      "ijas": 414,
      "kai": 415,
      "Ġvien": 416,
      "ala": 417,
      "tn": 418,
      "ers": 419,
      "ita": 420,
      "Ġatbil": 421,
      "ce": 422,
      "Ġvals": 423,
      "iba": 424,
      "iska": 425,
      "Ġtas": 426,
      "Ġ10": 427,
      "Ġra": 428,
      "tes": 429,
      "vals": 430,
      "do": 431,
      "nem": 432,
      "Ġsask": 433,
      "jumi": 434,
      "Ġsis": 435,
      "tar": 436,
      "au": 437,
      "lik": 438,
      "Ġnr": 439,
      "ec": 440,
      "Ġeiro": 441,
      "ku": 442,
      "Ġes": 443,
      "Ġdari": 444,
      "Ġbu": 445,
      "Ġso": 446,
      "Ġ19": 447,
      "Ġdalibvals": 448,
      "Ġeiropas": 449,
      "Ġneiz": 450,
      "ten": 451,
      "Ġpien": 452,
      "kla": 453,
      "Ġkop": 454,
      "cija": 455,
      "Ġizm": 456,
      "Ġ00": 457,
      "tav": 458,
      "edz": 459,
      "Ġsavien": 460,
      "Ġsaskana": 461,
      "Ġku": 462,
      "Ġsaistibu": 463,
      "Ġal": 464,
      "isks": 465,
      "ces": 466,
      "Ġek": 467,
      "ans": 468,
      "Ġ%": 469,
      "taj": 470,
      "Ġkomisija": 471,
      "Ġneizpil": 472,
      "Ġspe": 473,
      "Ġh": 474,
      "usi": 475,
      "Ġ]": 476,
      "Ġ[": 477,
      "Ġari": 478,
      "Ġlidz": 479,
      "maksa": 480,
      "osanas": 481,
      "Ġlem": 482,
      "Ġtr": 483,
      "Ġsad": 484,
      "niedz": 485,
      "iedr": 486,
      "Ġdirek": 487,
      "erson": 488,
      "Ġaiz": 489,
      "ciju": 490,
      "var": 491,
      "po": 492,
      "Ġvei": 493,
      "Ġkreditr": 494,
      "biedr": 495,
      "Ġdirektiv": 496,
      "Ġneizpildes": 497,
      "Ġkreditrisks": 498,
      "jums": 499,
      "Ġma": 500,
      "ska": 501,
      "Ġsi": 502,
      "aks": 503,
      "Ġattieciba": 504,
      "ru": 505,
      "vu": 506,
      "Ġdarb": 507,
      "fi": 508,
      "inas": 509,
      "Ġizman": 510,
      "Ġipas": 511,
      "ties": 512,
      "tarp": 513,
      "umus": 514,
      "cial": 515,
      "Ġpad": 516,
      "men": 517,
      "Ġparedz": 518,
      "Ġ12": 519,
      "Ġpir": 520,
      "tra": 521,
      "mas": 522,
      "tiem": 523,
      "pried": 524,
      "Ġpadom": 525,
      "Ġregulas": 526,
      "Ġtiesibu": 527,
      "Ġ11": 528,
      "por": 529,
      "Ġiesta": 530,
      "na": 531,
      "ap": 532,
      "Ġvalsts": 533,
      "Ġall": 534,
      "Ġspried": 535,
      "jot": 536,
      "Ġak": 537,
      "ub": 538,
      "umi": 539,
      "Ġatbils": 540,
      "gad": 541,
      "Ġsavienibas": 542,
      "Ġraz": 543,
      "ve": 544,
      "ali": 545,
      "dros": 546,
      "ki": 547,
      "kas": 548,
      "dar": 549,
      "for": 550,
      "Ġmine": 551,
      "Ġde": 552,
      "Ġkura": 553,
      "umiem": 554,
      "Ġpunkts": 555,
      "Ġmvu": 556,
      "Ġtir": 557,
      "nieg": 558,
      "cu": 559,
      "Ġpiemero": 560,
      "Ġse": 561,
      "gi": 562,
      "Ġtie": 563,
      "mu": 564,
      "lie": 565,
      "Ġsaja": 566,
      "Ġeur": 567,
      "par": 568,
      "anai": 569,
      "tam": 570,
      "vo": 571,
      "uk": 572,
      "mes": 573,
      "ĠâĢĲ": 574,
      "Ġnosa": 575,
      "Ġau": 576,
      "tus": 577,
      "nieci": 578,
      "Ġperson": 579,
      "tin": 580,
      "biedribas": 581,
      "Ġjau": 582,
      "Ġpo": 583,
      "Ġda": 584,
      "Ġpec": 585,
      "Ġlig": 586,
      "str": 587,
      "Ġjo": 588,
      "Ġtur": 589,
      "Ġizmanto": 590,
      "cel": 591,
      "Ġstarp": 592,
      "10": 593,
      "jumiem": 594,
      "Ġ13": 595,
      "Ġ15": 596,
      "lo": 597,
      "Ġinfor": 598,
      "Ġis": 599,
      "umen": 600,
      "pp": 601,
      "Ġpasak": 602,
      "Ġaizs": 603,
      "Ġuznem": 604,
      "ko": 605,
      "Ġlieta": 606,
      "Ġpants": 607,
      "Ġvera": 608,
      "et": 609,
      "Ġgadi": 610,
      "vien": 611,
      "Ġ50": 612,
      "Ġmineta": 613,
      "pr": 614,
      "inans": 615,
      "tri": 616,
      "udz": 617,
      "ino": 618,
      "kal": 619,
      "kir": 620,
      "taja": 621,
      "dev": 622,
      "vi": 623,
      "Ġkopien": 624,
      "Ġnol": 625,
      "Ġtiesas": 626,
      "Ġpartn": 627,
      "cas": 628,
      "Ġva": 629,
      "drosina": 630,
      "Ġpil": 631,
      "Ġpamato": 632,
      "jiem": 633,
      "jumus": 634,
      "Ġte": 635,
      "Ġmil": 636,
      "Ġve": 637,
      "Ġnem": 638,
      "Ġirb": 639,
      "Ġpies": 640,
      "irb": 641,
      "Ġneap": 642,
      "tur": 643,
      "Ġlpp": 644,
      "Ġsta": 645,
      "go": 646,
      "Ġkuru": 647,
      "den": 648,
      "Ġver": 649,
      "Ġpadomes": 650,
      "iga": 651,
      "gades": 652,
      "Ġdirektivas": 653,
      "Ġtiesa": 654,
      "min": 655,
      "Ġnodo": 656,
      "mi": 657,
      "Ġ14": 658,
      "Ġmer": 659,
      "riv": 660,
      "Ġan": 661,
      "Ġtiek": 662,
      "Ġinforma": 663,
      "Ġpielik": 664,
      "tisti": 665,
      "Ġter": 666,
      "ul": 667,
      "igi": 668,
      "Ġpienem": 669,
      "Ġvie": 670,
      "Ġpiegades": 671,
      "Ġ16": 672,
      "kalpo": 673,
      "teri": 674,
      "rieks": 675,
      "Ġpamat": 676,
      "Ġpakalpo": 677,
      "Ġprasita": 678,
      "Ġmilj": 679,
      "Ġcen": 680,
      "Ġriska": 681,
      "Ġats": 682,
      "Ġprieks": 683,
      "lidz": 684,
      "Ġpartnera": 685,
      "vei": 686,
      "ch": 687,
      "das": 688,
      "Ġkomer": 689,
      "Ġnodrosina": 690,
      "Ġ17": 691,
      "Ġpars": 692,
      "rob": 693,
      "Ġpunktu": 694,
      "lau": 695,
      "Ġnos": 696,
      "Ġisten": 697,
      "maksatas": 698,
      "Ġapaks": 699,
      "Ġot": 700,
      "20": 701,
      "Ġeu": 702,
      "ms": 703,
      "Ġiespe": 704,
      "Ġspecial": 705,
      "Ġneapmaksatas": 706,
      "robez": 707,
      "Ġattisti": 708,
      "Ġparedze": 709,
      "Ġkad": 710,
      "Ġ=": 711,
      "Ġregula": 712,
      "Ġvispar": 713,
      "Ġkar": 714,
      "Ġdo": 715,
      "Ġdarijumu": 716,
      "id": 717,
      "ibam": 718,
      "alas": 719,
      "ab": 720,
      "ven": 721,
      "kap": 722,
      "Ġkomerc": 723,
      "Ġiesniedz": 724,
      "eb": 725,
      "itin": 726,
      "Ġpus": 727,
      "Ġkomisijas": 728,
      "Ġfinans": 729,
      "alo": 730,
      "sta": 731,
      "Ġaizsar": 732,
      "Ġ30": 733,
      "tro": 734,
      "Ġ18": 735,
      "Ġreitin": 736,
      "ekl": 737,
      "Ġreitings": 738,
      "Ġtikai": 739,
      "cina": 740,
      "gra": 741,
      "Ġspecializ": 742,
      "Ġtade": 743,
      "val": 744,
      "Ġinter": 745,
      "Ġjan": 746,
      "Ġuzska": 747,
      "Ġnod": 748,
      "Ġkredites": 749,
      "Ġ199": 750,
      "Ġ29": 751,
      "Ġpiemer": 752,
      "Ġjauta": 753,
      "Ġcita": 754,
      "Ġlik": 755,
      "Ġbutu": 756,
      "prieks": 757,
      "Ġ25": 758,
      "Ġme": 759,
      "Ġsiste": 760,
      "pa": 761,
      "Ġ21": 762,
      "duk": 763,
      "Ġpieeja": 764,
      "Ġpr": 765,
      "zime": 766,
      "Ġdarijumi": 767,
      "Ġkomercsa": 768,
      "Ġreg": 769,
      "Ġieprieks": 770,
      "jusi": 771,
      "Ġrazo": 772,
      "Ġ<": 773,
      "niecibas": 774,
      "Ġveik": 775,
      "Ġattiecas": 776,
      "Ġel": 777,
      "klu": 778,
      "emb": 779,
      "Ġgadijuma": 780,
      "Ġju": 781,
      "vie": 782,
      "Ġnemot": 783,
      "Ġnoradi": 784,
      "isko": 785,
      "Ġattieciga": 786,
      "Ġkomercsabiedribas": 787,
      "Ġsan": 788,
      "Ġproce": 789,
      "bil": 790,
      "punk": 791,
      "Ġov": 792,
      "pie": 793,
      "iskas": 794,
      "tver": 795,
      "Ġgal": 796,
      "gus": 797,
      "va": 798,
      "strada": 799,
      "Ġnover": 800,
      "Ġgro": 801,
      "ds": 802,
      "Ġprecu": 803,
      "oni": 804,
      "Ġtam": 805,
      "tipr": 806,
      "Ġves": 807,
      "Ġnolig": 808,
      "Ġatbals": 809,
      "Ġdarba": 810,
      "Ġtiesibas": 811,
      "lamen": 812,
      "Ġapakspunk": 813,
      "Ġbija": 814,
      "bau": 815,
      "Ġ31": 816,
      "Ġpantu": 817,
      "ejas": 818,
      "Ġkreditesana": 819,
      "Ġkuras": 820,
      "kl": 821,
      "Ġproduk": 822,
      "tajiem": 823,
      "Ġjur": 824,
      "etu": 825,
      "istra": 826,
      "Ġeks": 827,
      "Ġairb": 828,
      "Ġ23": 829,
      "Ġ26": 830,
      "ais": 831,
      "Ġii": 832,
      "Ġdzi": 833,
      "esanas": 834,
      "osana": 835,
      "Ġpaz": 836,
      "no": 837,
      "Ġiegu": 838,
      "Ġspecializeta": 839,
      "Ġdalibvalsti": 840,
      "jadz": 841,
      "Ġ90": 842,
      "Ġatbilstos": 843,
      "Ġpieskir": 844,
      "Ġpienak": 845,
      "Ġzina": 846,
      "Ġpiln": 847,
      "Ġipasi": 848,
      "Ġdien": 849,
      "kart": 850,
      "alu": 851,
      "ela": 852,
      "Ġturp": 853,
      "tibas": 854,
      "Ġtika": 855,
      "Ġ22": 856,
      "Ġad": 857,
      "Ġattistita": 858,
      "Ġmaksa": 859,
      "Ġnosaci": 860,
      "Ġvajadz": 861,
      "osanu": 862,
      "jos": 863,
      "gas": 864,
      "Ġcor": 865,
      "Ġlau": 866,
      "ji": 867,
      "Ġpielikuma": 868,
      "Ġfak": 869,
      "Ġparkap": 870,
      "Ġapg": 871,
      "Ġiznem": 872,
      "Ġ24": 873,
      "mer": 874,
      "Ġrep": 875,
      "tura": 876,
      "ros": 877,
      "Ġct": 878,
      "Ġ28": 879,
      "Ġvi": 880,
      "Ġtres": 881,
      "Ġaizsardz": 882,
      "Ġtik": 883,
      "Ġlemuma": 884,
      "dibas": 885,
      "Ġpieteik": 886,
      "Ġsnieg": 887,
      "Ġor": 888,
      "Ġkonk": 889,
      "Ġlemumu": 890,
      "Ġparbau": 891,
      "zu": 892,
      "maz": 893,
      "Ġim": 894,
      "Ġska": 895,
      "tiba": 896,
      "Ġsaistiba": 897,
      "tek": 898,
      "inci": 899,
      "Ġzi": 900,
      "Ġw": 901,
      "Ġlu": 902,
      "ps": 903,
      "Ġpriv": 904,
      "Ġ27": 905,
      "Ġlaika": 906,
      "jadi": 907,
      "Ġtadejadi": 908,
      "Ġkopienas": 909,
      "aim": 910,
      "Ġvaira": 911,
      "Ġneat": 912,
      "Ġtrans": 913,
      "Ġskai": 914,
      "tori": 915,
      "pras": 916,
      "der": 917,
      "cels": 918,
      "im": 919,
      "Ġmar": 920,
      "Ġdala": 921,
      "Ġizdev": 922,
      "Ġpret": 923,
      "Ġkri": 924,
      "Ġprinci": 925,
      "Ġdarbibas": 926,
      "Ġrez": 927,
      "Ġizstrada": 928,
      "Ġpapil": 929,
      "Ġregulu": 930,
      "Ġsanem": 931,
      "it": 932,
      "Ġsme": 933,
      "ris": 934,
      "raks": 935,
      "Ġnepie": 936,
      "Ġspeka": 937,
      "Ġlietas": 938,
      "Ġpub": 939,
      "Ġizpil": 940,
      "Ġdel": 941,
      "Ġapsver": 942,
      "js": 943,
      "otas": 944,
      "Ġapstri": 945,
      "kumen": 946,
      "Ġatlau": 947,
      "Ġtos": 948,
      "ves": 949,
      "iza": 950,
      "Ġcorp": 951,
      "Ġx": 952,
      "Ġjaun": 953,
      "Ġpazino": 954,
      "lan": 955,
      "ota": 956,
      "Ġgan": 957,
      "kus": 958,
      "Ġkonkre": 959,
      "Ġdokumen": 960,
      "Ġdalibvalsts": 961,
      "darb": 962,
      "Ġmiljoni": 963,
      "tiprina": 964,
      "Ġizs": 965,
      "Ġiestades": 966,
      "io": 967,
      "pre": 968,
      "za": 969,
      "dur": 970,
      "Ġsar": 971,
      "ciala": 972,
      "fika": 973,
      "gan": 974,
      "pu": 975,
      "klau": 976,
      "Ġsmec": 977,
      "Ġas": 978,
      "omer": 979,
      "Ġsk": 980,
      "Ġnoz": 981,
      "Ġprocedur": 982,
      "peten": 983,
      "Ġierobez": 984,
      "Ġ2009": 985,
      "jek": 986,
      "Ġizrie": 987,
      "Ġjeb": 988,
      "Ġkompeten": 989,
      "pra": 990,
      "Ġbet": 991,
      "Ġvin": 992,
      "cen": 993,
      "Ġrepub": 994,
      "Ġraks": 995,
      "Ġex": 996,
      "tion": 997,
      "Ġietek": 998,
      "Ġproces": 999,
      "Ġmineto": 1000,
      "Ġparlamen": 1001,
      "til": 1002,
      "Ġapstride": 1003,
      "Ġfor": 1004,
      "Ġapsta": 1005,
      "Ġskat": 1006,
      "Ġlo": 1007,
      "Ġdalibvalstis": 1008,
      "Ġpiepras": 1009,
      "Ġapvien": 1010,
      "Ġtomer": 1011,
      "Ġ2006": 1012,
      "40": 1013,
      "Ġnes": 1014,
      "Ġliguma": 1015,
      "tajs": 1016,
      "Ġspriedumu": 1017,
      "Ġsabiedribas": 1018,
      "mam": 1019,
      "radi": 1020,
      "tajam": 1021,
      "Ġgad": 1022,
      "Ġapela": 1023,
      "Ġkuri": 1024,
      "inasanas": 1025,
      "Ġietver": 1026,
      "tibu": 1027,
      "Ġfinansu": 1028,
      "ol": 1029,
      "Ġiesnieg": 1030,
      "30": 1031,
      "Ġpastav": 1032,
      "Ġnevar": 1033,
      "Ġtad": 1034,
      "Ġ40": 1035,
      "alidz": 1036,
      "ara": 1037,
      "person": 1038,
      "Ġtranspor": 1039,
      "tiva": 1040,
      "igas": 1041,
      "Ġla": 1042,
      "tei": 1043,
      "Ġizv": 1044,
      "21": 1045,
      "nes": 1046,
      "Ġatbilstosi": 1047,
      "Ġveic": 1048,
      "Ġiever": 1049,
      "Ġpoli": 1050,
      "Ġmu": 1051,
      "jai": 1052,
      "Ġsek": 1053,
      "Ġimpor": 1054,
      "Ġiznemot": 1055,
      "Ġpuses": 1056,
      "osa": 1057,
      "Ġprivat": 1058,
      "tais": 1059,
      "Ġnepar": 1060,
      "Ġ2013": 1061,
      "Ġparstav": 1062,
      "Ġapgal": 1063,
      "gen": 1064,
      "Ġen": 1065,
      "Ġdalibnie": 1066,
      "Ġizriet": 1067,
      "mo": 1068,
      "inat": 1069,
      "Ġ2004": 1070,
      "Ġ010": 1071,
      "taju": 1072,
      "klat": 1073,
      "igu": 1074,
      "he": 1075,
      "Ġturpma": 1076,
      "kiem": 1077,
      "Ġgrozi": 1078,
      "Ġatsa": 1079,
      "les": 1080,
      "Ġdec": 1081,
      "Ġspriedums": 1082,
      "Ġiestade": 1083,
      "Ġri": 1084,
      "joties": 1085,
      "dem": 1086,
      "Ġpakalpojumu": 1087,
      "tor": 1088,
      "Ġpozi": 1089,
      "kli": 1090,
      "ejam": 1091,
      "Ġapgalvo": 1092,
      "Ġorgan": 1093,
      "Ġ\"": 1094,
      "Ġturklat": 1095,
      "Ġlimen": 1096,
      "Ġprivatperson": 1097,
      "Ġprasibas": 1098,
      "tiska": 1099,
      "Ġsprieduma": 1100,
      "Ġsadu": 1101,
      "Ġ2008": 1102,
      "Ġatz": 1103,
      "Ġmateri": 1104,
      "Ġjurid": 1105,
      "50": 1106,
      "cies": 1107,
      "sanas": 1108,
      "iko": 1109,
      "Ġil": 1110,
      "Ġfr": 1111,
      "truk": 1112,
      "gram": 1113,
      "turu": 1114,
      "lic": 1115,
      "Ġval": 1116,
      "ni": 1117,
      "si": 1118,
      "pro": 1119,
      "Ġtirdz": 1120,
      "arb": 1121,
      "turas": 1122,
      "niegs": 1123,
      "Ġizmantos": 1124,
      "Ġsavu": 1125,
      "Ġapr": 1126,
      "Ġdirektiva": 1127,
      "Ġadmin": 1128,
      "tal": 1129,
      "Ġ39": 1130,
      "Ġteh": 1131,
      "ulta": 1132,
      "Ġdecemb": 1133,
      "Ġteks": 1134,
      "Ġkope": 1135,
      "Ġgru": 1136,
      "Ġizcels": 1137,
      "Ġ100": 1138,
      "cin": 1139,
      "Ġjoma": 1140,
      "Ġit": 1141,
      "Ġizvei": 1142,
      "vil": 1143,
      "Ġapstiprina": 1144,
      "itas": 1145,
      "state": 1146,
      "Ġvaretu": 1147,
      "ls": 1148,
      "audz": 1149,
      "Ġiespejam": 1150,
      "Ġ2011": 1151,
      "Ġ+": 1152,
      "Ġnepiecies": 1153,
      "Ġmaks": 1154,
      "Ġparval": 1155,
      "Ġminetas": 1156,
      "Ġadministra": 1157,
      "Ġofi": 1158,
      "Ġierobezo": 1159,
      "Ġieklau": 1160,
      "itori": 1161,
      "etas": 1162,
      "Ġpieradi": 1163,
      "mb": 1164,
      "Ġteritori": 1165,
      "ari": 1166,
      "Ġper": 1167,
      "ca": 1168,
      "Ġtiesve": 1169,
      "Ġpirma": 1170,
      "Ġsak": 1171,
      "tnes": 1172,
      "dina": 1173,
      "Ġ0106": 1174,
      "Ġlug": 1175,
      "jo": 1176,
      "ibai": 1177,
      "Ġ2014": 1178,
      "udzibas": 1179,
      "Ġ2003": 1180,
      "ede": 1181,
      "Ġinformaciju": 1182,
      "Ġsum": 1183,
      "Ġapakspunkta": 1184,
      "jama": 1185,
      "Ġ01": 1186,
      "Ġ>": 1187,
      "Ġsecina": 1188,
      "Ġekspor": 1189,
      "Ġapelacijas": 1190,
      "vas": 1191,
      "az": 1192,
      "Ġkuriem": 1193,
      "Ġdros": 1194,
      "Ġ2007": 1195,
      "Ġvel": 1196,
      "jus": 1197,
      "Ġsada": 1198,
      "Ġdaudz": 1199,
      "Ġpirms": 1200,
      "tot": 1201,
      "onom": 1202,
      "Ġparlamenta": 1203,
      "Ġpadome": 1204,
      "Ġro": 1205,
      "iski": 1206,
      "Ġkontro": 1207,
      "igs": 1208,
      "Ġpriekslik": 1209,
      "Ġpamata": 1210,
      "Ġmo": 1211,
      "Ġmaz": 1212,
      "Ġtirgu": 1213,
      "leg": 1214,
      "Ġpersonas": 1215,
      "Ġ38": 1216,
      "ite": 1217,
      "Ġsabiedr": 1218,
      "Ġkriteri": 1219,
      "tikas": 1220,
      "Ġpag": 1221,
      "dika": 1222,
      "dri": 1223,
      "Ġ32": 1224,
      "Ġnoliguma": 1225,
      "Ġtostarp": 1226,
      "Ġcitadi": 1227,
      "Ġnot": 1228,
      "Ġkra": 1229,
      "ona": 1230,
      "tre": 1231,
      "Ġtirgus": 1232,
      "Ġce": 1233,
      "Ġsniedz": 1234,
      "86": 1235,
      "Ġ000": 1236,
      "Ġdaz": 1237,
      "Ġtaja": 1238,
      "cion": 1239,
      "Ġnozar": 1240,
      "Ġiesniedzej": 1241,
      "Ġatlidz": 1242,
      "Ġnoverte": 1243,
      "nces": 1244,
      "Ġvalsti": 1245,
      "ldi": 1246,
      "Ġprasitaja": 1247,
      "up": 1248,
      "Ġprogram": 1249,
      "inu": 1250,
      "Ġpamatojoties": 1251,
      "Ġsadarb": 1252,
      "Ġeek": 1253,
      "rau": 1254,
      "Ġnoteikts": 1255,
      "90": 1256,
      "qu": 1257,
      "Ġpamatpie": 1258,
      "tiski": 1259,
      "Ġuzskata": 1260,
      "Ġapp": 1261,
      "Ġpamatpieeja": 1262,
      "Ġfirb": 1263,
      "Ġparedzeta": 1264,
      "lai": 1265,
      "Ġparska": 1266,
      "Ġizmaks": 1267,
      "Ġparau": 1268,
      "Ġpievien": 1269,
      "Ġistenosanas": 1270,
      "Ġbe": 1271,
      "Ġ2012": 1272,
      "ini": 1273,
      "oties": 1274,
      "Ġradi": 1275,
      "Ġ33": 1276,
      "Ġser": 1277,
      "Ġ37": 1278,
      "Ġ34": 1279,
      "Ġdatu": 1280,
      "Ġied": 1281,
      "Ġles": 1282,
      "Ġjun": 1283,
      "Ġpl": 1284,
      "Ġ36": 1285,
      "fek": 1286,
      "Ġ35": 1287,
      "Ġvairak": 1288,
      "mina": 1289,
      "Ġieks": 1290,
      "isku": 1291,
      "Ġapstakl": 1292,
      "ener": 1293,
      "Ġturpmak": 1294,
      "11": 1295,
      "Ġcel": 1296,
      "urs": 1297,
      "Ġdarbibu": 1298,
      "pir": 1299,
      "Ġof": 1300,
      "Ġnolem": 1301,
      "Ġiev": 1302,
      "Ġievero": 1303,
      "Ġsamaz": 1304,
      "Ġkonstate": 1305,
      "alis": 1306,
      "ema": 1307,
      "emen": 1308,
      "Ġgar": 1309,
      "ev": 1310,
      "Ġdalas": 1311,
      "Ġapplic": 1312,
      "able": 1313,
      "tau": 1314,
      "Ġveida": 1315,
      "Ġnoteikumi": 1316,
      "Ġekonom": 1317,
      "Ġ84": 1318,
      "Ġprivatpersonas": 1319,
      "Ġjudika": 1320,
      "Ġnozime": 1321,
      "Ġjebk": 1322,
      "Ġatcel": 1323,
      "Ġco": 1324,
      "Ġelek": 1325,
      "Ġdz": 1326,
      "Ġnov": 1327,
      "gatav": 1328,
      "Ġtai": 1329,
      "Ġapplicable": 1330,
      "Ġizcelsmes": 1331,
      "Ġob": 1332,
      "Ġkomisijai": 1333,
      "Ġrezulta": 1334,
      "Ġuzs": 1335,
      "Ġlemums": 1336,
      "kis": 1337,
      "Ġvispareja": 1338,
      "Ġiem": 1339,
      "Ġvalo": 1340,
      "Ġsu": 1341,
      "Ġoficiala": 1342,
      "Ġnodoklu": 1343,
      "Ġ2001": 1344,
      "Ġgalven": 1345,
      "Ġdziv": 1346,
      "Ġpieprasi": 1347,
      "judi": 1348,
      "Ġdat": 1349,
      "Ġarg": 1350,
      "Ġprejudi": 1351,
      "Ġdef": 1352,
      "tit": 1353,
      "diba": 1354,
      "Ġatsau": 1355,
      "Ġnoteikumiem": 1356,
      "Ġaizsardzibas": 1357,
      "Ġstruk": 1358,
      "Ġlab": 1359,
      "Ġizpildi": 1360,
      "Ġnoteikumu": 1361,
      "Ġ2005": 1362,
      "gijas": 1363,
      "Ġlv": 1364,
      "Ġpiemerojam": 1365,
      "kto": 1366,
      "pus": 1367,
      "Ġargumen": 1368,
      "Ġkomite": 1369,
      "ejo": 1370,
      "jumos": 1371,
      "80": 1372,
      "Ġbriv": 1373,
      "Ġnosaka": 1374,
      "eju": 1375,
      "Ġrici": 1376,
      "Ġnepieciesam": 1377,
      "Ġjuli": 1378,
      "Ġnosauk": 1379,
      "Ġkv": 1380,
      "Ġstarptau": 1381,
      "Ġdalibvalstim": 1382,
      "Ġatbilde": 1383,
      "Ġieguldi": 1384,
      "anos": 1385,
      "Ġparedzets": 1386,
      "Ġdalibvalstu": 1387,
      "Ġzino": 1388,
      "Ġorganiza": 1389,
      "Ġaugs": 1390,
      "Ġinterpre": 1391,
      "kure": 1392,
      "Ġ85": 1393,
      "Ġcitas": 1394,
      "Ġ2010": 1395,
      "Ġkopienu": 1396,
      "Ġcr": 1397,
      "Ġrazosanas": 1398,
      "Ġotra": 1399,
      "be": 1400,
      "Ġsep": 1401,
      "Ġnoteikumus": 1402,
      "Ġcc": 1403,
      "Ġmuitas": 1404,
      "Ġkonkure": 1405,
      "inter": 1406,
      "Ġtransport": 1407,
      "Ġtehn": 1408,
      "Ġ2016": 1409,
      "Ġ2002": 1410,
      "Ġ2015": 1411,
      "Ġnodokla": 1412,
      "nu": 1413,
      "itates": 1414,
      "Ġsniegt": 1415,
      "Ġizska": 1416,
      "tua": 1417,
      "Ġkuram": 1418,
      "st": 1419,
      "Ġinformacijas": 1420,
      "Ġsitua": 1421,
      "Ġjaat": 1422,
      "Ġesot": 1423,
      "Ġatbalsta": 1424,
      "Ġbri": 1425,
      "Ġpasakumus": 1426,
      "Ġsaraks": 1427,
      "94": 1428,
      "Ġstan": 1429,
      "fice": 1430,
      "Ġvir": 1431,
      "Ġatbilst": 1432,
      "Ġgais": 1433,
      "Ġtransportlidz": 1434,
      "Ġizk": 1435,
      "tivas": 1436,
      "Ġprasibu": 1437,
      "Ġpilnvar": 1438,
      "Ġbut": 1439,
      "Ġban": 1440,
      "jis": 1441,
      "Ġliela": 1442,
      "Ġregule": 1443,
      "Ġapm": 1444,
      "Ġ99": 1445,
      "Ġpirmas": 1446,
      "Ġvestnes": 1447,
      "Ġperio": 1448,
      "Ġ41": 1449,
      "Ġkatra": 1450,
      "vis": 1451,
      "tifika": 1452,
      "Ġpater": 1453,
      "Ġsp": 1454,
      "Ġsie": 1455,
      "Ġkomp": 1456,
      "Ġstandar": 1457,
      "ing": 1458,
      "gla": 1459,
      "kam": 1460,
      "Ġdalu": 1461,
      "Ġneka": 1462,
      "Ġmerkis": 1463,
      "Ġkap": 1464,
      "Ġklu": 1465,
      "Ġ44": 1466,
      "tne": 1467,
      "Ġkg": 1468,
      "Ġpubl": 1469,
      "Ġaprek": 1470,
      "Ġtiesai": 1471,
      "Ġ43": 1472,
      "000": 1473,
      "Ġ60": 1474,
      "Ġregis": 1475,
      "ikas": 1476,
      "pec": 1477,
      "dien": 1478,
      "Ġ54": 1479,
      "Ġklas": 1480,
      "osanai": 1481,
      "Ġpal": 1482,
      "Ġokto": 1483,
      "Ġnorad": 1484,
      "Ġparv": 1485,
      "aimniecibas": 1486,
      "Ġoktob": 1487,
      "Ġthe": 1488,
      "Ġnorada": 1489,
      "dot": 1490,
      "Ġfran": 1491,
      "Ġietekme": 1492,
      "Ġpos": 1493,
      "Ġmai": 1494,
      "Ġinteres": 1495,
      "Ġjautajumu": 1496,
      "Ġbi": 1497,
      "Ġrepublik": 1498,
      "70": 1499,
      "ins": 1500,
      "ledz": 1501,
      "Ġpasakumi": 1502,
      "lab": 1503,
      "Ġpreci": 1504,
      "ne": 1505,
      "pos": 1506,
      "Ġiebil": 1507,
      "Ġsvar": 1508,
      "nieku": 1509,
      "Ġtiesi": 1510,
      "Ġlesd": 1511,
      "Ġveikt": 1512,
      "Ġtermin": 1513,
      "iju": 1514,
      "igo": 1515,
      "Ġinformacija": 1516,
      "Ġ42": 1517,
      "Ġauto": 1518,
      "Ġelektro": 1519,
      "Ġnau": 1520,
      "Ġpapildu": 1521,
      "eji": 1522,
      "una": 1523,
      "Ġatkar": 1524,
      "aliz": 1525,
      "dus": 1526,
      "Ġlauks": 1527,
      "Ġbals": 1528,
      "Ġligumu": 1529,
      "Ġefek": 1530,
      "nieciba": 1531,
      "Ġtadu": 1532,
      "Ġtiem": 1533,
      "Ġiesniedzejties": 1534,
      "60": 1535,
      "Ġriko": 1536,
      "Ġregi": 1537,
      "Ġiden": 1538,
      "Ġ2017": 1539,
      "dro": 1540,
      "Ġjunija": 1541,
      "Ġmen": 1542,
      "ipo": 1543,
      "dibu": 1544,
      "Ġpalidz": 1545,
      "Ġatbilsti": 1546,
      "Ġizmekl": 1547,
      "Ġinsta": 1548,
      "Ġnorai": 1549,
      "Ġprejudicial": 1550,
      "Ġvarda": 1551,
      "Ġproti": 1552,
      "Ġtirdzniecibas": 1553,
      "Ġproceduras": 1554,
      "ama": 1555,
      "Ġsim": 1556,
      "Ġnotei": 1557,
      "Ġuzra": 1558,
      "vejas": 1559,
      "Ġcitu": 1560,
      "Ġaizlie": 1561,
      "Ġatsev": 1562,
      "Ġvina": 1563,
      "dari": 1564,
      "Ġjanvar": 1565,
      "Ġvisu": 1566,
      "han": 1567,
      "tiek": 1568,
      "taji": 1569,
      "Ġnovemb": 1570,
      "Ġsadi": 1571,
      "Ġ45": 1572,
      "ze": 1573,
      "Ġpiemeram": 1574,
      "Ġkurs": 1575,
      "Ġligums": 1576,
      "Ġ52": 1577,
      "Ġprasi": 1578,
      "Ġtu": 1579,
      "temb": 1580,
      "Ġsastav": 1581,
      "Ġsistemas": 1582,
      "Ġprojek": 1583,
      "Ġcenas": 1584,
      "lika": 1585,
      "Ġien": 1586,
      "Ġkaralis": 1587,
      "Ġcom": 1588,
      "vn": 1589,
      "Ġkada": 1590,
      "Ġ80": 1591,
      "Ġdiv": 1592,
      "cia": 1593,
      "Ġ91": 1594,
      "Ġregistra": 1595,
      "eg": 1596,
      "Ġvalstu": 1597,
      "Ġseptemb": 1598,
      "Ġzem": 1599,
      "Ġcik": 1600,
      "esanu": 1601,
      "Ġcentr": 1602,
      "Ġnees": 1603,
      "dam": 1604,
      "Ġvisas": 1605,
      "Ġtikt": 1606,
      "22": 1607,
      "esta": 1608,
      "Ġ49": 1609,
      "Ġtiesasanas": 1610,
      "finans": 1611,
      "Ġattiecigo": 1612,
      "Ġsub": 1613,
      "Ġapril": 1614,
      "Ġnek": 1615,
      "Ġ46": 1616,
      "Ġrezi": 1617,
      "umam": 1618,
      "kura": 1619,
      "toko": 1620,
      "tivu": 1621,
      "Ġnepars": 1622,
      "Ġ0086": 1623,
      "Ġizmantot": 1624,
      "Ġinstr": 1625,
      "Ġpils": 1626,
      "gori": 1627,
      "pera": 1628,
      "Ġvertiba": 1629,
      "Ġkapita": 1630,
      "Ġ95": 1631,
      "Ġuden": 1632,
      "Ġ48": 1633,
      "Ġprasiba": 1634,
      "Ġpersonu": 1635,
      "inie": 1636,
      "umos": 1637,
      "Ġnolu": 1638,
      "verte": 1639,
      "Ġmeto": 1640,
      "Ġpla": 1641,
      "tieka": 1642,
      "isanas": 1643,
      "Ġneie": 1644,
      "Ġdirektivu": 1645,
      "Ġ2018": 1646,
      "tegori": 1647,
      "Ġapstr": 1648,
      "Ġsakar": 1649,
      "Ġpasakumu": 1650,
      "Ġ55": 1651,
      "Ġtapec": 1652,
      "Ġ96": 1653,
      "ele": 1654,
      "Ġneparsniedz": 1655,
      "Ġkonven": 1656,
      "ksanas": 1657,
      "Ġ*": 1658,
      "Ġgener": 1659,
      "Ġprotoko": 1660,
      "Ġvaloda": 1661,
      "Ġnormas": 1662,
      "Ġvesel": 1663,
      "Ġvismaz": 1664,
      "Ġ2000": 1665,
      "titu": 1666,
      "Ġkatr": 1667,
      "Ġnaudas": 1668,
      "Ġkategori": 1669,
      "cijam": 1670,
      "Ġkai": 1671,
      "Ġaizlieg": 1672,
      "Ġ70": 1673,
      "Ġ51": 1674,
      "Ġaktu": 1675,
      "Ġab": 1676,
      "but": 1677,
      "adas": 1678,
      "tiskas": 1679,
      "Ġproduktu": 1680,
      "Ġlielas": 1681,
      "Ġproceduru": 1682,
      "Ġtada": 1683,
      "Ġizveido": 1684,
      "Ġcil": 1685,
      "Ġattiecigas": 1686,
      "Ġlikum": 1687,
      "Ġizvir": 1688,
      "Ġlc": 1689,
      "Ġjulija": 1690,
      "Ġgaisa": 1691,
      "Ġizklas": 1692,
      "ons": 1693,
      "Ġilg": 1694,
      "Ġpieklu": 1695,
      "Ġkons": 1696,
      "jumam": 1697,
      "Ġiestadem": 1698,
      "Ġzau": 1699,
      "eklu": 1700,
      "tita": 1701,
      "ture": 1702,
      "Ġpieteikuma": 1703,
      "Ġpielikums": 1704,
      "Ġapraks": 1705,
      "Ġpala": 1706,
      "Ġotr": 1707,
      "man": 1708,
      "ine": 1709,
      "Ġ47": 1710,
      "Ġlieto": 1711,
      "Ġsagatav": 1712,
      "Ġizpra": 1713,
      "Ġdes": 1714,
      "Ġpersonam": 1715,
      "ojas": 1716,
      "Ġmenes": 1717,
      "Ġregistre": 1718,
      "Ġrup": 1719,
      "Ġzimes": 1720,
      "Ġtiesibam": 1721,
      "Ġinstrumen": 1722,
      "Ġrobez": 1723,
      "nas": 1724,
      "Ġteksta": 1725,
      "Ġres": 1726,
      "Ġsistemu": 1727,
      "Ġparbaudi": 1728,
      "Ġelemen": 1729,
      "tspe": 1730,
      "Ġiebild": 1731,
      "Ġnodala": 1732,
      "Ġand": 1733,
      "Ġciti": 1734,
      "Ġprocedu": 1735,
      "Ġaplie": 1736,
      "Ġdrosibas": 1737,
      "voka": 1738,
      "Ġneatkar": 1739,
      "Ġisteno": 1740,
      "Ġmerki": 1741,
      "Ġiii": 1742,
      "Ġdarijuma": 1743,
      "Ġsakot": 1744,
      "Ġpieejam": 1745,
      "iskais": 1746,
      "Ġnodrosinatu": 1747,
      "pries": 1748,
      "Ġprocedura": 1749,
      "Ġ93": 1750,
      "Ġsaskan": 1751,
      "Ġizdevumus": 1752,
      "pi": 1753,
      "Ġparaugs": 1754,
      "vel": 1755,
      "Ġjabut": 1756,
      "uz": 1757,
      "Ġjanor": 1758,
      "Ġjap": 1759,
      "Ġ92": 1760,
      "Ġtadel": 1761,
      "Ġsai": 1762,
      "Ġzaude": 1763,
      "Ġpirm": 1764,
      "Ġrepublika": 1765,
      "tora": 1766,
      "redz": 1767,
      "Ġkam": 1768,
      "Ġnosu": 1769,
      "Ġagen": 1770,
      "Ġekl": 1771,
      "ed": 1772,
      "Ġ53": 1773,
      "Ġparvada": 1774,
      "Ġrazosana": 1775,
      "Ġsavieniba": 1776,
      "esana": 1777,
      "Ġzvejas": 1778,
      "Ġlimeni": 1779,
      "Ġpieda": 1780,
      "Ġlaik": 1781,
      "Ġiemes": 1782,
      "Ġinstances": 1783,
      "tisko": 1784,
      "pak": 1785,
      "Ġizpratne": 1786,
      "Ġsistema": 1787,
      "finansu": 1788,
      "Ġnoraidi": 1789,
      "Ġiekar": 1790,
      "Ġpietieka": 1791,
      "tisanas": 1792,
      "Ġviena": 1793,
      "Ġac": 1794,
      "Ġjas": 1795,
      "Ġnefinansu": 1796,
      "Ġnekus": 1797,
      "Ġprocesa": 1798,
      "ebru": 1799,
      "Ġ02": 1800,
      "Ġca": 1801,
      "inot": 1802,
      "Ġita": 1803,
      "Ġatzi": 1804,
      "Ġ59": 1805,
      "Ġfebru": 1806,
      "co": 1807,
      "Ġ94": 1808,
      "Ġiestazu": 1809,
      "jom": 1810,
      "Ġprasitajas": 1811,
      "Ġesos": 1812,
      "Ġ57": 1813,
      "Ġverte": 1814,
      "Ġcivil": 1815,
      "jaun": 1816,
      "tvar": 1817,
      "Ġpubli": 1818,
      "Ġteritorija": 1819,
      "dosanas": 1820,
      "inasanu": 1821,
      "kri": 1822,
      "Ġpiemerosanas": 1823,
      "Ġizmantojot": 1824,
      "Ġ56": 1825,
      "Ġ87": 1826,
      "Ġatzin": 1827,
      "inga": 1828,
      "Ġsudzibas": 1829,
      "Ġdarbinie": 1830,
      "Ġkurus": 1831,
      "cijai": 1832,
      "Ġlaikpos": 1833,
      "Ġapjom": 1834,
      "Ġmarta": 1835,
      "tivo": 1836,
      "Ġievies": 1837,
      "aidu": 1838,
      "Ġ2019": 1839,
      "Ġ1999": 1840,
      "zes": 1841,
      "Ġnolemumu": 1842,
      "usas": 1843,
      "Ġsamazina": 1844,
      "Ġ98": 1845,
      "Ġch": 1846,
      "aisti": 1847,
      "Ġsalidz": 1848,
      "Ġvide": 1849,
      "Ġ65": 1850,
      "Ġatskir": 1851,
      "Ġstri": 1852,
      "Ġtiesvedibas": 1853,
      "Ġener": 1854,
      "Ġpiela": 1855,
      "tivi": 1856,
      "ekli": 1857,
      "Ġizmaksas": 1858,
      "Ġeuro": 1859,
      "Ġ2020": 1860,
      "Ġpat": 1861,
      "gli": 1862,
      "Ġpasa": 1863,
      "fer": 1864,
      "Ġfon": 1865,
      "Ġkaite": 1866,
      "Ġpamats": 1867,
      "Ġmaija": 1868,
      "15": 1869,
      "Ġ73": 1870,
      "ejiem": 1871,
      "Ġmas": 1872,
      "kst": 1873,
      "Ġprasibam": 1874,
      "ejs": 1875,
      "Ġsh": 1876,
      "Ġnoteikta": 1877,
      "Ġneb": 1878,
      "Ġvienigi": 1879,
      "Ġvisparejas": 1880,
      "Ġsatur": 1881,
      "iel": 1882,
      "tika": 1883,
      "Ġjaiz": 1884,
      "Ġpiedava": 1885,
      "Ġatcelt": 1886,
      "Ġpasu": 1887,
      "Ġpersona": 1888,
      "deks": 1889,
      "Ġatjaun": 1890,
      "Ġreglamen": 1891,
      "Ġprof": 1892,
      "Ġdecembra": 1893,
      "Ġindi": 1894,
      "kaidro": 1895,
      "Ġkopa": 1896,
      "eidz": 1897,
      "Ġpienakumu": 1898,
      "Ġpirmo": 1899,
      "Ġsaistibas": 1900,
      "gar": 1901,
      "adu": 1902,
      "Ġgaran": 1903,
      "Ġpatereta": 1904,
      "Ġiespejams": 1905,
      "Ġpagaidu": 1906,
      "Ġtel": 1907,
      "Ġinterpreta": 1908,
      "Ġeksporte": 1909,
      "Ġpirmkart": 1910,
      "Ġ58": 1911,
      "Ġsakara": 1912,
      "cem": 1913,
      "Ġoficialais": 1914,
      "ke": 1915,
      "Ġber": 1916,
      "Ġapma": 1917,
      "Ġgeneral": 1918,
      "Ġgadu": 1919,
      "Ġrad": 1920,
      "Ġuznemumu": 1921,
      "ge": 1922,
      "ekla": 1923,
      "Ġvers": 1924,
      "aimnie": 1925,
      "Ġparas": 1926,
      "Ġsal": 1927,
      "eil": 1928,
      "Ġatbildi": 1929,
      "kaiti": 1930,
      "tilps": 1931,
      "niecibu": 1932,
      "pek": 1933,
      "Ġ71": 1934,
      "Ġvestnesis": 1935,
      "Ġy": 1936,
      "Ġpienakums": 1937,
      "Ġitali": 1938,
      "regu": 1939,
      "Ġizvirzi": 1940,
      "Ġaizsarga": 1941,
      "Ġdekl": 1942,
      "Ġparbaudes": 1943,
      "Ġpamatlie": 1944,
      "drosinasanas": 1945,
      "Ġ75": 1946,
      "Ġklasi": 1947,
      "99": 1948,
      "Ġotrkart": 1949,
      "sanu": 1950,
      "ens": 1951,
      "Ġ61": 1952,
      "Ġsagla": 1953,
      "sede": 1954,
      "Ġpvn": 1955,
      "Ġaktiem": 1956,
      "Ġcits": 1957,
      "Ġhipo": 1958,
      "Ġdzivnieku": 1959,
      "Ġmehan": 1960,
      "aliem": 1961,
      "Ġ63": 1962,
      "Ġipasumu": 1963,
      "Ġapstrideta": 1964,
      "Ġvienu": 1965,
      "Ġ88": 1966,
      "Ġkl": 1967,
      "Ġkapitala": 1968,
      "iet": 1969,
      "Ġvela": 1970,
      "Ġgr": 1971,
      "edzien": 1972,
      "Ġpor": 1973,
      "Ġcenu": 1974,
      "Ġjedzien": 1975,
      "Ġhipote": 1976,
      "Ġnosacijumiem": 1977,
      "Ġsniegs": 1978,
      "Ġaizsardzibu": 1979,
      "mis": 1980,
      "Ġsertifika": 1981,
      "log": 1982,
      "Ġsadas": 1983,
      "lem": 1984,
      "tits": 1985,
      "Ġregion": 1986,
      "Ġparkapumu": 1987,
      "oto": 1988,
      "Ġpiena": 1989,
      "Ġpriekssede": 1990,
      "iguma": 1991,
      "Ġciktal": 1992,
      "tad": 1993,
      "Ġnoteiktas": 1994,
      "Ġsavas": 1995,
      "Ġ?": 1996,
      "Ġpasakumiem": 1997,
      "Ġbudz": 1998,
      "Ġizra": 1999,
      "gada": 2000,
      "Ġiesniedzejtiesa": 2001,
      "pat": 2002,
      "Ġ64": 2003,
      "Ġieros": 2004,
      "Ġcitiem": 2005,
      "Ġtris": 2006,
      "Ġmaksajumu": 2007,
      "Ġ62": 2008,
      "usies": 2009,
      "Ġgroza": 2010,
      "ksanu": 2011,
      "Ġvertibas": 2012,
      "Ġ97": 2013,
      "Ġ0094": 2014,
      "Ġpozicija": 2015,
      "olu": 2016,
      "reiz": 2017,
      "ion": 2018,
      "Ġman": 2019,
      "Ġtermina": 2020,
      "Ġgra": 2021,
      "Ġvad": 2022,
      "Ġvins": 2023,
      "ejos": 2024,
      "dres": 2025,
      "Ġdienas": 2026,
      "Ġatbilstigi": 2027,
      "12": 2028,
      "Ġneme": 2029,
      "Ġlt": 2030,
      "Ġprejudicialu": 2031,
      "Ġpede": 2032,
      "Ġins": 2033,
      "Ġpreces": 2034,
      "bals": 2035,
      "Ġnoteikt": 2036,
      "uru": 2037,
      "rivo": 2038,
      "Ġ67": 2039,
      "Ġprocesu": 2040,
      "Ġag": 2041,
      "Ġinte": 2042,
      "Ġloc": 2043,
      "Ġ'": 2044,
      "eti": 2045,
      "13": 2046,
      "Ġanaliz": 2047,
      "Ġik": 2048,
      "Ġnoteiktu": 2049,
      "Ġtri": 2050,
      "Ġ72": 2051,
      "Ġlauksaimniecibas": 2052,
      "Ġgadijumos": 2053,
      "kaitot": 2054,
      "Ġrecu": 2055,
      "ic": 2056,
      "Ġrecueil": 2057,
      "ĠÎ": 2058,
      "pinga": 2059,
      "ori": 2060,
      "Ġpieteikumu": 2061,
      "zen": 2062,
      "Ġ05": 2063,
      "Ġnozi": 2064,
      "ity": 2065,
      "Ġparaks": 2066,
      "Ġkan": 2067,
      "Ġrepublikas": 2068,
      "Ġtreso": 2069,
      "Ġprocen": 2070,
      "Ġnoradits": 2071,
      "diem": 2072,
      "tilpst": 2073,
      "Ġeksp": 2074,
      "Ġpamatu": 2075,
      "Ġaus": 2076,
      "Ġplas": 2077,
      "Ġuznemuma": 2078,
      "Ġsakotn": 2079,
      "Ġmaksim": 2080,
      "Ġ07": 2081,
      "ades": 2082,
      "Ġadres": 2083,
      "Ġsiem": 2084,
      "Ġpilniba": 2085,
      "Ġkriteriji": 2086,
      "ksmes": 2087,
      "Ġatbrivo": 2088,
      "ier": 2089,
      "93": 2090,
      "Ġapmera": 2091,
      "Ġatbalstu": 2092,
      "itati": 2093,
      "Ġpieder": 2094,
      "Ġstav": 2095,
      "Ġopera": 2096,
      "Ġpaliel": 2097,
      "Ġpiemerojama": 2098,
      "Ġnosleg": 2099,
      "Ġ74": 2100,
      "Ġaugsta": 2101,
      "Ġsv": 2102,
      "anijas": 2103,
      "Ġnum": 2104,
      "tija": 2105,
      "Ġveselibas": 2106,
      "glu": 2107,
      "tamo": 2108,
      "Ġlietu": 2109,
      "Ġcetur": 2110,
      "Ġge": 2111,
      "Ġkopeja": 2112,
      "Ð°": 2113,
      "Ġjudikatura": 2114,
      "eri": 2115,
      "Ġ198": 2116,
      "Ġpartikas": 2117,
      "Ġ89": 2118,
      "Ġ83": 2119,
      "Ġbel": 2120,
      "Ġapstaklos": 2121,
      "Ġbar": 2122,
      "Ġligumsledz": 2123,
      "Ġ68": 2124,
      "Ġparsudz": 2125,
      "Ġvietas": 2126,
      "Ġsava": 2127,
      "Ġietvar": 2128,
      "Ġapvienota": 2129,
      "Ġnebija": 2130,
      "kuma": 2131,
      "Ġpakalpojumi": 2132,
      "Ġkontroles": 2133,
      "Ġ81": 2134,
      "Ġtari": 2135,
      "Ġsudz": 2136,
      "inasana": 2137,
      "Ġsmer": 2138,
      "Ġtiesu": 2139,
      "Ġ66": 2140,
      "Ġec": 2141,
      "tors": 2142,
      "Ġkval": 2143,
      "Ġotras": 2144,
      "Ġieri": 2145,
      "Ġuznemumiem": 2146,
      "tesanas": 2147,
      "Ġnodokli": 2148,
      "Ġdem": 2149,
      "Ġiespeju": 2150,
      "Ġvieta": 2151,
      "fa": 2152,
      "Ġnosaukums": 2153,
      "Ġnorma": 2154,
      "Ġ78": 2155,
      "Ġvalstim": 2156,
      "Ġkredit": 2157,
      "Ġsocial": 2158,
      "dal": 2159,
      "Ġlicen": 2160,
      "Ġslo": 2161,
      "isanu": 2162,
      "Ġvisi": 2163,
      "Ġparedzeti": 2164,
      "Ġpapildina": 2165,
      "mata": 2166,
      "Ġsavs": 2167,
      "Ġparstavji": 2168,
      "Ġplan": 2169,
      "interes": 2170,
      "Ġpilson": 2171,
      "Ġcu": 2172,
      "Ġieverojot": 2173,
      "Ġmor": 2174,
      "Ġimporta": 2175,
      "Ġnodrosinat": 2176,
      "Ġieinteres": 2177,
      "isi": 2178,
      "omas": 2179,
      "Ġvisiem": 2180,
      "bai": 2181,
      "Ġnevis": 2182,
      "Ġlikuma": 2183,
      "Ġapsveruma": 2184,
      "Ġst": 2185,
      "giem": 2186,
      "Ġses": 2187,
      "Ġvaldibas": 2188,
      "Ġprofes": 2189,
      "Ġminetaja": 2190,
      "Ġeez": 2191,
      "Ġnozares": 2192,
      "Ġienak": 2193,
      "Ġuztur": 2194,
      "Ġ08": 2195,
      "Ġ77": 2196,
      "Ġmazak": 2197,
      "Ġ69": 2198,
      "Ġapakspunktu": 2199,
      "Ġattiecigi": 2200,
      "Ġfinansi": 2201,
      "Ġ76": 2202,
      "Ġprincipa": 2203,
      "ensa": 2204,
      "Ġperioda": 2205,
      "Ġizp": 2206,
      "liga": 2207,
      "Ġaprekina": 2208,
      "Ġtresa": 2209,
      "Ġveido": 2210,
      "Ġneno": 2211,
      "jami": 2212,
      "Ġizklasti": 2213,
      "Ġminetais": 2214,
      "gadina": 2215,
      "Ġlidzekl": 2216,
      "fic": 2217,
      "Ġatro": 2218,
      "otu": 2219,
      "Ġnoligumu": 2220,
      "tiesibu": 2221,
      "Ġliel": 2222,
      "Ġ09": 2223,
      "legs": 2224,
      "Ġizmantosanu": 2225,
      "tajai": 2226,
      "Ġpiemerot": 2227,
      "Ġ2021": 2228,
      "Ġequ": 2229,
      "Ġvisus": 2230,
      "tarpe": 2231,
      "Ġietvaros": 2232,
      "Ġus": 2233,
      "Ġ79": 2234,
      "Ġjebkura": 2235,
      "Ġpieprasijuma": 2236,
      "Ġrezultata": 2237,
      "Ġstavo": 2238,
      "Ġdalibnieki": 2239,
      "teks": 2240,
      "Ġizverte": 2241,
      "Ġkaraliste": 2242,
      "feren": 2243,
      "ĠÐ": 2244,
      "Ġkompensa": 2245,
      "Ġrisks": 2246,
      "eiz": 2247,
      "Ġsavstarpe": 2248,
      "Ġuzraudzibas": 2249,
      "Ġieskaitot": 2250,
      "Ġuzdev": 2251,
      "Ġtiktu": 2252,
      "ho": 2253,
      "Ġizdari": 2254,
      "Ġinforme": 2255,
      "Ġminets": 2256,
      "prati": 2257,
      "Ġaizstaj": 2258,
      "Ġnosacijumi": 2259,
      "Ġdiena": 2260,
      "Ġuzlab": 2261,
      "graf": 2262,
      "Ġder": 2263,
      "krit": 2264,
      "Ġnoteikti": 2265,
      "Ġ86": 2266,
      "Ġpienemt": 2267,
      "Ġoktobra": 2268,
      "Ġvalstis": 2269,
      "Ġformu": 2270,
      "Ġfiz": 2271,
      "Ġpozicijas": 2272,
      "Ġjanorada": 2273,
      "Ġkvali": 2274,
      "viz": 2275,
      "Ġpri": 2276,
      "Ġfunk": 2277,
      "Ġvinu": 2278,
      "vek": 2279,
      "Ġpiemerosanu": 2280,
      "interpre": 2281,
      "cibu": 2282,
      "Ġhar": 2283,
      "Ġnodarb": 2284,
      "interprete": 2285,
      "Ġred": 2286,
      "Ġparedzetas": 2287,
      "Ġnodokl": 2288,
      "14": 2289,
      "igam": 2290,
      "Ġjainterprete": 2291,
      "Ġprieksme": 2292,
      "Ġpakalpojumiem": 2293,
      "Ġris": 2294,
      "Ġdeklara": 2295,
      "Ġizmeklesanas": 2296,
      "tik": 2297,
      "Ġbr": 2298,
      "19": 2299,
      "jusas": 2300,
      "Ġga": 2301,
      "Ġrazotaja": 2302,
      "Ġekonomikas": 2303,
      "23": 2304,
      "Ġgu": 2305,
      "Ġatteik": 2306,
      "Ġiesniedza": 2307,
      "Ġuznemej": 2308,
      "Ġbiro": 2309,
      "Ġobjek": 2310,
      "Ġlietos": 2311,
      "Ġbudzeta": 2312,
      "Ġapakspunkts": 2313,
      "Ġvestu": 2314,
      "Ġjanvara": 2315,
      "Ġelektron": 2316,
      "Ġprincipu": 2317,
      "Ġtes": 2318,
      "Ġnekustamo": 2319,
      "anija": 2320,
      "Ġlugums": 2321,
      "Ġvienas": 2322,
      "th": 2323,
      "erlan": 2324,
      "ata": 2325,
      "toru": 2326,
      "Ġpielau": 2327,
      "Ġkopuma": 2328,
      "Ġnozare": 2329,
      "Ġminis": 2330,
      "Ġparedzeto": 2331,
      "Ġlaiku": 2332,
      "Ġizstradajumi": 2333,
      "Ġiepir": 2334,
      "amibu": 2335,
      "kra": 2336,
      "Ġobliga": 2337,
      "Ġsalidzina": 2338,
      "Ġcilvek": 2339,
      "Ġizma": 2340,
      "Ġprotokola": 2341,
      "Ġ04": 2342,
      "Ġpel": 2343,
      "Ġmm": 2344,
      "ĠÂ": 2345,
      "vidu": 2346,
      "Ġjapar": 2347,
      "Ġbio": 2348,
      "Ġiedali": 2349,
      "ĠâĢĻ": 2350,
      "iskie": 2351,
      "ales": 2352,
      "Ġml": 2353,
      "Ġminim": 2354,
      "Ġiv": 2355,
      "Ġiespeja": 2356,
      "Ġieguldijumu": 2357,
      "Ġpalata": 2358,
      "Ġneatbil": 2359,
      "Ġapdrosinasanas": 2360,
      "Ġfi": 2361,
      "Ġpirmaja": 2362,
      "cy": 2363,
      "Ġsummu": 2364,
      "Ġsavus": 2365,
      "Ġequity": 2366,
      "beidz": 2367,
      "ale": 2368,
      "Ġietilpst": 2369,
      "Ġnetiek": 2370,
      "Ġski": 2371,
      "Ġiesaisti": 2372,
      "Ġdecembri": 2373,
      "Ġotro": 2374,
      "Ġpiek": 2375,
      "Ġspeci": 2376,
      "Ġkal": 2377,
      "Ġimporte": 2378,
      "dzi": 2379,
      "vej": 2380,
      "Ġcon": 2381,
      "cibas": 2382,
      "kon": 2383,
      "rs": 2384,
      "Ġ82": 2385,
      "Ġdefini": 2386,
      "akot": 2387,
      "Ġaplu": 2388,
      "Ġ03": 2389,
      "Ġkonkurences": 2390,
      "Ġatlauju": 2391,
      "sana": 2392,
      "Î±": 2393,
      "Ġskaidri": 2394,
      "Ġregistracijas": 2395,
      "lam": 2396,
      "Ġpretr": 2397,
      "veida": 2398,
      "Î¹": 2399,
      "Ġattiecigaja": 2400,
      "Ġiespejas": 2401,
      "Ġpuse": 2402,
      "Ġprecem": 2403,
      "Ġkonteks": 2404,
      "lek": 2405,
      "Ġsaraksta": 2406,
      "Ġbas": 2407,
      "Ġparvaldibas": 2408,
      "Ġle": 2409,
      "Ġatlaujas": 2410,
      "Ġnevien": 2411,
      "Ġcitam": 2412,
      "Ġtiesvediba": 2413,
      "tama": 2414,
      "tisanu": 2415,
      "veic": 2416,
      "zs": 2417,
      "Ġpievieno": 2418,
      "Ġapzime": 2419,
      "Ġfaktiski": 2420,
      "Ġsana": 2421,
      "Ð¸": 2422,
      "ia": 2423,
      "Ġkomitejas": 2424,
      "tasanas": 2425,
      "Ġmon": 2426,
      "Ġnoluka": 2427,
      "Ġpolitikas": 2428,
      "Ġparsniedz": 2429,
      "Ġvirs": 2430,
      "ami": 2431,
      "Ġarpus": 2432,
      "gos": 2433,
      "Ġatrodas": 2434,
      "Ġnovembra": 2435,
      "Ġkonkuren": 2436,
      "Ġprogrammas": 2437,
      "Ġpabals": 2438,
      "Ġmaterialu": 2439,
      "Ġvajadzibas": 2440,
      "Ġpantam": 2441,
      "Ġnid": 2442,
      "tijas": 2443,
      "24": 2444,
      "Ġeksporta": 2445,
      "Î¿": 2446,
      "Ġbris": 2447,
      "Ġpamatlieta": 2448,
      "Ġmal": 2449,
      "Ġkopiena": 2450,
      "Ġjaie": 2451,
      "Ġierosina": 2452,
      "Ġpunktam": 2453,
      "Ġtiks": 2454,
      "Ġintereses": 2455,
      "Ġpublice": 2456,
      "Ġniderlan": 2457,
      "liek": 2458,
      "Ġpriekslikums": 2459,
      "gl": 2460,
      "Ġtresas": 2461,
      "Ġaci": 2462,
      "Ġkodeks": 2463,
      "Ġnodalas": 2464,
      "beig": 2465,
      "Ġvienosanas": 2466,
      "Ġkonvencijas": 2467,
      "Ġba": 2468,
      "Ġricibas": 2469,
      "Ġstajas": 2470,
      "iskri": 2471,
      "vers": 2472,
      "Ġsaistiti": 2473,
      "asanas": 2474,
      "Ġredak": 2475,
      "Ġgrupas": 2476,
      "Ġminetos": 2477,
      "Ġgi": 2478,
      "Ġtadas": 2479,
      "Ġits": 2480,
      "Ġkomiteja": 2481,
      "Ġtapat": 2482,
      "Ġshem": 2483,
      "tisku": 2484,
      "Ġvec": 2485,
      "ksi": 2486,
      "Ġjuridiska": 2487,
      "Ġipasnie": 2488,
      "Ġpakalpojumus": 2489,
      "Ġpietiekami": 2490,
      "Ġneatkarigi": 2491,
      "Ġ110": 2492,
      "Ġgads": 2493,
      "Ġgeo": 2494,
      "Ġvacijas": 2495,
      "Ġpriekslikuma": 2496,
      "Ġjauna": 2497,
      "Ġdarbibam": 2498,
      "Ġindividu": 2499,
      "Ġgalveno": 2500,
      "Ġstra": 2501,
      "klaus": 2502,
      "Ġsos": 2503,
      "Ġaprila": 2504,
      "Ġprete": 2505,
      "Ġminetajiem": 2506,
      "Ġbo": 2507,
      "Ġbutiba": 2508,
      "Ġludz": 2509,
      "Ġvides": 2510,
      "alais": 2511,
      "Ġatlidzinat": 2512,
      "Ġneesot": 2513,
      "Ġpienaci": 2514,
      "red": 2515,
      "Ġseptembra": 2516,
      "16": 2517,
      "toti": 2518,
      "Ġemis": 2519,
      "Ġmi": 2520,
      "ted": 2521,
      "Ġlauj": 2522,
      "uznem": 2523,
      "Ġ06": 2524,
      "Ġgo": 2525,
      "Ġsaglaba": 2526,
      "Ġpazinojuma": 2527,
      "Ġner": 2528,
      "pes": 2529,
      "Ġproduktiem": 2530,
      "Ġpubliska": 2531,
      "Ġjautajumiem": 2532,
      "Ġipasuma": 2533,
      "Ġkatru": 2534,
      "17": 2535,
      "Ġveicin": 2536,
      "darbibu": 2537,
      "Ġmeta": 2538,
      "Ġieraks": 2539,
      "Ġmehanis": 2540,
      "Ġzime": 2541,
      "Ġmort": 2542,
      "Ġspecializetas": 2543,
      "inam": 2544,
      "Ġiestadei": 2545,
      "25": 2546,
      "Ġatcels": 2547,
      "Ġlidzeklu": 2548,
      "Ġdokumenta": 2549,
      "Ġparkapuma": 2550,
      "Ġapsverumus": 2551,
      "Ġ0000": 2552,
      "eto": 2553,
      "ns": 2554,
      "Ġbridi": 2555,
      "vs": 2556,
      "Ġpiemerosana": 2557,
      "Ġnepieciesams": 2558,
      "Ġveid": 2559,
      "Ġpra": 2560,
      "Ġpied": 2561,
      "Ġbankas": 2562,
      "Ġapstipr": 2563,
      "Ġpraks": 2564,
      "Ġneattie": 2565,
      "Ġtau": 2566,
      "Ġrezolu": 2567,
      "Ġinterprete": 2568,
      "Ġpiegada": 2569,
      "Ġ197": 2570,
      "Ġagra": 2571,
      "Ġdokumentu": 2572,
      "Ġkuros": 2573,
      "zimes": 2574,
      "Ġvadi": 2575,
      "Ġizstradajuma": 2576,
      "Ġpet": 2577,
      "Ġvienkar": 2578,
      "Ġkods": 2579,
      "osu": 2580,
      "dik": 2581,
      "Ġdzel": 2582,
      "Ġkras": 2583,
      "Ġacim": 2584,
      "acijas": 2585,
      "Ġrada": 2586,
      "Ġkreditesanas": 2587,
      "Ġanti": 2588,
      "Ġviens": 2589,
      "Ġtabu": 2590,
      "Ġgrie": 2591,
      "Ġatkrit": 2592,
      "Ġstarptautiska": 2593,
      "Ġvertibu": 2594,
      "Ġakti": 2595,
      "Ġskaits": 2596,
      "Ġjautajums": 2597,
      "Ġkops": 2598,
      "Ġmedi": 2599,
      "Ġcentralas": 2600,
      "Ġfin": 2601,
      "Ġtermins": 2602,
      "ied": 2603,
      "Ġriciba": 2604,
      "Ġitsb": 2605,
      "18": 2606,
      "kiri": 2607,
      "Ġuzraudz": 2608,
      "Ġkim": 2609,
      "din": 2610,
      "Ġiekseja": 2611,
      "Ġpamatregu": 2612,
      "Ġsasnieg": 2613,
      "Ġizteik": 2614,
      "Ġdri": 2615,
      "Ġparsudzeta": 2616,
      "ĠâĢŀ": 2617,
      "Ġzema": 2618,
      "Ġjuras": 2619,
      "Ġatskai": 2620,
      "Ġuznemums": 2621,
      "Ġiesniegt": 2622,
      "pl": 2623,
      "Ġadvoka": 2624,
      "ats": 2625,
      "Ġsil": 2626,
      "Ġsti": 2627,
      "darbibas": 2628,
      "Ġviedo": 2629,
      "gija": 2630,
      "Ġapvienotas": 2631,
      "omu": 2632,
      "Ġpu": 2633,
      "Ġizmantoto": 2634,
      "ksana": 2635,
      "Ġapga": 2636,
      "Ġnormu": 2637,
      "ade": 2638,
      "Ġsaistitas": 2639,
      "Ġpamatojumu": 2640,
      "Ġvacija": 2641,
      "ting": 2642,
      "Ġpamatn": 2643,
      "Ð¾": 2644,
      "Ġiedalijuma": 2645,
      "Ġacimredz": 2646,
      "Ġ104": 2647,
      "Ġgadam": 2648,
      "Ġdatus": 2649,
      "Ġpretruna": 2650,
      "Ġkredities": 2651,
      "iesu": 2652,
      "Ġmineti": 2653,
      "Ġsais": 2654,
      "Ġparvie": 2655,
      "Ġizpla": 2656,
      "Ġkrajums": 2657,
      "Ġprofesion": 2658,
      "Ġini": 2659,
      "Ġorganizacijas": 2660,
      "Ġstatus": 2661,
      "Ġjuris": 2662,
      "Ġsli": 2663,
      "Ġatskiri": 2664,
      "Ġbus": 2665,
      "tru": 2666,
      "29": 2667,
      "res": 2668,
      "Ġakta": 2669,
      "Ġresurs": 2670,
      "Ġkonkreta": 2671,
      "Ġnosacijumu": 2672,
      "Ġsadarbibas": 2673,
      "aimniec": 2674,
      "Ġistenosanu": 2675,
      "lsc": 2676,
      "cis": 2677,
      "Ġkompetentas": 2678,
      "zem": 2679,
      "Ġslsc": 2680,
      "Ġstruktura": 2681,
      "Ġnodarbina": 2682,
      "Ġkuga": 2683,
      "Ġuzskatit": 2684,
      "Ġsumma": 2685,
      "advoka": 2686,
      "Ġgeneraladvoka": 2687,
      "Ġsituacija": 2688,
      "Ðµ": 2689,
      "Ġfinanse": 2690,
      "Ġdalibnieku": 2691,
      "Ġpiemerojot": 2692,
      "Ġapluko": 2693,
      "Ġpardosanas": 2694,
      "Ġkopejo": 2695,
      "Ġefektiv": 2696,
      "oti": 2697,
      "pam": 2698,
      "Ġietekmi": 2699,
      "Ġdzives": 2700,
      "Ġgeograf": 2701,
      "Ġprincips": 2702,
      "Ġpienemusi": 2703,
      "Ġdienes": 2704,
      "zas": 2705,
      "33": 2706,
      "Ġietekmes": 2707,
      "Ġneattiecas": 2708,
      "ksanai": 2709,
      "Ġsekas": 2710,
      "Ġvisa": 2711,
      "itate": 2712,
      "dis": 2713,
      "Ġmaterialiem": 2714,
      "Ġprasitajs": 2715,
      "kos": 2716,
      "Ġpen": 2717,
      "Ġpasas": 2718,
      "inasanai": 2719,
      "Ġprieksro": 2720,
      "Ġgrozijumi": 2721,
      "Ġaktus": 2722,
      "Ĥ¬": 2723,
      "mju": 2724,
      "Ġdom": 2725,
      "Ġpienemts": 2726,
      "ads": 2727,
      "Ġatbalsts": 2728,
      "uras": 2729,
      "priest": 2730,
      "Ġattistibas": 2731,
      "Ġuzskaiti": 2732,
      "Ġpanak": 2733,
      "Ġnosacijumus": 2734,
      "Ġinf": 2735,
      "ĠâĤ¬": 2736,
      "34": 2737,
      "Ġveikta": 2738,
      "Ġmln": 2739,
      "one": 2740,
      "Ġdeleg": 2741,
      "Ġneties": 2742,
      "Ġpienakumus": 2743,
      "Ġpriekssedetajs": 2744,
      "Ġvil": 2745,
      "Ġaugu": 2746,
      "vju": 2747,
      "Ġizdar": 2748,
      "Ġinicia": 2749,
      "erau": 2750,
      "Ġnodrosinati": 2751,
      "inatu": 2752,
      "Ġudens": 2753,
      "giju": 2754,
      "Ġnedri": 2755,
      "Ġkvo": 2756,
      "Ġminetajam": 2757,
      "vielas": 2758,
      "vusi": 2759,
      "cesanas": 2760,
      "uni": 2761,
      "ocia": 2762,
      "Ġfil": 2763,
      "Ġiesniedzeja": 2764,
      "azes": 2765,
      "Ġnebu": 2766,
      "Ġcivildien": 2767,
      "Ġrakstu": 2768,
      "Ġfebruara": 2769,
      "jusies": 2770,
      "Ġstatu": 2771,
      "Ġpienema": 2772,
      "materi": 2773,
      "Ġos": 2774,
      "Ġltd": 2775,
      "ii": 2776,
      "Ġpieteikums": 2777,
      "Ġbrisele": 2778,
      "Ġlimena": 2779,
      "Ġreiz": 2780,
      "cie": 2781,
      "skata": 2782,
      "lus": 2783,
      "Ġsoda": 2784,
      "Ġizgli": 2785,
      "Ġvajadzibam": 2786,
      "Ġiecel": 2787,
      "tina": 2788,
      "Ġsamer": 2789,
      "Ġnoligums": 2790,
      "Ġatr": 2791,
      "Ġiedala": 2792,
      "Ġam": 2793,
      "Ġsecinajumu": 2794,
      "Ġdati": 2795,
      "Ġbie": 2796,
      "Ġparejas": 2797,
      "Ġveids": 2798,
      "Ġpienemsanas": 2799,
      "dos": 2800,
      "Ġsaturu": 2801,
      "31": 2802,
      "Ġvelak": 2803,
      "Ġpareiz": 2804,
      "Ġpiezime": 2805,
      "Ġargumenti": 2806,
      "Ġaspek": 2807,
      "tras": 2808,
      "Ġzona": 2809,
      "Ġnosaukumu": 2810,
      "Ġadministrativa": 2811,
      "Ġieteik": 2812,
      "Ġveidu": 2813,
      "Ġsubjek": 2814,
      "Ġsau": 2815,
      "Ġ&": 2816,
      "beidzot": 2817,
      "Ġkoor": 2818,
      "Ġjaveic": 2819,
      "Ġprodukti": 2820,
      "Ġkorek": 2821,
      "Ġnepien": 2822,
      "Ġizmantosanas": 2823,
      "rop": 2824,
      "edera": 2825,
      "Ġsummas": 2826,
      "Ġapstakli": 2827,
      "ut": 2828,
      "Ġrazojuma": 2829,
      "aida": 2830,
      "Ġvaldiba": 2831,
      "Ġnoteikto": 2832,
      "pieder": 2833,
      "Ġaustri": 2834,
      "Ġture": 2835,
      "Ġdatums": 2836,
      "Ġruna": 2837,
      "Ġpaties": 2838,
      "Ġpats": 2839,
      "68": 2840,
      "Ġnovers": 2841,
      "Ġpersonai": 2842,
      "pc": 2843,
      "Ġpamatregulas": 2844,
      "mat": 2845,
      "Ġtiesiska": 2846,
      "Ġpielikumu": 2847,
      "pap": 2848,
      "Ġkurai": 2849,
      "Ġmerkiem": 2850,
      "Ġcie": 2851,
      "Ġredakcija": 2852,
      "Ġizej": 2853,
      "Ġsader": 2854,
      "Ġlaikposma": 2855,
      "Ð½": 2856,
      "Ġjurisdik": 2857,
      "ys": 2858,
      "ardz": 2859,
      "Ġvalstspieder": 2860,
      "Ġuzturesanas": 2861,
      "Ġjomas": 2862,
      "tnu": 2863,
      "Ġarvals": 2864,
      "Ġkn": 2865,
      "likum": 2866,
      "Ġstasanas": 2867,
      "Ġvisam": 2868,
      "Ġminetie": 2869,
      "Ġformule": 2870,
      "rada": 2871,
      "Ġvisbeidzot": 2872,
      "01": 2873,
      "Ġpilnvaras": 2874,
      "Ġ1998": 2875,
      "Ġparkapums": 2876,
      "Ġprieksmets": 2877,
      "Ġatkap": 2878,
      "Ġkrimin": 2879,
      "Ġizdevumiem": 2880,
      "Ġjanem": 2881,
      "Ġnedrikst": 2882,
      "Ġpartner": 2883,
      "Ġpaskaidro": 2884,
      "Ġprasijumi": 2885,
      "Ġru": 2886,
      "Ġkadu": 2887,
      "iskos": 2888,
      "Ġatzis": 2889,
      "Ġantidem": 2890,
      "Ġviete": 2891,
      "Ġcivildienesta": 2892,
      "Ġth": 2893,
      "Ġantidempinga": 2894,
      "niegsanas": 2895,
      "Ġaktos": 2896,
      "osaka": 2897,
      "Ġjudikaturu": 2898,
      "Ġdu": 2899,
      "Ġiemaks": 2900,
      "Ġsaimniec": 2901,
      "27": 2902,
      "Ġbal": 2903,
      "Ġnon": 2904,
      "Ġnodros": 2905,
      "Ġtransporta": 2906,
      "fu": 2907,
      "Ġdarbiba": 2908,
      "Ġparstr": 2909,
      "Ġjauz": 2910,
      "Ġvienlidz": 2911,
      "drau": 2912,
      "Ġaugus": 2913,
      "Ġ220": 2914,
      "Ġiebildumu": 2915,
      "Ġkluda": 2916,
      "Ġskers": 2917,
      "Ġtehno": 2918,
      "ojuma": 2919,
      "Ġpazinojumu": 2920,
      "Ġtransportlidzekla": 2921,
      "Ġgaliga": 2922,
      "Ġinstitu": 2923,
      "Ġizmantosana": 2924,
      "Ġparbaude": 2925,
      "Ġkoncen": 2926,
      "Ġsadus": 2927,
      "Ġaty": 2928,
      "Ġpap": 2929,
      "Ġgimen": 2930,
      "Ġsudzibu": 2931,
      "Ġdaleji": 2932,
      "iskiem": 2933,
      "Ġnoraidit": 2934,
      "Ġsads": 2935,
      "tajas": 2936,
      "Ġuzlik": 2937,
      "Ġmcy": 2938,
      "van": 2939,
      "rig": 2940,
      "onu": 2941,
      "Ġtais": 2942,
      "Ġportu": 2943,
      "Ġjano": 2944,
      "Ġjaatgadina": 2945,
      "lig": 2946,
      "Ġcitadas": 2947,
      "Ġsubsi": 2948,
      "Ġreglamente": 2949,
      "Ġpiemerojams": 2950,
      "Ġtatad": 2951,
      "ber": 2952,
      "Ġkontrole": 2953,
      "Ġsm": 2954,
      "Ġapliecina": 2955,
      "ams": 2956,
      "Ġiekartas": 2957,
      "pirms": 2958,
      "Ġpi": 2959,
      "onas": 2960,
      "Ġidentifika": 2961,
      "Ġvispirms": 2962,
      "Ġsen": 2963,
      "Ġklasifice": 2964,
      "Ġpiespriest": 2965,
      "Ġpreciz": 2966,
      "fikacijas": 2967,
      "Ġnu": 2968,
      "aku": 2969,
      "Ġnumurs": 2970,
      "pakal": 2971,
      "Ġstrate": 2972,
      "Ġ030": 2973,
      "augs": 2974,
      "Ġapri": 2975,
      "retar": 2976,
      "Ġattiecigajam": 2977,
      "Ġprogrammu": 2978,
      "tt": 2979,
      "Ġsituaciju": 2980,
      "Ġnelikum": 2981,
      "Ġton": 2982,
      "Ġsavukart": 2983,
      "Ġtiesisko": 2984,
      "Ġfrancijas": 2985,
      "Ġuzliek": 2986,
      "Ġapspries": 2987,
      "ved": 2988,
      "Ġoficialaja": 2989,
      "Ġpielago": 2990,
      "tic": 2991,
      "Ġatsauk": 2992,
      "Ġsabiedriba": 2993,
      "bi": 2994,
      "Ġesosa": 2995,
      "Ġitalijas": 2996,
      "Ġprasitaju": 2997,
      "Ġizdevumi": 2998,
      "Ġkinas": 2999,
      "Ġkompetenta": 3000,
      "Ġapstrada": 3001,
      "Ġzemes": 3002,
      "Ġpasreiz": 3003,
      "Ġpagar": 3004,
      "Ġtipa": 3005,
      "Ġlidzekli": 3006,
      "74": 3007,
      "Ġizpildes": 3008,
      "mit": 3009,
      "Ġteik": 3010,
      "ejie": 3011,
      "tir": 3012,
      "Ġnodari": 3013,
      "Ġliet": 3014,
      "Ġprocentu": 3015,
      "Ġprodukta": 3016,
      "Ġpiekluvi": 3017,
      "mai": 3018,
      "Ġatsauces": 3019,
      "Ġbijusi": 3020,
      "Ġstu": 3021,
      "tisana": 3022,
      "02": 3023,
      "Ġizdevumu": 3024,
      "Ġverts": 3025,
      "oli": 3026,
      "Ġcas": 3027,
      "0000": 3028,
      "tni": 3029,
      "Ġnebutu": 3030,
      "rej": 3031,
      "Ġpalidzibu": 3032,
      "Ġrazotaju": 3033,
      "Ġon": 3034,
      "Ġinfras": 3035,
      "Ġlidzver": 3036,
      "ano": 3037,
      "Ġatbildetaja": 3038,
      "Ġlaba": 3039,
      "kape": 3040,
      "Ġatbilstibas": 3041,
      "Ġbuv": 3042,
      "Ġuznemumi": 3043,
      "Ġnotik": 3044,
      "Ġza": 3045,
      "Ġhu": 3046,
      "Ġuzsver": 3047,
      "Ġgb": 3048,
      "Ġsadarbibu": 3049,
      "Ġvienlai": 3050,
      "26": 3051,
      "Ġpriva": 3052,
      "tams": 3053,
      "Ġrezer": 3054,
      "Ġizvel": 3055,
      "osanos": 3056,
      "dzes": 3057,
      "Ġatkla": 3058,
      "Ġ040": 3059,
      "reak": 3060,
      "Ġsavienibu": 3061,
      "iki": 3062,
      "Ġjaunu": 3063,
      "Ġkonteksta": 3064,
      "Ġrx": 3065,
      "Ġklien": 3066,
      "Ġtacu": 3067,
      "Ġkomisiju": 3068,
      "vielu": 3069,
      "Ġparstavis": 3070,
      "Ġkr": 3071,
      "Ġatzinumu": 3072,
      "unas": 3073,
      "tan": 3074,
      "Ġnepama": 3075,
      "Ġrisku": 3076,
      "Ġskar": 3077,
      "Ġnoradit": 3078,
      "Ġapjoms": 3079,
      "Ġgalvenokart": 3080,
      "Ġsanemt": 3081,
      "Ġinves": 3082,
      "Ġjautajuma": 3083,
      "vijas": 3084,
      "Ġstrukturas": 3085,
      "Ġsabiedribu": 3086,
      "Ġiered": 3087,
      "af": 3088,
      "pon": 3089,
      "Ġstavokli": 3090,
      "Ġtiesiskas": 3091,
      "Ġ101": 3092,
      "Ġdiskri": 3093,
      "Ġportug": 3094,
      "Ġiesniegts": 3095,
      "Ġkaralistes": 3096,
      "Ġsede": 3097,
      "pozi": 3098,
      "Ġvertspap": 3099,
      "Ġgala": 3100,
      "Ġienem": 3101,
      "Ġidenti": 3102,
      "Ġpusem": 3103,
      "guma": 3104,
      "Ġjanosaka": 3105,
      "Ġbg": 3106,
      "Ġlietder": 3107,
      "Ġapgro": 3108,
      "zo": 3109,
      "Ġatbilstibu": 3110,
      "Ġho": 3111,
      "Ġasocia": 3112,
      "Ġkategorijas": 3113,
      "Ġdis": 3114,
      "Ġdarbojas": 3115,
      "Ġsadiem": 3116,
      "Ġstandarta": 3117,
      "jamas": 3118,
      "Ġizdariti": 3119,
      "ÑĢ": 3120,
      "Ġnoradija": 3121,
      "Ġtirdzniecibu": 3122,
      "zina": 3123,
      "Ġpt": 3124,
      "tveida": 3125,
      "Ġvestnesi": 3126,
      "Ġpusu": 3127,
      "Ġhipotekas": 3128,
      "cela": 3129,
      "iskam": 3130,
      "sanai": 3131,
      "igiem": 3132,
      "Ġkadas": 3133,
      "Ġneskar": 3134,
      "Ġapdrau": 3135,
      "tiku": 3136,
      "land": 3137,
      "gie": 3138,
      "Ġvielas": 3139,
      "Ġ107": 3140,
      "Ġbutiski": 3141,
      "38": 3142,
      "Ġnozim": 3143,
      "Ġdib": 3144,
      "ejusi": 3145,
      "Ġkaitejumu": 3146,
      "Ġsch": 3147,
      "Ġpati": 3148,
      "Ġviz": 3149,
      "Ġvan": 3150,
      "Ġpiem": 3151,
      "tional": 3152,
      "Ġkriterijiem": 3153,
      "Ġgriek": 3154,
      "bo": 3155,
      "Ġzinojuma": 3156,
      "Ġinfrastruk": 3157,
      "Ġsavieno": 3158,
      "Ġkugi": 3159,
      "Ġzinojumu": 3160,
      "Ġsvara": 3161,
      "Ġ020": 3162,
      "Ġrikojumu": 3163,
      "Ġmei": 3164,
      "Ġterminu": 3165,
      "tosanas": 3166,
      "39": 3167,
      "Ġapraksts": 3168,
      "Ġdarbu": 3169,
      "Ġprob": 3170,
      "Ġrisina": 3171,
      "Ġdeta": 3172,
      "ambu": 3173,
      "Ġsadali": 3174,
      "Ġspanijas": 3175,
      "ÏĦ": 3176,
      "Ġdev": 3177,
      "Ġstatisti": 3178,
      "Ġapjomu": 3179,
      "Ġkriminal": 3180,
      "amibas": 3181,
      "pogu": 3182,
      "Ġavo": 3183,
      "Ġloti": 3184,
      "Ġpreambu": 3185,
      "Ġautoma": 3186,
      "Ġvielu": 3187,
      "Ġparasti": 3188,
      "45": 3189,
      "emam": 3190,
      "Ġsvai": 3191,
      "Ġpieskirt": 3192,
      "Ġmode": 3193,
      "ejot": 3194,
      "Ġnotiek": 3195,
      "Ġapelaciju": 3196,
      "Ġregul": 3197,
      "Ġpard": 3198,
      "Ġgimenes": 3199,
      "inata": 3200,
      "ck": 3201,
      "idro": 3202,
      "Ġtamlidz": 3203,
      "Ġeksplu": 3204,
      "Ġpamatojums": 3205,
      "Ġiegus": 3206,
      "Ġbijis": 3207,
      "Ġdienu": 3208,
      "Ġregulejums": 3209,
      "Ġpriekslikumu": 3210,
      "ora": 3211,
      "Ġiepirkuma": 3212,
      "Ġinterpretaciju": 3213,
      "Ġsastavd": 3214,
      "Ġatlidzibu": 3215,
      "Ġet": 3216,
      "Ġdek": 3217,
      "Ġpaplas": 3218,
      "and": 3219,
      "Ġpreteji": 3220,
      "Ġposma": 3221,
      "08": 3222,
      "Ġlugumu": 3223,
      "Ġtads": 3224,
      "Ġslim": 3225,
      "Ġavi": 3226,
      "Ġprojektu": 3227,
      "zemes": 3228,
      "ksme": 3229,
      "Ġreglamenta": 3230,
      "05": 3231,
      "kie": 3232,
      "Ġ1994": 3233,
      "Ġmez": 3234,
      "Ġsaturs": 3235,
      "Ġdivi": 3236,
      "Ġsagatavo": 3237,
      "Ġsvei": 3238,
      "ĠâĪ": 3239,
      "Ġfaktu": 3240,
      "Ġexc": 3241,
      "ty": 3242,
      "legsanas": 3243,
      "vilk": 3244,
      "Ġprogramma": 3245,
      "Ġkonf": 3246,
      "77": 3247,
      "Ġpaslu": 3248,
      "Ġnedz": 3249,
      "Ġistenot": 3250,
      "Ġnodrosinats": 3251,
      "Ġatlik": 3252,
      "Ġnl": 3253,
      "Ġjedziens": 3254,
      "Ġcukura": 3255,
      "Ġzimi": 3256,
      "Ġdazad": 3257,
      "jams": 3258,
      "Ġregulejuma": 3259,
      "Ġizsleg": 3260,
      "lauj": 3261,
      "Ġiekas": 3262,
      "Ġnepieciesama": 3263,
      "ust": 3264,
      "Ġlido": 3265,
      "aro": 3266,
      "Ġaizdev": 3267,
      "isa": 3268,
      "Ġbeigam": 3269,
      "Ġkludu": 3270,
      "Ġsaistos": 3271,
      "ciba": 3272,
      "Ġnovertejuma": 3273,
      "Ġpakap": 3274,
      "Ġstridi": 3275,
      "Ġsociala": 3276,
      "Ġatlidzina": 3277,
      "Ġcenam": 3278,
      "Ġpasaz": 3279,
      "Ġkugu": 3280,
      "Ġrakstveida": 3281,
      "Ġkodeksa": 3282,
      "amas": 3283,
      "Ġpriori": 3284,
      "Ġvairs": 3285,
      "ets": 3286,
      "Ġzems": 3287,
      "Ġpienakuma": 3288,
      "her": 3289,
      "28": 3290,
      "Ġcaur": 3291,
      "Ġsubsidi": 3292,
      "osi": 3293,
      "Ġkvalitates": 3294,
      "maksas": 3295,
      "Ġzaudejumu": 3296,
      "ekliem": 3297,
      "Ġplat": 3298,
      "Ġ207": 3299,
      "Ġpieau": 3300,
      "Ġveicina": 3301,
      "Î½": 3302,
      "tem": 3303,
      "35": 3304,
      "Ġdzivesvie": 3305,
      "Ġdarzen": 3306,
      "Ġuzdo": 3307,
      "ijam": 3308,
      "Ġpreambulas": 3309,
      "Ġreviz": 3310,
      "grie": 3311,
      "Ġizsnieg": 3312,
      "Ġtiesnes": 3313,
      "Ġq": 3314,
      "Ġpaklau": 3315,
      "Ġiepak": 3316,
      "pejas": 3317,
      "Ġstr": 3318,
      "toriem": 3319,
      "Ġmanu": 3320,
      "cien": 3321,
      "Ġseg": 3322,
      "Ġaizsardziba": 3323,
      "Ġcitus": 3324,
      "Ġ125": 3325,
      "ÅĤ": 3326,
      "alos": 3327,
      "Ġdokumentiem": 3328,
      "Ġgrupa": 3329,
      "etajam": 3330,
      "Ġizmainas": 3331,
      "Ġsadala": 3332,
      "esanai": 3333,
      "oga": 3334,
      "Ġizmaksu": 3335,
      "amer": 3336,
      "Ġtresam": 3337,
      "Ġpadomei": 3338,
      "ena": 3339,
      "Ġpamatoti": 3340,
      "Ġforma": 3341,
      "Ġpedeja": 3342,
      "Ġaktiv": 3343,
      "Ġteritorijas": 3344,
      "Ġpazinojums": 3345,
      "aru": 3346,
      "Ġstarptautiskas": 3347,
      "Ġizdo": 3348,
      "lis": 3349,
      "Ġai": 3350,
      "Ġnaka": 3351,
      "Ġadministrativ": 3352,
      "Ġkompetence": 3353,
      "Ġlidzverti": 3354,
      "titi": 3355,
      "Ġhipotekar": 3356,
      "Ġapsverums": 3357,
      "Ġizgatav": 3358,
      "Ġtil": 3359,
      "Ġdecembris": 3360,
      "Ġgalvena": 3361,
      "Ġprecize": 3362,
      "Ġsastava": 3363,
      "izacijas": 3364,
      "Ġ112": 3365,
      "Ġnelie": 3366,
      "Ġapstrideto": 3367,
      "Ġtekstil": 3368,
      "Ġsma": 3369,
      "jamo": 3370,
      "Ġkoncentra": 3371,
      "Ġ115": 3372,
      "Ġziem": 3373,
      "tspej": 3374,
      "meta": 3375,
      "ars": 3376,
      "Ġsaistita": 3377,
      "Ġhartas": 3378,
      "Ġinteg": 3379,
      "Ġmaksajuma": 3380,
      "Ġpiezimes": 3381,
      "Ġstabil": 3382,
      "Ġatbildibu": 3383,
      "44": 3384,
      "Â°": 3385,
      "direk": 3386,
      "rad": 3387,
      "Îµ": 3388,
      "Ġparlaments": 3389,
      "Ġcy": 3390,
      "Ġipasa": 3391,
      "Ġvienkars": 3392,
      "mon": 3393,
      "Ġsektora": 3394,
      "Ġterau": 3395,
      "Ġeuipo": 3396,
      "Ġ080": 3397,
      "lin": 3398,
      "dzivo": 3399,
      "Ġgarante": 3400,
      "Ġpensi": 3401,
      "95": 3402,
      "osas": 3403,
      "Ġ2022": 3404,
      "ÑĤ": 3405,
      "Ġierices": 3406,
      "Ġmain": 3407,
      "Ġpapildus": 3408,
      "Ġaptver": 3409,
      "igais": 3410,
      "Ġdatiem": 3411,
      "Ġprivatpersona": 3412,
      "Ġkrediti": 3413,
      "Ġfrancija": 3414,
      "Ġpamati": 3415,
      "Ġseptembri": 3416,
      "Ġpasakums": 3417,
      "Ġapjo": 3418,
      "liem": 3419,
      "Ġjanoraida": 3420,
      "turet": 3421,
      "Ġtehniska": 3422,
      "Ġatlauja": 3423,
      "Ġapmer": 3424,
      "Ġaugusta": 3425,
      "85": 3426,
      "Ġelektroener": 3427,
      "Ġ300": 3428,
      "unu": 3429,
      "36": 3430,
      "Ġeksper": 3431,
      "Ġinteresu": 3432,
      "alus": 3433,
      "Ġkategorija": 3434,
      "Ġvinam": 3435,
      "Ġoktobri": 3436,
      "Ġtiesiskais": 3437,
      "Ġapgab": 3438,
      "Ġiemeslu": 3439,
      "gro": 3440,
      "ile": 3441,
      "tami": 3442,
      "Ġsodu": 3443,
      "Ġdalibvalstij": 3444,
      "Ġpieskirtas": 3445,
      "Ġgla": 3446,
      "04": 3447,
      "Ġparskata": 3448,
      "oso": 3449,
      "Ġcela": 3450,
      "Ġprocess": 3451,
      "Ġkreditiesta": 3452,
      "Ġkonkreti": 3453,
      "Ġpul": 3454,
      "Ġtala": 3455,
      "Ġskiet": 3456,
      "mbh": 3457,
      "Ġbul": 3458,
      "Ġapriko": 3459,
      "tions": 3460,
      "Ġkads": 3461,
      "Ġatkariba": 3462,
      "Ġnormam": 3463,
      "Ġnodrosinajuma": 3464,
      "Ġmt": 3465,
      "Ġjapiemero": 3466,
      "Ġfedera": 3467,
      "Ġizmeklesana": 3468,
      "Ġdempinga": 3469,
      "Ġitalija": 3470,
      "gam": 3471,
      "Ġatras": 3472,
      "Ġkok": 3473,
      "Ġapsverumu": 3474,
      "Ïģ": 3475,
      "Ġgmbh": 3476,
      "ag": 3477,
      "amiba": 3478,
      "Ġaizstav": 3479,
      "Ġpateretaju": 3480,
      "Ġben": 3481,
      "robezu": 3482,
      "Ġtrau": 3483,
      "Ġekspluata": 3484,
      "Ġsle": 3485,
      "vitras": 3486,
      "Ġtikla": 3487,
      "Ġvini": 3488,
      "Ġlimenis": 3489,
      "Ġmaisi": 3490,
      "Ġlin": 3491,
      "Ġrakstur": 3492,
      "Ġotraja": 3493,
      "fiden": 3494,
      "mem": 3495,
      "Ġsados": 3496,
      "Ġjuridiskas": 3497,
      "Ġpieradijumu": 3498,
      "Ġzemsvitras": 3499,
      "Ġparrobezu": 3500,
      "Ġ1995": 3501,
      "Ġatbildiga": 3502,
      "Ġhipotekarie": 3503,
      "Ġhr": 3504,
      "igos": 3505,
      "Ġnepil": 3506,
      "usanas": 3507,
      "Ġvairakas": 3508,
      "ijs": 3509,
      "Ġzinatn": 3510,
      "Ġuzsak": 3511,
      "Ġjapie": 3512,
      "Ġorganizaciju": 3513,
      "liz": 3514,
      "Ġuzskatija": 3515,
      "Ġ1996": 3516,
      "Ġamata": 3517,
      "Ġvienibas": 3518,
      "Ġdarbinieku": 3519,
      "Ġcz": 3520,
      "06": 3521,
      "Ġnovertejumu": 3522,
      "Ġkvotu": 3523,
      "cht": 3524,
      "Ġnovembri": 3525,
      "Ġrik": 3526,
      "labvel": 3527,
      "Ġsniegsanas": 3528,
      "91": 3529,
      "Ġ1997": 3530,
      "trauk": 3531,
      "Ġvertspapir": 3532,
      "manto": 3533,
      "Ġpieskirsanas": 3534,
      "Ġrazotajiem": 3535,
      "Ġmeitas": 3536,
      "tesanu": 3537,
      "ebreak": 3538,
      "Ġpieradijumus": 3539,
      "Ġpagebreak": 3540,
      "Ġpalielina": 3541,
      "Ġlais": 3542,
      "Ġdefine": 3543,
      "Ġbutiska": 3544,
      "Ġsati": 3545,
      "Ġplus": 3546,
      "áĥ": 3547,
      "Ġnosakot": 3548,
      "Ġveicot": 3549,
      "iskus": 3550,
      "Ġskaitu": 3551,
      "Ġdeg": 3552,
      "Ġkonkretu": 3553,
      "Ġiepriekseja": 3554,
      "Ġatjauno": 3555,
      "tates": 3556,
      "Ġsaik": 3557,
      "Ġapvieno": 3558,
      "Ġpiedali": 3559,
      "Ġpiemerojami": 3560,
      "Ġvietu": 3561,
      "priez": 3562,
      "Ġkopejas": 3563,
      "Ġapstakliem": 3564,
      "Ġdk": 3565,
      "Ġnelabvel": 3566,
      "Ġkredita": 3567,
      "ostad": 3568,
      "07": 3569,
      "Ġgab": 3570,
      "Ġapstaklus": 3571,
      "Ġpieprasijumu": 3572,
      "Ġpe": 3573,
      "Ġtra": 3574,
      "Ġrobezas": 3575,
      "Ġtabula": 3576,
      "Ñģ": 3577,
      "Ġjautajumi": 3578,
      "Ġpamatnostad": 3579,
      "Ġzemaka": 3580,
      "Ġhe": 3581,
      "Ġpeti": 3582,
      "gadi": 3583,
      "Ġshemas": 3584,
      "Ġsaraksts": 3585,
      "Ġluguma": 3586,
      "Ġvelas": 3587,
      "Ġparvadajumu": 3588,
      "tai": 3589,
      "Ġapdraude": 3590,
      "Ġsin": 3591,
      "Ġkompensacijas": 3592,
      "Ġsituacijas": 3593,
      "Ġlielaka": 3594,
      "ff": 3595,
      "Ġtransportlidzeklu": 3596,
      "Ġapru": 3597,
      "Ġdatuma": 3598,
      "Ġatlauts": 3599,
      "Ġvalu": 3600,
      "37": 3601,
      "Ġmel": 3602,
      "pn": 3603,
      "od": 3604,
      "Ġpirmais": 3605,
      "per": 3606,
      "Ġungar": 3607,
      "Ġrezolutiva": 3608,
      "Ġdzivnie": 3609,
      "Ġjanvari": 3610,
      "Ġatvie": 3611,
      "aimnieciba": 3612,
      "Ġgadus": 3613,
      "Ġcpc": 3614,
      "66": 3615,
      "Ġatspogu": 3616,
      "Ġfe": 3617,
      "bauda": 3618,
      "Ġizstradajumu": 3619,
      "Ġrepubliku": 3620,
      "Ġmera": 3621,
      "umtir": 3622,
      "Ġluks": 3623,
      "Ġskaidr": 3624,
      "Ġvajadziga": 3625,
      "Ġ105": 3626,
      "vak": 3627,
      "Ġbis": 3628,
      "termina": 3629,
      "Ġarkar": 3630,
      "Ġeurope": 3631,
      "lema": 3632,
      "Ġapkar": 3633,
      "Ġspanija": 3634,
      "Ġ108": 3635,
      "Ġrupnieciba": 3636,
      "Ġapko": 3637,
      "Ġpazin": 3638,
      "Ġdzelz": 3639,
      "titas": 3640,
      "Ġtem": 3641,
      "Ġcena": 3642,
      "bes": 3643,
      "tesana": 3644,
      "hi": 3645,
      "Ġsaistits": 3646,
      "Ġjuridisko": 3647,
      "Ġniderlandes": 3648,
      "Ġnoradijusi": 3649,
      "Ġdrikst": 3650,
      "Ġregulejumu": 3651,
      "Ġizstr": 3652,
      "Ġsedz": 3653,
      "Ġdig": 3654,
      "Ġstarpa": 3655,
      "Ġleg": 3656,
      "Ġjaparbauda": 3657,
      "se": 3658,
      "Ġkul": 3659,
      "Ġxx": 3660,
      "Ġiestaj": 3661,
      "Ġizmantotas": 3662,
      "Ġnorades": 3663,
      "Ġvareja": 3664,
      "Ġapjoma": 3665,
      "Ġfer": 3666,
      "produk": 3667,
      "Ġrodas": 3668,
      "ĠÕ": 3669,
      "ren": 3670,
      "Ġterauda": 3671,
      "Ġatvas": 3672,
      "che": 3673,
      "dei": 3674,
      "Ġatla": 3675,
      "Ġpiekris": 3676,
      "Ġattiecigais": 3677,
      "Ġesamibu": 3678,
      "Ġrin": 3679,
      "niec": 3680,
      "03": 3681,
      "Ġlabvel": 3682,
      "Ġatpakal": 3683,
      "Ġnetika": 3684,
      "Ġbrivibas": 3685,
      "devas": 3686,
      "58": 3687,
      "fikaciju": 3688,
      "Ġdab": 3689,
      "igus": 3690,
      "Ġpienacigi": 3691,
      "Ġkonta": 3692,
      "Ġrazojumu": 3693,
      "Ġimportu": 3694,
      "Ġjaatbil": 3695,
      "Ġatte": 3696,
      "Ġtehnolo": 3697,
      "Ġneatbilst": 3698,
      "Ġdalibniekiem": 3699,
      "Ġnozie": 3700,
      "Ġcn": 3701,
      "toties": 3702,
      "47": 3703,
      "Ġbil": 3704,
      "tat": 3705,
      "Ġjunijs": 3706,
      "Ġoficial": 3707,
      "Ġreferen": 3708,
      "Ġturpina": 3709,
      "tspejas": 3710,
      "Ġsamaksa": 3711,
      "Ġmedicin": 3712,
      "cinat": 3713,
      "Ġkonfiden": 3714,
      "Ġsajos": 3715,
      "Ġsank": 3716,
      "Ġpieejama": 3717,
      "Ġdiskrimina": 3718,
      "Ġrek": 3719,
      "embur": 3720,
      "Ġresursu": 3721,
      "Ġkomb": 3722,
      "Ġzalu": 3723,
      "Ġjulijs": 3724,
      "Ġlikums": 3725,
      "gumu": 3726,
      "Ġvisparejo": 3727,
      "Ġposten": 3728,
      "Ġvadibas": 3729,
      "Ġnoverstu": 3730,
      "Ġform": 3731,
      "Ġpakape": 3732,
      "Ġagentura": 3733,
      "iste": 3734,
      "Ġtehnisko": 3735,
      "Ġprojekta": 3736,
      "Ġlidzdal": 3737,
      "Ġierobezojos": 3738,
      "veju": 3739,
      "Ġistenosana": 3740,
      "Ġgatav": 3741,
      "Ġplana": 3742,
      "49": 3743,
      "Ġieklauj": 3744,
      "Ġatbildes": 3745,
      "Ġdzivo": 3746,
      "Ġskaita": 3747,
      "Ġbrivibu": 3748,
      "turai": 3749,
      "Ġni": 3750,
      "Ġinvesti": 3751,
      "41": 3752,
      "Ġrezima": 3753,
      "Ġieklaus": 3754,
      "Ġkartibu": 3755,
      "Ġadrese": 3756,
      "Ġatzit": 3757,
      "je": 3758,
      "Ġsec": 3759,
      "Ġaizsargatu": 3760,
      "Ġregulai": 3761,
      "Ġluksembur": 3762,
      "viedri": 3763,
      "Ġietekmet": 3764,
      "Ġieklauti": 3765,
      "Ġuni": 3766,
      "Ġdigita": 3767,
      "Ġvertejums": 3768,
      "Ġee": 3769,
      "ment": 3770,
      "alie": 3771,
      "Ġsaglabas": 3772,
      "Ġatseviski": 3773,
      "ach": 3774,
      "Ġmenesu": 3775,
      "ekle": 3776,
      "Ġpublisko": 3777,
      "Ġpreten": 3778,
      "32": 3779,
      "ienem": 3780,
      "Ġlauku": 3781,
      "Ġpasazie": 3782,
      "terna": 3783,
      "Ġzviedri": 3784,
      "Ġlidzeklus": 3785,
      "svar": 3786,
      "Ġizmantosanai": 3787,
      "Ġprp": 3788,
      "Ġizmaksam": 3789,
      "Ġdivas": 3790,
      "Ġtikusi": 3791,
      "Ġizglitibas": 3792,
      "ear": 3793,
      "Ġjakon": 3794,
      "Ġlikmes": 3795,
      "Ġizbeig": 3796,
      "Ġ106": 3797,
      "Ġlas": 3798,
      "Ġabs": 3799,
      "Ġattiecigajiem": 3800,
      "vin": 3801,
      "tom": 3802,
      "isana": 3803,
      "Ġkopsa": 3804,
      "piem": 3805,
      "Ġshe": 3806,
      "Ġradusies": 3807,
      "Ġpabeig": 3808,
      "cc": 3809,
      "Ġproceduram": 3810,
      "Ġgrozijumiem": 3811,
      "ph": 3812,
      "Ġjaap": 3813,
      "Ġatsaucas": 3814,
      "Ġradit": 3815,
      "Ġapvienotajas": 3816,
      "Ġapmier": 3817,
      "vero": 3818,
      "Ġkvotas": 3819,
      "pora": 3820,
      "Ġlidzekliem": 3821,
      "igie": 3822,
      "Ġrum": 3823,
      "Ġaz": 3824,
      "Ġparad": 3825,
      "Ġudeni": 3826,
      "Ġligumiem": 3827,
      "Ġtilp": 3828,
      "tisks": 3829,
      "Ġatlas": 3830,
      "aul": 3831,
      "Ġanalo": 3832,
      "Ġsabiedribai": 3833,
      "Ġfinan": 3834,
      "Ġmerkus": 3835,
      "Ġizver": 3836,
      "tiz": 3837,
      "Ġasociacijas": 3838,
      "Ġlicences": 3839,
      "ram": 3840,
      "Ġefektivu": 3841,
      "Ġinterpretacija": 3842,
      "Ġvajadzigi": 3843,
      "Ġparstrada": 3844,
      "Ġpakalpojuma": 3845,
      "Ġnega": 3846,
      "Ġpasakuma": 3847,
      "Ġkonsulta": 3848,
      "Ġnepamato": 3849,
      "Ġalterna": 3850,
      "Ġpropor": 3851,
      "Ġesoso": 3852,
      "Ġop": 3853,
      "cionala": 3854,
      "tajus": 3855,
      "Ġvirz": 3856,
      "Ġjebkuru": 3857,
      "Ġtruk": 3858,
      "Ġneatbils": 3859,
      "Ġsekretar": 3860,
      "kais": 3861,
      "Ġraksturu": 3862,
      "Ġtarifu": 3863,
      "Ġpakar": 3864,
      "Ġras": 3865,
      "Ġprejudiciala": 3866,
      "Ġatkritumu": 3867,
      "ani": 3868,
      "Ġaud": 3869,
      "Ġjauzskata": 3870,
      "Ġpoziciju": 3871,
      "Ġpasludina": 3872,
      "Ġkonkurenci": 3873,
      "Ġiesniedzejs": 3874,
      "Ġipasas": 3875,
      "Ġstarptautisko": 3876,
      "Ġdokumentus": 3877,
      "Ġligumsledzejas": 3878,
      "Ġtesta": 3879,
      "mar": 3880,
      "Ġpastaviga": 3881,
      "Ġfo": 3882,
      "Ġnoregu": 3883,
      "ame": 3884,
      "Ġaprili": 3885,
      "Ġizvele": 3886,
      "Ġvienlaikus": 3887,
      "Î¿Ï": 3888,
      "tiesibas": 3889,
      "Ġrakstura": 3890,
      "Ġmetodes": 3891,
      "Ġ500": 3892,
      "Ġtehniskas": 3893,
      "Ġdekre": 3894,
      "Ġsecinajumus": 3895,
      "Ġqu": 3896,
      "Ġatvasina": 3897,
      "Ġcelta": 3898,
      "Ġattiecibas": 3899,
      "Ġzivs": 3900,
      "Ġmasas": 3901,
      "Ġsadarbiba": 3902,
      "46": 3903,
      "Ġnopie": 3904,
      "Ġlemumus": 3905,
      "Ġgadiem": 3906,
      "Ġav": 3907,
      "Ġvieno": 3908,
      "Ġapgrozi": 3909,
      "Ġorganiz": 3910,
      "Ġsadam": 3911,
      "tajos": 3912,
      "oss": 3913,
      "Ġparedzetie": 3914,
      "Ġveiktas": 3915,
      "Ġ103": 3916,
      "Ġfaktiska": 3917,
      "Ġer": 3918,
      "Ġaktivu": 3919,
      "Ġatsauce": 3920,
      "Ġelektr": 3921,
      "Ġrazotaji": 3922,
      "Ġjopro": 3923,
      "ges": 3924,
      "Ġpieskirta": 3925,
      "Ġagenturas": 3926,
      "Ġ5493": 3927,
      "Ġ102": 3928,
      "Ġjoprojam": 3929,
      "Ġnoteikuma": 3930,
      "vieto": 3931,
      "Ġkartiba": 3932,
      "ksnes": 3933,
      "Ġtaisn": 3934,
      "Ġtun": 3935,
      "Ġinstrumentu": 3936,
      "Ġbirojs": 3937,
      "88": 3938,
      "Ġsiki": 3939,
      "Ġnoteikums": 3940,
      "Ġoktobris": 3941,
      "Ġattiecin": 3942,
      "Ġapstridetaja": 3943,
      "Ġvajadzigs": 3944,
      "Ġiespejama": 3945,
      "prat": 3946,
      "Ġatkarto": 3947,
      "Ġilgtspej": 3948,
      "zon": 3949,
      "Ġkontroli": 3950,
      "Ġlikumdev": 3951,
      "Ġanglu": 3952,
      "Ġdarijumiem": 3953,
      "fen": 3954,
      "Ġpublicets": 3955,
      "Ġizvai": 3956,
      "Ġskirej": 3957,
      "Ġregiona": 3958,
      "Ġattais": 3959,
      "trija": 3960,
      "Ġstrukturu": 3961,
      "Ġmates": 3962,
      "Ġnodoklis": 3963,
      "Ġcons": 3964,
      "Ð²": 3965,
      "Ġricibu": 3966,
      "unika": 3967,
      "Ġizveidota": 3968,
      "75": 3969,
      "Ġjakonstate": 3970,
      "zita": 3971,
      "Ġdzim": 3972,
      "Ġrevizijas": 3973,
      "Ġvii": 3974,
      "Ġdokuments": 3975,
      "Ġ1992": 3976,
      "Ġatcelsanu": 3977,
      "Ġmerka": 3978,
      "Ġ120": 3979,
      "Ġjebkuras": 3980,
      "Ġnovertejums": 3981,
      "Ġnemeju": 3982,
      "Ġ1993": 3983,
      "Ġsocialo": 3984,
      "Ġrie": 3985,
      "Ġkamer": 3986,
      "devu": 3987,
      "Ġmik": 3988,
      "tel": 3989,
      "ojumu": 3990,
      "Ġjudikaturas": 3991,
      "Ġparskatisanas": 3992,
      "Ġaugstaka": 3993,
      "Ġkugiem": 3994,
      "Ġsasniegs": 3995,
      "Î·": 3996,
      "Ġjuridiskais": 3997,
      "Ġierobezojumu": 3998,
      "Ġemisijas": 3999,
      "Ġsarakstu": 4000,
      "Ġdefaul": 4001,
      "tf": 4002,
      "ienu": 4003,
      "Ġmaksat": 4004,
      "usa": 4005,
      "ton": 4006,
      "Ġlaun": 4007,
      "ols": 4008,
      "Ġpalidzibas": 4009,
      "Ġsakotneja": 4010,
      "Ġnoregule": 4011,
      "tacijas": 4012,
      "Ġuznemejdarbibu": 4013,
      "Ġgai": 4014,
      "Ġ549300": 4015,
      "Ġecb": 4016,
      "ud": 4017,
      "Ġnekavej": 4018,
      "Ġskir": 4019,
      "Ġsom": 4020,
      "Ġcies": 4021,
      "Ġmarts": 4022,
      "Ġatspogulo": 4023,
      "Ġstatusu": 4024,
      "Ġiekartu": 4025,
      "ropri": 4026,
      "Ġgalas": 4027,
      "tens": 4028,
      "tim": 4029,
      "eli": 4030,
      "Ġnekavejoties": 4031,
      "Ġgalvenie": 4032,
      "Ġrezimu": 4033,
      "Ġadministrativo": 4034,
      "Ġapropri": 4035,
      "Ġpienemot": 4036,
      "71": 4037,
      "gr": 4038,
      "Ġizmantota": 4039,
      "Ġnaf": 4040,
      "Ġspie": 4041,
      "Ġinterna": 4042,
      "Ġdefaulted": 4043,
      "Ġbelgijas": 4044,
      "Ġsalidzinajuma": 4045,
      "geri": 4046,
      "Ġatsevisku": 4047,
      "Ġakts": 4048,
      "Ġkonfidencial": 4049,
      "Ġpublicesanas": 4050,
      "Ġprasitajai": 4051,
      "Ġparbaudit": 4052,
      "inati": 4053,
      "Ġreizi": 4054,
      "Ġproblem": 4055,
      "Ġizskir": 4056,
      "Ġtiesvedibu": 4057,
      "Ġizrais": 4058,
      "Ġpilnvaru": 4059,
      "disanas": 4060,
      "griez": 4061,
      "Ġspriedumus": 4062,
      "Ġlikvi": 4063,
      "Ġsudziba": 4064,
      "Ġparlie": 4065,
      "Ġnorve": 4066,
      "Ġuznemumam": 4067,
      "Ġlat": 4068,
      "glo": 4069,
      "Ġnovembris": 4070,
      "yn": 4071,
      "Ġnosacijums": 4072,
      "Ġstrada": 4073,
      "Ġsatiksmes": 4074,
      "vai": 4075,
      "Ġbeidz": 4076,
      "Ġnorm": 4077,
      "uri": 4078,
      "Ġkrie": 4079,
      "Ġdefin": 4080,
      "Ġpolitiku": 4081,
      "Ġizpilditi": 4082,
      "Ġticis": 4083,
      "Ġcar": 4084,
      "Ġdaudzumu": 4085,
      "98": 4086,
      "Ġnakama": 4087,
      "Ġmarke": 4088,
      "Ġinc": 4089,
      "onen": 4090,
      "Ġcm": 4091,
      "pen": 4092,
      "Ġatgadina": 4093,
      "Ġparsnieg": 4094,
      "Ġskirejties": 4095,
      "Ġpieprasit": 4096,
      "Ġdrosibu": 4097,
      "ĠÃ": 4098,
      "Ġpardo": 4099,
      "akas": 4100,
      "Ġpieradijumi": 4101,
      "dit": 4102,
      "Ġarvalstu": 4103,
      "Ġhidro": 4104,
      "Ġpetniecibas": 4105,
      "Ġlietosanas": 4106,
      "Ġrekla": 4107,
      "Ġceh": 4108,
      "Ġelektroenergijas": 4109,
      "Ġzz": 4110,
      "Ġki": 4111,
      "Ġrazotajs": 4112,
      "Ġadministrativas": 4113,
      "umtirdz": 4114,
      "Ġsanaksmes": 4115,
      "65": 4116,
      "Ġnepas": 4117,
      "ign": 4118,
      "Ġietverti": 4119,
      "Ð»": 4120,
      "Ġtransportlidzekli": 4121,
      "Ġamer": 4122,
      "ome": 4123,
      "Ġpensiju": 4124,
      "uksanas": 4125,
      "Ġfra": 4126,
      "Ġtalak": 4127,
      "Ġiesniegsanas": 4128,
      "Ġfa": 4129,
      "Ġjanodrosina": 4130,
      "Ġfebruari": 4131,
      "zijas": 4132,
      "Ġzvej": 4133,
      "Ġkla": 4134,
      "forma": 4135,
      "Ġneskarot": 4136,
      "Ġapstridetais": 4137,
      "tiskie": 4138,
      "Ġseptembris": 4139,
      "Ġnet": 4140,
      "tisanai": 4141,
      "veido": 4142,
      "Ġbelgija": 4143,
      "Ġpolijas": 4144,
      "Ġkonkretas": 4145,
      "Ġapspriesanas": 4146,
      "Ġkompensaciju": 4147,
      "Ġkonvencija": 4148,
      "Ġdivu": 4149,
      "Ġaf": 4150,
      "Ġpasau": 4151,
      "Ġpamatlietas": 4152,
      "cigi": 4153,
      "Ġacvn": 4154,
      "67": 4155,
      "Ġizpa": 4156,
      "ws": 4157,
      "Ġpapild": 4158,
      "ficien": 4159,
      "Ġparejie": 4160,
      "Ġsuti": 4161,
      "Ġiedarb": 4162,
      "ler": 4163,
      "Ġieved": 4164,
      "Ġstatistikas": 4165,
      "Ġniderlande": 4166,
      "Ġkoe": 4167,
      "Ġpiemerota": 4168,
      "Ġgraf": 4169,
      "Ġjautajumus": 4170,
      "Ġliecina": 4171,
      "Ġtadiem": 4172,
      "Ġieves": 4173,
      "fikacija": 4174,
      "Ġidentifice": 4175,
      "Ġpriekssedetaja": 4176,
      "Ġdzelzcela": 4177,
      "Ġvid": 4178,
      "Ġkonstatets": 4179,
      "kluzi": 4180,
      "Ġapstrades": 4181,
      "Ġvertejuma": 4182,
      "Ġha": 4183,
      "Ġnodokliem": 4184,
      "84": 4185,
      "Ġmaj": 4186,
      "Ġattiecigos": 4187,
      "lietas": 4188,
      "Ġprotokolu": 4189,
      "Ġstadi": 4190,
      "ist": 4191,
      "Ġieksejo": 4192,
      "Ġprak": 4193,
      "Ġpievienotas": 4194,
      "tivs": 4195,
      "Ġ1510": 4196,
      "Ġgrau": 4197,
      "rai": 4198,
      "62": 4199,
      "Ġindeks": 4200,
      "Ġzonas": 4201,
      "Ġtirg": 4202,
      "Ġsamaks": 4203,
      "Ġidentifikacijas": 4204,
      "ly": 4205,
      "Ġkoordina": 4206,
      "Ġgriekijas": 4207,
      "dara": 4208,
      "Ġfonda": 4209,
      "Ġenergijas": 4210,
      "Ġbulgar": 4211,
      "55": 4212,
      "mus": 4213,
      "Ġparvaldibu": 4214,
      "nis": 4215,
      "Ġnoteiksanu": 4216,
      "igumu": 4217,
      "Ġpiekluve": 4218,
      "lor": 4219,
      "Ġskied": 4220,
      "Ġvisparejai": 4221,
      "lektu": 4222,
      "Ġbru": 4223,
      "Ġpoten": 4224,
      "Ġtranspon": 4225,
      "Ġipasu": 4226,
      "Ġauglu": 4227,
      "vali": 4228,
      "Ġvienota": 4229,
      "terin": 4230,
      "Ġrs": 4231,
      "Ġkor": 4232,
      "Ġacimredzami": 4233,
      "Ġrezims": 4234,
      "Ġikvien": 4235,
      "Ġattistibu": 4236,
      "69": 4237,
      "Ġlaunprati": 4238,
      "Ġdzer": 4239,
      "ova": 4240,
      "Ġkaut": 4241,
      "Ġneietek": 4242,
      "eklis": 4243,
      "Ġpieredz": 4244,
      "Ġveikti": 4245,
      "Ġkvalifice": 4246,
      "Ġnovertesanas": 4247,
      "dida": 4248,
      "gadu": 4249,
      "Ġbaz": 4250,
      "Ġsevi": 4251,
      "Ġiedzivo": 4252,
      "Ġkaitejuma": 4253,
      "Ġkoeficien": 4254,
      "Ġklase": 4255,
      "Ġsecinajumi": 4256,
      "Ġrikojums": 4257,
      "Ġzv": 4258,
      "Ġsatura": 4259,
      "wa": 4260,
      "Ġneuz": 4261,
      "Ġtarifa": 4262,
      "Ġotrais": 4263,
      "Ġsoli": 4264,
      "Ġyear": 4265,
      "ejosa": 4266,
      "Ġnoradito": 4267,
      "Ġreziden": 4268,
      "Ġpiemerots": 4269,
      "Ġnekada": 4270,
      "Ġaustrijas": 4271,
      "Ġaudz": 4272,
      "Ġkatras": 4273,
      "Ġgarantijas": 4274,
      "elu": 4275,
      "Ġgazes": 4276,
      "josa": 4277,
      "Ġlaikposmu": 4278,
      "Ġapgalvoja": 4279,
      "Ġvidi": 4280,
      "Ġpretties": 4281,
      "Ġintern": 4282,
      "Ġikgad": 4283,
      "Ġ150": 4284,
      "taciju": 4285,
      "Ġiestadi": 4286,
      "Ġelementi": 4287,
      "Ġnenoteik": 4288,
      "Ġpievienosanas": 4289,
      "Ġparvaldes": 4290,
      "Ġiniciativas": 4291,
      "Ġneto": 4292,
      "Ġfebruar": 4293,
      "Ġpm": 4294,
      "tiju": 4295,
      "Ġapmeru": 4296,
      "Ġparaksti": 4297,
      "iskajam": 4298,
      "Ġsocialas": 4299,
      "Ġveterin": 4300,
      "Ġbur": 4301,
      "Ġapstiprinajuma": 4302,
      "Ġattiecina": 4303,
      "gai": 4304,
      "Ġeura": 4305,
      "Ġnoteikumos": 4306,
      "Ġpamattiesibu": 4307,
      "Ġdeklaracija": 4308,
      "Ġkompetentajam": 4309,
      "Ġnostaju": 4310,
      "ĠâĢ¢": 4311,
      "Ġtran": 4312,
      "Ġpamatota": 4313,
      "Ġpielavusi": 4314,
      "Ġnemt": 4315,
      "Ġteritoriju": 4316,
      "bri": 4317,
      "Ïĥ": 4318,
      "Ġviedokli": 4319,
      "cer": 4320,
      "Ġiesniegusi": 4321,
      "Ġizraudz": 4322,
      "Ġellas": 4323,
      "Ġjaunas": 4324,
      "Ġraksturs": 4325,
      "Ġatbilstosas": 4326,
      "ang": 4327,
      "Ġlidos": 4328,
      "Ġattiecigie": 4329,
      "Ġnosuta": 4330,
      "Ġnoteiksana": 4331,
      "Ġano": 4332,
      "Ġlen": 4333,
      "Ġnoti": 4334,
      "Ġgeografiskas": 4335,
      "amu": 4336,
      "Ġpieskirsanu": 4337,
      "Ġpiemerojamas": 4338,
      "Ġmanuprat": 4339,
      "Ġblo": 4340,
      "sc": 4341,
      "Ġveidla": 4342,
      "Ġveicinat": 4343,
      "Ġmaksas": 4344,
      "kumu": 4345,
      "Ġiekszemes": 4346,
      "iskajiem": 4347,
      "Ġekonomisko": 4348,
      "Ġkorekcijas": 4349,
      "57": 4350,
      "Ġuzgla": 4351,
      "cei": 4352,
      "ung": 4353,
      "Ġinfrastrukturas": 4354,
      "Ġsniegsanu": 4355,
      "Ġtirgo": 4356,
      "Ġlap": 4357,
      "Ġlautu": 4358,
      "54": 4359,
      "arma": 4360,
      "Ġass": 4361,
      "Ġpiec": 4362,
      "Ġuzsta": 4363,
      "Ġapsverumiem": 4364,
      "niecibai": 4365,
      "Ġhor": 4366,
      "Ġuznemejdarbibas": 4367,
      "Ġ118": 4368,
      "59": 4369,
      "Ġfondu": 4370,
      "Ġatver": 4371,
      "Ġtal": 4372,
      "Ġprog": 4373,
      "Ġeuratom": 4374,
      "Ġdecembrim": 4375,
      "ene": 4376,
      "Ġpastavigo": 4377,
      "ech": 4378,
      "Ġneietekme": 4379,
      "Ġpienemti": 4380,
      "Ġekskluzi": 4381,
      "Ġiespejamo": 4382,
      "Ġvienibu": 4383,
      "Ġplanu": 4384,
      "Ġsg": 4385,
      "Ġatsaukties": 4386,
      "sardz": 4387,
      "Ġintelektu": 4388,
      "Ġsakuma": 4389,
      "Ġmaza": 4390,
      "Ġapakspozi": 4391,
      "Ġizskata": 4392,
      "Ġ}": 4393,
      "coties": 4394,
      "Ġmetil": 4395,
      "iesanas": 4396,
      "Ġaprilis": 4397,
      "Ġnen": 4398,
      "Ġstatusa": 4399,
      "Ġorig": 4400,
      "Ġproporcion": 4401,
      "met": 4402,
      "Ġspecif": 4403,
      "Ġspp": 4404,
      "Ġnoradita": 4405,
      "Ġgaligo": 4406,
      "Ġbiez": 4407,
      "Ġjebkada": 4408,
      "Ġsilt": 4409,
      "Ġinternational": 4410,
      "Ġ{": 4411,
      "Ġnepastav": 4412,
      "Ġdokumenti": 4413,
      "beigs": 4414,
      "Ġieinteresetajam": 4415,
      "Ġcelt": 4416,
      "Ġpamatojuma": 4417,
      "Ġnepienema": 4418,
      "Ġfeder": 4419,
      "Ġstun": 4420,
      "tinas": 4421,
      "Ġtiesisk": 4422,
      "ejai": 4423,
      "Ġ070": 4424,
      "Ġvestuli": 4425,
      "Ġvizu": 4426,
      "Ġproduktus": 4427,
      "ĠâĪĴ": 4428,
      "Ġpieeju": 4429,
      "Ġ210": 4430,
      "Ġsadalas": 4431,
      "Ġkraps": 4432,
      "Ġaptur": 4433,
      "Ġkandida": 4434,
      "eme": 4435,
      "Ġsniegta": 4436,
      "Ġpilnigi": 4437,
      "43": 4438,
      "Ġmerku": 4439,
      "Ġpamatots": 4440,
      "dama": 4441,
      "Ġeg": 4442,
      "eles": 4443,
      "Ġsaviem": 4444,
      "Ġprasitaji": 4445,
      "Ġbutibas": 4446,
      "Ġsali": 4447,
      "Ġzivsaimniecibas": 4448,
      "Ġukra": 4449,
      "Ġnema": 4450,
      "Ġair": 4451,
      "42": 4452,
      "Ġparkla": 4453,
      "Ġjaunak": 4454,
      "Ġdefinicijas": 4455,
      "Ġtempera": 4456,
      "Ġpasta": 4457,
      "Ġpamatotu": 4458,
      "Ġbaribas": 4459,
      "Ġcilveku": 4460,
      "Ġanalize": 4461,
      "Ġuzklaus": 4462,
      "Ġfrancu": 4463,
      "gis": 4464,
      "Ġtirdznieciba": 4465,
      "Ġdazadas": 4466,
      "zil": 4467,
      "Ġdaudzgadu": 4468,
      "Ġdienesta": 4469,
      "Ġspeku": 4470,
      "53": 4471,
      "Ġtrauce": 4472,
      "Ġklau": 4473,
      "Ġvajadzetu": 4474,
      "Ġ109": 4475,
      "pan": 4476,
      "Ġher": 4477,
      "Ġlib": 4478,
      "Ġtadi": 4479,
      "Ġiedalas": 4480,
      "mei": 4481,
      "Ġnozimes": 4482,
      "Ġshemu": 4483,
      "Ġvideja": 4484,
      "63": 4485,
      "Ġlikumu": 4486,
      "Ġnoverst": 4487,
      "Ġbriviba": 4488,
      "Ġnoziedz": 4489,
      "Ġgrupu": 4490,
      "Ġgeneraladvokata": 4491,
      "Ġsamazinat": 4492,
      "Ġnolema": 4493,
      "Ġatgus": 4494,
      "Ġsakotneji": 4495,
      "Ġvard": 4496,
      "genas": 4497,
      "cep": 4498,
      "Ġbilan": 4499,
      "iena": 4500,
      "Ġgramat": 4501,
      "Ġuzskai": 4502,
      "Ġieguti": 4503,
      "Ġuzskatu": 4504,
      "81": 4505,
      "Ġpaaugs": 4506,
      "Ġprincipiem": 4507,
      "Ġspir": 4508,
      "Ġargumentu": 4509,
      "hol": 4510,
      "amo": 4511,
      "Ġnomen": 4512,
      "Ġpapildinajuma": 4513,
      "ĠÂ·": 4514,
      "klis": 4515,
      "Ġmetodi": 4516,
      "Ġren": 4517,
      "vad": 4518,
      "Ġatval": 4519,
      "iku": 4520,
      "Ġnoteiksanai": 4521,
      "niem": 4522,
      "Ġ870": 4523,
      "Ġcuk": 4524,
      "Ġjp": 4525,
      "Ġprasitajam": 4526,
      "Ġapgalvots": 4527,
      "Ġimportam": 4528,
      "Ġnomenkla": 4529,
      "para": 4530,
      "Ġsabiedribam": 4531,
      "Ġatbildibas": 4532,
      "dra": 4533,
      "Ġdaudzums": 4534,
      "Ġnesa": 4535,
      "Ġizlas": 4536,
      "Ġpublic": 4537,
      "Ġvacu": 4538,
      "Ġpiekluves": 4539,
      "Ġjebkadu": 4540,
      "Ġneapstrada": 4541,
      "87": 4542,
      "Ġatvalina": 4543,
      "ced": 4544,
      "Ġatzisanu": 4545,
      "Ġnepiln": 4546,
      "turi": 4547,
      "Ġapara": 4548,
      "Ġef": 4549,
      "jamu": 4550,
      "Ġmig": 4551,
      "rem": 4552,
      "ha": 4553,
      "klas": 4554,
      "Ġdabas": 4555,
      "Ġsertifikatu": 4556,
      "Ġbazes": 4557,
      "Ġpasi": 4558,
      "Ġindus": 4559,
      "Ġpieskirts": 4560,
      "Ġtver": 4561,
      "Ġdienvi": 4562,
      "92": 4563,
      "izsardz": 4564,
      "Ġbutisku": 4565,
      "Ġkodu": 4566,
      "Ġkpn": 4567,
      "Ġcorpora": 4568,
      "Ġpasazieru": 4569,
      "Ġbro": 4570,
      "aras": 4571,
      "Ġistenosanai": 4572,
      "Ġsveices": 4573,
      "Ġtiktal": 4574,
      "miem": 4575,
      "Ġjaizverte": 4576,
      "Ġveiktu": 4577,
      "Ġrupniec": 4578,
      "Ġlaiks": 4579,
      "Ġklauzu": 4580,
      "are": 4581,
      "Ġorganizacija": 4582,
      "ess": 4583,
      "Ġzivju": 4584,
      "Ġlietosanai": 4585,
      "Ġsaprati": 4586,
      "vedibas": 4587,
      "Õ¡": 4588,
      "Ġ114": 4589,
      "Ġkomercial": 4590,
      "Ġpretenden": 4591,
      "Ġiso": 4592,
      "ement": 4593,
      "Ġrazosanai": 4594,
      "Ġprieksrocibas": 4595,
      "Ġprincipi": 4596,
      "Ġappro": 4597,
      "Ġmaijs": 4598,
      "Ġjomu": 4599,
      "Ġnoraditas": 4600,
      "Ġierobezojumi": 4601,
      "Ġiesniedzejtiesas": 4602,
      "Ġktr": 4603,
      "Ġnekustama": 4604,
      "alam": 4605,
      "Ġbeigas": 4606,
      "Ġinstrumenti": 4607,
      "Ġpatver": 4608,
      "Ġspiedien": 4609,
      "Ġstatuss": 4610,
      "inatas": 4611,
      "Ġvalodas": 4612,
      "Ġmateriali": 4613,
      "Ġparada": 4614,
      "ard": 4615,
      "Ġpienemam": 4616,
      "kom": 4617,
      "Ġietverta": 4618,
      "Ġvecuma": 4619,
      "vedien": 4620,
      "Ġdiviem": 4621,
      "Ġtreskart": 4622,
      "ÏĢ": 4623,
      "Ġarkartas": 4624,
      "bs": 4625,
      "pul": 4626,
      "ots": 4627,
      "Ġatrasanas": 4628,
      "Ġuzsa": 4629,
      "Ġkolek": 4630,
      "Ġparvaldi": 4631,
      "Ġnoradot": 4632,
      "Ġpabalstu": 4633,
      "lacijas": 4634,
      "nieks": 4635,
      "Ġapdros": 4636,
      "Ġgroup": 4637,
      "Ġ136": 4638,
      "Ġtiesam": 4639,
      "ids": 4640,
      "Ġizmaksa": 4641,
      "Ġelementu": 4642,
      "Ġbriva": 4643,
      "Ġfili": 4644,
      "52": 4645,
      "Ġmaksajumi": 4646,
      "Ġparedzetajiem": 4647,
      "Ġmenesus": 4648,
      "ksmi": 4649,
      "Ġneizpildi": 4650,
      "Ġkreditaizsardz": 4651,
      "Ġdetaliz": 4652,
      "Ġsugas": 4653,
      "Ġjasniedz": 4654,
      "Ġaptu": 4655,
      "Ġiesniedzejas": 4656,
      "Ġrezultatu": 4657,
      "Ġpaten": 4658,
      "Ġattaisno": 4659,
      "Ġhol": 4660,
      "Ġapnem": 4661,
      "Ġatbrivojumu": 4662,
      "Ġparedzetais": 4663,
      "Ġlikmi": 4664,
      "Ġamerikas": 4665,
      "Ġatbildetajs": 4666,
      "Ġzimju": 4667,
      "Ġintegre": 4668,
      "Ġtajos": 4669,
      "82": 4670,
      "Ġ540": 4671,
      "Ġatvieglo": 4672,
      "arno": 4673,
      "Ġmeroga": 4674,
      "64": 4675,
      "Ġelektronisko": 4676,
      "61": 4677,
      "adei": 4678,
      "Ġvienosanos": 4679,
      "alajam": 4680,
      "msanas": 4681,
      "Ġmodeli": 4682,
      "Ġlikme": 4683,
      "Ġbank": 4684,
      "ila": 4685,
      "Ġirija": 4686,
      "veni": 4687,
      "Ġmetode": 4688,
      "Ġnoskaidro": 4689,
      "Ġapvienoto": 4690,
      "Ġsasniegt": 4691,
      "Ġpiedalities": 4692,
      "eru": 4693,
      "Ġaro": 4694,
      "Ġpareizi": 4695,
      "Ġnego": 4696,
      "ban": 4697,
      "Ġnodarbinatibas": 4698,
      "ili": 4699,
      "Ġkatram": 4700,
      "Ġvestule": 4701,
      "Ġstarpniecibu": 4702,
      "we": 4703,
      "dosanu": 4704,
      "Ġapstaklu": 4705,
      "Ġaprupes": 4706,
      "Ġiestajusies": 4707,
      "otie": 4708,
      "tein": 4709,
      "Ġenergo": 4710,
      "Ġjaievero": 4711,
      "Ġievesanas": 4712,
      "Ġcilmes": 4713,
      "Ġhk": 4714,
      "Ġdibinasanas": 4715,
      "Ġsver": 4716,
      "amb": 4717,
      "Ġneies": 4718,
      "Ġpieradit": 4719,
      "Ġnesad": 4720,
      "Ġatbalstam": 4721,
      "Ġpastavigas": 4722,
      "tati": 4723,
      "dor": 4724,
      "Ġradio": 4725,
      "Ġsengenas": 4726,
      "ft": 4727,
      "Ġkopejais": 4728,
      "Ġph": 4729,
      "Ġsvi": 4730,
      "Ġdazu": 4731,
      "Ġpelnas": 4732,
      "bar": 4733,
      "Ġpasval": 4734,
      "Ġsertifikata": 4735,
      "tijusi": 4736,
      "ct": 4737,
      "Ġizmantoti": 4738,
      "Ġmobil": 4739,
      "Ġdarbiniekiem": 4740,
      "Ġtim": 4741,
      "Ġatskiras": 4742,
      "Ġvards": 4743,
      "Ġinstan": 4744,
      "Ġbiroja": 4745,
      "Ġvidus": 4746,
      "Ġslegsanas": 4747,
      "Ġnoraditi": 4748,
      "Ġauton": 4749,
      "porta": 4750,
      "Ġnakot": 4751,
      "Ġpardev": 4752,
      "Ġkreditiestades": 4753,
      "Ġkli": 4754,
      "ord": 4755,
      "Ġkodo": 4756,
      "Ġuzman": 4757,
      "Ġkonces": 4758,
      "Ġuzti": 4759,
      "Ġzinojums": 4760,
      "Ġraksturo": 4761,
      "Ġiesniegti": 4762,
      "Ġatskiribas": 4763,
      "Ġcelu": 4764,
      "Ġby": 4765,
      "Ġvino": 4766,
      "Ġizvairi": 4767,
      "jies": 4768,
      "Ġregistreta": 4769,
      "Ġprakse": 4770,
      "iedru": 4771,
      "Ġnetiesi": 4772,
      "Ġgalamer": 4773,
      "Ġizveidot": 4774,
      "Ġbiolog": 4775,
      "Ġizcelsme": 4776,
      "gy": 4777,
      "alitates": 4778,
      "Ġemisiju": 4779,
      "Ġgrozijumu": 4780,
      "Ġtrib": 4781,
      "Ġmie": 4782,
      "su": 4783,
      "vilkums": 4784,
      "Ġmaksajumus": 4785,
      "Ġiesniegta": 4786,
      "Ġnoteiksanas": 4787,
      "Ðº": 4788,
      "Ġattieksmes": 4789,
      "Ġlietderigi": 4790,
      "Ġdeklaraciju": 4791,
      "Ġierobezojumus": 4792,
      "Ġjamaksa": 4793,
      "Ġkriteriju": 4794,
      "89": 4795,
      "Ġintelektuala": 4796,
      "ursu": 4797,
      "Ġparedzetos": 4798,
      "Ġteksts": 4799,
      "Ġsaskanosanas": 4800,
      "Ġstridiga": 4801,
      "200": 4802,
      "Ġnevareja": 4803,
      "Ġregistrets": 4804,
      "lietu": 4805,
      "Ġkompetences": 4806,
      "mita": 4807,
      "Ġorigin": 4808,
      "Ġparedzet": 4809,
      "Ġsavienibai": 4810,
      "Ġpielag": 4811,
      "Ġbla": 4812,
      "Ġnepareiz": 4813,
      "joso": 4814,
      "Ġpienakumi": 4815,
      "Ġ117": 4816,
      "Ġev": 4817,
      "Ġaktivi": 4818,
      "Ġiegut": 4819,
      "iskai": 4820,
      "Ġtribun": 4821,
      "Ġmaksimalo": 4822,
      "Ġieklautas": 4823,
      "09": 4824,
      "Ġ520": 4825,
      "Ġfen": 4826,
      "Ġprasijumu": 4827,
      "Ġmol": 4828,
      "gericht": 4829,
      "Ġsavstarpeji": 4830,
      "Ġatkartoti": 4831,
      "Ġnoraidija": 4832,
      "Ġsugu": 4833,
      "Ġaizliegtas": 4834,
      "Ġpilsoniem": 4835,
      "Ġned": 4836,
      "Ġ123": 4837,
      "Ġsaskar": 4838,
      "Ġ400": 4839,
      "Ġvienmer": 4840,
      "Ġuzskatits": 4841,
      "Ġsameriguma": 4842,
      "51": 4843,
      "Ġpatveruma": 4844,
      "83": 4845,
      "Ġpiedavajumu": 4846,
      "Ġnegodi": 4847,
      "ziden": 4848,
      "Ġlemumiem": 4849,
      "Ġapstaklis": 4850,
      "Ġgrozit": 4851,
      "Ġstrida": 4852,
      "Ġieinteresetas": 4853,
      "Ġfebruaris": 4854,
      "Ġiznemums": 4855,
      "Ġstruktur": 4856,
      "Ġcehijas": 4857,
      "Ġnoteiktajam": 4858,
      "cs": 4859,
      "Ġjapienem": 4860,
      "Ġrikojuma": 4861,
      "Ġtuli": 4862,
      "Ġnoteiktos": 4863,
      "Ġvertejumu": 4864,
      "Ġsanemsanas": 4865,
      "Ġdatumu": 4866,
      "Ġiznemuma": 4867,
      "Ġimports": 4868,
      "pai": 4869,
      "Ġdazadu": 4870,
      "Ġsniegti": 4871,
      "vilkuma": 4872,
      "Ġinteresem": 4873,
      "Ġzaudejumus": 4874,
      "Ġ127": 4875,
      "Ġvairaki": 4876,
      "Ġdie": 4877,
      "Ġpiesarno": 4878,
      "trau": 4879,
      "Ġbrivu": 4880,
      "Ġlabu": 4881,
      "pel": 4882,
      "tara": 4883,
      "Ġpilnvarota": 4884,
      "Ġkonkur": 4885,
      "Ġpiemerosanai": 4886,
      "Ġpamatlem": 4887,
      "Ġkomponen": 4888,
      "urg": 4889,
      "ksa": 4890,
      "Ġinterneta": 4891,
      "Ġ267": 4892,
      "Ġpens": 4893,
      "Ġsel": 4894,
      "ding": 4895,
      "Îº": 4896,
      "Ġkriterijus": 4897,
      "Ġapturet": 4898,
      "Ġdzimsanas": 4899,
      "otiem": 4900,
      "trs": 4901,
      "Ġunivers": 4902,
      "Ġtuv": 4903,
      "Ġzo": 4904,
      "Ġorganizacijam": 4905,
      "Ġmak": 4906,
      "tibai": 4907,
      "Ġgadijumu": 4908,
      "Ġhtt": 4909,
      "Ġelementus": 4910,
      "Ġveikusi": 4911,
      "Ġsloven": 4912,
      "Ġsaistibam": 4913,
      "Ġinova": 4914,
      "Ġtelpas": 4915,
      "Ġmazumtirdz": 4916,
      "Ġ119": 4917,
      "pira": 4918,
      "Ġtautas": 4919,
      "Ġmaksatnes": 4920,
      "Ġadvan": 4921,
      "Ġemi": 4922,
      "Ġ320": 4923,
      "Ġ138": 4924,
      "Ġfunkcijas": 4925,
      "ron": 4926,
      "Ġ113": 4927,
      "Ġveikto": 4928,
      "undes": 4929,
      "Ġbanku": 4930,
      "mos": 4931,
      "rr": 4932,
      "Õ¸": 4933,
      "Ġizklastiti": 4934,
      "Ġkpr": 4935,
      "Ġatzist": 4936,
      "Ġatzinusi": 4937,
      "Ġatnem": 4938,
      "Ġvienlidzigas": 4939,
      "Ġprodu": 4940,
      "Ġiegada": 4941,
      "Ġspeciali": 4942,
      "so": 4943,
      "Ġpavedien": 4944,
      "basanas": 4945,
      "muitas": 4946,
      "Ġpiekri": 4947,
      "Ġcl": 4948,
      "Ġjaudas": 4949,
      "lieto": 4950,
      "Ġsign": 4951,
      "Ġpanakt": 4952,
      "Ġrobezver": 4953,
      "nieka": 4954,
      "umula": 4955,
      "Ġgrozita": 4956,
      "etajiem": 4957,
      "Ġaicina": 4958,
      "Ġaizstavibu": 4959,
      "jie": 4960,
      "Ġpasaules": 4961,
      "Ġizmeklesanu": 4962,
      "Ġatbriv": 4963,
      "usu": 4964,
      "Ġapsaimnie": 4965,
      "Ġviedokla": 4966,
      "Ġpiemeroti": 4967,
      "Ġnede": 4968,
      "Ġapproach": 4969,
      "Ġaviacijas": 4970,
      "Ġkonvenciju": 4971,
      "Ġieverojami": 4972,
      "orizon": 4973,
      "Ġatmaks": 4974,
      "Ġdivpus": 4975,
      "Ġpres": 4976,
      "Ġtaba": 4977,
      "Ġzin": 4978,
      "Ġtamlidzigi": 4979,
      "Ġattiecigajai": 4980,
      "Ġ140": 4981,
      "Ġizpildijusi": 4982,
      "Ġtekstu": 4983,
      "Ġizveidi": 4984,
      "Ġieklauta": 4985,
      "Ġizstradajumiem": 4986,
      "Ġviniem": 4987,
      "Ġanalizi": 4988,
      "vizor": 4989,
      "9900": 4990,
      "fo": 4991,
      "nak": 4992,
      "Ġparkapumiem": 4993,
      "Ġrunajot": 4994,
      "Ġprovizor": 4995,
      "Ġmark": 4996,
      "tate": 4997,
      "Ġstandartiem": 4998,
      "Ġjedziena": 4999,
      "nn": 5000,
      "Ġlid": 5001,
      "Ġinspek": 5002,
      "Ġstadija": 5003,
      "Ġlocekli": 5004,
      "Ġkonkursa": 5005,
      "Ġhorizon": 5006,
      "Ġapsverumi": 5007,
      "Ġgalvenais": 5008,
      "Ġredz": 5009,
      "Ġposteni": 5010,
      "Ġveikts": 5011,
      "Ġefektivi": 5012,
      "Ġadvanced": 5013,
      "Ġuzli": 5014,
      "Ġparsu": 5015,
      "Ġsniedza": 5016,
      "Ġvairakiem": 5017,
      "Ġaptuveni": 5018,
      "Ġ250": 5019,
      "Ġ600": 5020,
      "program": 5021,
      "Ġistenojot": 5022,
      "Ġuzraudzibu": 5023,
      "Ġmeitasuznem": 5024,
      "hn": 5025,
      "Ġmerk": 5026,
      "Ġjaunakie": 5027,
      "Ġkontak": 5028,
      "Ġ721": 5029,
      "Ġslovak": 5030,
      "Ġsaglabat": 5031,
      "Ġrezerves": 5032,
      "Ġnumuru": 5033,
      "Ġ1991": 5034,
      "Ġtransportlidzekliem": 5035,
      "Ġludza": 5036,
      "Ġur": 5037,
      "Ġskatit": 5038,
      "isanai": 5039,
      "Ð´": 5040,
      "Ġsarez": 5041,
      "Ġdomin": 5042,
      "gums": 5043,
      "Ġneierobez": 5044,
      "Ġberna": 5045,
      "Ġparnem": 5046,
      "Ġportf": 5047,
      "Ġdarbinieki": 5048,
      "bal": 5049,
      "Ġperiodu": 5050,
      "aicina": 5051,
      "Ġneviens": 5052,
      "Ġsistemam": 5053,
      "Ġattiecibu": 5054,
      "Ġ130": 5055,
      "Ġpraksi": 5056,
      "Ġparmer": 5057,
      "Ġieklauts": 5058,
      "Ġjautajumos": 5059,
      "pads": 5060,
      "len": 5061,
      "Ġkadi": 5062,
      "Ġservi": 5063,
      "els": 5064,
      "Ġlidzsvar": 5065,
      "Ġfaktisko": 5066,
      "Ġabas": 5067,
      "Ġdalibnieks": 5068,
      "Ġcol": 5069,
      "Ġietverts": 5070,
      "Ġsvarigi": 5071,
      "Ġprincipus": 5072,
      "Ġatzits": 5073,
      "Ġraksturi": 5074,
      "Ġstandartu": 5075,
      "use": 5076,
      "Ġten": 5077,
      "Ġfinansejuma": 5078,
      "Ġinstance": 5079,
      "Ġje": 5080,
      "cher": 5081,
      "Ġaprites": 5082,
      "Ġapstradi": 5083,
      "Ġpiedevas": 5084,
      "Ġizejvielu": 5085,
      "Ġiegutu": 5086,
      "unikaciju": 5087,
      "igajiem": 5088,
      "Ġdriz": 5089,
      "Ġpiedevu": 5090,
      "inats": 5091,
      "Ġapstrid": 5092,
      "Ġilgums": 5093,
      "Ġsul": 5094,
      "Ġhorva": 5095,
      "Ġtehnologiju": 5096,
      "Ġtiklu": 5097,
      "Ġwit": 5098,
      "tala": 5099,
      "Ġpow": 5100,
      "Ġturpinat": 5101,
      "Ġkrievijas": 5102,
      "Ġalum": 5103,
      "Ġsarunas": 5104,
      "Ġparkapusi": 5105,
      "tinasanas": 5106,
      "guldi": 5107,
      "Ġnotikusi": 5108,
      "Ġveicinas": 5109,
      "Ġrefor": 5110,
      "Ġdefinicija": 5111,
      "tosa": 5112,
      "Ġlemumam": 5113,
      "Ġfinal": 5114,
      "Ġsc": 5115,
      "Ġtele": 5116,
      "Ġlikumdevejs": 5117,
      "Ġieguv": 5118,
      "Ġveidiem": 5119,
      "Ġapmainas": 5120,
      "Ġpalatas": 5121,
      "Ġesosas": 5122,
      "Ġparredz": 5123,
      "tesanai": 5124,
      "Ġformas": 5125,
      "Ġiemaksas": 5126,
      "Ġmajpu": 5127,
      "48": 5128,
      "Ġinterven": 5129,
      "Ġiesniedzejtiesai": 5130,
      "Ġdiza": 5131,
      "Ġpaterina": 5132,
      "Ġsvars": 5133,
      "Ġprasa": 5134,
      "Ġdazas": 5135,
      "Ġlimi": 5136,
      "Ġdarzenu": 5137,
      "Ġkonkreto": 5138,
      "Ġpiemerotu": 5139,
      "Ġsadarbojas": 5140,
      "Ġanalizes": 5141,
      "Ġsaka": 5142,
      "fices": 5143,
      "Ġatbilstosa": 5144,
      "rre": 5145,
      "Ġrazosanu": 5146,
      "vija": 5147,
      "Ġpienemsanu": 5148,
      "Ġ850": 5149,
      "Ġdanijas": 5150,
      "Ġaile": 5151,
      "Ġkonstitu": 5152,
      "Ġkontrol": 5153,
      "Ġuzdot": 5154,
      "Ġvisos": 5155,
      "ils": 5156,
      "Ġaustr": 5157,
      "Ġpulver": 5158,
      "Ġlielaks": 5159,
      "Ġali": 5160,
      "Ġinvali": 5161,
      "Ġkave": 5162,
      "Ġsaskano": 5163,
      "Ġkoordin": 5164,
      "Ġapdrosina": 5165,
      "Ġgados": 5166,
      "Ġvertspapiru": 5167,
      "Ġgarantiju": 5168,
      "Ġjauns": 5169,
      "Ġvaditaja": 5170,
      "Ġsanemeja": 5171,
      "Ġliello": 5172,
      "Ġpiegad": 5173,
      "Ġ620": 5174,
      "Ġcetr": 5175,
      "Ġbalstits": 5176,
      "Ġjauno": 5177,
      "Ġfinansiala": 5178,
      "Ġsaistito": 5179,
      "op": 5180,
      "Ġpieejami": 5181,
      "Ġnekadas": 5182,
      "Ġparma": 5183,
      "Ġaples": 5184,
      "Ġilgtermina": 5185,
      "Ġother": 5186,
      "Ġsavstarpejas": 5187,
      "Ġnediskri": 5188,
      "Ġtirgum": 5189,
      "Ġluksemburga": 5190,
      "Ġvairaku": 5191,
      "Ġjaies": 5192,
      "Ġizo": 5193,
      "teja": 5194,
      "Ġbernu": 5195,
      "Ġipat": 5196,
      "Ġslie": 5197,
      "Ġuzskatams": 5198,
      "79": 5199,
      "Ġeti": 5200,
      "Ġâī": 5201,
      "Ġuzlabot": 5202,
      "Ġbalstoties": 5203,
      "Ġizskatama": 5204,
      "struk": 5205,
      "Ġasv": 5206,
      "Ġprecizi": 5207,
      "Ġiesniegs": 5208,
      "Ġmaksimalais": 5209,
      "Ġdeklar": 5210,
      "Ġxi": 5211,
      "Ġparaugu": 5212,
      "Ġpedejo": 5213,
      "tacija": 5214,
      "Ġtagad": 5215,
      "Ġkonstatet": 5216,
      "Ġcentrala": 5217,
      "Ġnoskir": 5218,
      "valen": 5219,
      "Ġizpilditu": 5220,
      "Ġars": 5221,
      "Ġdzin": 5222,
      "Ġcer": 5223,
      "cil": 5224,
      "Ġeb": 5225,
      "Ġmenesi": 5226,
      "Ġdara": 5227,
      "Ġrezultati": 5228,
      "wal": 5229,
      "Ġskaidro": 5230,
      "Ġseko": 5231,
      "Ġspa": 5232,
      "tspeju": 5233,
      "fin": 5234,
      "Ġvisparigi": 5235,
      "Ġipasum": 5236,
      "Ġsestas": 5237,
      "100": 5238,
      "Ġplast": 5239,
      "Ġpapira": 5240,
      "zinas": 5241,
      "Ġpreferen": 5242,
      "ieni": 5243,
      "Ġshema": 5244,
      "Ġgramatvedibas": 5245,
      "gne": 5246,
      "Ġspriedumi": 5247,
      "Ġiebildumiem": 5248,
      "Ġefektivitati": 5249,
      "Ġmateriala": 5250,
      "Ġcour": 5251,
      "Ġtekstilmateri": 5252,
      "Ġglo": 5253,
      "Ġdeklaracijas": 5254,
      "Ġierobezota": 5255,
      "Ġpakartoti": 5256,
      "Ġgeneraldirek": 5257,
      "klauj": 5258,
      "Ġinterpretet": 5259,
      "Ġvalstij": 5260,
      "Ġrela": 5261,
      "Ġ111": 5262,
      "Ġbundes": 5263,
      "Ġem": 5264,
      "veidi": 5265,
      "Ġstiprina": 5266,
      "Ġdalai": 5267,
      "Ġden": 5268,
      "Ġsko": 5269,
      "Ġdefinets": 5270,
      "Ġfakts": 5271,
      "Ġlabora": 5272,
      "Ġjanvaris": 5273,
      "Ġsecinat": 5274,
      "Ġneparedz": 5275,
      "Ġfaktiem": 5276,
      "Ġkatrai": 5277,
      "Ġnere": 5278,
      "aizs": 5279,
      "tiskos": 5280,
      "Ġ135": 5281,
      "Ġadvokats": 5282,
      "Ġgaz": 5283,
      "zin": 5284,
      "Ġvajadzibu": 5285,
      "Ġaer": 5286,
      "Ġsaubas": 5287,
      "Ġund": 5288,
      "Ġturpre": 5289,
      "otos": 5290,
      "Ġskaidrs": 5291,
      "Ġipasnieks": 5292,
      "Ġperiods": 5293,
      "Ġkombin": 5294,
      "Ġinformacijai": 5295,
      "Ġcps": 5296,
      "ejis": 5297,
      "Ġdivus": 5298,
      "Ġkm": 5299,
      "Ġtikl": 5300,
      "Ġpersonala": 5301,
      "Ġdazada": 5302,
      "Ġneizmanto": 5303,
      "Ġcaurul": 5304,
      "Ġpol": 5305,
      "Ġsniegto": 5306,
      "Ġrating": 5307,
      "Ġjedzienu": 5308,
      "Ġipasibas": 5309,
      "Ġrobezu": 5310,
      "Ġnoregulejuma": 5311,
      "Ġ2574": 5312,
      "Ġlielaku": 5313,
      "010": 5314,
      "Ġlidzigi": 5315,
      "Ġparra": 5316,
      "deg": 5317,
      "Ġjaatbild": 5318,
      "Ġ139": 5319,
      "Ġdaziem": 5320,
      "Ġparvaldiba": 5321,
      "Ġportugales": 5322,
      "Ġiepakojuma": 5323,
      "Ġligumi": 5324,
      "Ġlabumu": 5325,
      "Ġatteikuma": 5326,
      "desanas": 5327,
      "Ġjurisdikcija": 5328,
      "Ġapropriacijas": 5329,
      "Ġaizliegums": 5330,
      "disanu": 5331,
      "Ġdegvielas": 5332,
      "Ġplastmas": 5333,
      "Ġtonnas": 5334,
      "Ġkulturas": 5335,
      "Ġty": 5336,
      "Ġvo": 5337,
      "ficeta": 5338,
      "ÏĤ": 5339,
      "Ïī": 5340,
      "Ġparvietos": 5341,
      "noz": 5342,
      "Ġapstiprinasanas": 5343,
      "Ġ720": 5344,
      "nos": 5345,
      "Ġmars": 5346,
      "Ġstikla": 5347,
      "Ġnepieciesami": 5348,
      "Ġparap": 5349,
      "tiviem": 5350,
      "Ġsniegusi": 5351,
      "Ġfarma": 5352,
      "Ġnolukos": 5353,
      "Ġsalde": 5354,
      "73": 5355,
      "Ġnotika": 5356,
      "Ġrq": 5357,
      "Ġizskatit": 5358,
      "Ġakci": 5359,
      "Ġpieradijumiem": 5360,
      "trak": 5361,
      "Ġsf": 5362,
      "Ġrezultatus": 5363,
      "Ġstrukturam": 5364,
      "los": 5365,
      "Ġkaral": 5366,
      "Ġpieprasa": 5367,
      "Ġsajas": 5368,
      "Ġtic": 5369,
      "Ġtresaja": 5370,
      "Ġ440": 5371,
      "Ġveiksanai": 5372,
      "Ġip": 5373,
      "nam": 5374,
      "Ġcitur": 5375,
      "pad": 5376,
      "Ġom": 5377,
      "Ġekspertu": 5378,
      "Ġmekl": 5379,
      "Ġienakumu": 5380,
      "Ġmikro": 5381,
      "Ġkompetento": 5382,
      "Ġekonomiskas": 5383,
      "Ġnaftas": 5384,
      "zum": 5385,
      "Ġkravas": 5386,
      "Õ¥": 5387,
      "rijas": 5388,
      "Ġbra": 5389,
      "vivalen": 5390,
      "Ġple": 5391,
      "Ġdoc": 5392,
      "Ġizvirza": 5393,
      "Ġgadijumus": 5394,
      "dams": 5395,
      "Ġparnes": 5396,
      "Ġenerge": 5397,
      "Ġanalogijas": 5398,
      "Ġierobezojumiem": 5399,
      "Ġskait": 5400,
      "Ġmazaks": 5401,
      "sion": 5402,
      "tun": 5403,
      "Ġ121": 5404,
      "Ġpilsoni": 5405,
      "Ġzinams": 5406,
      "Ġligum": 5407,
      "Ġ145": 5408,
      "Ġieksejas": 5409,
      "Ġtul": 5410,
      "Ġligumsledzeja": 5411,
      "Ġarguments": 5412,
      "Ġakcizes": 5413,
      "gh": 5414,
      "Ġapstiprinats": 5415,
      "Ġpamatus": 5416,
      "Ġatjaunojami": 5417,
      "Ġlikumdosanas": 5418,
      "Ġintegra": 5419,
      "Ġzir": 5420,
      "Ġveicinatu": 5421,
      "Ġaizsardzibai": 5422,
      "Ġstandarti": 5423,
      "biedriba": 5424,
      "Ġieprieksejas": 5425,
      "Ġreto": 5426,
      "Ġiga": 5427,
      "Ġsvaigi": 5428,
      "Ġapmainu": 5429,
      "Î»": 5430,
      "Ġtadam": 5431,
      "Ġuzaicina": 5432,
      "sk": 5433,
      "Ġuztver": 5434,
      "Ġelementiem": 5435,
      "Ġnoteiktaja": 5436,
      "Ġiedarbibu": 5437,
      "Ġdod": 5438,
      "Ġpielagots": 5439,
      "Ġizpe": 5440,
      "Ġ116": 5441,
      "Ġsarunu": 5442,
      "Ġpin": 5443,
      "Ġglu": 5444,
      "Ġkonkretaja": 5445,
      "ieskir": 5446,
      "matu": 5447,
      "Ġabsolu": 5448,
      "Ġuzdevumu": 5449,
      "Ġatlaut": 5450,
      "Ġuztic": 5451,
      "Ġiesniedzeju": 5452,
      "iskaja": 5453,
      "Ġlemumi": 5454,
      "Ġrupniecibas": 5455,
      "Ġobligati": 5456,
      "viesu": 5457,
      "Ġizmainam": 5458,
      "kata": 5459,
      "Ġ263": 5460,
      "Ġrsms": 5461,
      "Ġalko": 5462,
      "Ġekvivalen": 5463,
      "Ġparskatu": 5464,
      "Ġieverosanu": 5465,
      "lori": 5466,
      "alem": 5467,
      "Ġqrre": 5468,
      "Ġprejudicialo": 5469,
      "ista": 5470,
      "Ġaugstakas": 5471,
      "Ġsmot": 5472,
      "Ġrqrr": 5473,
      "Ġtelev": 5474,
      "ijai": 5475,
      "Ġ730": 5476,
      "Ġbalstita": 5477,
      "Ġkompetenci": 5478,
      "Ġfoto": 5479,
      "Ġprezum": 5480,
      "Ġblakus": 5481,
      "Ġiemesla": 5482,
      "turesanas": 5483,
      "Ġnekadu": 5484,
      "Ġatskaiti": 5485,
      "Ġtranzita": 5486,
      "Î¼": 5487,
      "Ġiekartam": 5488,
      "zel": 5489,
      "Ġnemejiem": 5490,
      "Ġnepartrauk": 5491,
      "Ġkomitejai": 5492,
      "urn": 5493,
      "Ġsinte": 5494,
      "Ġdividen": 5495,
      "Ġistenotu": 5496,
      "uss": 5497,
      "pilda": 5498,
      "uns": 5499,
      "Ġsleg": 5500,
      "Ġproblemas": 5501,
      "etaja": 5502,
      "Ġnoslegts": 5503,
      "Ġnozimi": 5504,
      "bam": 5505,
      "fon": 5506,
      "Ġmerkim": 5507,
      "Ġnopietn": 5508,
      "Ġfinansialo": 5509,
      "Ġkompens": 5510,
      "Ġneviena": 5511,
      "Ġpienemsana": 5512,
      "Ġparaugi": 5513,
      "Ġabu": 5514,
      "Ġadvokati": 5515,
      "legsanu": 5516,
      "Ġluk": 5517,
      "Ġdepar": 5518,
      "Ġ129": 5519,
      "Ġneva": 5520,
      "Ġpiezi": 5521,
      "Ġdizain": 5522,
      "Ġpievienota": 5523,
      "Ġke": 5524,
      "Ġmehanismu": 5525,
      "Ġapgabala": 5526,
      "Ġmaksajumiem": 5527,
      "Ġdalam": 5528,
      "Ġpateretajiem": 5529,
      "Ġapcie": 5530,
      "uts": 5531,
      "Ġkopiga": 5532,
      "Ġdatuba": 5533,
      "Ġierobezot": 5534,
      "Åĭ": 5535,
      "Ġetil": 5536,
      "Ġnekad": 5537,
      "Ġnenem": 5538,
      "pej": 5539,
      "dotas": 5540,
      "Ġakciju": 5541,
      "Ġmacibu": 5542,
      "Ġargumentus": 5543,
      "Ġierobezojums": 5544,
      "Ġplasa": 5545,
      "Ġregulari": 5546,
      "Ġlauksaimnieciba": 5547,
      "ĠÂ°": 5548,
      "Ġpieprasita": 5549,
      "Ġterm": 5550,
      "isma": 5551,
      "Ġkvalita": 5552,
      "Ġfinansesanas": 5553,
      "Ġnosledz": 5554,
      "Ġceturto": 5555,
      "Ġdizainpar": 5556,
      "Ġsaus": 5557,
      "Ġ1990": 5558,
      "Ġoli": 5559,
      "Ġatzisanas": 5560,
      "Ġreal": 5561,
      "Ġjapa": 5562,
      "Ġbutiskas": 5563,
      "Ġ124": 5564,
      "Ġtadus": 5565,
      "ĠâĢ²": 5566,
      "Ġaustrija": 5567,
      "Ġpartrauk": 5568,
      "Ġpamatnostadnes": 5569,
      "Ġ529900": 5570,
      "Ġ126": 5571,
      "Ġkos": 5572,
      "Ġizpilde": 5573,
      "Ġizbeigs": 5574,
      "Ġtradi": 5575,
      "cionalas": 5576,
      "Ġ160": 5577,
      "Ġexcl": 5578,
      "proces": 5579,
      "Ġmaksimala": 5580,
      "Ġ611": 5581,
      "Ġnorade": 5582,
      "Ġjauda": 5583,
      "Ġlocekliem": 5584,
      "Ġpienemta": 5585,
      "Ġmiljon": 5586,
      "Ġievedmuitas": 5587,
      "Ġkategoriju": 5588,
      "oks": 5589,
      "Ġfiziskas": 5590,
      "groza": 5591,
      "Ġkonstateja": 5592,
      "Ġgeneraladvokats": 5593,
      "aki": 5594,
      "Ġipaso": 5595,
      "Ġatskiriba": 5596,
      "Ġatbildiba": 5597,
      "Ġpolitika": 5598,
      "Ġpilnigu": 5599,
      "Ġapstrade": 5600,
      "Ġsecinaja": 5601,
      "Ð¸Ñ": 5602,
      "Ġmajs": 5603,
      "Ġzinama": 5604,
      "Ġkonkretiem": 5605,
      "Ġsaimnieciskas": 5606,
      "Ġogl": 5607,
      "chts": 5608,
      "Ġsleja": 5609,
      "Ġneaps": 5610,
      "Ġraj": 5611,
      "Ġrepro": 5612,
      "Ġaugli": 5613,
      "Ġkus": 5614,
      "dru": 5615,
      "Ġlauksaimnie": 5616,
      "Ġligumus": 5617,
      "Ġ122": 5618,
      "Ġkokvil": 5619,
      "dalas": 5620,
      "Ġkludas": 5621,
      "josas": 5622,
      "Ġkonflik": 5623,
      "Ġparvietosanas": 5624,
      "Ġnolemuma": 5625,
      "Ġkodi": 5626,
      "Ġmaksatajs": 5627,
      "Ġkalen": 5628,
      "ction": 5629,
      "Ġprotokols": 5630,
      "Ġ134": 5631,
      "Ġmaksajums": 5632,
      "Ġinstrumentiem": 5633,
      "Ġnodrosinot": 5634,
      "Ġkil": 5635,
      "teidz": 5636,
      "Ġkorig": 5637,
      "ian": 5638,
      "Ġkrajumu": 5639,
      "Ġatkariga": 5640,
      "Ġietvertas": 5641,
      "Ġ141": 5642,
      "Ġsvitro": 5643,
      "Ġapvienotaja": 5644,
      "Ġbrivi": 5645,
      "Ġdzivesvietas": 5646,
      "Ġjos": 5647,
      "Ġrepublikai": 5648,
      "Ġparstrades": 5649,
      "Ġsavos": 5650,
      "irs": 5651,
      "Ġattal": 5652,
      "efek": 5653,
      "Ġizmantots": 5654,
      "Ġmetala": 5655,
      "Ġ132": 5656,
      "Ġapsa": 5657,
      "Ġwith": 5658,
      "riska": 5659,
      "Ġienakuma": 5660,
      "Ġbli": 5661,
      "Ġizpaus": 5662,
      "Ġjaieklauj": 5663,
      "Ġpazinosanas": 5664,
      "Ġatal": 5665,
      "Ġsasniedz": 5666,
      "vielam": 5667,
      "Ġautonom": 5668,
      "Ġiesais": 5669,
      "Ġapsprie": 5670,
      "goties": 5671,
      "Ġamat": 5672,
      "Ġtiesnesi": 5673,
      "Ġdanija": 5674,
      "fs": 5675,
      "Ġkancel": 5676,
      "Ġkopigu": 5677,
      "Ġpievienots": 5678,
      "Ġcin": 5679,
      "Ġinterpretacijas": 5680,
      "lar": 5681,
      "Ġakcion": 5682,
      "Ġsanemusi": 5683,
      "Ġgazu": 5684,
      "Ġjuridiski": 5685,
      "Ġkonsoli": 5686,
      "Ġiegutas": 5687,
      "niekiem": 5688,
      "Ġkartas": 5689,
      "Ġsr": 5690,
      "eral": 5691,
      "Ġ350": 5692,
      "gina": 5693,
      "Ġuzture": 5694,
      "Ġnei": 5695,
      "Ġgrozijumus": 5696,
      "Ġnoil": 5697,
      "Ġsev": 5698,
      "cinas": 5699,
      "Ġbruto": 5700,
      "Ġsekam": 5701,
      "Ġpto": 5702,
      "97": 5703,
      "Ġuzdevumus": 5704,
      "Ġatskaites": 5705,
      "Ġnodrosinajums": 5706,
      "eiro": 5707,
      "Ġapkal": 5708,
      "Ġparlamentam": 5709,
      "Ġsavv": 5710,
      "Ġkriterijs": 5711,
      "Ġatbild": 5712,
      "Ġpotencial": 5713,
      "Ġmg": 5714,
      "tito": 5715,
      "Ġizpildit": 5716,
      "Ġpartika": 5717,
      "rezen": 5718,
      "poli": 5719,
      "igai": 5720,
      "Ġlan": 5721,
      "Ġdirektivai": 5722,
      "Ġ050": 5723,
      "Ġkartam": 5724,
      "Ġatalgo": 5725,
      "zist": 5726,
      "inija": 5727,
      "Ġste": 5728,
      "Ġpiederumi": 5729,
      "kval": 5730,
      "Ġstridu": 5731,
      "Ġsagatavosanas": 5732,
      "ojot": 5733,
      "Ġsistemai": 5734,
      "Ġriet": 5735,
      "Ġpelnu": 5736,
      "Ġneietilpst": 5737,
      "gg": 5738,
      "Ġminetajai": 5739,
      "Ġpatiesam": 5740,
      "Ġattieksme": 5741,
      "Ġteleviz": 5742,
      "Ġparvadas": 5743,
      "Ġiebildumus": 5744,
      "Ġod": 5745,
      "Ġapmers": 5746,
      "Ġmasinas": 5747,
      "Ġagin": 5748,
      "Ġkludaini": 5749,
      "Ġjaiesniedz": 5750,
      "Ġizveles": 5751,
      "Ġvidejo": 5752,
      "ings": 5753,
      "Ġprincipam": 5754,
      "Ġlieg": 5755,
      "Ġprejudicialie": 5756,
      "Ġnoteiktajiem": 5757,
      "Ġkaralisti": 5758,
      "Ġuzskatama": 5759,
      "Ġapsaimniek": 5760,
      "Ġvas": 5761,
      "Ġreprezen": 5762,
      "Ġviii": 5763,
      "ments": 5764,
      "ĠÎ±": 5765,
      "Ġgeme": 5766,
      "umma": 5767,
      "Ġceturta": 5768,
      "Ġsika": 5769,
      "Ġtech": 5770,
      "Ġtunzi": 5771,
      "Ġmazaka": 5772,
      "tet": 5773,
      "que": 5774,
      "Ġspecifikacijas": 5775,
      "int": 5776,
      "Ġnepienemam": 5777,
      "tiesibam": 5778,
      "Ġpierad": 5779,
      "laici": 5780,
      "56": 5781,
      "Ġpastiprina": 5782,
      "Ġmainas": 5783,
      "Ġveselibu": 5784,
      "wo": 5785,
      "Ġsastavdalas": 5786,
      "kop": 5787,
      "Ġmaksatnespejas": 5788,
      "Ġbrivas": 5789,
      "Ġjar": 5790,
      "Ġpiedalas": 5791,
      "Ġsakaru": 5792,
      "zino": 5793,
      "Ġkvalitati": 5794,
      "Ġrai": 5795,
      "Ġveri": 5796,
      "Ġnelauj": 5797,
      "Ġnozarei": 5798,
      "Ġinvalidi": 5799,
      "Ġ230": 5800,
      "Ġklat": 5801,
      "Ġsauk": 5802,
      "Ġelas": 5803,
      "Ġmaterialus": 5804,
      "Ġsasniegtu": 5805,
      "Ġlikumigi": 5806,
      "Ġkreditkval": 5807,
      "rot": 5808,
      "Ġ133": 5809,
      "Ġizstradajumus": 5810,
      "Ġapstiprin": 5811,
      "Ġieja": 5812,
      "ejosu": 5813,
      "Ġvisap": 5814,
      "Ġbrivprati": 5815,
      "Ġdzelzs": 5816,
      "Ġgadijumiem": 5817,
      "Ġvinas": 5818,
      "Ġzviedrijas": 5819,
      "zy": 5820,
      "Ġtonnu": 5821,
      "Ġspeju": 5822,
      "iesta": 5823,
      "Ġpamatot": 5824,
      "izaciju": 5825,
      "Ġneparpro": 5826,
      "Ġnoguldi": 5827,
      "Ġseklas": 5828,
      "Ġflu": 5829,
      "ksu": 5830,
      "Ġfakti": 5831,
      "Ġnoteica": 5832,
      "Ġatbilstiba": 5833,
      "Ġatzita": 5834,
      "Ġdzivot": 5835,
      "Ġteikuma": 5836,
      "Ġpusei": 5837,
      "Ġturpmaka": 5838,
      "Ġiegust": 5839,
      "tore": 5840,
      "ran": 5841,
      "taro": 5842,
      "Ġvisaptver": 5843,
      "ben": 5844,
      "inus": 5845,
      "Ġfunkciju": 5846,
      "Ġzeta": 5847,
      "fe": 5848,
      "Ġstie": 5849,
      "Ġapzimejumu": 5850,
      "razu": 5851,
      "Ġatlai": 5852,
      "Ġkravu": 5853,
      "Ġvienam": 5854,
      "Ġker": 5855,
      "Ġ218": 5856,
      "Ġbankasriska": 5857,
      "Ġagenturu": 5858,
      "Ġkaitejums": 5859,
      "Ġsanaksme": 5860,
      "Ġpalav": 5861,
      "Ġ128": 5862,
      "Ġudenos": 5863,
      "Ġneesamiba": 5864,
      "Ġkonkretam": 5865,
      "bul": 5866,
      "Ġrn": 5867,
      "Ġligumam": 5868,
      "cionalo": 5869,
      "Ġjaizmanto": 5870,
      "Ġgmin": 5871,
      "ker": 5872,
      "Ġkartibas": 5873,
      "tivie": 5874,
      "Ġapgrozijuma": 5875,
      "Ġvieniba": 5876,
      "Ġvalutas": 5877,
      "Ġ1049": 5878,
      "Ġneesamibu": 5879,
      "Ġvajadzigas": 5880,
      "Ġveiksanu": 5881,
      "Ġnepieciesamibu": 5882,
      "Ġbridina": 5883,
      "Ġloceklu": 5884,
      "Ġgminy": 5885,
      "Ġizsniedz": 5886,
      "cor": 5887,
      "Ġbuvnieciba": 5888,
      "Ġteror": 5889,
      "Ġgrutibas": 5890,
      "Ġmono": 5891,
      "tiskiem": 5892,
      "Ġvajadzigos": 5893,
      "Ġvienojas": 5894,
      "Ġregionala": 5895,
      "Ġipasus": 5896,
      "ny": 5897,
      "Ġapstiprinajumu": 5898,
      "Ġsarezgi": 5899,
      "Ġuzraudziba": 5900,
      "Ġkopsavilkums": 5901,
      "posma": 5902,
      "Ġkreditkvalitates": 5903,
      "mobil": 5904,
      "pres": 5905,
      "Ġizskatisanu": 5906,
      "Ïħ": 5907,
      "nicas": 5908,
      "96": 5909,
      "plo": 5910,
      "Ġatseviskas": 5911,
      "Ġsasniegsanai": 5912,
      "Ġmaksu": 5913,
      "trans": 5914,
      "Ġatsaucoties": 5915,
      "Ġreprezenta": 5916,
      "Ġatbrivojums": 5917,
      "Ġapgalvojumu": 5918,
      "78": 5919,
      "ww": 5920,
      "Ġpieklut": 5921,
      "Ġdivam": 5922,
      "Ġsl": 5923,
      "Ġuzrada": 5924,
      "ttie": 5925,
      "Ġizstradatus": 5926,
      "Ġdarzeni": 5927,
      "Ġattieksmi": 5928,
      "ikota": 5929,
      "Ġizpild": 5930,
      "metil": 5931,
      "Ġnoteikusi": 5932,
      "Ġnoka": 5933,
      "Ġapstiprinaja": 5934,
      "Ġprecizets": 5935,
      "tive": 5936,
      "Ġatbildigas": 5937,
      "Ġatbilstosu": 5938,
      "Ġuzvar": 5939,
      "kan": 5940,
      "Ġmes": 5941,
      "Ġungarijas": 5942,
      "chaf": 5943,
      "Ġkompetentajai": 5944,
      "Ġprieksmetu": 5945,
      "Ġsniegtu": 5946,
      "Ġneesamibas": 5947,
      "Ġgroz": 5948,
      "Ġcilvektiesibu": 5949,
      "Ġattei": 5950,
      "organ": 5951,
      "Ġkomiteju": 5952,
      "Ġizsledz": 5953,
      "Ġ157": 5954,
      "Ġpamatnol": 5955,
      "Ġsniegsana": 5956,
      "Ġminimalo": 5957,
      "Ġautor": 5958,
      "Ġpieejams": 5959,
      "mann": 5960,
      "Ġilgumu": 5961,
      "Ġkreditiespejas": 5962,
      "Ġlietotaju": 5963,
      "Ġdan": 5964,
      "Ġprivata": 5965,
      "Ġinvesticiju": 5966,
      "mato": 5967,
      "Ġjagroza": 5968,
      "Ġregistr": 5969,
      "Ġasto": 5970,
      "Ġstavokla": 5971,
      "Ġpiedz": 5972,
      "Ġnepieciesamas": 5973,
      "Ġieviest": 5974,
      "Ġkopuznem": 5975,
      "Ġesosajiem": 5976,
      "Ġgrozits": 5977,
      "Ġdemo": 5978,
      "Ġdarbibai": 5979,
      "Ġacqu": 5980,
      "Ġprofesionalas": 5981,
      "Ġgen": 5982,
      "Ġieguta": 5983,
      "Ġdalibu": 5984,
      "Ġpieskirto": 5985,
      "Ġpieprasijums": 5986,
      "Ġsteidz": 5987,
      "sen": 5988,
      "Ġiespejami": 5989,
      "und": 5990,
      "eit": 5991,
      "Ġpardosanu": 5992,
      "Ġiznak": 5993,
      "Ġjebkad": 5994,
      "Ġpielidz": 5995,
      "Ġdeuts": 5996,
      "Ġizrietos": 5997,
      "Ġdrau": 5998,
      "Ġidentita": 5999,
      "Ġeksportetajs": 6000,
      "priedusi": 6001,
      "Ġ900": 6002,
      "Ġizskaidro": 6003,
      "Ġparedzetajam": 6004,
      "Ġaluminija": 6005,
      "Ġ131": 6006,
      "Ġvairakus": 6007,
      "Ġtimekla": 6008,
      "etos": 6009,
      "Ġvaldibu": 6010,
      "Ġportugale": 6011,
      "Ġtro": 6012,
      "Ġprieksno": 6013,
      "Ġnoligumiem": 6014,
      "etais": 6015,
      "Ġvienotu": 6016,
      "Ġlam": 6017,
      "Ġnolukam": 6018,
      "Ġagraka": 6019,
      "bilst": 6020,
      "Ġkol": 6021,
      "inde": 6022,
      "lec": 6023,
      "Ġpakapen": 6024,
      "Ġ340": 6025,
      "Ġaudi": 6026,
      "Ġtrim": 6027,
      "roplo": 6028,
      "torus": 6029,
      "Ġjaatzist": 6030,
      "Ġatzina": 6031,
      "hof": 6032,
      "port": 6033,
      "Ġindijas": 6034,
      "Ġ847": 6035,
      "Ġrezultatiem": 6036,
      "Ġatlauj": 6037,
      "Ġizraisi": 6038,
      "Ġizsniegsanas": 6039,
      "Ġbeidzas": 6040,
      "Ġieklaut": 6041,
      "Ġlaboratori": 6042,
      "plu": 6043,
      "Ġspirta": 6044,
      "Ġ610": 6045,
      "Ġbilances": 6046,
      "Ġstrateg": 6047,
      "Ġ180": 6048,
      "Ġkau": 6049,
      "Ġloceklis": 6050,
      "Ġatseviska": 6051,
      "Ġgaita": 6052,
      "Ġparsniegt": 6053,
      "Ġprasits": 6054,
      "Ġatzinuma": 6055,
      "Ġsods": 6056,
      "Ġnostiprina": 6057,
      "Ġefsa": 6058,
      "all": 6059,
      "Ġpastavigi": 6060,
      "Ġlog": 6061,
      "Ġdzivniekiem": 6062,
      "Ġkategorijam": 6063,
      "Ġsadales": 6064,
      "Ġmeri": 6065,
      "laik": 6066,
      "Ġsavam": 6067,
      "Ġtehnolog": 6068,
      "zija": 6069,
      "Ġvalodu": 6070,
      "Ġuzradi": 6071,
      "teli": 6072,
      "Ġpalielinat": 6073,
      "Ġmenesa": 6074,
      "Ġieguldijumiem": 6075,
      "Ġspej": 6076,
      "Ġizteikts": 6077,
      "Ġobjektivi": 6078,
      "oksi": 6079,
      "Ġprovin": 6080,
      "Ġ143": 6081,
      "cha": 6082,
      "Ġ1234": 6083,
      "Ġ640": 6084,
      "dod": 6085,
      "Ġsamazinajumu": 6086,
      "Ġnodosanu": 6087,
      "Ġatti": 6088,
      "Ġkadp": 6089,
      "Ġesosie": 6090,
      "Ġieraksta": 6091,
      "dibai": 6092,
      "Ġminetajos": 6093,
      "Ġdalibniece": 6094,
      "igums": 6095,
      "tenu": 6096,
      "Ġpiemaks": 6097,
      "Ġipasnieka": 6098,
      "Ġvieteja": 6099,
      "etri": 6100,
      "Ġslimibas": 6101,
      "Ġizvertet": 6102,
      "Ġmili": 6103,
      "Ġpiemerojamo": 6104,
      "Ġebta": 6105,
      "Ġneitr": 6106,
      "Ġstatutu": 6107,
      "Ġpiegadi": 6108,
      "Ġpensijas": 6109,
      "uden": 6110,
      "Ġ700": 6111,
      "Ġgriekija": 6112,
      "Ġjaparedz": 6113,
      "Ġnodev": 6114,
      "Ġliellopu": 6115,
      "Ġpietiek": 6116,
      "Ġvelakais": 6117,
      "igacijas": 6118,
      "Ġapstridetas": 6119,
      "Ġoglekla": 6120,
      "ĠÎ¼": 6121,
      "sas": 6122,
      "Ġnelikumigi": 6123,
      "Ġapmaina": 6124,
      "Ġkanceleja": 6125,
      "Ġdelegetas": 6126,
      "Ġveica": 6127,
      "Ġbutisks": 6128,
      "Ġven": 6129,
      "Ġamatperson": 6130,
      "Ġnekadi": 6131,
      "Ġtribunal": 6132,
      "vesanas": 6133,
      "Ġlidziga": 6134,
      "Ġnozari": 6135,
      "Ġtrq": 6136,
      "Ġjurisdikciju": 6137,
      "Ġpiekrisanu": 6138,
      "berg": 6139,
      "Ġiesniegto": 6140,
      "Ġigaun": 6141,
      "Ġpolija": 6142,
      "Ġlietotajiem": 6143,
      "Ġizlase": 6144,
      "Ġiesniedzot": 6145,
      "Ġvardu": 6146,
      "Ġplastmasas": 6147,
      "Ġvienigais": 6148,
      "Ġ168": 6149,
      "Ġ234": 6150,
      "Ġizcelsmi": 6151,
      "Ġjurisdikcijas": 6152,
      "Ġatlases": 6153,
      "Ġaudumi": 6154,
      "kaita": 6155,
      "Ġparbauda": 6156,
      "tila": 6157,
      "Ġprodukts": 6158,
      "est": 6159,
      "anem": 6160,
      "Ġrinda": 6161,
      "Õ¡Õ": 6162,
      "try": 6163,
      "Ġpilna": 6164,
      "Ġvielam": 6165,
      "Ġnozvejas": 6166,
      "Ġkonser": 6167,
      "Ġapa": 6168,
      "Ġ148": 6169,
      "Ġstavoklis": 6170,
      "Ġatgr": 6171,
      "Ġnodoklus": 6172,
      "Ġuzkra": 6173,
      "Ġindekss": 6174,
      "enu": 6175,
      "atr": 6176,
      "Ġjaatbilst": 6177,
      "Ġ182": 6178,
      "Ġekspluatacijas": 6179,
      "Ġtestu": 6180,
      "Ġdub": 6181,
      "Ġacquis": 6182,
      "Ġ147": 6183,
      "Ġizsniegs": 6184,
      "Ġsaikne": 6185,
      "Ġskirejtiesas": 6186,
      "Ġpilsonu": 6187,
      "Ġatkritumi": 6188,
      "Õ«": 6189,
      "Ġ178": 6190,
      "Ġrikojas": 6191,
      "Ġpasreizeja": 6192,
      "Ġbulgarijas": 6193,
      "Ġputnu": 6194,
      "Ġiemeslus": 6195,
      "Ġkopigi": 6196,
      "Ġbrem": 6197,
      "Ġsajauksanas": 6198,
      "Ġmodu": 6199,
      "Ġsniedzejiem": 6200,
      "Ġjasa": 6201,
      "Ġieverot": 6202,
      "Ġnorvegijas": 6203,
      "Ġnodot": 6204,
      "Ġkokvilnas": 6205,
      "Ġaroma": 6206,
      "Ġelements": 6207,
      "Ġprepara": 6208,
      "Ġcentra": 6209,
      "Ġtresais": 6210,
      "Ġprezump": 6211,
      "Ġ310": 6212,
      "Ġ137": 6213,
      "Ġvak": 6214,
      "Ġnemusi": 6215,
      "Ġuzskaites": 6216,
      "Ġ722": 6217,
      "Ġatkapjoties": 6218,
      "znem": 6219,
      "Ġattistibai": 6220,
      "Ġlemt": 6221,
      "Ġnoligumam": 6222,
      "isten": 6223,
      "Ġnospriez": 6224,
      "izacija": 6225,
      "Ġskiedram": 6226,
      "Ġed": 6227,
      "Ġvair": 6228,
      "vada": 6229,
      "Ġapger": 6230,
      "Ġou": 6231,
      "Ġtabakas": 6232,
      "Ġkodekss": 6233,
      "Ġdazi": 6234,
      "Ġcomm": 6235,
      "Ġauten": 6236,
      "Ġdocumen": 6237,
      "Ġ170": 6238,
      "Ġmutvar": 6239,
      "Ġjus": 6240,
      "Ġsiltum": 6241,
      "aksanas": 6242,
      "Ġdomam": 6243,
      "Ġkreditaizsardzibu": 6244,
      "Ġtemperatura": 6245,
      "Ġmarsru": 6246,
      "Ġviela": 6247,
      "Ġiesniedzejam": 6248,
      "Ġwww": 6249,
      "Ġautomatiski": 6250,
      "Ġaspektiem": 6251,
      "Ġatzime": 6252,
      "ursi": 6253,
      "ĠÎµ": 6254,
      "Ġpirc": 6255,
      "Ġnovertet": 6256,
      "Ġrenta": 6257,
      "Ġep": 6258,
      "cio": 6259,
      "skabe": 6260,
      "riet": 6261,
      "Ġfos": 6262,
      "Ġpieejamas": 6263,
      "Ġzviedrija": 6264,
      "Ġsapro": 6265,
      "Ġfaktus": 6266,
      "Ġpamatlemuma": 6267,
      "Ġplusmas": 6268,
      "Ġklientiem": 6269,
      "Ġiepirkumu": 6270,
      "Ġatlidzibas": 6271,
      "Ġnepieciesamo": 6272,
      "bel": 6273,
      "Ġzalem": 6274,
      "Ġatlie": 6275,
      "Ġparbauzu": 6276,
      "Ġnospriedusi": 6277,
      "Ġdienestu": 6278,
      "forme": 6279,
      "mel": 6280,
      "Ġind": 6281,
      "Ġeuropean": 6282,
      "Ġilgs": 6283,
      "Ġkarta": 6284,
      "Ġdesmit": 6285,
      "Ġislan": 6286,
      "Ġekonomiska": 6287,
      "Ġpienakumiem": 6288,
      "Ġpieraditu": 6289,
      "Ġatmaksa": 6290,
      "Ġministri": 6291,
      "Ġnesamer": 6292,
      "Ġdienesti": 6293,
      "Ġparejo": 6294,
      "celu": 6295,
      "Ġ0207": 6296,
      "dziv": 6297,
      "Ġpiedal": 6298,
      "Ġieguldijumi": 6299,
      "Ġposmu": 6300,
      "Ġvinogu": 6301,
      "mera": 6302,
      "Ġuk": 6303,
      "Ġplc": 6304,
      "Ġievada": 6305,
      "Ġ630": 6306,
      "Ġraksta": 6307,
      "Ġaizsargat": 6308,
      "Ġglaba": 6309,
      "Ġix": 6310,
      "tetu": 6311,
      "iek": 6312,
      "racijas": 6313,
      "Ġiztei": 6314,
      "Ġpieskirsana": 6315,
      "liedz": 6316,
      "Ġeiropa": 6317,
      "Ġgaruma": 6318,
      "Ġparejiem": 6319,
      "Ġarejo": 6320,
      "Ġnodalu": 6321,
      "Ġkugis": 6322,
      "Ġiemesli": 6323,
      "wer": 6324,
      "Ġ142": 6325,
      "Ġnepielau": 6326,
      "toram": 6327,
      "Ġdizainparau": 6328,
      "Ġkvan": 6329,
      "ksni": 6330,
      "Ġpagarina": 6331,
      "Ġefektivitates": 6332,
      "Ġatmaksas": 6333,
      "Ġaizliegumu": 6334,
      "Ġkomple": 6335,
      "Ġpasno": 6336,
      "Ġsankcijas": 6337,
      "gor": 6338,
      "Ġreklamas": 6339,
      "Ġlemj": 6340,
      "Ġprofesionalo": 6341,
      "Ġaktiviem": 6342,
      "Ġzales": 6343,
      "Ġcitada": 6344,
      "Ġmajputnu": 6345,
      "Ġsalu": 6346,
      "Ġrazojumiem": 6347,
      "Ġmenesiem": 6348,
      "Ġpusi": 6349,
      "Ġziemel": 6350,
      "Ġatkapes": 6351,
      "Ġvienotas": 6352,
      "Ġraditaji": 6353,
      "Ġregionu": 6354,
      "ation": 6355,
      "Ġsastavdalu": 6356,
      "Ġmaksl": 6357,
      "Ġ152": 6358,
      "Ġaplieka": 6359,
      "Ġostas": 6360,
      "eiropas": 6361,
      "Ġdro": 6362,
      "Ġ560": 6363,
      "Ġcompan": 6364,
      "Ġlaula": 6365,
      "ejus": 6366,
      "Ġzimem": 6367,
      "Ġnosutisanas": 6368,
      "Ġizcel": 6369,
      "Ġpreven": 6370,
      "pt": 6371,
      "Ġbudzetu": 6372,
      "Ġmatesuznem": 6373,
      "Ġregistraciju": 6374,
      "Ġpubliski": 6375,
      "Ġgov": 6376,
      "Ġindividuali": 6377,
      "ĠâĮ": 6378,
      "Ġpilnvaro": 6379,
      "Ġklimata": 6380,
      "vejam": 6381,
      "Ġizskatamaja": 6382,
      "Ġatskiriga": 6383,
      "Ġpartrau": 6384,
      "Ġagrakas": 6385,
      "liguma": 6386,
      "Ġnesaisti": 6387,
      "Ġsavienotas": 6388,
      "Ġdaudzuma": 6389,
      "Ġatgu": 6390,
      "ĠÃĹ": 6391,
      "Ġnoskaidrot": 6392,
      "Ġderiguma": 6393,
      "Ġfederativa": 6394,
      "Ġdekreta": 6395,
      "aimniecibu": 6396,
      "ĠpoÅĤ": 6397,
      "Ġkre": 6398,
      "Ġdarijumus": 6399,
      "Î¹Î±": 6400,
      "omes": 6401,
      "Ġstar": 6402,
      "damas": 6403,
      "Ġizdarit": 6404,
      "Ġxii": 6405,
      "juras": 6406,
      "Ġmodi": 6407,
      "Ġ149": 6408,
      "ega": 6409,
      "Ġgalu": 6410,
      "Ġminister": 6411,
      "Ġmutvardu": 6412,
      "Ġpamatojumam": 6413,
      "Ġ800": 6414,
      "Ġpietiekamu": 6415,
      "Ġtabulas": 6416,
      "vadi": 6417,
      "kira": 6418,
      "Ñĥ": 6419,
      "Ġcan": 6420,
      "Ġneder": 6421,
      "gal": 6422,
      "cipl": 6423,
      "Ġ550": 6424,
      "Ġdrizak": 6425,
      "Ġapriti": 6426,
      "Ġpasiem": 6427,
      "Ġsting": 6428,
      "Ġnepietieka": 6429,
      "Ġministrija": 6430,
      "Ġbliv": 6431,
      "Î¿Ïħ": 6432,
      "Ġmis": 6433,
      "Ġinstruments": 6434,
      "Ġ999": 6435,
      "Ġatcelsanas": 6436,
      "Ġsamazinatu": 6437,
      "Ġizaugs": 6438,
      "Ġ1989": 6439,
      "Ġungarija": 6440,
      "dosana": 6441,
      "det": 6442,
      "Ġ1987": 6443,
      "Ġcilve": 6444,
      "Ġmasa": 6445,
      "Ġorien": 6446,
      "Ġ330": 6447,
      "Ġzinamu": 6448,
      "igh": 6449,
      "Ġank": 6450,
      "Ġnoris": 6451,
      "Ġ1408": 6452,
      "Ġgaismas": 6453,
      "Ġdr": 6454,
      "pakalpo": 6455,
      "Ġpaslaik": 6456,
      "Ġstarpposma": 6457,
      "Ġhttp": 6458,
      "Ġatcelsana": 6459,
      "Ġdzes": 6460,
      "Ġpielaujama": 6461,
      "Ġligumos": 6462,
      "Ġskrej": 6463,
      "nei": 6464,
      "Ġ410": 6465,
      "Ġierakstu": 6466,
      "Ġeuropa": 6467,
      "Ġizpildits": 6468,
      "Ġsamaksu": 6469,
      "Ġzaudejumi": 6470,
      "Ġbalstas": 6471,
      "Ġizklastits": 6472,
      "Ġizslegt": 6473,
      "Ġsakotnejo": 6474,
      "Ġnakotne": 6475,
      "Ġ174": 6476,
      "Ġiespejamas": 6477,
      "Ġfiks": 6478,
      "Ġneiever": 6479,
      "Ġoks": 6480,
      "Ġierobezotu": 6481,
      "Ġneapstri": 6482,
      "Ġipatn": 6483,
      "nic": 6484,
      "ky": 6485,
      "teti": 6486,
      "Ġadas": 6487,
      "Ġizlem": 6488,
      "tiskus": 6489,
      "Ġelektroniska": 6490,
      "Ġparrai": 6491,
      "Ġiniciativa": 6492,
      "Ġdazadiem": 6493,
      "Ġalkohol": 6494,
      "Ġsertifikats": 6495,
      "Ġprogrammam": 6496,
      "Ġenergetikas": 6497,
      "Ġcitos": 6498,
      "Ġpasam": 6499,
      "Ġbijus": 6500,
      "Ġgemeinde": 6501,
      "igajam": 6502,
      "liel": 6503,
      "Ġ167": 6504,
      "Ġ060": 6505,
      "Ġizplatisanas": 6506,
      "Ġlini": 6507,
      "Ġgd": 6508,
      "Ġdefiniciju": 6509,
      "Ġpiedavajuma": 6510,
      "Ġattiek": 6511,
      "Ġraditu": 6512,
      "Ġiesaistitas": 6513,
      "Ġnakamaja": 6514,
      "Ġieguldijums": 6515,
      "Ġlidostas": 6516,
      "pla": 6517,
      "Ġfrance": 6518,
      "Ġnepamatoti": 6519,
      "Ġlidzigas": 6520,
      "Ġizpildei": 6521,
      "Ġkarto": 6522,
      "Ġatris": 6523,
      "Ġkonkretak": 6524,
      "Ġvardiem": 6525,
      "prieda": 6526,
      "fr": 6527,
      "ola": 6528,
      "Ġturcijas": 6529,
      "Ġceturt": 6530,
      "Ġ151": 6531,
      "Ġpareizu": 6532,
      "Ġdivdes": 6533,
      "Ġprote": 6534,
      "Ġneietver": 6535,
      "Ġlugt": 6536,
      "Ġmoni": 6537,
      "tari": 6538,
      "Ġipasums": 6539,
      "Ġkore": 6540,
      "Ġrikoties": 6541,
      "Ġcilvekres": 6542,
      "Ġpiemerotas": 6543,
      "Ġ155": 6544,
      "Ġ2150": 6545,
      "Ġsecinajums": 6546,
      "Ġvairakam": 6547,
      "Ġatbildet": 6548,
      "Ġpedejas": 6549,
      "Ġsabiedrisko": 6550,
      "Ġuzlabotu": 6551,
      "Ġapstradati": 6552,
      "Ġ2138": 6553,
      "Ġparak": 6554,
      "Ġfiziska": 6555,
      "Ġprieksrocibu": 6556,
      "ekom": 6557,
      "Ġvietne": 6558,
      "Ġpartnerattie": 6559,
      "Ġintervences": 6560,
      "Ġlietot": 6561,
      "Ġtehnologijas": 6562,
      "Ġtelevizijas": 6563,
      "Ġfur": 6564,
      "Ġdubul": 6565,
      "Ġnational": 6566,
      "Ġneveic": 6567,
      "hidro": 6568,
      "Ġiemesls": 6569,
      "Ġnesader": 6570,
      "Ġnovero": 6571,
      "Ġiemaksu": 6572,
      "Ġid": 6573,
      "Ġdiskriminacijas": 6574,
      "Ġparkapts": 6575,
      "Ġarejas": 6576,
      "Ġnoteiktais": 6577,
      "Ġdemokra": 6578,
      "Ġnepielauj": 6579,
      "Ġparasta": 6580,
      "Ġklatbu": 6581,
      "ekven": 6582,
      "ac": 6583,
      "dae": 6584,
      "Ġinstrumenta": 6585,
      "driz": 6586,
      "Ġprojektiem": 6587,
      "Ġcir": 6588,
      "Ġregionalas": 6589,
      "Ġsomijas": 6590,
      "Ġ0003": 6591,
      "72": 6592,
      "Ġvienibam": 6593,
      "tizeta": 6594,
      "Ġradusas": 6595,
      "Ġ414": 6596,
      "Ġfinansejumu": 6597,
      "Ġaizliegts": 6598,
      "kim": 6599,
      "Ġkonstatejusi": 6600,
      "Ġkriminalproces": 6601,
      "Ġbutibu": 6602,
      "klausi": 6603,
      "pal": 6604,
      "ande": 6605,
      "Ġmaini": 6606,
      "eraugoties": 6607,
      "Ġklust": 6608,
      "Ġkatrs": 6609,
      "isla": 6610,
      "Ġpateretajam": 6611,
      "Ġpietiekama": 6612,
      "Ġnemtu": 6613,
      "Ġneraugoties": 6614,
      "Ġizveleties": 6615,
      "Ġapsudz": 6616,
      "Ġ261": 6617,
      "Ġregistracijai": 6618,
      "Ġcorporates": 6619,
      "Ġprakses": 6620,
      "Ġtelekom": 6621,
      "Ġtiesiskuma": 6622,
      "Ġkodol": 6623,
      "tibam": 6624,
      "Ġnovertetu": 6625,
      "Ġietverot": 6626,
      "Ġzinas": 6627,
      "Ġjanos": 6628,
      "Ġgri": 6629,
      "Ġug": 6630,
      "gru": 6631,
      "Ġneats": 6632,
      "Ġtenden": 6633,
      "Ġkopsak": 6634,
      "Ġsubsidiar": 6635,
      "Ġsalas": 6636,
      "ungs": 6637,
      "Ġapska": 6638,
      "Ġrokas": 6639,
      "Ġjebkur": 6640,
      "Ġapgroz": 6641,
      "fc": 6642,
      "Ġland": 6643,
      "Ġlatvijas": 6644,
      "flu": 6645,
      "tivus": 6646,
      "Ġoksi": 6647,
      "josu": 6648,
      "Ġnosutija": 6649,
      "Ġjebkadas": 6650,
      "Ġizskatisanas": 6651,
      "Ġiespejamu": 6652,
      "Ġvirsmas": 6653,
      "Ġmaro": 6654,
      "Ġsgs": 6655,
      "Ġklasifikacija": 6656,
      "Ġmetodem": 6657,
      "Ġmana": 6658,
      "tiesas": 6659,
      "Ġkonteksts": 6660,
      "Ġ1107": 6661,
      "Ġvara": 6662,
      "Ġkonstruk": 6663,
      "Ġ165": 6664,
      "Ġligumsledzeju": 6665,
      "Ġ213800": 6666,
      "Ġbor": 6667,
      "Ġuzsakt": 6668,
      "aiz": 6669,
      "Ġesosos": 6670,
      "Ġapstiprinata": 6671,
      "Ġstandartus": 6672,
      "Ġparskatisanu": 6673,
      "dienas": 6674,
      "Ġ480": 6675,
      "Ġpaliek": 6676,
      "Ġkrapsanas": 6677,
      "lep": 6678,
      "Ġ144": 6679,
      "Ġversta": 6680,
      "Ġneliedz": 6681,
      "Ġ1068": 6682,
      "Ġpienacigu": 6683,
      "Î³": 6684,
      "Ġplans": 6685,
      "Ġella": 6686,
      "Ġsaistitu": 6687,
      "Ġdiscipl": 6688,
      "padomes": 6689,
      "Ġpiesaisti": 6690,
      "Ġapgalvojums": 6691,
      "Ġieredni": 6692,
      "Ġlih": 6693,
      "Ġparapdrosinasanas": 6694,
      "Ġpagarinat": 6695,
      "Ġapliecin": 6696,
      "Ġekstrak": 6697,
      "ĠÂ±": 6698,
      "Ġsla": 6699,
      "Ġeksportetajiem": 6700,
      "Ġpierada": 6701,
      "Ġveiksanas": 6702,
      "Ġkarte": 6703,
      "Ġiedarbiba": 6704,
      "Ġrezultats": 6705,
      "Ġzonu": 6706,
      "Ġnodrosinasanas": 6707,
      "Ġaugstas": 6708,
      "Ġveidi": 6709,
      "Ġzinojumus": 6710,
      "76": 6711,
      "Ġfrak": 6712,
      "Ġkopigas": 6713,
      "Ġapsverumos": 6714,
      "Ġlicence": 6715,
      "Ġvienada": 6716,
      "ardzibas": 6717,
      "Ġnodevas": 6718,
      "Ġpienemamibu": 6719,
      "Ġargumentiem": 6720,
      "Ġpanaktu": 6721,
      "Ġnerada": 6722,
      "Ġizdarita": 6723,
      "Ġsanemejs": 6724,
      "Ġregulativa": 6725,
      "Ġsamazinajums": 6726,
      "Ġnenozime": 6727,
      "Ġsekretars": 6728,
      "Ġnovir": 6729,
      "Ġ940": 6730,
      "Ġtieso": 6731,
      "Ġkvantita": 6732,
      "ow": 6733,
      "Ġapsaub": 6734,
      "Ġiericu": 6735,
      "Ġreferences": 6736,
      "Ġsporta": 6737,
      "Ġplatfor": 6738,
      "Ġcap": 6739,
      "Ġkopsakara": 6740,
      "Ġjaudu": 6741,
      "materialu": 6742,
      "Ġbiezi": 6743,
      "Ġipasos": 6744,
      "tici": 6745,
      "Ġtiklidz": 6746,
      "Ġbriza": 6747,
      "Ġoglu": 6748,
      "Ġsuga": 6749,
      "Ġlasot": 6750,
      "Ġtype": 6751,
      "nus": 6752,
      "Ġorganizator": 6753,
      "Ġaizdevuma": 6754,
      "Ġpasnodarb": 6755,
      "Ġmed": 6756,
      "Ġieintereseta": 6757,
      "Ġnoraidits": 6758,
      "Ġnevajadz": 6759,
      "Ġvalde": 6760,
      "Ġnoteic": 6761,
      "Ġizvirzito": 6762,
      "Ġfinansialas": 6763,
      "ld": 6764,
      "Ġ184": 6765,
      "ici": 6766,
      "Ġmaksataja": 6767,
      "Ġapliecibas": 6768,
      "Ġukrainas": 6769,
      "Ġistenota": 6770,
      "Ġklientu": 6771,
      "Ġparame": 6772,
      "Ġresursus": 6773,
      "Ġlihtens": 6774,
      "Ġprotams": 6775,
      "Ġieprieksejo": 6776,
      "Ġprasit": 6777,
      "Ġstundas": 6778,
      "Ġgrupam": 6779,
      "Ġatlauta": 6780,
      "Ġrumanija": 6781,
      "Ġiedzivotaju": 6782,
      "Ġnodosanas": 6783,
      "Ġlabas": 6784,
      "Ġola": 6785,
      "Ġvaras": 6786,
      "Ġsakas": 6787,
      "Ġskid": 6788,
      "Ġ153": 6789,
      "Ġkars": 6790,
      "Ġnevaretu": 6791,
      "Ġsniegts": 6792,
      "rei": 6793,
      "Ġparvei": 6794,
      "Ġserti": 6795,
      "rekven": 6796,
      "Ġpietiekams": 6797,
      "Ġlidzigu": 6798,
      "Ġtiessa": 6799,
      "Ġdarit": 6800,
      "Ġatsauci": 6801,
      "Ġattiecibam": 6802,
      "Ġsapras": 6803,
      "Ġareja": 6804,
      "Ġ175": 6805,
      "Ġautomobil": 6806,
      "Ġapakspozicija": 6807,
      "ÐµÐ½": 6808,
      "Ġsvarigs": 6809,
      "Ġmoder": 6810,
      "Ġneparprotami": 6811,
      "padsmit": 6812,
      "Ġ156": 6813,
      "Ġreag": 6814,
      "Ġslovakijas": 6815,
      "ore": 6816,
      "Ġpamatojas": 6817,
      "00000": 6818,
      "Ġlidojumu": 6819,
      "Ġkaroga": 6820,
      "Ġtiesiskaja": 6821,
      "Ġkumula": 6822,
      "Ġjunijam": 6823,
      "Ġsw": 6824,
      "Ġsubsidijas": 6825,
      "Ġieprieksmin": 6826,
      "mitaja": 6827,
      "Ġbrau": 6828,
      "tivos": 6829,
      "Ġirijas": 6830,
      "Ġmsc": 6831,
      "Ġlicencu": 6832,
      "Ġmus": 6833,
      "Ġprojekts": 6834,
      "Ġpakapi": 6835,
      "Ġiebildums": 6836,
      "Ġkir": 6837,
      "Ġvol": 6838,
      "Ġkonfedera": 6839,
      "Ġiesal": 6840,
      "Ġliek": 6841,
      "Ġzaudejumiem": 6842,
      "Ġizklastito": 6843,
      "Ġcipar": 6844,
      "Ġbaga": 6845,
      "Ġline": 6846,
      "Ġkonsta": 6847,
      "Ġvajadzigo": 6848,
      "Ġjauzs": 6849,
      "Ġapgru": 6850,
      "Ġapdrosinasanu": 6851,
      "Ġ0805": 6852,
      "Ġnelabveligs": 6853,
      "institu": 6854,
      "ured": 6855,
      "etz": 6856,
      "tetas": 6857,
      "Ġparasto": 6858,
      "iniem": 6859,
      "Ġprogres": 6860,
      "ienas": 6861,
      "Ġcoun": 6862,
      "Ġparstruk": 6863,
      "Ġattistiba": 6864,
      "zim": 6865,
      "Ġizejvielam": 6866,
      "ecina": 6867,
      "Ġstipr": 6868,
      "ep": 6869,
      "Ġotru": 6870,
      "Ġprofil": 6871,
      "vir": 6872,
      "ya": 6873,
      "Ġrumanijas": 6874,
      "Ġ146": 6875,
      "Ġ154": 6876,
      "Ġkvalifikaciju": 6877,
      "Ġnatrija": 6878,
      "Ġkonkurence": 6879,
      "Ġkoka": 6880,
      "Ġpieejamu": 6881,
      "Ġkvalifikacijas": 6882,
      "dt": 6883,
      "ong": 6884,
      "rup": 6885,
      "Ġ1988": 6886,
      "Ġpastavesanu": 6887,
      "Ġcommis": 6888,
      "alai": 6889,
      "Ġdelega": 6890,
      "Ġgandriz": 6891,
      "Ġaizliedz": 6892,
      "hr": 6893,
      "Ġsamazinasanas": 6894,
      "disana": 6895,
      "Ġaizlieguma": 6896,
      "Ġcilveka": 6897,
      "Ġpazinots": 6898,
      "Ġmaksimali": 6899,
      "Ġizskatisanai": 6900,
      "briv": 6901,
      "Ġregistreti": 6902,
      "Ġuzskaititi": 6903,
      "Ġpalidziba": 6904,
      "Ġkonsul": 6905,
      "Ġviegli": 6906,
      "Ġanali": 6907,
      "Ġsekun": 6908,
      "Ġnaciju": 6909,
      "Ġrul": 6910,
      "Ġapstridet": 6911,
      "Ġieguldijuma": 6912,
      "Ġilga": 6913,
      "tiskajam": 6914,
      "Ġvaldes": 6915,
      "Ġsup": 6916,
      "Ġpienemto": 6917,
      "Ġapstiprinajusi": 6918,
      "Ġpievers": 6919,
      "Ġtauku": 6920,
      "Ġbir": 6921,
      "Ġperiod": 6922,
      "Ġnolik": 6923,
      "Ġparskatisana": 6924,
      "Ġprim": 6925,
      "Ġdzivesvieta": 6926,
      "tehn": 6927,
      "Ġuzskatita": 6928,
      "Ġaprekinu": 6929,
      "Ġger": 6930,
      "Ġsaimniecisko": 6931,
      "tosanai": 6932,
      "Ġnik": 6933,
      "Ġkoncentracijas": 6934,
      "Ġselek": 6935,
      "Ġpamattiesibas": 6936,
      "Ġchem": 6937,
      "kiro": 6938,
      "ance": 6939,
      "Ġsakt": 6940,
      "Ġ1515": 6941,
      "ple": 6942,
      "Ġnodrosinata": 6943,
      "Ġgalamerka": 6944,
      "Ġcp": 6945,
      "Ġprocentus": 6946,
      "Ġdaudzpus": 6947,
      "Ġluksemburgas": 6948,
      "Ġuztice": 6949,
      "Ġwa": 6950,
      "Ġapkopo": 6951,
      "Ġuzl": 6952,
      "Ġpilniga": 6953,
      "Ġfonds": 6954,
      "1000": 6955,
      "ieniem": 6956,
      "Ġaktiva": 6957,
      "gn": 6958,
      "Ġhlor": 6959,
      "Ġpareja": 6960,
      "Ġizkra": 6961,
      "jamam": 6962,
      "Ġievilkuma": 6963,
      "Ġzinasanas": 6964,
      "igak": 6965,
      "Ġzinosanas": 6966,
      "Ġlegisla": 6967,
      "etam": 6968,
      "Ġ158": 6969,
      "Ġ204": 6970,
      "Ġnolemums": 6971,
      "Ġadresi": 6972,
      "Ġnoriko": 6973,
      "ures": 6974,
      "Ġpunkti": 6975,
      "Ġparvieto": 6976,
      "tivitates": 6977,
      "Ġtajas": 6978,
      "Ġkonkretus": 6979,
      "Ġsavstarpeju": 6980,
      "Ġln": 6981,
      "Ġ169": 6982,
      "Ġsodi": 6983,
      "Ġ840": 6984,
      "Ġ270": 6985,
      "Ġnosaukuma": 6986,
      "Ġnesniedz": 6987,
      "Ġ161": 6988,
      "Ġsubproduk": 6989,
      "Ġtirgos": 6990,
      "Ġieintereseto": 6991,
      "Ġesamiba": 6992,
      "Ġnemti": 6993,
      "Ġrisinajumu": 6994,
      "darbiba": 6995,
      "Ġeksportetaju": 6996,
      "Ġkonsolide": 6997,
      "Î¹Îº": 6998,
      "Ġ2023": 6999,
      "akar": 7000,
      "Ġaizliegta": 7001,
      "Ġneaizs": 7002,
      "Ġkonsekven": 7003,
      "tiga": 7004,
      "Ġneizpilde": 7005,
      "Ġnekaiti": 7006,
      "Ġtips": 7007,
      "Ġlidzdalibas": 7008,
      "Ġrieks": 7009,
      "Ġnevienu": 7010,
      "teta": 7011,
      "Ġapgabals": 7012,
      "hl": 7013,
      "Ġnak": 7014,
      "chaft": 7015,
      "Ġatteikumu": 7016,
      "enas": 7017,
      "Ġapmekle": 7018,
      "Ġvies": 7019,
      "Ġvispareju": 7020,
      "Ġstarpiba": 7021,
      "celsanas": 7022,
      "Ġliedz": 7023,
      "Ġsabiedriskas": 7024,
      "Ġrobezam": 7025,
      "eni": 7026,
      "Ġnar": 7027,
      "Ġsniedzejs": 7028,
      "Ġeuros": 7029,
      "Ġsagatavots": 7030,
      "Ġaizsta": 7031,
      "com": 7032,
      "Ġuzlikts": 7033,
      "Ġ510": 7034,
      "Ġ239": 7035,
      "alajiem": 7036,
      "Ġieveroti": 7037,
      "Ġhorizonta": 7038,
      "Ġtira": 7039,
      "Ġienakumiem": 7040,
      "Ġpv": 7041,
      "Ġrepu": 7042,
      "cama": 7043,
      "menta": 7044,
      "Ġbanka": 7045,
      "isu": 7046,
      "Ġpiecu": 7047,
      "ĠÏĦ": 7048,
      "Ġparbauditu": 7049,
      "Ġdialo": 7050,
      "hu": 7051,
      "Ġregistracija": 7052,
      "Ġagrak": 7053,
      "Ġpost": 7054,
      "Ġapakspunktam": 7055,
      "Ġavots": 7056,
      "Ġportfela": 7057,
      "valsts": 7058,
      "Ġizvairitos": 7059,
      "Ġjapierada": 7060,
      "Ġsanemeju": 7061,
      "Ġievad": 7062,
      "Ġpateretajs": 7063,
      "Ġiericem": 7064,
      "Ġegf": 7065,
      "Ġiec": 7066,
      "Ġvienreiz": 7067,
      "Ġmajo": 7068,
      "Ġ299": 7069,
      "Ġdazadi": 7070,
      "Ġ347": 7071,
      "Ġapli": 7072,
      "Ġfis": 7073,
      "Ġatbalstit": 7074,
      "Ġinst": 7075,
      "stru": 7076,
      "Ġsniegsanai": 7077,
      "mats": 7078,
      "eko": 7079,
      "oru": 7080,
      "jamie": 7081,
      "Ġdiskriminaciju": 7082,
      "Ġlabo": 7083,
      "Ġ166": 7084,
      "Ġ1001": 7085,
      "Ġsveice": 7086,
      "esu": 7087,
      "kau": 7088,
      "Ġparedzama": 7089,
      "Ġ2694": 7090,
      "Ġatbildot": 7091,
      "vilkumu": 7092,
      "Ġinn": 7093,
      "Ġspanu": 7094,
      "Ġsaraz": 7095,
      "Ġnodosana": 7096,
      "Ġlugts": 7097,
      "Ġlidojuma": 7098,
      "Ġsekme": 7099,
      "Ġbv": 7100,
      "Ġaktivas": 7101,
      "Ġbrun": 7102,
      "Ġmaina": 7103,
      "vars": 7104,
      "Ġapluk": 7105,
      "Ġsanemejiem": 7106,
      "Ġnoradijis": 7107,
      "Ġeksportu": 7108,
      "Ġnoslegti": 7109,
      "Ġreferents": 7110,
      "Ġmiljonu": 7111,
      "Ġnorazu": 7112,
      "Ġiemesliem": 7113,
      "Ġsanema": 7114,
      "Ġmaisijumi": 7115,
      "Ġparadi": 7116,
      "Ġizdot": 7117,
      "ger": 7118,
      "Ġ171": 7119,
      "Ġabi": 7120,
      "Ġolaf": 7121,
      "liko": 7122,
      "Ġ1000": 7123,
      "Ġvienkarsi": 7124,
      "Ġsamazinajas": 7125,
      "Ġbeigu": 7126,
      "Ġlihtenste": 7127,
      "Ġtauki": 7128,
      "Ġpaatr": 7129,
      "Ġuzskatot": 7130,
      "Ġnostaja": 7131,
      "Ġistermina": 7132,
      "Ġotrai": 7133,
      "Ġklasifikaciju": 7134,
      "eklus": 7135,
      "Ġzie": 7136,
      "Ġ543": 7137,
      "Ġnoteiktiem": 7138,
      "Ġakredi": 7139,
      "Ġregistretas": 7140,
      "Ġ176": 7141,
      "Ġzimo": 7142,
      "Ġsaderigs": 7143,
      "Ġâī¤": 7144,
      "Ġpasreizejo": 7145,
      "Ġ343": 7146,
      "Ġapzina": 7147,
      "ieri": 7148,
      "ill": 7149,
      "masinas": 7150,
      "brid": 7151,
      "Ġzvejniecibas": 7152,
      "Ġsalidzin": 7153,
      "Ġmaksasanas": 7154,
      "Ġdeparta": 7155,
      "titaja": 7156,
      "trus": 7157,
      "Ġslimibu": 7158,
      "Ġstridus": 7159,
      "Ġkomunikaciju": 7160,
      "tm": 7161,
      "Ġjaats": 7162,
      "Ġizdod": 7163,
      "Ġdiskrimin": 7164,
      "Ġnomin": 7165,
      "Ġsankciju": 7166,
      "Ġdiame": 7167,
      "Ġseit": 7168,
      "Ġipasniekam": 7169,
      "kras": 7170,
      "Ġuzmanibu": 7171,
      "Ġea": 7172,
      "Ġlaw": 7173,
      "Ġ290": 7174,
      "Ġpardosana": 7175,
      "Ġlapu": 7176,
      "Ġcos": 7177,
      "Ġnodomu": 7178,
      "Ġsanemtu": 7179,
      "Ġvidejas": 7180,
      "Ġizvertesanas": 7181,
      "Ġdire": 7182,
      "Ġapcietinasanas": 7183,
      "Ġpanem": 7184,
      "Ġwo": 7185,
      "Ġnoraditajiem": 7186,
      "nieki": 7187,
      "Ġsniegtas": 7188,
      "Ġmeza": 7189,
      "Ġizvirzitie": 7190,
      "Ġnetiesa": 7191,
      "Ġapzimejums": 7192,
      "Ġsastavdala": 7193,
      "Ġprioritates": 7194,
      "Ġsievie": 7195,
      "Ġpamatnostadnu": 7196,
      "let": 7197,
      "Ġgut": 7198,
      "Ġindone": 7199,
      "Ġ260": 7200,
      "Ġmac": 7201,
      "vajas": 7202,
      "Ġica": 7203,
      "Ġizbeigt": 7204,
      "Ġdarbs": 7205,
      "Ġ164": 7206,
      "praks": 7207,
      "ass": 7208,
      "Ġpamatbriv": 7209,
      "Ġ185": 7210,
      "sp": 7211,
      "ismu": 7212,
      "Ġsamaksat": 7213,
      "Ġnepienemamu": 7214,
      "Ġkw": 7215,
      "Ġpieradijusi": 7216,
      "Ġskiedras": 7217,
      "Ġziemeli": 7218,
      "Ġpakarto": 7219,
      "tiekam": 7220,
      "legsana": 7221,
      "Ġatvalinajumu": 7222,
      "Ġdalibniekam": 7223,
      "Ġpadar": 7224,
      "Ġindika": 7225,
      "Ġnenodrosina": 7226,
      "Ġneleg": 7227,
      "Ġmr": 7228,
      "Ġsniedzot": 7229,
      "Ġaizsarg": 7230,
      "Ġmetal": 7231,
      "Ġmedicinas": 7232,
      "Ġparkapjot": 7233,
      "Ġipasiem": 7234,
      "peju": 7235,
      "tize": 7236,
      "cation": 7237,
      "Ġiero": 7238,
      "ors": 7239,
      "Ġapstiprinat": 7240,
      "biedribu": 7241,
      "Ġaprakstu": 7242,
      "Ġuguns": 7243,
      "inasanos": 7244,
      "Ġdienestiem": 7245,
      "Ġizraisit": 7246,
      "Ġuzskaititas": 7247,
      "Ġstarpibu": 7248,
      "Ġpievienosanos": 7249,
      "Ġbriseles": 7250,
      "Ġizsa": 7251,
      "Ġpiezimi": 7252,
      "Ġnoilguma": 7253,
      "Ġitalu": 7254,
      "Ġuzskatijusi": 7255,
      "Ġfunkcion": 7256,
      "Ġlielu": 7257,
      "Ġkopigo": 7258,
      "Ġmehanisms": 7259,
      "arga": 7260,
      "Ġcompany": 7261,
      "mesanas": 7262,
      "Ġparraudz": 7263,
      "Ġcal": 7264,
      "tiktu": 7265,
      "Ġaugstu": 7266,
      "skabes": 7267,
      "Ġ253": 7268,
      "Ġpieteikumus": 7269,
      "Ġpaus": 7270,
      "Ġlidzdalibu": 7271,
      "Ġimo": 7272,
      "otes": 7273,
      "Ġnoversanu": 7274,
      "taru": 7275,
      "Ġakk": 7276,
      "Ġsaglabasanu": 7277,
      "tspeja": 7278,
      "Ġpieejamo": 7279,
      "Ġieviesanu": 7280,
      "Ġcuku": 7281,
      "Ġnoligumi": 7282,
      "Ġpilsonis": 7283,
      "Ġciesi": 7284,
      "Ġdur": 7285,
      "Ġpreteja": 7286,
      "Ġdzivotnu": 7287,
      "Ġlaikposms": 7288,
      "Ġvadiba": 7289,
      "Ġizklastitajiem": 7290,
      "Ġkab": 7291,
      "Ġatbrivojuma": 7292,
      "Ġdarg": 7293,
      "noma": 7294,
      "Ġsaimniecibas": 7295,
      "dau": 7296,
      "Ġkaro": 7297,
      "Ġraditajs": 7298,
      "Ġienemumu": 7299,
      "Ġpartnerattiecibu": 7300,
      "Ġpildi": 7301,
      "alaja": 7302,
      "Ġatbildigs": 7303,
      "elas": 7304,
      "Ġaizd": 7305,
      "Ġnace": 7306,
      "tosanu": 7307,
      "Ġrws": 7308,
      "Ġsadai": 7309,
      "Ġlietuvas": 7310,
      "Ġizve": 7311,
      "jer": 7312,
      "Ġsamaksas": 7313,
      "Ġatlan": 7314,
      "Ġizraudzi": 7315,
      "Ġneesosu": 7316,
      "Ġfre": 7317,
      "Ġ388": 7318,
      "Ġmul": 7319,
      "ejpu": 7320,
      "Ġ226": 7321,
      "Ġklin": 7322,
      "Ġhorvatijas": 7323,
      "Ġnediskrimin": 7324,
      "Ġuzskatami": 7325,
      "Ġparskatam": 7326,
      "Ġplano": 7327,
      "Ġatviegl": 7328,
      "Ġhel": 7329,
      "Ġapgroziba": 7330,
      "Ġ450": 7331,
      "Ġdokumentos": 7332,
      "istre": 7333,
      "Ġsaistitie": 7334,
      "Ġevti": 7335,
      "Ġparal": 7336,
      "Ġnoversanas": 7337,
      "Ġvaditajs": 7338,
      "kao": 7339,
      "chi": 7340,
      "Ġpamatiem": 7341,
      "nolog": 7342,
      "Ġviet": 7343,
      "Ġ163": 7344,
      "Ġveterinar": 7345,
      "tiesa": 7346,
      "Ġmezs": 7347,
      "Ġnonak": 7348,
      "esanos": 7349,
      "Ġsalidzinot": 7350,
      "Ġboja": 7351,
      "Ġ162": 7352,
      "jamibu": 7353,
      "Ġietverto": 7354,
      "Ġpd": 7355,
      "Ġiedalu": 7356,
      "br": 7357,
      "Ġrazojums": 7358,
      "Ġvirk": 7359,
      "Ġapmacibas": 7360,
      "Ġnoslegt": 7361,
      "Ġattiris": 7362,
      "Ġizmantojusi": 7363,
      "Ġeksportetaji": 7364,
      "Ġveiktspejas": 7365,
      "Ġdivos": 7366,
      "Ġmax": 7367,
      "Ġjasecina": 7368,
      "Ġ820": 7369,
      "Ġsur": 7370,
      "Ġpienemtu": 7371,
      "Ġpieradits": 7372,
      "Ġelec": 7373,
      "Ġare": 7374,
      "Ġbridim": 7375,
      "Ġ337": 7376,
      "Ġsanemsanai": 7377,
      "Ġnepareizi": 7378,
      "Ġ190": 7379,
      "Ġremon": 7380,
      "Ġlabak": 7381,
      "Ġskidr": 7382,
      "Ġ187": 7383,
      "Ġgluzi": 7384,
      "Ġtru": 7385,
      "Ġieskata": 7386,
      "Ġparbaudem": 7387,
      "tigi": 7388,
      "usanu": 7389,
      "Ġjaunus": 7390,
      "Ġpremi": 7391,
      "Ġtelef": 7392,
      "Ġsfps": 7393,
      "Ġpreziden": 7394,
      "Ġnekas": 7395,
      "Ġizd": 7396,
      "Ġ172": 7397,
      "Ġaugst": 7398,
      "Ġpers": 7399,
      "Ġnoteiktie": 7400,
      "zacijas": 7401,
      "Ġagri": 7402,
      "Ġparveido": 7403,
      "Ġpip": 7404,
      "ters": 7405,
      "Ġtetra": 7406,
      "Ġpartneribas": 7407,
      "Ġrasties": 7408,
      "pies": 7409,
      "Ġparmet": 7410,
      "Ġiebildumi": 7411,
      "Ġjebkurs": 7412,
      "ĠÃ°": 7413,
      "dedzes": 7414,
      "Õ¥Õ": 7415,
      "Ġcourt": 7416,
      "Ġkoleg": 7417,
      "put": 7418,
      "Ġkomplek": 7419,
      "Ġtermini": 7420,
      "Ġtamo": 7421,
      "Ġstimu": 7422,
      "Ġparskatit": 7423,
      "tinu": 7424,
      "Ġnereziden": 7425,
      "Ġabam": 7426,
      "Ġnenoteiktas": 7427,
      "zam": 7428,
      "Ġparadu": 7429,
      "Ġversija": 7430,
      "Ġdez": 7431,
      "Ġizvertejot": 7432,
      "Ġieklauto": 7433,
      "Ġzurn": 7434,
      "Ġpieskira": 7435,
      "Ġreak": 7436,
      "Ġatkarigs": 7437,
      "Ġkuk": 7438,
      "ĠÎº": 7439,
      "Ġpieejamibu": 7440,
      "Ġpazinojumi": 7441,
      "Ġvestules": 7442,
      "Ġnovertesana": 7443,
      "Ġpazinot": 7444,
      "Ġ1985": 7445,
      "Ð¼": 7446,
      "Ġprava": 7447,
      "Ġnodod": 7448,
      "Ġiepirk": 7449,
      "Ġprivatas": 7450,
      "Ġutt": 7451,
      "Ġskrejejpu": 7452,
      "Ġpes": 7453,
      "Ġaprite": 7454,
      "fenil": 7455,
      "Ġwy": 7456,
      "iens": 7457,
      "Ġsecinajumos": 7458,
      "Ġrentabil": 7459,
      "Ġelektroniskas": 7460,
      "Ġsecinajumiem": 7461,
      "iene": 7462,
      "Ġnemeja": 7463,
      "Ġmerkradi": 7464,
      "Ġklases": 7465,
      "Ġmodern": 7466,
      "Ġizpilda": 7467,
      "Ġfaktiskas": 7468,
      "Ġatzitas": 7469,
      "Ġbon": 7470,
      "Ġ258": 7471,
      "Ġinstrumentus": 7472,
      "Ð°Ð½": 7473,
      "Ġstrategijas": 7474,
      "Ġzinatnes": 7475,
      "Ġraksts": 7476,
      "Ġ0001": 7477,
      "Ġkurina": 7478,
      "Ġpamatpr": 7479,
      "Ġriskus": 7480,
      "Ġnosprieda": 7481,
      "ĠÏĢ": 7482,
      "Ġraditaju": 7483,
      "Ġsvaru": 7484,
      "Ġsertifikacijas": 7485,
      "Ġpakalpojums": 7486,
      "Ġbioci": 7487,
      "Ġpazinoja": 7488,
      "Ġdetalas": 7489,
      "Ġindustri": 7490,
      "Ġaizpil": 7491,
      "istu": 7492,
      "Ġiespejai": 7493,
      "finanse": 7494,
      "Ġdalibas": 7495,
      "Ġhai": 7496,
      "Ġizstradat": 7497,
      "del": 7498,
      "Ġvelme": 7499,
      "Ġaprikojuma": 7500,
      "tungs": 7501,
      "Ġipasibam": 7502,
      "Ð³": 7503,
      "Ġizveidotas": 7504,
      "ell": 7505,
      "igaka": 7506,
      "rauga": 7507,
      "Ġsakotnejas": 7508,
      "Ġlietosanu": 7509,
      "Ġdeveja": 7510,
      "Ġinformeja": 7511,
      "Ġnotikus": 7512,
      "Ġaiznem": 7513,
      "Ġkonstateta": 7514,
      "Ġnoraditajam": 7515,
      "tivam": 7516,
      "ĠÐ¿": 7517,
      "Ġmic": 7518,
      "aka": 7519,
      "Ð·": 7520,
      "Ġpavad": 7521,
      "Ġefektiva": 7522,
      "Ġminetajas": 7523,
      "Ġlimited": 7524,
      "Ġpalig": 7525,
      "Ġligumsledzejam": 7526,
      "oz": 7527,
      "veti": 7528,
      "kska": 7529,
      "Ġpaskaidrojuma": 7530,
      "kirot": 7531,
      "Ġ580": 7532,
      "Ġbos": 7533,
      "Ġparstavjiem": 7534,
      "Ġdienests": 7535,
      "Ġparedzetu": 7536,
      "Ġpieteikumiem": 7537,
      "tk": 7538,
      "Ġsto": 7539,
      "Ġ211": 7540,
      "Ġkaralistei": 7541,
      "Ġsuk": 7542,
      "Ġpsi": 7543,
      "Ġienakumus": 7544,
      "Ġoke": 7545,
      "Ġdarijum": 7546,
      "nac": 7547,
      "Ġrakstiski": 7548,
      "Ġmehanisko": 7549,
      "Ġgalvenas": 7550,
      "Ġprocenti": 7551,
      "Ġatbilstoss": 7552,
      "Ġapropria": 7553,
      "Ġcommission": 7554,
      "Ġ0040": 7555,
      "Ġsniedzeju": 7556,
      "Ġizvairities": 7557,
      "ĠâĹ": 7558,
      "Ġplak": 7559,
      "Ġatskaitit": 7560,
      "Ġ950": 7561,
      "eiza": 7562,
      "ent": 7563,
      "opera": 7564,
      "Ġjomam": 7565,
      "Ġlicenci": 7566,
      "Ġiesniedzis": 7567,
      "Ġnoslegsanu": 7568,
      "Ġizraisa": 7569,
      "Ġsavstarpejo": 7570,
      "Ġtan": 7571,
      "Ġmazumtirdzniecibas": 7572,
      "Ġtados": 7573,
      "Ġpieradisanas": 7574,
      "Ġpetijumu": 7575,
      "Ġsaksanu": 7576,
      "Ġvaluta": 7577,
      "Ġpilsonibas": 7578,
      "Ġcauru": 7579,
      "Ġbijusas": 7580,
      "Ġtekstilmaterialiem": 7581,
      "Ġatgriez": 7582,
      "Ġatzinums": 7583,
      "Ġsaskanotu": 7584,
      "tasanos": 7585,
      "Ġnoradem": 7586,
      "Ġkapitalu": 7587,
      "Ġklauzulas": 7588,
      "Ġpic": 7589,
      "Ġtre": 7590,
      "Ġ883": 7591,
      "Ġjaaps": 7592,
      "chen": 7593,
      "Ġkopiju": 7594,
      "Ġskaidra": 7595,
      "ĠÑģ": 7596,
      "Ġpienemsanai": 7597,
      "Ġ2204": 7598,
      "Ġproduc": 7599,
      "darbu": 7600,
      "Ġatseviskiem": 7601,
      "Ġprocesualo": 7602,
      "Ġkadiem": 7603,
      "Ġpapildinajums": 7604,
      "Ġipasumtiesibu": 7605,
      "ant": 7606,
      "Ġdiap": 7607,
      "Ġlabveligs": 7608,
      "Ġapnemas": 7609,
      "Ġizni": 7610,
      "Ġformulejuma": 7611,
      "ĠâĢĺ": 7612,
      "ariem": 7613,
      "Ġbalsti": 7614,
      "Ġhi": 7615,
      "Ġsaistitos": 7616,
      "Ġizrai": 7617,
      "Ġparstradati": 7618,
      "Ġspiediena": 7619,
      "Ġ189": 7620,
      "Ġmy": 7621,
      "Ġatpu": 7622,
      "Ġiedarbibas": 7623,
      "Ġsanaks": 7624,
      "Ġkomercsabiedriba": 7625,
      "Ġsummam": 7626,
      "Ġgrupai": 7627,
      "Ġgul": 7628,
      "Ġatzisana": 7629,
      "Ġnul": 7630,
      "Ġlabi": 7631,
      "Ġinput": 7632,
      "Ġapzimejuma": 7633,
      "Ġjuridiskam": 7634,
      "Ġsedi": 7635,
      "rija": 7636,
      "Ġpelna": 7637,
      "Ġimun": 7638,
      "Ã¸": 7639,
      "Ġveidam": 7640,
      "Ġdocument": 7641,
      "Ġsesta": 7642,
      "Ġsabiedriska": 7643,
      "olog": 7644,
      "Ġiznemumu": 7645,
      "Ġnomenklaturas": 7646,
      "Ġparcel": 7647,
      "Ġstrategija": 7648,
      "Ġnepieciesamos": 7649,
      "Ġvienlaicigi": 7650,
      "Ġstarpibas": 7651,
      "landiesu": 7652,
      "Ġpiekta": 7653,
      "Ġkomerciala": 7654,
      "Ġtrikota": 7655,
      "Ġjapieskir": 7656,
      "Ġros": 7657,
      "Ġargumentacija": 7658,
      "Ġprieksrociba": 7659,
      "Ġpieskirusi": 7660,
      "Ġeksportetaja": 7661,
      "Ġidentificet": 7662,
      "Ġuznemeja": 7663,
      "dorf": 7664,
      "Ġenergy": 7665,
      "Ġkalendara": 7666,
      "Ġpieredzi": 7667,
      "Ġ575": 7668,
      "Ġkorekciju": 7669,
      "Ġalb": 7670,
      "Ġrazot": 7671,
      "Ġ192": 7672,
      "bl": 7673,
      "Ġparvades": 7674,
      "Ġjauzsver": 7675,
      "Ġneiespe": 7676,
      "ceta": 7677,
      "Ġprem": 7678,
      "Ġ236": 7679,
      "Ġcelons": 7680,
      "Ġjaattie": 7681,
      "Ġiebilst": 7682,
      "Ġkoordinacijas": 7683,
      "Ġpielauta": 7684,
      "Ġilgtspejigu": 7685,
      "britan": 7686,
      "Ġgalda": 7687,
      "Ġsys": 7688,
      "bank": 7689,
      "Ġjauk": 7690,
      "Ġpamatprinci": 7691,
      "Ġizklastitos": 7692,
      "Ġprejudicialais": 7693,
      "Ġcelonsakar": 7694,
      "Ġvieniga": 7695,
      "Ġieklausanu": 7696,
      "Ġgarums": 7697,
      "Ġparedzot": 7698,
      "pels": 7699,
      "dami": 7700,
      "Ġpiedev": 7701,
      "Ġmanto": 7702,
      "Ġzivis": 7703,
      "Ġnemejs": 7704,
      "vetas": 7705,
      "Ġjura": 7706,
      "Ġtaisnigu": 7707,
      "Ġrisinajums": 7708,
      "Ġpiekrit": 7709,
      "Ġ216": 7710,
      "tana": 7711,
      "Ġvizas": 7712,
      "ou": 7713,
      "Ġformulejums": 7714,
      "Ġzirgu": 7715,
      "Ġreprodu": 7716,
      "Ġapvienotajai": 7717,
      "Ġofc": 7718,
      "Ġvietejas": 7719,
      "Ġdiapaz": 7720,
      "yer": 7721,
      "Ġsagro": 7722,
      "vid": 7723,
      "Ġlielbritan": 7724,
      "Ġstrategiju": 7725,
      "Ġkopumu": 7726,
      "Ġuzdevums": 7727,
      "Ġlis": 7728,
      "Ġ205": 7729,
      "Ġparedzetaja": 7730,
      "Ġ159": 7731,
      "Ġteikumu": 7732,
      "rak": 7733,
      "Ġshemam": 7734,
      "Ġlop": 7735,
      "Ġsaglabasanas": 7736,
      "Ġatgriesanas": 7737,
      "ÏīÎ½": 7738,
      "ret": 7739,
      "Ġkoeficientu": 7740,
      "Ġattiecinat": 7741,
      "Ġloma": 7742,
      "cal": 7743,
      "Ġnozaru": 7744,
      "inos": 7745,
      "Ġieguldijumus": 7746,
      "sabiedribas": 7747,
      "Ġjuridisku": 7748,
      "Ġkombina": 7749,
      "Ġkontakt": 7750,
      "Ġmehanisma": 7751,
      "Ġholding": 7752,
      "Ġnorek": 7753,
      "ksna": 7754,
      "tia": 7755,
      "Ġfu": 7756,
      "Ġattiecigajos": 7757,
      "Ġtor": 7758,
      "ejinstitu": 7759,
      "Ġsegt": 7760,
      "Ġ256": 7761,
      "Ġtresajam": 7762,
      "Ġlidzvertigu": 7763,
      "ÖĢ": 7764,
      "0010": 7765,
      "Ġkomen": 7766,
      "Ġsieviesu": 7767,
      "Ġbud": 7768,
      "Ġcommun": 7769,
      "Ġizveide": 7770,
      "zinu": 7771,
      "starp": 7772,
      "Ġdarboties": 7773,
      "Ġapstradei": 7774,
      "Ġsprie": 7775,
      "Ġneizs": 7776,
      "Ġjuridisks": 7777,
      "Ġsavvalas": 7778,
      "Ġtrukumu": 7779,
      "Ġiepa": 7780,
      "Ġrekina": 7781,
      "Ġjusti": 7782,
      "Ġsolidar": 7783,
      "Ġpaaugstina": 7784,
      "Ġ221": 7785,
      "Ġsanemta": 7786,
      "Ġcilvekiem": 7787,
      "Ġmazaku": 7788,
      "Ġieteikumu": 7789,
      "Ġreta": 7790,
      "Ġieteikumus": 7791,
      "Ġadministrativie": 7792,
      "Ġnetiktu": 7793,
      "Ġizstrade": 7794,
      "Ġieguves": 7795,
      "Ġ173": 7796,
      "Ġietvert": 7797,
      "Ġsadalu": 7798,
      "Ġ240": 7799,
      "Ġuzglabasanas": 7800,
      "Ġneizriet": 7801,
      "Ġkriter": 7802,
      "Ġvon": 7803,
      "Ġ181": 7804,
      "iri": 7805,
      "Ġsakause": 7806,
      "Ġhon": 7807,
      "Ġtermiski": 7808,
      "zione": 7809,
      "Ġveidlapas": 7810,
      "Ġkonferen": 7811,
      "Ġnovertesanu": 7812,
      "Ġatteikties": 7813,
      "Ġmad": 7814,
      "Ġ193": 7815,
      "Ġizpau": 7816,
      "desanu": 7817,
      "vat": 7818,
      "vigacijas": 7819,
      "Ġpalavibas": 7820,
      "Ġversti": 7821,
      "osaci": 7822,
      "Ġpateretaja": 7823,
      "Ġtulko": 7824,
      "ize": 7825,
      "Ġatgad": 7826,
      "hlori": 7827,
      "Ġpara": 7828,
      "Ġdota": 7829,
      "Ġpiegade": 7830,
      "Ġ621": 7831,
      "cials": 7832,
      "Ġsanemejam": 7833,
      "Ġdabasga": 7834,
      "Ġipa": 7835,
      "cize": 7836,
      "Ġlielums": 7837,
      "Ġnelikumigu": 7838,
      "Ġuzlikt": 7839,
      "Ġisa": 7840,
      "Ġpardod": 7841,
      "Ġizdosanas": 7842,
      "Ġraksturliel": 7843,
      "nema": 7844,
      "Ġpublika": 7845,
      "Ġatlidziba": 7846,
      "Ġversties": 7847,
      "Ġnoliktav": 7848,
      "eks": 7849,
      "Ġapliecibu": 7850,
      "Ġsvaiga": 7851,
      "Ġplanosanas": 7852,
      "Ġtests": 7853,
      "Ġkreditu": 7854,
      "Ġhs": 7855,
      "Ġregistret": 7856,
      "Ġmajas": 7857,
      "Ġfaktori": 7858,
      "Ġsubjektiem": 7859,
      "Ġenergoefek": 7860,
      "Ġienemumus": 7861,
      "Ġatskirigu": 7862,
      "uba": 7863,
      "alisanas": 7864,
      "Ġjaatcel": 7865,
      "Ġsaikni": 7866,
      "Ġpartneri": 7867,
      "Ġatklas": 7868,
      "Ġturpreti": 7869,
      "Ġpunktiem": 7870,
      "Ġnotur": 7871,
      "Ġietilps": 7872,
      "Ġizsmel": 7873,
      "Ġlaunpratigu": 7874,
      "Ġuzdoto": 7875,
      "Ġ296": 7876,
      "Ġkrasu": 7877,
      "bie": 7878,
      "Ġstaj": 7879,
      "hei": 7880,
      "ines": 7881,
      "Ġanketas": 7882,
      "Ġwe": 7883,
      "Ġuznemumus": 7884,
      "Ġprieksnodo": 7885,
      "Ġpiecus": 7886,
      "Ġtrikotazas": 7887,
      "Ġ183": 7888,
      "Ġiesaistito": 7889,
      "kied": 7890,
      "Ġglob": 7891,
      "Ġ203": 7892,
      "Ġtransportlidzeklis": 7893,
      "Ġpaslud": 7894,
      "Ġstridigo": 7895,
      "Ġnemain": 7896,
      "taras": 7897,
      "Ġseviski": 7898,
      "empl": 7899,
      "Ġoperatoriem": 7900,
      "Ġpedejais": 7901,
      "Ġstapels": 7902,
      "rom": 7903,
      "Ġnoteiktam": 7904,
      "Ġ194": 7905,
      "iss": 7906,
      "Ġjel": 7907,
      "Ġienakumi": 7908,
      "aprot": 7909,
      "Ġuzdotajiem": 7910,
      "Ġaprekinot": 7911,
      "Ġ090": 7912,
      "desana": 7913,
      "Ġsledz": 7914,
      "Ġsah": 7915,
      "Ġ217": 7916,
      "Ġnodib": 7917,
      "Ġwor": 7918,
      "Ġjaizskata": 7919,
      "Ġatjaunina": 7920,
      "tivajiem": 7921,
      "Ġuzlabo": 7922,
      "Ġsaf": 7923,
      "Ġapture": 7924,
      "Ġminimala": 7925,
      "Ġ191": 7926,
      "Ġveicis": 7927,
      "Ġizbeigsanas": 7928,
      "ss": 7929,
      "Ġ750": 7930,
      "Ġreizes": 7931,
      "Ġ659": 7932,
      "Ġjudikaturai": 7933,
      "Ġsecured": 7934,
      "Ġpazem": 7935,
      "Ġkipras": 7936,
      "Ġresursi": 7937,
      "Ġgrun": 7938,
      "Ġprasijumiem": 7939,
      "dala": 7940,
      "Ġkimisko": 7941,
      "zol": 7942,
      "Ġiecelosanas": 7943,
      "Ġsomija": 7944,
      "Ġpapir": 7945,
      "Ġinstruk": 7946,
      "Ġavotiem": 7947,
      "Ġsagatavoti": 7948,
      "Ġlaisanu": 7949,
      "Ġtulit": 7950,
      "Ġieviesanas": 7951,
      "Ġprodukcijas": 7952,
      "Ġbaze": 7953,
      "deveju": 7954,
      "Ġkrizes": 7955,
      "Ġacimredzamu": 7956,
      "tikai": 7957,
      "Ġdzivesvietu": 7958,
      "Ġspejas": 7959,
      "Ġkopsavilkuma": 7960,
      "Ġservices": 7961,
      "Ð¾Ð²": 7962,
      "Ġ209": 7963,
      "Ġkup": 7964,
      "Ġizmantotie": 7965,
      "Ġceturtas": 7966,
      "dy": 7967,
      "Ġparmes": 7968,
      "Ġdazus": 7969,
      "gliem": 7970,
      "Ġinovacijas": 7971,
      "Ġapraksta": 7972,
      "Ġact": 7973,
      "Ġabiem": 7974,
      "Ġdazadam": 7975,
      "eno": 7976,
      "Ġoperators": 7977,
      "Ġkakao": 7978,
      "cus": 7979,
      "chus": 7980,
      "Ġaizdomas": 7981,
      "ienus": 7982,
      "Ġnemts": 7983,
      "tros": 7984,
      "dacijas": 7985,
      "Ġaizdevumu": 7986,
      "Ġgene": 7987,
      "Ġ255": 7988,
      "Ġizveidots": 7989,
      "ĠâĹ»": 7990,
      "Ġsanemtas": 7991,
      "Ġizmantoja": 7992,
      "ble": 7993,
      "Ġjapre": 7994,
      "Ġsadal": 7995,
      "Ġstre": 7996,
      "Ġlidzeklis": 7997,
      "Ġresursiem": 7998,
      "jetn": 7999,
      "Ġprocedurai": 8000,
      "Ġ208": 8001,
      "Ġges": 8002,
      "Ġ225": 8003,
      "viela": 8004,
      "Ġaplukota": 8005,
      "mark": 8006,
      "Ġfp": 8007,
      "Ġnoslegsanas": 8008,
      "Ġ228": 8009,
      "Ġpublisk": 8010,
      "Ġhidroksi": 8011,
      "Ġskiedru": 8012,
      "tivais": 8013,
      "Ġparvadajumiem": 8014,
      "Ġtestesanas": 8015,
      "Ġuzklausisanas": 8016,
      "Ġdzerienu": 8017,
      "Î¿ÏĤ": 8018,
      "Ġpiemerojamibu": 8019,
      "Ġdzivibas": 8020,
      "Ġ2933": 8021,
      "Ġnolukiem": 8022,
      "Ġsazinas": 8023,
      "Ġizveli": 8024,
      "Ġharmon": 8025,
      "Ġpamatnoliguma": 8026,
      "Ġkug": 8027,
      "Ġ760": 8028,
      "Ġlielbritanijas": 8029,
      "Ġagenturai": 8030,
      "Ġatbilstiga": 8031,
      "Ġgadijums": 8032,
      "Ġparakstits": 8033,
      "Ġnenor": 8034,
      "Ġ251": 8035,
      "Ġdeci": 8036,
      "Ġorder": 8037,
      "Ġpasludinats": 8038,
      "Ġkontrolei": 8039,
      "Ġlapas": 8040,
      "Ġdarbas": 8041,
      "Ġmonitor": 8042,
      "Ġ202": 8043,
      "Ġlegi": 8044,
      "Ġiegad": 8045,
      "Ġlielumu": 8046,
      "Ġ179": 8047,
      "Ġapstiprinajums": 8048,
      "Ġpieredze": 8049,
      "ll": 8050,
      "Ġierice": 8051,
      "Ġstin": 8052,
      "Ġberniem": 8053,
      "ejusas": 8054,
      "Ġlaul": 8055,
      "Ġsubjektu": 8056,
      "Ġpardot": 8057,
      "Ġ590": 8058,
      "Ġ177": 8059,
      "Ġwh": 8060,
      "Ġlaut": 8061,
      "Ġvjetn": 8062,
      "Ġunion": 8063,
      "Ġkonsultaciju": 8064,
      "osais": 8065,
      "Ġnoligumus": 8066,
      "Ġfinansejums": 8067,
      "Ġapmeram": 8068,
      "onavigacijas": 8069,
      "Ġnoma": 8070,
      "Ġministru": 8071,
      "Ġizme": 8072,
      "Ġdaudzumiem": 8073,
      "Ġ213": 8074,
      "Ġglabas": 8075,
      "Ġpielauj": 8076,
      "Ġpublices": 8077,
      "Ġpasvaldibas": 8078,
      "Ġup": 8079,
      "Ġbariba": 8080,
      "Ġkapec": 8081,
      "onijas": 8082,
      "Ġlikumdeveja": 8083,
      "Ġjauni": 8084,
      "Ġglabasanas": 8085,
      "onija": 8086,
      "Ġdarbaspe": 8087,
      "Ġprecizet": 8088,
      "wy": 8089,
      "Ġtulite": 8090,
      "Ġpersonals": 8091,
      "Ġietil": 8092,
      "Ġparauga": 8093,
      "Ġizklastita": 8094,
      "Ġpiespie": 8095,
      "Ġpieejas": 8096,
      "Ġrevi": 8097,
      "Ġapelacija": 8098,
      "Ġsamazinajuma": 8099,
      "Ġapdrosinasana": 8100,
      "Ġ530": 8101,
      "Ġhum": 8102,
      "Ġharta": 8103,
      "propil": 8104,
      "Ġ280": 8105,
      "Ġatvalinajuma": 8106,
      "Ġveiks": 8107,
      "Ġtirdzniecibai": 8108,
      "Ġierednu": 8109,
      "Ġeurostat": 8110,
      "Ġgran": 8111,
      "Ġcorporation": 8112,
      "Ġatvieglotu": 8113,
      "Ġsadarboties": 8114,
      "Ġturpretim": 8115,
      "ere": 8116,
      "Ġ1006": 8117,
      "Ġjasaprot": 8118,
      "esa": 8119,
      "Ġieklausana": 8120,
      "Ġieguts": 8121,
      "Ġdivdesmitaja": 8122,
      "Ġpalik": 8123,
      "Ġxxx": 8124,
      "Ġgrozijums": 8125,
      "Ġienemumiem": 8126,
      "Ġvispariga": 8127,
      "Ġizskatisana": 8128,
      "Ġprocesualas": 8129,
      "Ġvarian": 8130,
      "Ġdarijums": 8131,
      "Ġdisciplin": 8132,
      "Ġecpak": 8133,
      "gur": 8134,
      "Ġsavak": 8135,
      "Ġlaist": 8136,
      "mins": 8137,
      "egistre": 8138,
      "tif": 8139,
      "Ġatkape": 8140,
      "Ġsavienojumi": 8141,
      "Ġtelpu": 8142,
      "Ġierosmes": 8143,
      "Ġsy": 8144,
      "tera": 8145,
      "Ġformata": 8146,
      "Ġ195": 8147,
      "Ġgranu": 8148,
      "Ġeku": 8149,
      "Ġpros": 8150,
      "Ġprofesionala": 8151,
      "Ġatskirigas": 8152,
      "Ġkartes": 8153,
      "Ġvidusjuras": 8154,
      "Ġvalstspiederigajiem": 8155,
      "Ġcitai": 8156,
      "Ġcukur": 8157,
      "Ġministrijas": 8158,
      "Ġfinansialu": 8159,
      "Ġeib": 8160,
      "Ġmaksatajam": 8161,
      "Ġada": 8162,
      "Ġpamatprogram": 8163,
      "lemj": 8164,
      "Ġjaprecize": 8165,
      "Ġ215": 8166,
      "Ġ0406": 8167,
      "Ġfizisku": 8168,
      "Ġindustr": 8169,
      "Ġcivilas": 8170,
      "Ġsasniegsanu": 8171,
      "Ġapgalv": 8172,
      "ham": 8173,
      "Ġproblemu": 8174,
      "Ġatteikums": 8175,
      "Ġprogno": 8176,
      "Ġkompensacija": 8177,
      "Ġparvietosanos": 8178,
      "Ġpievienoto": 8179,
      "Ġsam": 8180,
      "Ġ249": 8181,
      "Ġ235": 8182,
      "elemen": 8183,
      "adra": 8184,
      "Ġeconom": 8185,
      "Ġpakapes": 8186,
      "Ġparejam": 8187,
      "cho": 8188,
      "Ġsituacijam": 8189,
      "Ġfaktoru": 8190,
      "Ġlielako": 8191,
      "Ġjauniem": 8192,
      "Ġ232": 8193,
      "Ġinspekcijas": 8194,
      "Ġizpilddirek": 8195,
      "fos": 8196,
      "Ġ206": 8197,
      "aux": 8198,
      "Ġesosu": 8199,
      "Ġplasi": 8200,
      "Ġdominejosa": 8201,
      "Ġierosinata": 8202,
      "Ġuzstadi": 8203,
      "Ġturetajs": 8204,
      "Ġzel": 8205,
      "Ġkoncentraciju": 8206,
      "jamibas": 8207,
      "Ġloksnes": 8208,
      "Ġizstradi": 8209,
      "itam": 8210,
      "Ġsavienojumu": 8211,
      "Ġpetnieciba": 8212,
      "Ġ1177": 8213,
      "Ġsir": 8214,
      "tets": 8215,
      "Ġsn": 8216,
      "Ġnodevu": 8217,
      "ado": 8218,
      "Ġvienai": 8219,
      "raksta": 8220,
      "Ġpacien": 8221,
      "Ġ212": 8222,
      "Ġdokumentacija": 8223,
      "Ġkondi": 8224,
      "Ġefektivas": 8225,
      "Ġvienadi": 8226,
      "Ġbrazil": 8227,
      "Ġeksportam": 8228,
      "Ġcus": 8229,
      "Ġsugam": 8230,
      "Ġuzvards": 8231,
      "Ġseci": 8232,
      "Ġizplati": 8233,
      "Ġmajsaimniecibas": 8234,
      "Ġipass": 8235,
      "Ġvidei": 8236,
      "Ġnv": 8237,
      "Ġleju": 8238,
      "Ġparbaudei": 8239,
      "Ġnomenklatura": 8240,
      "Ġsateli": 8241,
      "Ġkoncentracija": 8242,
      "Ġnodrosinasanai": 8243,
      "Ġsolas": 8244,
      "Ġ1986": 8245,
      "Ġprets": 8246,
      "Ġkonkursu": 8247,
      "Ġds": 8248,
      "Ġzil": 8249,
      "Ġslogu": 8250,
      "Ġdiag": 8251,
      "Ġkarb": 8252,
      "Ġnote": 8253,
      "Ġatpak": 8254,
      "Ġjaatzime": 8255,
      "Ġkoksnes": 8256,
      "ise": 8257,
      "Ġsobrid": 8258,
      "ure": 8259,
      "Ġmos": 8260,
      "Ġatklata": 8261,
      "Ġnekon": 8262,
      "Ġnepamatotu": 8263,
      "Ġpolicijas": 8264,
      "Ġkrapsanu": 8265,
      "gre": 8266,
      "Ġmuni": 8267,
      "Ġneskai": 8268,
      "Ġgren": 8269,
      "kr": 8270,
      "Ġvietejo": 8271,
      "Ġmeln": 8272,
      "Ġ1980": 8273,
      "Ġstingra": 8274,
      "Ġviss": 8275,
      "Ġparliecina": 8276,
      "Ġuznemumos": 8277,
      "Ġdzivnieki": 8278,
      "vina": 8279,
      "Ġstate": 8280,
      "Ġ231": 8281,
      "beiguma": 8282,
      "Ġnodarijumu": 8283,
      "Ġiejauksanas": 8284,
      "Ġpaklauta": 8285,
      "otaju": 8286,
      "orb": 8287,
      "Ġdaudzumus": 8288,
      "Ġslovenijas": 8289,
      "Ġobligata": 8290,
      "its": 8291,
      "inai": 8292,
      "Ġteritorijam": 8293,
      "Ġatkal": 8294,
      "Ġfun": 8295,
      "Ġspra": 8296,
      "Ġautori": 8297,
      "Ġkonstatejumu": 8298,
      "Ġpiemit": 8299,
      "brau": 8300,
      "Ġmaterials": 8301,
      "Ġgraudau": 8302,
      "Ġmartam": 8303,
      "Ġargumentaciju": 8304,
      "Ġpaterins": 8305,
      "Ġprojektus": 8306,
      "Ġtaric": 8307,
      "Õ¸Õ": 8308,
      "Ġsmal": 8309,
      "Ġmainit": 8310,
      "Ġregulativo": 8311,
      "Ġprettiesisk": 8312,
      "Ġapakspozicijas": 8313,
      "Ġmet": 8314,
      "Ġsaskanota": 8315,
      "Ġaspekti": 8316,
      "Ġpiespiedu": 8317,
      "Ġnepienemamibu": 8318,
      "Ġsesu": 8319,
      "Ġgaligi": 8320,
      "gf": 8321,
      "Ġgalvo": 8322,
      "kstos": 8323,
      "Ġieklautajiem": 8324,
      "Ġiepriekseju": 8325,
      "Ġpieaugumu": 8326,
      "Ġprasibai": 8327,
      "Ġnorik": 8328,
      "Ġvilcien": 8329,
      "atiem": 8330,
      "Ġecha": 8331,
      "Ġieverotas": 8332,
      "Ġsubsidiaritates": 8333,
      "tamas": 8334,
      "Ġnodarits": 8335,
      "Ġsol": 8336,
      "Ġizejvielas": 8337,
      "Ġnea": 8338,
      "Ġdaliba": 8339,
      "Ġ396": 8340,
      "Ġrasanas": 8341,
      "Ġ268": 8342,
      "Ġapkopes": 8343,
      "Ġlak": 8344,
      "triem": 8345,
      "Ġvienads": 8346,
      "Ġcaurules": 8347,
      "Ġdomstarp": 8348,
      "Ġsaistoss": 8349,
      "peti": 8350,
      "Ġpaslik": 8351,
      "cr": 8352,
      "dalam": 8353,
      "ekretar": 8354,
      "Ġnodali": 8355,
      "Ġpartneris": 8356,
      "ejoso": 8357,
      "Ġuzglabas": 8358,
      "Ġxvi": 8359,
      "Ġvarejusi": 8360,
      "Ġaizskar": 8361,
      "tini": 8362,
      "Ġminimalais": 8363,
      "Ġatvasinajumi": 8364,
      "Ġproporcionalitates": 8365,
      "fur": 8366,
      "alizacijas": 8367,
      "Ġpasai": 8368,
      "itu": 8369,
      "Ġierobezojosiem": 8370,
      "Ġeiropo": 8371,
      "Ġdra": 8372,
      "Ġatom": 8373,
      "usos": 8374,
      "vieno": 8375,
      "Ġkoncep": 8376,
      "Ġ2645": 8377,
      "Ġhro": 8378,
      "Ġ420": 8379,
      "Ġpieskirsanai": 8380,
      "ances": 8381,
      "Ġze": 8382,
      "Ġdazados": 8383,
      "Ġnepre": 8384,
      "Ġ468": 8385,
      "Ġtalr": 8386,
      "Ġkombinetas": 8387,
      "Ġwin": 8388,
      "pol": 8389,
      "Ġsubjekti": 8390,
      "Ġskerslus": 8391,
      "Ġss": 8392,
      "etie": 8393,
      "osiem": 8394,
      "Ġcent": 8395,
      "Ġcivillietas": 8396,
      "Ġsecinats": 8397,
      "Ġatpakalejosu": 8398,
      "Ġtelekomunikaciju": 8399,
      "Ġatzistot": 8400,
      "Ġneti": 8401,
      "Ġbalss": 8402,
      "Ġaplieciba": 8403,
      "ifice": 8404,
      "Ġfaks": 8405,
      "Ġobligatas": 8406,
      "vet": 8407,
      "tins": 8408,
      "nosaci": 8409,
      "Ġanul": 8410,
      "Ġieviesta": 8411,
      "Ġdru": 8412,
      "Ġilgtspejigas": 8413,
      "Ġsaskanosanu": 8414,
      "Ġdisk": 8415,
      "Ġatstaj": 8416,
      "laicigi": 8417,
      "Ġhek": 8418,
      "Ġpieaugums": 8419,
      "Ġcietes": 8420,
      "Ġpabalsti": 8421,
      "Ġ278": 8422,
      "Ġatputas": 8423,
      "Ġkadam": 8424,
      "ques": 8425,
      "Ġsatvar": 8426,
      "Ġminer": 8427,
      "Ġuznemejiem": 8428,
      "Ġneatkariga": 8429,
      "Ġizmekle": 8430,
      "Ġkonkretais": 8431,
      "Ġiesniegtajiem": 8432,
      "onesanas": 8433,
      "Ġsaiknes": 8434,
      "Ġsamazinasanu": 8435,
      "Ġsniedzeja": 8436,
      "Ġ288": 8437,
      "Ġatskirigi": 8438,
      "Ġsutijumu": 8439,
      "Ġsazina": 8440,
      "Ġposms": 8441,
      "Ġdubl": 8442,
      "Ġ302": 8443,
      "Ġmoldo": 8444,
      "Ġattiecigu": 8445,
      "Ġpiegadataja": 8446,
      "Ġturpinajuma": 8447,
      "Ġpamatosanai": 8448,
      "Ġvadlin": 8449,
      "Ġkapitals": 8450,
      "hm": 8451,
      "Ġnodrosinasanu": 8452,
      "Ġparkapumi": 8453,
      "Ġpabalstus": 8454,
      "iesanu": 8455,
      "Ġfrekven": 8456,
      "Ġpabalstiem": 8457,
      "Ġdefineti": 8458,
      "Ġsvies": 8459,
      "Ġizgatavoti": 8460,
      "ner": 8461,
      "Ġkoncesijas": 8462,
      "020": 8463,
      "Ġbuvdarbu": 8464,
      "roso": 8465,
      "Ġgeneraldirektora": 8466,
      "Ġekskluziva": 8467,
      "vam": 8468,
      "peja": 8469,
      "Ġzimei": 8470,
      "Ġol": 8471,
      "Ġpau": 8472,
      "Ġpanakta": 8473,
      "Ġpiekto": 8474,
      "Ġdevel": 8475,
      "Ġapsaimniekosanas": 8476,
      "unam": 8477,
      "Ġcietus": 8478,
      "Ġuzturas": 8479,
      "Ġizmegina": 8480,
      "hid": 8481,
      "Ġiekarta": 8482,
      "Ġnesatur": 8483,
      "Ġkrus": 8484,
      "Ġskirnes": 8485,
      "Ġipasnieku": 8486,
      "Ġdigitala": 8487,
      "Ġvidu": 8488,
      "vakul": 8489,
      "Ġkimiskas": 8490,
      "waltungs": 8491,
      "Ġfiziskam": 8492,
      "Ġ295": 8493,
      "tivitati": 8494,
      "Ġakvakul": 8495,
      "Ġdot": 8496,
      "uso": 8497,
      "Ġrazotajam": 8498,
      "daudz": 8499,
      "Ġdzijas": 8500,
      "Ġtaiz": 8501,
      "Ġizstrades": 8502,
      "lio": 8503,
      "Ġeksperti": 8504,
      "Ġautortiesibu": 8505,
      "Ġrobezvertibas": 8506,
      "Ġieras": 8507,
      "Ġpubliskas": 8508,
      "Ġnediskrimina": 8509,
      "Ġparvalda": 8510,
      "Ġintegri": 8511,
      "karto": 8512,
      "Ġautonoma": 8513,
      "Ġ223": 8514,
      "Ġoperacijas": 8515,
      "Ġbulgarija": 8516,
      "Ġnaudu": 8517,
      "Ġ241": 8518,
      "Ġieklaujot": 8519,
      "Ġsastavs": 8520,
      "disanai": 8521,
      "Ġattiecigajas": 8522,
      "Ġ680": 8523,
      "Ġprejudicialajiem": 8524,
      "Ġatbildetajas": 8525,
      "Ġaizstat": 8526,
      "Ġ570": 8527,
      "Ġaeronavigacijas": 8528,
      "Ġmarokas": 8529,
      "Ġlauksaimniekiem": 8530,
      "Ġuztureties": 8531,
      "Ġoficiali": 8532,
      "Ġamino": 8533,
      "990": 8534,
      "Ġlinijas": 8535,
      "Ġkontu": 8536,
      "Ġizraudzita": 8537,
      "Ġagrako": 8538,
      "Ġpiebilst": 8539,
      "Ġnekustamais": 8540,
      "Ġatlaisanas": 8541,
      "etaju": 8542,
      "Ġ321": 8543,
      "Ġkohe": 8544,
      "Ġakcep": 8545,
      "Ġnodrosinajumu": 8546,
      "Ġsark": 8547,
      "Ġvaditaju": 8548,
      "Ġnoligumos": 8549,
      "Ġnoder": 8550,
      "Ġ245": 8551,
      "Ġpienemama": 8552,
      "Ġbazas": 8553,
      "Ġnepieciesamiba": 8554,
      "Ġattiekties": 8555,
      "ae": 8556,
      "Ġstarptautiskie": 8557,
      "ksanos": 8558,
      "Ġizvieto": 8559,
      "Ġiegades": 8560,
      "Ġ2025": 8561,
      "Ġtarif": 8562,
      "Ġcitads": 8563,
      "Ġassocia": 8564,
      "Ġgaligais": 8565,
      "Ġmarkejuma": 8566,
      "Ġaplukojama": 8567,
      "Ġkopienai": 8568,
      "Ġnobeiguma": 8569,
      "Ġpieskirot": 8570,
      "Ġdemp": 8571,
      "Ġmodifice": 8572,
      "Ġ222": 8573,
      "Ġnesas": 8574,
      "Ġtunis": 8575,
      "Ġatmaksu": 8576,
      "Ġizteikta": 8577,
      "Ġ238": 8578,
      "Ġapkalpes": 8579,
      "tuves": 8580,
      "Ġieksiene": 8581,
      "gab": 8582,
      "Ġradies": 8583,
      "Ġgum": 8584,
      "Ġatcelts": 8585,
      "Ġsaistosi": 8586,
      "Ġfl": 8587,
      "Ġblivumu": 8588,
      "Ġplusmu": 8589,
      "Ġapstiprinasanu": 8590,
      "Ġmetalu": 8591,
      "Ġatri": 8592,
      "tasu": 8593,
      "Ġuzsakta": 8594,
      "Ġfederala": 8595,
      "Ġnenemot": 8596,
      "Ġesp": 8597,
      "Ġkonstatetu": 8598,
      "Ġformulejumu": 8599,
      "Ð½Ð°": 8600,
      "Ġpardosanai": 8601,
      "Ġretail": 8602,
      "Ġparkaptas": 8603,
      "Ġkoeficients": 8604,
      "Ġ186": 8605,
      "iesiem": 8606,
      "Ġ188": 8607,
      "iecie": 8608,
      "wor": 8609,
      "Ġgenerals": 8610,
      "Ġpilnvaram": 8611,
      "Ġizbeidz": 8612,
      "niekam": 8613,
      "Ġkoncentre": 8614,
      "Ġstundu": 8615,
      "bra": 8616,
      "isteno": 8617,
      "Ġcs": 8618,
      "Ġturpmakas": 8619,
      "Ġpadomi": 8620,
      "yl": 8621,
      "Ġcomp": 8622,
      "Ġekspluatan": 8623,
      "Ġapmierinat": 8624,
      "piemero": 8625,
      "ex": 8626,
      "Ġizdarits": 8627,
      "Ġstarptautiskajam": 8628,
      "Ġnokave": 8629,
      "Ġapgrutina": 8630,
      "Ġapmacibu": 8631,
      "Ġvardiska": 8632,
      "ark": 8633,
      "Ġkopums": 8634,
      "chtshof": 8635,
      "Ġ247": 8636,
      "ok": 8637,
      "Ġpilda": 8638,
      "Ġkrajuma": 8639,
      "Ġprivato": 8640,
      "Ġakmen": 8641,
      "Ġprz": 8642,
      "ekonom": 8643,
      "Ġgovt": 8644,
      "Ġvisparigas": 8645,
      "Ġ325": 8646,
      "Ġcod": 8647,
      "Ġpowiecie": 8648,
      "Ġaizmu": 8649,
      "Ġokeana": 8650,
      "Ġaprekinasanai": 8651,
      "Ġindividuala": 8652,
      "Ġgruti": 8653,
      "Ġsaderibu": 8654,
      "Ġgeneraldirektors": 8655,
      "rekina": 8656,
      "Ġapaksnoz": 8657,
      "Ġ1977": 8658,
      "Ġ318": 8659,
      "Ġkriminalprocesa": 8660,
      "Ġaprekinata": 8661,
      "Ġkun": 8662,
      "Ġnovel": 8663,
      "Ġtiesiskumu": 8664,
      "ficesanas": 8665,
      "ejosas": 8666,
      "Ġmigracijas": 8667,
      "Ġvisparejam": 8668,
      "Ġatbalstitu": 8669,
      "Ġpolimer": 8670,
      "Ġspeks": 8671,
      "valo": 8672,
      "Ġdarbinieks": 8673,
      "ire": 8674,
      "Ġdienai": 8675,
      "Ġpiemerojusi": 8676,
      "Ġminimalas": 8677,
      "parvada": 8678,
      "Ġkvadra": 8679,
      "Ġmenesos": 8680,
      "Ġigaunijas": 8681,
      "Ġmiks": 8682,
      "Ġietei": 8683,
      "detu": 8684,
      "Ġpriekslikumus": 8685,
      "Ġlatvija": 8686,
      "Ġpaplasina": 8687,
      "Ġkori": 8688,
      "Ġnolemt": 8689,
      "Ġikgadeja": 8690,
      "tures": 8691,
      "Ġnesk": 8692,
      "Ġsvariga": 8693,
      "Ġ297": 8694,
      "Ġdomici": 8695,
      "Ġekskluzivas": 8696,
      "Ġmem": 8697,
      "Ġvita": 8698,
      "Ġmaterialos": 8699,
      "Ġnation": 8700,
      "Ġcensas": 8701,
      "puta": 8702,
      "Ġtehniskie": 8703,
      "Ġmineral": 8704,
      "gesetz": 8705,
      "Ġarod": 8706,
      "komite": 8707,
      "Ġatves": 8708,
      "Ġiedib": 8709,
      "Ġakcijas": 8710,
      "Ġizplatisanu": 8711,
      "Ġonx": 8712,
      "Ġinvaliditates": 8713,
      "Ġlikumibu": 8714,
      "elek": 8715,
      "Ġkadel": 8716,
      "Ġgalvas": 8717,
      "Ġvideo": 8718,
      "Ġpatentu": 8719,
      "Ġ521": 8720,
      "Ġzemakas": 8721,
      "Ġosta": 8722,
      "Ġuzdevumi": 8723,
      "9000": 8724,
      "Ġnie": 8725,
      "Ġoficialo": 8726,
      "Ġ710": 8727,
      "Ġarhi": 8728,
      "Ġatcelta": 8729,
      "Ġpieradijums": 8730,
      "Ġpieskirti": 8731,
      "Ġsanemis": 8732,
      "Ġizmainu": 8733,
      "Ġslape": 8734,
      "Ġizgatavo": 8735,
      "Ġauduma": 8736,
      "Ġapgalvoto": 8737,
      "Ġmezsaimniecibas": 8738,
      "Ġparstavja": 8739,
      "Ġatbilstoso": 8740,
      "dienu": 8741,
      "ficesanu": 8742,
      "Ġlomu": 8743,
      "Ġieverots": 8744,
      "nice": 8745,
      "Ġapvienosanas": 8746,
      "Ġizsniegsanu": 8747,
      "ao": 8748,
      "Ġjapanas": 8749,
      "Ġvada": 8750,
      "Ġapakss": 8751,
      "tiskam": 8752,
      "Ġlietosana": 8753,
      "con": 8754,
      "Ġminu": 8755,
      "Ġregionalo": 8756,
      "Ġacimredzama": 8757,
      "Ġpark": 8758,
      "Ġhl": 8759,
      "Ġpazinojumus": 8760,
      "Ġpartneru": 8761,
      "alitate": 8762,
      "Ġdzir": 8763,
      "Ġizkroplo": 8764,
      "Ġalgas": 8765,
      "Ġiegadi": 8766,
      "Ġ308": 8767,
      "Ġogluden": 8768,
      "masinu": 8769,
      "Ġsubsidiju": 8770,
      "Ġsaistosa": 8771,
      "ibr": 8772,
      "Ġnoraidita": 8773,
      "Ġceturtkart": 8774,
      "Ġfisk": 8775,
      "Ġavotu": 8776,
      "Ġizsniegt": 8777,
      "Ġprovizoriski": 8778,
      "Ġsez": 8779,
      "Ġsasta": 8780,
      "Ġsastavu": 8781,
      "Ġdiplo": 8782,
      "dentu": 8783,
      "Ġdazam": 8784,
      "Ġtabulu": 8785,
      "Ġpakapeniski": 8786,
      "otajam": 8787,
      "Ġeas": 8788,
      "Ġpazinota": 8789,
      "Ġatjaunosanas": 8790,
      "Ġdefineta": 8791,
      "Ġformulets": 8792,
      "rakstu": 8793,
      "Ġbalstiti": 8794,
      "Ġjasanem": 8795,
      "ika": 8796,
      "fekta": 8797,
      "pater": 8798,
      "Ġ2024": 8799,
      "Ġgeografiskais": 8800,
      "Ġ1702": 8801,
      "pri": 8802,
      "Ġtvai": 8803,
      "Ġapgad": 8804,
      "Ġpiedalijas": 8805,
      "tigas": 8806,
      "Ġpieteikumi": 8807,
      "Ġizvirzijusi": 8808,
      "Ġkados": 8809,
      "Ġcivilties": 8810,
      "josiem": 8811,
      "Ġzida": 8812,
      "Ġatseviskam": 8813,
      "Ġaudio": 8814,
      "900": 8815,
      "oms": 8816,
      "Ġ266": 8817,
      "ieriem": 8818,
      "Ġziemelirijas": 8819,
      "030": 8820,
      "Ġbit": 8821,
      "Ġnodrosinasana": 8822,
      "Ġcet": 8823,
      "Ġtikusas": 8824,
      "Ġprejudicialus": 8825,
      "Ġfenil": 8826,
      "Ġdrosiba": 8827,
      "Ġstapelskied": 8828,
      "ako": 8829,
      "Ġkimiska": 8830,
      "Ġaso": 8831,
      "Ġlabibas": 8832,
      "Ġsz": 8833,
      "Ġ271": 8834,
      "Ġreformas": 8835,
      "Ġieverosana": 8836,
      "Ġkomata": 8837,
      "Ġpilsona": 8838,
      "Ġklauzula": 8839,
      "ells": 8840,
      "fil": 8841,
      "mais": 8842,
      "Ġcovid": 8843,
      "Ġsocie": 8844,
      "Ġveidus": 8845,
      "degvielas": 8846,
      "zot": 8847,
      "Ġpamatotibu": 8848,
      "Ġ0304": 8849,
      "Ġnemta": 8850,
      "Ġizstradati": 8851,
      "Ġ254": 8852,
[...]
