{
  "version": "1.0",
  "truncation": null,
  "padding": null,
  "added_tokens": [
    {
      "id": 0,
      "content": "<pad>",
      "single_word": false,
      "lstrip": false,
      "rstrip": false,
      "normalized": false,
      "special": true
    },
    {
      "id": 1,
      "content": "<s>",
      "single_word": false,
      "lstrip": false,
      "rstrip": false,
      "normalized": false,
      "special": true
    },
    {
      "id": 2,
      "content": "</s>",
      "single_word": false,
      "lstrip": false,
      "rstrip": false,
      "normalized": false,
      "special": true
    },
    {
      "id": 3,
      "content": "<unk>",
      "single_word": false,
      "lstrip": false,
      "rstrip": false,
      "normalized": false,
      "special": true
    },
    {
      "id": 4,
      "content": "<mask>",
      "single_word": false,
      "lstrip": false,
      "rstrip": false,
      "normalized": false,
      "special": true
    }
  ],
  "normalizer": {
    "type": "Sequence",
    "normalizers": [
      {
        "type": "NFKD"
      },
      {
        "type": "BertNormalizer",
        "clean_text": true,
        "handle_chinese_chars": true,
        "strip_accents": null,
        "lowercase": true
      }
    ]
  },
  "pre_tokenizer": {
    "type": "Sequence",
    "pretokenizers": [
      {
        "type": "BertPreTokenizer"
      },
      {
        "type": "ByteLevel",
        "add_prefix_space": true,
        "trim_offsets": true,
        "use_regex": true
      }
    ]
  },
  "post_processor": {
    "type": "RobertaProcessing",
    "sep": [
      "</s>",
      2
    ],
    "cls": [
      "<s>",
      1
    ],
    "trim_offsets": true,
    "add_prefix_space": true
  },
  "decoder": {
    "type": "ByteLevel",
    "add_prefix_space": true,
    "trim_offsets": true,
    "use_regex": true
  },
  "model": {
    "type": "BPE",
    "dropout": null,
    "unk_token": "<unk>",
    "continuing_subword_prefix": null,
    "end_of_word_suffix": null,
    "fuse_unk": false,
    "vocab": {
      "<pad>": 0,
      "<s>": 1,
      "</s>": 2,
      "<unk>": 3,
      "<mask>": 4,
      "!": 5,
      "\"": 6,
      "#": 7,
      "$": 8,
      "%": 9,
      "&": 10,
      "'": 11,
      "(": 12,
      ")": 13,
      "*": 14,
      "+": 15,
      ",": 16,
      "-": 17,
      ".": 18,
      "/": 19,
      "0": 20,
      "1": 21,
      "2": 22,
      "3": 23,
      "4": 24,
      "5": 25,
      "6": 26,
      "7": 27,
      "8": 28,
      "9": 29,
      ":": 30,
      ";": 31,
      "<": 32,
      "=": 33,
      ">": 34,
      "?": 35,
      "@": 36,
      "[": 37,
      "\\": 38,
      "]": 39,
      "^": 40,
      "_": 41,
      "`": 42,
      "a": 43,
      "b": 44,
      "c": 45,
      "d": 46,
      "e": 47,
      "f": 48,
      "g": 49,
      "h": 50,
      "i": 51,
      "j": 52,
      "k": 53,
      "l": 54,
      "m": 55,
      "n": 56,
      "o": 57,
      "p": 58,
      "q": 59,
      "r": 60,
      "s": 61,
      "t": 62,
      "u": 63,
      "v": 64,
      "w": 65,
      "x": 66,
      "y": 67,
      "z": 68,
      "{": 69,
      "|": 70,
      "}": 71,
      "~": 72,
      "¡": 73,
      "¢": 74,
      "£": 75,
      "¤": 76,
      "¥": 77,
      "¦": 78,
      "§": 79,
      "¨": 80,
      "©": 81,
      "ª": 82,
      "«": 83,
      "¬": 84,
      "®": 85,
      "¯": 86,
      "°": 87,
      "±": 88,
      "²": 89,
      "³": 90,
      "´": 91,
      "µ": 92,
      "¶": 93,
      "·": 94,
      "¸": 95,
      "¹": 96,
      "º": 97,
      "»": 98,
      "¼": 99,
      "½": 100,
      "¾": 101,
      "¿": 102,
      "Â": 103,
      "Ã": 104,
      "Ä": 105,
      "Å": 106,
      "Æ": 107,
      "Ç": 108,
      "È": 109,
      "É": 110,
      "Ê": 111,
      "Ë": 112,
      "Î": 113,
      "Ï": 114,
      "Ð": 115,
      "Ñ": 116,
      "Ò": 117,
      "Ó": 118,
      "Õ": 119,
      "Ö": 120,
      "×": 121,
      "Ø": 122,
      "Ù": 123,
      "Ú": 124,
      "Û": 125,
      "ß": 126,
      "á": 127,
      "â": 128,
      "ã": 129,
      "ä": 130,
      "å": 131,
      "æ": 132,
      "ç": 133,
      "è": 134,
      "é": 135,
      "ê": 136,
      "ï": 137,
      "ð": 138,
      "Ġ": 139,
      "Ģ": 140,
      "ģ": 141,
      "Ĥ": 142,
      "ĥ": 143,
      "Ħ": 144,
      "ħ": 145,
      "Ĩ": 146,
      "ĩ": 147,
      "Ī": 148,
      "ī": 149,
      "Ĭ": 150,
      "ĭ": 151,
      "Į": 152,
      "į": 153,
      "İ": 154,
      "ı": 155,
      "Ĳ": 156,
      "ĳ": 157,
      "Ĵ": 158,
      "ĵ": 159,
      "Ķ": 160,
      "ķ": 161,
      "ĸ": 162,
      "Ĺ": 163,
      "ĺ": 164,
      "Ļ": 165,
      "ļ": 166,
      "Ľ": 167,
      "ľ": 168,
      "Ŀ": 169,
      "ŀ": 170,
      "Ł": 171,
      "ł": 172,
      "Ń": 173,
      "Î±": 174,
      "Î¿": 175,
      "Î¹": 176,
      "Îµ": 177,
      "ÏĦ": 178,
      "Î½": 179,
      "Î·": 180,
      "Ïĥ": 181,
      "Ïģ": 182,
      "Ïħ": 183,
      "ÏĢ": 184,
      "ĠÎ": 185,
      "ÏĤ": 186,
      "ĠÏĦ": 187,
      "Ïī": 188,
      "Î¿Ïħ": 189,
      "Îº": 190,
      "Î¼": 191,
      "ĠÎµ": 192,
      "Î»": 193,
      "ĠÎ±": 194,
      "ĠÏĢ": 195,
      "ĠÏĥ": 196,
      "ĠÎº": 197,
      "Î¹Î±": 198,
      "ÏĦÎ±": 199,
      "Î³": 200,
      "ÏīÎ½": 201,
      "Î·ÏĤ": 202,
      "Ġ,": 203,
      "Î¹Îº": 204,
      "ÎµÎ¹": 205,
      "ÏĢÎ¿": 206,
      "ÏģÎ¿": 207,
      "ĠÎºÎ±": 208,
      "Ġ.": 209,
      "ÏĨ": 210,
      "Ïĩ": 211,
      "ĠÎ´": 212,
      "Î¸": 213,
      "ĠÎ¿": 214,
      "ÏģÎ±": 215,
      "Î´": 216,
      "ĠÎ¼": 217,
      "Î½Î±": 218,
      "ÏĦÎ·": 219,
      "ÏģÎ¹": 220,
      "ÏĦÎ¿": 221,
      "Î½Î¿": 222,
      "ÏĥÎ·": 223,
      "ĠÏĦÎ·ÏĤ": 224,
      "ĠÎ¼Îµ": 225,
      "ĠÏĦÎ¿Ïħ": 226,
      "Î²": 227,
      "Ġ1": 228,
      "ĠÏĦÎ·": 229,
      "Î¼Îµ": 230,
      "ĠÎ·": 231,
      "Î¹Ïĥ": 232,
      "ĠÏĥÏħ": 233,
      "ĠÏĢÏģÎ¿": 234,
      "ĠÎºÎ±Î¹": 235,
      "Î¼Î±": 236,
      "ÎµÏĤ": 237,
      "ĠÏĦÎ¿": 238,
      "ĠÎ±ÏĢÎ¿": 239,
      "Ġ2": 240,
      "ĠÎµÏĢ": 241,
      "ÏĦÎ¹Îº": 242,
      "ĠÎ³": 243,
      "Î¾": 244,
      "ÏīÏĤ": 245,
      "Î¼Î¿": 246,
      "ÏĦÎ±Î¹": 247,
      "ĠÏĦÎ·Î½": 248,
      "ĠÏħ": 249,
      "Î±Ïĥ": 250,
      "Î¹Î¿": 251,
      "Ġ)": 252,
      "ĠÏĢÎ±": 253,
      "ĠÏĦÏīÎ½": 254,
      "ÏĦÎ¹": 255,
      "ÏĦÎµ": 256,
      "ĠÎµÏĢÎ¹": 257,
      "ÏģÎµ": 258,
      "ĠÎ½Î±": 259,
      "Î»Î¿": 260,
      "ĠÏĢÎ¿Ïħ": 261,
      "Ġ(": 262,
      "ĠÎ´Î¹Î±": 263,
      "Î¿ÏħÎ½": 264,
      "ÏĨÎ¿": 265,
      "Î¹Î±ÏĤ": 266,
      "Ġ-": 267,
      "Ġ/": 268,
      "ĠÎ³Î¹Î±": 269,
      "ĠÎºÎ±ÏĦÎ±": 270,
      "Î»Î±": 271,
      "Î»Îµ": 272,
      "Î»Î·": 273,
      "ĠÎµÎ½": 274,
      "ĠÎ±Ïģ": 275,
      "ĠÏĥÏĦÎ¿": 276,
      "Î¼ÎµÎ½": 277,
      "ÏģÏī": 278,
      "Î¸Îµ": 279,
      "ĠÏĥÏħÎ¼": 280,
      "ÏģÎ·": 281,
      "ÏĥÎµ": 282,
      "ÏĢÎ±": 283,
      "ĠÎµÎº": 284,
      "ÏĨÎ±": 285,
      "ĠÏĢÎ±ÏģÎ±": 286,
      "ĠÏĦÎ±": 287,
      "ĠÏĢÎµ": 288,
      "ĠÎ»": 289,
      "Î²Î±": 290,
      "ĠÏĩ": 291,
      "ÎµÎ¹ÏĤ": 292,
      "Î¿ÏħÏĤ": 293,
      "Î¶": 294,
      "ÎµÎ½": 295,
      "Ġ20": 296,
      "Ġ3": 297,
      "Î¿Î½": 298,
      "ÏģÎ³": 299,
      "ĠÏħÏĢÎ¿": 300,
      "ĠÏĢÏģÎ¿Ïĥ": 301,
      "ĠÏĥÏĦÎ·": 302,
      "ĠÎ²": 303,
      "ĠÏĢÎµÏģÎ¹": 304,
      "ĠÎ±Î½": 305,
      "ĠÎ±Î½Î±": 306,
      "Î¿Î¹": 307,
      "Ġ0": 308,
      "ÏĦÎ¿ÏĤ": 309,
      "ĠÏĦÎ¹": 310,
      "ÏĥÎ·ÏĤ": 311,
      "ÎºÎµ": 312,
      "ĠÏĥÎµ": 313,
      "ĠÂ": 314,
      "Î¹Î¿Ïħ": 315,
      "ĠÎ±Ïħ": 316,
      "ÏĦÏīÎ½": 317,
      "Ġ|": 318,
      "ĠÎ¸": 319,
      "Ġ:": 320,
      "Î³ÏģÎ±": 321,
      "ĠÎµÎ¹": 322,
      "ĠÎ±ÏģÎ¸": 323,
      "ÏĩÎµÎ¹": 324,
      "Î½Îµ": 325,
      "ÏĢÎ¿Î¹": 326,
      "ÏģÎ¿Ïħ": 327,
      "ÏĩÎµ": 328,
      "ÏĪ": 329,
      "ĠÎ´Î¹Îº": 330,
      "ĠÎµÎ¾": 331,
      "Î¼Î·": 332,
      "Î»Î¿Î³": 333,
      "ÏĨÎµ": 334,
      "ĠÎ¿ÏĦÎ¹": 335,
      "Î´Î¿": 336,
      "ÏĦÏģÎ¿": 337,
      "Ġc": 338,
      "ĠÏĦÎ¹ÏĤ": 339,
      "Î´Î¹Îº": 340,
      "ĠÎ¿Î¹": 341,
      "Î½Î¿Î½": 342,
      "Î±Î½": 343,
      "Ġâ": 344,
      "Ġ4": 345,
      "ĠÎ¹": 346,
      "ÏĢÎ·": 347,
      "ÏĢÎµ": 348,
      "ĠÏĥÏĦÎ·Î½": 349,
      "ÎºÎ¿": 350,
      "Î³Ïī": 351,
      "Î¹ÎºÎ·": 352,
      "Ġ5": 353,
      "ĠÎºÎ¿Î¹": 354,
      "Î¹ÎºÎ¿": 355,
      "Î¸Î·": 356,
      "ĠâĢ": 357,
      "ÏĥÎµÎ¹ÏĤ": 358,
      "ĠÎ´ÎµÎ½": 359,
      "Ġa": 360,
      "ÏĥÎ¹": 361,
      "ÏĦÏī": 362,
      "Ġe": 363,
      "ÏģÎ¹Ïĥ": 364,
      "ĠÎµÏħ": 365,
      "ĠÎ¿ÏĢÎ¿": 366,
      "Î¸ÎµÎ¹": 367,
      "ĠÎ¼ÎµÏĦÎ±": 368,
      "ÏĥÎ±": 369,
      "ÏĦÎ·ÏĦÎ±": 370,
      "ĠÎµÏĢÎ¹ÏĦÏģÎ¿": 371,
      "Ġ9": 372,
      "ĠÎ±ÏģÎ¸ÏģÎ¿": 373,
      "ĠÏĢÎ¿": 374,
      "ĠÏĦÎ¿Î½": 375,
      "Î¼Î¿Ïħ": 376,
      "Ġ19": 377,
      "ĠÎ±Î»": 378,
      "ĠÎºÎ±Î½Î¿Î½": 379,
      "ÏĦÎ¹ÎºÎ±": 380,
      "Î´Î·": 381,
      "ĠÏĦÎ¿ÏħÏĤ": 382,
      "Ġs": 383,
      "ÏĥÎµÏīÏĤ": 384,
      "ÏĨÏīÎ½": 385,
      "Î½Î·": 386,
      "er": 387,
      "ĠÎºÎ¿Î¹Î½Î¿": 388,
      "Ġ200": 389,
      "Ġ8": 390,
      "ÎºÎ±": 391,
      "Î³Î¿": 392,
      "Ġ6": 393,
      "ĠÏĥÏħÎ½": 394,
      "ĠÎ»Î¿": 395,
      "ÏĦÎ·Î¼Î±": 396,
      "ÏĢÎµÎ¹": 397,
      "Ġp": 398,
      "ÏĪÎ·": 399,
      "ĠÎ´Îµ": 400,
      "Ġ7": 401,
      "ÏĦÎ·ÏģÎ¹": 402,
      "ĠÏĥÏĩÎµ": 403,
      "Ġd": 404,
      "Î³Î·": 405,
      "Ġi": 406,
      "ÏĢÎ¿Î¹Î·": 407,
      "Î¹ÎºÎ·ÏĤ": 408,
      "Î½Î±Î¹": 409,
      "Î²Î¿Ïħ": 410,
      "ĠÎºÎ±Î½Î¿Î½Î¹Ïĥ": 411,
      "ÏĦÎµÏĤ": 412,
      "ĠÎµÎ¹Î½Î±Î¹": 413,
      "ĠÎµÏħÏģÏī": 414,
      "ÏģÎ¼Î¿": 415,
      "ĠÏĦÎµ": 416,
      "ÏĦÎµÎ¹": 417,
      "Ġt": 418,
      "ĠÏĥÏħÎ¼ÏĨÏīÎ½": 419,
      "ĠÎ¸Îµ": 420,
      "ÏģÏīÎ½": 421,
      "ĠÎ´Î·": 422,
      "Î¼ÎµÎ½Î¿": 423,
      "ĠÎºÏģÎ±": 424,
      "Î»ÎµÎ¹": 425,
      "Î³ÏģÎ±ÏĨÎ¿": 426,
      "ĠÎ½Î¿": 427,
      "Î¾Î·": 428,
      "ĠÎºÎ±Î¸": 429,
      "Î»Î¹": 430,
      "Î´Îµ": 431,
      "Ġ201": 432,
      "ÏĨÎ¿ÏģÎ±": 433,
      "ÏĦÎ¿Ïħ": 434,
      "ÏĦÎ¹ÎºÎ¿": 435,
      "Ġl": 436,
      "ĠÎµÏħÏģÏīÏĢÎ±": 437,
      "Î´Î±": 438,
      "ÎµÏĦÎ±Î¹": 439,
      "ĠÎ±Î¹": 440,
      "ÏĥÎµÏīÎ½": 441,
      "Î»ÏīÎ½": 442,
      "ÏĥÎ¿": 443,
      "ĠÎµÏĢÎ¹ÏĦÏģÎ¿ÏĢÎ·": 444,
      "re": 445,
      "Î¿Î½ÏĦÎ±Î¹": 446,
      "ĠÏĥÏĦÎ¹": 447,
      "on": 448,
      "ĠÎµÎ³": 449,
      "ÏĦÎ¹ÎºÎ·": 450,
      "Î¹Îµ": 451,
      "Î²Î¿ÏħÎ»": 452,
      "Î»Î¿Ïħ": 453,
      "Ġ10": 454,
      "Î¼Î±ÏĦÎ±": 455,
      "ĠÏĩÏģÎ·": 456,
      "Î¹Î½": 457,
      "ÏģÎµÎ¹": 458,
      "an": 459,
      "ĠÏĢÎ±ÏģÎ±Î³ÏģÎ±ÏĨÎ¿": 460,
      "ĠÎ¸Î±": 461,
      "ÏģÎµÏĢÎµÎ¹": 462,
      "Î´Î¹Î±": 463,
      "ĠÎµÏĨÎ±": 464,
      "ĠÎ´Ïħ": 465,
      "ÏĩÏħ": 466,
      "ĠÎµÏĨÎ±ÏģÎ¼Î¿": 467,
      "Ġm": 468,
      "ĠÏĥÏĦÎ¹ÏĤ": 469,
      "ÏģÎ¹Î±": 470,
      "ĠÏĥÎ·": 471,
      "ĠÎ´Î¹ÎºÎ±": 472,
      "ÏĥÎ¹Î±": 473,
      "ĠÎ¿ÏĢÎ¿Î¹Î±": 474,
      "Î¹ÎºÏīÎ½": 475,
      "en": 476,
      "ÎºÏģÎ¹": 477,
      "ĠÂ«": 478,
      "ĠÏĢÏģÎµÏĢÎµÎ¹": 479,
      "ĠÎ±ÏĢÎ±": 480,
      "Î¹ÎºÎ¿Ïħ": 481,
      "ĠÏĢÏģÎ±": 482,
      "Î¹Î¿Î½": 483,
      "ĠÎ´Î¹ÎºÎ±Ïĥ": 484,
      "ÎµÏīÏĤ": 485,
      "Ġo": 486,
      "Î²Î±Î»": 487,
      "ĠÎ¹Ïĥ": 488,
      "Î»Ïħ": 489,
      "ĠÏĥÏĦÎ±": 490,
      "Î½Ïī": 491,
      "ÏĥÏĦÎ±": 492,
      "ÏģÎ¹Î¿Ïħ": 493,
      "Î¼Î²Î±": 494,
      "ĠÏīÏĤ": 495,
      "Î´Î¹ÎºÎ±Ïĥ": 496,
      "ÏĦÎ¹ÎºÏīÎ½": 497,
      "ĠÎ±ÏģÏĩ": 498,
      "ÏģÎ¿Î½": 499,
      "Î¼ÎµÎ½ÏīÎ½": 500,
      "ÏĨÎ±Ïĥ": 501,
      "ĠÏĥÏħÎ½Îµ": 502,
      "Î¹ÎºÎ±": 503,
      "ĠÎµÎ½Î±": 504,
      "ĠÎ¶": 505,
      "ĠÂ»": 506,
      "ÏĨÏħ": 507,
      "ĠÎµÎ½Ïī": 508,
      "ĠÎ¼Î·": 509,
      "ĠÎµÎ¼": 510,
      "ÏĦÏħ": 511,
      "ĠÎ±Ïĥ": 512,
      "ÏĥÎµÎ¹": 513,
      "ÏĩÎ¿": 514,
      "ĠÏĢÏģÏī": 515,
      "in": 516,
      "ÏģÎ¹Î¶": 517,
      "ÏģÏħ": 518,
      "Ġb": 519,
      "Î³ÏīÎ³": 520,
      "Î¹Ïī": 521,
      "ĠÎ¼ÏĢÎ¿": 522,
      "ĠÎ±ÏĢÎ¿ÏĨÎ±": 523,
      "ĠÏĢÎ±ÏģÎ±Î³ÏģÎ±ÏĨÎ¿ÏĤ": 524,
      "ĠÎ»Î¿Î³Ïī": 525,
      "ĠÎºÏħ": 526,
      "ĠÎ´Î·Î¼Î¿": 527,
      "ĠÎ¿Î´Î·": 528,
      "ĠÎ±ÏĢÎ¿ÏĨÎ±Ïĥ": 529,
      "Î¼ÎµÎ½Î±": 530,
      "ĠÏĢÎ»Î·": 531,
      "Î¼ÎµÎ½Î·": 532,
      "ĠÏĥÏħÎ¼Î²Î¿ÏħÎ»": 533,
      "es": 534,
      "ĠÎµÏģÎ³": 535,
      "ĠÂ·": 536,
      "ÏĦÎ¹ÎºÎ·ÏĤ": 537,
      "ĠÎ¿Î´Î·Î³": 538,
      "Î³Î¼Î±": 539,
      "ĠÎ´Î¹Î±ÏĦÎ±": 540,
      "ĠÎ¼Î¿": 541,
      "ĠÎ±ÏĢÎ¿ÏĨÎ±ÏĥÎ·": 542,
      "Î´Î¹Î¿": 543,
      "Î¸Î·Îº": 544,
      "ÏĦÎ·ÏĦÎ±ÏĤ": 545,
      "ĠÏĥÏĦÎ¿Î¹": 546,
      "Ġ199": 547,
      "ĠÎ¼Î±": 548,
      "ÏģÎ¹Î¸": 549,
      "00": 550,
      "ÏĥÏī": 551,
      "ĠÏĩÏī": 552,
      "ÏĦÎ·ÏģÎ¹Î¿": 553,
      "ti": 554,
      "ar": 555,
      "al": 556,
      "ĠÏĦÏģÎ¿": 557,
      "ÏĨÎ·": 558,
      "ĠÎºÎ±Î½Î¿Î½Î¹ÏĥÎ¼Î¿Ïħ": 559,
      "ÏĥÎ¿Î½": 560,
      "Ġ%": 561,
      "Î¼ÎµÎ½Î¿Ïħ": 562,
      "ĠÏĢÏģÎ¿Î¹Î¿Î½": 563,
      "ÏĩÎ¿ÏħÎ½": 564,
      "ÏĢÏĦÏī": 565,
      "ĠÎ²Î±Ïĥ": 566,
      "ĠÎ´Î¹Î±Î´Î¹ÎºÎ±Ïĥ": 567,
      "ÏĦÎ¿ÏħÏĤ": 568,
      "ÏĦÎ·ÏĤ": 569,
      "ĠÏħÏĢÎ·": 570,
      "ĠÎ±ÏģÎ¹Î¸": 571,
      "Î¼ÎµÎ¹": 572,
      "Î¼Î¿ÏĤ": 573,
      "Î¹ÏīÎ½": 574,
      "ÏĦÎ¹ÎºÎµÏĤ": 575,
      "ÎºÎµÎ¹": 576,
      "Ġ_": 577,
      "ĠÎ´ÏħÎ½Î±": 578,
      "ÏĢÎ·ÏĤ": 579,
      "Î¼Î±ÏĦÎ¿ÏĤ": 580,
      "ĠÏĢÎ»Î±": 581,
      "Î½Î¿Î¼": 582,
      "ĠÎ¿ÏĢ": 583,
      "ĠÏĢÏģÎ¿ÏĤ": 584,
      "ÏĦÎ±Î½": 585,
      "ĠÎ´Î¹Îµ": 586,
      "ÏĦÎµÎ»Îµ": 587,
      "Î»Ïī": 588,
      "ĠÎµÎ¾Î±": 589,
      "ĠÏĢÏģÎ¿Î²": 590,
      "Ġf": 591,
      "ĠÎ±ÏħÏĦÎ¿": 592,
      "or": 593,
      "Î¾Îµ": 594,
      "Ġ12": 595,
      "ĠÏĥÏĦÎ¿Î½": 596,
      "ĠÎµÏĩÎµÎ¹": 597,
      "ĠÏĢÎµÏģÎ¹Î¿": 598,
      "Î³Î¿Ïħ": 599,
      "ÏĨÎ¿Ïģ": 600,
      "Î¸Î·ÎºÎµ": 601,
      "Î»ÎµÏħ": 602,
      "ĠÎµÎ¹Ïĥ": 603,
      "ĠâĢĶ": 604,
      "Î½ÏīÎ½": 605,
      "ÏĦÎ·ÏĥÎ·": 606,
      "ĠÎµÏĢÎ¹ÏĩÎµÎ¹": 607,
      "ĠÎµÎµ": 608,
      "ĠÎ¿Ïħ": 609,
      "ÏĩÎ·": 610,
      "ÎºÏħ": 611,
      "ĠÎµÏĢÎ¹ÏĩÎµÎ¹ÏģÎ·": 612,
      "Î¹ÎºÎµÏĤ": 613,
      "Ġ11": 614,
      "Î¼ÏīÎ½": 615,
      "Ġg": 616,
      "ĠÎºÎ±Î¸Îµ": 617,
      "Î¾Ïħ": 618,
      "ĠÎ±ÏģÎ¸ÏģÎ¿Ïħ": 619,
      "Ġr": 620,
      "Î¹ÎµÏĤ": 621,
      "Î¹Î¶": 622,
      "ĠÏħÏĢÎ·ÏģÎµ": 623,
      "ĠÏĢÏģÏīÏĦÎ¿": 624,
      "Î´Ïħ": 625,
      "Î²Î±Î»Î»Î¿": 626,
      "ĠÎ±ÏĨÎ¿ÏģÎ±": 627,
      "ĠÎ²Î±": 628,
      "Î»Î¿Î³Î·": 629,
      "Î¸ÎµÏĥÎ·": 630,
      "ĠÏħÏĢÎµ": 631,
      "Ġ'": 632,
      "ĠÏĦÏģÎ¿ÏĢÎ¿": 633,
      "ĠÎ¹ÏĥÏĩÏħ": 634,
      "ĠÏĥÎºÎµ": 635,
      "Î²Î±Ïĥ": 636,
      "ĠÏĥÏĩÎµÏĦÎ¹ÎºÎ±": 637,
      "is": 638,
      "Î¼Î±ÏĦÏīÎ½": 639,
      "ÏģÎµÏħ": 640,
      "ĠÎ³Îµ": 641,
      "ÎºÎ·": 642,
      "Ġ]": 643,
      "ĠÏĥÏħÎ³": 644,
      "Ġ[": 645,
      "ĠÏĢÎ»Î±Î¹Ïĥ": 646,
      "ĠÎ¹Î´": 647,
      "ĠÏĥÏħÎ¼ÏĨÏīÎ½Î±": 648,
      "ĠÎµÏĢÎ¹ÏĦÏģÎ¿ÏĢÎ·ÏĤ": 649,
      "ĠâĢĵ": 650,
      "Ġv": 651,
      "ĠÎ¼ÎµÏĦÎ±Î¾Ïħ": 652,
      "ĠÎ±ÏħÏĦÎ·": 653,
      "Î¹ÏĥÏĦÎ¿": 654,
      "as": 655,
      "ĠÏĥÏħÏĥ": 656,
      "Î»ÎµÏĤ": 657,
      "ĠÏĢÎµÏģÎ¹ÏĢÏĦÏī": 658,
      "ĠÎ¿ÏĢÎ¿Î¹Î¿": 659,
      "Î³Î±": 660,
      "ĠÏĢÎ±ÏģÎµ": 661,
      "ÏĨÎµÏħ": 662,
      "ÏĦÏģÎ±": 663,
      "ĠÏĩÎ±": 664,
      "ĠÏĢÏģÎ¿Î²Î»Îµ": 665,
      "ĠÎ»Î±": 666,
      "ch": 667,
      "ĠÎºÎ±Î¸Î¿": 668,
      "ÏĢÎ¿Ïħ": 669,
      "ÏĥÎ¹Î±ÏĤ": 670,
      "Î½Î¿ÏĤ": 671,
      "Î²ÏģÎ¹Î¿Ïħ": 672,
      "ĠÎ±Î½ÏĦÎ¹": 673,
      "ĠÏĥÏħÎ¼Î²Î¿ÏħÎ»Î¹Î¿Ïħ": 674,
      "ĠÎ½": 675,
      "Î¸Ïħ": 676,
      "ÏĦÎ¿ÏħÎ½": 677,
      "Ġ15": 678,
      "ÏģÎ¿ÏĤ": 679,
      "Î³Îµ": 680,
      "ĠÎ¿ÏĢÎ¿Î¹": 681,
      "ÎµÏģÎ³": 682,
      "Î»Î±Î¼Î²Î±": 683,
      "ĠÎ±Î½Î±Î³": 684,
      "Î»Î¿ÏĤ": 685,
      "ÏĦÎµÎ»ÎµÏĥ": 686,
      "ĠÎ¿ÏĢÏīÏĤ": 687,
      "ĠÏĢÏģÎ¿ÏĥÏĨÎµÏħ": 688,
      "ĠÎ³ÎµÎ½": 689,
      "ĠÎµÎ¼ÏĢÎ¿": 690,
      "Î¸Î½": 691,
      "ĠÏĥÏħÎ½Î±": 692,
      "Ġn": 693,
      "ÎºÎµÏħ": 694,
      "ur": 695,
      "ÏĦÎ¹ÎºÎ¿Ïħ": 696,
      "Ġde": 697,
      "ÎºÏĦÎ·": 698,
      "ĠÎ±Î»Î»Î±": 699,
      "Î½ÏĦÎ±Î¹": 700,
      "Î¾ÎµÎ¹ÏĤ": 701,
      "ĠÎµÏĢÎ¹Ïĥ": 702,
      "ÏģÎ¿ÏħÎ½": 703,
      "ĠÎ¿ÏģÎ³": 704,
      "ÏĢÎ¹Ïĥ": 705,
      "ÏĥÏĦÎµ": 706,
      "ÏĢÏģÎ¿": 707,
      "ĠÏħÏĢÎ±": 708,
      "ÏģÎ±Ïĥ": 709,
      "Î»ÎµÎ³": 710,
      "ÏīÏĥÎ·": 711,
      "ĠÏĢÏģÎ±Î³Î¼Î±": 712,
      "ĠÎ±Î³Î¿": 713,
      "ĠÎµÏĢÎ±": 714,
      "Î³ÏīÎ½": 715,
      "Î´ÎµÎ¹": 716,
      "Ġh": 717,
      "ĠÎ´Î¹Î¿": 718,
      "Î²Î¿": 719,
      "ĠÎ¶Î·": 720,
      "ĠÎ±Î¾": 721,
      "Î»Î¹Ïĥ": 722,
      "ÏĦÎ±ÏĤ": 723,
      "ÏģÎµÏĤ": 724,
      "Î¼ÎµÎ½ÎµÏĤ": 725,
      "ĠÏĢÏģÎ¿ÏĥÏī": 726,
      "ĠÎ¼ÏĢÎ¿ÏģÎµÎ¹": 727,
      "ia": 728,
      "om": 729,
      "Ġ13": 730,
      "ĠÎµÏĩÎ¿ÏħÎ½": 731,
      "ĠÏĢÎ»Î±Î¹ÏĥÎ¹Î¿": 732,
      "ĠÏĥÏħÎ½Î¿": 733,
      "ÏģÏĦÎ·Î¼Î±": 734,
      "ÏĥÎ¹Î¼Î¿": 735,
      "ÏĩÏģÎµ": 736,
      "ĠÏĨÎ¿": 737,
      "ĠÏĢÎ±ÏģÎ¿Ïħ": 738,
      "Î¿Îº": 739,
      "Î³ÏģÎ±Î¼": 740,
      "ĠÏĢÎ¿ÏĥÎ¿": 741,
      "ĠÎ½Î¿Î¼Î¿": 742,
      "ĠÏħÏĢÎ¿ÏĩÏģÎµ": 743,
      "ĠÎ¿Î¹ÎºÎ¿": 744,
      "ĠÏĥÏĦÎ¿Î¹ÏĩÎµÎ¹": 745,
      "ĠÎµÎ¾Îµ": 746,
      "ĠÎ¿ÏģÎ¹Ïĥ": 747,
      "Î»Î»Î±": 748,
      "Î¼ÎµÎ½Î·ÏĤ": 749,
      "Î¸Î¿ÏħÎ½": 750,
      "Î²Îµ": 751,
      "ÎºÎ¿Î»Î¿Ïħ": 752,
      "ÏģÎ¿ÏħÏĤ": 753,
      "el": 754,
      "ĠÎ¿ÏĥÎ¿Î½": 755,
      "ĠÎ±Î½Î±ÏĨÎµ": 756,
      "ĠÎµÎ½ÏīÏĥÎ·ÏĤ": 757,
      "ĠÏħÏĢÎ·ÏģÎµÏĥÎ¹": 758,
      "Ġ\"": 759,
      "Ġ14": 760,
      "ĠÎ±ÏĢ": 761,
      "Î³Î·ÏĤ": 762,
      "Ġ17": 763,
      "ĠÏī": 764,
      "Î¼Î±Î½": 765,
      "Î»Î»Î·": 766,
      "Ġ00": 767,
      "ĠÎµÎ»ÎµÎ³": 768,
      "ÏĩÎ±Î½": 769,
      "ĠÎ¼ÎµÎ»Î·": 770,
      "Î¼Î²ÏģÎ¹Î¿Ïħ": 771,
      "at": 772,
      "Ġj": 773,
      "Ġ16": 774,
      "ĠÎ¿Î´Î·Î³Î¹Î±ÏĤ": 775,
      "ĠÏĢÎµÏģÎ¹ÏĢÏĦÏīÏĥÎ·": 776,
      "Î³ÏīÎ³Î·ÏĤ": 777,
      "ĠÎ±ÏĢÎ±Î¹": 778,
      "ÏĦÎ±ÏĥÎ·": 779,
      "ĠÏħÏĢÎ¿ÏĪÎ·": 780,
      "Î½Î¿Ïħ": 781,
      "ÏĩÎµÎ¹Î±": 782,
      "Î¿ÏĤ": 783,
      "ĠÏĢÎ±ÏģÎ±ÏģÏĦÎ·Î¼Î±": 784,
      "ĠÏĨ": 785,
      "Ġk": 786,
      "ĠÎ´Î¹ÎºÎ±Î¹Ïī": 787,
      "ĠÎºÎµ": 788,
      "ĠÎµÎ¹Î´Î¹Îº": 789,
      "ĠÏĥÏħÏĥÏĦÎ·Î¼Î±": 790,
      "un": 791,
      "ÎºÏģÎ±": 792,
      "ÏĢÎ¿Î¹Î·ÏĥÎ·": 793,
      "ĠÎ¿ÏģÎ³Î±Î½": 794,
      "ĠÎµÎ¸Î½": 795,
      "ĠÏĢÎ»Î·ÏģÎ¿": 796,
      "ĠÎµÎ¹ÏĥÎ±": 797,
      "Î¼Î¹": 798,
      "ĠÎµÏĨÎ±ÏģÎ¼Î¿Î³Î·": 799,
      "ĠÎµÏħÏģÏīÏĢÎ±Î¹ÎºÎ·ÏĤ": 800,
      "ot": 801,
      "ĠÏĩÏģÎ·ÏĥÎ¹Î¼Î¿": 802,
      "Î³ÏģÎ±ÏĨ": 803,
      "ĠÎ±Î³Î¿ÏģÎ±": 804,
      "Î½ÎµÎ¹": 805,
      "Î±ÏĤ": 806,
      "it": 807,
      "ĠÎ´Î¹ÎºÎ±ÏĥÏĦÎ·ÏģÎ¹Î¿": 808,
      "ĠÎ·Î¼Îµ": 809,
      "ĠÎºÏģÎ±ÏĦÎ·": 810,
      "ĠÎ³ÏģÎ±": 811,
      "ĠÏĦÏģÎ¹": 812,
      "ÏĦÎ¹Ïĥ": 813,
      "Î¹ÏģÎµ": 814,
      "ic": 815,
      "Î²Î±ÏĥÎ·": 816,
      "Î¼Î±ÏĦÎ¿": 817,
      "ĠÏĥÎºÎµÏĪÎ·": 818,
      "ĠÎ½Îµ": 819,
      "ĠÎ¼Î¹Î±": 820,
      "ĠÎ±ÏĥÏĨÎ±": 821,
      "ÏĦÎµÏħ": 822,
      "ÏĩÏī": 823,
      "ĠÏĥÎºÎ¿": 824,
      "Ġ30": 825,
      "ĠÏĢÏģÎ¿Îµ": 826,
      "ĠÏĢÎ±ÏģÎ¿": 827,
      "ĠÎ±ÏĢÎ¿ÏĨÎ±ÏĥÎµÏīÏĤ": 828,
      "ÏĥÎ±ÏĤ": 829,
      "ÏĦÎµÏģÎ¿": 830,
      "ÏĦÎ·ÏĦÏīÎ½": 831,
      "ÏĥÏĦÎ¿": 832,
      "ĠÏĢÏģÎ¿ÏĥÏĨÎµÏħÎ³Î¿Ïħ": 833,
      "ĠÏĥÏħÎ½Î¸Î·Îº": 834,
      "ĠÏĥÎ·Î¼ÎµÎ¹": 835,
      "ol": 836,
      "ĠÎµÏģÎ³Î±Ïĥ": 837,
      "ĠÎµÎ¾Î¿": 838,
      "Î¼Î¹Ïĥ": 839,
      "Ġ18": 840,
      "ĠÎ¿Î¹ÎºÎ¿Î½Î¿Î¼": 841,
      "Î¿ÏħÎ½ÏĦÎ±Î¹": 842,
      "ÏĢÎ¹": 843,
      "ĠÏĢÏģÎ¿ÎºÎµÎ¹": 844,
      "Ġ21": 845,
      "20": 846,
      "ĠÎºÎ±Î¸ÏīÏĤ": 847,
      "Î½ÎµÏĦÎ±Î¹": 848,
      "Ġ25": 849,
      "ĠÏĦÎ¼Î·": 850,
      "ĠÏĢÏģÎ¿Ïħ": 851,
      "he": 852,
      "ĠÏĢÏģÎ¿Î³ÏģÎ±Î¼": 853,
      "Ġ198": 854,
      "ÏĦÎ¹Î±": 855,
      "Î»Î±Ïĥ": 856,
      "ĠÏĢÏģÎ¿ÏĥÏĨÏħ": 857,
      "ĠÏĢÎ»Î·ÏģÎ¿ÏĨÎ¿": 858,
      "ĠÎ±ÏĢÎ¿ÏĦÎµÎ»ÎµÏĥ": 859,
      "ÏģÎ³Î±Ïĥ": 860,
      "Î»Î·ÏĤ": 861,
      "Î¹Î½ÎµÎ¹": 862,
      "ÏĥÎºÎµÏħ": 863,
      "Ġ31": 864,
      "ÏĦÎµÏģ": 865,
      "ĠÎ±Î½ÏĦÎ±": 866,
      "ĠâĢĻ": 867,
      "ĠÎ±Î½Ïī": 868,
      "Î»Î¿ÏħÏĤ": 869,
      "Ġin": 870,
      "ÏĦÏīÏĤ": 871,
      "ĠÎºÏģÎ¹": 872,
      "ĠÎµÎºÏĦÎ¹": 873,
      "ĠÏĢÏģÎ¿ÏħÏĢÎ¿": 874,
      "ĠÏĨÏħ": 875,
      "Î¾Î·ÏĤ": 876,
      "ĠÎ´ÏħÎ½Î±ÏĦÎ¿": 877,
      "ÏģÎ¹Î¿": 878,
      "ĠÎµÏĦÎ±Î¹": 879,
      "ĠÎ±ÏģÎ¼Î¿": 880,
      "ÏĢÏģÎ¿ÏĥÏī": 881,
      "Ġw": 882,
      "ÏĦÎ·ÏģÎ¹Î¿Ïħ": 883,
      "Î¼ÎµÏĤ": 884,
      "Î½ÎµÏĤ": 885,
      "Ġ29": 886,
      "ĠÎ´ÏģÎ±Ïĥ": 887,
      "ag": 888,
      "ÏĦÎ¹Î¿": 889,
      "Î¹ÏĥÏĦÎ±": 890,
      "ĠÎ»Î±Î¼Î²Î±": 891,
      "ĠÎµÎ¿Îº": 892,
      "tion": 893,
      "ĠÎµÎ½Î½Î¿": 894,
      "ĠÎ´Î¹ÎºÎ±Î¹Î¿": 895,
      "ĠÎ¸ÎµÏĥ": 896,
      "os": 897,
      "ĠÎ´Î¹Î±ÏĦÎ±Î¾ÎµÎ¹ÏĤ": 898,
      "Î´ÏīÎ½": 899,
      "ĠÎ¿ÏĢÎ¿Î¹ÎµÏĤ": 900,
      "Î½Î¹Î±": 901,
      "ÏģÎ¹ÏīÎ½": 902,
      "ĠÎ´ÎµÎ´Î¿": 903,
      "ĠÏĩÎ±ÏģÎ±": 904,
      "ĠÏĦÏħ": 905,
      "Î¹Î½Î·": 906,
      "ĠÎµÏĢÎ¹ÏĥÎ·": 907,
      "ĠÎºÎ±ÏĦÎ¿": 908,
      "ĠÏĦÎ¿Î¼Îµ": 909,
      "Î¼Î·ÏĤ": 910,
      "ĠÏĢÎµÏģÎ¹Î»Î±Î¼Î²Î±": 911,
      "ĠÏĥÏĦÎ¿Î¹ÏĩÎµÎ¹Î¿": 912,
      "Î¹ÏĥÎ¼Î¿Ïħ": 913,
      "us": 914,
      "ĠÎ±Î½ÏĦÎ¹Îº": 915,
      "et": 916,
      "ĠÎ±ÎºÎ¿Î»Î¿Ïħ": 917,
      "ĠÎµÏīÏĤ": 918,
      "ÏģÎ¹Î±ÏĤ": 919,
      "Î²Î»Î·": 920,
      "ĠÏĥÏĦÎ¿Î¹ÏĩÎµÎ¹Î±": 921,
      "ĠÎ½Î¿Î¼Î¿Î¸Îµ": 922,
      "ĠÎ´ÏģÎ±ÏĥÏĦÎ·ÏģÎ¹Î¿": 923,
      "Î»Î¹Î¿Ïħ": 924,
      "ĠÏĦÎµÏĩ": 925,
      "ÏĦÎ·ÏĦÎµÏĤ": 926,
      "ĠÎ´Î¹Î±Î´Î¹ÎºÎ±ÏĥÎ¹Î±": 927,
      "Î¹ÏĥÏĩÏħ": 928,
      "ĠÎ¼ÎµÏĦÏģÎ±": 929,
      "ĠÎ´Î¹Î¿Î¹ÎºÎ·": 930,
      "ĠÏĥÏħÎ¼ÏĨÏīÎ½Î¹Î±ÏĤ": 931,
      "ÏĥÎ±Î½": 932,
      "Ġ23": 933,
      "ĠÎºÏģÎ±ÏĦÎ¿ÏĤ": 934,
      "ĠÎ´Î¹Î±Ïĥ": 935,
      "ĠÏĢÎ¿Î»Î¹": 936,
      "ĠÏĢÏģÎ¿ÏĥÏĦÎ±": 937,
      "ĠÎµÎ½Î¹ÏĥÏĩÏħ": 938,
      "Ġ24": 939,
      "ĠÎ²Î±ÏĥÎµÎ¹": 940,
      "ÏĦÏģÎµ": 941,
      "ĠÏĢÎ±ÏģÎ¿Î½": 942,
      "ĠÎºÎ¿": 943,
      "Î¸Î¿": 944,
      "Ġ26": 945,
      "ÏĢÏīÎ½": 946,
      "Ġ22": 947,
      "ent": 948,
      "ÏĥÎ¹Î¿": 949,
      "ÏĢÏĦÎµÎ¹": 950,
      "Î¶ÎµÏĦÎ±Î¹": 951,
      "ĠÏħÏĢÎµÏģ": 952,
      "ĠÏĥÏħÎ¼ÏĢÎµ": 953,
      "ak": 954,
      "am": 955,
      "ed": 956,
      "ÏĦÎµÏģÎ±": 957,
      "Î¸Î±": 958,
      "ÎºÎµÎºÏģÎ¹": 959,
      "Î¼Î¹Î±": 960,
      "ĠÎ¸ÎµÏī": 961,
      "Î¼Î¿Î¹": 962,
      "ĠÎµÎ½ÎµÏģÎ³": 963,
      "ÎµÏħ": 964,
      "ĠÎ´ÎµÏħ": 965,
      "ÏĦÎ·ÏģÎ·": 966,
      "ÏĩÎ¿Ïħ": 967,
      "ĠÏĩÎ¿": 968,
      "Ġ90": 969,
      "ĠÎµÏĢÎ¿": 970,
      "ĠÎ´Î·Î¼Î¿ÎºÏģÎ±": 971,
      "ĠÎ´Î¹ÎµÏħ": 972,
      "Î³Î³Îµ": 973,
      "10": 974,
      "ĠÎ±ÏħÏĦÎµÏĤ": 975,
      "ĠÎ³Î½Ïī": 976,
      "ÎºÎ±ÏĦÎ±": 977,
      "Î¶ÎµÎ¹": 978,
      "ĠÎ±ÏģÏĩÎ·": 979,
      "ĠÏĢÎµÏģÎ¹Îµ": 980,
      "ĠÏħÏĢÎ¿ÏĩÏģÎµÏī": 981,
      "ĠÎµÎºÎ´Î¿": 982,
      "ÎµÎ¹Î±": 983,
      "ĠÏĩÎ±ÏģÎ±ÎºÏĦÎ·": 984,
      "ÏģÎ¹Î¶ÎµÏĦÎ±Î¹": 985,
      "ĠÎ¼ÎµÎ»Î¿ÏĤ": 986,
      "Î¸Î·ÎºÎ±Î½": 987,
      "ÏĦÏģ": 988,
      "Ġ*": 989,
      "ÏģÎ¹ÎµÏĤ": 990,
      "ĠÎ´Î¹": 991,
      "ĠÎºÎ±ÏĦ": 992,
      "il": 993,
      "ĠÎ»Î·": 994,
      "ĠÏĢÏģÎ¿Î¹Î¿Î½ÏĦÎ±": 995,
      "ĠÏĥÏĦÎ¿ÏħÏĤ": 996,
      "Î²Î·": 997,
      "Î½Î·ÏĤ": 998,
      "ĠÎ±ÏģÏĩÎµÏĤ": 999,
      "Ġ27": 1000,
      "Ġre": 1001,
      "Ã¦": 1002,
      "ĠÎ¿Î´Î·Î³Î¹Î±": 1003,
      "ÎµÎ¹Î¿": 1004,
      "ÎµÏīÎ½": 1005,
      "ĠÎ±ÏĢÎ¿ÏĦÎµ": 1006,
      "ĠÎºÎµÏĨÎ±": 1007,
      "ĠÏĥÏħÎ¼Î²Î±Ïĥ": 1008,
      "ĠÏĦÎ¿Î¼ÎµÎ±": 1009,
      "ĠÎ±ÏĢÎ¿Ïģ": 1010,
      "ĠÏĩÏģÎ·Î¼Î±ÏĦÎ¿": 1011,
      "Ġ28": 1012,
      "ÏĨÎ¿ÏģÎ±ÏĤ": 1013,
      "Î³ÏīÎ³Î·": 1014,
      "ÏĩÎ±": 1015,
      "Î´ÏģÎ¿": 1016,
      "ĠÏĥÏħÎ¼Î²Î¿ÏħÎ»Î¹Î¿": 1017,
      "ÏģÎ¹ÏĤ": 1018,
      "ĠÎ¼Î¿Î½Î¿": 1019,
      "ĠÎ±Î»Î¹Îµ": 1020,
      "ÎµÎ¹ÏĦÎ±Î¹": 1021,
      "Î»Î¿Î³Î¹Î±": 1022,
      "ĠÏĩÎ¿ÏģÎ·": 1023,
      "Î»Î¹Î±": 1024,
      "ĠÎ´Î±Ïĥ": 1025,
      "ÏĩÎµÎ¹ÏģÎ¹": 1026,
      "ĠÎ´Î¹ÎºÎ±Î¹Î¿Ïħ": 1027,
      "Î»Î·ÏģÏī": 1028,
      "ÏĩÏīÎ½": 1029,
      "Î¶Î¿": 1030,
      "ĠÎµÎ´Î±": 1031,
      "ÏĥÏĦÎ±ÏĥÎ·": 1032,
      "ĠÎ´Î¹ÎºÎ±ÏĥÏĦÎ·ÏģÎ¹Î¿Ïħ": 1033,
      "ĠÏĤ": 1034,
      "ĠÏĥÏħÎ³ÎºÎµÎºÏģÎ¹": 1035,
      "ĠÎµÏĢÎ¹ÏĥÎ·ÏĤ": 1036,
      "ÏĦÎ¿ÏħÏģÎ³": 1037,
      "Ġex": 1038,
      "Ġthe": 1039,
      "ĠÎ¹Î±": 1040,
      "Î½Î¿Î½ÏĦÎ±Î¹": 1041,
      "ri": 1042,
      "ĠÎµÎ½Î½Î¿Î¹Î±": 1043,
      "ÏĩÎ·ÏĤ": 1044,
      "ĠÎ¼ÎµÎ»ÏīÎ½": 1045,
      "ĠÎ±Îµ": 1046,
      "ĠÎ¼ÎµÏĦ": 1047,
      "ĠÏħÏĢÎ¿Î¸ÎµÏĥÎ·": 1048,
      "ĠÎ±Î¹ÏĦÎ¹Î¿": 1049,
      "ÎµÎ¹Î¼ÎµÎ½Î¿": 1050,
      "ĠÎ½Î¿Î¼": 1051,
      "ÏĢÎ¹Î½": 1052,
      "ÏĥÏĦÎ·": 1053,
      "ĠÎ´Î¹Î±Î´Î¹ÎºÎ±ÏĥÎ¹Î±ÏĤ": 1054,
      "ĠÎ´Î¹Î±Ïģ": 1055,
      "ĠÏģÏħ": 1056,
      "ĠÏĨÎµ": 1057,
      "ĠÎ²Îµ": 1058,
      "ĠÎ¼ÎµÎ¹": 1059,
      "ĠÎºÎµÏĨÎ±Î»Î±": 1060,
      "ÏĥÎµÏĤ": 1061,
      "ĠÎ±Î½Îµ": 1062,
      "Î¼Î¿ÏħÏĤ": 1063,
      "ac": 1064,
      "ÏĦÎµÏģÏī": 1065,
      "ĠÎ¿ÏĦÎ±Î½": 1066,
      "ÏĢÏĦÏħ": 1067,
      "ĠÎ»Î¿Î³": 1068,
      "em": 1069,
      "ĠÎ±ÎºÏħ": 1070,
      "ĠÎµÏĢÎµ": 1071,
      "ÏģÏĦÎ¹": 1072,
      "eb": 1073,
      "Î¶Î¿Î½ÏĦÎ±Î¹": 1074,
      "ĠÎ±Î¹ÏĦÎ·ÏĥÎ·": 1075,
      "Î¼ÎµÎ½ÏīÏĤ": 1076,
      "ĠÎµÎºÏĦÎ¿ÏĤ": 1077,
      "ĠÎºÎ±Î¸Î¿ÏģÎ¹Ïĥ": 1078,
      "Î»Î¹ÎºÎ·": 1079,
      "ĠÎºÏģÎ±ÏĦÏīÎ½": 1080,
      "ĠÎ¼ÏĢÎ¿ÏģÎ¿ÏħÎ½": 1081,
      "ĠÏĢÏģÎ¿ÏĥÏĨÎµÏħÎ³Î¿ÏħÏĥÎ±": 1082,
      "ĠÏħÏĢÎ±Ïģ": 1083,
      "ĠÎ±Î½ÏĦ": 1084,
      "Ġof": 1085,
      "ro": 1086,
      "ĠÎ±ÏĢÎ¿Îº": 1087,
      "Î±ÏģÎ¹Î¿Ïħ": 1088,
      "Ġii": 1089,
      "ĠÎºÎ±Î½Î¿Î½Î¹ÏĥÎ¼Î¿ÏĤ": 1090,
      "ĠÎµÏĨÎ¿": 1091,
      "ĠÎµÏģÎ³Î±": 1092,
      "ing": 1093,
      "ĠÎ±Î¼Îµ": 1094,
      "ĠÎ³Î±": 1095,
      "ĠÎ»ÎµÎ¹": 1096,
      "ĠÏĨÎ¿ÏģÎ¿": 1097,
      "ĠÎ³ÏģÎ±Î¼": 1098,
      "ÏĦÎ·ÏĥÎµÎ¹ÏĤ": 1099,
      "ĠÎºÎ¿Î¹Î½Î¿ÏĦÎ·ÏĦÎ±ÏĤ": 1100,
      "ĠÏĩÏīÏģÎ¹ÏĤ": 1101,
      "Î¾ÎµÏīÎ½": 1102,
      "ĠÏĥÏħÎ»": 1103,
      "ÏģÎ¹Î¶Î¿Î½ÏĦÎ±Î¹": 1104,
      "ĠÏĦÏģÎ¿ÏĢÎ¿ÏĢÎ¿Î¹Î·": 1105,
      "ĠÎµÏĨÎ±ÏģÎ¼Î¿Î³Î·ÏĤ": 1106,
      "ĠÎºÎ±Î½Î¿Î½Î¹ÏĥÎ¼Î¿": 1107,
      "ĠÎºÎ±Î»Ïħ": 1108,
      "ĠÎµÎºÏĢÏģÎ¿ÏĥÏī": 1109,
      "Î»ÎµÎº": 1110,
      "Ġan": 1111,
      "ĠÎ·Î¼ÎµÏģÎ¿": 1112,
      "ĠÏĢÏģÎ¿Î¹Î¿Î½ÏĦÏīÎ½": 1113,
      "ĠÎµÎ¾Î·ÏĤ": 1114,
      "ĠÏĥÏħÎ¼ÏĨÏīÎ½Î¹Î±": 1115,
      "ÏĢÏģÎ±": 1116,
      "ĠÎ±ÏĥÎºÎ·": 1117,
      "ÏĢÏĦÎ¿": 1118,
      "ĠÏĥÏħÎ¼Î¼Îµ": 1119,
      "ĠÏĢÏģÎ¿ÏĦÎ±ÏĥÎ·": 1120,
      "ÎºÏīÎ½": 1121,
      "ĠÎºÏħÎº": 1122,
      "ĠÏĢÏģÎ±Î³Î¼Î±ÏĦÎ¿": 1123,
      "ĠÎ±Î½Î±ÏĢÏĦÏħ": 1124,
      "ĠÎµÎ³ÎºÏģÎ¹": 1125,
      "ÏĥÏĦÏī": 1126,
      "Î´Î¿Ïħ": 1127,
      "ĠÎ±Î¾Î¹Î¿": 1128,
      "ĠÎ»ÎµÎ¹ÏĦÎ¿ÏħÏģÎ³": 1129,
      "Î¹Î¶ÎµÎ¹": 1130,
      "ÏĥÎ¿ÏħÎ½": 1131,
      "Î¹ÏīÏĤ": 1132,
      "ĠÏĢÎµÏģÎ¹Î¿ÏģÎ¹Ïĥ": 1133,
      "Ġ;": 1134,
      "ĠÎµÎºÏĦÎ¹Î¼Î·": 1135,
      "ĠÎºÏģÎ±ÏĦÎ¿ÏħÏĤ": 1136,
      "ĠÎ»Îµ": 1137,
      "ĠÎµÎ½ÏĦÎ¿ÏĤ": 1138,
      "ĠÎ³ÎµÏī": 1139,
      "ÏĢÏĦÎµ": 1140,
      "ĠÎ±ÏĨÎµ": 1141,
      "ĠÏħÏĢÎ¿Ïĥ": 1142,
      "ĠÎºÎ¿Î¹Î½Î¿Î²Î¿ÏħÎ»": 1143,
      "Î»ÎµÎ¿Î½": 1144,
      "ĠÎµÏĢÎ¹ÏĢÎµ": 1145,
      "Î»Î¿ÏħÎ½": 1146,
      "ĠÏħÏĢÎ·ÏģÎµÏĥÎ¹ÏīÎ½": 1147,
      "ĠÎ´ÏħÎ¿": 1148,
      "ĠÏĢÏģÎ¿ÏĥÎ±": 1149,
      "ÏĩÎ¿Î½": 1150,
      "ĠÎ²Î±ÏĥÎ·": 1151,
      "ĠÎ¼ÎµÏģÎ·": 1152,
      "ĠÏĦÎ¼Î·Î¼Î±": 1153,
      "ĠÏĨÎ±": 1154,
      "ÎºÎ¿Ïħ": 1155,
      "ĠÏĥÎ·Î¼ÎµÎ¹Î¿": 1156,
      "Î³ÎµÎ½": 1157,
      "ĠÎ¼ÎµÏģÎ¿ÏĤ": 1158,
      "ĠÎ´Î·Î¼Î¿ÏĥÎ¹": 1159,
      "ĠÏĢÏģÎ¿ÎºÏħ": 1160,
      "ĠÎ±Î¼": 1161,
      "ĠÎºÎ±ÏĦÎ±ÏĥÎºÎµÏħ": 1162,
      "ad": 1163,
      "ĠÎ±ÎºÏħÏģÏī": 1164,
      "Î³ÏģÎ±ÏĨÎ·": 1165,
      "ÏĢÎ¹ÏĥÏĦÏī": 1166,
      "ĠÏĥÎ·Î¼Î±": 1167,
      "ĠÏĥÏħÎ¼ÏĢÎµÏģÎ¹": 1168,
      "ĠÎµÏģÎµÏħ": 1169,
      "ation": 1170,
      "ĠÏħÏĢÎ·ÏģÎµÏĥÎ¹ÎµÏĤ": 1171,
      "ĠÎ»Î¹": 1172,
      "ĠÏĥÏħÎ½Î´Îµ": 1173,
      "ĠÎµÎ½Î´Î¹Î±": 1174,
      "le": 1175,
      "ĠÎµÎ»Î±": 1176,
      "ĠÎ±ÏħÏĦÎ·ÏĤ": 1177,
      "Ġ40": 1178,
      "ÏģÎµÎ¹Î±": 1179,
      "Î´Î¹": 1180,
      "ĠÎ¸ÎµÏĥÎ·": 1181,
      "Î¹ÏĥÎ¼Î¿": 1182,
      "ĠÎµÎºÎµÎ¹": 1183,
      "ÎºÎ·ÏĤ": 1184,
      "Î²Î±Î¹Î½ÎµÎ¹": 1185,
      "ĠÎ´ÎµÎºÎµ": 1186,
      "ÏĦÎ¹Î±ÏĤ": 1187,
      "ÏĦÎ¹Î¸Îµ": 1188,
      "ĠÎµÎ¹ÏĩÎµ": 1189,
      "Ġcom": 1190,
      "ĠÎºÎ¿Î¹Î½ÏīÎ½": 1191,
      "Î²Î¿Î»Î·": 1192,
      "ĠÎµÏģÏī": 1193,
      "ĠÎ¹Î´Î¹ÏīÏĤ": 1194,
      "ĠÎ·Î¼ÎµÏģÎ¿Î¼Î·": 1195,
      "ÏģÎ¿Î½ÏĦÎ±Î¹": 1196,
      "Î²Î¹": 1197,
      "ĠÎ±Î½Î±Î¹ÏģÎµ": 1198,
      "ĠÎµÎ½Î´Îµ": 1199,
      "ĠÏģÏħÎ¸": 1200,
      "ĠÎµÎ½Î¿ÏĤ": 1201,
      "ĠÎ±ÏĢÎ¿ÏĦÎµÎ»ÎµÏĥÎ¼Î±": 1202,
      "ĠÎ¹Î´Î¹Î¿": 1203,
      "ĠÎ±ÏħÏĦÏīÎ½": 1204,
      "ĠÏĥÏħÎ½ÎµÏģÎ³Î±Ïĥ": 1205,
      "ĠÏĥÎºÎ¿ÏĢÎ¿": 1206,
      "reak": 1207,
      "ut": 1208,
      "Î¾Î±": 1209,
      "ĠÎ±Î»Î»ÏīÎ½": 1210,
      "ĠÎµÎ±Î½": 1211,
      "ÏĦÎ¿Î¹": 1212,
      "ĠÏĢÏģÎ¿Î²Î»ÎµÏĢÎ¿": 1213,
      "Î¹Î½Î´Ïħ": 1214,
      "ĠÎ²Î±ÏĥÎ¹": 1215,
      "ĠÎ´ÎµÎºÎµÎ¼Î²ÏģÎ¹Î¿Ïħ": 1216,
      "ĠÎµÏĨÎ¿ÏĥÎ¿Î½": 1217,
      "ĠÎ´Î±": 1218,
      "Ġpag": 1219,
      "ĠÎ´Î¹Î±ÏģÎºÎµ": 1220,
      "ĠÏĢÏģÎ¿ÎºÎµÎ¹Î¼ÎµÎ½Î¿Ïħ": 1221,
      "ÏĢÎ¿ÏĦÎµ": 1222,
      "Î¸ÎµÎ½": 1223,
      "ÎºÎµÏĤ": 1224,
      "Î½Î±ÏĤ": 1225,
      "ÏĨÎµÎ¹": 1226,
      "ÏĢÎµÏĦÎ±Î¹": 1227,
      "ĠÎµÏĥÏī": 1228,
      "ĠÎºÎ¿Î¹Î½Î¿ÏĦÎ·ÏĦÏīÎ½": 1229,
      "Î¶Î·": 1230,
      "ĠÎ¿Î½Î¿": 1231,
      "ĠÎ¹Î´Î¹Î±": 1232,
      "Î¸ÎµÏĥÎµÎ¹ÏĤ": 1233,
      "ÏģÎ±ÏĤ": 1234,
      "op": 1235,
      "ĠÎµÏħÏģÏīÏĢÎ±Î¹ÎºÏīÎ½": 1236,
      "ec": 1237,
      "ĠÎµÏĥÏīÏĦÎµÏģ": 1238,
      "oc": 1239,
      "ebreak": 1240,
      "Ġpagebreak": 1241,
      "ĠÎµÏħÏģÏīÏĢÎ±Î¹ÎºÎ·": 1242,
      "ÏģÎ¸": 1243,
      "Î²ÎµÏģ": 1244,
      "ĠÎ¹Î¿Ïħ": 1245,
      "Î¾ÎµÏīÏĤ": 1246,
      "ĠÎ±Î»Î»Î¿": 1247,
      "ĠÎ±Î½Î±Î³ÎºÎ±": 1248,
      "ĠÎ¿Î»Î¿": 1249,
      "ĠÎµÎ¾ÎµÏĦÎ±": 1250,
      "Ã¸": 1251,
      "ĠÎ´Î¹Î±ÏĨÎ¿": 1252,
      "ĠÎ²Î¹Î¿": 1253,
      "ĠÏħÏĢÎ¿ÏĥÏĦÎ·ÏģÎ¹": 1254,
      "ĠÏĢÎ±ÏģÎ¿ÏħÏĥÎ±": 1255,
      "st": 1256,
      "ĠÎ±ÏħÏĦÎ±": 1257,
      "ÏĦÎµÏģÎ·": 1258,
      "Î¼ÎµÏģÎ¹": 1259,
      "Î³Î¿Î½": 1260,
      "ÏĩÎ¹": 1261,
      "ĠÏĩÏģÎ·ÏĥÎ¹Î¼Î¿ÏĢÎ¿Î¹": 1262,
      "Î¹ÏĥÏĦÎ¿Î¹": 1263,
      "ĠÎ±ÏĢÎµ": 1264,
      "Î½Î¿ÏħÎ½": 1265,
      "Î¼Î¿Ïģ": 1266,
      "ĠÎ±ÏħÏĦÎ¿Ïħ": 1267,
      "Î¸ÎµÏĥ": 1268,
      "ĠÎ¾": 1269,
      "ĠÏĥÏħÎ½Î¸Î·ÎºÎ·ÏĤ": 1270,
      "ĠÎ³ÎµÎ½Î¹ÎºÎ¿": 1271,
      "ĠÏīÏĥÏĦÎµ": 1272,
      "ĠÎ¹Î¿ÏħÎ½": 1273,
      "ĠÎµÏħÏģÏīÏĢÎ±Î¹ÎºÎ¿Ïħ": 1274,
      "ĠÎ·Î»ÎµÎº": 1275,
      "ĠÏĩÎ¿ÏģÎ·Î³Î·": 1276,
      "ĠÎ·ÏĦÎ±Î½": 1277,
      "ÏĪÎµÎ¹ÏĤ": 1278,
      "ĠÎ±Î½ÏĦÎ¹ÏĥÏĦÎ¿Î¹": 1279,
      "ĠÏĢÎ±ÏģÎ¿Î½ÏĦÎ¿ÏĤ": 1280,
      "ĠÎ±ÏĢÎ¿ÏģÏģÎ¹": 1281,
      "Î³Î³ÎµÎ»": 1282,
      "ai": 1283,
      "ĠÎ±ÏĥÏĨÎ±Î»Îµ": 1284,
      "ÏīÎ»Î·": 1285,
      "Î»ÏīÏĤ": 1286,
      "Ġx": 1287,
      "Î»Î±Î½": 1288,
      "ĠÎ±Î½Î±ÏĨÎµÏģÎ¿Î½ÏĦÎ±Î¹": 1289,
      "ĠÎ±Î´Îµ": 1290,
      "Î´Î·ÏĢÎ¿ÏĦÎµ": 1291,
      "ĠÎµÏĢÎ¹Îº": 1292,
      "ĠÏĢÎ¿Î»Ïħ": 1293,
      "ÎºÎ»Î·": 1294,
      "ĠÎ±ÏĢÎ¿Î´Îµ": 1295,
      "ĠÏĢÏģÎ¹": 1296,
      "ĠÏĩÏģÎ·Î¼Î±ÏĦÎ¿Î´Î¿": 1297,
      "ĠÎµÎ½Î´Î¹Î±ÏĨÎµ": 1298,
      "ĠÎ±ÏĢÎ¿ÎºÎ»ÎµÎ¹": 1299,
      "ĠÎ´Î¹Î±Î´Î¹Îº": 1300,
      "Ġ2009": 1301,
      "ĠÏĢÏģÏīÏĦÎ¿Î´Î¹Îº": 1302,
      "ÏĢÎ»Î·ÏģÏī": 1303,
      "ĠÏĢÎ¹": 1304,
      "ÏģÎ¹Î¶ÎµÎ¹": 1305,
      "Î²ÎµÏģÎ½Î·": 1306,
      "ÏģÎ·ÏĥÎ·": 1307,
      "ÏĨÎ±Î»Î¹": 1308,
      "ĠÎ·Î¼ÎµÏģÎ¿Î¼Î·Î½Î¹Î±": 1309,
      "30": 1310,
      "ĠÎ±Î½Î±Î³Î½Ïī": 1311,
      "ĠÏĢÎµÏģÎ¹Î¿Î´Î¿": 1312,
      "ĠÎ¼ÎµÎ³Î±": 1313,
      "Î»Î¿Î³Î¹ÎºÎ·": 1314,
      "Ġ50": 1315,
      "ĠÎ´ÎµÏĥ": 1316,
      "ay": 1317,
      "Ġu": 1318,
      "ĠÎµÎ¾Î¿Î´Î±": 1319,
      "ÏĩÎ¸ÎµÎ¹": 1320,
      "ĠÎ´Î·Î¼Î¿ÏĥÎ¹Î¿": 1321,
      "21": 1322,
      "Ġel": 1323,
      "ĠÎ±Î½ÏĦÎ±Î³ÏīÎ½": 1324,
      "Î»Î»Î¿Ïħ": 1325,
      "ĠÎµÏĦÎ·": 1326,
      "Ġdi": 1327,
      "ĠÎ¼ÎµÎ»Î¿ÏħÏĤ": 1328,
      "ĠÎ´Î¹Î±ÏĩÎµÎ¹ÏģÎ¹": 1329,
      "Ġ2003": 1330,
      "ĠÏĦÎµÏĩÎ½": 1331,
      "Ġeur": 1332,
      "ĠÎºÎ¹Î½Î´Ïħ": 1333,
      "and": 1334,
      "ĠÏĢÎ±ÏģÎ¿ÏħÏĥÎ±ÏĤ": 1335,
      "Ġ000": 1336,
      "ĠâĢĲ": 1337,
      "ÎºÎ¿Î¹": 1338,
      "ÏĦÎ·ÏĥÎ·ÏĤ": 1339,
      "ĠÎºÎ¹Î½Î·": 1340,
      "ĠÎ²ÎµÎ»": 1341,
      "ĠÎµÏģ": 1342,
      "ĠÎ»Î¿Î³Î¿": 1343,
      "ĠÎµÏĢÎ¹Î´Î¿": 1344,
      "Î»Î¹ÎºÎ¿": 1345,
      "ĠÎµÎ¹ÏĥÎ±Î³ÏīÎ³": 1346,
      "Ġ85": 1347,
      "Î½Î¹Ïĥ": 1348,
      "ĠÎµÏģÎ³Î±ÏĥÎ¹Î±ÏĤ": 1349,
      "ĠÎ²Î¿": 1350,
      "ĠÏĢÏģÎ¿ÏĥÏĨÏħÎ³Î·": 1351,
      "ÏģÎµÏĦÎ±Î¹": 1352,
      "ĠÏĢÏģÎ¿ÎºÏħÏĢÏĦÎµÎ¹": 1353,
      "ÏĨÎ¸ÎµÎ¹": 1354,
      "ĠÎ´Î¹Î±Î¸Îµ": 1355,
      "id": 1356,
      "Î¼ÎµÎ½Î¿ÏĤ": 1357,
      "Ġeu": 1358,
      "Î¸ÏħÎ½": 1359,
      "Î¾ÎµÎ¹": 1360,
      "Ġap": 1361,
      "ĠÎ±Î³Î¿ÏģÎ±ÏĤ": 1362,
      "ĠÎµÎ»": 1363,
      "Ġ39": 1364,
      "ĠÎ±Î½ÏĦÎ¹ÎºÎµÎ¹Î¼ÎµÎ½Î¿": 1365,
      "ÏĥÏĥÎ¿": 1366,
      "ĠÎ±Î»Î¹ÎµÏħ": 1367,
      "Ġ38": 1368,
      "ĠÎµÏģÏīÏĦÎ·Î¼Î±": 1369,
      "ĠÏĥÎ·Î¼Î±Î½": 1370,
      "Ġ2001": 1371,
      "ÏģÎ¼Î±Î½": 1372,
      "ter": 1373,
      "ĠÎµÏĨÎ·": 1374,
      "ul": 1375,
      "ĠÎµÎ´Î±ÏĨ": 1376,
      "ĠÏĢÎ»Î·ÏģÎ¿ÏĨÎ¿ÏģÎ¹ÎµÏĤ": 1377,
      "ĠÏĢÏģÎ¿ÏĥÎ²Î±Î»Î»Î¿": 1378,
      "ĠÎ´Î¹Î±ÏģÎºÎµÎ¹Î±": 1379,
      "ĠÏĩÏģÎ·ÏĥÎ·": 1380,
      "Ġ35": 1381,
      "Ġ2006": 1382,
      "ĠÏħÏĢÎ¿Î»Î¿Î³": 1383,
      "ÏĦÎµÏģÎ¿Ïħ": 1384,
      "ĠÎ¿Îº": 1385,
      "Î¼Î¹Î±ÏĤ": 1386,
      "ĠÎ´Î¿": 1387,
      "ĠÏĢÏģÏīÏĦÎ¿ÎºÎ¿": 1388,
      "Î³Î³": 1389,
      "40": 1390,
      "Î¼Î¹Î¿Ïħ": 1391,
      "ÏĢÎ¿ÏħÏĤ": 1392,
      "ÏĥÏħ": 1393,
      "ir": 1394,
      "Î´ÎµÏħ": 1395,
      "ÏĨÎ¿ÏģÎµÏĤ": 1396,
      "ĠÎ¹Î¿ÏħÎ½Î¹Î¿Ïħ": 1397,
      "ĠÎµÏĨÎ·Î¼ÎµÏģÎ¹": 1398,
      "ĠÎ´Î¹Î±ÏĢÎ¹ÏĥÏĦÏī": 1399,
      "Î¼ÎµÏĦÎ±": 1400,
      "ĠÎµÏĢÎ¹ÏĢÎµÎ´Î¿": 1401,
      "Î¼ÎµÏħ": 1402,
      "qu": 1403,
      "ĠÎ¼ÎµÏĥÏī": 1404,
      "ĠÎ´ÏħÎ½Î±Î¼ÎµÎ¹": 1405,
      "Ġ2013": 1406,
      "ĠÎºÏħÎ²ÎµÏģÎ½Î·": 1407,
      "Î»ÎµÏħÎ¸Îµ": 1408,
      "ÏĪÎµÎ¹": 1409,
      "ĠÎ²Î»": 1410,
      "ÏĩÎµÏĤ": 1411,
      "ÏĩÎ¿ÏĤ": 1412,
      "ĠÎºÎ¿Î¹Î½Î¿ÏĦÎ·ÏĦÎ±": 1413,
      "ĠÏĢÏģÎ¿Î¿": 1414,
      "ĠÏĥÏħÎ»Î»Î¿Î³Î·": 1415,
      "Ġ01": 1416,
      "ĠÎµÎ¼ÏĢÎ¿Ïģ": 1417,
      "Î»ÏīÏĥ": 1418,
      "ĠÏĢÎ¹ÏĥÏĦÎ¿": 1419,
      "ĠÏħÏĢÎµÏģÎ²Î±Î¹Î½ÎµÎ¹": 1420,
      "ĠÎµÏĢÎµÎ½": 1421,
      "ĠÎ±Î¾Î¹Î¿Î»Î¿Î³Î·": 1422,
      "ÏģÎ±Î¹": 1423,
      "ĠÎµÎ¾Î±Ïĥ": 1424,
      "ĠÎ±ÏĢÎ±Î½": 1425,
      "ĠÏĢÏģÎ¿Î¹Î¿Î½ÏĦÎ¿ÏĤ": 1426,
      "ĠÎºÎ¿Î¹Î½Î¿Î²Î¿ÏħÎ»Î¹Î¿Ïħ": 1427,
      "ÏĥÏīÎ½": 1428,
      "ĠÎµÏĢÎ¹ÏĥÎ·Î¼Î·": 1429,
      "Î¶Î¿ÏħÎ½": 1430,
      "ĠÎ¹Î¿ÏħÎ»Î¹Î¿Ïħ": 1431,
      "Î»ÎµÏĦÎ±Î¹": 1432,
      "Î±Î½Î±": 1433,
      "Ġ2002": 1434,
      "ĠÎ³ÎµÏīÏģÎ³": 1435,
      "ĠÎ´ÏģÎ±": 1436,
      "Î¼ÎµÎ½Î¿ÏħÏĤ": 1437,
      "Ġen": 1438,
      "ĠÏĢÏģÎ¹Î½": 1439,
      "Ġ2004": 1440,
      "ĠÎµÏĢÎµÎ½Î´Ïħ": 1441,
      "Ġco": 1442,
      "Î»Î»Î¿": 1443,
      "ĠÎ¶Ïī": 1444,
      "ion": 1445,
      "ĠÎ´Î¹Î±ÎºÏģÎ¹": 1446,
      "ĠÏĢÏģÎ¿Î²Î»ÎµÏĢÎµÎ¹": 1447,
      "ĠÎµÏĢÎ¿Î¼ÎµÎ½ÏīÏĤ": 1448,
      "ĠÎ±Î¹ÏĦÎ·Î¼Î±": 1449,
      "ĠÏħÏĢÎ±Î»Î»Î·": 1450,
      "ĠÎ¹ÎºÎ±": 1451,
      "ÏĩÎµÏĦÎ±Î¹": 1452,
      "ĠÎµÎ¾Î¿Ïħ": 1453,
      "ÏĦÎµÎ¹ÏĦÎ±Î¹": 1454,
      "ĠÎ±Î½Î±ÏĨÎµÏģÎµÏĦÎ±Î¹": 1455,
      "ĠÎ±Î½Î±Î»Î¿Î³": 1456,
      "ĠÎ¼ÎµÏĦÏģÏīÎ½": 1457,
      "io": 1458,
      "ĠÎ±Î»Î»ÎµÏĤ": 1459,
      "ÎºÏĦÎ¹ÎºÎ¿": 1460,
      "ĠÎ¿ÏĩÎ¹": 1461,
      "ĠÎºÎ±ÏĦÎ±Î½Î±": 1462,
      "ĠÎ¿ÎºÏĦÏī": 1463,
      "ĠÎ±Î½ÏīÏĦÎµÏģÏī": 1464,
      "Ġ37": 1465,
      "ĠÎ±ÏĥÏĨÎ±Î»Î¹Ïĥ": 1466,
      "ĠÎ³ÎµÏģÎ¼Î±Î½": 1467,
      "ĠÎ¼Î¹Î±ÏĤ": 1468,
      "ĠÎµÎ»ÎµÏħÎ¸Îµ": 1469,
      "Î¼ÎµÎ½Î¿Î¹": 1470,
      "ĠÎ´Î·Î»Ïī": 1471,
      "Ġcon": 1472,
      "ĠâĪ": 1473,
      "ĠÎ¼Î¿Ïģ": 1474,
      "ĠÎµÎ½Î·": 1475,
      "ĠÎ±ÎµÏģÎ¿": 1476,
      "ĠÎºÎ±Î½Î¿Î½ÎµÏĤ": 1477,
      "ĠÎ²Î±ÏĥÎ¹Î»ÎµÎ¹": 1478,
      "ra": 1479,
      "Î´Ïī": 1480,
      "ĠÎµÏĨÎ·Î¼ÎµÏģÎ¹Î´Î±": 1481,
      "ĠÎºÎ±ÏĦÎµ": 1482,
      "ĠÎ¿ÏĨÎµÎ¹": 1483,
      "ĠÏĢÎ¹Ïĥ": 1484,
      "ĠÏĢÏģÎ¿ÏĥÎ´Î¹Î¿": 1485,
      "ĠÎ¹Î±Î½Î¿Ïħ": 1486,
      "im": 1487,
      "Ġ2000": 1488,
      "ĠÎµÏģÎ¼Î·": 1489,
      "ÏĨÎ¿ÏģÎ¿ÏħÎ½": 1490,
      "Ġ2011": 1491,
      "ĠÏĢÏģÎ¿Î³ÏģÎ±Î¼Î¼Î±": 1492,
      "ĠÎµÎ½ÏīÏĥÎ·": 1493,
      "ĠÏĩÎ±ÏģÎ±ÎºÏĦÎ·ÏģÎ±": 1494,
      "ĠÏĩÏģÎ¿Î½": 1495,
      "ÎµÎ¹Î¿Ïħ": 1496,
      "Î³Îº": 1497,
      "ĠÏĢÎµÏģÎ¹ÏĥÏĥÎ¿": 1498,
      "Î½ÎµÎ¹Î±": 1499,
      "ĠÏĢÏīÎ»Î·": 1500,
      "ĠÎ´ÏħÎ½Î±ÏĦÎ¿ÏĦÎ·ÏĦÎ±": 1501,
      "ĠÎ¿Î»Î±": 1502,
      "ĠÏĢÏģÎ¿ÏĥÏīÏĢ": 1503,
      "ĠÏĥÏħÎ½ÏĦÎ±": 1504,
      "ĠÎ±ÏĢÎ¿ÏĨÎ±ÏĥÎ·ÏĤ": 1505,
      "ĠÏĥÏħÎ¼Î²Î±Î»Î»Î¿": 1506,
      "ĠÎºÎ±ÏĦÏī": 1507,
      "Î´Î¹ÎºÎ±": 1508,
      "ÏģÎµÎ±": 1509,
      "ĠÎ¹ÏĥÎ¿": 1510,
      "ĠÎ´Î·Î¼Î¿ÎºÏģÎ±ÏĦÎ¹Î±": 1511,
      "ĠÎµÎ¼ÏĢÎ¿ÏģÎµÏħ": 1512,
      "ĠÎ±Îº": 1513,
      "Î½ÎµÏħ": 1514,
      "ĠÎ¿Î¼Î¿": 1515,
      "ĠÎºÎ±ÏĦÎ±Î½Î±Î»Ïī": 1516,
      "ĠÏĢÏģÎ±Îº": 1517,
      "ĠÏĨÎ¿Ïģ": 1518,
      "ĠÏĢÎ±ÏģÎ±Î³ÏīÎ³": 1519,
      "Î¼Î¿ÏģÏĨ": 1520,
      "ĠÎµÎ½Î´Î¹Î±ÏĨÎµÏģÎ¿": 1521,
      "ĠÏĦÎµÏĦÎ¿": 1522,
      "ĠÎ±ÏĢÎ¿ÏĦÎµÎ»ÎµÎ¹": 1523,
      "ÎµÎ¹Î±ÏĤ": 1524,
      "Î´Î¿ÏħÏĤ": 1525,
      "ĠÎ´Î¹ÎºÎ±Î¹ÏīÎ¼Î±": 1526,
      "ÏĨÏħÎ»Î±": 1527,
      "ĠÎ±ÏģÎ¸ÏģÎ±": 1528,
      "Ġst": 1529,
      "ÏĦÎ·Î³Î¿": 1530,
      "ĠÎ´Î¹Î±ÏĦÎ±Î¾Î·": 1531,
      "ÏĦÏģÏī": 1532,
      "ÏĢÎ¹Î¿Î½": 1533,
      "ĠÎ´Î±ÏĢÎ±": 1534,
      "ÏĨÎ±Î»Î¹Ïĥ": 1535,
      "ĠÏĦÎµÎ»ÏīÎ½": 1536,
      "ĠÏĥÎ±": 1537,
      "Ġ36": 1538,
      "ĠÎµÏģÎ³Î¿": 1539,
      "Ġ33": 1540,
      "ĠÎµÎ½ÏīÏĢÎ¹Î¿Î½": 1541,
      "ĠÎºÏī": 1542,
      "ĠÎ¿ÏĩÎ·": 1543,
      "ÏĩÎ¹ÏĥÏĦÎ¿": 1544,
      "ĠÏĥÏĩÎµÏĥÎ·": 1545,
      "ĠÎºÎ±ÏĦÎ±ÏĩÏī": 1546,
      "ĠÎ¿ÏģÎ³Î±Î½Î¹Ïĥ": 1547,
      "ĠÎ¹Î´ÏģÏħ": 1548,
      "Ġ32": 1549,
      "ĠÎ¼Î·ÏĩÎ±Î½": 1550,
      "ĠÎºÎ»Î±Ïĥ": 1551,
      "ĠÎµÏģÎ³Î±Î¶Î¿": 1552,
      "Î¾Î¹": 1553,
      "ĠÏĢÏģÎ¿Î¸ÎµÏĥ": 1554,
      "ĠÏĥÎ¿": 1555,
      "ĠÎµÎ³Î³ÏģÎ±": 1556,
      "ĠÎ³Î»ÏīÏĥ": 1557,
      "Î¹Î¶ÎµÏĦÎ±Î¹": 1558,
      "ĠÎ±ÏĨÎ¿ÏģÎ¿ÏħÎ½": 1559,
      "Ġ1999": 1560,
      "ĠÎ¼ÎµÏģÎ¿ÏħÏĤ": 1561,
      "Ġ2012": 1562,
      "ĠÎµÎ»ÎµÎ³ÏĩÎ¿Ïħ": 1563,
      "ĠÎ¼Î±ÏģÏĦÎ¹": 1564,
      "Î³ÎµÏĤ": 1565,
      "ĠÎ³ÎµÎ³Î¿": 1566,
      "Ġ2008": 1567,
      "ĠÎµÏĢÎ¹ÏĦÏģÎµ": 1568,
      "Ġand": 1569,
      "Î¼Î·ÏĩÎ±Î½": 1570,
      "ĠÎ±Î¾Î¹Î±": 1571,
      "ĠÏĥÏħÎ¼ÏĢÎµÏģÎ¹Î»Î±Î¼Î²Î±": 1572,
      "ĠÎµÏĢÎ±Î³Î³ÎµÎ»": 1573,
      "ĠÎºÎ±ÏĦÎ·Î³Î¿": 1574,
      "ĠÎµÎ½Î·Î¼Îµ": 1575,
      "Î³ÎµÎ¹": 1576,
      "ÏĦÎ¿Î¼": 1577,
      "ij": 1578,
      "ĠÏĦÎ¹ÏĦ": 1579,
      "Î¼Î¹Î¿ÏħÏģÎ³": 1580,
      "ĠÎ¼Î¿Î½Î¿Î½": 1581,
      "ĠÎ¹Î±Î½Î¿ÏħÎ±ÏģÎ¹Î¿Ïħ": 1582,
      "ĠÎºÎµÎ½": 1583,
      "Î²Î±Î»Î»ÎµÎ¹": 1584,
      "Î²Î±Î»Î»Î¿Î½": 1585,
      "ĠÎ²Î±Î¸": 1586,
      "ĠÎ´Î¹ÎºÎ·": 1587,
      "ĠÎ³Î±Î»": 1588,
      "Ġ197": 1589,
      "ĠÎ´Î·Î¼Î¹Î¿ÏħÏģÎ³": 1590,
      "ĠÎ¿ÏĢÎ¿Î¹ÏīÎ½": 1591,
      "ÏĨÎ¹Ïĥ": 1592,
      "ĠÎ½Î¿Îµ": 1593,
      "ĠÎ¿ÏħÏĦÎµ": 1594,
      "Î¹ÏĥÏĦÎ±ÏĦÎ±Î¹": 1595,
      "Î¹Î½ÎµÏĦÎ±Î¹": 1596,
      "Ġ2014": 1597,
      "ĠÎµÎ³ÎºÎ±ÏĦÎ±": 1598,
      "ÏĢÎ¿Î¹Î·ÏĥÎ·ÏĤ": 1599,
      "ĠÎºÎ±ÏĦÎ¿ÏĢÎ¹Î½": 1600,
      "ĠÎ¹ÏĥÏĩÏħÎµÎ¹": 1601,
      "ĠÎºÎ±ÏĦÎ±Î»Î¿Î³": 1602,
      "ÏĦÎ¿Î½": 1603,
      "ĠÎ´Î¹Î±ÏĦÎ±Î¾ÎµÏīÎ½": 1604,
      "ĠÎ±ÏĢÎ¿ÎºÎ»ÎµÎ¹Ïĥ": 1605,
      "ĠÎ¼ÎµÏĩ": 1606,
      "Ġ34": 1607,
      "Î´ÎµÏĤ": 1608,
      "Ġ&": 1609,
      "Î½Î¿Î¹": 1610,
      "ĠÎºÏħÎºÎ»Î¿": 1611,
      "ĠÎµÏĦÎ¿ÏĤ": 1612,
      "Î²ÎµÎ¹": 1613,
      "ĠÎµÏĢÎ¹ÏĩÎµÎ¹ÏģÎ·ÏĥÎµÎ¹ÏĤ": 1614,
      "ĠÎµÎ½Î±Î½": 1615,
      "ÏĦÎ·ÏĥÎµÏīÏĤ": 1616,
      "Ġla": 1617,
      "ĠÏĩÏīÏģÎµÏĤ": 1618,
      "ĠÏĢÎ»Î·ÏģÏī": 1619,
      "ĠÎ¼Î¹Îº": 1620,
      "ĠÏĢÏģÎ¿ÏĦÎ±": 1621,
      "ĠÎµÎ¹Î´Î¹ÎºÎ¿": 1622,
      "90": 1623,
      "ĠÎµÎºÎ´Î¿ÏĥÎ·": 1624,
      "ÏĩÎ¿ÏħÏĤ": 1625,
      "ĠÎ¼Î±ÏģÏĦÎ¹Î¿Ïħ": 1626,
      "Î¼Î¹ÏĥÎ·": 1627,
      "ĠÎ¼ÎµÏĦÏģÎ¿": 1628,
      "um": 1629,
      "ĠÎ´Î·Î¼Î¿ÎºÏģÎ±ÏĦÎ¹Î±ÏĤ": 1630,
      "Î¸ÎµÎ¹ÏĥÎ±": 1631,
      "ĠÏĥÏħÎ½Î¿Î»Î¿": 1632,
      "ĠÎ´Î·Î¼Î¿ÏĥÎ¹ÎµÏħ": 1633,
      "ĠÎµÏĨÎ±ÏģÎ¼Î¿Î¶ÎµÏĦÎ±Î¹": 1634,
      "ĠÏĢÏģÎ¿Î´Î¹ÎºÎ±Ïĥ": 1635,
      "Ġ84": 1636,
      "ĠÎµÏĢÎ¹ÏĢ": 1637,
      "ĠÎ¿Î¼Î±": 1638,
      "ĠÎ¸ÎµÏīÏģÎ·": 1639,
      "ÏģÏĦÎ·": 1640,
      "ig": 1641,
      "Î½Î¿Î¼ÎµÎ½ÏīÎ½": 1642,
      "ÏĢÎµÎ¹Î±": 1643,
      "ĠÎ±ÎºÎ¿": 1644,
      "ĠÏĥÏĦÎ·ÏģÎ¹": 1645,
      "ĠÏĥÏħÎ¼ÏĢÎ»Î·ÏģÏī": 1646,
      "ĠÏĢÎ±ÏģÎ±Î³ÏīÎ³Î·ÏĤ": 1647,
      "ÏĦÏħÏĢ": 1648,
      "ĠÎ²Î¹Î¿Î¼Î·ÏĩÎ±Î½": 1649,
      "ÏĥÎ¿Ïħ": 1650,
      "ĠÏĢÏģÎ¿Î·": 1651,
      "Î²Î±Î»Î»ÎµÏĦÎ±Î¹": 1652,
      "Ġ2015": 1653,
      "11": 1654,
      "ĠÏĥÏĦÎ¿Î¹ÏĩÎµÎ¹ÏīÎ½": 1655,
      "ĠÎ´ÎµÏĥÎ¼ÎµÏħ": 1656,
      "ts": 1657,
      "Î¹ÎºÎ¿ÏħÏĤ": 1658,
      "ĠÎ¿ÎºÏĦÏīÎ²ÏģÎ¹Î¿Ïħ": 1659,
      "ĠÏĥÏħÎ¼Î¼ÎµÏĦÎ¿": 1660,
      "ÏĥÏĦÎµÎ¹": 1661,
      "Î³Ïħ": 1662,
      "ÏģÎ¿Î¹": 1663,
      "Ġsg": 1664,
      "ĠÎºÎ±ÏĦÎ±Î³ÏīÎ³Î·ÏĤ": 1665,
      "ĠÎ¹ÎºÎ±Î½Î¿": 1666,
      "Ġto": 1667,
      "Ġ100": 1668,
      "ÏĦÎ·ÏģÎ¹Î±": 1669,
      "ÏģÎ·ÏĤ": 1670,
      "ÏģÎ¼Î±": 1671,
      "Ġ95": 1672,
      "ĠÏĢÎ»Î·ÏģÎ¿ÏĨÎ¿ÏģÎ¹ÏīÎ½": 1673,
      "ĠÎ±ÏģÎ¼Î¿Î´Î¹Î¿": 1674,
      "ĠÏĥÎºÎµÏĪÎµÎ¹ÏĤ": 1675,
      "ÏīÏĥÎ·ÏĤ": 1676,
      "ĠÎ±ÏĢÏģÎ¹": 1677,
      "ÏĢÎ¿ÏħÎ½": 1678,
      "Ġ2007": 1679,
      "ÏĨÎ¿ÏĤ": 1680,
      "ĠÎ±Î½Î¸": 1681,
      "Ġ+": 1682,
      "ÏĨÏīÏĤ": 1683,
      "Î³Î¿ÏģÎµÏħ": 1684,
      "Ġ^": 1685,
      "ĠÏħÏĢÎ¿ÏĩÏģÎµÏīÏĥÎ·": 1686,
      "ĠÎ±ÏħÎ¾Î·": 1687,
      "ĠÎ±ÏĢÎ¿ÏĨÎ±ÏĥÎµÎ¹ÏĤ": 1688,
      "ĠÎµÎ¾Î±Î¹ÏģÎµ": 1689,
      "ĠÏĥÎµÏĢÏĦÎµ": 1690,
      "ĠÎºÎ»Î±": 1691,
      "ĠÏĢÎ±ÏģÎ±ÏĦÎ·ÏģÎ·": 1692,
      "ĠÎ¿Î¹Îº": 1693,
      "ĠÏĢÎ±ÏģÎ±Î²Î±ÏĥÎ·": 1694,
      "ÏĢÎ¿Î½": 1695,
      "Î²Î¿Î»Î·ÏĤ": 1696,
      "ĠÏĦÎµÎ»ÎµÏħ": 1697,
      "ĠÏĢÎµÏģÎ¹Î²Î±Î»Î»Î¿Î½": 1698,
      "ĠÎ»Î¿Î³Î¿ÏħÏĤ": 1699,
      "ĠÏĢÏģÎ¿Î²Î»ÎµÏĢÎµÏĦÎ±Î¹": 1700,
      "ÏĨÎµÏģÎ¿Î½": 1701,
      "od": 1702,
      "ĠÎ±ÏĢÎ±Î¹ÏĦÎ·ÏĥÎµÎ¹ÏĤ": 1703,
      "ÏĥÏĦÎ±ÏĥÎµÎ¹ÏĤ": 1704,
      "Ġle": 1705,
      "ĠÎ·Î½Ïī": 1706,
      "ĠÎµÎ¹ÏĦÎµ": 1707,
      "ĠÏħÏĢÎ¿ÎºÎµÎ¹": 1708,
      "ie": 1709,
      "ĠÏĨÎµÎ²": 1710,
      "ĠÎµÎ´Î±ÏĨÎ¹Î¿": 1711,
      "ĠÎµÏĢÎ±Î³Î³ÎµÎ»Î¼Î±": 1712,
      "ĠÎ¼ÎµÏĩÏģÎ¹": 1713,
      "ĠÎ´ÎµÎ´Î¿Î¼ÎµÎ½ÏīÎ½": 1714,
      "ĠÎ´ÏģÎ±ÏĥÏĦÎ·ÏģÎ¹Î¿ÏĦÎ·ÏĦÎµÏĤ": 1715,
      "ĠÎ±ÏĥÏĨÎ±Î»ÎµÎ¹Î±ÏĤ": 1716,
      "ĠÎ±ÏĢÎ¿Î´Î¿": 1717,
      "ĠÎ¹ÏĦÎ±": 1718,
      "ÏĨÎ¿ÏģÏīÎ½": 1719,
      "ĠÎ±ÏĢÎ±Î³Î¿ÏģÎµÏħ": 1720,
      "ĠÎ¼ÎµÎ¸Î¿": 1721,
      "Î½Î¹ÎºÎ·": 1722,
      "ÏĨÎ¹": 1723,
      "Ġ99": 1724,
      "ÏĦÎ¹ÎºÎ¿ÏĤ": 1725,
      "Ġ2010": 1726,
      "ĠÎ¿Î»ÎµÏĤ": 1727,
      "ĠÎ´Î¹ÎºÎ±ÏĥÏĦÎ¹ÎºÎ±": 1728,
      "ĠÎµÏĢÎ¹ÏĢÎ»ÎµÎ¿Î½": 1729,
      "ĠÎºÎ±ÏĦÎ±Î»Î»Î·": 1730,
      "ÏĥÎ¹Î¿Ïħ": 1731,
      "Î´Î¹Î¿Ïħ": 1732,
      "ĠÎ±Î½Î±ÎºÎ¿Î¹": 1733,
      "ĠÎµÎºÎ±": 1734,
      "Ġ92": 1735,
      "ĠÎºÎ¿Ïĥ": 1736,
      "ÏģÎº": 1737,
      "Ġ43": 1738,
      "te": 1739,
      "ĠÎµÏĢÎ¹ÏĢÏĦÏī": 1740,
      "ce": 1741,
      "ĠÎ¼ÏĢÎ¿ÏģÎ¿Ïħ": 1742,
      "ĠÎ±ÏĢÎ¿Î´ÎµÎ¹": 1743,
      "ĠÏĥÏħÏĥÎºÎµÏħ": 1744,
      "ĠÏĢÎ¹ÏĥÏĦÏī": 1745,
      "ĠÎµÏĥ": 1746,
      "ĠÏĢÏģÎ¿ÏĥÏĦÎ±ÏĥÎ¹Î±": 1747,
      "Ġat": 1748,
      "50": 1749,
      "ĠÏĨÏħÏĥ": 1750,
      "ĠÏĢÏģÎ¿ÏĥÏīÏģÎ¹": 1751,
      "ĠÏĢÏģÎ¿ÏĥÏĦÎ±ÏĥÎ¹Î±ÏĤ": 1752,
      "Î´Î¿ÏĤ": 1753,
      "ĠÏĥÏħÏĥÏĦÎ·Î¼Î±ÏĦÎ¿ÏĤ": 1754,
      "ĠÎ³ÏģÎ±Î¼Î¼Î±": 1755,
      "ĠÏĦÎ¿ÏħÎ»Î±": 1756,
      "Î´ÏģÎ±": 1757,
      "ÏĩÎ¿Î½ÏĦÎ±Î¹": 1758,
      "ÏĩÎ¹ÏĥÏĦÎ¿Î½": 1759,
      "ÏģÎµÎ¹ÏĦÎ±Î¹": 1760,
      "ĠÎ¿Î½Î¿Î¼Î±": 1761,
      "Ġ02": 1762,
      "Î±ÏĥÏĩÎ¿": 1763,
      "ÏģÏĦÎ¿": 1764,
      "ĠÎ´Î¹Î±ÏĦÎ·ÏģÎ·": 1765,
      "ĠÏĥÏħÎ½ÎµÏĢÎµÎ¹Î±": 1766,
      "Î½Î¿Î¼Î·": 1767,
      "ĠÎ´ÎµÎ´Î¿Î¼ÎµÎ½Î¿Ïħ": 1768,
      "ĠÎ·Î»ÎµÎºÏĦÏģÎ¿": 1769,
      "ĠÏĢÎ±ÏģÎ±ÏĥÎºÎµÏħ": 1770,
      "Ġ93": 1771,
      "Î³ÎµÏĦÎ±Î¹": 1772,
      "ĠÏĢÎ¹ÏĥÏĦÎ¿ÏĢÎ¿Î¹Î·": 1773,
      "Î²Î¿ÏħÎ»ÎµÏħ": 1774,
      "ĠÎ½Î¿ÎµÎ¼Î²ÏģÎ¹Î¿Ïħ": 1775,
      "Î±Îµ": 1776,
      "ĠÎ´ÎµÏħÏĦÎµÏģÎ¿": 1777,
      "ĠÏĦÎ¿ÏħÎ»Î±ÏĩÎ¹ÏĥÏĦÎ¿Î½": 1778,
      "Ġ94": 1779,
      "ĠÎ³ÎµÎ³Î¿Î½Î¿ÏĤ": 1780,
      "Ġ>": 1781,
      "ĠÎ¼Î±Î¹Î¿Ïħ": 1782,
      "ĠÎµÎºÎ¸ÎµÏĥÎ·": 1783,
      "Î´Î¹ÏīÎ½": 1784,
      "ĠÎ¶Î·ÏĦÎ·": 1785,
      "ĠÎµÎ½Î±Ïģ": 1786,
      "ĠÏĨÎµÎ²ÏģÎ¿Ïħ": 1787,
      "po": 1788,
      "ĠÎ´Î¹ÎµÎ¸Î½": 1789,
      "ĠÏĢÏģÎ¿ÏħÏĢÎ¿Î¸ÎµÏĥÎµÎ¹ÏĤ": 1790,
      "ĠÏĥÏħÎ¼Î²Î±ÏĥÎ·": 1791,
      "ĠÎ±ÏĢÏģÎ¹Î»Î¹Î¿Ïħ": 1792,
      "ĠÏĢÏģÎ¿ÏĥÎ±ÏģÎ¼Î¿": 1793,
      "ĠÎ±Î½ÏĦÎ¹ÎºÎ±": 1794,
      "ĠÏĥÎºÎ±": 1795,
      "ĠÏĥÏħÎ¼ÏĨÎµÏģÎ¿Î½": 1796,
      "Ġal": 1797,
      "ĠÎºÎ±ÏĦÎ±ÏĥÏĦÎ±ÏĥÎ·": 1798,
      "ĠÎµÎ½Î´ÎµÏĩÎ¿": 1799,
      "ĠÏĥÏħÎ³Îº": 1800,
      "ÏĢÎ¹ÏĥÎ·": 1801,
      "ĠÏħÏĢÎ¿Î²Î»Î·": 1802,
      "ĠÏĩÏģÎ¿": 1803,
      "Ġ87": 1804,
      "ĠÎ¼Î¿Î½Î±": 1805,
      "Î½ÏĦÎ±": 1806,
      "ĠÏģÎ¿": 1807,
      "ĠÏĦÎ¿ÏĢÎ¿": 1808,
      "Ġ60": 1809,
      "ĠÎ±Î»Î»Î·": 1810,
      "ĠÎ±Î½ÎµÏģÎ³": 1811,
      "ber": 1812,
      "Ġ96": 1813,
      "ĠÎ´Î¹ÎºÎ±Î¹ÏīÎ¼Î±ÏĦÏīÎ½": 1814,
      "ĠÎ¿ÏħÏĥÎ¹": 1815,
      "ĠÎ´Î·Î¼Î¿ÏĥÎ¹Î¿Î½Î¿Î¼": 1816,
      "ĠÏĥÏĩÎµÎ´Î¹Î±": 1817,
      "ĠÎµÎºÏĦÎµÎ»Îµ": 1818,
      "ĠÏĥÎµÏĢÏĦÎµÎ¼Î²ÏģÎ¹Î¿Ïħ": 1819,
      "ĠÎ±Î¹ÏĦÎ¿ÏħÎ½": 1820,
      "Ġ91": 1821,
      "ĠÏĢÎ±ÏģÎ±ÏģÏĦÎ·Î¼Î±ÏĦÎ¿ÏĤ": 1822,
      "Ġ2019": 1823,
      "ĠÎ±ÏĢÎ±ÏĥÏĩÎ¿": 1824,
      "ĠÎµÎ¾Î±Î³ÏīÎ³": 1825,
      "ĠÏĦÏģÎ¿ÏĢÎ¿ÏĢÎ¿Î¹Î·ÏĥÎ·": 1826,
      "Î¼ÏīÏĤ": 1827,
      "Î²Î±Î»Îµ": 1828,
      "ĠÎ´Î¿Îº": 1829,
      "ÏĨÎ±Î½": 1830,
      "ĠÏĥÎ¹": 1831,
      "Î½Ïħ": 1832,
      "ĠÎµÏĢÎ¹Î¼Î±": 1833,
      "ii": 1834,
      "ÏĢÎ¿Î¼": 1835,
      "ĠÎµÏħÏģÏīÏĢÎ±Î¹ÎºÎ¿": 1836,
      "ĠÏĢÎ±ÏģÎ¿ÏĩÎ·": 1837,
      "ĠÏĦÎµÎ»ÏīÎ½ÎµÎ¹Î±": 1838,
      "ÏĢÏīÏĤ": 1839,
      "ĠÏĢÎµÏģÎ¹ÏĨÎµ": 1840,
      "ÏĦÎ¹ÎºÎ¿ÏħÏĤ": 1841,
      "Ġ2005": 1842,
      "ĠÎµÏĢÎ¹ÏĩÎµÎ¹ÏģÎ·Î¼Î±": 1843,
      "ĠÎµÎ¾Ïī": 1844,
      "Ġ07": 1845,
      "ĠÎ´Î¿ÎºÎ¹": 1846,
      "Ġ44": 1847,
      "ĠÎ¼ÎµÏĥÎ±": 1848,
      "ĠÎ½Î·": 1849,
      "Î¸Ïī": 1850,
      "ĠÎ¿ÏħÏĥÎ¹Î±": 1851,
      "ĠÎµÎºÏĦÎ¹Î¼Î·ÏĥÎ·": 1852,
      "Ġar": 1853,
      "ÏĪÎ·ÏĤ": 1854,
      "ĠÏĢÎ¿Î¹Î¿": 1855,
      "Ġpro": 1856,
      "ĠÏĢÏģÎ¿Î²Î»ÎµÏĢÎ¿Î½ÏĦÎ±Î¹": 1857,
      "ĠÎ³Î»ÏīÏĥÏĥÎ±": 1858,
      "ĠÎ½Î¿Î¼Î¿Î¸ÎµÏĥÎ¹Î±": 1859,
      "Î³Î¿Î½ÏĦÎ±Î¹": 1860,
      "ĠÎ±Î½Î±ÏĢÏĦÏħÎ¾Î·": 1861,
      "ÏĩÎ¿Î¹": 1862,
      "Ġ80": 1863,
      "ĠÎ¿Î»ÏīÎ½": 1864,
      "ĠÎ¿Î±Îµ": 1865,
      "ĠÎºÎµÏĨÎ±Î»Î±Î¹Î¿": 1866,
      "ĠÎ¿ÏģÎ¿ÏħÏĤ": 1867,
      "ĠÏĢÏģÎ±Î³Î¼Î±ÏĦÎ¿ÏĢÎ¿Î¹Î·": 1868,
      "ÏĢÎ±Î¹": 1869,
      "Ġ41": 1870,
      "Î¿ÏħÏĥÎ±": 1871,
      "ĠÎ¹ÏĥÏĩÏħÎ¿ÏĤ": 1872,
      "ĠÎ±ÏĢÎ¿Î´ÎµÎ¹Îº": 1873,
      "ĠÎ´Î¹Î±ÏĨÎ¿ÏģÎµ": 1874,
      "ĠÏĩÎ±ÏģÎ±ÎºÏĦÎ·ÏģÎ¹Ïĥ": 1875,
      "Ġ48": 1876,
      "au": 1877,
      "ĠÏĪÎ·": 1878,
      "ĠÎ±ÏĨ": 1879,
      "ĠÏģÏħÎ¸Î¼Î¹Ïĥ": 1880,
      "ou": 1881,
      "ĠÏģÎ·": 1882,
      "ĠÎµÏĢÎµÎ¾Îµ": 1883,
      "ĠÎ»Î¿Î¹": 1884,
      "ĠÏĩÏīÏģÏīÎ½": 1885,
      "ĠÏħÏĨ": 1886,
      "ĠâĪĨ": 1887,
      "ĠÏĢÏģÎ¿ÎµÎ´": 1888,
      "ĠÏĢÏģÎ¿Î·Î³Î¿Ïħ": 1889,
      "ĠÎµÏĢÎ¹ÏĨÏħÎ»Î±": 1890,
      "Î¹ÎºÎ¿Î¹": 1891,
      "ĠÏħÎ»ÎµÏĤ": 1892,
      "ĠÎ¿Î±ÎµÎ´": 1893,
      "Î³ÏģÎ±ÏĨÎ¿Ïħ": 1894,
      "ich": 1895,
      "ĠÎ±Î½Î±ÎºÎ¿Î¹Î½Ïī": 1896,
      "ĠÏĢÏģÎ¿Î³ÏģÎ±Î¼Î¼Î±ÏĦÎ¿ÏĤ": 1897,
      "ĠÎ±ÏģÏĩÎ·ÏĤ": 1898,
      "ĠÏīÏĥÏĦÎ¿": 1899,
      "ĠÏĢÎµÏģÎ¹ÏĢÏĦÏīÏĥÎµÎ¹ÏĤ": 1900,
      "ĠÏĨÎµÎ²ÏģÎ¿ÏħÎ±ÏģÎ¹Î¿Ïħ": 1901,
      "Î»Î¿Î¹": 1902,
      "Î¹ÎºÎ¿ÏĤ": 1903,
      "ĠÏīÏĥÏĦÎ¿ÏĥÎ¿": 1904,
      "ĠÏĨÎ¿ÏģÎ¿Î»Î¿Î³": 1905,
      "ĠÎ±ÎºÏħÏģÏīÏĥÎµÏīÏĤ": 1906,
      "ĠÎµÎºÏĢÏģÎ¿ÏĥÏīÏĢÎ¿Ïħ": 1907,
      "ÏĩÏīÏģÎ·": 1908,
      "ov": 1909,
      "Î¼Î¿Î»Î¿Î³": 1910,
      "ĠÎµÏĢÎ¹ÏĩÎµÎ¹ÏģÎ·ÏĥÎµÏīÎ½": 1911,
      "ĠÎµÎ»ÎµÎ³ÏĩÎ¿": 1912,
      "Î³Î±ÏģÎ¹Î±": 1913,
      "ĠÎµÎºÏĦÎµÎ»ÎµÏĥ": 1914,
      "Ġ42": 1915,
      "ĠÏĢÏģÎ¿ÏĦÎµÎ¹": 1916,
      "ĠÏĥÏħÎ¼Î¼Î¿ÏģÏĨ": 1917,
      "ÏħÎ¸Ïħ": 1918,
      "ÎºÎ¹": 1919,
      "ĠÏĦÎ¹Î¼ÎµÏĤ": 1920,
      "Î²Î±Î»ÎµÎ¹": 1921,
      "ĠÏĦÏģÎ±": 1922,
      "ĠÎ±ÏĨÎµÎ½Î¿ÏĤ": 1923,
      "ĠÎ±ÏĨÎµÏĦÎµÏģÎ¿Ïħ": 1924,
      "ÏĢÎ±Î½": 1925,
      "Î´Î±ÏĤ": 1926,
      "ĠÏħÏĢÎ·ÏģÎµÏĥÎ¹Î±": 1927,
      "ĠÏĢÎ»ÎµÎ¿Î½": 1928,
      "ĠÎµÏĢÎµÎ¾ÎµÏģÎ³Î±Ïĥ": 1929,
      "Ġun": 1930,
      "ĠÎ±Î½Î±Î»Ïħ": 1931,
      "ÎºÎ¹Î½Î·": 1932,
      "ga": 1933,
      "Ġ08": 1934,
      "ĠÏĢÏģÎ±Î¾Î·": 1935,
      "Ġz": 1936,
      "ĠÏĢÎ¹Î½Î±": 1937,
      "ĠÎ¼Î¿ÏģÏĨÎ·": 1938,
      "ÏĦÎ·ÏĥÎµÏīÎ½": 1939,
      "ĠÎ¼Î¿Î½": 1940,
      "Ġ45": 1941,
      "Ġ98": 1942,
      "Î¿Î½ÏĦÎ±ÏĤ": 1943,
      "ĠÎ´Î¹ÎµÏħÎ¸ÏħÎ½": 1944,
      "Î»Î¹Î¿": 1945,
      "Ġ2016": 1946,
      "Ġ46": 1947,
      "ÏĢÎ¿ÏħÏģÎ³": 1948,
      "ĠÏħÏĢÎ¿ÏĩÏģÎµÏīÏĥÎµÎ¹ÏĤ": 1949,
      "ĠÏĦÎ¹Î¼Î·": 1950,
      "ĠÏĥÏħÎ½Î·": 1951,
      "Ġ49": 1952,
      "ĠÎºÏħÎ²ÎµÏģÎ½Î·ÏĥÎ·": 1953,
      "ĠÎ±Î¹ÏĦÎ¹Î¿Î»Î¿Î³Î¹ÎºÎ·": 1954,
      "ĠÏĢÎ±ÏģÎµÎ¼": 1955,
      "ĠÎºÎ±ÏĦÎ±ÏĥÎºÎµÏħÎ·": 1956,
      "Î»Î·ÏĪÎ·": 1957,
      "ĠÎ´Î¹ÎºÏĦÏħ": 1958,
      "ĠÏĥÏħÎ½ÎµÏĢÏīÏĤ": 1959,
      "Î³Î¹Î±": 1960,
      "ĠÎ´Î¹ÎºÎ·ÏĤ": 1961,
      "ĠÏĥÏħÎ½Î´Ïħ": 1962,
      "ĠÏĥÏħÎ½Î±Î»Î»Î±": 1963,
      "ĠÎ´Î¹ÎºÎ±Î¹ÏīÎ¼Î±ÏĦÎ±": 1964,
      "ĠÎ±ÎºÎ¿Î»Î¿ÏħÎ¸": 1965,
      "ĠÎ¿ÏĢÎ¿Ïħ": 1966,
      "ĠÎ±Î½ÏĦÎ¹Î¸Îµ": 1967,
      "ĠÎ¿ÏĢÎ¿Î¹Î¿Ïħ": 1968,
      "ĠÎµÎ¾ÎµÏĦÎ±ÏĥÎ·": 1969,
      "ĠÏĦÎ¼Î·Î¼Î±ÏĦÎ¿ÏĤ": 1970,
      "ĠÎµÎ³Î³ÏģÎ±ÏĨÎ¿": 1971,
      "ab": 1972,
      "ĠÏĢÏģÎ¿ÏĥÎ¸Îµ": 1973,
      "ĠÏĦÎ¹Î¼Î·ÏĤ": 1974,
      "ĠÏĩÏģÎ·ÏĥÎ¹Î¼Î¿ÏĢÎ¿Î¹Î·": 1975,
      "ĠÎµÏĢÎ¹ÏĩÎµÎ¹ÏģÎ·ÏĥÎ·": 1976,
      "ÏĪÎµÏīÏĤ": 1977,
      "ÏĦÎ·ÎºÎµ": 1978,
      "ÏģÎ¿ÏħÎ½ÏĦÎ±Î¹": 1979,
      "ĠÎµÎ³Î³Ïħ": 1980,
      "ĠÎ¹Î¹": 1981,
      "ĠÏĦÎ·Ïĥ": 1982,
      "ĠÎµÏĢÎ¹ÏĦÎµÏħ": 1983,
      "ĠÎ±Î½ÏĦÎ¹ÏĢÏģÎ¿ÏĥÏī": 1984,
      "Î´ÏħÎ½Î±": 1985,
      "ĠÎ½Î¿Î¼Î¿Î»Î¿Î³Î¹Î±": 1986,
      "ĠÎ¼Î¹Ïĥ": 1987,
      "ĠÎ±Î´ÎµÎ¹Î±": 1988,
      "ÏĢÎ±ÏģÎ±": 1989,
      "Î¿Î½ÏĦÎ±": 1990,
      "Î»Î»ÎµÏħ": 1991,
      "ĠÎ¹Î´Î¹Ïī": 1992,
      "ĠÎµÏĨÎ±ÏģÎ¼Î¿Î¶Î¿Î½ÏĦÎ±Î¹": 1993,
      "ĠÏħÏĢ": 1994,
      "ĠÎ¶ÏīÎ½": 1995,
      "Ġpr": 1996,
      "ĠÏĥÏħÎ½ÎµÏģÎ³Î±ÏĥÎ¹Î±ÏĤ": 1997,
      "ÎºÎ±Î½": 1998,
      "ĠÎ±Î½Î±Î¸Îµ": 1999,
      "ÏģÎ¹ÏĥÎ·": 2000,
      "res": 2001,
      "ĠÏĢÎ¿ÏĥÎ¿ÏĥÏĦÏī": 2002,
      "ĠÎµÎ¹ÏĥÎ¿": 2003,
      "ĠÏĢÎ±ÏģÎ¿ÏħÏĥÎ¹Î±": 2004,
      "ĠÏĢÏģÎ¿ÏħÏĢÎ¿Î»Î¿Î³": 2005,
      "Ġ51": 2006,
      "ÏĢÏĦÎ¿ÏħÎ½": 2007,
      "Î´Î¹ÎºÎ·": 2008,
      "ĠÏģ": 2009,
      "ĠÎµÎ¸Î½Î¹ÎºÎ¿": 2010,
      "ÏĨÎ·ÏĤ": 2011,
      "ĠÏĥÏħÎ½Î±ÏĨÏīÏĤ": 2012,
      "ĠÏħÏĢÎ¿Î¸Îµ": 2013,
      "ĠÎ´Î¹Î±Î´Î¹ÎºÎ±ÏĥÎ¹ÎµÏĤ": 2014,
      "ĠÏĢÏģÎ¿ÏĥÎµ": 2015,
      "ĠÎºÎ±ÏĦÎ±Ïģ": 2016,
      "ÏģÎµÎ¹ÎµÏĤ": 2017,
      "ÏĥÏĦÏīÏĤ": 2018,
      "ĠÏĢÏģÎ¿ÏĥÎ²Î±ÏĥÎ·": 2019,
      "ĠÏħÎ³Îµ": 2020,
      "ĠÎºÎ±Î¸ÎµÏĥÏĦÏīÏĤ": 2021,
      "Ġ97": 2022,
      "ÏģÎ³Î·": 2023,
      "ĠÎ¿ÏĢÎ¿Î¹Î¿ÏĤ": 2024,
      "ĠÎµÎ½Î±ÏģÎ¼Î¿": 2025,
      "ĠÎµÎ½Î¹ÏĥÏĩÏħÏĥÎ·": 2026,
      "ĠÏĢÎµÏģÎ¹Î»Î±Î¼Î²Î±Î½ÎµÎ¹": 2027,
      "Ġec": 2028,
      "Ġ55": 2029,
      "ĠÎ»Î¿Ïħ": 2030,
      "Ġth": 2031,
      "ĠÎ»ÎµÎ¹ÏĦÎ¿ÏħÏģÎ³Î¹Î±": 2032,
      "ĠÏĥÏħÎ³ÎºÎµÎºÏģÎ¹Î¼ÎµÎ½Î±": 2033,
      "ĠÏĥÎµÏīÏĤ": 2034,
      "ĠÎ²Î±ÏĥÎ¹Î»ÎµÎ¹Î¿": 2035,
      "Î³ÎºÎ¿": 2036,
      "ran": 2037,
      "ĠÎµÎ³Î³ÏģÎ±ÏĨÎ±": 2038,
      "ÎºÏĦÎ¿": 2039,
      "ĠÎ³ÎµÎ½Î¹ÎºÎ¿Ïħ": 2040,
      "ĠÏĥÏħÎ½Î¸Î·ÎºÎµÏĤ": 2041,
      "ĠÎ´Î¹ÎºÎ·Î³Î¿": 2042,
      "ĠÎµÏħÎ¸Ïħ": 2043,
      "Î²Î±ÏĥÎµÏīÏĤ": 2044,
      "ĠÎ±ÎºÎ¿Î¼Î·": 2045,
      "ÏĨÏģÎ±": 2046,
      "Î¼ÎµÏĦÎ±Î»Î»ÎµÏħ": 2047,
      "ĠÏħÏĢÎ¿ÏħÏģÎ³": 2048,
      "Ġfor": 2049,
      "ta": 2050,
      "ĠÏĥÏħÎ½Î´ÏħÎ±Ïĥ": 2051,
      "ĠÎµÎ½Î¿": 2052,
      "ÏĢÎ±Î¹Î´ÎµÏħ": 2053,
      "ĠÎ·Î´Î·": 2054,
      "Ġ=": 2055,
      "Ġ52": 2056,
      "Î´Î¹Î±ÏĤ": 2057,
      "ĠÎµÎ¹ÏĩÎ±Î½": 2058,
      "ĠÎ²Î±ÏģÎ¿ÏĤ": 2059,
      "ĠÎ±Î½Î¸ÏģÏī": 2060,
      "ĠÏĢÏħ": 2061,
      "Î¹ÏĥÎ·": 2062,
      "ĠÏĩÏīÏģÎ±": 2063,
      "ĠÎºÏīÎ´Î¹Îº": 2064,
      "Ġ2017": 2065,
      "ĠÏĪ": 2066,
      "ĠÎºÎ±Î½Î¿Î½ÏīÎ½": 2067,
      "Î²Î¹Î±": 2068,
      "ĠÏĢÏģÎ¿ÏĥÎ´Î¹Î¿ÏģÎ¹Ïĥ": 2069,
      "ĠÏĦÎµÎ»Î¿ÏĤ": 2070,
      "ĠÎµÎºÎ¼ÎµÏĦÎ±Î»Î»ÎµÏħ": 2071,
      "ĠÏĢÏģÏīÏĦÎ¿ÎºÎ¿Î»Î»Î¿Ïħ": 2072,
      "Î¸Î·ÏĥÎ·": 2073,
      "ĠÎ½Î¿Î¼Î¹": 2074,
      "ĠÎµÎºÏĢÎ±Î¹Î´ÎµÏħ": 2075,
      "Ġ70": 2076,
      "Ġet": 2077,
      "Î¸ÎµÏħ": 2078,
      "ĠÏĩÏģÎ¿Î½Î¿": 2079,
      "ĠÎ±Î¼Î¿Î¹": 2080,
      "Ġ88": 2081,
      "ĠÏĥÏħÎ½ÎµÏģÎ³Î±ÏĥÎ¹Î±": 2082,
      "ĠÎ±ÏĢÎ±ÏĥÏĩÎ¿Î»Î·": 2083,
      "ĠÎ±Î½ÎµÎ¾Î±": 2084,
      "ÎµÎ½ÎµÏģÎ³": 2085,
      "ĠÎºÎ±Î¼Î¹Î±": 2086,
      "ĠÏĢÏģÎ±Î³Î¼Î±ÏĦÎ¿ÏĢÎ¿Î¹": 2087,
      "ÏħÏĦÎ¿": 2088,
      "ĠÏĥÏĦÎµ": 2089,
      "Î¹Î¶Î¿Î½ÏĦÎ±Î¹": 2090,
      "ĠÏĢÏģÏīÏĦÎ·": 2091,
      "ĠÏĥÏħÎ½ÎµÎ´": 2092,
      "ÏĩÎ¿Î½ÏĦÎ±ÏĤ": 2093,
      "ĠÎµÏĢÎ¹Î²Î±": 2094,
      "ĠÏĢÎµÏģÎ¹Î»Î±Î¼Î²Î±Î½Î¿Î½ÏĦÎ±Î¹": 2095,
      "ÎµÏĥÏĦÎµ": 2096,
      "ĠÎºÎµÎ¹Î¼ÎµÎ½Î¿": 2097,
      "ĠÎµÏĢÎ¹ÎºÎ±": 2098,
      "ÏģÏīÏĥÎ·": 2099,
      "ĠÎ¿ÏĥÎ¿": 2100,
      "ĠÏĢÎ±ÏģÎ¿ÏĩÎ·ÏĤ": 2101,
      "ĠÎ³ÏģÎ±Î¼Î¼Î±ÏĦÎµ": 2102,
      "xm": 2103,
      "ĠÎ²Î±Î¸Î¼Î¿": 2104,
      "ÏĢÎ¿Î¹Î¿Ïħ": 2105,
      "ÏĥÎºÎ¿": 2106,
      "ers": 2107,
      "Ġ2018": 2108,
      "ĠÎ²ÎµÎ»ÏĦÎ¹": 2109,
      "Ġ1998": 2110,
      "ĠÏĦÎµÏĩÎ½Î¿": 2111,
      "Ġ03": 2112,
      "ĠÏĥÎºÎ¿ÏĢÎ¿ÏħÏĤ": 2113,
      "ÏĨÎµÏģ": 2114,
      "Î¹ÎºÏīÏĤ": 2115,
      "ĠÎ¶Î·ÏĦÎ·Î¼Î±": 2116,
      "ĠÏĢÎµÏģÎ¹ÎµÏĩÎ¿": 2117,
      "ĠÎ²Î¿Î·": 2118,
      "ĠÏĢÏģÎ±Î¾ÎµÎ¹ÏĤ": 2119,
      "ve": 2120,
      "ĠÎµÎ³ÎºÎ±": 2121,
      "ĠÏĢÏģÎ¿ÏĥÏĦÎ¹": 2122,
      "Ġ89": 2123,
      "ĠÏĥÎ·Î¼Îµ": 2124,
      "ĠÎµÎ¾Î±ÏĥÏĨÎ±Î»Î¹": 2125,
      "ĠÏĩÏģÎ·ÏĥÎ¹Î¼Î¿ÏĢÎ¿Î¹Î¿ÏħÎ½ÏĦÎ±Î¹": 2126,
      "ĠÎµÎ¾ÏīÏĦÎµÏģ": 2127,
      "ĠÏĦÎ·Î»Îµ": 2128,
      "ĠÎ»Î±Î²ÎµÎ¹": 2129,
      "ap": 2130,
      "tr": 2131,
      "ĠÏĢÏģÎ¿ÏĥÏĨÏħÎ³Î·ÏĤ": 2132,
      "ĠÎµÏĢÎ¹ÏĨÏħÎ»Î±Î¾Î·": 2133,
      "ĠÎ±ÏģÏĩÏīÎ½": 2134,
      "ĠÏħÏĪÎ·": 2135,
      "ĠÎ½ÎµÎ±": 2136,
      "ĠÎ±ÏĤ": 2137,
      "ĠÎºÎ±ÏĦÎ±ÏĥÏĦÎ±": 2138,
      "ĠÎ´Î¹Î±ÏĩÎµÎ¹ÏģÎ¹ÏĥÎ·": 2139,
      "ÏĢÎµÎ¶": 2140,
      "ĠÎµÎ½Î´ÎµÎ¹": 2141,
      "ĠÎ´Î¹Î±ÏĥÏĨÎ±Î»Î¹": 2142,
      "ĠÎ±Î½ÏĦÎ±Î»Î»Î±": 2143,
      "ĠÎ¸ÎµÏĥÏĢÎ¹Ïĥ": 2144,
      "ĠÎºÎ¿Î¹Î½Î¿ÏĦÎ¹ÎºÎ¿": 2145,
      "ĠÎµÎ»Î»ÎµÎ¹": 2146,
      "Î¼ÏĢÎ¹Î½": 2147,
      "ĠÏĥÏī": 2148,
      "ÏĦÎµÎ»ÏīÏĤ": 2149,
      "ÏĨÎ¹ÏĥÎ²Î·": 2150,
      "ĠÎ¼ÎµÏĦÎ±ÏĩÎµÎ¹ÏģÎ¹": 2151,
      "000": 2152,
      "ĠÎµÎ¿": 2153,
      "ĠÎµÎ¹Î´Î¹ÎºÎ¿ÏĦÎµÏģÎ±": 2154,
      "ĠÏĢÎ±ÏģÎµÏĩÎµÎ¹": 2155,
      "ĠÎ´Î¹Î±ÏĢÏģÎ±": 2156,
      "ĠÎ±ÏĢÎ¿ÏĦÎµÎ»ÎµÏĥÎ¼Î±ÏĦÎ±": 2157,
      "ĠÏĢÏģÎ¿ÏħÏĢÎ¿Î¸ÎµÏĥÎ·": 2158,
      "oa": 2159,
      "ĠÎ¸ÎµÏĥÏĢ": 2160,
      "ĠÏĢÏģÏīÏĦÎ¿Î´Î¹ÎºÎµÎ¹Î¿": 2161,
      "ĠÎ±Î½Î±ÏĨÎ¿ÏģÎ±ÏĤ": 2162,
      "ĠÎµÏĦ": 2163,
      "ĠÏĢÎ¿Î»Î¹ÏĦÎ¹ÎºÎ·ÏĤ": 2164,
      "Î¼ÏĢÎ¹Î½Î³Îº": 2165,
      "ÏĩÎ¹Ïĥ": 2166,
      "Ġ56": 2167,
      "Ġ59": 2168,
      "ÏĪÎµ": 2169,
      "ĠÎºÎ±Î¸Î·Îº": 2170,
      "ĠÏĢÏģÎ¿Ïī": 2171,
      "ĠÏħÎ»ÏīÎ½": 2172,
      "ĠÎ¿Î¼ÏīÏĤ": 2173,
      "se": 2174,
      "Î»Î¹ÎºÎ±": 2175,
      "ĠÎ¿Î¹ÎºÎ¿Î½Î¿Î¼Î¹ÎºÎ·ÏĤ": 2176,
      "ĠÏĥÎµÎ¹": 2177,
      "ÏģÏħÎ½": 2178,
      "ort": 2179,
      "Î½Î¿Î½ÏĦÎ±ÏĤ": 2180,
      "ÏĢÎ¿ÏĤ": 2181,
      "ĠÎºÏħÏģÎ¹Î±": 2182,
      "Ġac": 2183,
      "ĠÎµÎ¸Î½Î¹ÎºÎ·": 2184,
      "ĠÎ¶Î·ÏĦÎµÎ¹": 2185,
      "ĠÏģÎ±": 2186,
      "ÏĦÎµÏģÎµÏĤ": 2187,
      "Ġsp": 2188,
      "ĠÏĢÏģÎ¿Î±Î½Î±": 2189,
      "ĠÎ»ÎµÏĢÏĦÎ¿": 2190,
      "ĠÎºÎ±Î¸Î±": 2191,
      "ĠÎ¼ÎµÎ¹Ïī": 2192,
      "ĠÎ¹Î´Î¹Î±Î¹": 2193,
      "ĠÎµÎ³Î³ÏħÎ·": 2194,
      "ĠÏħÎ»Î¿": 2195,
      "ĠÎµÎºÎ´Î¹": 2196,
      "ĠÎºÏħÏģÎ¹Î±ÏĤ": 2197,
      "Ġ47": 2198,
      "ÏĦÎ¹ÎºÎ¿ÏĦÎ·ÏĦÎ±": 2199,
      "ÎµÏĥ": 2200,
      "ĠÏĥÏħÎ¼Î²Î±ÏĥÎ·ÏĤ": 2201,
      "ĠÏĢÎ±ÏģÎ±ÎºÎ¿Î»Î¿Ïħ": 2202,
      "ĠÎ¼ÎµÏģÎ¹": 2203,
      "ĠÏĥÏĩÎµÎ´Î¹Î¿": 2204,
      "ĠÏħÏĪ": 2205,
      "ĠÎºÎ¹": 2206,
      "ĠÎ±ÏĢÎ¿ÏĦÎµÎ»Î¿ÏħÎ½": 2207,
      "ĠÎ¿ÏģÎ¹ÏĥÎ¼ÎµÎ½ÎµÏĤ": 2208,
      "ÎµÎ±": 2209,
      "ĠÎ¿ÏģÎ¹ÏĥÎ¼ÎµÎ½ÏīÎ½": 2210,
      "Î²Î±ÏĥÎ·ÏĤ": 2211,
      "ĠÎ±Î³": 2212,
      "ÏħÏĥÎ¹": 2213,
      "Î»ÎµÎ¹ÏĦÎ±Î¹": 2214,
      "Ġsa": 2215,
      "ĠÎºÎ¿Î¹Î½Î¿ÏĦÎ¹ÎºÎ¿Ïħ": 2216,
      "Î¼ÎµÎ½Ïī": 2217,
      "ĠÎºÎ±Î¸Î¿ÏģÎ¹ÏĥÎ¼Î¿": 2218,
      "ĠÎ±Î½ÏĦÎ¹ÎºÎµÎ¹": 2219,
      "ĠÎ¿Î»Î¿Îº": 2220,
      "ĠÎ´Î±Î½": 2221,
      "ĠÎ´Î¹Î±Î²Î¿ÏħÎ»ÎµÏħ": 2222,
      "ĠÎµÏģÎµÏħÎ½Î±ÏĤ": 2223,
      "ĠÎ¹ÏĥÏĩÏħÏģÎ¹Ïĥ": 2224,
      "ĠÏĦÎ¹Î¼ÏīÎ½": 2225,
      "ĠÎ±Î¼ÏĨÎ¹ÏĥÎ²Î·": 2226,
      "ĠÎ¿Î½": 2227,
      "Ġag": 2228,
      "Ġ05": 2229,
      "ĠÎºÎ»Î±ÏĥÎ·ÏĤ": 2230,
      "ĠÏĢÎ¿Î¹": 2231,
      "ĠÎ±Î´ÎµÎ¹Î±ÏĤ": 2232,
      "ĠÎ´Î¹ÎµÏħÎºÏģÎ¹": 2233,
      "ĠÎ»ÏĢ": 2234,
      "Ġ1995": 2235,
      "ĠÏĢÏģÎ¿ÎºÎµÎ¹Î¼ÎµÎ½Ïī": 2236,
      "ĠÎ´Î¹Î±ÏĥÏĦÎ·Î¼Î±": 2237,
      "ĠÏĥÏħÎ½Î¸Î·ÎºÎ·": 2238,
      "Î´Î¹ÎµÏĤ": 2239,
      "ĠÎ¿Î»Î¿ÎºÎ»Î·ÏģÏī": 2240,
      "Ġdes": 2241,
      "ĠÎµÏĩÎ¿Î½ÏĦÎ±ÏĤ": 2242,
      "Î»Î¿Î³Î¹Î±ÏĤ": 2243,
      "Ġy": 2244,
      "ĠÎºÎ±ÏĦÎ±ÏĥÎºÎµÏħÎ±Ïĥ": 2245,
      "ĠÏĢÏģÎ±Î³Î¼Î±ÏĦÎ¹": 2246,
      "ĠÎ±ÏģÎ¹Î¸Î¼Î¿ÏĤ": 2247,
      "ĠÎ±ÏĢÎ±ÏģÎ±Î¹": 2248,
      "ÏĢÎ»Î¹Ïĥ": 2249,
      "ĠÏĥÏħÎ¼ÏĢÎ»Î·ÏģÏīÎ¼Î±": 2250,
      "Ġ71": 2251,
      "ĠÎºÏħÏģÎ¹": 2252,
      "ĠÎºÎ»Î¹": 2253,
      "Î¸Î¼Î¹Ïĥ": 2254,
      "22": 2255,
      "Î»ÎµÎµ": 2256,
      "Ġ53": 2257,
      "Ġ75": 2258,
      "ub": 2259,
      "ĠÏĢÎµÏģÎ¹ÏĥÏĦÎ±": 2260,
      "ĠÏĥÎ»ÎµÎµ": 2261,
      "ĠÎ¿ÏģÎ¹Î¶ÎµÎ¹": 2262,
      "uc": 2263,
      "ĠÎ²Î¿Ïħ": 2264,
      "Î³Î±ÏģÎ¹Î±Ïĥ": 2265,
      "ĠÎºÎ±Î¸Î¿ÏĥÎ¿Î½": 2266,
      "ĠÎ»ÎµÏĢÏĦÎ¿Î¼Îµ": 2267,
      "ĠÏħÏĢÎ±ÏģÏĩÎµÎ¹": 2268,
      "ĠÎ·Î»ÎµÎºÏĦÏģÎ¿Î½": 2269,
      "ĠÏĢÎ±ÏģÎ±Î³ÏīÎ³Î·": 2270,
      "ĠÏĦÎ¿ÏĥÎ¿": 2271,
      "ĠÏĥÏħÎ¼ÏĢÎµÏģÎ±Ïĥ": 2272,
      "ĠÏĥÎ·Î¼Î±ÏĦÎ¿ÏĤ": 2273,
      "ĠÎ¼ÏĢÎ¿ÏģÎ¿ÏħÏĥÎµ": 2274,
      "ĠÎµÎ½ÎµÏģÎ³ÎµÎ¹Î±ÏĤ": 2275,
      "ne": 2276,
      "ÏĥÏĩÎµ": 2277,
      "ĠÎ±ÏĢÎ¿ÏĨÎ±ÏĥÎ¹Ïĥ": 2278,
      "ĠÎµÏĢÎ¹ÏĥÎ·Î¼Î±": 2279,
      "Ġ1996": 2280,
      "lo": 2281,
      "Î»Î»ÎµÏĤ": 2282,
      "Ġ86": 2283,
      "ĠÏĦÎ±Î¼ÎµÎ¹": 2284,
      "Ê¹": 2285,
      "Ġ81": 2286,
      "Ġor": 2287,
      "ĠÎ´Î¹ÎµÎ½ÎµÏģÎ³": 2288,
      "ĠÎ»Î¿Î³Î±ÏģÎ¹Î±Ïĥ": 2289,
      "ĠÎµÎ´Î±ÏĨÎ¿ÏĤ": 2290,
      "ĠÏĢÎ·": 2291,
      "ĠÎµÏĢÎ±Î½Îµ": 2292,
      "Î³ÎµÎ½ÎµÏĥÏĦÎµ": 2293,
      "Ġ1994": 2294,
      "ĠÏĢÏģÎ¿ÎºÎµÎ¹ÏĦÎ±Î¹": 2295,
      "Ġ2020": 2296,
      "ĠÎ¼ÎµÎ¹ÏīÏĥÎ·": 2297,
      "ĠÎ±Î½ÏĦÎ¹Î¼Îµ": 2298,
      "la": 2299,
      "ĠÎµÎ³ÎºÏģÎ¹ÏĥÎ·": 2300,
      "ÏĢÎµÏĤ": 2301,
      "ĠÏĦÏģÎ±ÏĢÎµÎ¶": 2302,
      "ÏģÏħÎ¾Îµ": 2303,
      "ĠÎ±ÏģÎ½Î·": 2304,
      "ĠÏĢÎ¹Î½Î±ÎºÎ±": 2305,
      "Ġcomm": 2306,
      "Î²ÎµÎ²Î±": 2307,
      "Î´Î¹Ïī": 2308,
      "ĠÎ¼ÎµÏĥÎ¿": 2309,
      "ĠÏĢÏģÎ¿ÏĥÏĨÏħÎ³ÏīÎ½": 2310,
      "ĠÎ±ÏĢÎ±Î¹ÏĦÎµÎ¹ÏĦÎ±Î¹": 2311,
      "Ġmar": 2312,
      "Ã°": 2313,
      "Ġ83": 2314,
      "ĠÎ±Î½ÏĦÎ¹Î¼ÎµÏĦÏī": 2315,
      "Î³Î¿ÏĦÎµÏģÎ¿": 2316,
      "Î³Î½Ïī": 2317,
      "ard": 2318,
      "ĠÎµÏĢÎ¹ÏĩÎµÎ¹ÏģÎ·Î¼Î±ÏĦÎ±": 2319,
      "so": 2320,
      "ĠÎ±ÏģÎ¼Î¿Î´Î¹ÎµÏĤ": 2321,
      "Ġ1997": 2322,
      "Ġ54": 2323,
      "ĠÎµÎ½ÏĦÎ¿": 2324,
      "ĠÎµÏĢÎ·": 2325,
      "Î¼Î¹Ïī": 2326,
      "Ġ57": 2327,
      "ĠÏĥÏħÎ¼Î¼ÎµÏĦÎ¿ÏĩÎ·": 2328,
      "ĠÏĢÎµÎ´Î¹Î¿": 2329,
      "ĠÎºÎ¿Î¹Î½Î¿Ïħ": 2330,
      "Åĵ": 2331,
      "ĠÎµÏģÎ¼Î·Î½ÎµÎ¹Î±": 2332,
      "Î¼Î½Î·": 2333,
      "ĠÏĢÏģÎ¿ÏĥÏĨÎµÏħÎ³Î¿Î½": 2334,
      "ĠÎµÎ½Î±ÏģÎ¾Î·": 2335,
      "ĠÎ±Î½ÏĦÎ±Î³ÏīÎ½Î¹ÏĥÎ¼Î¿Ïħ": 2336,
      "if": 2337,
      "Ġsgy": 2338,
      "ĠÏĢÎµÏģÎ¹ÏĨÎµÏģÎµÎ¹Î±": 2339,
      "ĠâĢ¢": 2340,
      "ĠÏĥÏħÎ½ÎµÏĩÎµÎ¹Î±": 2341,
      "Î´ÏīÏĥÎµ": 2342,
      "Ġad": 2343,
      "Ġ04": 2344,
      "ĠÏĥÏĦÏģÎ±": 2345,
      "ĠÏħÏĢÎ¿ÏĥÏĦÎ·ÏģÎ¹Î¶ÎµÎ¹": 2346,
      "ĠÎµÏĢÎ¹ÎºÎ¿Ïħ": 2347,
      "ĠÏħÎ´Î±": 2348,
      "ĠÎ¼ÎµÎ³Î±Î»Ïħ": 2349,
      "ement": 2350,
      "ĠÎ±ÏģÎ¼Î¿Î´Î¹Î±": 2351,
      "Ġ58": 2352,
      "ÎºÏģÎ¹Î²": 2353,
      "Ġ73": 2354,
      "ĠÏĦÎ±Î¾Î¹": 2355,
      "ĠÎºÎµÏĨÎ±Î»Î±Î¹Î¿Ïħ": 2356,
      "ĠÎ±Î½ÏĦÎ¹Ïĥ": 2357,
      "Ġ65": 2358,
      "ÎµÎ¹Ïĥ": 2359,
      "ÏĦÎ±Ïĥ": 2360,
      "ĠÏĢÏģÎ¿ÏĥÏīÏĢÎ¹ÎºÎ¿Ïħ": 2361,
      "ĠÏĢÏģÎ¿ÏĦÏħ": 2362,
      "ĠÎ´Î¹Î±Î´Î¹ÎºÎ¿Î¹": 2363,
      "ĠÎ³Î¹Î½ÎµÎ¹": 2364,
      "ÏĥÏĢÎ¿Î½": 2365,
      "ĠÎµÎ¼ÏĢÎ¿ÏģÎµÏħÎ¼Î±ÏĦÏīÎ½": 2366,
      "ĠÎ´Î¹Î±Î²Î¹": 2367,
      "Î¼ÎµÎ¹ÏĤ": 2368,
      "Î»Î¹ÎºÎ·ÏĤ": 2369,
      "ÏĢÎµÏħ": 2370,
      "Ġ77": 2371,
      "ĠÏĢÏģÎ¿Î²Î»Î·": 2372,
      "ĠÎ´Î¹Î±ÏĩÎµÎ¹ÏģÎ¹ÏĥÎ·ÏĤ": 2373,
      "ĠÎ±ÏħÏĦÎ¿ÏĤ": 2374,
      "ÏģÏīÏĤ": 2375,
      "ĠÎ¿ÏĢÎ¿Î¹Î±ÏĤ": 2376,
      "ĠÏĢÎ±Î¹": 2377,
      "ĠÎ²ÏģÏħÎ¾Îµ": 2378,
      "ĠÎ²ÏģÎ¹Ïĥ": 2379,
      "ĠÎ´Î¹Î±ÏĨÎ¿ÏģÎ±": 2380,
      "ĠÎºÏģÎ¹ÏĦÎ·ÏģÎ¹Î±": 2381,
      "ĠÏĢÏģÎ¿Î¼Î·": 2382,
      "ĠÎµÎ¹Î´Î·": 2383,
      "ĠÏĥÏħÎ½ÎµÎ´ÏģÎ¹Î±": 2384,
      "Ġ61": 2385,
      "ĠÏĨÎ±ÏģÎ¼Î±": 2386,
      "ĠÏĦÎ¿ÏħÏĦÎ¿Ïħ": 2387,
      "ĠÏĦÎµÎ»ÎµÏħÏĦÎ±": 2388,
      "ĠÏĢÎ±ÏģÎ¿Î¼Î¿": 2389,
      "Ġ68": 2390,
      "ĠÏĦÎ±ÏħÏĦÎ¿": 2391,
      "ĠÎ±Î¾Î¹Î¿Î»Î¿Î³Î·ÏĥÎ·": 2392,
      "ĠÎ´Î±ÏĢÎ±Î½ÎµÏĤ": 2393,
      "ĠÎ´ÎµÎ¹": 2394,
      "ĠÎ±ÏĢÎ¿Î¶Î·": 2395,
      "ĠÏĢÏģÎ¿ÏĥÎ²Î±Î»Î»Î¿Î¼ÎµÎ½Î·ÏĤ": 2396,
      "ĠÎ½Î¿Î¼Î¿Ïħ": 2397,
      "ĠÎ»Î¿Î³Î¿ÏĤ": 2398,
      "ĠÏĢÎ»Î¿": 2399,
      "ĠÎµÎ¾Î±Î»Î»Î¿Ïħ": 2400,
      "ĠÎ³Î½ÏīÎ¼Î·": 2401,
      "ĠÎ´Î¹ÎºÎ±Î¹Î¿Î»Î¿Î³Î·": 2402,
      "ĠÎºÎ¿Î¹Î½Î·": 2403,
      "Ġtri": 2404,
      "ĠÏĢÎ±ÏģÎ±ÏĦÎ·ÏģÎ·ÏĥÎµÎ¹ÏĤ": 2405,
      "ĠÎ¸ÎµÏĥÏĢÎ¹ÏĥÎ·": 2406,
      "Ġpar": 2407,
      "Î³Î¼Î±ÏĦÎ±": 2408,
      "ÏĥÎ¹Î¿Î´Î¿": 2409,
      "Ġma": 2410,
      "ĠÏĦÎµÏĦÎ±": 2411,
      "ĠÎºÎ±Î¸Î¿ÏģÎ¹Î¶Î¿Î½ÏĦÎ±Î¹": 2412,
      "ĠÏĥÏħÎ½ÏĦÎµÎ»ÎµÏĥ": 2413,
      "ÏĥÎ¹ÏīÎ½": 2414,
      "ÏģÎµÎ¹ÏĤ": 2415,
      "ĠÏħÏĢÎ¿Î´Î¿": 2416,
      "ĠÏĥÏħÏĥÏĦÎ±": 2417,
      "Î»Î¹ÎºÎ¿Ïħ": 2418,
      "Ġbas": 2419,
      "ĠÎµÎºÏĦÎµÎ»ÎµÏĥÎ·": 2420,
      "ĠÎµÎ¾Î¿ÏħÏĥÎ¹Î¿Î´Î¿": 2421,
      "Î½Î¿Î¼ÎµÎ½Î·ÏĤ": 2422,
      "Ġ1992": 2423,
      "Ġiii": 2424,
      "Ġ09": 2425,
      "ĠÏĢÏģÏīÏĦÎ¿Î´Î¹ÎºÎµÎ¹Î¿Ïħ": 2426,
      "Ġcp": 2427,
      "ĠÎµÏĢÎ¹ÏĥÏĦÏģÎ¿": 2428,
      "ĠÏħÏĢÎ·ÏģÎµÏĥÎ¹Î±ÏĤ": 2429,
      "ĠÎµÎ¼ÏĢÎ¹": 2430,
      "ĠÎµÏĢÎµÎ¹": 2431,
      "ĠÎ±Î½Î±Î³ÎºÎ±Î¹Î±": 2432,
      "ĠÎµÏĢÎ¹ÏĥÏĦÎ·": 2433,
      "ĠÎ´ÏħÎ½Î±ÏĦÎ¿Î½": 2434,
      "ĠÎ´ÏģÎ±ÏĥÏĦÎ·ÏģÎ¹Î¿ÏĦÎ·ÏĦÏīÎ½": 2435,
      "ĠÎ¶Î±": 2436,
      "ĠÏĥÏħÎ½ÎµÏĢÎ±": 2437,
      "ĠÎ±ÏĢÎ±Î½ÏĦÎ·ÏĥÎ·": 2438,
      "ĠÎ¼ÎµÏģÏīÎ½": 2439,
      "ĠÏĥÏħÎ½Î¹ÏĥÏĦÎ±": 2440,
      "ĠÎ±ÏĦÎµÎ»ÏīÏĤ": 2441,
      "ĠÏĢÏģÎ¿ÏĥÎºÎ¿": 2442,
      "ĠÏĢÎ»Î±Î¹ÏĥÎ¹Î¿Ïħ": 2443,
      "ĠÏĥÏħÎ¼ÏĢÎµÏģÎ¹Î»Î±Î¼Î²Î±Î½Î¿Î¼ÎµÎ½ÏīÎ½": 2444,
      "ĠÏĥÏħÎ¼Î²Î±": 2445,
      "ÏĨÎ¸Î¿ÏħÎ½": 2446,
      "ĠÎ±ÏĢÎ¿Î¶Î·Î¼Î¹Ïī": 2447,
      "ÎµÎ½ÏĦÏģÏī": 2448,
      "ĠÎºÎ¿Î¹Î½Î¿ÏĢÎ¿Î¹Î·": 2449,
      "Ġbe": 2450,
      "ÏģÎ±Î½": 2451,
      "ung": 2452,
      "ĠÏĢÏģÎ¿ÏĥÏīÏĢÎ¿": 2453,
      "ĠÎ³Ïħ": 2454,
      "ĠÏĥÏħÎ¼Î¼ÎµÏĦÎµ": 2455,
      "ĠÎµÎ½Î±Î½ÏĦÎ¹": 2456,
      "ĠÎµÎºÏĦÎ±": 2457,
      "ÏĦÏģÎ¹ÎºÎ·": 2458,
      "Ġ79": 2459,
      "ÏħÏĥÎ·": 2460,
      "ĠÏĥÏĦ": 2461,
      "ĠÎ¿ÏģÎ¹Î¶ÎµÏĦÎ±Î¹": 2462,
      "ĠÎºÎ±Î¸ÎµÏĥÏĦÏī": 2463,
      "01": 2464,
      "Ġ06": 2465,
      "sp": 2466,
      "Î¹Î¶Î¿ÏħÎ½": 2467,
      "ĠÏĢÎ±ÏģÎ±Î²Î¹Î±": 2468,
      "ĠÎµÎ»Î»Î·": 2469,
      "Ġmc": 2470,
      "ĠÎ¼Î¹ÎºÏģÎ¿": 2471,
      "ĠÎºÎ±Î½Î¿": 2472,
      "ĠÏĩÏģÎ·ÏĥÎ¹Î¼Î¿ÏĢÎ¿Î¹Î¿Ïħ": 2473,
      "ĠÎµÎ¹ÏĥÎ±Î³ÏīÎ³ÎµÏĤ": 2474,
      "Î¼Î²Î¿Ïħ": 2475,
      "ĠÎµÏģÎµÏħÎ½Î±": 2476,
      "ÏĥÏĦÎ¿Ïħ": 2477,
      "ĠÎµÎºÎ¸Îµ": 2478,
      "ĠÎ±ÏĥÎºÎ·ÏĥÎ·": 2479,
      "ÏĨÎ¿ÏģÎ¹Î±ÏĤ": 2480,
      "ĠÎ´Î·Î»Î±": 2481,
      "Ġ76": 2482,
      "ĠÎºÎ±ÏĦÎ±ÏģÎ³Î·": 2483,
      "ĠÎ´Î·Î»Î±Î´Î·": 2484,
      "ĠÎ±Î´ÎµÎ¹": 2485,
      "ĠÏĦÏħÏĢÎ¿Ïħ": 2486,
      "Î³Î¼Î±ÏĦÎµÏħ": 2487,
      "Ä±": 2488,
      "ĠÏĢÎ±Î½": 2489,
      "Ġ<": 2490,
      "ĠÎµÎ½Î¹Î±": 2491,
      "Ġkg": 2492,
      "ÏĦÎ·ÏģÎ¹ÏīÎ½": 2493,
      "ĠÎµÎ½Î±ÏģÎ¼Î¿Î½Î¹Ïĥ": 2494,
      "ĠÎ¼ÎµÏĦÎ±ÏĨÎ¿ÏģÎ±": 2495,
      "Ġ1993": 2496,
      "ĠÎ±Î»Î¹ÎµÎ¹Î±ÏĤ": 2497,
      "Ġse": 2498,
      "ĠÎµÎ¿Ïĩ": 2499,
      "ik": 2500,
      "ĠÏĢÎ±ÏģÎ±Î´Î¿": 2501,
      "ĠÎ¿ÏĢÎ¿Î¹Î¿Î¹": 2502,
      "ÏĦÎ¹Î¸ÎµÏĦÎ±Î¹": 2503,
      "ĠÎ»Î¿ÏħÎ¾Îµ": 2504,
      "ĠÏĢÏģÎ¿ÏĥÏīÏĢÎ±": 2505,
      "ĠÏĦÎ¹ÏĦÎ»Î¿": 2506,
      "Î¸ÎµÎ¹Î±ÏĤ": 2507,
      "ĠÎ±ÎºÎ¿Î»Î¿ÏħÎ¸Î±": 2508,
      "ĠÏĦÏģÎ¿ÏĢÎ¿ÏĢÎ¿Î¹Î·Î¸Î·ÎºÎµ": 2509,
      "ĠÏĢÎµÏģÎ¹Î¿Î´Î¿Ïħ": 2510,
      "ĠÏĢÎµÏģÎ±Î¹": 2511,
      "ĠÎ¾Îµ": 2512,
      "Ġdu": 2513,
      "Ġch": 2514,
      "ĠÏĦÎ¿Î¼ÎµÎ¹ÏĤ": 2515,
      "ĠÎ¼ÎµÏĦÎ±ÏĨÎ¿ÏģÎ±ÏĤ": 2516,
      "ĠÎ³Î¹Î½ÎµÏĦÎ±Î¹": 2517,
      "iv": 2518,
      "ĠÎ´Î¹Î±ÏĢÏģÎ±Î³Î¼Î±ÏĦÎµÏħ": 2519,
      "ĠÎ´Î¹ÎµÎ¾Î±": 2520,
      "ĠÎ²ÎµÎ»Î³": 2521,
      "ĠÏĥÎ¿Î²Î±": 2522,
      "ĠÏĨÎ¿ÏģÎ¿Ïħ": 2523,
      "ĠÎ´Ïī": 2524,
      "oy": 2525,
      "ĠÎ±Î½Î±Î¹ÏģÎµÏĥÎµÎ¹": 2526,
      "Î»Î¹ÏīÎ½": 2527,
      "ĠÏĥÏĦÎ·ÏģÎ¹Î¾Î·": 2528,
      "ÎºÎ¿ÏħÎ½": 2529,
      "ĠÏĦÏģÎ¹ÏĦÎ¿": 2530,
      "ĠÏĢÎµÏģÎ±Î¹ÏĦÎµÏģÏī": 2531,
      "ist": 2532,
      "ĠÏħÏĢÎµÎ²Î±Î»Îµ": 2533,
      "ĠÎ½ÎµÎ¿": 2534,
      "Î»Î¹ÏĥÎ·": 2535,
      "ĠÎ±Î½ÏĦÎ±Î³ÏīÎ½Î¹Ïĥ": 2536,
      "oÏħ": 2537,
      "ĠÎ´Î·Î»ÏīÏĥÎ·": 2538,
      "ĠÎ¿Î¹ÎºÎ¿Î½Î¿Î¼Î¹ÎºÎ·": 2539,
      "ĠÏĢÏģÎ¿ÏĥÎ²Î±Î»Î»Î¿Î¼ÎµÎ½Î·": 2540,
      "ĠÏĩÎ¿ÏģÎ·Î³Î·ÏĥÎ·": 2541,
      "ÏĨÎµÏĤ": 2542,
      "tic": 2543,
      "ĠÏĢÏģÎ¿Î±Î½Î±ÏĨÎµÏģ": 2544,
      "ĠÎµÎ½ÎµÏģÎ³ÎµÎ¹Î±": 2545,
      "ĠÎµÎ¾Î±ÏĥÏĨÎ±Î»Î¹Ïĥ": 2546,
      "ĠÏħÏĢÎ·ÎºÎ¿": 2547,
      "ĠÎ»Î¿ÏħÎ¾ÎµÎ¼Î²Î¿Ïħ": 2548,
      "Ġpq": 2549,
      "ĠÏħÏĢÎ±ÏģÎ¾Î·": 2550,
      "Î²Î±Î»Î»Î¿Î½ÏĦÎ±Î¹": 2551,
      "ĠÎ³Î½ÏīÏĥÏĦÎ¿": 2552,
      "ĠÎµÎ¾Î¿ÏĢÎ»Î¹Ïĥ": 2553,
      "ĠÎ±Î¾Î¹Î±ÏĤ": 2554,
      "ĠÎ¹ÏĥÏĩÏħÎ¿ÏħÎ½": 2555,
      "Ġeurop": 2556,
      "ĠÎµÏĢÎ±Î½Î±": 2557,
      "ÏĨÎ¹Î±": 2558,
      "Ġ78": 2559,
      "Ġ67": 2560,
      "ant": 2561,
      "Î¼Î²": 2562,
      "ÏĨÎ±Î»": 2563,
      "Î»ÎµÎ¹Î±": 2564,
      "Ġee": 2565,
      "ĠÎ±ÏĨÎ¿Ïħ": 2566,
      "ÏĦÎ¹Î¸ÎµÎ½ÏĦÎ±Î¹": 2567,
      "ĠÎµÏģÎ³Î±ÏĥÎ¹Î±": 2568,
      "ÏĦÎ¿ÏħÎ½ÏĦÎ±Î¹": 2569,
      "ĠÏĨÎ¿ÏģÎµÎ¹ÏĤ": 2570,
      "Ġam": 2571,
      "co": 2572,
      "Î¹Î½Î¿ÏħÎ½": 2573,
      "ĠÎ¼Î·Î½": 2574,
      "ĠÎµÎºÏĢÎ¿Î¼": 2575,
      "ĠÎ´Î¹ÎºÎ¿": 2576,
      "Ġiv": 2577,
      "ĠÏĩÏīÏģÎ±ÏĤ": 2578,
      "Ġ72": 2579,
      "ĠÎ±ÏĢÎ±Î»Î»Î±": 2580,
      "ĠÎ±Î¹ÏĦÎ¹Î±": 2581,
      "ss": 2582,
      "ĠÎºÎ±ÏĦÎ±ÏģÏĦÎ¹": 2583,
      "ĠÎ±ÏĢÎ¿Î¸Îµ": 2584,
      "ĠÎµÎ¾ÎµÎ´ÏīÏĥÎµ": 2585,
      "ĠÎ´Î¹Î±ÏĥÏĨÎ±Î»Î¹Ïĥ": 2586,
      "ÏīÏģÎ·": 2587,
      "ĠÎµÎ½ÎµÏģÎ³ÎµÎ¹": 2588,
      "ĠÎ»Î±Î¼Î²Î±Î½ÎµÎ¹": 2589,
      "Ġ63": 2590,
      "ĠÏĦÎµÎº": 2591,
      "Î¼Î¿Î½": 2592,
      "Ġgr": 2593,
      "ĠÎµÏģÎ³Î¿ÏĥÏĦÎ±": 2594,
      "ĠÎ±ÏģÎ¸ÏģÏīÎ½": 2595,
      "ĠÎ¶Î±ÏĩÎ±": 2596,
      "ĠÎ´Î¹Î±ÏĦÏħÏĢ": 2597,
      "ĠÎµÎ¾Î±Î¹ÏģÎµÏĥÎ·": 2598,
      "Ġreg": 2599,
      "ĠÎ¸ÎµÎ¼Îµ": 2600,
      "ĠÎºÎ¿Î¹Î½Î¿Î²Î¿ÏħÎ»Î¹Î¿": 2601,
      "ĠÏģÏħÎ¸Î¼Î¹ÏĥÎ·": 2602,
      "ĠÏĢÎ±ÏģÎµÎº": 2603,
      "Ġ69": 2604,
      "ĠÎ±Î½Î·": 2605,
      "ĠÎ±Î½ÏĦÎ¹ÎºÎ±Î¸": 2606,
      "ĠÏĢÏģÎ¿Î¸ÎµÏĥÎ¼Î¹Î±ÏĤ": 2607,
      "ÏģÎ¹ÎºÎ·ÏĤ": 2608,
      "ĠÎ±Î»Î»Î¿Ïħ": 2609,
      "ĠÎºÎ±Î½Îµ": 2610,
      "Ġim": 2611,
      "ÎºÎ¿Î»Ïħ": 2612,
      "Î²Î±Î»Î»Î¿ÏħÎ½": 2613,
      "ĠÏħÏĢÎ¿ÏĩÏģÎµÏīÏĥÎµÏīÎ½": 2614,
      "ĠÏĨÎ¿ÏģÎµ": 2615,
      "ÏģÎ¿Î±": 2616,
      "ÏĦÎµÏģÏīÎ½": 2617,
      "ĠÎµÏĢÎ¹Î²ÎµÎ²Î±": 2618,
      "ĠÎ¸ÎµÎ¼Î±ÏĦÎ±": 2619,
      "ÏģÎ³Î¿": 2620,
      "Ġ64": 2621,
      "ĠÎ´Î¹ÎµÏħÎºÎ¿Î»Ïħ": 2622,
      "ell": 2623,
      "ĠÎºÎ¿Î¹Î½Î·ÏĤ": 2624,
      "ĠÎ±Î½Î±Î³ÎºÎ±Î¹Î¿": 2625,
      "ĠÎ±ÏĢÎ¿Î»Ïħ": 2626,
      "ĠÏĥÏħÎ¼Î²Î±ÏĥÎµÏīÏĤ": 2627,
      "ĠÎ½Î¿Î¼Î¹ÎºÎ·": 2628,
      "Î»Î¿ÏħÎ½ÏĦÎ±Î¹": 2629,
      "ĠÎ¿Î¼Î¿ÏĥÏĢÎ¿Î½": 2630,
      "ĠÎµÏĦÏīÎ½": 2631,
      "ĠÎ¿ÏģÎ³Î±Î½Ïī": 2632,
      "Ġ62": 2633,
      "ÏģÎµÏĢÎµ": 2634,
      "ĠÎ¸Î±Î»Î±Ïĥ": 2635,
      "ĠÏĢÏģÎ¿ÏĥÏĨÎµÏħÎ³Î¿ÏħÏĥÎ±ÏĤ": 2636,
      "ĠÎ¼ÎµÏĦÎ±ÏĨÎ¿ÏģÏīÎ½": 2637,
      "ial": 2638,
      "Î»Î¹Î±ÏĤ": 2639,
      "ĠÎ±ÏĢÎ¿ÏĨÎ±ÏĥÎµÏīÎ½": 2640,
      "ĠÎ³Î±Î»Î±": 2641,
      "ĠÎµÎ³ÎºÎ±ÏĦÎ±ÏĥÏĦÎ±": 2642,
      "ÏģÎ¹Î¶Î¿ÏħÎ½": 2643,
      "ĠÎ½Î¿Î¼Î¿Î¸ÎµÏĥÎ¹Î±ÏĤ": 2644,
      "ÏĩÎ¹Î±": 2645,
      "ÏĦÏģÎµÏĢÎµÎ¹": 2646,
      "ĠÏĦÎµÎ»ÎµÏħÏĦÎ±Î¹Î±": 2647,
      "Î³Î¼Î±ÏĦÎ¿ÏĤ": 2648,
      "ĠÎ±ÏģÎ¹Î¸Î¼Î¿": 2649,
      "ĠÎ´Î±ÏĥÎ¼Î¿Î»Î¿Î³": 2650,
      "Ġfin": 2651,
      "ÎµÎº": 2652,
      "ĠÏĥÏħÎ³ÎºÏģÎ¹": 2653,
      "ĠÎºÎ¿Î¹Î½ÏīÎ½Î¹ÎºÎ·ÏĤ": 2654,
      "ĠÏĢÏģÎ¿ÎµÎ´ÏģÎ¿ÏĤ": 2655,
      "ĠÏĥÏħÎ¼ÏĨÏīÎ½Î·": 2656,
      "ĠÎµÎ¾Î¿Î´ÏīÎ½": 2657,
      "ĠÏĥÎ·Î¼ÎµÎ¹Ïī": 2658,
      "ĠÎ´Î¹ÏĢ": 2659,
      "ĠÎµÎ½Î±ÏĤ": 2660,
      "Ġ!": 2661,
      "Ġ82": 2662,
      "ĠÏĨÏĢÎ±": 2663,
      "Ġ66": 2664,
      "ĠÏĢÎ¿ÏĥÎ¿ÏĥÏĦÎ¿": 2665,
      "ĠÎ±Î¹ÏĦÎ¹Î¿Î»Î¿Î³Î·": 2666,
      "Î´ÏģÎ¿Î¼": 2667,
      "ĠÏĥÏħÎ³ÎºÎµÎ½ÏĦÏģÏī": 2668,
      "ĠÎ±ÏĦÎ¿": 2669,
      "ĠÏĦÎ¿ÏĢ": 2670,
      "ĠÎºÎ¿ÏĥÏĦÎ¿ÏĤ": 2671,
      "ĠÎ±Î½Î±ÏĢÏĦÏħÎ¾Î·ÏĤ": 2672,
      "ass": 2673,
      "ĠÏĢÏģÎ¿ÏĥÎµÎ³Î³": 2674,
      "ÏĦÎµÎ¸ÎµÎ¹": 2675,
      "ĠÎ¸Ïħ": 2676,
      "ÏģÎ¹Î¶Î¿": 2677,
      "ĠÎµÎ½Î·Î¼ÎµÏģÏī": 2678,
      "ÏģÎ¹ÏĥÎ¼Î¿Ïħ": 2679,
      "ĠÎ±Î³Î±": 2680,
      "ĠÏĢÎ±ÏģÎµÎºÎº": 2681,
      "ĠÎ±Î½Î±Î³ÎºÎ·": 2682,
      "ĠÎµÎ¼ÏĢÎµÎ¹": 2683,
      "ĠÎ´Î¹Î±Î¸ÎµÏĥÎ·": 2684,
      "ĠÎµÎ¼ÏĢ": 2685,
      "02": 2686,
      "ĠÎºÎ±ÏĦÎµÏħ": 2687,
      "Ġsot": 2688,
      "ĠÎ¿ÏģÎ³Î±Î½Î¹ÏĥÎ¼Î¿Ïħ": 2689,
      "her": 2690,
      "ĠÎ³Î¹": 2691,
      "ĠÎ´Î·Î¼Î¿ÏĥÎ¹Î±ÏĤ": 2692,
      "ĠÎ´Î¹ÎµÎ¸": 2693,
      "ÏĦÏģÎ¹ÎºÎ·ÏĤ": 2694,
      "ĠÎ±ÏĥÏĨÎ±Î»ÎµÎ¹Î±": 2695,
      "Î½Î¿Î¼Î·ÏĤ": 2696,
      "ĠÎºÎ±ÏĦÎ±ÏģÏĦÎ¹Ïĥ": 2697,
      "ÏĦÎ¹ÎºÎ¿ÏĦÎ·ÏĦÎ±ÏĤ": 2698,
      "ĠÎºÎ±ÏĦÎ¿Î¹Îº": 2699,
      "ÏĦÎ¹ÎºÎ¿Î¹": 2700,
      "ĠÎ±ÏĥÏħ": 2701,
      "ĠÎ¿Î»Î¿ÎºÎ»Î·": 2702,
      "ĠÎ±Î½ÎµÎ¾Î±ÏģÏĦÎ·": 2703,
      "ĠÏĢÏģÏīÏĦÎ¿ÎºÎ¿Î»Î»Î¿": 2704,
      "ĠÏĢÏģÎ¿ÏĥÏĨÎµÏħÎ³Î¿ÏħÏĥÎµÏĤ": 2705,
      "ĠÎ´Î¹Î±ÏĨÎ¿ÏģÏīÎ½": 2706,
      "ĠÏħÏĢÎ¿Î¼Î½Î·": 2707,
      "ĠÎ´ÏħÎ½Î±ÏĦÎ±Î¹": 2708,
      "Ġso": 2709,
      "ĠÏĢÏģÎ¿ÏĥÏĦÎ±ÏĦÎµÏħ": 2710,
      "ĠÎ±ÎºÎ¿Î»Î¿ÏħÎ¸Î¿": 2711,
      "ĠÎ¿ÏģÎ¿": 2712,
      "Ġon": 2713,
      "ĠÎ±Î¼ÎµÏĥÎ±": 2714,
      "que": 2715,
      "ĠÎµÏĢÏģÎµÏĢÎµ": 2716,
      "Î³Î¿ÏħÎ½": 2717,
      "ate": 2718,
      "ĠÏĢÏģÎ¿Î´Î¹ÎºÎ±ÏĥÏĦÎ¹ÎºÎ·ÏĤ": 2719,
      "ĠÎµÏĦÏĥÎ¹": 2720,
      "ÏĩÏģÎ·": 2721,
      "ÏĥÏĦ": 2722,
      "all": 2723,
      "Î¿Î½ÏĦÏīÎ½": 2724,
      "ĠÎ´Î¹ÎºÎ±Î¹ÏīÎ¼Î±ÏĦÎ¿ÏĤ": 2725,
      "ĠÎµÏĢÎ¹ÏĦÏģÎµÏĢÎµÎ¹": 2726,
      "ĠÏĢÎ±ÏģÎ±Î³ÏģÎ±ÏĨÎ¿Ïħ": 2727,
      "ĠÎ¿ÏģÎ¹ÏĥÎ¼ÎµÎ½Î±": 2728,
      "Î¸ÎµÎ¹Î±": 2729,
      "og": 2730,
      "ĠÏĢÎ±ÏģÎ±ÏĥÎºÎµÏħÎ±Ïĥ": 2731,
      "Î¸Î¿Ïħ": 2732,
      "sch": 2733,
      "ĠÏĥÏħÎ¼Î²Î±ÏĥÎµÎ¹ÏĤ": 2734,
      "ĠÏĢÎµÏģÎ¹Î³ÏģÎ±ÏĨÎ·": 2735,
      "ĠÎ¿ÏĢÎ¿Î¹Î¿ÏħÏĤ": 2736,
      "ĠÏĩÎ·": 2737,
      "ĠÎµÏĢÎ¹Î´Î¹Ïī": 2738,
      "ĠÎµÏĢÎ¹Î²Î±Î»Î»ÎµÏĦÎ±Î¹": 2739,
      "ÏģÏīÎ½ÎµÎ¹": 2740,
      "ĠÏĥÎ¿Ïħ": 2741,
      "ĠÏħÏĨÎ¹ÏĥÏĦÎ±": 2742,
      "ĠÏĥÏĩÎµÏĦÎ¹ÎºÎ·": 2743,
      "ÏĦÎ¹ÎºÏīÏĤ": 2744,
      "ĠÏĢÏģÎ¿Î³ÏģÎ±Î¼Î¼Î±ÏĦÎ±": 2745,
      "Â¬": 2746,
      "Ġep": 2747,
      "ĠÎµÏĢÎ±Ïģ": 2748,
      "sg": 2749,
      "ud": 2750,
      "Î¹ÎºÏī": 2751,
      "ĠÏĢÎ¿ÏĥÎ¿Ïħ": 2752,
      "ĠÎµÎ¾ÎµÎ»Î¹": 2753,
      "ĠÎ²ÏģÏħÎ¾ÎµÎ»Î»ÎµÏĤ": 2754,
      "ĠÎºÎ±Ïģ": 2755,
      "ĠÏħÎ³ÎµÎ¹Î±ÏĤ": 2756,
      "ÏĦÎ¿Î¹ÏĤ": 2757,
      "ĠÏĦÎµÎ»Î¹ÎºÎ¿": 2758,
      "ÏģÎµÎ¹Î±ÏĤ": 2759,
      "ĠÎ±Î½Î±ÎºÎ¿Î¹Î½ÏīÏĥÎ·": 2760,
      "ĠÏĥÏħÏĥÏĦÎ·Î¼Î±ÏĦÎ±": 2761,
      "Î½Î¹Î±ÏĤ": 2762,
      "ĠÏħÎ³": 2763,
      "ĠÏĥÏħÎ¶Î·": 2764,
      "ĠÎ¹ÏĥÎ¿Î´ÏħÎ½Î±": 2765,
      "up": 2766,
      "ĠÎµÎ¹ÏĥÏĢÏģÎ±": 2767,
      "ĠÏĥÏħÎ½Î¹Ïĥ": 2768,
      "ĠÏĥÏħÎ½Î´ÏģÎ¿": 2769,
      "ĠÎ±ÏħÎ¾Î·ÏĥÎ·": 2770,
      "ĠÐ": 2771,
      "ĠÎµÏĥÏĦÏī": 2772,
      "ĠÏĥÏħÎ¼Î²Î±ÏĥÎµÏīÎ½": 2773,
      "ĠÎ±Î½ÏīÏĦÎ±": 2774,
      "Î¹ÎºÎ¿ÏĦÎ·ÏĦÎ±ÏĤ": 2775,
      "ĠÎ±ÏĦÎ¿Î¼": 2776,
      "Î»Î±Î²": 2777,
      "ĠÎ±ÏħÏĦÎ¿ÏħÏĤ": 2778,
      "af": 2779,
      "ĠÎ´ÏģÎ±ÏĥÏĦÎ·ÏģÎ¹Î¿ÏĦÎ·ÏĦÎ±": 2780,
      "ÏĨÎ¿ÏģÎ¹Î±": 2781,
      "ĠÎµÏĦÎ¿ÏħÏĤ": 2782,
      "99": 2783,
      "ĠÎµÎ½Î´ÎµÏĩÎ¿Î¼ÎµÎ½ÏīÏĤ": 2784,
      "ĠÏĥÏĦÎ±Î¸Îµ": 2785,
      "ĠÎ´ÎµÎ´Î¿Î¼ÎµÎ½Î±": 2786,
      "ĠÎ»ÎµÎ¹ÏĦÎ¿ÏħÏģÎ³Î¹Î±ÏĤ": 2787,
      "ip": 2788,
      "ue": 2789,
      "ĠÏĢÎ±ÏģÏīÎ½": 2790,
      "Î¼ÏĢ": 2791,
      "Î½ÎµÎ¹Î±ÏĤ": 2792,
      "ĠÏĢÎµÎ¹": 2793,
      "ĠÏĢÏģÎ¿ÎµÎ»ÎµÏħ": 2794,
      "ĠÎ±Î½Î±Î¹ÏģÎµÏĥÎµÏīÏĤ": 2795,
      "ĠÎ¼Î¿Ïħ": 2796,
      "ĠÎµÎ¹ÏĥÎ±Î³Î³Îµ": 2797,
      "ĠÎºÏħÎºÎ»Î¿ÏĨÎ¿ÏģÎ¹Î±ÏĤ": 2798,
      "ÏĨÎµÏĦÎ±Î¹": 2799,
      "ĠÏĥÎ¹Î´Î·": 2800,
      "ĠÏĥÎ·Î¼ÎµÎ¹Î±": 2801,
      "ĠÏĥÏĩÎµÏĦÎ¹ÎºÏīÎ½": 2802,
      "Ġaty": 2803,
      "08": 2804,
      "ĠÏĢÎ±ÏģÎ±Î³ÏģÎ±ÏĨÎ¿Î¹": 2805,
      "ĠÎ´ÎµÏħÏĦÎµ": 2806,
      "ĠÎ´Î¹Î±ÏĨÎ¿ÏģÎµÏĤ": 2807,
      "ĠÏĢÎ¿ÏģÏĦÎ¿": 2808,
      "ĠÎ±Î¼Î¿Î¹Î²Î±": 2809,
      "ĠÎµÎ´ÏģÎ±": 2810,
      "ord": 2811,
      "ĠÏĥÏħÎ»Î»Î¿Î³": 2812,
      "ĠÎ²ÎµÎ²Î±": 2813,
      "ĠÎ³Î±Î»Î»Î¹ÎºÎ·": 2814,
      "Ġmcy": 2815,
      "ĠÎ¸ÎµÎ¼ÎµÎ»Î¹": 2816,
      "ĠÏĦÎ±ÏĩÏħ": 2817,
      "Î³ÏģÎ±ÏĨÎ·ÏĤ": 2818,
      "ĠÎµÏĦÎ±Î¹ÏģÎ¹Î±": 2819,
      "ĠÎ±ÏĢÎ¿ÏĥÏĦÎ¿": 2820,
      "ĠÏĢÎ¿ÏģÏīÎ½": 2821,
      "ÏĢÏĦÎ¿Î½ÏĦÎ±Î¹": 2822,
      "Ġ74": 2823,
      "ĠÎºÎ»Î¹Î¼Î±": 2824,
      "Î¼Î±ÏĦÏī": 2825,
      "ĠÎµÎ½ÏĦÎ¿Ïħ": 2826,
      "ĠÎ±ÏħÏĦÎ¿Î½": 2827,
      "ĠÎ±Î½Î¿Î¹": 2828,
      "ĠÎµÏģÎ³Î±ÏĥÎ¹ÏīÎ½": 2829,
      "ĠÏħÏĢÎ¿Î´ÎµÎ¹": 2830,
      "ĠÎ¸ÎµÏīÏģÎµÎ¹ÏĦÎ±Î¹": 2831,
      "ĠÎ´Î¹Î¿ÏģÎ¸": 2832,
      "Î»Î¹Îº": 2833,
      "ĠÏħÏĢÎµÏħÎ¸Ïħ": 2834,
      "12": 2835,
      "ĠÎµÎ½ÏĦÎ¿ÏħÏĦÎ¿Î¹ÏĤ": 2836,
      "ĠÎµÎºÏĢÏģÎ¿ÏĥÏīÏĢÎ¿ÏħÎ¼ÎµÎ½Î·": 2837,
      "ĠÎºÎ±ÏĦÎµÏħÎ¸ÏħÎ½": 2838,
      "ĠÎ´ÎµÎºÎ±": 2839,
      "ĠÎ¿ÏģÎ¹Î¶Î¿Î½ÏĦÎ±Î¹": 2840,
      "ĠÏĥÏĦÎ¿ÏĩÎ¿": 2841,
      "ÏĦÎµÏĩ": 2842,
      "ĠÎºÎ¿Î¹Î½Î¿ÏĦÎ·": 2843,
      "ĠÎºÎ±ÏĦÎ±Î´Î¹ÎºÎ±Ïĥ": 2844,
      "ÎºÎµÎ¹ÏĦÎ±Î¹": 2845,
      "ĠÎµÎ¹Î´Î¿ÏħÏĤ": 2846,
      "ĠÎ¼Î¿Î½Î¹": 2847,
      "ĠÎ¹Î´Î¹Î¿ÎºÏĦÎ·": 2848,
      "Î»Î»Î¿Î½": 2849,
      "ÏĥÎ´Î·ÏĢÎ¿ÏĦÎµ": 2850,
      "to": 2851,
      "ĠÏĥÏĩÎµÏĦÎ¹ÎºÎµÏĤ": 2852,
      "ĠÎµÎ¼ÏĢÎ¿ÏģÎ¹Î¿": 2853,
      "ĠÏĢÏģÎ¿ÏĥÏīÏĢÏīÎ½": 2854,
      "ÏĦÎµÏĥÏĦÎ·": 2855,
      "Î½Î¿Î·": 2856,
      "ĠÏĦÏģÎ¹ÏĦÏīÎ½": 2857,
      "ĠÏĥÏħÎ¼Î²Î±Î»Î»Î¿Î¼ÎµÎ½Î±": 2858,
      "ment": 2859,
      "ann": 2860,
      "ĠÎ²Î±ÏĥÎ¹Î»ÎµÎ¹Î¿Ïħ": 2861,
      "ĠÎ¹Ïģ": 2862,
      "ĠÎ»Î·ÏĨÎ¸ÎµÎ¹": 2863,
      "Ġ?": 2864,
      "ĠÎ¸ÎµÏīÏģÎ·Î¸ÎµÎ¹": 2865,
      "ĠÎ¿Î½ÏĦÎ¿": 2866,
      "ĠÎºÎ¿Î¹Î½Î¿ÏĦÎ¹ÎºÎ·": 2867,
      "Ġdel": 2868,
      "ĠÎµÎ»Î±Î²Îµ": 2869,
      "ĠÏĥÏĩÎ¿": 2870,
      "ĠÎµÎ¹ÏĥÎ±Î³ÏīÎ³Î·ÏĤ": 2871,
      "ĠÎ¿Ïģ": 2872,
      "ĠÎºÏħÏģÎ¹ÏīÏĤ": 2873,
      "ÏģÎ¹ÎºÎ·": 2874,
      "15": 2875,
      "ĠÎ³ÎµÎ½Î¹ÎºÎ·": 2876,
      "ĠÎµÏģÎ¼Î·Î½ÎµÏħ": 2877,
      "ho": 2878,
      "ver": 2879,
      "ĠÎµÏģÎ³Î±Î¶Î¿Î¼ÎµÎ½ÏīÎ½": 2880,
      "ĠÏĢÏģÎ¿ÎµÏģ": 2881,
      "ĠÎ³ÎµÏīÎ³ÏģÎ±ÏĨ": 2882,
      "Î¼Î·ÏĥÎ·": 2883,
      "ĠÎ±ÏĢÎ¿ÏģÏģÎµ": 2884,
      "ĠÏĩÎ±Î¼Î·": 2885,
      "Î»Î»Î¹": 2886,
      "ĠÎµÎ¹ÏĥÎ±Î³ÏīÎ³Î·": 2887,
      "ĠÎºÎ±Î¸Î¿ÏģÎ¹Î¶ÎµÏĦÎ±Î¹": 2888,
      "ĠÎ¸Î·": 2889,
      "ĠÎ¼ÎµÎ³": 2890,
      "ity": 2891,
      "ĠÎµÏĢÎ¹ÏĢÏĦÏīÏĥÎµÎ¹ÏĤ": 2892,
      "ĠÎµÏĢÎ±Î½ÎµÎ¾Îµ": 2893,
      "06": 2894,
      "ĠÏĨÏī": 2895,
      "und": 2896,
      "13": 2897,
      "ĠÏĢÏģÎ¿ÎºÎ±": 2898,
      "oo": 2899,
      "Î»Î¹ÎµÏĤ": 2900,
      "ĠÎµÎ¹ÏĥÎ±Î³Î³ÎµÎ»Îµ": 2901,
      "aq": 2902,
      "ĠÎµÎ¸Î½Î¹ÎºÏīÎ½": 2903,
      "ĠÎ±Î¹ÏĦÎ¹Î¿Î»Î¿Î³": 2904,
      "ĠÎ¼Î±Î¶": 2905,
      "Ġ196": 2906,
      "Ġsch": 2907,
      "ĠÎ½ÎµÏīÎ½": 2908,
      "ĠÏĦÎµÏĦÎ¿Î¹Î±": 2909,
      "ĠÎµÎºÏģÎ¹": 2910,
      "ĠÎ´Î¹Î±ÏĢÎ¹Ïĥ": 2911,
      "ĠÎ¹ÏģÎ»Î±Î½": 2912,
      "ĠâĢľ": 2913,
      "ĠÎµÎ½ÏĥÏī": 2914,
      "ĠÎµÎ¹Î´Î¹ÎºÎ·": 2915,
      "ĠÎ¿ÏģÎ¹Î±": 2916,
      "ĠÎ±Î¼Ïħ": 2917,
      "ĠÎ»Î±Î¼Î²Î±Î½Î¿Î½ÏĦÎ±Î¹": 2918,
      "ĠÏĢÏģÎ±Î¾ÎµÏīÎ½": 2919,
      "ĠÏĦÏģÎ¿ÏĨÎ¹": 2920,
      "ĠÎ¿Î¹ÎºÎ¿Î½Î¿Î¼Î¹ÎºÏīÎ½": 2921,
      "ĠÎ¸ÎµÎ¼ÎµÎ»Î¹Ïī": 2922,
      "ĠÏĢÎµÏģÎ¹ÎµÏĩÎ¿ÏħÎ½": 2923,
      "ĠÏħÏĢÎ¿Î»Î¿Î³Î¹Ïĥ": 2924,
      "ier": 2925,
      "ĠÎµÏĢÎ¹ÏĦÎµÏħÎ¾Î·": 2926,
      "ĠÎµÏĢÎ¹Î²Î¿Î»Î·": 2927,
      "Ġit": 2928,
      "ĠâĢĿ": 2929,
      "ĠÏĦÎµÏĩÎ½Î¿Î»Î¿Î³": 2930,
      "Ġfr": 2931,
      "cl": 2932,
      "ĠÎºÎ±ÏĦÎ±Ïĥ": 2933,
      "av": 2934,
      "ĠÎµÎ¹ÏĥÎ¿Î´Î·": 2935,
      "ĠÎºÎµÏģ": 2936,
      "land": 2937,
      "ĠÎ´Î¹Î±ÏĨÎ¿ÏģÎ±ÏĤ": 2938,
      "ĠÏĥÏħÎ¼ÏĨÏīÎ½Î¹ÎµÏĤ": 2939,
      "ĠÎµÏĢÎ¹ÏĦÏģÎµÏĢÎµÏĦÎ±Î¹": 2940,
      "ÏĥÎ¼Î¿Ïħ": 2941,
      "ĠÏĢÎµÏģÎ¹ÎµÏĩÎ¿Î¼ÎµÎ½Î¿": 2942,
      "Î»Î¹ÎºÏīÎ½": 2943,
      "ĠÏĩÏģÎ·Î¼Î±ÏĦÎ¿ÏĢÎ¹ÏĥÏĦÏī": 2944,
      "ĠÏħÏĢÎ±ÏģÏĩÎ¿ÏħÎ½": 2945,
      "ĠÎ±Î¹ÏĦÎ·ÏĥÎµÏīÏĤ": 2946,
      "ĠÎ¿ÏģÎ¹Î¿": 2947,
      "Î¼Î±ÏĦÎ¹Ïĥ": 2948,
      "ĠÎµÎºÏĢÏģÎ¿ÏĥÏīÏĢÎ¿Î¹": 2949,
      "ĠÎµÏģÎ³Î¿ÏĥÏĦÎ±ÏĥÎ¹Î¿Ïħ": 2950,
      "ĠÏĢÎ±ÏģÎ¿Î½ÏĦÎ±": 2951,
      "ĠÎµÏĢÎ¹ÏĥÏĦÎ¿": 2952,
      "ang": 2953,
      "ĠÎ±ÏħÎ³Î¿Ïħ": 2954,
      "ĠÏĢÎµÏģÎ¹ÏĥÏĥÎ¿ÏĦÎµÏģÎ¿": 2955,
      "ĠÏĥÏħÎ½ÎµÏĢÎ±Î³ÎµÏĦÎ±Î¹": 2956,
      "Î¹Î½Îµ": 2957,
      "ĠÎµÎ¾Î±Î¹": 2958,
      "ĠÏĢÎ¿ÏģÏĦÎ¿Î³Î±": 2959,
      "ĠÏĩÎµÎ¹": 2960,
      "Ġlt": 2961,
      "ine": 2962,
      "ale": 2963,
      "ĠÎµÎºÏģÎ¹Î½Îµ": 2964,
      "ke": 2965,
      "ĠÎ´Î¹Î±Î¼Î¿": 2966,
      "ĠÎµÎ³ÎºÎ±ÏĦÎµÏĥÏĦÎ·": 2967,
      "ĠÎµÏĥÎ¿": 2968,
      "ÏĥÎ¹ÎµÏĤ": 2969,
      "ĠÏĢÏģÎ¿ÏħÏĢÎ¿Î»Î¿Î³Î¹ÏĥÎ¼Î¿Ïħ": 2970,
      "ĠÏĢÏģÏīÏĦÎ¿Î²Î¿ÏħÎ»": 2971,
      "ĠÎ±ÏĢÎ¿ÏĪÎ·": 2972,
      "19": 2973,
      "ĠÎ´Î¹Î±ÏĦÎ±ÎºÏĦÎ¹ÎºÎ¿": 2974,
      "ĠÎ»Î¿Î³Î¿Ïħ": 2975,
      "ĠÎ±ÏĢÎ±ÏģÎ±": 2976,
      "ĠÎ¹ÏĥÏĢÎ±": 2977,
      "ĠÎ±Î½Î±Î³Î½ÏīÏģÎ¹Ïĥ": 2978,
      "ĠÎµÎ¾Î±Ïģ": 2979,
      "ĠÎ¿Î¹ÎºÎ¿Î³ÎµÎ½": 2980,
      "ĠÎ´Î¹Î±Î³ÏīÎ½": 2981,
      "ĠÎ·Î¼ÎµÏģÎ±": 2982,
      "ĠÎºÏģÎ¹ÏĥÎ·": 2983,
      "ĠÏĢÎ±ÏģÎµÎ¼Î²Î±": 2984,
      "ĠÎ¿ÏģÎ³Î±Î½Î±": 2985,
      "are": 2986,
      "ĠÎ²Î¹Î¿Î¼Î·ÏĩÎ±Î½Î¹Î±": 2987,
      "ĠÎ´Î¹Î±Î¸ÎµÏĥÎ¹": 2988,
      "ĠÏĢÏģÎ¿ÏĥÏĨÎµÏħÎ³ÏīÎ½": 2989,
      "ÏĢÎ¿Î¹ÎµÎ¹ÏĦÎ±Î¹": 2990,
      "ĠÎºÎ±Î¸ÎµÏĥÏĦÏīÏĦÎ¿ÏĤ": 2991,
      "ĠÎµÏĨÎµ": 2992,
      "ĠÏĢÎ±ÏģÎµÏĩÎ¿ÏħÎ½": 2993,
      "ĠÏĥÏħÏĥÏĦÎ·Î¼Î±ÏĦÏīÎ½": 2994,
      "ÏĦÎ·Î³": 2995,
      "ĠÎ³ÎµÏģÎ¼Î±Î½Î¹Î±": 2996,
      "ĠÎµÏĢÎ¹Î»Îµ": 2997,
      "ĠÎ´ÏģÎ±ÏĥÎ·ÏĤ": 2998,
      "ĠÃ¦": 2999,
      "ĠÏĢÎ¿Î»Î¹ÏĦÎ¹ÎºÎ·": 3000,
      "ĠÏģÏī": 3001,
      "ĠÏĢÎ¿Î¹Î¿ÏĦÎ·ÏĦÎ±ÏĤ": 3002,
      "ĠÎµÏĢÎ¹Î¼Îµ": 3003,
      "ĠÎ½Î¿Î¼Î¹Î¼Î¿": 3004,
      "ĠÏĢÏģÎ¿Î¸ÎµÏĥÎ¼Î¹Î±": 3005,
      "Î³ÎºÎ¿Ïĥ": 3006,
      "ĠÎ´Î¹Î±ÏĢÎ¹ÏĥÏĦÏīÏĥÎ·": 3007,
      "ĠÎµÏĢÎ¹ÎºÎ¿Î¹": 3008,
      "ĠÏħÏĢÎ¿Î²Î¿Î»Î·": 3009,
      "ĠÎµÎ¾Î±Î³ÏīÎ³Î·ÏĤ": 3010,
      "ĠÎµÏĢÎ¹ÎºÎ¿Î¹Î½ÏīÎ½": 3011,
      "ĠÏĥÏĦÎ±ÏĦÎ¹Ïĥ": 3012,
      "ĠÏĥÏħÎ¼Î²Î¿Ïħ": 3013,
      "Ġ1990": 3014,
      "ĠÎ±ÎµÏģÎ¿ÏĢÎ¿": 3015,
      "05": 3016,
      "ĠÏĢÎ±ÏģÎ±Î²Î±ÏĥÎµÏīÏĤ": 3017,
      "ĠÏĩÏģÎ·Ïĥ": 3018,
      "ĠÎ´Î¹Î±Î´Î¹ÎºÎ±ÏĥÎ¹ÏīÎ½": 3019,
      "ĠÎ±Î½Î±Î»Î¿Î³Î±": 3020,
      "Ġ1991": 3021,
      "ĠÎ±ÏĢÎ¿Î²Î»Î·": 3022,
      "ĠÎ»Î·ÏĪÎ·": 3023,
      "ĠÎ·Î½ÏīÎ¼ÎµÎ½Î¿": 3024,
      "Î½Î¿ÏħÏĤ": 3025,
      "ÏĩÎ¸Î·ÎºÎµ": 3026,
      "ĠÎ¿ÏĢÎ¿Î¹Î±Î´Î·ÏĢÎ¿ÏĦÎµ": 3027,
      "ĠÎ¼ÎµÏĦÎ±Î²Î¹": 3028,
      "ĠÎ´ÏħÎ½Î±ÏĦÎ·": 3029,
      "ĠÎ³ÎµÎµÎ±": 3030,
      "ĠÎµÎ¹Î´Î¿ÏĤ": 3031,
      "03": 3032,
      "ĠÎ»Î¿Î³Î¹Ïĥ": 3033,
      "ÏĢÎ¿Î¹ÎµÎ¹": 3034,
      "ÏģÏģÏħ": 3035,
      "ĠÎµÎ¸Î½Î¹ÎºÎµÏĤ": 3036,
      "Ð°": 3037,
      "ĠÎ±ÎºÎ¿Î»Î¿ÏħÎ¸Î·": 3038,
      "ĠÏĦÎµÎ»ÎµÏħÏĦÎ±Î¹": 3039,
      "ĠÏĥÏħÎ¼ÏĢÏģÎ±": 3040,
      "ĠÏħÏĢÎ¿Î²Î¿Î»Î·ÏĤ": 3041,
      "ill": 3042,
      "ĠÎµÎºÏĦÎµ": 3043,
      "ĠÏĥÏħÎ½Î¸Îµ": 3044,
      "ĠÏĦÎ¿ÏħÏĦÎ¿": 3045,
      "ÎºÎ¿ÏĤ": 3046,
      "ĠÎ±Î½Î¿": 3047,
      "ĠÎ±ÏħÏĦÎ·Î½": 3048,
      "ĠÏĩÏģÎ·ÏĥÎ·ÏĤ": 3049,
      "ĠÎµÏĥÏīÏĦÎµÏģÎ¹ÎºÎ·ÏĤ": 3050,
      "ĠÎ²ÎµÎ»ÏĦÎ¹ÏīÏĥÎ·": 3051,
      "me": 3052,
      "ĠÎ»Î±Î¼Î²Î±Î½Î¿ÏħÎ½": 3053,
      "ĠÎµÏĢÎµÎ¾ÎµÏģÎ³Î±ÏĥÎ¹Î±": 3054,
      "ĠÎ½Î¿Î¼Î¹ÎºÎ¿": 3055,
      "Ġ1983": 3056,
      "ĠÎ½ÏĦÎ±": 3057,
      "Î¸ÏīÎ½": 3058,
      "ĠÏĩÏģÎ·ÏĥÎ¹Î¼Î¿ÏĢÎ¿Î¹ÎµÎ¹ÏĦÎ±Î¹": 3059,
      "ĠÎµÏĢÎ¹Î¸Îµ": 3060,
      "ÎºÎ¿ÏħÏĤ": 3061,
      "ĠÎºÎ¹Î½Î´ÏħÎ½Î¿Ïħ": 3062,
      "ĠÎ±ÏĢÎ¿ÎºÎ»ÎµÎ¹ÏĥÏĦÎ¹ÎºÎ±": 3063,
      "ĠÏĥÏĦÏģÎ±ÏĦÎ·Î³": 3064,
      "Ġtr": 3065,
      "23": 3066,
      "ĠÎ´Î·Î¼Î¿ÏĥÎ¹Î±": 3067,
      "ĠÎµÎ½Î¹ÏĥÏĩÏħÏĥÎµÏīÎ½": 3068,
      "Î¾Î¹Î¿": 3069,
      "Î´Î¿Î½": 3070,
      "ĠÎ±ÏĢÎ±ÏģÎ±Î´Îµ": 3071,
      "Î»ÎµÎ¹Î¿": 3072,
      "Â°": 3073,
      "ĠÎ´ÎµÏħÏĦÎµÏģÎ·": 3074,
      "ĠÏĦÏħÏĢÎ¿": 3075,
      "Ġmin": 3076,
      "ĠÎ´Î¹Î±ÏĦÎ·": 3077,
      "ĠÎ¼ÎµÎ»Îµ": 3078,
      "ĠÏĥÏħÏĥÎºÎµÏħÎ±Ïĥ": 3079,
      "ĠÎºÎ±ÏĦÎ±Î»Î¿Î³Î¿": 3080,
      "ĠÎºÎ±ÏĦÎ·Î³Î¿ÏģÎ¹Î±": 3081,
      "Î¸ÎµÎ½ÏĦÎ±": 3082,
      "ess": 3083,
      "04": 3084,
      "ĠÎ¿Î¼Î¿ÏĥÏĢÎ¿Î½Î´Î¹Î±": 3085,
      "ĠÏĢÎµÎ»Î±": 3086,
      "Î´Î¹ÎºÎ¿": 3087,
      "ĠÎºÎ¹Î½Î·ÏĦÎ·": 3088,
      "ĠÎ»Ïħ": 3089,
      "Ġmm": 3090,
      "Î»Î·ÏĢ": 3091,
      "ÏĦÏģÏīÎ½": 3092,
      "ĠÏĥÏħÎ¼ÏĢ": 3093,
      "ĠÎºÏħÎºÎ»Î¿ÏĨÎ¿ÏģÎ¹Î±": 3094,
      "ĠÎ¿ÏħÏĥÎ¹Î±Ïĥ": 3095,
      "ĠÎµÎ¹ÏĥÎ·": 3096,
      "ĠÎµÎ»Î»Î±": 3097,
      "ĠÎ»Î¿Î³Î¿Î¹": 3098,
      "ĠÏĥÏħÎ½Î´ÎµÏĥÎ·ÏĤ": 3099,
      "Î¼Ïħ": 3100,
      "ĠÏĥÏħÎ½ÏĦÎ¿": 3101,
      "Ġte": 3102,
      "ĠÏĨÎµÏģÎµÎ¹": 3103,
      "ĠÏĥÏħÎ½ÎµÎ¹Ïĥ": 3104,
      "Ġinter": 3105,
      "Î²Î»Îµ": 3106,
      "ĠÎ´Î±ÏĢÎ±Î½ÏīÎ½": 3107,
      "Î½Î±Î½": 3108,
      "ÏĦÎµÏģÎ·ÏĤ": 3109,
      "ure": 3110,
      "ĠÎ±Î½ÏĦÎ±ÏĢÎ¿": 3111,
      "Ġjo": 3112,
      "ĠÏĦÎ¿ÏĢÎ¿Î¸Îµ": 3113,
      "ĠÎ¹Î´Î¹Î±ÏĤ": 3114,
      "ĠÏĢÏģÎ¿ÏĥÎºÎ¿Î¼Î¹Ïĥ": 3115,
      "07": 3116,
      "iss": 3117,
      "ÏĢÎ±Ïĥ": 3118,
      "ĠÎºÎ¿Î¹Î½Î¿ÏĦÎ¹ÎºÎ·ÏĤ": 3119,
      "ĠÎ´Î¹Î±ÏĦÎ·ÏģÎ·ÏĥÎ·": 3120,
      "ĠÎ¼Î·Î½ÎµÏĤ": 3121,
      "ĠÎ´ÎµÎ¹Îº": 3122,
      "ĠÏĢÏģÎ¿ÏĦÎ±ÏĥÎ·ÏĤ": 3123,
      "ÏģÎµÎ¹ÏīÎ½": 3124,
      "end": 3125,
      "ĠÎ´Î·Î¼Î¿ÏĥÎ¹ÏīÎ½": 3126,
      "ĠÎ¿Î´Î·Î³Î·": 3127,
      "erg": 3128,
      "ore": 3129,
      "ĠÎ¼ÎµÏĦÎ±ÏĩÎµÎ¹ÏģÎ¹ÏĥÎ·": 3130,
      "ĠÏĥÎ¹Î´Î·ÏģÎ¿": 3131,
      "ĠÏĩÎ¿ÏģÎ·Î³": 3132,
      "ĠÎ´Î¹ÎºÎ±Î¹Î¿Î»Î¿Î³": 3133,
      "ĠÎ´Î¹ÎºÎ±Î¹Î¿Î´Î¿": 3134,
      "ĠÏĥÏĦÎ±Î´Î¹Î¿": 3135,
      "Î¸ÏħÎ¼": 3136,
      "ĠÏĢÎ¹Î¿": 3137,
      "ĠÎ»Î±Î¼Î²Î±Î½Î¿Î½ÏĦÎ±ÏĤ": 3138,
      "Î¹ÎºÎ¿Î½Î¿Î¼": 3139,
      "ÏģÏģÎ¿": 3140,
      "ĠÏĦÏħÏĩÎ¿Î½": 3141,
      "ĠÏĥÏħÎ½Î¿Î´ÎµÏħ": 3142,
      "ĠÎºÎ·": 3143,
      "ĠÎºÏħÏģÏī": 3144,
      "Ġ2021": 3145,
      "ĠÏĥÏħÎ½Î´ÏħÎ±ÏĥÎ¼Î¿": 3146,
      "ĠÎºÎ±ÏĢÎ¿": 3147,
      "ĠÎ´Î¹ÎµÎ¸Î½Î¿ÏħÏĤ": 3148,
      "ĠÎµÎºÏĦÎ¹Î¼ÏīÎ½": 3149,
      "ĠÎºÎ¿Î¹Î½Î¿ÏĦÎ¹ÎºÏīÎ½": 3150,
      "mb": 3151,
      "ÎºÎ¿ÏĢÎ·": 3152,
      "Ġpl": 3153,
      "ĠÏĢÏģÎ¿Î³ÏģÎ±Î¼Î¼Î±ÏĦÏīÎ½": 3154,
      "ÏĦÎ±ÏĦÎ±Î¹": 3155,
      "ĠÎµÎ¹Î´Î¹ÎºÏīÎ½": 3156,
      "Î¸Î·ÏĥÎ·ÏĤ": 3157,
      "ĠÎºÎ±ÏĦÎ±ÏĩÏīÏģÎ¹": 3158,
      "ĠÎµÎ¾Î±ÎºÎ¿Î»Î¿Ïħ": 3159,
      "Ġis": 3160,
      "ĠÎ¿Î¼Î±Î´Î±": 3161,
      "Ġav": 3162,
      "ĠÎ¸ÎµÏĥÎ¼": 3163,
      "ĠÎ±Î½ÏĦÎ¹ÎºÎ±Î¸Î¹ÏĥÏĦÎ±ÏĦÎ±Î¹": 3164,
      "ĠÎ´Î·Î¼Î¹Î¿ÏħÏģÎ³Î¹Î±": 3165,
      "ĠÏĢÏģÎ¿ÏĥÏĢÎ±": 3166,
      "ĠÏĢÏģÎ¿Î¿ÏģÎ¹Î¶Î¿Î½ÏĦÎ±Î¹": 3167,
      "ĠÎ±ÏĨÎ¿": 3168,
      "ĠÏĥÏħÎ¼ÏĢÎµÏģÎ±ÏĥÎ¼Î±": 3169,
      "ĠÏĩÏģÎ·Î¼Î±ÏĦÎ¿Î´Î¿ÏĦÎ·ÏĥÎ·": 3170,
      "ÏĦÎ·ÎºÎ±Î½": 3171,
      "ĠÎ±Î½Î±Î¹ÏģÎµÏĥÎ¹": 3172,
      "ĠÏħÏĢÎµÎ½": 3173,
      "ĠÏĢÏģÎ¿ÏĥÏīÏĢÎ¹ÎºÎ¿": 3174,
      "ĠÎ±ÏĢÎ¿Î´ÎµÎ¹ÎºÎ½Ïħ": 3175,
      "ĠÎµÏħÏģÏīÏĢÎ±Î¹ÎºÏī": 3176,
      "ĠÎ±Î½ÏĦÎ¹ÏĥÏĦÎ±": 3177,
      "ĠÏĢÎµÏģÎ¹Î¿ÏģÎ¹ÏĥÎ¼Î¿ÏħÏĤ": 3178,
      "Î¿Î¹ÎºÎ¿Î½Î¿Î¼": 3179,
      "ĠÎ±ÏħÏĥÏĦ": 3180,
      "ĠÎ±Î¾Î¹Î¿Î»Î¿Î³Î·ÏĥÎ·ÏĤ": 3181,
      "ĠÎ¼Î·Î½ÏīÎ½": 3182,
      "ÏĩÏģÎ¿Î½": 3183,
      "ĠÎ¼Î¹ÏĥÎ¸Ïī": 3184,
      "ĠÎ´Î¹Î±ÏĩÎµÎ¹": 3185,
      "ĠÎ¹ÏĦÎ±Î»Î¹ÎºÎ·": 3186,
      "ĠÎ¸Î¹": 3187,
      "ĠÎ±ÏĢÎ¿ÏĨÎ±ÏĥÎ¹Î¶ÎµÎ¹": 3188,
      "ĠÎµÏģÎ³Î¿Î´Î¿": 3189,
      "ĠÏĢÎµÏģÎ¹ÎµÏĩÎµÎ¹": 3190,
      "ĠÎµÎ¹Î´Î¹ÎºÎµÏĤ": 3191,
      "ĠÎµÎ½ÏĦÎ±": 3192,
      "ĠÎ´Î¹ÎºÎ±ÏĥÏĦÎ¹ÎºÏīÎ½": 3193,
      "ĠÎ´Î¹Î±Î¸ÎµÏĦÎµÎ¹": 3194,
      "iz": 3195,
      "ĠÏħÏĢÎ¿ÎºÎµÎ¹Î½ÏĦÎ±Î¹": 3196,
      "ĠÎµÎ½ÏīÏĥÎ¹Î±": 3197,
      "ÎºÎµÏĦÎ±Î¹": 3198,
      "ĠÎµÎ¼ÏĢÎ¿ÏģÎ¹Î¿Ïħ": 3199,
      "ĠÎµÏĢÎ¹ÏĥÏĦÎ·Î¼Î¿Î½": 3200,
      "ĠÏĢÎ±ÏģÎ±ÏĥÎºÎµÏħÎ·": 3201,
      "ĠÎ±ÏħÎ³Î¿ÏħÏĥÏĦÎ¿Ïħ": 3202,
      "ĠÏĩÏģÎ¿Î½Î¹ÎºÎ¿": 3203,
      "ĠÎ±ÏĢÎ±ÏģÎ±Î¹ÏĦÎ·": 3204,
      "ĠÎºÎ±ÏĦÎ±Î²Î¿Î»Î·": 3205,
      "ĠÎ¹ÏĥÏĢÎ±Î½": 3206,
      "ĠÎµÏĢÎ±ÏģÎº": 3207,
      "ĠÎ´Î¹Î±ÏĦÏħÏĢÏī": 3208,
      "ĠÎ±Î½ÏĦÎ±ÏĢÎ¿ÎºÏģÎ¹": 3209,
      "ÎºÏĦÎ±": 3210,
      "ĠÎ´Î¹Î±ÏĢÎ¹ÏĥÏĦÏīÎ½": 3211,
      "ĠÎµÏĢÎ¹Î²Î»Î·": 3212,
      "Ġbr": 3213,
      "ĠÎµÏĢÎ¹ÎºÎ¿ÏħÏģ": 3214,
      "ĠÏĢÎ¿ÏĥÎ±": 3215,
      "ĠÏĥÎ»Î¿": 3216,
      "ow": 3217,
      "Î³Î½ÏīÎ¼Î¿": 3218,
      "ĠÎ¼Î±Îº": 3219,
      "ĠÎ²Î¹": 3220,
      "ĠÎ´Î·Î¼Î¿ÏĥÎ¹Î¿Ïħ": 3221,
      "Î½Î¹ÎºÎ·ÏĤ": 3222,
      "ÏĩÎ¸Î¿ÏħÎ½": 3223,
      "ÏħÎ½": 3224,
      "Ġ1989": 3225,
      "ĠÏĢÏģÏīÏĦÎ¿Ïħ": 3226,
      "ens": 3227,
      "Ġ1988": 3228,
      "Ġem": 3229,
      "ĠÏĥÏĩÎµÎ´Î¹Î¿Ïħ": 3230,
      "Ġder": 3231,
      "ĠÏģÎ¿Ïħ": 3232,
      "ĠÎ±ÎºÎ¿Î»Î¿ÏħÎ¸ÎµÏĤ": 3233,
      "ÏĨÎ¸Î·": 3234,
      "Î±Î½Î¿": 3235,
      "ĠÎ±Î½Î±Î»Î·": 3236,
      "ĠÎµÏĢÎµÎ½Î´ÏħÏĥÎµÏīÎ½": 3237,
      "ĠÏħÏĢÎ¿ÏĪÎ·ÏĨ": 3238,
      "ÏĨÎ¿ÏħÏĤ": 3239,
      "ĠÏĢÏģÎ¿Î´Î¹Î±": 3240,
      "ĠÏĨÎ¿ÏģÎµÎ±": 3241,
      "ĠÎ¿ÏģÎ³Î±Î½Î¹ÏĥÎ¼Î¿ÏħÏĤ": 3242,
      "Ġeurope": 3243,
      "ĠÎ¼ÎµÏĦÎ¿": 3244,
      "ĠÎµÎ¾Ïħ": 3245,
      "ĠÎ¹Î½": 3246,
      "Ð¸": 3247,
      "ĠÎºÎ±Î»ÏħÏĢÏĦÎµÎ¹": 3248,
      "ĠÎ±Î¹ÏĦÎ·ÏĥÎµÎ¹ÏĤ": 3249,
      "Î³ÏģÎ±ÏĨÎµÏĦÎ±Î¹": 3250,
      "ÏĥÎ¸ÎµÎ¹": 3251,
      "pl": 3252,
      "ĠÏĥÎºÎ¿ÏĢÎ¹": 3253,
      "ĠÎ±Î½ÏĦÎ¹Î½ÏĦÎ±": 3254,
      "ĠÏħÏĨÎ±Ïĥ": 3255,
      "Ġvan": 3256,
      "Î»Î·Î¸ÎµÏħ": 3257,
      "ĠÎµÎ¹ÏĥÎ±Î³ÏīÎ³ÏīÎ½": 3258,
      "ĠÏħÏĢÎ¿Î¸ÎµÏĥÎµÏīÏĤ": 3259,
      "ĠÏĢÏģÎ¿Î³ÎµÎ½ÎµÏĥÏĦÎµ": 3260,
      "est": 3261,
      "ĠÎ´Î¹Î¿ÏĦÎ¹": 3262,
      "ĠÎ¿ÏģÎ³Î±Î½Î¹ÏĥÎ¼Î¿ÏĤ": 3263,
      "Ġau": 3264,
      "ok": 3265,
      "ÏĥÏĥÎµ": 3266,
      "Ġver": 3267,
      "ĠÎµÎ»Î±ÏĩÎ¹Ïĥ": 3268,
      "ĠÎ½Ïī": 3269,
      "ĠÏĥÏĦÎ¹Î³": 3270,
      "ĠÎµÎºÏĦÎ¹Î¼Î·ÏĥÎµÏīÏĤ": 3271,
      "ĠÎ½Î±Ïħ": 3272,
      "xy": 3273,
      "ĠÎ±Î³Î³": 3274,
      "iy": 3275,
      "ĠÎ³ÏģÎ±Î¼Î¼ÎµÏĤ": 3276,
      "ĠÎºÎ±ÏĦÎ±ÏģÎ³Î·ÏĥÎ·": 3277,
      "Î¹Î¶Î¿": 3278,
      "ĠÎ¿ÏģÎ¿Î¹": 3279,
      "ĠÎµÎ¸Î½Î¹ÎºÎ¿Ïħ": 3280,
      "ÏĢÏģÎ¿Î¸ÎµÏĥ": 3281,
      "xam": 3282,
      "Î½Î¹": 3283,
      "Î½Î¿Î¼ÎµÎ½Î¿Ïħ": 3284,
      "ĠÎµÎ³Î³ÏģÎ±ÏĨÏīÎ½": 3285,
      "ĠÎ±Î½ÏĦÎ¹Î½ÏĦÎ±Î¼ÏĢÎ¹Î½Î³Îº": 3286,
      "Ġecu": 3287,
      "ÏĦÏħÏĢÎ¿": 3288,
      "ĠÏĩÏģÎ·ÏĥÎ¹Î¼Î¿ÏĢÎ¿Î¹Î¿ÏħÎ¼ÎµÎ½ÏīÎ½": 3289,
      "ĠÏĨÎ¹": 3290,
      "ĠÎµÎ»ÎµÏħÎ¸ÎµÏģÎ·": 3291,
      "ĠÎ¼Î±Ïģ": 3292,
      "Î»Î±Î²Î·": 3293,
      "ÎºÎ±Î¸Î±": 3294,
      "ĠÎºÎ±ÏĦÎ±Î²Î»Î·": 3295,
      "ĠÏĥÏħÎ¼Î¼ÎµÏĦÎ¿ÏĩÎ·ÏĤ": 3296,
      "ĠÎ¼ÎµÎ¹Îº": 3297,
      "Î³ÏģÎ±ÏĨÎµÏĤ": 3298,
      "Î¸Î±Î½": 3299,
      "ÎµÎ¹ÏīÎ½": 3300,
      "ĠÏĥÏĦÎ¿ÏĩÎ¿ÏĤ": 3301,
      "ĠÏħÏĨÎ±Î½": 3302,
      "Ã¾": 3303,
      "ĠÎ±ÏĢÎ¿ÏĥÎºÎ¿": 3304,
      "ĠÏĥÏħÎ³ÎºÎµÎºÏģÎ¹Î¼ÎµÎ½Î·": 3305,
      "ĠÎ¾Ïħ": 3306,
      "ĠÏĢÎ±ÏģÎ±ÏĢÎ¿Î¼": 3307,
      "ĠÎµÎ½Î´ÎµÏĩÎµÏĦÎ±Î¹": 3308,
      "ĠÎºÎ±ÏĦÎ±ÏĩÏīÏģÎ¹ÏĥÎ·": 3309,
      "ĠÎµÎ½Î¹ÏĥÏĩÏħÏĥÎµÎ¹ÏĤ": 3310,
      "Ġ104": 3311,
      "ĠÏĩÏģÎµÎ¹Î±": 3312,
      "ĠÏĢÎµÏģÎ¹Î¸Ïī": 3313,
      "ĠÏĢÏģÎ¿ÏĦÎµÏģÎ±": 3314,
      "ĠÎ¿Î½Î¿Î¼Î±ÏĦÎ¿ÏĤ": 3315,
      "ĠÎ·Î¼ÎµÏģÏīÎ½": 3316,
      "iaot": 3317,
      "Ġ220": 3318,
      "ĠÎºÎ±Î¸Î¿ÏģÎ¹Î¶ÎµÎ¹": 3319,
      "ĠÎ±ÏĢÎ±ÏĥÏĩÎ¿Î»Î·ÏĥÎ·ÏĤ": 3320,
      "ĠÏĢÏģÎ¿ÏīÎ¸Î·ÏĥÎ·": 3321,
      "18": 3322,
      "ĠÎ¼Î½Î·": 3323,
      "ĠÎ±Î½ÏĦÎ¹Î¸ÎµÏĦÏīÏĤ": 3324,
      "ÏĦÎ±Î½ÏĦÎ±Î¹": 3325,
      "ĠÎµÏĢÎ±Î»Î·Î¸ÎµÏħ": 3326,
      "ies": 3327,
      "ĠÎºÎ±Î½ÎµÎ½Î±": 3328,
      "ĠÏħÏĨÎ¹ÏĥÏĦÎ±ÏĦÎ±Î¹": 3329,
      "ĠÎ²Î±ÏĥÎ¹ÎºÎ¿Ïħ": 3330,
      "ĠÎµÏĥÏīÏĦÎµÏģÎ¹ÎºÎ¿": 3331,
      "ĠÎ´ÎµÎ»": 3332,
      "ĠÎ´Î¹ÎµÏħÎºÏģÎ¹Î½Î¹Ïĥ": 3333,
      "ĠÏħÏĢÎ±Î»Î»Î·Î»ÏīÎ½": 3334,
      "ÏĥÏīÏĤ": 3335,
      "ĠÎ±Î¹ÏĦÎ·Î¼Î±ÏĦÎ±": 3336,
      "ĠÏĦÎ±Î¼ÎµÎ¹Î¿": 3337,
      "ĠÎºÎ±Î½Î¿Î½Î±": 3338,
      "Ġ500": 3339,
      "ĠÎ½ÎµÎ¿Ïħ": 3340,
      "ĠÎµÎ½Î´ÎµÎ¹Î¾Î·": 3341,
      "de": 3342,
      "ĠÏĢÎ±ÏģÎ±Î³Î¿Î½": 3343,
      "ĠÎºÎ¿Î½": 3344,
      "ĠÎ±Î½ÏĦÎ¹ÏĢÏģÎ¿ÏĥÏīÏĢÎµÏħ": 3345,
      "ĠÎºÎ±Î¸Î¹Îµ": 3346,
      "Î½ÏĥÎ·": 3347,
      "ĠÏħÏĢÎ¿Î¸ÎµÏĥÎµÎ¹ÏĤ": 3348,
      "ĠÏĢÏģÎ±Î³Î¼Î±ÏĦÎ¹ÎºÎ±": 3349,
      "ĠÎµÎ¾Î·": 3350,
      "ÏģÎ¸ÏģÎ¿": 3351,
      "ubl": 3352,
      "for": 3353,
      "Î¸ÎµÎ¹ÏĥÎµÏĤ": 3354,
      "ÏģÎ·ÏĥÎ·ÏĤ": 3355,
      "ĠÎµÏĢÎ¹Î»Î¿Î³Î·": 3356,
      "ĠÎµÏĢÎ¹Î²Î±ÏģÏħÎ½": 3357,
      "ĠÎµÏħÎ¸ÏħÎ½Î·": 3358,
      "ĠÏĩÎ±Î»Ïħ": 3359,
      "ÏģÎ³Î±": 3360,
      "ÏģÎ¹ÏĥÎ¼Î¿": 3361,
      "ĠÏĥÏħÎ½ÎµÏĢÎµÎ¹": 3362,
      "ĠÏĥÏħÎ³ÎºÎµÎºÏģÎ¹Î¼ÎµÎ½Î¿": 3363,
      "ĠÎ¿Î¼Î¹": 3364,
      "ĠÏĢÎµÏģÎ¹Î»Î±Î¼Î²Î±Î½ÎµÏĦÎ±Î¹": 3365,
      "ĠÎ±Î½Î±Î¹ÏģÎµÏĥÎ¹Î²Î±Î»Î»Î¿": 3366,
      "ma": 3367,
      "ĠÏĢÎµÏģÎ¹Î¿Ïħ": 3368,
      "ĠÏħÏĢÎ¿Î²Î±Î»ÎµÎ¹": 3369,
      "ĠÏĦÏģÎ¹ÏĦÎ·": 3370,
      "Î¹Î¿ÏĤ": 3371,
      "Ġcl": 3372,
      "ĠÏĩÎ¹": 3373,
      "ĠÏĩÎ±ÏģÎ±ÎºÏĦÎ·ÏģÎ¹ÏĥÏĦÎ¹ÎºÎ±": 3374,
      "ern": 3375,
      "ĠÎºÎ¹Î½Î´ÏħÎ½Î¿": 3376,
      "ĠÎ´Î¹Î¿Î¹ÎºÎ·ÏĦÎ¹ÎºÎ·": 3377,
      "ational": 3378,
      "ĠÎµÎ¼Î¼Îµ": 3379,
      "ĠÏĪÏħ": 3380,
      "ÏĨÎ±Î¹": 3381,
      "ĠÎµÎ¹ÏĤ": 3382,
      "ĠÏĦÎ·ÏģÎ·ÏĥÎ·": 3383,
      "ĠÏĢÏģÎ¿Î±": 3384,
      "Î¼Î¿ÎºÏģÎ±": 3385,
      "Î»ÎµÎ¹Î±ÏĤ": 3386,
      "ĠÎ±ÏģÏĩÎ¹Î¶ÎµÎ¹": 3387,
      "ĠÎµÎºÏĦÎ¹Î¼ÏīÎ½ÏĦÎ±ÏĤ": 3388,
      "ĠÎ·ÏĦÎ¿Î¹": 3389,
      "ĠÎ±Î½Î±Î»ÏħÏĥÎ·": 3390,
      "ĠÏĢÏģÎ¿ÏĦÎµÏģÎ±Î¹Î¿": 3391,
      "ĠÎ´Î±ÏĥÎ¼ÏīÎ½": 3392,
      "ÏģÎ¹ÎºÏīÎ½": 3393,
      "14": 3394,
      "ĠÏĥÏħÎ½ÏĦÎ¿Î½": 3395,
      "ĠÎ´Î¿Î¸ÎµÎ¹": 3396,
      "ĠÎ¸ÎµÏģÎ¼Î¿": 3397,
      "ĠÎ±ÎºÏģÎ¿Î±": 3398,
      "ĠÎºÎ±ÏĦÎ±ÏģÏĦÎ¹ÏĥÎ·": 3399,
      "ĠÎµÏĢÎ¹ÏĦÏħ": 3400,
      "Ġsh": 3401,
      "ĠÏħÏĪÎ·Î»Î¿": 3402,
      "Î¸ÎµÎ½ÏĦÏīÎ½": 3403,
      "ĠÎºÎ»Î±ÏĥÎ·": 3404,
      "ĠÎºÎ¿Î¹Î½Î¿ÏĢÎ¿Î¹Î·ÏĥÎ·": 3405,
      "ĠÎµÎ»Î²Îµ": 3406,
      "Î¹ÏīÏĥÎ·": 3407,
      "Î»Î»ÏīÎ½": 3408,
      "ÏĢÏĦÎµÏĦÎ±Î¹": 3409,
      "ĠÎµÎ½ÏĥÏīÎ¼Î±ÏĦÏī": 3410,
      "ĠÎ¿ÏħÏĥÎ¹Ïī": 3411,
      "Ġne": 3412,
      "ĠÏħÏĪÎ¿ÏħÏĤ": 3413,
      "ĠÎµÏģÏīÏĦÎ·Î¼Î±ÏĦÎ±": 3414,
      "ĠÎ´Î¹ÎµÏħÎ¸ÏħÎ½ÏĥÎ·": 3415,
      "ĠÎ¼Î·ÏĦÏģÏī": 3416,
      "ĠÏĦÏģÎ¹ÏĦÎµÏĤ": 3417,
      "29": 3418,
      "ĠÎ¿Î½Î¿Î¼Î±ÏĥÎ¹Î±": 3419,
      "ĠÎµÏģÎ³Î±ÏĥÎ¹ÎµÏĤ": 3420,
      "Î½Î¸ÎµÎ¹": 3421,
      "ĠÎ±ÏĢÎ¿ÎºÏĦÎ·": 3422,
      "ĠÎ´Î¹Î±Î´Î¹ÎºÏīÎ½": 3423,
      "ĠÎ¼ÎµÎ»Î»Î¿Î½": 3424,
      "ÏĦÎ¹ÏīÎ½": 3425,
      "Ġce": 3426,
      "ans": 3427,
      "Ġvi": 3428,
      "ĠÎµÏĢÎ·ÏģÎµÎ±": 3429,
      "ĠÎºÎ±ÏĦÎ±ÏĢÎ¿": 3430,
      "ĠÎµÎ¼ÏĢÎµÎ¹ÏģÎ¿": 3431,
      "Ġjai": 3432,
      "ĠÎµÏĢÎ¹ÎºÏģÎ±": 3433,
      "Î¸Î¿Î½": 3434,
      "ĠÎ±ÏĢÎ»ÏīÏĤ": 3435,
      "ob": 3436,
      "ĠâĪĴ": 3437,
      "ĠÏĢÎµÏģÎ¹Î¿ÏĩÎ·": 3438,
      "ĠÎºÏīÎ´Î¹ÎºÎ±": 3439,
      "ĠÏĢÏģÎ¿ÏĥÏĩÏīÏģÎ·": 3440,
      "ĠÎ¿ÏĩÎ·Î¼Î±ÏĦÎ±": 3441,
      "ĠÎ³ÏģÎ±ÏĨ": 3442,
      "ĠÏĢÎ»Î·ÏģÏīÏĤ": 3443,
      "port": 3444,
      "ĠÎ´Î¹Î±Î¼Îµ": 3445,
      "ĠÎ½ÏĦÎ±Î¼ÏĢÎ¹Î½Î³Îº": 3446,
      "ĠÏĢÎµÏģÎ¹ÎµÎºÏĦÎ¹ÎºÎ¿": 3447,
      "ĠÎ¸ÎµÎ¼Î±": 3448,
      "ĠÏĥÎ·Î¼Î±Î½ÏĦÎ¹ÎºÎ¿": 3449,
      "ĠÏĨÏģÎ±": 3450,
      "ĠÎ»Î¿ÏħÎ¾ÎµÎ¼Î²Î¿ÏħÏģÎ³Î¿": 3451,
      "ĠÎµÏģÎ³ÏīÎ½": 3452,
      "ĠÎ´Î±ÏĥÎ¼Î¿": 3453,
      "ĠÏĢÎµÏģÎ¹ÏĥÏĦÎ±ÏĥÎµÎ¹ÏĤ": 3454,
      "Ġrt": 3455,
      "ĠÏĥÏħÎ¼Î¼Î¿ÏģÏĨÏīÏĥÎ·ÏĤ": 3456,
      "ĠÏĢÏģÎ±ÎºÏĦÎ¹ÎºÎ·": 3457,
      "ĠÎ¶ÏīÎ½Î·": 3458,
      "ĠÎµÎ¹Î´Î¹ÎºÎ±": 3459,
      "ÏĦÎ·ÏĥÎµÎ¹": 3460,
      "ĠÎºÎ¿ÏĥÏĦÎ¿ÏħÏĤ": 3461,
      "ĠÏĢÎµÏģÎ¹Î¿Î´Î¿ÏĤ": 3462,
      "ĠÏĨÎ±ÎºÎµ": 3463,
      "ĠÏĢÎ¿ÏĥÎ¿ÏĦÎ·ÏĦÎ±": 3464,
      "ÏĥÎ¿Î½ÏĦÎ±Î¹": 3465,
      "ĠÎ¿ÏģÎ³Î±Î½Î¿": 3466,
      "ĠÎµÏĢÎ¹ÏĢÏĦÏīÏĥÎµÏīÎ½": 3467,
      "ith": 3468,
      "ĠÏĩÎ·Î¼": 3469,
      "ĠÎºÎ±ÏĦÎ±Î´Î¹ÎºÎ±ÏĥÎµÎ¹": 3470,
      "ĠÎµÎ½Î±ÏĢÎ¿": 3471,
      "ĠÎµÏĢÎµÎ¹Î´Î·": 3472,
      "ĠÎ±Î½Î±Î³ÎºÎµÏĤ": 3473,
      "ĠÎ¼ÎµÏĦÏģÎ¿Ïħ": 3474,
      "ĠÏĥÎ·Î¼Î±ÏĥÎ¹Î±": 3475,
      "ĠÏĦÏģÎ¿ÏĢÎ¿ÏĢÎ¿Î¹Î·ÏĥÎµÎ¹ÏĤ": 3476,
      "ff": 3477,
      "ĠÎµÏĥÏĨÎ±Î»": 3478,
      "ĠÏĢÏģÎ¿ÏħÏĢÎ¿Î¸Îµ": 3479,
      "ĠÎµÏĦÎ±Î¹ÏģÎµÎ¹ÎµÏĤ": 3480,
      "ĠÏĢÏģÏīÏĦÎ¿Î½": 3481,
      "Ġq": 3482,
      "ĠÏĦÏģÎµÎ¹ÏĤ": 3483,
      "our": 3484,
      "ĠÎ¹Î½ÎµÏĤ": 3485,
      "ĠÎ·Î»Î¹Îº": 3486,
      "ĠÏĪÎ·ÏĨÎ¹Î±": 3487,
      "Ġapr": 3488,
      "ĠÎ±ÏĥÎºÎ·ÏĥÎµ": 3489,
      "ĠÎºÎ±Î¸Î·ÏĤ": 3490,
      "ĠÎ¶ÏīÏīÎ½": 3491,
      "ĠÎµÎ²": 3492,
      "ĠÎµÏĢÎ¹ÏĦÎ¿": 3493,
      "ĠÎ±ÏĢÎ±Î¹ÏĦÎ¿Ïħ": 3494,
      "ĠÎºÎ±ÏĦÎ±ÏĢÎ¿Î»Îµ": 3495,
      "ĠÎ¼ÎµÏĦÎ±ÏĨÎ¿ÏģÎµÏĤ": 3496,
      "ĠÏĢÏģÎ¿ÏĦÎ±ÏĥÎµÎ¹ÏĤ": 3497,
      "ĠÏĥÏĦÎ¿ÏĩÎ¿ÏħÏĤ": 3498,
      "ĠÏĥÏħÎ½Î±ÏĪÎ·": 3499,
      "ĠÏĢÎ±ÏģÎ±Î³ÏīÎ³ÏīÎ½": 3500,
      "ĠÎ¿ÏĢÎ¿Î¹Î±ÏĥÎ´Î·ÏĢÎ¿ÏĦÎµ": 3501,
      "ĠÎºÎ±ÏĢ": 3502,
      "ĠÎ±Î½Î±ÏĨÎ¿ÏģÎ±": 3503,
      "ĠÎ¸ÎµÏīÏģÎµÎ¹": 3504,
      "ĠÎµÎºÏĨÏģÎ±": 3505,
      "ĠÎµÎ³ÎºÏģÎ¹ÏĥÎ·ÏĤ": 3506,
      "ĠÏĢÎµÎ½": 3507,
      "ĠÏĢÎµÏģÎ¹Î²Î±Î»Î»Î¿Î½ÏĦÎ¿ÏĤ": 3508,
      "ĠÏħÎ»Î¿ÏĢÎ¿Î¹Î·ÏĥÎ·": 3509,
      "ĠÎ±Î¹ÏĦÎ·ÏĥÎ·ÏĤ": 3510,
      "ÃŁ": 3511,
      "ĠÎ¿ÏģÏīÎ½": 3512,
      "ĠÏĥÏħÏĥÎºÎµÏħÎµÏĤ": 3513,
      "Ġcomp": 3514,
      "Î¹ÏĥÎ¼Î¿ÏĤ": 3515,
      "24": 3516,
      "Ġltd": 3517,
      "17": 3518,
      "ĠÏħÎ´ÏģÎ¿": 3519,
      "ÎºÎ¿Î½ÏĦÎ±Î¹": 3520,
      "ÏħÏĥÎ·ÏĤ": 3521,
      "ĠÏĥÎ·Î¼Î±ÏĦÎ±": 3522,
      "ĠÏĢÎ¹ÏĥÏĦÎ¿ÏĢÎ¿Î¹Î·ÏĦÎ¹ÎºÎ¿": 3523,
      "ĠÎºÎ±ÏħÏĥÎ¹": 3524,
      "Ġ106": 3525,
      "ĠÏĢÏģÎ¿ÏĥÎµÎ³Î³Î¹ÏĥÎ·": 3526,
      "ÏĦÎ¹Î¼Î·": 3527,
      "Î¼Î±ÏĦÎ¹ÎºÎ·": 3528,
      "ĠÎµÎ¼ÏĢÎ¿ÏģÎµÏħÎ¼Î±ÏĦÎ±": 3529,
      "ÏĦÎ¹Î¿Ïħ": 3530,
      "mbh": 3531,
      "ĠÎ¿ÏĩÎ·Î¼Î±ÏĦÏīÎ½": 3532,
      "ĠÏĥÏĩÎ·": 3533,
      "ĠÎ¹Î´ÏģÏħÏĥÎ·": 3534,
      "ĠÏĢÎ±ÏģÎ¿Î¼Î¿Î¹Î±": 3535,
      "ĠÏĥÏħÎ½ÎµÎ´ÏģÎ¹Î±ÏĥÎ·": 3536,
      "25": 3537,
      "ĠÏĢÎ»Î·Î½": 3538,
      "ĠÎ´Î¹Î±ÎºÏģÎ¹ÏĥÎ·": 3539,
      "ĠÎµÎºÎµÎ¹Î½Î·": 3540,
      "Î¹ÎºÎ¹": 3541,
      "ĠÃ°": 3542,
      "Î¼Î¿Î´Î¿": 3543,
      "anc": 3544,
      "ĠÎºÎ±Î¸Î·ÎºÎ¿Î½ÏĦÎ±": 3545,
      "ĠÎ¼ÏĢÎ±": 3546,
      "ĠÎºÏģÎ¹Î½ÎµÎ¹": 3547,
      "ka": 3548,
      "ĠÎ¸ÎµÏĥÎµÎ¹ÏĤ": 3549,
      "ĠÏĢÏģÎ¿ÏĢÎ±ÏģÎ±": 3550,
      "ĠÎ¶Î·Î¼Î¹Î±ÏĤ": 3551,
      "Î¶Îµ": 3552,
      "Ġgmbh": 3553,
      "ĠÎµÎºÎ´Î¹Î´ÎµÎ¹": 3554,
      "Î¼Ïī": 3555,
      "ĠÏĥÏħÎ¼ÏĨÏīÎ½Î¹ÏīÎ½": 3556,
      "ĠÏĥÏħÎ½Î¿Î»Î¹ÎºÎ·": 3557,
      "ĠÎ´Î¹ÎµÎ¸Î½Î·": 3558,
      "min": 3559,
      "ĠÎ±ÏĥÎºÎµÎ¹": 3560,
      "ĠÎºÎµÏĨÎ±Î»Î±Î¹ÏīÎ½": 3561,
      "ĠÏĥÏħÎ½Î¿Î»Î¹ÎºÎ¿": 3562,
      "ĠÏĥÎ±ÏĤ": 3563,
      "ĠÏħÏĪÎ¿ÏĤ": 3564,
      "Ġme": 3565,
      "ĠÎ´ÏģÎ±ÏĥÏĦÎ·ÏģÎ¹Î¿ÏĦÎ·ÏĦÎ±ÏĤ": 3566,
      "ĠÎ±ÏģÎ³Î¿ÏĦÎµÏģÎ¿": 3567,
      "ĠÎ±Î»Î»Î¿ÏħÏĤ": 3568,
      "ĠÎºÎ±Î»ÏħÏĢÏĦÎ¿Î½ÏĦÎ±Î¹": 3569,
      "ĠÏĥÏĦÎ±Î¸": 3570,
      "ĠÏĥÏħÎ½Î´ÎµÎ¿Î½ÏĦÎ±Î¹": 3571,
      "ÏĦÎ¹ÎµÏĤ": 3572,
      "Î´Î¹ÎºÎ·ÏĤ": 3573,
      "ĠÎ¿ÏĨÎµ": 3574,
      "ĠÎ¼ÎµÎ³Îµ": 3575,
      "ÏĪÎµÏīÎ½": 3576,
      "ĠÏĥÏħÎ½Î±Î»Î»Î±Î³ÎµÏĤ": 3577,
      "ĠÎ¶Î·Î¼Î¹Î±": 3578,
      "ĠÏĢÎ±Î³ÎºÎ¿Ïĥ": 3579,
      "ĠÎµÎºÏĢÏĦÏī": 3580,
      "ĠÎºÎ¿Ïħ": 3581,
      "ĠÎ»Î¹Î³Î¿ÏĦÎµÏģÎ¿": 3582,
      "ÏĢÎ¿Î¹Î¿ÏħÎ½ÏĦÎ±Î¹": 3583,
      "ĠÏĦÏģÎ¹Î±": 3584,
      "ĠÏĢÏģÏīÏĦÎ¿Î²Î¿ÏħÎ»Î¹Î±": 3585,
      "ĠÎµÏĢÎ¹Î²Î±Î»Î»ÎµÎ¹": 3586,
      "Ġ1987": 3587,
      "ĠÎºÎ±ÏĦÎ±Î³Î¿": 3588,
      "ĠÎ¼ÎµÎ¸Î¿Î´Î¿": 3589,
      "ÏĨÎµÏģÎµÎ¹": 3590,
      "ĠÎµÏĥÏīÏĦÎµÏģÎ¹ÎºÎ·": 3591,
      "ĠÎ³ÏģÎ±ÏĢ": 3592,
      "ĠÎ´Î¹Î±Î¼Î¿Î½Î·ÏĤ": 3593,
      "ĠÏĢÏģÎ¿ÏĥÏĦÎ¹Î¼Î¿Ïħ": 3594,
      "Ġas": 3595,
      "gay": 3596,
      "ĠÏħÏĢÎ±Î³Î¿Î½ÏĦÎ±Î¹": 3597,
      "ib": 3598,
      "ĠÎ±Î½Î±ÏĥÏĦÎ¿": 3599,
      "Ġ030": 3600,
      "ĠÎ±ÏĦ": 3601,
      "ĠÎ±Î½ÎµÏģÎ³Î¹Î±ÏĤ": 3602,
      "Î¿ÏħÏĥÎ±ÏĤ": 3603,
      "ĠÏĦÏģÎµ": 3604,
      "ĠÎ»Î·ÏĨÎ¸Î¿ÏħÎ½": 3605,
      "ÏĩÏīÏģÎ·ÏĥÎ·": 3606,
      "ĠÎ±Î½Î±Î½Îµ": 3607,
      "Ġprp": 3608,
      "ĠÎµÎ³ÎºÏħ": 3609,
      "ĠÏĩÏģÎ¿Î½Î¿Ïħ": 3610,
      "Î¹ÎºÎ±Ïĥ": 3611,
      "ĠÏħÏĢÎ¿Î»Î¿Î³Î¹ÏĥÎ¼Î¿": 3612,
      "Î²Î±Î¸": 3613,
      "Ġsxm": 3614,
      "ĠÎ¿Î¼Î¿Î¹Î¿": 3615,
      "ĠÎ±ÏħÏĦÎ¿Î¹": 3616,
      "ĠÎ¼ÎµÏĥÏīÎ½": 3617,
      "ĠÎ»Î·Î¾Î·": 3618,
      "ĠÏĥÎµÎ¹ÏģÎ±": 3619,
      "Î¹ÏĦÎ·": 3620,
      "16": 3621,
      "ĠÎ±Î¼ÎµÏĥÏīÏĤ": 3622,
      "ĠÏĢÎµÏģÎ¹Î»Î±Î¼Î²Î±Î½Î¿ÏħÎ½": 3623,
      "ÎµÎºÏĦÎ·Î¼Î±": 3624,
      "ĠÎ´ÏģÎ±ÏĥÎ·": 3625,
      "Ġvii": 3626,
      "ĠÏĥÎºÎ¿ÏĢÎ¹Î¼Î¿": 3627,
      "ĠÏĥÏĦÎ¹Î³Î¼Î·": 3628,
      "ÏīÎ¸ÎµÎ¹": 3629,
      "ĠÏĢÎ¿Î»ÏīÎ½": 3630,
      "ĠÏĢÏģÎ¿Î´Î·": 3631,
      "ĠÎ¿Î´Î·Î³Î¹ÎµÏĤ": 3632,
      "ÏĦÎµÎ¹Î±": 3633,
      "ust": 3634,
      "ÎºÏĦÎµÏĤ": 3635,
      "ĠÎºÎ±ÏĦÎ±Î´Î¹ÎºÎ±": 3636,
      "ĠÎ¿ÏĩÎ·Î¼Î±ÏĦÎ¿ÏĤ": 3637,
      "Î¹ÎºÎ¿Î½": 3638,
      "ĠÏĥÏĦÎ¿ÏĩÏīÎ½": 3639,
      "ĠÏĢÎµÏģÎ±Î½": 3640,
      "ger": 3641,
      "ĠÎµÎºÎµÎ¹Î½ÎµÏĤ": 3642,
      "ĠÎºÏħÏģÎ¹Î¿": 3643,
      "ĠÎ¿ÏģÎ³Î±Î½Î¹ÏĥÎ¼Î¿": 3644,
      "ĠÎµÎ¼ÏĢÎµÎ¹ÏģÎ¿Î³Î½ÏīÎ¼Î¿": 3645,
      "Ġles": 3646,
      "ĠÎ´Î¹ÎµÏħÎºÏģÎ¹Î½": 3647,
      "ĠÏħÏĢÎ·Ïģ": 3648,
      "Ġind": 3649,
      "ĠÎµÎºÎ±ÏĦ": 3650,
      "ĠÏĥÏħÎ¼Î²Î±Î»Î»Î¿Î¼ÎµÎ½Î¿": 3651,
      "ĠÎ±ÎºÏħÏģÏīÏĥÎ·": 3652,
      "ĠÏĦÎ±Îº": 3653,
      "ĠÎ´ÎµÏħÏĦÎµÏģÎ¿Î½": 3654,
      "ian": 3655,
      "ĠÏĢÏģÎ¿ÎµÎ´ÏģÎ¿": 3656,
      "ach": 3657,
      "ĠÏĢÏĦÏħ": 3658,
      "ĠÎ³Î±Î»Î»Î¹Î±": 3659,
      "ĠÎ¹Î´Î¹Î¿Ïħ": 3660,
      "ÏĢÎµÎ¼": 3661,
      "Î¹ÏĥÎ¸Î·": 3662,
      "Ġab": 3663,
      "ĠÏĢÎ»ÎµÏħ": 3664,
      "ĠÏĥÎ¿ÏħÎ·": 3665,
      "Î¸ÎµÏĥÎµ": 3666,
      "Î¾Î¿ÏħÎ½": 3667,
      "ĠÏĢÏģÎ¿Î²Î±Î»Î»ÎµÎ¹": 3668,
      "ĠÎµÏĢÎ¹ÏĥÎ·Î¼Î±Î½": 3669,
      "ĠÎ±Î½ÏĦÎ¹ÎºÎµÎ¹Î¼ÎµÎ½": 3670,
      "ĠÎºÎ»ÎµÎ¹": 3671,
      "Ġes": 3672,
      "Ġno": 3673,
      "ao": 3674,
      "ĠÏĥÏĦÎ·ÏģÎ¹Î¶ÎµÏĦÎ±Î¹": 3675,
      "ĠÎµÏĢÎ¹Î»Î¿Î³": 3676,
      "ĠÎ¹Î´Î¹Î¿ÎºÏĦÎ·ÏĥÎ¹Î±ÏĤ": 3677,
      "ÎºÎ»Î·ÏĥÎ·": 3678,
      "yn": 3679,
      "ÏĥÏħÎ½Î·ÏĤ": 3680,
      "ĠÎ´Î¹ÏĢÎ»Ïī": 3681,
      "ĠÎµÎ½Î¹ÏĥÏĩÏħÏĥÎµÏīÏĤ": 3682,
      "ĠÎ³ÎµÏģÎ¼Î±Î½Î¹ÎºÎ·": 3683,
      "ĠÎ¼ÎµÎ³Î¹Ïĥ": 3684,
      "ĠÏĢÏģÎ¿Î¼Î·Î¸ÎµÏħ": 3685,
      "Ð¾": 3686,
      "ĠÎ±ÏĢÎ±Î¹ÏĦÎ¿ÏħÎ½ÏĦÎ±Î¹": 3687,
      "ĠÎµÎ¸Î½Î¹ÎºÎ·ÏĤ": 3688,
      "ĠÏĢÎ¿Î»Î»Î±": 3689,
      "ĠÎ±ÏħÏĦÎ¿ÎºÎ¹Î½Î·": 3690,
      "27": 3691,
      "ĠÏħÏĢÎ¿Î³ÏģÎ±ÏĨÎ·": 3692,
      "ĠÎ¼Î±ÎºÏģÎ¿": 3693,
      "ĠÏħÏĢÎ¿Î»Î¿Î¹": 3694,
      "ĠÎµÎ¼ÏĢÎ¹ÏĢÏĦÎ¿ÏħÎ½": 3695,
      "pa": 3696,
      "ĠÎµÏĢÎ¹Î»ÎµÎ¾Î¹": 3697,
      "Ġcas": 3698,
      "Î¸ÎµÎ½ÏĦÎ¿ÏĤ": 3699,
      "ĠÏĢÎ¿ÏĥÎ¿ÏĦÎ·ÏĦÎµÏĤ": 3700,
      "ĠÎ¿ÏħÏĥÎ¹ÎµÏĤ": 3701,
      "ĠÎºÎ±ÏĦÎ±ÏģÏĦÎ¹ÏĥÎ·ÏĤ": 3702,
      "ĠÏĢÏģÎ±Î³Î¼Î±ÏĦÎ¿ÏĢÎ¿Î¹ÎµÎ¹ÏĦÎ±Î¹": 3703,
      "ĠÏĥÎºÎ±ÏĨÎ·": 3704,
      "th": 3705,
      "ĠÏĥÏĩÎµÏĦÎ¹ÎºÎ¿": 3706,
      "ÎºÎ¿Î½": 3707,
      "ĠÏĦÎµÎºÎ¼Î·": 3708,
      "ĠÏĢÎµÎ½ÏĦÎµ": 3709,
      "ĠÏĢÎ±ÏģÎµÏĩÎ¿Î½ÏĦÎ±Î¹": 3710,
      "ĠÏĥÎ·Î¼ÎµÎ¹Î¿Ïħ": 3711,
      "ĠÏĢÎµÏģÎ¹ÏĥÏĥÎ¿ÏĦÎµÏģÎ±": 3712,
      "ĠÎ³ÎµÎ½Î¹ÎºÎ¿ÏĤ": 3713,
      "Ġ300": 3714,
      "ĠÎ¿ÏĨÎµÎ¹Î»ÎµÎ¹": 3715,
      "Î³ÏģÎ±ÏĨÎ¿Î½ÏĦÎ±Î¹": 3716,
      "ĠÎ¼Î±ÏĤ": 3717,
      "ĠÎµÏĢÎµÎ½Î´ÏħÏĥÎµÎ¹ÏĤ": 3718,
      "ĠÎ¿ÏģÎ¸": 3719,
      "Ġmon": 3720,
      "ĠÏĥÏħÎ¼Î¼Î¿ÏģÏĨÏīÏĥÎ·": 3721,
      "ÏĦÎ¹Î¸ÎµÎ¼ÎµÎ½Î·": 3722,
      "ĠÎ±ÎºÏħÏģÏīÏĥÎµÎ¹": 3723,
      "ĠÏĩÏīÏģÎ¹Ïĥ": 3724,
      "Ġ107": 3725,
      "ge": 3726,
      "ĠÏĢÎ±ÏģÎ±Î»Î»Î·": 3727,
      "ÎºÎ¹Î±": 3728,
      "ĠÎµÎ¹Î´ÏīÎ½": 3729,
      "ĠÏĥÏħÏĥÏĦÎ±ÏĥÎ·": 3730,
      "ĠÎµÏĢÎ±Î½": 3731,
      "ĠÎ¿Î¹ÎºÎ¿Î½Î¿Î¼Î¹ÎºÎ¿": 3732,
      "ĠÎ¹ÏĦÎ±Î»Î¹Î±": 3733,
      "ĠÏĥÎ·Î¼ÎµÎ¹ÏīÎ½": 3734,
      "ĠÏĢÎ»Î±Î½Î·": 3735,
      "ĠÎ±ÏĢÎ¿ÏģÏģÎ¹ÏĨÎ¸ÎµÎ¹": 3736,
      "ĠÎ±ÎºÎµ": 3737,
      "ĠÎ±Î½Î±Î³Î½ÏīÏģÎ¹ÏĥÎ·": 3738,
      "ĠÎ´Î¹Î¿Î¹ÎºÎ·ÏĦÎ¹ÎºÎ·ÏĤ": 3739,
      "ĠÎµÏħÎ»Î¿Î³": 3740,
      "ĠÎ´Î¹Î¿Î¹ÎºÎ·ÏĦÎ¹ÎºÎµÏĤ": 3741,
      "ÏģÎ¹ÎºÎ¿": 3742,
      "ĠÎµÎ½Î±Î³Î¿Ïħ": 3743,
      "gr": 3744,
      "ĠÎ´Î¹Î¿ÏģÎ¸Ïī": 3745,
      "ĠÎ³ÏħÎ½Î±": 3746,
      "ĠÎ´Î¹Î±ÏĦÎ±Î¾ÎµÏīÏĤ": 3747,
      "Ðµ": 3748,
      "ĠÎµÎ²Î´Î¿": 3749,
      "ĠÏħÏĢÎµÎ½Î¸ÏħÎ¼": 3750,
      "ĠÎ±ÏĢÎ±ÏģÎ¹Î¸": 3751,
      "ĠÏĢÎ±ÏģÎ±Î»ÎµÎ¹": 3752,
      "ĠÎ´ÎµÎ¹Î³Î¼Î±": 3753,
      "Î»Î¹ÎºÎµÏĤ": 3754,
      "ĠÎºÎ±ÏĦÎ·Î³Î¿ÏģÎ¹ÎµÏĤ": 3755,
      "Ġro": 3756,
      "ĠÏĢÎ±Î½ÏĦÏīÏĤ": 3757,
      "Î¼Î¹Î¿": 3758,
      "ĠÎµÏĢÎ¿ÏĢÏĦÎµ": 3759,
      "ĠÎ±ÏĢÎ±Î¹ÏĦÎµÎ¹": 3760,
      "ĠÏĩÏģÎµ": 3761,
      "ĠÎ´Î¹Î±Î´Î¿": 3762,
      "ĠÎ±Î½ÏĦÎ¹ÎºÎ±ÏĦÎ±": 3763,
      "ĠÎ½Î¿Î¼Î¹ÎºÎ±": 3764,
      "ĠÎ±Î½Î±Î³Î½ÏīÏģÎ¹": 3765,
      "ĠÎ±ÏģÎ¼Î¿Î´Î¹Î¿ÏĦÎ·ÏĦÎ±": 3766,
      "ĠÎµÏĢÎ¹ÏĦÎ±": 3767,
      "ĠÏĥÏħÎ½Î·Î¸": 3768,
      "ĠÎ¼ÏĢÎ¿ÏģÎ¿ÏħÏĥÎ±Î½": 3769,
      "ĠÎ±ÏĢÎµÏħÎ¸Ïħ": 3770,
      "ister": 3771,
      "ĠÏĥÏħÎ½Î±Î½": 3772,
      "ĠÎµÏĦÎ±Î¹ÏģÎµÎ¹Î±": 3773,
      "ĠÎ´ÎµÏħÏĦÎµÏģÎ¿Ïħ": 3774,
      "Î¼Î¹ÎµÏĤ": 3775,
      "ĠÏħÏĢÎ±Î»Î»Î·Î»Î¿ÏĤ": 3776,
      "ĠÎ±Î»Î»Î¿Î´Î±": 3777,
      "ĠÎµÏĨÎ±ÏģÎ¼Î¿ÏĥÏĦÎµ": 3778,
      "ĠÎµÎ»ÎµÎ³ÏĩÎ¿ÏĤ": 3779,
      "ĠÏħÎ³ÎµÎ¹Î±": 3780,
      "Î·Î½": 3781,
      "ĠÏĢÎ»Î·ÏģÎ·": 3782,
      "ĠÎµÏĢÎ¹ÏĩÎµÎ¹ÏģÎ·ÏĥÎ·ÏĤ": 3783,
      "ĠÎ¼ÎµÏĦÎµ": 3784,
      "ĠÎµÎ½Îµ": 3785,
      "Ġcar": 3786,
      "ĠÎ±ÏĢÎ¿ÏĦÎµÎ»ÎµÏĥÎ¼Î±ÏĦÏīÎ½": 3787,
      "ĠÎ¼ÎµÏĦÎ±Î²Î±": 3788,
      "ĠÎ³ÏģÎ±Î¼Î¼Î±ÏĦÎµÎ¹Î±": 3789,
      "ĠÏĩÏģÎ·ÏĥÎ¹Î¼Î¿ÏĢÎ¿Î¹Î·ÏĥÎ·": 3790,
      "ÏħÎ½Î¿": 3791,
      "Î»Î»Î±Ïĥ": 3792,
      "erv": 3793,
      "ĠÎºÎ±Î¸Î·ÎºÎ¿Î½ÏĦÏīÎ½": 3794,
      "ĠÎ±ÏĥÎ¸Îµ": 3795,
      "ĠÎ±Î½Î±ÏĨÎµÏģÎµÎ¹": 3796,
      "ĠÏĢÏīÎ»Î·ÏĥÎ·": 3797,
      "ĠÏĢÎµÏģÎ¹Î¿ÏħÏĥÎ¹Î±": 3798,
      "Î¹Î¹": 3799,
      "ĠÎ±ÏģÎ±": 3800,
      "ĠÎ±ÎºÏģÎ¹Î²": 3801,
      "ĠÎ±ÏĥÏĨÎ±Î»Î¹ÏĥÎ·ÏĤ": 3802,
      "Ġcpc": 3803,
      "ÎºÎ±Î¹": 3804,
      "ĠÎ´Î¹Î±ÏĨÎ±": 3805,
      "ĠÏĥÏħÎ¼ÏĢÎµÏģÎ¹Î»Î±Î¼Î²Î±Î½Î¿Î¼ÎµÎ½Î·ÏĤ": 3806,
      "ĠÎ±Î½Î±Î³ÎºÎ±Î¹ÎµÏĤ": 3807,
      "ĠÏĦÎµÏĩÎ½Î¹ÎºÎ·": 3808,
      "ÏĦÎ¿Î¼Î¼Ïħ": 3809,
      "Ġcommun": 3810,
      "ĠÎºÎ±Î¸Î¿Ïħ": 3811,
      "ĠÎ±Î½Î¸ÏģÎ±": 3812,
      "ĠÏĢÎ±ÏģÎµÏĩÎµÏĦÎ±Î¹": 3813,
      "ĠÎ±Î³ÏģÎ¿": 3814,
      "ĠÎ½Î·Î¼Î±ÏĦÎ±": 3815,
      "ÏĢÎ¿Î¹Î¿ÏħÎ½": 3816,
      "Î´Î¿Î½ÏĦÎ±Î¹": 3817,
      "ÏģÎ¹ÏĥÎ¼Î±": 3818,
      "ĠÏħÎ´Î±ÏĦÎ±": 3819,
      "ÎºÎ·ÏģÏħ": 3820,
      "Ġqu": 3821,
      "ĠÏĥÎ·Î¼Î±Î½ÏĦÎ¹ÎºÎ·": 3822,
      "ÏħÎ³": 3823,
      "Î»Î¿Î½Î¿": 3824,
      "Ġwith": 3825,
      "Î¹ÏĥÎµ": 3826,
      "Ġ1986": 3827,
      "Î¿ÏħÏĥÎµÏĤ": 3828,
      "ĠÏĢÎ±ÏģÎ±Î´ÎµÎ¹": 3829,
      "Ã¦Ã¸": 3830,
      "ĠÎ¿ÏģÎ³Î±Î½ÏīÎ½": 3831,
      "ĠÏĩÏģÎ·Î¼Î±ÏĦÎ¿Î¿Î¹ÎºÎ¿Î½Î¿Î¼": 3832,
      "ĠÏĩÏīÏģÎ¿": 3833,
      "ĠÏĨÎ¿ÏģÎ±": 3834,
      "Ġpe": 3835,
      "ĠÏĢÏģÎ¿ÏĥÎ¸Î·Îº": 3836,
      "ĠÎ´Î·Î¼Î¹Î¿ÏħÏģÎ³Î·": 3837,
      "ĠÎ·Î¼ÎµÏģÎµÏĤ": 3838,
      "31": 3839,
      "ĠÎ½ÎµÎµÏĤ": 3840,
      "ÎºÎ¿Î¿": 3841,
      "ÎµÎ¹Î¿Î½Î¿Î¼": 3842,
      "ĠÏĢÎ±ÏģÎ±Î´Îµ": 3843,
      "ĠÎ¹ÏĥÏĦÎ¿": 3844,
      "ique": 3845,
      "ĠÏĢÏģÎ¿ÏĥÏīÏģÎ¹Î½Î·": 3846,
      "ĠÏĢÎ±ÏģÎµÎ²Î·": 3847,
      "ĠÎµÎ»Î»ÎµÎ¹ÏĪÎ·": 3848,
      "Ġ257": 3849,
      "ein": 3850,
      "ĠÎºÎµÎ½ÏĦÏģ": 3851,
      "ĠÎºÎ±Î¸Ïħ": 3852,
      "Ġ1985": 3853,
      "ĠÎ±Î½ÏĦÎ±Î»Î»Î±Î³Î·": 3854,
      "ÏĩÏģÎ¿": 3855,
      "ĠÎ½Î±Î¹": 3856,
      "Ġ207": 3857,
      "ĠÎ±Î¼ÎµÏĥÎ·": 3858,
      "Ġsgm": 3859,
      "ĠÎµÎ±": 3860,
      "ĠÎ¿Î»Î¿ÏħÏĤ": 3861,
      "ĠÎ³ÏģÎ±ÏĨÎµÎ¹Î¿": 3862,
      "ÏģÎ³Î±Î½": 3863,
      "ĠÎ²Î¹Ïī": 3864,
      "ĠÎ´Î·Î¼Î¿ÏĥÎ¹ÎµÏħÏĥÎ·": 3865,
      "ĠÎµÎ¼ÏĢÎ¿Î´": 3866,
      "ĠÎ»Î±Î¼Î²Î±Î½ÎµÏĦÎ±Î¹": 3867,
      "Î»Î»Î±Î½": 3868,
      "ĠÏĦÎµÏĩÎ½Î¹ÎºÏīÎ½": 3869,
      "ĠÏĢÎ»Î·ÏģÎ¿ÏħÎ½": 3870,
      "ĠÎ³ÏģÎ±ÏĨÎµÎ¹": 3871,
      "ĠÎºÎ±Î¸ÏħÏĥÏĦÎµ": 3872,
      "ÏĩÏīÏĤ": 3873,
      "ĠÎ´ÏħÏĥ": 3874,
      "ĠÏĦÏĥÎµ": 3875,
      "Î¾Î±Î½": 3876,
      "Ð½": 3877,
      "ĠÎ½Î¿Î¼Î¹Ïĥ": 3878,
      "ĠÏĢÎ±ÏģÎ±ÎºÎ¿Î»Î¿ÏħÎ¸Î·ÏĥÎ·": 3879,
      "ĠÏĢÏģÎ¿ÏĦÏħÏĢÎ±": 3880,
      "ĠÎ¼Î¿Î»Î¿Î½Î¿": 3881,
      "ĠÎµÎ¹ÏĥÎ·Î³Î·": 3882,
      "ĠÎ´Î¹Î±ÏĩÎµÎ¹ÏģÎ¹Ïĥ": 3883,
      "ĠÏĥÎºÎ¿ÏĢÎ¿ÏĤ": 3884,
      "ĠÎµÎ½ÎµÏģÎ³ÎµÎ¹ÎµÏĤ": 3885,
      "ĠÎ±Î³Î¿ÏģÎµÏĤ": 3886,
      "ĠÎµÏĢÎ¹ÏĩÎµÎ¹ÏģÎ·ÏĥÎµÏīÏĤ": 3887,
      "Ġaut": 3888,
      "ĠÏĥÏĩÎµÏĦÎ¹": 3889,
      "Î¼Î±ÏĦÎ¹ÎºÎ·ÏĤ": 3890,
      "ĠÎ¹Î¿": 3891,
      "ĠÎ±Î³ÏīÎ³Î·": 3892,
      "ĠÏĥÏĦÎ¿ÏĩÎ¿Î¹": 3893,
      "Î»Î»Î¹ÎµÏģÎ³": 3894,
      "ÎºÏĦÎ¿ÏĤ": 3895,
      "ÏĪÎ¿ÏħÎ½": 3896,
      "ĠÎµÎ½ÎµÏģÎ³Î·": 3897,
      "ĠÎ±ÏĢÎ¿ÎºÎ±ÏĦÎ±": 3898,
      "ĠÎ¼ÎµÏĦÎ±Î³ÎµÎ½ÎµÏĥÏĦÎµ": 3899,
      "ĠÏħÏĢÎ¿ÎºÎ±ÏĦÎ±": 3900,
      "ĠÎ¿Î»Î»Î±Î½": 3901,
      "ĠÎ´ÏģÎ±ÏĥÎµÎ¹ÏĤ": 3902,
      "Î²Î±Î¹Î½Î¿ÏħÎ½": 3903,
      "ĠÎºÎ±Î¹Î½Î¿": 3904,
      "oi": 3905,
      "ĠÎ±ÏĢÎ¿Î²Î»Î·ÏĦÏīÎ½": 3906,
      "ĠÏĢÎ±ÏģÎ±Î²Î¹Î±ÏĥÎ·": 3907,
      "Ġpre": 3908,
      "ĠÏĥÏĦÎ±Î¸ÎµÏģÎ¿": 3909,
      "ĠÎ¼Î¿Î»Î¿Î½Î¿ÏĦÎ¹": 3910,
      "ĠÎµÎ¼ÏĢÎ¿ÏģÎ¹Î±ÏĤ": 3911,
      "ĠÏĢÏģÎ¿ÏĥÎ²Î±ÏĥÎ·ÏĤ": 3912,
      "ĠÎ²Î±ÏĥÎ¹Î¶ÎµÏĦÎ±Î¹": 3913,
      "ĠÏĢÎ¿Î»ÏħÎµ": 3914,
      "ĠÎ³ÎµÏģÎ¼Î±Î½Î¹Î±ÏĤ": 3915,
      "ĠÎµÎºÏĢÎ¿Î¼ÏĢÏīÎ½": 3916,
      "ĠÎ±ÏĢÎµÏħ": 3917,
      "ĠÏĢÏģÎ¿ÎµÎ»ÎµÏħÏĥÎ·ÏĤ": 3918,
      "ĠÏĢÎµÏģÎ¹ÏĢÎ¿Ïħ": 3919,
      "ĠÏĢÏģÎ¿ÏĥÎ±ÏģÏĦÎ·Î¼Î±": 3920,
      "ĠÎµÎºÏĢÏģÎ¿ÏĥÏīÏĢÎ¿ÏĤ": 3921,
      "ĠÏĢÎ»Î±Î¹ÏĥÎ¹Î±": 3922,
      "ĠÎ¹ÏĥÏĢÎ±Î½Î¹Î±": 3923,
      "ÏĦÏģÎ¿Ïħ": 3924,
      "ÏĢÏĦÎ¹ÎºÎ¿": 3925,
      "ĠÎ±Î»ÎºÎ¿Î¿": 3926,
      "ĠÎ¿Î¼Î±Î´Î±ÏĤ": 3927,
      "ĠÎºÏĦÎ·": 3928,
      "les": 3929,
      "ĠÏĢÏģÎ¿ÎºÎ±ÏĦÎ±": 3930,
      "ĠÎ¿ÏģÎ¹Î¶": 3931,
      "ĠÎ´Î±ÏĥÎ¼Î¿Ïħ": 3932,
      "Ġgt": 3933,
      "Î»Î±Î¹Î¿": 3934,
      "ĠÎ¿ÏĥÎ±": 3935,
      "ĠÏĥÏĢÎ¿": 3936,
      "ĠÎ¼ÎµÏĦÎ±ÏĢÎ¿Î¹Î·": 3937,
      "Î¾Î¹Î±": 3938,
      "ĠÎ²ÏģÎ±": 3939,
      "Î¸Î¿ÏĤ": 3940,
      "ĠÎ³ÏģÎ±Î¼Î¼Î±ÏĦÎµÎ±ÏĤ": 3941,
      "ĠÏĢÎ±ÏģÎµÎºÎºÎ»Î¹ÏĥÎ·": 3942,
      "Ġfran": 3943,
      "ĠÎ¸ÎµÏĥÏĢÎ¹Î¶ÎµÎ¹": 3944,
      "ipo": 3945,
      "ĠÎ´Î¹Î±Î¸ÎµÏĦÎ¿ÏħÎ½": 3946,
      "Î³Î¿ÏĤ": 3947,
      "ĠÏĩÎ±Î¼Î·Î»Î¿": 3948,
      "ĠÏĢÏģÏīÎ·Î½": 3949,
      "Î¼Î¹ÏīÎ½": 3950,
      "Ġ~": 3951,
      "ĠÎ¿ÏģÎ³Î±Î½Î¹ÏĥÎ¼ÏīÎ½": 3952,
      "ĠÎµÏĦÎ±Î¹ÏģÎ¹Î±ÏĤ": 3953,
      "ÏĢÎ¹ÏĥÏĦÎµÏħ": 3954,
      "Ġjas": 3955,
      "ĠÎ´ÏħÎ½Î±Î¼": 3956,
      "Ġxx": 3957,
      "ĠÏĢÎ»ÎµÎ¿Î½ÎµÎºÏĦÎ·Î¼Î±": 3958,
      "Ġpol": 3959,
      "ĠÏĢÏģÎ¿ÏħÏĢÎ¿Î»Î¿Î³Î¹ÏĥÎ¼Î¿": 3960,
      "ci": 3961,
      "ĠÎºÎ»Î±Î´Î¿Ïħ": 3962,
      "ĠÎ´Î¹Î±Î²Î¹Î²Î±": 3963,
      "ĠÏģÏħÎ¸Î¼Î¹ÏĥÎµÎ¹ÏĤ": 3964,
      "ĠÎ»Î¿Î¹ÏĢÎ±": 3965,
      "pe": 3966,
      "ĠÎ´Î¹Î±ÏģÎ¸": 3967,
      "ĠÎ¿ÏħÏĥÎ¹ÏīÎ½": 3968,
      "ĠÎµÏĢÎ±Î½ÎµÎ¾ÎµÏĦÎ±": 3969,
      "Î¿Î¼ÎµÎ½Î·": 3970,
      "ĠÎµÎ»Î·": 3971,
      "ite": 3972,
      "Î½Î¿ÏĦÎ·ÏĦÎ±": 3973,
      "ĠÏĦÏģÎ¿ÏĨÎ¹Î¼ÏīÎ½": 3974,
      "ĠÎµÎ»Î»Î·Î½Î¹ÎºÎ·": 3975,
      "ĠÎ±ÏĢÎ±Î³Î¿ÏģÎµÏħÏĥÎ·": 3976,
      "ĠÎµÎ³Î³ÏģÎ±ÏĨÎ·": 3977,
      "ĠÎºÎ»Î·": 3978,
      "va": 3979,
      "ĠÏĦÎµÏĩÎ½Î¹ÎºÎµÏĤ": 3980,
      "ĠÏĢÎ¹Î¸Î±": 3981,
      "09": 3982,
      "ĠÏĥÏħÎ½Î±Î»Î»Î±Î³ÏīÎ½": 3983,
      "ĠÎ¶Î·ÏĦÎ·ÏĥÎµÎ¹": 3984,
      "ĠÎ¹ÏĥÏĩÏħÏģÎ¹Î¶ÎµÏĦÎ±Î¹": 3985,
      "ĠÏĥÏħÎ½ÎµÏĢÎµÎ¹ÎµÏĤ": 3986,
      "ĠÎ¶Î·ÏĦÎ·ÏĥÎµ": 3987,
      "ĠÏĢÎµÏģÎ¹Î¿ÏĩÎµÏĤ": 3988,
      "ĠÎµÏĢÎ¹Î¸ÎµÏīÏģÎ·": 3989,
      "ĠÎºÎ±Î¸Î¹Ïĥ": 3990,
      "Î´Î¹ÎºÏīÎ½": 3991,
      "ĠÏĨÎ¿ÏģÎµÏīÎ½": 3992,
      "ĠÎºÎµÎ¹": 3993,
      "ĠÎµÎºÏĢÎ±Î¹Î´ÎµÏħÏĥÎ·ÏĤ": 3994,
      "ĠÎ¹Î´Î¹Î±Î¹ÏĦÎµÏģÎ±": 3995,
      "ĠÏĩÎµ": 3996,
      "ÏĦÏīÏĥÎ·": 3997,
      "ĠÎ±ÏĢÎ¿Î¸Î·ÎºÎµ": 3998,
      "Ġprod": 3999,
      "Ġ1510": 4000,
      "ĠÎ´Î¹Î±ÏĥÏħÎ½Î¿": 4001,
      "ĠÎµÎ»ÎµÎ³ÏĩÏīÎ½": 4002,
      "Ġper": 4003,
      "ice": 4004,
      "85": 4005,
      "ĠÎ´Î¹Î±ÏĥÏħÎ½Î¿ÏģÎ¹Î±": 4006,
      "ĠÏĢÎ±Ïĥ": 4007,
      "ĠÏĩÏģÏī": 4008,
      "ÏĦÏħÏĢÏīÎ½": 4009,
      "ĠÎ±Î½ÏĦÎ¹ÏĥÏĦÎ¿Î¹ÏĩÎµÎ¹": 4010,
      "ĠÏĢÎ±ÏģÎ±Î³ÏīÎ³Î¿ÏħÏĤ": 4011,
      "ah": 4012,
      "ĠÏĢÏģÎ±Î¾ÎµÏīÏĤ": 4013,
      "ĠÎ²ÏģÎ¹ÏĥÎºÎµÏĦÎ±Î¹": 4014,
      "ĠÎºÎ±ÏĦÎ±ÏĦÎ±": 4015,
      "ĠÎµÎ¾Î¿ÏħÏĥÎ¹Î±": 4016,
      "iti": 4017,
      "ĠÎºÎ±ÏĦÎ±Î½Î¿Î¼Î·": 4018,
      "ĠÎ±ÏĢÎ¿Î´ÎµÎ¹ÎºÏĦÎ¹ÎºÎ±": 4019,
      "ĠÎ±Î¹ÏĦÎ·ÏĥÎµÏīÎ½": 4020,
      "Ġer": 4021,
      "ĠÎµÏĢÎ¹ÏĦÏģÎµÏĢÎ¿ÏħÎ½": 4022,
      "ĠÏĨÎ±ÏĥÎ·": 4023,
      "Î²Î±Î»Î±Î½": 4024,
      "ĠÎµÏħÎ½Î¿": 4025,
      "ĠÏĨÏħÏĥÎ·": 4026,
      "ĠÏħÏĢÎ¿ÎºÎµÎ¹ÏĦÎ±Î¹": 4027,
      "ĠÎ»Î±Î¼Î²Î±Î½Î¿Î¼ÎµÎ½ÏīÎ½": 4028,
      "ost": 4029,
      "ĠÏĥÏħÏĩ": 4030,
      "ĠÎºÎ±ÏĦÎ±Î»Î¿Î³Î¿ÏĤ": 4031,
      "Î´Î¿Î¹": 4032,
      "ĠÎµÏħÏģÏħ": 4033,
      "ĠÎ±ÏĢÎ±ÏĥÏĩÎ¿Î»Î·ÏĥÎ·": 4034,
      "Ġ020": 4035,
      "ĠÎ»Î¿Î³Î±ÏģÎ¹Î±ÏĥÎ¼Î¿": 4036,
      "Î²Î±ÏĥÎ¹": 4037,
      "ĠÎ±ÏĢÎ¿Ïĥ": 4038,
      "39": 4039,
      "ĠÎµÎ¾Î±ÎºÏģÎ¹Î²": 4040,
      "ĠÏĢÎ±Ïģ": 4041,
      "Î¾Î¹Î¿Î´Î¿": 4042,
      "ĠÎ±ÎºÏģÎ¹": 4043,
      "ĠÏĦÎ·ÏģÎ·": 4044,
      "ĠÎµÎ³ÎºÎ±ÏĦÎ±ÏĥÏĦÎ±ÏĥÎµÎ¹ÏĤ": 4045,
      "ĠÎ²ÏģÎ¹ÏĥÎºÎ¿Î½ÏĦÎ±Î¹": 4046,
      "ĠÎ´Î¹ÎµÎ¸Î½ÎµÎ¹ÏĤ": 4047,
      "ÎºÏĦÎ¿Ïħ": 4048,
      "Î¸ÎµÎ¹ÏĥÎ±ÏĤ": 4049,
      "ĠÎ¼ÎµÏĦÎ±ÏģÏģÏħ": 4050,
      "ĠÎ±ÎµÏģÎ¿Î¼ÎµÏĦÎ±": 4051,
      "ĠÎµÎ½Î¹ÏĥÏĩÏħÏĥÎ·ÏĤ": 4052,
      "ĠÎ³Î»Ïħ": 4053,
      "ĠÏĢÏīÎ»Î·ÏĥÎµÏīÎ½": 4054,
      "ĠÏĢÏģÎ¿ÏĥÎ±ÏģÎ¼Î¿Ïĥ": 4055,
      "ĠÏĥÏħÎ½ÏĦÎ±Î¾Î¹Î¿Î´Î¿": 4056,
      "ĠÎ²ÏģÎµ": 4057,
      "ĠÏĦÏī": 4058,
      "ĠÎ¸ÏħÎ³Î±": 4059,
      "ĠÎ±ÏĨÎ¿ÏģÎ¿Ïħ": 4060,
      "ĠÎ·Î½ÏīÎ¼ÎµÎ½Î¿Ïħ": 4061,
      "ĠÎ¹ÎºÎ±Î½Î¿ÏĦÎ·ÏĦÎ±": 4062,
      "ĠÎ·Î»ÎµÎºÏĦÏģ": 4063,
      "ĠÎ»ÎµÏĢÏĦÎ¿Î¼ÎµÏģÎµÎ¹ÎµÏĤ": 4064,
      "ĠÏĢÎ»Î·ÏģÏīÎ¼ÏīÎ½": 4065,
      "az": 4066,
      "Ĥ¬": 4067,
      "ĠÏħÏĢÎ¿Î²Î±Î»Î»ÎµÎ¹": 4068,
      "ĠÎµÎºÏĢÎ»Î·ÏģÏī": 4069,
      "ĠÏħÏĢÎ¿Î³ÏģÎ±Î¼": 4070,
      "ĠÎµÏĢÎ¹ÏĥÏĦÏģÎ¿ÏĨÎ·": 4071,
      "ĠÎµÎ½Î±Î»Î»Î±": 4072,
      "ĠÏĢÏģÎ¿ÏĥÎ´Î¹Î¿ÏģÎ¹ÏĥÎ¼Î¿": 4073,
      "Î³Î¹": 4074,
      "ĠÏĨÏħÏĥÎµÏīÏĤ": 4075,
      "Î²Î¿ÏħÎ½": 4076,
      "isch": 4077,
      "ĠÎ½Î¿Ïģ": 4078,
      "ÏĥÎ¼Î¿": 4079,
      "ug": 4080,
      "ĠÏĦÎ±Î¾Î¹Î½Î¿Î¼Î·": 4081,
      "ĠÎµÎ³Î¹Î½Îµ": 4082,
      "ĠÎµÏĨÎ¿Î´Î¹Î±": 4083,
      "ĠÏĦÎ¹Î¸Îµ": 4084,
      "ĠÎ»ÎµÏħ": 4085,
      "ĠÏĥÏħÎ½ÎµÎº": 4086,
      "ĠÎµÏģÎµÏħÎ½Î·": 4087,
      "ĠÏĥÏħÎ½Î¹ÏĥÏĦÎ±ÏĦÎ±Î¹": 4088,
      "ĠÎºÎ±ÏĦÎ±Î³Î³Îµ": 4089,
      "ĠÎ´Î¿Ïħ": 4090,
      "ĠÎ±ÏĢÎ¿ÏĨÎ±ÏĥÎ¹ÏĥÎµ": 4091,
      "ĠÎ±ÏĢÎ±Î¹ÏĦÎ·ÏĥÎµÏīÎ½": 4092,
      "ĠÏĥÏħÎ¼ÏĢÎµÏģÎ¹ÏĨÎ¿ÏģÎ±": 4093,
      "Ġeuipo": 4094,
      "ĠÎµÎºÎ¼ÎµÏĦÎ±Î»Î»ÎµÏħÏĥÎ·ÏĤ": 4095,
      "vo": 4096,
      "ĠÏĥÏħÎ½Î´ÏģÎ¿Î¼Î·": 4097,
      "aj": 4098,
      "ĠÎ±Î»Î¹ÎµÏħÏĦÎ¹ÎºÏīÎ½": 4099,
      "ĠÎ´ÏħÎ½Î±Î½ÏĦÎ±Î¹": 4100,
      "ĠÎ¹ÏĥÎ·ÏĤ": 4101,
      "art": 4102,
      "ĠÏĢÎµÏģÎ¹ÏĥÏĦÎ±ÏĦÎ¹ÎºÎ±": 4103,
      "ĠÎµÎ»Î»Î±Î´Î±": 4104,
      "ĠÎ¼ÎµÎ³Î±Î»ÏħÏĦÎµÏģÎ·": 4105,
      "ĠÎ±Î¹ÏĦÎ¹Î¿Î»Î¿Î³Î¹ÎºÎµÏĤ": 4106,
      "ĠÏĥÏħÎ³ÎºÎµÎ¹": 4107,
      "ĠÏĢÎµÏģÎ¹ÏĥÏĥÎ¿ÏĦÎµÏģÎµÏĤ": 4108,
      "ĠÏĨÏģÎ¿Î½": 4109,
      "ĠÏĢÏģÎ¿ÏĦÎµÎ¹Î½Î¿": 4110,
      "ument": 4111,
      "ĠÎ±Î½Î±Î»Î±Î¼Î²Î±": 4112,
      "Ġop": 4113,
      "ĠÎ±ÏĢÎ¿ÏģÏģÎµÎ¿ÏħÎ½": 4114,
      "ĠÎºÎµÏĨÎ±Î»Î±Î¹Î±": 4115,
      "ĠÎµÎºÎº": 4116,
      "ĠÎ±ÎºÏģÎ¿Î±ÏĦÎ·ÏģÎ¹Î¿Ïħ": 4117,
      "ĠÎµÏĢÎ¿ÏĢ": 4118,
      "ĠÎ½Î¿ÏģÎ²Î·": 4119,
      "ei": 4120,
      "ĠÎ¿Î³ÎºÎ¿": 4121,
      "ĠÏħÏĥÏĦÎµ": 4122,
      "ĠÎºÎ±ÏĦÎ±ÏĥÏĦÎ±ÏĥÎ·ÏĤ": 4123,
      "ĠÎ¿ÏĨÎµÎ¹Î»Î¿": 4124,
      "ĠÎµÏĢÎ¹Î¼Î±ÏĩÎ·": 4125,
      "26": 4126,
      "Î³ÏģÎ±ÏĨÏīÎ½": 4127,
      "Î²Î±ÏĥÎµÎ¹ÏĤ": 4128,
      "Ġsol": 4129,
      "form": 4130,
      "ĠÎ´Î¹Î±ÎºÏħ": 4131,
      "ÏģÎµÎ±ÏĤ": 4132,
      "Ġsec": 4133,
      "ĠÏĦÎ±Î¾Î·": 4134,
      "ati": 4135,
      "ÏĥÎµÎ¹Ïĥ": 4136,
      "ÏĦÎµÎ¸ÎµÎ¹ÏĥÎ±": 4137,
      "ĠÎµÏĢÎ¹Î»ÎµÎ³": 4138,
      "ĠÎ¿ÏģÎ³Î±Î½ÏīÏĥÎ·": 4139,
      "ĠÎ³ÎµÎ½Î¹ÎºÎ·ÏĤ": 4140,
      "ĠÅĵ": 4141,
      "Ġsl": 4142,
      "ÏĦÎ¿Î¹Î¼Î±": 4143,
      "Î¼Î¿Î½Ïī": 4144,
      "ations": 4145,
      "ÏģÎµÎ±Ïĥ": 4146,
      "Ġhe": 4147,
      "ĠÎµÏĢÎ¹Î²Î¿Î»Î·ÏĤ": 4148,
      "gy": 4149,
      "ĠÎµÏĢÎµÎ¾ÎµÏģÎ³Î±ÏĥÎ¹Î±ÏĤ": 4150,
      "ĠÎ±Î½ÏĦÎ¹ÏĥÏĦÎ±Î¸Î¼Î¹Ïĥ": 4151,
      "ĠÎ±Î´ÏħÎ½Î±": 4152,
      "ĠÎµÎ¼ÏĢÎ¹ÏĢÏĦÎµÎ¹": 4153,
      "Î¸Î±Î³ÎµÎ½": 4154,
      "ĠÏĩÎ±Î»ÏħÎ²Î±": 4155,
      "Ġcons": 4156,
      "ÎºÎ±Î½Î¿Î½": 4157,
      "ĠÎ±ÏĢÎ±Î¹ÏĦÎ·ÏĥÎ·": 4158,
      "ĠÏĢÎ±ÏģÎ±ÎºÎ¿Î»Î¿ÏħÎ¸Î·ÏĥÎ·ÏĤ": 4159,
      "ĠÎ¼Î·Î½Î±": 4160,
      "ĠÎ´Î¹Î±ÏĥÏĨÎ±Î»Î¹ÏĥÎ·": 4161,
      "ĠÏĦÎµÏĦÎ±Ïģ": 4162,
      "ĠÎ¸ÎµÏīÏģÎ¿ÏħÎ½ÏĦÎ±Î¹": 4163,
      "ĠÎµÏĦÎ±Î¹ÏģÎ¹ÎµÏĤ": 4164,
      "ĠÏĥÎºÎ±ÏĨÎ¿ÏħÏĤ": 4165,
      "Î»Î·ÏĥÎ·": 4166,
      "ĠÎ´Î¹ÎºÏĦÏħÎ¿Ïħ": 4167,
      "ĠÏĦÎµÏĦÎ±ÏģÏĦÎ¿": 4168,
      "ĠÎµÏĢÎµÎº": 4169,
      "ĠÏĢÏģÎ±Î³Î¼Î±ÏĦÎ¿ÏĢÎ¿Î¹Î¿ÏħÎ½ÏĦÎ±Î¹": 4170,
      "ĠÎ±Î¹ÏĦÎ·Î¼Î±ÏĦÎ¿ÏĤ": 4171,
      "Ġby": 4172,
      "ĠÎ±Î½ÏĦÎ±Î³ÏīÎ½Î¹ÏĥÎ¼Î¿": 4173,
      "ÏĢÏģÎ¿Ïĥ": 4174,
      "ÏĢÎ»Î¿": 4175,
      "ĠÏĥÏĢÎ¿Ïħ": 4176,
      "ĠÏĦÎµÏĩÎ½Î·": 4177,
      "ĠÏĢÎ¿Î¹ÎºÎ¹": 4178,
      "ĠÎµÎ´": 4179,
      "ĠÏħÏĢÎ¿Î²Î»Î·Î¸Î·ÎºÎµ": 4180,
      "ĠÎ´Î¹Î±ÏĦÏģÎ¿": 4181,
      "ÅĤ": 4182,
      "ĠÎºÏģÎµÎ±": 4183,
      "ĠÏĢÏģÎ±Î¾Î·ÏĤ": 4184,
      "ĠÎµÎ³ÎºÎ±ÏĦÎ±ÏĥÏĦÎ±ÏĥÎ·": 4185,
      "ĠÏĦÏģÎ¹ÏīÎ½": 4186,
      "ĠÎµÎ½Î´Î¹Î±Î¼Îµ": 4187,
      "Ġcol": 4188,
      "ĠÎ±Î½Î±ÏĨÎµÏģÎ¿": 4189,
      "ĠÎ±Î»Î¹ÎµÎ¹Î±": 4190,
      "ĠÎ±ÏĢÎ¿ÏĨÎ±Î½Î¸ÎµÎ¹": 4191,
      "ĠÎ±ÎºÎ¹Î½Î·": 4192,
      "ĠÎ½Î¿Î¼Î¹ÎºÎ·ÏĤ": 4193,
      "ĠÎ¿ÏħÏĥÎ¹Î±Î½": 4194,
      "Ġ269": 4195,
      "ĠÎ´Î¹Î±ÎºÎ¿": 4196,
      "ĠÏĢÎ¿ÏģÎ¿ÏħÏĤ": 4197,
      "Ġ\\": 4198,
      "sa": 4199,
      "ĠÎ²Î¿ÏħÎ»": 4200,
      "ĠÎ±ÏĢÎ¿ÏĥÏĦÎ±": 4201,
      "ĠÎ¿ÏĢÎ¿Î¹Î¿Î´Î·ÏĢÎ¿ÏĦÎµ": 4202,
      "ĠÎµÎ½Î´ÎµÎ¹Îº": 4203,
      "ĠÎµÏħÏģÎµ": 4204,
      "ĠÏĢÏģÎ¿Î²Î»ÎµÏĢÎ¿ÏħÎ½": 4205,
      "ĠÏĢÏģÎ±ÎºÏĦÎ¹ÎºÎµÏĤ": 4206,
      "ĠÎµÏĢÎ¹ÏĨÎ±": 4207,
      "ĠÏĦÏħÏĢ": 4208,
      "ĠÎ´Î·Î¼Î¿ÏĥÎ¹Î¿Î½Î¿Î¼Î¹ÎºÎ¿Ïħ": 4209,
      "Î²Î±Î»Î¿ÏħÎ½": 4210,
      "Ġ1982": 4211,
      "ĠÎµÏĢÎ·ÏģÎµÎ±Ïĥ": 4212,
      "ÏĥÏĦÎ·Î¼Î±": 4213,
      "ĠÎºÎ±Î¹Î½Î¿ÏĦÎ¿": 4214,
      "ĠÏĢÎ»Î·ÏģÎ¿Î¹": 4215,
      "iaa": 4216,
      "ĠÎ±ÎºÎ±": 4217,
      "icht": 4218,
      "ĠÏĢÎµÏģÎ¹Î¿ÏģÎ¹ÏĥÎ¼Î¿": 4219,
      "ÏĦÏģÎ¹Î±": 4220,
      "ĠÎ³ÎµÏīÏģÎ³Î¹ÎºÏīÎ½": 4221,
      "ĠÏĥÏħÎ¼Î²Î¿ÏħÎ»ÎµÏħ": 4222,
      "ĠÎµÎºÎºÎ±Î¸Î±": 4223,
      "ĠÎ½Î¿Î¼Î¿ÏĤ": 4224,
      "ias": 4225,
      "Î¼Î¿Î½ÎµÏħ": 4226,
      "ĠÏĢÎ±ÏģÎ¿ÏĩÏīÎ½": 4227,
      "ĠÏĨÎµÏģÎ¿ÏħÎ½": 4228,
      "ĠÎµÏĢÎ¹Î²ÎµÎ²Î±Î¹Ïī": 4229,
      "ĠÎ±ÏĢÎ¿ÏģÏģÎ¹ÏĢÏĦÎµÎ¹": 4230,
      "we": 4231,
      "ĠÎµÏĤ": 4232,
      "Ġ125": 4233,
      "ĠÎ¿ÏħÏĥÎ¹Î±ÏĤ": 4234,
      "ĠÎºÎ±ÏĦÎ±Î»Î»Î·Î»Î±": 4235,
      "45": 4236,
      "ĠÎµÎ¼ÏĢÎ¹ÏĥÏĦÎµÏħ": 4237,
      "ĠÏĢÎ±Î½Ïī": 4238,
      "ĠÎ±Î´ÎµÎ¹ÏīÎ½": 4239,
      "ĠÎ³ÎµÎ½Î¹ÎºÎµÏĤ": 4240,
      "ÏĦÎ¹ÏĥÎ¼Î¿Ïħ": 4241,
      "ĠÏĥÎ·Î¼ÎµÏģÎ±": 4242,
      "ĠÎ±Î¹ÏĦÎ¹Î¿Î»Î¿Î³Î¹Î±": 4243,
      "ĠÎ»Î¹Î±": 4244,
      "Ġexc": 4245,
      "ĠÎ±Î½Î¸ÏģÏīÏĢÎ¹Î½": 4246,
      "ĠÎµÏĢÎ¹Î´Î¿Î¼Î±": 4247,
      "ĠÏĢÏģÎ±Î³Î¼Î±ÏĦÎ¹ÎºÏīÎ½": 4248,
      "Ġdij": 4249,
      "ĠÏĥÏħÎ½ÎµÏģÎ³Î±": 4250,
      "ĠÏĥÎ·Î¼Î±Î½ÏĦÎ¹ÎºÎ±": 4251,
      "ĠÎºÏħÎºÎ»Î¿Ïħ": 4252,
      "tt": 4253,
      "ĠÎµÎºÎ±ÏĦÎ¿Î¼Î¼Ïħ": 4254,
      "ĠÎ±Î½Î±Î»Î¿Î³Î¹ÎºÎ¿ÏĦÎ·ÏĦÎ±ÏĤ": 4255,
      "ĠÎµÎºÏĦÎ¹Î¼Î±": 4256,
      "ĠÎ´Î¹Î±ÏģÎºÎµÎ¹Î±ÏĤ": 4257,
      "ĠÎµÎ½Î±ÏĢÎ¿ÎºÎµÎ¹ÏĦÎ±Î¹": 4258,
      "33": 4259,
      "ĠÎ±Î³Î¿ÏģÏīÎ½": 4260,
      "ĠÎ±Î½ÏĦÎ¹Î¼ÎµÏĦÏīÏĢÎ¹ÏĥÎ·": 4261,
      "ĠÏģÎµÏħ": 4262,
      "ĠÏĢÎ±ÏģÎ±Î³Ïī": 4263,
      "ĠÏħÏĢÎ¿ÏħÏģÎ³ÎµÎ¹Î¿": 4264,
      "Ġsoc": 4265,
      "Ġpm": 4266,
      "ĠÎ±Î½Î±Î¹ÏģÎµÏĥÎ¹Î²Î±Î»Î»Î¿Î¼ÎµÎ½Î·ÏĤ": 4267,
      "ĠÎ±Î½Î±Î´Î¹Î±": 4268,
      "ÏĥÎµÏĦÎ±Î¹": 4269,
      "ĠÎºÎ±ÏĦÎ·Î³Î¿ÏģÎ¹Î±ÏĤ": 4270,
      "ĠÎ¼Î¿Î½Î±Î´Î±": 4271,
      "ĠÎµÎºÎµÎ¹Î½Î±": 4272,
      "ĠÎ±ÏĥÎºÎ¿ÏħÎ½": 4273,
      "ÏĩÎ¿ÏģÎ·": 4274,
      "ĠÎµÎ¹ÏĥÎ±Î³Î³ÎµÎ»ÎµÎ±ÏĤ": 4275,
      "ĠÎµÏĢÎ¹ÏĩÎµÎ¹ÏģÎ·ÏĥÎ¹Î±": 4276,
      "ĠÎµÎ¾Î±Î³ÏīÎ³Î·": 4277,
      "ĠÎ±ÏĢÏī": 4278,
      "ĠÏĨÎ¿ÏģÎµÎ±ÏĤ": 4279,
      "ĠÎµÎ»Î±Ïĥ": 4280,
      "Ġtrib": 4281,
      "ĠÎ³ÏģÎ±Î¼Î¼Î·": 4282,
      "ĠÏĢÎ¹Îµ": 4283,
      "ĠÎ¶Î·ÏĦÎµÎ¹ÏĦÎ±Î¹": 4284,
      "ĠÎ´Î¹Î±Î²Î¿ÏħÎ»ÎµÏħÏĥÎµÎ¹ÏĤ": 4285,
      "ÑĢ": 4286,
      "ĠÏĢÏģÎ¿ÎºÎ·ÏģÏħ": 4287,
      "ĠÏĦÎµÎ»ÏīÎ½ÎµÎ¹Î±ÎºÎµÏĤ": 4288,
      "ĠÎµÏĢÎ¹Î²ÎµÎ²Î±Î¹ÏīÎ½": 4289,
      "ĠÎ±Î½Î±ÎºÎ±": 4290,
      "ĠÏĨÎ¹Î½": 4291,
      "ĠÎµÎ½Î´Î¹Î±ÏĨÎµÏģÎ¿Î¼ÎµÎ½Î±": 4292,
      "ĠÎºÎ±ÏĦÎ±ÏĩÏīÏģÎ¹ÏĥÎµÏīÏĤ": 4293,
      "Î¿ÏħÏĦÎ±Î¹": 4294,
      "ars": 4295,
      "ĠÎ±Î³Î±Î¸ÏīÎ½": 4296,
      "ĠÏĢÎµÏģÎ¹ÏĢÏĦÏīÏĥÎµÎ¹": 4297,
      "ĠÎ¼ÎµÏģÎµÎ¹": 4298,
      "ĠÏĥÏħÎ½ÎµÏĩ": 4299,
      "ĠÎºÎ¹Î½Î´ÏħÎ½Î¿ÏĤ": 4300,
      "ĠÏĢÎ»Î¿Î¹Î±": 4301,
      "ĠÎµÎ³ÎºÎµÎºÏģÎ¹": 4302,
      "ĠÏĢÎ¿ÏĥÎ¿ÏĥÏĦÏīÏĥÎµÏīÎ½": 4303,
      "ĠÏĢÏģ": 4304,
      "ĠÏģÎ¿ÏħÎ¼Î±Î½": 4305,
      "ĠÎ´Î¹ÎºÎ±ÏĥÏĦÎµÏĤ": 4306,
      "ĠÏĢÎ±ÏģÎ¿ÏĩÎµÏĤ": 4307,
      "ĠÎ±Î½Î±ÎºÎ¿": 4308,
      "ĠÎµÎ½Î´Î¹Î±ÏĨÎµÏģÎ¿Î½": 4309,
      "ance": 4310,
      "ĠÎ¼Î¿Î½Î±Î´ÎµÏĤ": 4311,
      "ĠÎ¿ÏĢÎ¿ÏĦÎµ": 4312,
      "ĠÏĥÏĦÎ·ÏģÎ¹Î¾Î·ÏĤ": 4313,
      "ĠÎ±Î½ÎµÏħ": 4314,
      "Ġund": 4315,
      "ĠÎµÎ¾ÎµÎ»Î¹Î¾Î·": 4316,
      "ĠÎ²Î¹Î²": 4317,
      "Î¹ÎºÎ¿ÏĦÎ·ÏĦÎ±": 4318,
      "ÎµÎ¹Î´ÏīÎ½": 4319,
      "qx": 4320,
      "ĠÎ±Î½ÎµÎ¾Î±Ïģ": 4321,
      "ĠÎºÎ¿Î¹Î½ÏīÎ½Î¹ÎºÎ·": 4322,
      "ÏĢÎ¹ÎºÎ¿Î¹": 4323,
      "ĠÏħÏĢÎµÏĩÎµÎ¹": 4324,
      "Ê»": 4325,
      "ĠÏģÎ·ÏĦÏģÎ±": 4326,
      "ĠÏħÎ³ÎµÎ¹Î¿Î½Î¿Î¼": 4327,
      "ĠÎ±ÏħÏĥÏĦÏģÎ¹Î±": 4328,
      "ĠÏĥÎ±ÏĨÏīÏĤ": 4329,
      "ĠeÎº": 4330,
      "ÏĢÏħ": 4331,
      "Ġ101": 4332,
      "77": 4333,
      "ĠÏĢÎ±ÏĥÎ·": 4334,
      "Î¹ÎºÎ±Î½": 4335,
      "ĠÎµÏĢÎ¹Î»Ïħ": 4336,
      "ĠÏĢÎ±Î³Î¹Î±": 4337,
      "ÏģÏīÎ½ÎµÏĦÎ±Î¹": 4338,
      "ĠÏĥÏħÎ½ÎµÏĩÎ¹Ïĥ": 4339,
      "ÏĦÎ·ÏĥÎµ": 4340,
      "ĠÏĢÏģÎ¿ÎµÏģÏĩÎ¿Î½ÏĦÎ±Î¹": 4341,
      "ĠÎ¹Î¸Î±Î³ÎµÎ½": 4342,
      "ĠÎ±Î½Î±Î¶Î·": 4343,
      "ĠÎ´Î¹ÎºÎ±Î¹": 4344,
      "ĠÏĨÎ¹Î½Î»Î±Î½": 4345,
      "Ġcr": 4346,
      "Î´ÎµÏĦÎ±Î¹": 4347,
      "ĠÏĢÏģÎ¿ÏĥÎ¸Î·ÎºÎ·": 4348,
      "ĠÏĥÏħÎ½ÏĦÎµÎ»ÎµÏĥÏĦÎ·": 4349,
      "ĠÎ´ÎµÎºÏĦÎ¿": 4350,
      "Î²ÎµÎ½": 4351,
      "ĠÎ¹ÏĥÏĢÎ±Î½Î¹Î±ÏĤ": 4352,
      "ĠÏĥÏħÎ½Î¿Î»Î¿Ïħ": 4353,
      "ĠÎµÎºÎ´Î¿ÏĥÎ·ÏĤ": 4354,
      "Ġsc": 4355,
      "ĠÏĢÎ±ÏģÎ±Ïĥ": 4356,
      "ĠÏĢÎµÏĦÏģÎµ": 4357,
      "ÏĥÎ¹Î¼Î·": 4358,
      "ĠÎµÎ¾Î¹": 4359,
      "ĠÎµÎ¼ÏĢÎ¿ÏģÎ¹ÎºÎµÏĤ": 4360,
      "Ġest": 4361,
      "ek": 4362,
      "ĠÎ¿Ïĥ": 4363,
      "ÏĦÏģÎ¿ÏĢÎ·": 4364,
      "ĠÎµÎºÎ´Î¿ÏĥÎµÏīÏĤ": 4365,
      "ĠÎµÎ»ÎµÎ³ÏĩÎ¿ÏħÏĤ": 4366,
      "Ġ103": 4367,
      "ĠÎ¿ÏģÎ¿ÏĤ": 4368,
      "Î·Î»": 4369,
      "ux": 4370,
      "ĠÏĢÏģÎ¿ÏĢÎ±ÏģÎ±ÏĦÎµÎ¸ÎµÎ¹ÏĥÎ±": 4371,
      "ĠÎ±Î¼Î¿Î¹Î²Î±Î¹Î±": 4372,
      "ĠÎµÏĢÎ¹ÏĢÎµÎ´Î¿Ïħ": 4373,
      "ĠÎ±ÏģÎºÎµÎ¹": 4374,
      "ĠÎ´Î¹Î¿Î¹ÎºÎ·ÏĦÎ¹ÎºÏīÎ½": 4375,
      "ĠÎ±ÏĢÎ±Î»Î»Î±Î³Î·": 4376,
      "ĠÎ¼Î¹": 4377,
      "berg": 4378,
      "ĠÎµÏĢÎ¹ÏĩÎ¿ÏģÎ·": 4379,
      "ĠÎµÎ³Î³ÏģÎ±ÏĨÎ¿Ïħ": 4380,
      "ĠÎ´ÎµÏĥÎ¼ÎµÏħÏĥÎ·": 4381,
      "ĠÎµÎ¸Î½Î¹ÎºÎ±": 4382,
      "ĠÎ¹Î´ÏģÏħÎ¼Î±ÏĦÎ±": 4383,
      "ĠÎ³ÎµÏīÏģÎ³Î¹Î±": 4384,
      "ÏĢÎ¹Î±": 4385,
      "ĠÎºÎ±ÏĦÎ±Î»Î»Î·Î»Î¿": 4386,
      "ĠÏĢÏģÎ¿ÏĥÏīÏĢÎ¿Ïħ": 4387,
      "ĠÏĢÏģÎ¿Î·Î³Î¿ÏħÎ¼ÎµÎ½Î·": 4388,
      "ublic": 4389,
      "rig": 4390,
      "ĠÎ¹Ïĩ": 4391,
      "ĠÎ²Î»Îµ": 4392,
      "ĠÎ¼ÎµÎ³Î±Î»Î¿": 4393,
      "ĠÏĢÎ¹ÏĥÏĦÎ¿ÏĢÎ¿Î¹Î·ÏĦÎ¹ÎºÎ¿Ïħ": 4394,
      "ĠÏĢÎµÏģÎ¹ÎµÏĩÎ¿Î¼ÎµÎ½Î¿Ïħ": 4395,
      "ĠÎ²Î¿Î·Î¸Î·": 4396,
      "Ġintern": 4397,
      "ĠÎ±ÏĢÎµÏħÎ¸ÎµÎ¹Î±ÏĤ": 4398,
      "ĠÏĦÎµÎ¼Î±": 4399,
      "ĠÎµÎ½Î±ÏģÎ¾Î·ÏĤ": 4400,
      "ren": 4401,
      "ĠÎµÏĢÎ¹ÏĥÏĦÎ¿Î»Î·": 4402,
      "ĠÎµÎºÎ¼ÎµÏĦÎ±Î»Î»ÎµÏħÏĥÎ·": 4403,
      "ĠÎ±ÏĢÎ¿ÏĨÎµÏħ": 4404,
      "Ġ520": 4405,
      "ĠÏĥÎ¹Î´Î·ÏģÎ¿Î´ÏģÎ¿Î¼": 4406,
      "ten": 4407,
      "ÎºÏĦÎ·ÏĤ": 4408,
      "Î´Î¹ÎºÎµÏĤ": 4409,
      "ĠÎµÎ³ÏĩÏī": 4410,
      "ĠÏĢÏģÎ¿ÎºÏħÏĢÏĦÎ¿ÏħÎ½": 4411,
      "ĠÎ¶ÏīÎ¿": 4412,
      "ĠÎµÎ¼ÏĢÎ¿ÏģÎ¹ÎºÏīÎ½": 4413,
      "ĠÎµÎ¸": 4414,
      "ĠÏģÎ±Î´Î¹Î¿": 4415,
      "ĠÏĢÎ¿ÏĥÎ¿Î½": 4416,
      "ĠÏĨÎ¿ÏģÎ¿Î»Î¿Î³Î·": 4417,
      "ÎºÎ±Ïĥ": 4418,
      "Ġgen": 4419,
      "ĠÏĢÎ»Î·ÏģÎ¿ÏĨÎ¿ÏģÎ¹Î±": 4420,
      "ĠÎµÎ¾Î¿ÏħÏĥÎ¹Î¿Î´Î¿ÏĦÎ·ÏĥÎ·": 4421,
      "ĠÎ¶Î±ÏĩÎ±ÏģÎ·ÏĤ": 4422,
      "ĠÏĢÏģÎ¿Î²ÎµÎ¹": 4423,
      "ĠÏĩÏģÎ·Î¼Î±ÏĦÎ¿Î´Î¿ÏĦÎ·ÏĥÎ·ÏĤ": 4424,
      "ĠÏħÎ¹Î¿": 4425,
      "ĠÎºÎ±ÏĦÎ±ÏĢÎ¿Î»ÎµÎ¼Î·ÏĥÎ·": 4426,
      "ĠÎ¼Î±Ïħ": 4427,
      "Î¼Î¼Î±ÏĦÎ±": 4428,
      "ĠÎ´Î¹Î¿Î¹ÎºÎ·ÏĥÎµÏīÏĤ": 4429,
      "ĠÎ±ÏĥÏĨÎ±Î»Î¹ÏĥÎµÏīÏĤ": 4430,
      "ĠÎµÎ½Î¿ÏĪÎµÎ¹": 4431,
      "ĠÎ±Î½ÏīÏĦÎ±ÏĦÎ¿": 4432,
      "ĠÎµÏħÏģÎ±": 4433,
      "ĠÎµÏĦÎ·ÏĥÎ¹Î±": 4434,
      "ĠÎ¹ÏģÎ»Î±Î½Î´Î¹Î±": 4435,
      "ĠÎ±ÎºÎ¿Ïħ": 4436,
      "ission": 4437,
      "ĠÏĢÎ¹ÏĥÏĦÏīÏĥÎµÎ¹ÏĤ": 4438,
      "ĠÎµÎ¾Î¿ÏĢÎ»Î¹ÏĥÎ¼Î¿Ïħ": 4439,
      "ĠÎµÎ¹Î´Î¹ÎºÎ·ÏĤ": 4440,
      "ĠÏĥÎ·Î¼Î±ÏĦÏīÎ½": 4441,
      "34": 4442,
      "ÏīÎ½Ïħ": 4443,
      "ÏģÎ¹ÎºÎ±": 4444,
      "ÑĤ": 4445,
      "ĠÏīÏģÎ±": 4446,
      "Ġ246": 4447,
      "ĠÏħÏĢÎ±Î»Î»Î·Î»Î¿Î¹": 4448,
      "ĠÎºÎ±ÏĦÎ±Î»Î·": 4449,
      "Ġ1984": 4450,
      "ĠÏĢÎµÎ¹ÏģÎ±": 4451,
      "ĠÏĦÏĥÎµÏĩ": 4452,
      "Î´Î·ÏĤ": 4453,
      "ĠÏĨÏģÎ¿Ïħ": 4454,
      "ĠÎµÎ¹ÎºÎ¿": 4455,
      "ĠÎ´Î¹Î¼Îµ": 4456,
      "ĠÎµÎºÎºÏģÎµ": 4457,
      "ĠÎ±Î³Î³Î»Î¹ÎºÎ·": 4458,
      "ĠÎµÎ¼ÏĨÎ±Î½": 4459,
      "Ġdoc": 4460,
      "Ġ040": 4461,
      "ÏĢÎ±Ïģ": 4462,
      "ĠÏħÏĢÎ¿Î²Î±Î»Î»ÎµÏĦÎ±Î¹": 4463,
      "ea": 4464,
      "Î¼Î¿ÏħÎ½ÏĦÎ±Î¹": 4465,
      "ĠÏĢÎµÏģÎ¹Î¿ÏģÎ¹Î¶ÎµÏĦÎ±Î¹": 4466,
      "Ġ112": 4467,
      "ĠÏĥÎµÎ½": 4468,
      "Î»Î±Î²ÎµÎ¹": 4469,
      "ÏĢÎ¹ÎºÎ¿Î¹Î½ÏīÎ½": 4470,
      "ĠÎ¿Î³": 4471,
      "ĠÎµÏĢÎ¹Î´Î¿ÏĥÎµÏīÎ½": 4472,
      "ĠÏĨÎ¿ÏģÎ¿Î»Î¿Î³Î¹ÎºÎ·": 4473,
      "ĠÎºÎ±ÏĦÎ±ÏĩÏīÏģÎ¹Ïĥ": 4474,
      "ĠÎ½Î¿ÎµÎ¹ÏĦÎ±Î¹": 4475,
      "ĠÎ¿ÏģÎ¹ÏīÎ½": 4476,
      "ĠÎ´Î¹Î±Î¹ÏĦÎ·": 4477,
      "ĠÏĢÏģÏīÏĦÎ·ÏĤ": 4478,
      "ÏĢÎ·ÏģÎµ": 4479,
      "Î³ÏģÎ±ÏĨÎµÎ¹": 4480,
      "ĠÎ´ÎµÎ¿Î½": 4481,
      "ĠÏĢÏģÎ¿ÏĥÎ±ÏģÎ¼Î¿Î³Î·": 4482,
      "Ġman": 4483,
      "ĠÎºÎ±ÏĦÎ±Î³Î³ÎµÎ»": 4484,
      "ĠÏĢÎ»Î±Ïĥ": 4485,
      "ĠÎ±Î½Î±Î»Î¿Î³Î¹Î±": 4486,
      "Ġtran": 4487,
      "46": 4488,
      "ĠÎµÎ½Î´Î¹Î±ÏĨÎµÏģÎ¿Î¼ÎµÎ½Î¿": 4489,
      "ĠÎ´Î·Î¼Î¿ÏĥÎ¹ÎµÏĤ": 4490,
      "ĠÏĥÏĩÎµÎ´Î¹ÏīÎ½": 4491,
      "ied": 4492,
      "ĠÏĥÏĦÎ±Î´Î¹Î±": 4493,
      "ĠÎµÎ½Î·Î¼ÎµÏģÏīÎ½ÎµÎ¹": 4494,
      "ĠÏĨÏħÏĥÎ¹ÎºÎ¿": 4495,
      "ĠÎ´Î¹Î¿Î¹ÎºÎ·ÏĥÎ·ÏĤ": 4496,
      "ĠÎµÎ¼ÏĨÎ±": 4497,
      "ĠÏħÏĢÎ¿Î²Î±Î»Î»Î¿Î½ÏĦÎ±Î¹": 4498,
      "ÏĩÎ¸Î·": 4499,
      "ĠÏīÏĨÎµ": 4500,
      "ĠÏĦÏģÎ¹ÏĦÎ¿Ïħ": 4501,
      "Ġcor": 4502,
      "Ġval": 4503,
      "ĠÎ±ÏĢÎ¿ÏĦÎµÎ»ÎµÏĥÎ¼Î±ÏĦÎ¹ÎºÎ·": 4504,
      "Ġtribun": 4505,
      "ĠÏĢÎ±ÏģÎ±ÏĥÎºÎµÏħÎ±ÏĥÎ¼Î±ÏĦÎ±": 4506,
      "ĠÎºÎ±ÏĦÎ±ÏĥÏĦÎ±ÏĥÎµÏīÏĤ": 4507,
      "Ġtpo": 4508,
      "arg": 4509,
      "ĠÏĢÎµÏģÎ±": 4510,
      "ĠÏĥÏħÎ½ÏĦÎ·ÏģÎ·": 4511,
      "ĠÎ±Î½Î±Î¹ÏģÎµÏĥÎµÎ¹Î¿ÏħÏĥÎ±": 4512,
      "ĠÎ±Î¸": 4513,
      "ĠÏĢÎ¹ÏĥÏĦÏīÏĥÎµÏīÎ½": 4514,
      "ĠÎ±ÏģÏĩÎ¹ÎºÎ·": 4515,
      "ven": 4516,
      "ĠÎ±ÏĦÎ¿Î¼Î±": 4517,
      "ĠÎºÎ±Î½Î¿Î½Î¹ÏĥÏĦÎ¹ÎºÎ·": 4518,
      "28": 4519,
      "ÏĦÎ·Î¸ÎµÎ¹": 4520,
      "ĠÎµÏĢÎ¹ÏĥÏĦÏģÎ¿ÏĨÎ·ÏĤ": 4521,
      "ĠÎ±ÏĢÎ¿ÏĦÎµÎ»Î¿Ïħ": 4522,
      "ĠÎµÏĢÎ±Î³Î³ÎµÎ»Î¼Î±ÏĦÎ¹ÎºÎ·": 4523,
      "ĠÎ´Î¿ÎºÎ¹Î¼Î·": 4524,
      "ĠÎºÏģÎ¹ÏĦÎ·ÏģÎ¹Î¿": 4525,
      "iet": 4526,
      "ĠÎ²Î¿Î·Î¸ÎµÎ¹Î±": 4527,
      "Ġsk": 4528,
      "ĠÎ·Î½ÏīÎ¼ÎµÎ½ÏīÎ½": 4529,
      "ĠÎ±ÎºÎ¿Î¼Î±": 4530,
      "ĠÎµÏħÏģÎ±ÏĦÎ¿Î¼": 4531,
      "ĠÎµÏħÏģÏīÏĢÎ·": 4532,
      "Î¼Î±ÏĦÎ¹ÎºÏīÎ½": 4533,
      "ĠÏģÎµ": 4534,
      "ĠÎ¿ÏĨÎµÎ¹Î»Îµ": 4535,
      "ĠÏĢÏģÎ¿ÏĥÏĨÎµÏħÎ³Î¿Î½ÏĦÎ¿ÏĤ": 4536,
      "ĠÎ±ÏĢÎ¿ÏĦÎµÎ»Îµ": 4537,
      "ĠÏĩÎ¿Î½": 4538,
      "Î³Î³Ïħ": 4539,
      "ÏħÏģÏī": 4540,
      "ĠÏĥÏħÎ³ÎºÏģÎ¹ÏĥÎ·": 4541,
      "ÎºÎ±ÏĤ": 4542,
      "ĠÎ±Î»Î»Î¿Î¹": 4543,
      "ĠÎºÎ±ÏĦÎ±Î½Î±Î»ÏīÏĥÎ·": 4544,
      "ĠÂ§": 4545,
      "ĠÎ¹Î¹Î¹": 4546,
      "ÏĢÎ±Î½Ïī": 4547,
      "ĠÏĢÎ±ÏģÎ±ÏĢÎµÎ¼": 4548,
      "ĠÏĢÎ±ÏģÎ±ÏĩÏīÏģÎ·": 4549,
      "ĠÏĩÎ¿ÏģÎ·Î³ÎµÎ¹ÏĦÎ±Î¹": 4550,
      "ĠÎµÏĨÎµÎ¾Î·ÏĤ": 4551,
      "ÎºÏī": 4552,
      "ĠÎºÎ±Î½Î¿Î½Î¹ÏĥÎ¼ÏīÎ½": 4553,
      "ĠÏĥÎ·Î¼Î±ÏĥÎ¹Î±ÏĤ": 4554,
      "ĠÎ±Î´ÎµÎ¹ÎµÏĤ": 4555,
      "Ġ1981": 4556,
      "ile": 4557,
      "ĠÏĩÎ±ÏģÏĦÎ·": 4558,
      "ĠÏĢÎ»Î·ÏģÎ¿ÏħÎ½ÏĦÎ±Î¹": 4559,
      "Ġ148": 4560,
      "ĠÎ²ÎµÎ»Î³Î¹Î¿": 4561,
      "ÏĦÏģÎ¹": 4562,
      "ĠÎ±ÏĢÎ±ÏģÎ¹Î¸Î¼Î¿ÏħÎ½ÏĦÎ±Î¹": 4563,
      "ĠÏĢÎ½ÎµÏħ": 4564,
      "Ġ108": 4565,
      "ĠÎ¹Î´ÏģÏħÎ¼Î±": 4566,
      "ĠÎ´Î¹Î±ÏĢÎ¹ÏĥÏĦÏīÎ½ÎµÏĦÎ±Î¹": 4567,
      "ĠÎºÏīÎ´Î¹ÎºÎ¿ÏĤ": 4568,
      "ĠÎºÎ±Î»ÏħÏĪÎ·": 4569,
      "ĠÏĥÏĨÎ±": 4570,
      "Ġartic": 4571,
      "ĠÎµÎ¼ÏĢÎ¹ÏĥÏĦÎ¿": 4572,
      "Î²Î¹Î²Î±Ïĥ": 4573,
      "ĠÏĢÎ»ÎµÎ¹Î¿": 4574,
      "ph": 4575,
      "of": 4576,
      "Î³ÏģÎ±Î¼Î¼Î±": 4577,
      "ĠÎºÎ¿Î¹Î½Î¿ÏĦÎ¹ÎºÎ±": 4578,
      "ĠÏĥÏħÎ¼Î²Î±Î»Î»Î¿Î¼ÎµÎ½ÏīÎ½": 4579,
      "ĠÏĢÏħÏģÎ·": 4580,
      "ĠÎ±ÎºÎ¿Î»Î¿ÏħÎ¸ÎµÎ¹": 4581,
      "ĠÎ¿Î¹ÎºÎ¿Î³ÎµÎ½ÎµÎ¹Î±": 4582,
      "sk": 4583,
      "ÏīÏģÎ·ÏĥÎ·": 4584,
      "ĠÎµÎ½Î´ÎµÎ¹Î¾ÎµÎ¹ÏĤ": 4585,
      "ÏĥÎºÎ±": 4586,
      "sti": 4587,
      "ĠÏĢÎ±ÏģÎ±Î¼ÎµÎ½": 4588,
      "ĠÏĦÎµÏĥÏĥÎµ": 4589,
      "Ġbar": 4590,
      "ĠÎ¶ÏīÎ·ÏĤ": 4591,
      "ĠÎ¼ÎµÏĦÏģÎ·": 4592,
      "ĠÏħÏĢÎ¿ÏĥÏĦÎ·ÏģÎ¹Î¾Î·": 4593,
      "ÎºÏĦÎ·ÏģÎ¹": 4594,
      "ĠÏĦÎ¿ÏĦÎµ": 4595,
      "ĠÏĦÎµÎ»Î·": 4596,
      "ĠÏĢÎ¿ÏĥÏīÎ½": 4597,
      "ĠÎºÎ·ÏģÏħ": 4598,
      "Ġland": 4599,
      "ĠÎµÏħÎºÎ±Î¹": 4600,
      "ĠÏĢÎ»Î·ÏģÏīÎ¼Î·ÏĤ": 4601,
      "ĠÎµÎ¼ÏĢÎ¿ÏģÎ¹ÎºÎ·": 4602,
      "ĠÎ¼Î·ÏĩÎ±Î½Î¹Ïĥ": 4603,
      "ĠÏĥÏħÎ¶Î·ÏĦÎ·ÏĥÎ·": 4604,
      "Ġass": 4605,
      "ĠÎ´ÏħÎ½Î±ÏĦÎ¿ÏĦÎ·ÏĦÎµÏĤ": 4606,
      "ĠÎºÎ¹Î½Î´ÏħÎ½ÏīÎ½": 4607,
      "ĠÏĩÎ¿ÏģÎ·Î³Î·Î¸ÎµÎ¹": 4608,
      "ĠÏĢÏģÎ¿Î´Î¹Î±Î³ÏģÎ±ÏĨÎµÏĤ": 4609,
      "ĠÎ¼Î½Î·Î¼Î¿Î½ÎµÏħ": 4610,
      "ĠÎµÏģÎ³Î±Î¶Î¿Î¼ÎµÎ½Î¿ÏħÏĤ": 4611,
      "ĠÏĦÎ·Î»ÎµÏĢÎ¹ÎºÎ¿Î¹Î½ÏīÎ½": 4612,
      "ĠÎ±ÏĢÎ»Î¿Ïħ": 4613,
      "ĠÎ±Î½Î±ÏĢÎ±ÏģÎ±": 4614,
      "ĠÎ±Î½Î±Î¸ÎµÏīÏģÎ·": 4615,
      "ĠÏĢÏģÎ±Î³Î¼Î±ÏĦÎ¿ÏĢÎ¿Î¹Î·Î¸ÎµÎ¹": 4616,
      "Ġed": 4617,
      "ĠÎ¹Î´Î¹Î¿ÏĦÎ·ÏĦÎ±": 4618,
      "ĠÎ¼ÎµÎ¼Î¿Î½Ïī": 4619,
      "ĠÏĥÏĩÎµÏĥÎµÎ¹ÏĤ": 4620,
      "ĠÎµÎºÏĦÎ¿": 4621,
      "ĠÎ¿Î¹ÎºÎµÎ¹Î¿": 4622,
      "ĠÏĢÎ±Î½Îµ": 4623,
      "ÏĦÎ·ÏģÎ¹ÎµÏĤ": 4624,
      "Î¼ÎµÎ¹Î±": 4625,
      "ĠÎ¹ÎºÎ±Î½Î¿ÏĢÎ¿Î¹Î·": 4626,
      "ÏģÏĩÎµÏĦÎ±Î¹": 4627,
      "int": 4628,
      "ĠÏĩÏģÎµÎ¹Î±Î¶ÎµÏĦÎ±Î¹": 4629,
      "ind": 4630,
      "ĠÎ´Î¹Î±Î»Ïħ": 4631,
      "ĠÎµÎºÏĢÎ±Î¹Î´ÎµÏħÏĥÎ·": 4632,
      "ĠÎ¼ÎµÏĦÎ±ÏĨÎ¿Ïģ": 4633,
      "ĠÎ±ÏĢÎ¿Î´ÎµÎ¹Î¾ÎµÎ¹": 4634,
      "ĠÏĥÏĦÏģÎµ": 4635,
      "ĠÎµÎ¾Î±ÏģÏĦÎ±ÏĦÎ±Î¹": 4636,
      "ĠÏĦÎ¿ÏħÏģÎº": 4637,
      "ĠÏħÎ¹Î¿Î¸Îµ": 4638,
      "ĠÏĢÏģÎ¿ÏĦÎ±ÏĥÎµÏīÎ½": 4639,
      "Î³ÎµÎ³ÏģÎ±Î¼": 4640,
      "ÏĨÎµÏģÎ¿ÏħÎ½": 4641,
      "ĠÎºÏīÎ´Î¹ÎºÎ¿": 4642,
      "ĠÎ±Î³Î¿ÏģÎ±Ïĥ": 4643,
      "ĠÏĢÎ±ÏģÎ±ÏĢÎ±Î½Ïī": 4644,
      "ĠÎµÏĢÎ±ÏģÎºÏīÏĤ": 4645,
      "ĠÏĢÎµÏģÎ¹ÏĥÏĦÎ±ÏĦÎ¹ÎºÏīÎ½": 4646,
      "Î¹Î¿ÏħÏĤ": 4647,
      "Î¼ÏĢÏĦÎ¿": 4648,
      "ĠÎ´Î¹Î¿Î¹ÎºÎ·ÏĥÎ·": 4649,
      "ÏģÎ³Î¿Ïħ": 4650,
      "ĠÏĥÏħÎ³ÎºÎµÎ¹Î¼ÎµÎ½Î¿": 4651,
      "ĠÏĢÏģÎ¿ÏĥÏĨÎ¿ÏģÎ±": 4652,
      "Î»ÏīÏĥÎ·": 4653,
      "ĠÎ±ÏĢÎ¿Î¶Î·Î¼Î¹ÏīÏĥÎ·": 4654,
      "ĠÎ±ÎµÏģÎ¹Î¿Ïħ": 4655,
      "ĠÎ²Î±Î¼Î²Î±": 4656,
      "Ġpot": 4657,
      "ĠÎµÏĥÎ¿Î´ÏīÎ½": 4658,
      "ĠÎ½Î¿Î¼Î¹ÎºÏīÎ½": 4659,
      "ĠÏĢÏģÎ¿ÏĨÎ¿Ïģ": 4660,
      "ĠÏĥÏħÎ¼ÏĢÎ»Î·": 4661,
      "ĠÎµÎ¼ÏĢÎ¿ÏģÎ¹ÎºÎ±": 4662,
      "ĠÏĥÏĩÎµÏĦÎ¹ÎºÎ·ÏĤ": 4663,
      "ĠÏĥÏħÎ½Î´ÏģÎ¿Î¼Î·ÏĤ": 4664,
      "ĠÎµÏĨÎ±ÏģÎ¼Î¿Î³Î·Î½": 4665,
      "ÏģÏĩ": 4666,
      "ĠÎºÎ±ÏĦÎ±Î½Î±Î»ÏīÏĥÎ·ÏĤ": 4667,
      "ĠÎµÏħÎ±": 4668,
      "ĠÎ¼Î±Î¸Î·": 4669,
      "ĠÎµÏĢÎ±Î³Î³ÎµÎ»Î¼Î±ÏĦÎ¹ÎºÎ·ÏĤ": 4670,
      "ĠÎµÏĢÎ¹ÏĢÎµÎ´Î±": 4671,
      "ĠÎ´Î¹Î±ÏģÎ¸ÏģÏī": 4672,
      "ĠÎ±ÏĢÎ¿Î¶Î·Î¼Î¹ÏīÏĥÎµÏīÏĤ": 4673,
      "ĠÏĢÏģÎ¿Î²Î±Î»Î»Î¿": 4674,
      "ĠÏĢÏīÎ»Î·ÏĥÎµÎ¹ÏĤ": 4675,
      "ĠÏĥÏīÎ¼Î±": 4676,
      "ĠÎºÎ±Î½Î±": 4677,
      "ĠÏĢÏģÎ±Î³Î¼Î±ÏĦÎ¹ÎºÎ·": 4678,
      "ĠÎ´Î¹Î±ÏĨÎ·": 4679,
      "ĠÎµÎºÎ´Î¿Î¸Î·ÎºÎµ": 4680,
      "ĠÎ´Î¹Î±ÏĨÎ¿ÏģÎµÏĦÎ¹ÎºÎ±": 4681,
      "ĠÏĢÏīÏĤ": 4682,
      "ĠÏĥÏħÎ¼ÏĢÎµÏģÎ±ÏĥÎ¼Î±ÏĦÎ±": 4683,
      "ĠÏĥÏħÎ¼ÏĨÎµÏģÎ¿Î½ÏĦÎ±": 4684,
      "0000": 4685,
      "Ġot": 4686,
      "ĠÎ³Î¿Î½": 4687,
      "ĠÏĢÎ±ÏģÎ±ÏģÏĦÎ·Î¼Î±ÏĦÎ±": 4688,
      "ps": 4689,
      "ĠÎ´Î¹Î¿Î¹ÎºÎ·ÏĦÎ¹ÎºÎ¿Ïħ": 4690,
      "tif": 4691,
      "ĠÏħÏĢÎ¿Î»Î¿Î³Î¹ÏĥÎ¼Î¿Ïħ": 4692,
      "ĠÎ±Î½ÏĦÎ¹ÏĥÏĦÎ¿Î¹ÏĩÎ±": 4693,
      "ĠÎµÎ½Î±Î»Î»Î±Îº": 4694,
      "ĠÎ´Î¹Î±ÏĨÎ¿ÏģÎµÏĦÎ¹ÎºÎ·": 4695,
      "ÏĦÎµÎ¹Î±ÏĤ": 4696,
      "ĠÎ±Î¼ÏĨÎ¹": 4697,
      "ez": 4698,
      "ĠÎµÏģÏīÏĦÎ·Î¼Î±ÏĦÎ¿ÏĤ": 4699,
      "ĠÏĥÏħÎ¼Î¼ÎµÏĦÎµÏĩÎ¿ÏħÎ½": 4700,
      "ĠÎ½ÏħÎ½": 4701,
      "ĠÏĦÎ·Î»ÎµÎ¿": 4702,
      "ĠÏĥÏħÎ½Î¹ÏĥÏĦÎ¿ÏħÎ½": 4703,
      "Î¹Î¿Î¹": 4704,
      "ĠÎ±Î½ÏĦÎ±Î»Î»Î±Î³Î·ÏĤ": 4705,
      "ĠÏĦÎ±Î¹": 4706,
      "49": 4707,
      "ĠÏĦÎ¿Î¼ÎµÎ±ÏĤ": 4708,
      "ĠÏĢÎ¿Î»Î»Î±ÏĢ": 4709,
      "ĠÎ¼ÎµÏģÎ¹Î¼": 4710,
      "qia": 4711,
      "ĠÎ´Î¿ÎºÎ¹Î¼Î·ÏĤ": 4712,
      "Ġacc": 4713,
      "anz": 4714,
      "ĠÎ±Î»Î»Î±Î³Î·": 4715,
      "ĠÎµÏĢÎ¹ÏĥÏħ": 4716,
      "ĠÏĨÏħÏĥÎ¹ÎºÎ±": 4717,
      "ĠÏĨÎ±Ïĥ": 4718,
      "ÏīÎ½ÏĦÎ±ÏĤ": 4719,
      "ĠÏĦÎ¹Î¼Î¿Î»Î¿Î³": 4720,
      "ank": 4721,
      "ĠÎ¼ÎµÎ¹ÎºÏĦÎ·": 4722,
      "ÏĦÎ¿ÏħÏĥÎ±": 4723,
      "ĠÎ¿Î´Î·Î³Î¹ÏīÎ½": 4724,
      "ĠÎ±Î½Î±Î¼ÎµÎ½": 4725,
      "tor": 4726,
      "ĠÎ±ÏĢÎ±ÏģÎ±Î¹ÏĦÎ·ÏĦÎ¿": 4727,
      "ĠÏĥÏħÎ¼ÏĨÎµÏģÎ¿Î½ÏĦÎ¿ÏĤ": 4728,
      "enc": 4729,
      "ĠÏĥÏħÎ¼ÏĨÎµÏģÎ¿Î½ÏĦÏīÎ½": 4730,
      "ÏĢÎ¹ÏĥÏĦÎ·": 4731,
      "ĠÏĢÎ¹Î½Î±ÎºÎ±ÏĤ": 4732,
      "ĠÎ±ÏĥÎºÎ·ÏĥÎµÏīÏĤ": 4733,
      "Î½Î¹ÎºÏīÎ½": 4734,
      "ĠÏĩÎ±ÏģÎ±ÎºÏĦÎ·ÏģÎ¹": 4735,
      "ĠÏĥÎ»Î¿Î²Î±": 4736,
      "Î»ÏĢ": 4737,
      "ĠÏĢÎ±ÏģÎ±ÎºÎ±": 4738,
      "Ġ105": 4739,
      "ĠÏĥÏħÎ¼Î¼ÎµÏĦÎµÏĩÎ¿Î½": 4740,
      "ĠÎ¼Î·ÏĩÎ±Î½ÎµÏĤ": 4741,
      "Î¹ÏĥÎµÎ¹": 4742,
      "ĠÎµÎ¹ÏĥÎ·Î³Î·ÏĦÎ·": 4743,
      "ĠÎµÏĢÎ¹Î»Î¿Î³Î·ÏĤ": 4744,
      "ÏĥÎ±ÏĨÎ·": 4745,
      "Î¼Î±ÏĦÎ¿Î»Î¿Î³Î¹Î±": 4746,
      "ĠÏĢÏģÎ¿ÎµÏĦÎ¿Î¹Î¼Î±": 4747,
      "Î±ÏĢÎ¿": 4748,
      "ĠÏĢÎ¿Î»Î¹ÏĦÎ¹ÎºÎµÏĤ": 4749,
      "ĠÎºÎ±ÏĦÎ±ÏĩÏģÎ·": 4750,
      "ÎµÎ±ÏĤ": 4751,
      "ĠÏĢÏģÎ¿ÏĦÎ¹Î¼Î·": 4752,
      "ĠÎ¿ÏĩÎ·Î¼Î±": 4753,
      "ĠÏĦÎ±Î¼ÎµÎ¹Î¿Ïħ": 4754,
      "ĠÎºÎ±Î»Î»Î¹ÎµÏģÎ³": 4755,
      "93": 4756,
      "ĠÎ³Î·": 4757,
      "ĠÎ±Î½ÎµÏģÎ³ÏīÎ½": 4758,
      "ĠÎºÎ¿Î½Î´Ïħ": 4759,
      "ĠÏĢÎ±ÏģÎ±Î´ÎµÎ¹Î³Î¼Î±": 4760,
      "Î¸Î¿ÏħÎ±Î½": 4761,
      "ĠÎºÎ±ÏĦÎµÏħÎ¸ÏħÎ½ÏĦÎ·ÏģÎ¹ÎµÏĤ": 4762,
      "ĠÎµÏĢÎ¹ÏĦÎµÏħÏĩÎ¸ÎµÎ¹": 4763,
      "ĠÏĢÏģÎ¿Î²Î»ÎµÏĢÎ¿Î¼ÎµÎ½Î·": 4764,
      "Î¹Î¶Î¿Î½ÏĦÎ±ÏĤ": 4765,
      "ĠÎºÎ±ÏĦÎ±ÏĥÏĦÎµÎ¹": 4766,
      "ĠÎ±ÏĢÎ¿ÏĥÏĦÎ¿Î»Î·": 4767,
      "ĠÎµÏĢÎ¹ÏĩÎ¿ÏģÎ·Î³Î·": 4768,
      "ĠÎ±ÏĨÎ±": 4769,
      "ĠÏĦÏģÎ¿ÏĢÎ¿ÏĢÎ¿Î¹Î·Î¸ÎµÎ¹": 4770,
      "ÏĩÎ±Î½Î¿": 4771,
      "ĠÎºÏħÎ²ÎµÏģÎ½Î·ÏĥÎ·ÏĤ": 4772,
      "ĠÏĢÏģÎ¿Î±Î½Î±ÏĨÎµÏģÎ¸ÎµÎ¹ÏĥÎ±": 4773,
      "ĠÎµÏĨÎ±ÏģÎ¼Î¿Î¶Î¿ÏħÎ½": 4774,
      "ĠÂ©": 4775,
      "eg": 4776,
      "ĠÎµÎ¹ÏĥÎ¿Î´Î¿Ïħ": 4777,
      "ĠÏĥÎµÎ¹ÏĤ": 4778,
      "ĠÎºÎ±Î¸Î¿ÏģÎ¹ÏĥÏĦÎµÎ¹": 4779,
      "ĠÎ±ÏĢÎ»Î¿ÏħÏĥÏĦÎµ": 4780,
      "ĠÎ´Î¹Î±ÎºÎ±Î½Î¿Î½": 4781,
      "ĠÎ¿ÏģÎ¹ÏĥÎ¼Î¿": 4782,
      "ĠÏĢÎ±ÏģÎ±Î³ÏīÎ³Î¿Î¹": 4783,
      "ĠÎ±ÏĢÎ¿Î´ÎµÎ¹Î¾Î·": 4784,
      "ĠÏĥÏĨÎ±Î»": 4785,
      "ĠÎ´Î¹Î¿Î¹ÎºÎ·ÏĦÎ¹ÎºÎ¿": 4786,
      "ĠÏĥÏħÎ½Î´ÎµÎ´Îµ": 4787,
      "Ñģ": 4788,
      "Î´Î¹ÎºÎ¿Ïħ": 4789,
      "ĠÎ´Î¹Î±Î³ÏīÎ½Î¹ÏĥÎ¼Î¿Ïħ": 4790,
      "ĠÏĢÎ±Ïħ": 4791,
      "ĠÏĢÏģÎ¿ÏĥÏĦÎ¹Î¸Îµ": 4792,
      "ĠÏĢÏģÎ¿Î»Î·ÏĪÎ·": 4793,
      "Î¸Î¿ÏħÏĤ": 4794,
      "Ġ195": 4795,
      "ĠÏħÏĢÎ¿Î²Î»Î·Î¸ÎµÎ¹": 4796,
      "Ġ1980": 4797,
      "ĠÎºÎ±ÏĦÎ±Î½Î±Î»ÏīÏĦÏīÎ½": 4798,
      "ĠÎ»Î¹Î¸Î¿ÏħÎ±Î½": 4799,
      "ĠÎºÎ±Î¸Î¿ÏģÎ¹ÏĥÎ¼Î¿Ïħ": 4800,
      "ĠÏĥÏħÎ½ÏĦÎ¿Î½Î¹Ïĥ": 4801,
      "ĠÎ½Î¹": 4802,
      "ĠÎµÏģÎ³Î¿Ïħ": 4803,
      "Ġ}": 4804,
      "Î¼Î¿ÏģÏĨÏīÎ½": 4805,
      "pt": 4806,
      "Î¶Î¹": 4807,
      "ĠÎºÎ»Î±ÏĥÎµÏīÎ½": 4808,
      "ĠÎµÎºÏĦÎ·ÏĤ": 4809,
      "ÏģÎ¹ÏĥÎ¼Î¿ÏĤ": 4810,
      "ĠÏħÏĨÎ±ÏĥÎ¼Î±ÏĦÎ±": 4811,
      "ĠÎ±Î½Î±ÏĢÎ·": 4812,
      "ĠÎ´Î¹ÎºÎ±Î¹Î¿Î´Î¿ÏĥÎ¹Î±": 4813,
      "Ġou": 4814,
      "ÏĥÏĦÎ·ÎºÎµ": 4815,
      "ĠÎ±ÏĥÏĨÎ±Î»Î¹ÏĥÎ·": 4816,
      "ĠÎµÎ¹ÎºÎ¿Î½": 4817,
      "ĠÎ±Î¹ÏĦÎ¿ÏħÎ½ÏĦÎ¿ÏĤ": 4818,
      "ĠÎºÎ¹Î½Î·ÏĦÎ·ÏģÎ±": 4819,
      "ĠÏĢÎµÎ¼ÏĢÏĦÎ¿": 4820,
      "Ġtac": 4821,
      "ĠÎ¹ÎºÎ±Î½Î¿ÏĦÎ·ÏĦÎ±ÏĤ": 4822,
      "ĠÎ³ÎµÎ³Î¿Î½Î¿": 4823,
      "Î½Î±ÏĦÎ¿": 4824,
      "ĠÎ±Î½ÏĦÎ¹Î¼ÎµÏĦÏīÏĢ": 4825,
      "ĠÎµÏħÏĩÎµ": 4826,
      "ĠÏĢÎ±ÏģÎ±ÏĦÎ¹Î¸ÎµÎ¼ÎµÎ½Î·": 4827,
      "ĠÏĢÏī": 4828,
      "ĠÎ¸ÎµÏĥÎµÏīÎ½": 4829,
      "ĠÎµÎºÏĦÎ±ÏĥÎ·": 4830,
      "ĠÎµÎ½Î±Î³Î¿ÏħÏĥÎ±": 4831,
      "ĠÎµÎºÎ¸ÎµÏĥÎµÎ¹ÏĤ": 4832,
      "Ġdia": 4833,
      "ond": 4834,
      "ĠÎºÎ±ÏĦÎ±Î¸Îµ": 4835,
      "ĠÎºÎ±ÏĦÎ¿Î¹ÎºÎ¹Î±ÏĤ": 4836,
      "ĠÎ±Î½Î±Î»Î·ÏĪÎ·": 4837,
      "ĠÏĢÏģÎ¿ÏĦÎµÎ¹Î½ÎµÎ¹": 4838,
      "ĠÎ¸ÎµÎ¼ÎµÎ»Î¹ÏīÎ´ÏīÎ½": 4839,
      "Î¶Î¿Î½ÏĦÎ±ÏĤ": 4840,
      "ĠÎ¼ÎµÏĦÎ±Î´Î¿": 4841,
      "Ġ115": 4842,
      "Î´ÎµÎ¹ÏĤ": 4843,
      "ĠÎ¿Î»Î·": 4844,
      "Î»ÎµÎ¿": 4845,
      "ĠÎºÎ±ÏĦÎ±Î½Î±Î»ÏīÏĦÎ·": 4846,
      "Î²Î±Î½": 4847,
      "Î¼Î±Î¹": 4848,
      "ĠÎµÎ¾ÎµÏĦÎ±Ïĥ": 4849,
      "ĠÎºÏħÏĢ": 4850,
      "ĠÏĩÏģÎ·ÏĥÎ¹Î¼Î¿ÏĢÎ¿Î¹Î·Î¸ÎµÎ¹": 4851,
      "Î³ÏģÎ±ÏĨÎ¿ÏħÏĤ": 4852,
      "ĠÏĦÎµÎ»Î¹ÎºÎ·": 4853,
      "Ġ150": 4854,
      "ĠÏĢÏģÎ¿ÎµÎ²Î·": 4855,
      "Ġ102": 4856,
      "ĠÎ¿ÏħÎ´Îµ": 4857,
      "ĠÎ±Î»Î±": 4858,
      "ws": 4859,
      "ĠÎ¿ÏħÎ³": 4860,
      "Ġ126": 4861,
      "ĠÎ±ÏģÎ¹Î¸Î¼Î¿Ïħ": 4862,
      "ĠÎ±Î½Î¸ÏģÎ±ÎºÎ±": 4863,
      "ĠÏĦÎ±ÏħÏĦÎ¿ÏĩÏģÎ¿": 4864,
      "ĠÎ¿Î¼Î¿ÏĥÏĢÎ¿Î½Î´Î¹Î±ÎºÎ·": 4865,
      "ĠÎºÎ±ÏĦÎ±Î²Î¿Î»Î·ÏĤ": 4866,
      "ÏĨÎµÎ¹ÏĤ": 4867,
      "ĠÏĥÏĩÎµÏĦÎ¹Î¶Î¿Î½ÏĦÎ±Î¹": 4868,
      "Ġmed": 4869,
      "ĠÎ±Î½ÏĦÎ»ÎµÎ¹ÏĦÎ±Î¹": 4870,
      "ĠÎ±ÏĢÎµÏģ": 4871,
      "ĠÎ´Î¹ÎµÎ¾Î±Î³ÏīÎ³Î·": 4872,
      "Ġej": 4873,
      "na": 4874,
      "ÏĥÎ¹Î¼Î±": 4875,
      "ĠÏĦÎµÏĩÎ½Î¹ÎºÎ·ÏĤ": 4876,
      "ric": 4877,
      "Î¼Î±ÏĦÎ¿Î´Î¿": 4878,
      "Î·Î¼Î¿ÎºÏģÎ±": 4879,
      "ĠÎ±ÏĨÎ±Î¹ÏģÎµ": 4880,
      "ĠÏħÏĢÎ¿Î²Î»Î·Î¸Î·ÎºÎ±Î½": 4881,
      "ĠÎ½Î¿Î¼Î¿Î¸ÎµÏĥÎ¹ÏīÎ½": 4882,
      "ĠÏĥÎ±ÏĨÎ·": 4883,
      "ĠÎ´Î¹Î¿ÏģÎ³Î±Î½": 4884,
      "ÏħÎ¼": 4885,
      "ĠÎ¿Î»Î¿Î¹": 4886,
      "ĠÎµÎ½Î¸Î±": 4887,
      "Î´ÎµÎ½": 4888,
      "ĠÎ´Î·Î»ÏīÎ½": 4889,
      "Ġvol": 4890,
      "ĠÎµÏĥÎ¿Î´Î±": 4891,
      "one": 4892,
      "ĠÏĢÎµÏģÎ¹Î¸ÏīÏģÎ¹Î¿": 4893,
      "ĠÏĢÏģÎ¿ÏĥÏīÏģÎ¹Î½Î±": 4894,
      "ĠÎ´ÎµÎ»ÏĦÎ¹Î¿": 4895,
      "ĠÏĥÎºÎ¿ÏĢÎ¿Ïħ": 4896,
      "ĠÏĩÏģÎ·ÏĥÎ¹Î¼Î¿ÏĢÎ¿Î¹Î¿ÏħÎ½": 4897,
      "ĠÏĥÎ·Î¼Î±Î½ÏĦÎ¹ÎºÎµÏĤ": 4898,
      "ato": 4899,
      "ĠÎºÎ±ÏĦÏīÏĦÎµÏģÏī": 4900,
      "ÏĢÏĦÎ¹ÎºÎ·": 4901,
      "Ġbund": 4902,
      "ĠÏĦÏģÎ¹ÏĦÎ·ÏĤ": 4903,
      "ĠÎµÎ»Î±ÏĩÎ¹ÏĥÏĦÎ¿": 4904,
      "ĠÎ±ÎµÏģÎ¿ÏĥÎºÎ±": 4905,
      "ĠÏħÏĢÎ¿Î´Î¿ÏĩÎ·ÏĤ": 4906,
      "ĠÎµÏĨÎ±ÏģÎ¼Î¿Î¶ÎµÎ¹": 4907,
      "ĠÏĢÎ±ÏģÎµÎºÎºÎ»Î¹Ïĥ": 4908,
      "ĠÏĥÏħÎ½ÏĦÏģÎµ": 4909,
      "ix": 4910,
      "ina": 4911,
      "Ġserv": 4912,
      "ĠÎ´Î¹ÎºÎ·Î³Î¿ÏģÎ¿": 4913,
      "Ġ120": 4914,
      "ĠÎ½ÏīÏĢÎ±": 4915,
      "ĠÎ´Î¹ÎºÏĦÏħÎ¿": 4916,
      "ĠÎ¿Î»Î¿ÎºÎ»Î·ÏģÏīÏĥÎ·": 4917,
      "ĠÎµÎ»Î·ÏĨÎ¸Î·": 4918,
      "ĠÎµÎºÎ±Ïĥ": 4919,
      "ĠÎµÎºÎµÎ¹Î½ÏīÎ½": 4920,
      "ĠÏĦÏģÎ¿ÏĢÎ¿ÏĢÎ¿Î¹ÎµÎ¹ÏĦÎ±Î¹": 4921,
      "ĠÎµÎ»ÎµÏħÎ¸ÎµÏģÎ·ÏĤ": 4922,
      "ÏĦÎ¹Ïī": 4923,
      "ĠÎºÏģÎ¹ÏĦÎ·ÏģÎ¹ÏīÎ½": 4924,
      "ĠÏĢÏģÎ¿ÏĥÏĩÏīÏģÎ·ÏĥÎ·ÏĤ": 4925,
      "ĠÏĢÎ±ÏģÎµÎ¼Î²Î±Î¹Î½": 4926,
      "ĠÎ´Î¹ÎµÏĢÎ¿ÏħÎ½": 4927,
      "ĠÎµÏĢÎ¹Î¸Ïħ": 4928,
      "alt": 4929,
      "ĠÎ±Î½Î¸ÏģÏīÏĢÎ¹": 4930,
      "ĠÎ±Î¼ÏħÎ½Î±ÏĤ": 4931,
      "ĠÎµÏĢÎ¹ÎºÏģÎ±ÏĦÎµÎ¹Î±": 4932,
      "ĠÎµÎ½Î´Î¿": 4933,
      "ĠÏħÏĢÎ¿ÏĩÏģÎµÎ¿ÏħÏĦÎ±Î¹": 4934,
      "ĠÏĢÏģÎ¿ÎºÎ»Î·": 4935,
      "ĠÎ±ÏĢÎ±Î½ÏĦÎ·ÏĥÎµÏīÏĤ": 4936,
      "eder": 4937,
      "ĠÎ´ÏģÎ¿": 4938,
      "ĠÏĦÎ¹ÏĦÎ»Î¿Ïħ": 4939,
      "Ġdocument": 4940,
      "ĠâĤ¬": 4941,
      "ĠÏħÏĢÎ¿ÏĩÏģÎµÏīÏĥÎµÏīÏĤ": 4942,
      "ĠÏĢÏģÎ¿Î´Î¹ÎºÎ±ÏĥÏĦÎ¹ÎºÎ±": 4943,
      "ĠÏĥÎ·Î¼ÎµÎ¹ÏīÏĥÎ·": 4944,
      "oss": 4945,
      "ĠÎµÎ¾Î¿ÏħÏĥÎ¹Î±ÏĤ": 4946,
      "ĠÎµÎ½Î±ÏģÎ¼Î¿Î½Î¹ÏĥÎµÏīÏĤ": 4947,
      "ĠÎ³ÏģÎ±Î¼Î¼ÏīÎ½": 4948,
      "ĠÎ¼Î±Î¶Î¹": 4949,
      "Î½Î¿Î¼Î±": 4950,
      "ĠÎ¿Î¹ÎºÎ¿Î½Î¿Î¼Î¹ÎºÎµÏĤ": 4951,
      "ĠÏħÏĢÎµÏĥÏĦÎ·": 4952,
      "ĠÎµÏĢÎ¹ÏĦÏģÎµÏĢÎ¿": 4953,
      "Î´Î±Ïĥ": 4954,
      "ĠÏĨÏħÏĥÎ¹ÎºÏīÎ½": 4955,
      "ÏĢÎ»Î±": 4956,
      "ĠÏĥÎ·Î¼Î±Î¹Î½ÎµÎ¹": 4957,
      "ĠÎµÏĦÎ±Î¹ÏģÎ¹ÏīÎ½": 4958,
      "ĠÎºÎµÎ½ÏĦÏģÎ¿": 4959,
      "ĠÏĢÎ±ÏģÎ±ÏĢÎ¿Î¼ÏĢÎ·": 4960,
      "ĠÎµÏĢÎ¹ÎºÎ±Î»Îµ": 4961,
      "ÏĦÏģÎ¿ÏĢÎ·ÏĤ": 4962,
      "Ġ620": 4963,
      "ĠÎ±ÏĢÎ»Î·": 4964,
      "ĠÎµÏĢÎ¹ÎºÎ¹Î½Î´Ïħ": 4965,
      "ĠÎ½Î¿Î¼Î¿Î¸ÎµÏĦÎ¹ÎºÎµÏĤ": 4966,
      "ĠÏĢÎ»Î·ÏģÏīÎ¼Î·": 4967,
      "ĠÎ³Î½ÏīÏĥÏĦÎ¿ÏĢÎ¿Î¹Î·": 4968,
      "ĠÎ¶Î·ÏĦÎ·Î¼Î±ÏĦÎ±": 4969,
      "ĠÎµÎ¾Î±ÏĥÏĨÎ±Î»Î¹ÏĥÏĦÎµÎ¹": 4970,
      "ĠÏĢÎ»Î·ÏģÎ¿ÏħÏĤ": 4971,
      "ĠÏĢÏģÎ¿ÏĥÎ»Î·": 4972,
      "ks": 4973,
      "ĠÎ½ÎµÎ±ÏĤ": 4974,
      "ĠÎ±Î½Î±ÏĨÎµÏģ": 4975,
      "ĠÏĥÏħÎ½Î¸Î·ÎºÏīÎ½": 4976,
      "ĠÎºÎ±ÏĦÎ±Î²Î±Î»ÎµÎ¹": 4977,
      "ĠÎµÏĢÎ±ÏģÎºÎ·": 4978,
      "ÏģÏīÎ½Î¿ÏħÎ½": 4979,
      "Î¸ÎµÎ¹ÎµÏĤ": 4980,
      "ÏĦÏħÏĢÎ¿Ïħ": 4981,
      "por": 4982,
      "ĠÏģÏħÎ¸Î¼": 4983,
      "ĠÎµÎ³ÎºÏģÎ¹Î½ÎµÎ¹": 4984,
      "onom": 4985,
      "ĠÎµÎ»Î»ÎµÎ¹ÏĪÎµÎ¹": 4986,
      "ĠÎºÏĦÎ·Î½Î¹Î±": 4987,
      "ÏģÏĦÎ·ÏĥÎ·": 4988,
      "ĠÎ³Î½ÏīÎ¼Î¿Î´Î¿": 4989,
      "ĠÎ·Î»ÎµÎºÏĦÏģÎ¹ÎºÎ·ÏĤ": 4990,
      "Î¼Î²ÏģÎ¹": 4991,
      "Ġ721": 4992,
      "ĠÎ±Î½Î´": 4993,
      "Ġsup": 4994,
      "ĠÎ¿ÏģÎ¸ÏīÏĤ": 4995,
      "ĠÎ·Î»Î¹ÎºÎ¹Î±ÏĤ": 4996,
      "ĠÏĢÎ¿Î¹Î¿ÏĦÎ·ÏĦÎ±": 4997,
      "Î³Î±ÏģÎ¹Î±ÏĤ": 4998,
      "ĠÎ±ÏģÏī": 4999,
      "ĠÏĦÎµÎ¸ÎµÎ¹": 5000,
      "ĠÎ¿Î¼Î±Î´ÎµÏĤ": 5001,
      "ĠÏĨÏīÏĦÎ¿": 5002,
      "ĠÏĥÏħÎ³ÎºÎµÎ½ÏĦÏģÏīÏĥÎ·": 5003,
      "ĠÎ¸ÎµÏĥÎ·ÏĤ": 5004,
      "Î½Î¹ÏĥÎ·": 5005,
      "ĠÏĢÎ±ÏģÎ±Î³Î¿Î½ÏĦÎµÏĤ": 5006,
      "ert": 5007,
      "erc": 5008,
      "ĠÎ³ÏģÎ±ÏĨÎµÎ¹Î¿Ïħ": 5009,
      "ĠÏĢÏģÎ¿ÏĥÏĦÎ¹Î¸ÎµÎ¼ÎµÎ½Î·ÏĤ": 5010,
      "ĠÎµÏħÎ¸ÏħÎ½Î·ÏĤ": 5011,
      "ĠÏĥÏīÏģÎµÏħ": 5012,
      "Ġthis": 5013,
      "ĠÏĦÎµÏĦÎ¿Î¹Î¿": 5014,
      "ĠÏĩÏģÎ·ÏĥÎ¹Î¼Î¿ÏĢÎ¿Î¹Î·Î¸Î¿ÏħÎ½": 5015,
      "ĠÎµÏĢÎ¹ÏģÏģÎ¿": 5016,
      "44": 5017,
      "ĠÏĥÏħÎ¼Î²Î¿": 5018,
      "ere": 5019,
      "ĠÏĩÏģÎ·ÏĥÎµÏīÏĤ": 5020,
      "ĠÏĥÏīÎ»Î·": 5021,
      "els": 5022,
      "ĠÎµÎ³ÎºÎ±ÏĦÎ±ÏĥÏĦÎ±ÏĥÎµÏīÎ½": 5023,
      "ision": 5024,
      "ÏĦÎ¹ÎºÎµ": 5025,
      "Î´Î¹ÎºÎ¿ÏĤ": 5026,
      "Ġbundes": 5027,
      "ĠÎµÎ¾Î±Î»ÎµÎ¹": 5028,
      "ĠÎµÏĢÎ¹ÏĥÎ·Î¼Î±Î¹Î½ÎµÏĦÎ±Î¹": 5029,
      "Ġcent": 5030,
      "ĠÎµÎºÎ´Î¿Î¸ÎµÎ¹": 5031,
      "Ġ720": 5032,
      "ĠÎµÏĦÎ±Î¹ÏģÎµÎ¹ÏīÎ½": 5033,
      "qo": 5034,
      "Ġ118": 5035,
      "ĠÎ¿Î¹ÎºÎ¿Î½Î¿Î¼Î¹ÎºÎ¿Ïħ": 5036,
      "ĠÎµÎ½Î±Î³Î¿": 5037,
      "Ġcour": 5038,
      "ĠÎ²Î±ÏģÏħ": 5039,
      "ĠÎµÎ¾Î±ÏĥÏĨÎ±Î»Î¹ÏĥÎ·": 5040,
      "mann": 5041,
      "urg": 5042,
      "ĠÎµÎºÎ´Î·": 5043,
      "ĠÎ±ÏĢÎ¿ÏĥÎºÎ¿ÏĢÎµÎ¹": 5044,
      "ĠÎ±Î½Î±Î¼ÎµÎ½ÎµÏĦÎ±Î¹": 5045,
      "Ġ2574": 5046,
      "ĠÎ±Î½ÏĦÎ¹Î¼ÎµÏĦÏīÏĢÎ¹Ïĥ": 5047,
      "ĠÎ±ÏĥÎºÎ·ÏĥÎµÎ¹": 5048,
      "ĠÎ¿Î´Î·Î³Î¹": 5049,
      "ĠÎ´Î¹Î±Î½Î¿Î¼Î·ÏĤ": 5050,
      "ĠÎ¼ÎµÎ½": 5051,
      "Ġcps": 5052,
      "ĠÎ´Î¹Î±Î¼ÎµÏĦÎ±": 5053,
      "Î½ÏĥÎ·ÏĤ": 5054,
      "its": 5055,
      "ĠÏģÎ·ÏĦÏīÏĤ": 5056,
      "ĠÎ¹ÏĥÎ·": 5057,
      "ĠÎ´Î¹ÎºÎ±Î¹Î¿ÏħÏĩÎ¿ÏĤ": 5058,
      "ĠÎ¿Î¾Ïħ": 5059,
      "Ġir": 5060,
      "ĠÏĢÎ±ÏģÎ±ÏĥÏĩÎµ": 5061,
      "Ġ{": 5062,
      "ÏĨÎ¸Î·ÎºÎµ": 5063,
      "ĠÎ¸ÎµÏĥÎµÏīÏĤ": 5064,
      "ĠÏħÏĢÎ¿Î´ÎµÎ¹Î³Î¼Î±": 5065,
      "Ġ109": 5066,
      "ĠÎµÎ´Î±ÏĨÎ¿ÏħÏĤ": 5067,
      "ÏĨÎµÏģÎ¿": 5068,
      "ĠÎµÎ´Ïī": 5069,
      "ÏĥÎ¹ÏĦÎµÏĩ": 5070,
      "ĠÎ±ÏĢÎ¿ÏģÏģÎ¹ÏĪÎ·": 5071,
      "ĠÏħÏĢÎµÏĢÎµ": 5072,
      "ĠÎ´ÏħÏĥÎºÎ¿": 5073,
      "ĠÏĢÏģÎ±Î³Î¼Î±ÏĦÎ¿ÏĢÎ¿Î¹Î·Î¸Î·ÎºÎ±Î½": 5074,
      "ĠÎµÏĢÎ¹ÏĦÏģÎ±": 5075,
      "ĠÎ¼ÎµÎ¸Î¿Î´Î¿ÏĤ": 5076,
      "ĠÎ³Î±Î»Î±ÎºÏĦÎ¿ÏĤ": 5077,
      "Î¹Î±Ïĥ": 5078,
      "ĠÎ±Î¿": 5079,
      "ĠÎºÎ±Î½Î¿Î½Î¹ÏĥÏĦÎ¹ÎºÎµÏĤ": 5080,
      "ĠÏħÏĢÎµÎ½Î¸ÏħÎ¼Î¹Î¶ÎµÏĦÎ±Î¹": 5081,
      "ary": 5082,
      "ĠÏĢÏģÎ±ÎºÏĦÎ¹ÎºÏīÎ½": 5083,
      "ĠÏĥÏħÎ¼Î²Î±Î»Î»Î¿Î¼ÎµÎ½Î¿Ïħ": 5084,
      "Ġ119": 5085,
      "ĠÏĢÎ¿Î»Î¹ÏĦÎ¹ÎºÏīÎ½": 5086,
      "Ã¦o": 5087,
      "Ġbel": 5088,
      "Ġpublic": 5089,
      "Ġgu": 5090,
      "ĠÎ²Î±ÏģÎ¿ÏħÏĤ": 5091,
      "ĠÎ±ÏĢÎµÎ¹": 5092,
      "je": 5093,
      "ĠÏĩÎ±ÏģÏĦÎ¹": 5094,
      "Ã¸i": 5095,
      "ĠÎµÎ¾Î±ÏĥÏĨÎ±Î»Î¹Î¶ÎµÎ¹": 5096,
      "Ġ400": 5097,
      "ĠÎºÎ±ÏĦÎ±Î½Î±Î»ÏīÏĦÎµÏĤ": 5098,
      "ĠÏĥÎºÎ±ÏĨÏīÎ½": 5099,
      "ise": 5100,
      "ÏĦÎµÏģÎ³Î±Ïĥ": 5101,
      "ĠÎ´Î¹ÎµÏħÎºÎ¿Î»ÏħÎ½ÏĥÎ·": 5102,
      "ÎµÎ¹Î´Î·": 5103,
      "Î½Î¿Î¼Î¿": 5104,
      "iaay": 5105,
      "Ġjoim": 5106,
      "ien": 5107,
      "ĠÏĢÏģÎ¿ÏĦÏħÏĢÏīÎ½": 5108,
      "ĠÎºÏģÎ¹Î½ÎµÏĦÎ±Î¹": 5109,
      "ĠÎ±ÏģÎ¼Î¿Î´Î¹ÏīÎ½": 5110,
      "ÎµÎ¹ÎµÏĤ": 5111,
      "ĠÏĢÏģÎ¿ÏĥÎ¿": 5112,
      "ĠÎ³ÎµÎ½Î¹ÎºÎ±": 5113,
      "ĠÎ±Î½Î¿Î¹Îº": 5114,
      "ĠÏĩÎ±Ïģ": 5115,
      "010": 5116,
      "Î¸Î¼Î¹ÏĥÎ·": 5117,
      "ĠÎ´Î·Î»ÏīÏĥÎµÎ¹ÏĤ": 5118,
      "ĠÎ³ÎµÎ½Î¹ÎºÏīÎ½": 5119,
      "ĠÎµÏĢÎ¹ÏĥÏħÎ½Î±": 5120,
      "Ġ113": 5121,
      "Î»Î·ÏĪ": 5122,
      "ĠÏĢÎ±ÏģÎ±Î³ÏģÎ±ÏĨÎ¿ÏħÏĤ": 5123,
      "Ġ540": 5124,
      "ĠÏĢÎ±ÏģÎ±ÏĦÎ±ÏĥÎ·": 5125,
      "ÏĨÏī": 5126,
      "ĠÎµÏħÏģÏīÏĢÎ±Î¹ÎºÎ·Ïĥ": 5127,
      "Î»Î±Î²Î·ÏĤ": 5128,
      "ĠÎ±ÏĢÎ¿ÏĨÏħ": 5129,
      "ĠÎ´Î¹ÎºÎ¿Î³ÏģÎ±ÏĨÎ¿": 5130,
      "ĠÎ¼ÎµÏģÎ¹Î´Î¹Î¿": 5131,
      "Ġ600": 5132,
      "ĠÏħÏĢÎµÎ²Î±Î»Î±Î½": 5133,
      "ĠÏĢÏģÎ±Î³Î¼Î±ÏĦÎ¿ÏĢÎ¿Î¹Î·Î¸Î·ÎºÎµ": 5134,
      "ĠÏħÏĢÎ¿Î»Î¿Î³Î¹Î¶ÎµÏĦÎ±Î¹": 5135,
      "ĠÎ´ÏģÎ±ÏĥÎµÏīÎ½": 5136,
      "ĠÎ¼ÎµÎ³Î¹ÏĥÏĦÎ·": 5137,
      "Î»Î¹ÏĤ": 5138,
      "ĠÎµÏĢÎ¹ÎºÎ±Î»ÎµÎ¹ÏĦÎ±Î¹": 5139,
      "ÎºÏĦÎµ": 5140,
      "ĠÏĢÏģÎ¿Î²Î±Î¹Î½ÎµÎ¹": 5141,
      "ÏģÎ¿ÏĦÎ·ÏĦÎ±ÏĤ": 5142,
      "ĠÎ²Î»ÎµÏĢÎµ": 5143,
      "ĠÎ´Î¹ÎµÎ¸Î½ÏīÎ½": 5144,
      "Ġdec": 5145,
      "ĠÎ¹Î´Î¹ÏīÎ½": 5146,
      "ĠÎºÏĦÎ¹": 5147,
      "ĠÎºÎ¿Î¼": 5148,
      "Ġapoa": 5149,
      "ĠÎµÎ²Î´Î¿Î¼Î±": 5150,
      "ĠÏĥÏĦÏģÎ¿": 5151,
      "ÏĢÏī": 5152,
      "ole": 5153,
      "Î»Î¿Î½": 5154,
      "org": 5155,
      "ÏĨÎµÏģÎµ": 5156,
      "ĠÎºÎ¿Î¹Î½Î¿ÏĦÎ¹ÎºÎµÏĤ": 5157,
      "ĠÎ±ÏĢÎµÏģÏģÎ¹": 5158,
      "ĠÎ¹Î´Î¹ÎµÏĤ": 5159,
      "41": 5160,
      "Ġ177": 5161,
      "ĠÎ±ÏĢÎ¿ÎºÎ±": 5162,
      "ĠÎ´Î¹Î±Î¼ÎµÏĦÎ±ÎºÎ¿": 5163,
      "ĠÎºÎ±ÏĦÎµÏģÎ³Î±Ïĥ": 5164,
      "ĠÏĢÎ±ÏģÎ±ÏĥÏĩÎµÎ¹": 5165,
      "ĠÎµÎ½ÎµÏģÎ³Î·ÏĦÎ¹ÎºÎ¿Ïħ": 5166,
      "ĠÎ¿ÏģÎ³Î±Î½Î¿Ïħ": 5167,
      "ĠÎµÏĦÎ±Î¹ÏģÎµÎ¹Î±ÏĤ": 5168,
      "ĠÏĨÏģÎ±ÏĥÎ·": 5169,
      "Î´ÏīÏĥÎµÎ¹": 5170,
      "ĠÏĥÎºÎ±ÏĨÎ¿ÏĤ": 5171,
      "ÏĥÏħÎ½Î·": 5172,
      "ÏĦÎ¿ÏĦÎµ": 5173,
      "ĠÎ±Î½Î±ÏĥÏĦÎ¿Î»Î·": 5174,
      "Ġmo": 5175,
      "ĠÎµÎºÎ¸ÎµÏĥÎµÏīÎ½": 5176,
      "Ġcm": 5177,
      "ĠÎ¸ÎµÏĦÎµÎ¹": 5178,
      "che": 5179,
      "ĠÎ¼ÎµÏĦÎ±ÏĩÎµÎ¹ÏģÎ¹ÏĥÎµÏīÏĤ": 5180,
      "gas": 5181,
      "ĠÎµÎ¾Î¹Ïĥ": 5182,
      "Î»ÎµÏħÏĥÎ·": 5183,
      "ĠÎ±Î½ÎµÎ¾Î±ÏģÏĦÎ·ÏĦÎ±": 5184,
      "ĠÎ±Î¼Î¿Î¹Î²": 5185,
      "Ġ110": 5186,
      "ĠÏĦÏģÎ¹ÏĦÎ¿Î½": 5187,
      "ical": 5188,
      "ĠÎµÎ¹ÏĥÎ±Î³Î³ÎµÎ»ÎµÎ±": 5189,
      "ĠÎ±ÏĦÏħ": 5190,
      "ĠÏħÏĢÎµÏĢÎµÏĥÎµ": 5191,
      "ĠÎ±Î¼ÏĨÎ¹Î²Î¿": 5192,
      "ĠÎ´Î¹ÎºÏĦÏħÎ±": 5193,
      "ĠÎºÎ±ÏĦÎ±Î³Î³ÎµÎ»Î¹Î±": 5194,
      "ult": 5195,
      "ĠÏĩÏģÎ·Î¼Î±ÏĦÎ¿Î´Î¿ÏĦÎ¹ÎºÎ·": 5196,
      "ĠÎµÎ½ÏĦÎ¿ÏĢÎ¹Ïĥ": 5197,
      "Î¾Î¿": 5198,
      "ĠÎ±Î½ÏĦÎ¹ÎºÎµÎ¹Î¼ÎµÎ½Î¿Ïħ": 5199,
      "ĠÏĦÎ±Î¹Î½": 5200,
      "ca": 5201,
      "ĠÎ¸ÎµÏĥÏĢÎ¹Î¶Î¿Î½ÏĦÎ±Î¹": 5202,
      "ĠÎ³Î¿Ïħ": 5203,
      "ĠÏĩÎ±ÏģÏĦÎ¿": 5204,
      "ĠÎ¶ÏīÎ¿ÏĦÏģÎ¿": 5205,
      "ĠÎ³Î½ÏīÏĥÎ·": 5206,
      "ĠÎ±Î¼ÏĨÎ¹ÏĥÎ²Î·ÏĦÎµÎ¹": 5207,
      "ĠÏĥÏħÎ¶": 5208,
      "ĠÎµÎ½Î´Î¹Î±ÏĨÎµÏģÎ¿Î¼ÎµÎ½ÏīÎ½": 5209,
      "ĠÎ±ÏĢÎ¿ÏĦÎµÎ»ÎµÏĥÎ¼Î±ÏĦÎ¹ÎºÎ¿ÏĦÎ·ÏĦÎ±": 5210,
      "ĠÎ¼ÎµÎ¸Î¿Î´Î¿ÏħÏĤ": 5211,
      "ĠÏĢÎ¿Î»Î¹ÏĦÎ¹Ïĥ": 5212,
      "ĠÎµÎ¾Î±ÏģÏĦÎ·Î¼Î±": 5213,
      "ĠÏħÎ»Î¹ÎºÎ¿": 5214,
      "ĠÎ´Î¹Î±ÎºÏģÎ¹ÏĥÎµÏīÎ½": 5215,
      "Î»Î¹Î´Î±": 5216,
      "Ġha": 5217,
      "ĠÎµÏħÏģÎµÏĥÎ¹ÏĦÎµÏĩ": 5218,
      "ĠÎ±ÏĢÎ¿ÎºÎ¿ÏĢÎ·": 5219,
      "ÏĥÎ¹ÏīÏĤ": 5220,
      "ĠÎ¼ÏĢÎ¿ÏģÎµ": 5221,
      "ĠÏĢÎµÎ¼ÏĢ": 5222,
      "ĠÏĥÏħÎ½ÎµÎ¹ÏĥÏĨÎ¿ÏģÎ±": 5223,
      "ĠÏĢÎ·Î³ÎµÏĤ": 5224,
      "ĠÏĢÎ±ÏģÎ±ÏĦÎ·": 5225,
      "ĠÏĢÎ¹Î¸Î±Î½": 5226,
      "ĠÎ´ÎµÎºÏĦÎ·": 5227,
      "ĠÏĢÏģÎ¿Î·Î³Î¿ÏħÎ¼ÎµÎ½ÏīÏĤ": 5228,
      "ÎºÎ¿Î¼": 5229,
      "ĠÎ¿Î¹ÎºÎ¿Î½Î¿Î¼Î¹Î±ÏĤ": 5230,
      "ĠÎ»ÏħÏĥÎ·": 5231,
      "ae": 5232,
      "ĠÎ¼ÎµÎ³Î±Î»ÏħÏĦÎµÏģÎ¿": 5233,
      "ĠÎ±Î½Î±Î³ÎºÏīÎ½": 5234,
      "ĠÏĪÎ±": 5235,
      "ĠÎµÎ³Î³ÏħÎ·ÏĥÎ·": 5236,
      "ĠÏĢÎ»Î·ÏģÏīÎ¼ÎµÏĤ": 5237,
      "ĠÎ·Î»ÎµÎºÏĦÏģÎ¿Î½Î¹ÎºÏīÎ½": 5238,
      "ĠÎ±ÏĢÎ¿Î´Î¹": 5239,
      "ire": 5240,
      "ast": 5241,
      "ĠÎ¼Î·ÏĩÎ±Î½Î¿": 5242,
      "ĠÎ´Î¹ÎºÎ±ÏĥÏĦÎ·": 5243,
      "ĠÎµÎºÏĦ": 5244,
      "ĠÎ±ÎºÏģÎ¹Î²Îµ": 5245,
      "ĠÎºÎ±Ïħ": 5246,
      "ĠÎ±Î»ÏħÏĥÎ¹": 5247,
      "ĠÎ´Î¹Î±ÏĢÎ¹ÏĥÏĦÏīÎ¸ÎµÎ¹": 5248,
      "ĠÎµÏĨ": 5249,
      "ĠÎ´ÏħÏĥÏĩÎµ": 5250,
      "ĠÃ¸": 5251,
      "ĠÏĢÎ±ÏģÎ±Î»Î»Î·Î»Î±": 5252,
      "ĠÎ¼Î¿Î»Î¹ÏĤ": 5253,
      "ĠÎ±Î½Î±Î³ÎºÎ·ÏĤ": 5254,
      "ĠÎºÎ±ÏĦÎµÎ»Î·": 5255,
      "Ġph": 5256,
      "Ġcommission": 5257,
      "ÏĩÎ±ÏĤ": 5258,
      "ĠÎµÎ½Î·Î¼ÎµÏģÏīÏĥÎ·": 5259,
      "ĠÎµÏĥÎ¸Î¿Î½": 5260,
      "fer": 5261,
      "li": 5262,
      "ner": 5263,
      "ĠÎ¼Î±Î»": 5264,
      "ĠÏĢÎ»Î·Î¸Ïħ": 5265,
      "Ġcoun": 5266,
      "ĠÎ¼ÎµÎ¹ÏīÎ½": 5267,
      "ĠÎµÎ¾ÏħÏĢÎ·ÏģÎµ": 5268,
      "ĠÏĥÎºÎ¿Î½": 5269,
      "ĠÏĢÎ¿Î»Î¹ÏĦÏīÎ½": 5270,
      "Ġ136": 5271,
      "Ġko": 5272,
      "ĠÎ¿ÏĢÏī": 5273,
      "ĠÏĥÎ»Î¿Î²Î±Îº": 5274,
      "ĠÎµÎºÎ´": 5275,
      "old": 5276,
      "igh": 5277,
      "ĠÏĢÎ±ÏģÎµÎ»": 5278,
      "vel": 5279,
      "ÏĪÎ±Î½": 5280,
      "ĠÏĩÏģÎ·ÏĥÏĦÎµÏĤ": 5281,
      "ĠÎ±Î½ÎµÎ¾Î±ÏģÏĦÎ·ÏĦÏīÏĤ": 5282,
      "ute": 5283,
      "ĠÎ±Î²Î±ÏĥÎ¹": 5284,
      "ĠÎ´Î¹Î±Î³ÏģÎ±ÏĨÎ·": 5285,
      "Ġge": 5286,
      "Ġob": 5287,
      "É»": 5288,
      "ĠÎ±ÏĢÎ¿ÏĨÎ±ÏĥÎ¹ÏĥÎµÎ¹": 5289,
      "ĠÏĢÏģÎ¿ÏĥÏĨÎµÏħÎ³Î¿Î½ÏĦÎµÏĤ": 5290,
      "ĠÎºÎ±Î½": 5291,
      "ĠÎ¹Îµ": 5292,
      "ĠÎ¼Î¿ÏģÏĨÎµÏĤ": 5293,
      "ĠÎºÏħÏģÏīÏĥÎµÎ¹ÏĤ": 5294,
      "Ġ1977": 5295,
      "Î´ÎµÎ¹Î¾Îµ": 5296,
      "Î³Î¹Î±ÏĤ": 5297,
      "ĠÏĢÏģÎ¹ÏĥÎ¼Î±": 5298,
      "ĠÏĥÎ»Î¿Î²ÎµÎ½": 5299,
      "ĠÎ¿ÏģÎ¹Î¶Î¿Î½": 5300,
      "ĠÎ¿ÏģÎ³Î±Î½Î¹ÏĥÎ¼Î¿Î¹": 5301,
      "Î¹Î½Î¿": 5302,
      "Î³ÎºÎµÎ½": 5303,
      "Ġhtt": 5304,
      "Î»ÎµÎ½": 5305,
      "ĠÏīÎ½": 5306,
      "Ġic": 5307,
      "ĠÎ±ÏħÏĥÏĦÎ·": 5308,
      "ĠÎ±ÏĢÎ¿Î´Î¿ÏĥÎ·": 5309,
      "ĠÏĥÏħÎ½Î¿ÏģÎ±": 5310,
      "ĠÏĢÏģÎ¿Î²Î»Î·Î¼Î±ÏĦÎ±": 5311,
      "ĠÎ±ÎµÏģÎ¿ÏĢÎ¿ÏģÎ¹ÎºÏīÎ½": 5312,
      "ĠÎ¿ÏģÎ¸Î·": 5313,
      "ĠÎ±ÏĢÎ±Î»Î»Î±Ïĥ": 5314,
      "ĠÎµÎ¶": 5315,
      "ĠÎ¿ÏģÎ¸Î¿": 5316,
      "ĠÎºÎ±Î½ÎµÎ¹": 5317,
      "ĠÎ´Î¹Î±Î´Î¹ÎºÏĦÏħ": 5318,
      "ĠÎ±Î¹ÏĦÎ¹Î±ÏĥÎµÏīÎ½": 5319,
      "ĠÎ¼ÎµÏĦÎ±ÏĨÏģÎ±": 5320,
      "ĠÏħÏĢÎ·ÏģÎµÏĥÎ¹Î±ÎºÎ·ÏĤ": 5321,
      "tions": 5322,
      "Ã¸j": 5323,
      "36": 5324,
      "ĠÎ²ÎµÎ»ÏĦÎ¹Ïī": 5325,
      "59": 5326,
      "ÏĥÏĦÎ±ÏĥÎ·ÏĤ": 5327,
      "ĠÎ´Î¹Î±ÎºÏģÎ¹ÏĥÎµÎ¹ÏĤ": 5328,
      "ĠÎµÎ¾Î±Î³ÏīÎ³ÎµÏĤ": 5329,
      "ÏĨÎµÎ¹Î±": 5330,
      "ÏĢÏĦÎ¿Î½": 5331,
      "Ġ1979": 5332,
      "Ġbo": 5333,
      "uz": 5334,
      "ĠÏĥÏĩÎµÏĥÎ·ÏĤ": 5335,
      "ĠÎµÎ¾ÎµÏĦÎ±ÏĥÎµÎ¹": 5336,
      "Ġ166": 5337,
      "ĠÎ´Î±ÏĥÎ¼Î¿ÏħÏĤ": 5338,
      "ĠÎ¼ÎµÏĦÎ±Î½Î±": 5339,
      "ĠÏģÎ¸": 5340,
      "Ġinternational": 5341,
      "ĠÎµÎ½ÏīÏĥÎ·Ïĥ": 5342,
      "ÎºÏħÏĪÎµ": 5343,
      "ĠÏĩÎ±ÏģÎ±ÎºÏĦÎ·ÏģÎ±ÏĤ": 5344,
      "ĠÏĥÎµÎ½Î³ÎºÎµÎ½": 5345,
      "ĠÏħÏĢÎ¿Î´ÎµÎ¹Î³Î¼Î±ÏĦÎ±": 5346,
      "ĠÎºÎ±Î»Î·": 5347,
      "ĠÎºÎ±ÏĦÎ±Î»Î»Î·Î»Î·": 5348,
      "ĠÎµÎ¹ÏĥÎ¿Î´Î·Î¼Î±ÏĦÎ¿ÏĤ": 5349,
      "ĠÎ±ÏĢÎ¿Î´ÎµÎ¹ÏĩÎ¸ÎµÎ¹": 5350,
      "ĠÎºÎ±Î»Î±": 5351,
      "ÏĦÏģÎ¹ÎºÎµÏĤ": 5352,
      "Î½Î¹ÎºÎ¿Ïħ": 5353,
      "ĠÎ±Î¸Î·": 5354,
      "ĠÎµÏĢÏī": 5355,
      "Ġeuropean": 5356,
      "ĠÎ±Î»Î¹ÎµÏħÏĦÎ¹ÎºÎµÏĤ": 5357,
      "ĠÎµÎºÎ¸ÎµÏĥÎ·ÏĤ": 5358,
      "ĠÎµÎ¹ÏĥÏĨÎ¿ÏģÎµÏĤ": 5359,
      "Ġwh": 5360,
      "Î»Î·ÏĨÎ¸ÎµÎ¹": 5361,
      "ĠÎ´Î¹Î±ÏĦÏħÏĢÏīÎ½": 5362,
      "Î¼Î²ÏģÎ¹Î¿": 5363,
      "ĠÎ»Î±Î²Î¿ÏħÎ½": 5364,
      "ĠÎ¼Î·ÎºÎ¿ÏĤ": 5365,
      "ĠÎ¿Î¹ÎºÎµÎ¹Î±": 5366,
      "Ġsy": 5367,
      "Ġetqx": 5368,
      "ĠÏĢÏģÎ¿ÏĥÏĩÏīÏģÎ·ÏĥÎ·": 5369,
      "47": 5370,
      "ĠÎµÏĢÎ¹ÏĥÏĦÏģÎµ": 5371,
      "ĠÎ±ÎºÏģÎ¿": 5372,
      "ĠÏĢÏģÎ¿ÎºÎ±Î»Îµ": 5373,
      "ĠÏĢÏģÎ±ÎºÏĦÎ¹ÎºÎ·ÏĤ": 5374,
      "ĠÎ´Î¹Î±ÏĢÏģÎ±Î³Î¼Î±ÏĦÎµÏħÏĥÎµÎ¹ÏĤ": 5375,
      "ĠÎ±ÏĢÎµÏģÏģÎ¹ÏĪÎµ": 5376,
      "ĠÏĢÎ¿ÏĥÎ¿ÏĥÏĦÏīÏĥÎ·": 5377,
      "ĠÏĢÎ¿Î»Î¹ÏĦÎµÏĤ": 5378,
      "ĠÎ²Î¿Î·Î¸ÎµÎ¹Î±ÏĤ": 5379,
      "ĠÎµÎ½ÏĥÏĦÎ±ÏĥÎ·": 5380,
      "ĠÏħÏĨÎ¹Ïĥ": 5381,
      "Ġproduc": 5382,
      "ĠÎ¿Î¹ÎºÎ¿Î½Î¿Î¼Î¹Î±": 5383,
      "ĠÎ½Î¿Î¼Î¹ÎºÎ¿Ïħ": 5384,
      "Ġspa": 5385,
      "ĠÎµÎ¾Î±ÏĥÏĨÎ±Î»Î¹Î¶Î¿ÏħÎ½": 5386,
      "ĠÏħÏĢÎ¿ÏĥÏĦÎ·ÏģÎ¹Î¶Î¿ÏħÎ½": 5387,
      "Ġ1408": 5388,
      "ĠÏĦÎ±Ïĥ": 5389,
      "ĠÏĩÏħ": 5390,
      "ĠÎ´Î¹ÎºÏĦÏħÏīÎ½": 5391,
      "ĠÏĪÎ·ÏĨÎ¹Ïĥ": 5392,
      "ĠÎµÏħÏģÎµÏĥÎ¹ÏĦÎµÏĩÎ½Î¹Î±ÏĤ": 5393,
      "ĠÎºÎ±Î¸Î¹ÏĥÏĦÎ±": 5394,
      "ĠÏĩÎ¿ÏģÎ·Î³Î·ÏĥÎµÏīÏĤ": 5395,
      "ÎºÎ¹Î¿Ïħ": 5396,
      "ĠÎµÎ³ÎºÏģÎ¹Î¸ÎµÎ¹": 5397,
      "Î»Î¹Î½": 5398,
      "ĠÏĩÏģÎ·ÏĥÎ¹": 5399,
      "ĠÏĦÎ¿ÏĢÎ¿ÏĤ": 5400,
      "ĠÏĥÎºÎµÎ»Î¿ÏĤ": 5401,
      "ĠÏĥÏħÎ½Î¿Î»Î¹ÎºÎ¿Ïħ": 5402,
      "ĠÏĢÎ¿Î»ÏħÎ¼Îµ": 5403,
      "ĠÎ¼ÎµÏĥÎ¿Ïħ": 5404,
      "Ġ388": 5405,
      "ĠÎ¶ÏīÎ±": 5406,
      "ĠÎµÏĢÎ±Î½ÎµÎ¾ÎµÏĦÎ±ÏĥÎ·": 5407,
      "ĠÎ¿Î»Î¿ÎºÎ»Î·ÏģÎ¿Ïħ": 5408,
      "ĠÏĢÎµÏģÎ¹Î»Î·ÏĪÎ·": 5409,
      "ĠÎ±Î½ÏĦÎ¹ÏĥÏĦÎ¿Î¹ÏĩÏīÏĤ": 5410,
      "ĠÏĥÎºÎµÏĢÏĦÎ¹ÎºÎ¿": 5411,
      "ĠÎºÎ±ÏĦÎ±ÏĥÎºÎµÏħÎ±ÏĥÏĦÎ·": 5412,
      "Î¿Î½ÏĦÎ±Î½": 5413,
      "ack": 5414,
      "ĠÏĥÏħÎ³ÎºÎµÎºÏģÎ¹Î¼ÎµÎ½ÎµÏĤ": 5415,
      "ĠÏĢÎ¹ÏĥÏĦÎ¿ÏĢÎ¿Î¹Î·ÏĦÎ¹ÎºÏīÎ½": 5416,
      "Ġgro": 5417,
      "emb": 5418,
      "ĠÏĨÎ±Î¹Î½ÎµÏĦÎ±Î¹": 5419,
      "Î²Î±ÏĥÎµÏīÎ½": 5420,
      "ww": 5421,
      "ÏĩÎµÏħ": 5422,
      "ino": 5423,
      "ĠÎµÏĢÎ¹Î´Î¹ÎºÎ·": 5424,
      "ĠÎºÎ±Î½Î¿Î½Î±ÏĤ": 5425,
      "ĠÎ´ÎµÎ¿Î½ÏĦÏīÏĤ": 5426,
      "ĠÎºÎµÎ½ÏĦÏģÎ¹ÎºÎ·": 5427,
      "ĠÎµÏģÎ³Î¿Î´Î¿ÏĦÎ·": 5428,
      "ĠÏĦÏģÎµÏĩÎ¿Ïħ": 5429,
      "ĠÏĢÏģÎ¿ÏĥÎµÎ³Î³Î¹Ïĥ": 5430,
      "ĠÏĦÎ¹ÏĦÎ»Î¿ÏĤ": 5431,
      "ĠÂ°": 5432,
      "Ġoi": 5433,
      "ĠÎµÎ½Î±Î³Î¿Î½": 5434,
      "ĠÎ±ÏĢÎµÏħÎ¸ÏħÎ½ÎµÏĦÎ±Î¹": 5435,
      "aft": 5436,
      "Ġimport": 5437,
      "ĠÏĦÎ·Î»ÎµÏĨÏīÎ½": 5438,
      "ĠÏĢÎµÏģÎ¹ÎµÎºÏĦÎ¹ÎºÎ¿ÏĦÎ·ÏĦÎ±": 5439,
      "Ġus": 5440,
      "Ġminister": 5441,
      "ĠÎ¹ÏĥÏĩÏħÏģÎ¹ÏĥÎ¼Î¿Î¹": 5442,
      "Ġhu": 5443,
      "ĠÎµÎ¾Î±Î³ÏīÎ³ÎµÎ¹ÏĤ": 5444,
      "ade": 5445,
      "ĠÎµÎ¾Î¿ÏħÏĥÎ¹Î¿Î´Î¿ÏĦÎ·": 5446,
      "ÏĦÎµÎ¹Î½ÎµÏĦÎ±Î¹": 5447,
      "ĠÎ±Î½Î±Î´Î¹Î±ÏģÎ¸": 5448,
      "ĠÏĥÏħÎ³ÎºÏģÎ¿": 5449,
      "ĠÎµÏĢÎµÎºÏĦÎ±ÏĥÎ·": 5450,
      "Ġexcl": 5451,
      "ĠÎ±Î½Î¿Î¹Î³Î¼Î±": 5452,
      "ĠÎ¿ÏģÎ¹ÏĥÏĦÎ¹ÎºÎ·": 5453,
      "Ġconc": 5454,
      "Ġaf": 5455,
      "ĠÏĩÎ¿ÏģÎ·Î³Î¿ÏħÎ½ÏĦÎ±Î¹": 5456,
      "ĠÎ±ÏĢÎ±Î³Î¿ÏģÎµÏħÎµÎ¹": 5457,
      "ĠÎµÎ¾ÎµÏĦÎ±ÏĥÏĦÎµÎ¹": 5458,
      "ĠÎºÎ±ÏĦÎ±Î´Î¹ÎºÎ±Î¶ÎµÎ¹": 5459,
      "ĠÎµÎ½Î±ÏģÎ¼Î¿Î½Î¹ÏĥÎ·": 5460,
      "Î½Î¹ÎºÎ¿": 5461,
      "ĠÎ´Î±ÏĥÎ¼Î¿Î¹": 5462,
      "32": 5463,
      "Ġ169": 5464,
      "ĠÎºÎ±Î½Î¿Î½Î¹ÏĥÎ¼Î¿ÏħÏĤ": 5465,
      "ica": 5466,
      "ĠÎºÎµÎºÏĦÎ·": 5467,
      "ÏĦÏģÎ¹ÎºÏīÎ½": 5468,
      "ĠÎºÎ»Î±Î´Î¿": 5469,
      "ĠÎ±ÏĢÎ¿ÏĦÎµÎ»ÎµÎ¹ÏĦÎ±Î¹": 5470,
      "ĠÎ±ÏģÎºÎµ": 5471,
      "ata": 5472,
      "Î¼ÏĢÎ¿": 5473,
      "ĠÏĨÎ±ÏģÎ¼Î±ÎºÎµÏħ": 5474,
      "ĠÎµÏĢÎ¹Î²Î±Î»Î»Î¿Î½ÏĦÎ±Î¹": 5475,
      "Î´ÎµÎ¹Îº": 5476,
      "ĠÎ´Î¹Î±ÏĢÎ¹ÏĥÏĦÏīÏĥÎµ": 5477,
      "ĠÎ¼Î·ÏĦÏģÏīÎ¿": 5478,
      "Î¼Î±ÏĦÎ¹ÎºÎµÏĤ": 5479,
      "ĠÏĥÎµÏīÎ½": 5480,
      "Î¸ÏģÎ±": 5481,
      "Î»ÎµÎ¹ÏīÎ½": 5482,
      "ĠÎ½Î¿Î¼Î¹Î¼Î¿ÏĦÎ·ÏĦÎ±ÏĤ": 5483,
      "ĠÎµÎ¹Î´": 5484,
      "Î¼Î·Î½Î¿": 5485,
      "ĠÎ¼ÎµÏĦÎ±ÏģÏģÏħÎ¸Î¼Î¹Ïĥ": 5486,
      "ĠÎ·Î¼ÎµÏģÎ·": 5487,
      "ĠÎ´Î¹ÎµÎ½ÎµÏģÎ³ÎµÎ¹Î±": 5488,
      "ign": 5489,
      "ĠÎ´Î¿ÎºÎ¹Î¼ÏīÎ½": 5490,
      "assif": 5491,
      "ÎºÏĦÏīÎ½": 5492,
      "man": 5493,
      "ĠÎ¼Î±Î»Î±": 5494,
      "ĠÏĦÎ±ÏħÏĦÎ¿ÏĩÏģÎ¿Î½Î±": 5495,
      "ĠÏĨÏħÏĥÎ¹ÎºÎ¿Ïħ": 5496,
      "ace": 5497,
      "Ġjaso": 5498,
      "ly": 5499,
      "ĠÎ±ÏĢÎ¿ÎºÏĦÎ·ÏĥÎ·": 5500,
      "ĠÎµÏĢÎ¹ÏĥÎ·Î¼Î±Î½Îµ": 5501,
      "ĠÏĥÏħÎ½Î´ÎµÎµÏĦÎ±Î¹": 5502,
      "ĠÎ³Î¹Î½Î¿Î½ÏĦÎ±Î¹": 5503,
      "Î¿Î½ÏĦÎ¿ÏĤ": 5504,
      "ĠÎ±ÏģÎ½Î·ÏĥÎ·": 5505,
      "ĠÏĢÎ±ÏģÎ±ÏĦÎ¹Î¸ÎµÎ½ÏĦÎ±Î¹": 5506,
      "ĠÎ±ÎºÏģÎ¹Î²ÏīÏĤ": 5507,
      "ĠÎ±ÎµÏģÎ¿Î¼ÎµÏĦÎ±ÏĨÎ¿": 5508,
      "Î³ÏģÎ±ÏĨÎ¹Î±": 5509,
      "ĠÎºÎ±Î¸Î·": 5510,
      "ĠÎ±ÎºÎ±ÏĦÎµÏģÎ³Î±Ïĥ": 5511,
      "ĠÏĢÎ¿Î»Î¹ÏĦÎµÎ¹": 5512,
      "ĠÏĢÏģÎ¿Î¿ÏģÎ¹Î¶ÎµÏĦÎ±Î¹": 5513,
      "ĠÏĦÏģÎ±ÏĢÎµÎ¶Î±": 5514,
      "Ġek": 5515,
      "ĠÏĦÎµÏĦÏģÎ±": 5516,
      "ÏĦÎµÏģÎ¿ÏĤ": 5517,
      "ĠÎ´Î¹ÎµÎ¸Î½ÎµÏĤ": 5518,
      "ĠÎ´Î¹Î±ÏĥÏĨÎ±Î»Î¹ÏĥÏĦÎµÎ¹": 5519,
      "ĠÎµÎ¼ÏĢÎ¿ÏģÎ¹ÎºÎ·ÏĤ": 5520,
      "ĠÎµÏĢÎ¹ÏĥÎ·Î¼Î±Î¹Î½ÎµÎ¹": 5521,
      "ota": 5522,
      "ĠÏĥÏħÎ½Î¸ÎµÏĥÎ·": 5523,
      "ÏĦÏīÎ½ÏĦÎ±ÏĤ": 5524,
      "ĠÎµÎ½ÎµÏģÎ³Î¿": 5525,
      "ĠÏĢÎµÏģÎ¹Î³ÏģÎ±ÏĨÎµÏĦÎ±Î¹": 5526,
      "ĠÎµÏĢÎ¿ÏĢÏĦÎµÎ¹Î±ÏĤ": 5527,
      "ĠÎ±Î½Î·ÎºÎ¿ÏħÎ½": 5528,
      "Ġrs": 5529,
      "Ġtribunal": 5530,
      "ĠÏĢÏģÎ¿ÏĥÏĦÎ¹Î¼Î¿": 5531,
      "Ġpqor": 5532,
      "ĠÎ±Î½Î±Î½ÎµÏī": 5533,
      "35": 5534,
      "84": 5535,
      "Î¹Î¿ÏĦÎ·ÏĦÎ±": 5536,
      "Î½Î·ÏĥÎ·": 5537,
      "ĠÎ»Î¿Î¹ÏĢÎµÏĤ": 5538,
      "ĠÏĢÏģÎ¿ÏĥÎ²Î¿Î»Î·": 5539,
      "ĠÎ±ÏģÎ¼Î¿Î´Î¹Î¿ÏĦÎ·ÏĦÏīÎ½": 5540,
      "Î¹ÏģÎ¿": 5541,
      "ini": 5542,
      "ĠÏĩÏīÏģÎ¿Ïħ": 5543,
      "Ġnational": 5544,
      "ĠÏĢÎµÏģÎ¹ÎµÏĩÎ¿Î½ÏĦÎ±Î¹": 5545,
      "ĠÎµÏĢÎ¹ÏģÏģÎ¿Î·": 5546,
      "Î¹ÏīÏĥÎ·ÏĤ": 5547,
      "ĠÏĢÏģÎ¿ÏĥÎ±ÏģÎ¼Î¿ÏĥÎ¼ÎµÎ½Î¿": 5548,
      "Î¶Î±": 5549,
      "ĠÎ¼Î·Î½Ïħ": 5550,
      "tive": 5551,
      "ĠÎ±Î½Î±Î¹ÏģÎµÏĥÎ·": 5552,
      "ĠÎµÎ½Î¹Î±Î¹Î±": 5553,
      "ĠÎ±ÏĢÎ¿ÏĥÏħ": 5554,
      "ĠÎ½Î¿Î¼Î¿Î»Î¿Î³Î¹Î±ÏĤ": 5555,
      "ÏĩÏģÎ·Î¼Î±ÏĦÎ¿Î´Î¿": 5556,
      "ĠÎ±ÏĦÏħÏĩÎ·": 5557,
      "ĠÎ´Î·Î¼Î¿ÏĥÎ¹Î¿Î½Î¿Î¼Î¹ÎºÎ¿": 5558,
      "Ġtel": 5559,
      "ĠÏħÏĢÎ¿ÏĥÏĦÎµÎ¹": 5560,
      "ĠÏħÏĢÎµÏģÎ²Î±Î¹Î½Î¿ÏħÎ½": 5561,
      "Ġprot": 5562,
      "ĠÎµÎºÏĢÎ¿Î¼ÏĢÎµÏĤ": 5563,
      "oj": 5564,
      "ĠÎ³ÎµÏīÎ³ÏģÎ±ÏĨÎ¹ÎºÎ·": 5565,
      "ĠÏĦÎ¹Î¼Î¿": 5566,
      "ĠÎ´Î¹Î±ÎºÏħÎ²ÎµÏģÎ½Î·": 5567,
      "ĠÎµÏģÎ¼Î·Î½ÎµÏħÎ¸ÎµÎ¹": 5568,
      "Ġapp": 5569,
      "ĠÏĩÏģÎ¿Î½Î¹Î±": 5570,
      "80": 5571,
      "Ġ130": 5572,
      "ĠÏĢÎ±ÏģÎ±ÏĦÎ±": 5573,
      "ÏĦÏĦÎ·": 5574,
      "ĠÎµÏħÎ±Î¹ÏĥÎ¸Î·": 5575,
      "ĠÎºÎ±ÏĦÎ±ÏĥÏĦÎ±ÏĥÎµÎ¹ÏĤ": 5576,
      "ĠÏĢÎ¿ÏĥÎ¿ÏĥÏĦÏīÏĥÎ·ÏĤ": 5577,
      "ĠÎ¸ÎµÏģÎ¼Î¿ÎºÏģÎ±": 5578,
      "ĠÎºÎ±ÏĦÎ±ÏģÎ³": 5579,
      "Ġsi": 5580,
      "ĠÎ¸Î¹Î³ÎµÎ¹": 5581,
      "ĠÎ´Î¹Î±ÏĩÏī": 5582,
      "ĠÎ±Î½ÏĦÎ¹Î³ÏģÎ±ÏĨÎ¿": 5583,
      "Ġregul": 5584,
      "91": 5585,
      "qop": 5586,
      "ĠÎ±ÏħÏĦÎ¿Î¼Î±": 5587,
      "ĠÎ´Î¹Î±Î¸ÎµÏĥÎ¹Î¼Î¿": 5588,
      "ÎºÎ¹Î½": 5589,
      "ÏħÏĢÎ¿": 5590,
      "ĠÏĢÎ±ÏģÎ±ÏĦÏħÏĢ": 5591,
      "ĠÎ´Î±ÏĥÎ¼Î¿Î»Î¿Î³Î¹ÎºÎ·": 5592,
      "ÎºÏĦÎ¹ÎºÎ¿Ïħ": 5593,
      "ĠÎ¿Î¼Î¹Î»Î¿Ïħ": 5594,
      "ĠÎ¼ÎµÎ³ÎµÎ¸Î¿ÏĤ": 5595,
      "ĠÎ¼ÎµÏĦÎ±ÏĢÎ¿Î¹Î·ÏĥÎ·": 5596,
      "ĠÏĥÏħÎ½Î±ÏĨÎ¸ÎµÎ¹": 5597,
      "ĠÏĦÏħÏĢÏīÎ½": 5598,
      "chn": 5599,
      "ĠÎµÎ½ÏĦÎ±Ïĥ": 5600,
      "ĠÏĢÎµÎ½ÏĦÎ±": 5601,
      "ĠÎ±Î½ÏĦÎ¹ÏĥÏĦÎ¿Î¹ÏĩÎ¿ÏħÎ½": 5602,
      "Î½Î±ÏĦÎ¿Î»Î¹Ïĥ": 5603,
      "ĠÏĥÏĩÎ·Î¼Î±": 5604,
      "ĠÎ±Î½Î±Î»Î¿Î³ÏīÏĤ": 5605,
      "Î¿ÏħÎ¼Îµ": 5606,
      "ĠÎµÎ¾ÏīÏĦÎµÏģÎ¹ÎºÏīÎ½": 5607,
      "ĠÏĢÎµÏģÎ¹ÎµÎºÏĦÎ¹ÎºÎ¿ÏĦÎ·ÏĦÎ±ÏĤ": 5608,
      "Ġenerg": 5609,
      "Ġsal": 5610,
      "sh": 5611,
      "ĠÏĥÏħÎ¼ÏĨÏīÎ½Î¿ÏħÎ½": 5612,
      "ĠÎ±ÏĦÎ¿Î¼ÏīÎ½": 5613,
      "ĠÏĢÏģÎ¿ÏĥÏĦÎ¹Î¸ÎµÏĦÎ±Î¹": 5614,
      "Ġjur": 5615,
      "ĠÏģÎ¿Î»Î¿": 5616,
      "Î¹ÎºÎµ": 5617,
      "Ġpaq": 5618,
      "Ġil": 5619,
      "ĠÎ¿Î¹ÎºÎµÎ¹Î¿Ïħ": 5620,
      "ÏģÏīÎ½Î¿Î½ÏĦÎ±Î¹": 5621,
      "ĠÏĥÏħÎ½ÏĦÎ¿Î½Î¹ÏĥÎ¼Î¿Ïħ": 5622,
      "ĠÎ´ÎµÎ¹Î³Î¼Î±ÏĦÎ¿": 5623,
      "ÏģÏħÎ½ÏĥÎ·": 5624,
      "ĠÏĢÎ±Î½ÎµÏĢÎ¹ÏĥÏĦÎ·": 5625,
      "ÏĢÏģÎ¿ÏĥÎ±": 5626,
      "ĠÏĩÎ¿Î¹": 5627,
      "ĠÏĢÏģÎ¿ÎµÎ´ÏģÎ¿Ïħ": 5628,
      "ĠÏĦÎ¹Î¸ÎµÏĦÎ±Î¹": 5629,
      "ĠÄ±": 5630,
      "ĠÏĢÎ·Î³Î·": 5631,
      "ĠÎºÏģÎ±ÏĦÎ¹ÎºÏīÎ½": 5632,
      "ĠÎµÎ¹Î´Î¹ÎºÎ¿Ïħ": 5633,
      "ĠÏĢÏīÎ»Î·ÏĥÎµÏīÏĤ": 5634,
      "ĠÎ¿Î¹ÎºÎ¿Î½Î¿Î¼Î¹ÎºÎ±": 5635,
      "ĠÎµÎ¸Î½ÏīÎ½": 5636,
      "ĠÏĢÏģÎ±ÏĥÎ¹": 5637,
      "ĠÏħÏĢÎ¿Î¼Î½Î·ÏĥÎ¸ÎµÎ¹": 5638,
      "Î±Î½ÏĦ": 5639,
      "ĠÏĢÎ¿Îµ": 5640,
      "ÏģÎ¿ÏĦÎ·ÏĦÎ±": 5641,
      "Ġadmin": 5642,
      "ĠÏĥÏħÎ½ÏĦÎ±Î¾Î·": 5643,
      "ĠÎ´Î¹Î±Î²Î¹Î²Î±Ïĥ": 5644,
      "ĠÏĥÏħÎ¼ÏĢÏģÎ±Î¾Î·": 5645,
      "att": 5646,
      "Ġak": 5647,
      "Ġ250": 5648,
      "Î¸ÎµÎ¹ÏĤ": 5649,
      "Ġoff": 5650,
      "ĠÎ±Î»Î¹ÎµÏħÎ¼Î±ÏĦÏīÎ½": 5651,
      "Ġetqxpa": 5652,
      "Ġli": 5653,
      "ĠÏĥÏħÎ¼Î¼Î¿ÏģÏĨÏīÎ½": 5654,
      "Ġche": 5655,
      "ĠÏħÏĢÎ¿Î¼Î½Î·Î¼Î±": 5656,
      "Î»Î±Î¹Î¿Ïħ": 5657,
      "ĠÎ±Î½ÎµÏĢÏĦÏħ": 5658,
      "be": 5659,
      "ĠÎ´Î¹Î±ÏĨÎ¿ÏģÎ¿": 5660,
      "ĠÏĢÏģÎ¿Î´Î¹ÎºÎ±ÏĥÏĦÎ¹ÎºÎ·": 5661,
      "ĠÎ±ÏģÎ¼Î¿Î´Î¹Î¿ÏĦÎ·ÏĦÎµÏĤ": 5662,
      "ĠÎ¿Îµ": 5663,
      "ĠÏĩÏģÎ·Î¼Î±ÏĦÎ¿Î´Î¿ÏĦÎ¹ÎºÎ·ÏĤ": 5664,
      "ĠÎµÎºÏĨÎ¿Ïģ": 5665,
      "ĠÏĢÎµÎ»Î±ÏĦÎµÏĤ": 5666,
      "ĠÎ»Î¿Î¹ÏĢÏīÎ½": 5667,
      "ĠÎ±ÏĢÎ¿ÎºÎ±ÏĦÎ±ÏĥÏĦÎ±ÏĥÎ·": 5668,
      "ĠÎ¿ÏģÎ¹Î¿Ïħ": 5669,
      "ĠÎºÎ¹Î½Î´ÏħÎ½Î¿ÏħÏĤ": 5670,
      "71": 5671,
      "atom": 5672,
      "ĠÏĢÎ»ÎµÎ¹Î¿ÏĪÎ·": 5673,
      "ĠÎ´Î¹Î±Î²Î¿ÏħÎ»ÎµÏħÏĥÎ·": 5674,
      "Î½Î¹ÎºÎµÏĤ": 5675,
      "Ġter": 5676,
      "Î¸ÎµÎ¹ÏīÎ½": 5677,
      "ĠÏĢÏģÎ¿Î´Î¹ÎºÎ±ÏĥÏĦÎ¹ÎºÎ¿": 5678,
      "ĠÎ±Î½Î±ÎºÎ¿ÏĢÎ·ÏĤ": 5679,
      "Ġpo": 5680,
      "ĠÎ±Î¹ÏĦÎ¹Î±ÏĥÎ·": 5681,
      "ĠÏĦÎµÎ»ÎµÏħÏĦÎ±Î¹Î¿": 5682,
      "ĠÏĢÎµÏģÎ¹Î»Î±Î¼Î²Î±Î½Î¿Î¼ÎµÎ½ÏīÎ½": 5683,
      "Ġbg": 5684,
      "ĠÎ±Î½ÏĦÎ¹Î¸ÎµÏĦÎ±": 5685,
      "ĠÏĦÎ¿Î½Î¿Î¹": 5686,
      "ĠÏĢÏģÎ¿ÏĥÏĨÎ±": 5687,
      "ĠÎ»ÎµÎ¾ÎµÎ¹ÏĤ": 5688,
      "ÏģÎ¹ÎºÎµÏĤ": 5689,
      "Ġtra": 5690,
      "ĠÎ´Î¹Î±ÏĦÎ¹Î¸ÎµÎ½ÏĦÎ±Î¹": 5691,
      "Ġfre": 5692,
      "ats": 5693,
      "ĠÏĥÏħÎ½ÏĦÎ¿Î½Î¹ÏĥÎ¼Î¿": 5694,
      "ĠÎµÎ¹Î´Î¹ÎºÎ¿ÏħÏĤ": 5695,
      "ect": 5696,
      "ĠÎ±ÏĨÎ¿ÏģÎ¿ÏħÏĥÎµ": 5697,
      "Î´ÎµÎ¹ÎºÎ½Ïħ": 5698,
      "ĠÎ¹Î´Î¹Î±Î¹ÏĦÎµÏģÎ·": 5699,
      "ĠÎºÏģÎ¿Î±": 5700,
      "ĠÎ²Î±Î¼Î²Î±ÎºÎ¹": 5701,
      "Ġarticle": 5702,
      "Ġ117": 5703,
      "ĠetqxpaÃ¸j": 5704,
      "ĠÎ´Î¹Î±ÏĥÏĨÎ±Î»Î¹Î¶ÎµÎ¹": 5705,
      "ÏĥÏĦÎ¹ÎºÎ·": 5706,
      "ĠÎºÎ¿Îº": 5707,
      "ĠÏĦÎ¼Î·Î¼Î±ÏĦÎ±": 5708,
      "ĠÎ²ÎµÎ»Î³Î¹Î¿Ïħ": 5709,
      "ÏĦÏģÎµÏĤ": 5710,
      "Î¸Î±Î»": 5711,
      "ĠÎµÏĢÎµÎ¾Î·": 5712,
      "ĠÎ±ÏĢÎ¿Ïħ": 5713,
      "ĠÏħÏĨÎ¹ÏĥÏĦÎ±Î½ÏĦÎ±Î¹": 5714,
      "ÎºÎ¹Î¿": 5715,
      "ĠÎµÎ¹ÏĥÏĢÏģÎ±Î¾Î·": 5716,
      "ĠÏĢÎ¹ÏĥÏĦÎ¿ÏĢÎ¿Î¹Î·ÏĦÎ¹ÎºÎ±": 5717,
      "ĠÎºÎ¿Î¹Î½ÏīÎ½Î¹ÎºÏīÎ½": 5718,
      "ustri": 5719,
      "Î¹Î¼Î¿": 5720,
      "ret": 5721,
      "ĠÏĩÎ¿ÏģÎ·Î³Î·ÏĥÎ·ÏĤ": 5722,
      "ĠÎ¿ÏĨÎµÎ¹Î»ÎµÏĦÎ±Î¹": 5723,
      "Ġ2022": 5724,
      "Î´Î¿ÏħÎ½": 5725,
      "ĠÏĢÎ¿ÏģÏĦÎ¿Î³Î±Î»Î¹Î±": 5726,
      "ÏĦÎµÎ±": 5727,
      "ĠÏĩÏģÎ·ÏĥÎ¹Î¼Î¿ÏĢÎ¿Î¹ÎµÎ¹": 5728,
      "ĠÎ¿ÏĨÎµÎ»Î¿ÏĤ": 5729,
      "ĠÎ´Î¿ÎºÎ¹Î¼ÎµÏĤ": 5730,
      "ĠÏĢÎµÏģÎ¹Î¿Î´Î¿ÏħÏĤ": 5731,
      "ĠÎµÏĢÎ¹Î¼ÎµÏģÎ¿ÏħÏĤ": 5732,
      "ĠÎ´Î¹ÎºÎ±Î¹Î¿Î»Î¿Î³ÎµÎ¹ÏĦÎ±Î¹": 5733,
      "ĠÏĢÏģÏīÏĦÎ±": 5734,
      "ĠÏĥÏħÎ½ÏĦÎµÎ»ÎµÏĥÏĦÎ·ÏĤ": 5735,
      "Ġmet": 5736,
      "ĠÎ¸ÎµÏģÎ±": 5737,
      "Ġeuratom": 5738,
      "ĠÎ¹ÏģÎ»Î±Î½Î´Î¹Î±ÏĤ": 5739,
      "ĠÎ¼Î¿Î»Ïħ": 5740,
      "ĠÏĢÎ¿Î»ÏħÎµÏĦÎ¿ÏħÏĤ": 5741,
      "ĠÏĦÏģÎ¿ÏĢÎ¿ÏĤ": 5742,
      "ĠÎ±ÏĢÎ±Î¹ÏĦÎ¿ÏħÎ½": 5743,
      "ĠÎ¼ÎµÎ½Î¿": 5744,
      "ĠÏĢÏģÎ¿ÏĥÎºÎ»Î·ÏĥÎ·": 5745,
      "Ġrsg": 5746,
      "ĠÎ±ÏĥÎºÎ·ÏĥÎ·ÏĤ": 5747,
      "pc": 5748,
      "ĠÏĢÏģÎ¿ÏĥÎ±ÏģÎ¼Î¿Î³Î·ÏĤ": 5749,
      "ĠÏĢÏģÎ¿ÏħÏĢÎ¿Î¸ÎµÏĥÎµÏīÎ½": 5750,
      "ĠÎ¼Î·ÏĩÎ±Î½Î·": 5751,
      "ĠÏħÏĢÎ·ÎºÎ¿Î¿ÏħÏĤ": 5752,
      "ĠÏĢÏģÎ¿ÏĥÏĦÎ¹Î¼ÏīÎ½": 5753,
      "ĠÎµÎ³Î³ÎµÎ³ÏģÎ±Î¼": 5754,
      "ĠÏħÏĢÎ¿ÎºÎ±ÏĦÎ±ÏĥÏĦÎ·Î¼Î±": 5755,
      "ĠÎµÎ½ÏīÏĥÎµÎ¹ÏĤ": 5756,
      "ĠÎµÎ³ÎºÎ±ÏĦÎ±ÏĥÏĦÎ±ÏĥÎ·ÏĤ": 5757,
      "ĠÏħÏĢÎ¿Î¸ÎµÏĥÎµÏīÎ½": 5758,
      "pos": 5759,
      "ĠÏĥÏħÎ¼ÏĢÎµÏģÎ¹ÏĨÎ¿ÏģÎ±ÏĤ": 5760,
      "ĠÏĢÎµÏģÎ¹ÏĥÏĥÎ¿ÏĦÎµÏģÏīÎ½": 5761,
      "ĠÎ´Î¹ÎµÏħÎ¸ÏħÎ½ÏĦÎ·": 5762,
      "ĠÎ¹ÏĥÎ»Î±Î½": 5763,
      "Î¼Î¹ÏĥÎ·ÏĤ": 5764,
      "ÏĢÎ¿Î¹Î·ÏĥÎµÏīÏĤ": 5765,
      "ione": 5766,
      "ĠÏĢÎ±ÏģÎµÎ¼ÏĢÎ¹": 5767,
      "ĠÎ´Î¹Î±Î´Î¹ÎºÎ¿ÏĤ": 5768,
      "ĠÏĥÎµÎ²Î±Ïĥ": 5769,
      "ĠÎµÏĥÏīÏĦÎµÏģÎ¹ÎºÎ¿Ïħ": 5770,
      "ĠÏĥÏħÎ½Î¿Î»Î¹ÎºÎ±": 5771,
      "ĠÎ¸ÎµÏĥÏĢÎ¹ÏĥÎµÎ¹": 5772,
      "ĠÎµÎºÏĦÎ¹Î¼Ïī": 5773,
      "ĠÎ¿ÏħÎºÏģÎ±": 5774,
      "ÏĨÏģÎ±Ïĥ": 5775,
      "Ġwww": 5776,
      "ĠÎµÏĦÎ±Î¹ÏģÎ¹ÎºÎ·ÏĤ": 5777,
      "ĠÎºÏģÎ±ÏĦÎ¹ÎºÎ·": 5778,
      "ĠÎ±ÏĢÎ¿ÏĦÎµÎ»ÎµÏĥÎµÎ¹": 5779,
      "ĠÏĦÎ¿Î½Î¿ÏħÏĤ": 5780,
      "ĠÏĢÏģÎ¿Î²Î±Î»Î»ÎµÏĦÎ±Î¹": 5781,
      "ĠÏĢÏģÎ¿ÏĥÏĨÎ¿ÏģÎ±ÏĤ": 5782,
      "Ġsu": 5783,
      "ÏĦÏīÏĥÎ·ÏĤ": 5784,
      "ĠÏĥÎ±Î½": 5785,
      "ĠÎµÎ¶ÎµÏĥ": 5786,
      "ÏħÎ¾Î·": 5787,
      "Î»ÎµÎ¹ÏĦÎ¿ÏħÏģÎ³": 5788,
      "ĠÎ±ÏĢÎ±Î»Î»Î±Î³Î·ÏĤ": 5789,
      "ĠÎ´Î¹Î±ÏĦÏħÏĢÏīÏĥÎ·": 5790,
      "Ġ116": 5791,
      "ĠÎ¶ÏīÎ½ÎµÏĤ": 5792,
      "ĠÎµÎ³Î³ÏģÎ±ÏĨÎ·ÏĤ": 5793,
      "ĠÎ´Î¹Î±ÏĦÎ·ÏģÎµÎ¹": 5794,
      "hof": 5795,
      "ĠÎ±ÎºÎ¿ÏħÏĥÎµ": 5796,
      "ins": 5797,
      "ĠÎµÎºÏĦÎµÎ»ÎµÏĥÎ·ÏĤ": 5798,
      "ĠÎ±ÏĢÎ¿ÏĥÏĦÎ¿Î»Î·ÏĤ": 5799,
      "Î²Î¿Î»ÎµÏĤ": 5800,
      "ĠÎ²ÏģÎµÏĦÎ±Î½": 5801,
      "ĠÎºÏģÎµÎ±ÏĦÎ¿ÏĤ": 5802,
      "ĠÏĥÏħÎ³ÎºÎµÎºÏģÎ¹Î¼ÎµÎ½ÏīÎ½": 5803,
      "ĠÎµÎºÏĢÎ¿": 5804,
      "58": 5805,
      "ado": 5806,
      "Ġoq": 5807,
      "ĠÎ±ÏĢÎ¿ÏĦÎµÎ»ÎµÏĥÎ¼Î±ÏĦÎ¿ÏĤ": 5808,
      "ÏĪÏħÎ³": 5809,
      "ĠÎ³Î±Î»Î±ÎºÏĦÎ¿": 5810,
      "itor": 5811,
      "ĠÎºÎ±ÏĦÎ±Î»Î¿Î³Î¿Ïħ": 5812,
      "ĠÎ±Î½Î±Î¸ÎµÏĥÎ·": 5813,
      "Ġ234": 5814,
      "ĠÎµÏĢÎ¹ÎºÎ¿Î¹Î½ÏīÎ½Î¹Î±ÏĤ": 5815,
      "ax": 5816,
      "Ġ189": 5817,
      "ĠÎ¿Î»Î»Î±Î½Î´Î¹ÎºÎ·": 5818,
      "ĠÏĢÏĦÎ·": 5819,
      "ĠÎµÎ³ÎºÎ»Î·": 5820,
      "ĠÏĨÎ¿ÏģÎ¿ÏħÏĤ": 5821,
      "ĠÎ´Î¹ÎºÎ·Î³Î¿ÏģÎ¿ÏĤ": 5822,
      "ÏģÎ¹ÏĥÎµ": 5823,
      "ÏĦÎµÏģÎ¿ÏħÏĤ": 5824,
      "ĠÎ²Î·": 5825,
      "ĠÏħÏĢÎ±Î»Î»Î·Î»Î¿ÏħÏĤ": 5826,
      "ÏĥÎ¼Î¿ÏĤ": 5827,
      "gericht": 5828,
      "ĠÏĢÏģÎ¿ÎµÎ²Î±Î»Îµ": 5829,
      "Ġnot": 5830,
      "ĠÎµÏĦÎ·ÏĥÎ¹ÏīÏĤ": 5831,
      "ĠÎ´Î¹Î±ÏĢÎ¹ÏĥÏĦÏīÎ¸Î·ÎºÎµ": 5832,
      "ĠÎ´ÎµÏĥÎ¼ÎµÏħÏĦÎ¹ÎºÎ¿ÏĤ": 5833,
      "Ð²": 5834,
      "ĠÎ¿ÏĨÎµÎ¹Î»Î¿ÏħÎ½": 5835,
      "ĠÎ¿ÏģÏħ": 5836,
      "ÏģÎ¿ÏħÎ¼ÎµÎ½ÏīÎ½": 5837,
      "Î½ÎµÎ¶": 5838,
      "ano": 5839,
      "istr": 5840,
      "ĠÏĢÏīÎ»Î·ÏĥÎ·ÏĤ": 5841,
      "pr": 5842,
      "Î±ÏģÎ¸ÏģÎ¿": 5843,
      "ĠÏĢÎµÏģÎ¹Î³ÏģÎ±ÏĨÎ¿Î½ÏĦÎ±Î¹": 5844,
      "ĠÏĨÏħÎ»Î»Î±": 5845,
      "ĠÎµÏĢÎ¹ÎºÎ¿ÏħÏģÎ¹ÎºÏīÏĤ": 5846,
      "ĠÏĥÏħÎ½ÎµÎ½": 5847,
      "ĠÏĨÎ±ÎºÎµÎ»Î¿": 5848,
      "ĠÏĦÎ¿ÏĢÎ¿Ïħ": 5849,
      "ĠÎµÎ½Î´Ïħ": 5850,
      "ĠÎ±ÏĢÎ±ÏģÎ±Î´ÎµÎºÏĦÎ¿Ïħ": 5851,
      "ĠÏħÏĢÎµÏģÎ²Î¿": 5852,
      "ÏĥÏĥÎµÎ¹": 5853,
      "Î´ÎµÎ¹Î³": 5854,
      "ĠÎ´Î·Î¼Î·": 5855,
      "Ġpres": 5856,
      "ĠÎºÎ±ÏĦÎ±ÏģÏĩÎ±ÏĤ": 5857,
      "ĠÎ±ÏĢÎ¿ÏĥÏĦÎµ": 5858,
      "ĠÏĦÎµÏĦÎ¿Î¹Î¿Ïħ": 5859,
      "ĠÎ´Î¹Î±Î»Î¿Î³": 5860,
      "ĠÎ±Î¸Îµ": 5861,
      "ana": 5862,
      "ĠÎ²Î±ÏĥÎ¹ÎºÎµÏĤ": 5863,
      "ÏģÎ¹ÏĥÎ¼Î±ÏĦÎ±": 5864,
      "ĠÎ³ÎµÎ½Îµ": 5865,
      "52": 5866,
      "Ġfinal": 5867,
      "ĠÎ±ÏĢÎ¿ÏģÏģÎµÎµÎ¹": 5868,
      "ÏģÎ¹ÎºÎ¿Ïħ": 5869,
      "Î±Î¹": 5870,
      "ĠÏĢÏģÎ¿Î¸ÎµÏĥÎ·": 5871,
      "ler": 5872,
      "Î¶Î¿Î¼ÎµÎ½Î·": 5873,
      "ĠÎµÎ¹ÏĥÎ¿Î´Î·Î¼Î±": 5874,
      "ĠÎµÏĢÎ¹ÎºÏħÏģÏī": 5875,
      "ĠÎ¶Î·ÏĦÎ¿ÏħÎ½": 5876,
      "ĠÏĦÎ¿Î¹": 5877,
      "Ġepis": 5878,
      "Î½Î±ÎºÎ±": 5879,
      "ĠÎ±Î¾Î¹Ïī": 5880,
      "53": 5881,
      "ĠÎµÏģÎ³Î±Î¶Î¿Î¼ÎµÎ½Î¿Î¹": 5882,
      "ĠÏĪÎ·ÏĨ": 5883,
      "ĠÏĥÏħÎ½Î±ÏĨÎµÎ¹ÏĤ": 5884,
      "ĠÏĥÏħÎ³ÎºÎµÎºÏģÎ¹Î¼ÎµÎ½Î¿Ïħ": 5885,
      "ĠÎ±ÏĢÎ¿Î¸ÎµÎ¼Î±": 5886,
      "ĠÎ±Î»Î»Î·ÏĤ": 5887,
      "Î¸Î¹": 5888,
      "ĠÎµÏĢÎ¹Î´Î¹ÏīÎºÎ¿": 5889,
      "ĠÏħÏĨÎ¹ÏĥÏĦÎ±Î¼ÎµÎ½ÏīÎ½": 5890,
      "ey": 5891,
      "ĠÏħÎ»Î¹ÎºÎ±": 5892,
      "ĠÎºÎ±Î¸Î¿ÏģÎ¹ÏĥÎ¼Î¿ÏĤ": 5893,
      "ĠÏĥÏĦÎ·Î»Î·": 5894,
      "ĠÎµÎºÎ´Î¹Î´Î¿Î½ÏĦÎ±Î¹": 5895,
      "54": 5896,
      "ĠÎ¹ÎºÎ±Î½": 5897,
      "ÏĨÎ±ÏĥÎ·": 5898,
      "ĠÎµÎ¾ÎµÏĦÎ±Î¶ÎµÎ¹": 5899,
      "ĠÏĥÏĩÎ¿Î»Î¹Î±": 5900,
      "ĠÎ½Î¿Î¼Î¹ÏĥÎ¼Î±": 5901,
      "ĠÎ±ÏĢÎ±ÏĦÎ·ÏĤ": 5902,
      "ĠÏĦÎ±Î¾Î¹Î½Î¿Î¼Î·ÏĥÎ·": 5903,
      "ĠÏĢÏģÎ±Î³Î¼Î±ÏĦÎ¿ÏĢÎ¿Î¹Î·ÏĥÎ·": 5904,
      "ĠÎµÎ¾ÏħÎ³Î¹Î±": 5905,
      "ĠÏĢÏģÎ¿ÏĥÎ²Î±ÏĥÎµÏīÏĤ": 5906,
      "ĠÎ¼ÎµÎ³Î±Î»Î·": 5907,
      "lec": 5908,
      "ĠÏĥÏħÎ¼Î²Î±ÏĦÎ¿": 5909,
      "ĠÎ±Î»Î»Î±Î³ÎµÏĤ": 5910,
      "ĠÏĢÏģÎ¿ÏĥÏĨÎ¿ÏģÏīÎ½": 5911,
      "ĠÎµÎ¹ÏĥÏĨÎ¿ÏģÏīÎ½": 5912,
      "ĠÏĢÏģÎ¿ÏĥÎ±Î½Î±ÏĦÎ¿Î»Î¹Ïĥ": 5913,
      "ĠÏĥÏĦÏģÎ±ÏĦÎ·Î³Î¹ÎºÎ·": 5914,
      "Ð»": 5915,
      "Ġres": 5916,
      "ÏĦÎ·ÏģÎµÏĤ": 5917,
      "ĠÎºÎ±ÏĦÎµÏĪÏħÎ³": 5918,
      "ĠÎ±Î»Î¹ÎµÏħÏĦÎ¹ÎºÎ·": 5919,
      "ĠÏĢÏģÎ¿ÏĦÎµÏģÏīÎ½": 5920,
      "ĠÏĥÏħÎ½Î´ÎµÏĥÎ·": 5921,
      "ĠÏĢÎµÏģÎ¹Î¿ÏģÎ¹ÏĥÎ¼Î¿Î¹": 5922,
      "ĠÎºÎ±ÏĦÎ±ÏĦÎ±Î¾Î·": 5923,
      "ĠÏĦÎµÎºÎ¼Î·ÏģÎ¹": 5924,
      "ĠÎ´Î¹Î±Î½Î¿Î·": 5925,
      "ĠÎ³ÎµÎ½Î½Î·": 5926,
      "ĠÎ´Î¿ÎºÎ¹Î¼Î±": 5927,
      "ĠÏĥÏħÎ³ÎºÎµÎºÏģÎ¹Î¼ÎµÎ½Î·ÏĤ": 5928,
      "ĠÎ´Î¹Î±ÏĥÏĨÎ±Î»Î¹Î¶Î¿ÏħÎ½": 5929,
      "Ġgener": 5930,
      "Î¼Î·ÏĥÎ·ÏĤ": 5931,
      "ĠÎ¸Î·ÎºÎµ": 5932,
      "ĠÏĢÎµÏģÎ¹Î·Î»": 5933,
      "ĠÎµÏĦÎ±": 5934,
      "ĠÎ¼Î±ÏĦÎ¿ÏĤ": 5935,
      "Ġjoimos": 5936,
      "ĠÎ¸ÎµÏģ": 5937,
      "ba": 5938,
      "ĠÎºÎ»ÏĢ": 5939,
      "ĠÏĢÎ¿ÏĢ": 5940,
      "ĠÏĥÏĦÎ¿ÏĩÎ¿Ïħ": 5941,
      "ĠÎ´Î¹Î±Î²Î¿ÏħÎ»ÎµÏħÏĥÎµÏīÎ½": 5942,
      "ĠÎµÎ½ÎµÏģÎ³ÎµÎ¹ÏīÎ½": 5943,
      "ĠÎ½Î¿Î¼Î¹ÎºÎµÏĤ": 5944,
      "oÎ¹": 5945,
      "ĠÎ±ÏĥÏħÎ¼": 5946,
      "ĠÎµÎºÎ±Ïĩ": 5947,
      "gasxm": 5948,
      "ĠÏħÎ»Î¹ÎºÏīÎ½": 5949,
      "Ġâĸ": 5950,
      "ĠÏħÏĢÎ¿Î³ÏģÎ±Î¼Î¼": 5951,
      "ĠÎ¹ÏĥÏĢÎ±Î½Î¹ÎºÎ·": 5952,
      "ĠÎµÏĢÎ¹ÏĥÏĦÎ·Î¼Î¿": 5953,
      "ÏĦÏħÏĢÎ±": 5954,
      "ĠÏĦÎµÏĩÎ½Î¿Î»Î¿Î³Î¹Î±ÏĤ": 5955,
      "ĠÎ¿Î¹Î½Î¿": 5956,
      "ĠÎ±ÏĥÎºÎ·Î¸Î·ÎºÎµ": 5957,
      "ĠÎµÎ¾Î±Î³ÏīÎ³ÎµÎ±": 5958,
      "Ġ320": 5959,
      "ves": 5960,
      "age": 5961,
      "ĠÎµÏĨÎ±ÏģÎ¼Î¿ÏĥÎµÎ¹": 5962,
      "ĠÏħÏĢÎ¿ÏħÏģÎ³ÎµÎ¹Î¿Ïħ": 5963,
      "ont": 5964,
      "ĠÎ½ÎµÏģÎ¿": 5965,
      "ish": 5966,
      "ĠÏĢÎ¿Î»": 5967,
      "ĠÎºÎ±ÏĦÎ±Î½Î¿Î¼Î·ÏĤ": 5968,
      "ĠÏģÎ¹": 5969,
      "ĠÎ±Î¹ÏĦÏīÎ½": 5970,
      "ĠÎµÏĢÏīÏĨÎµ": 5971,
      "ĠÎµÎ¾Î·Î³Î·": 5972,
      "ĠÎ´Î¹Î±Î¼ÎµÏĥÎ¿": 5973,
      "tu": 5974,
      "ĠÎ¸ÎµÏĥÏĥÎ±": 5975,
      "ĠÎ±Î½Î±ÏĢÏģÎ¿ÏĥÎ±": 5976,
      "ĠÏħÎ´Î±ÏĦÏīÎ½": 5977,
      "ĠÎ´Î¹Î±Î¼Î¿ÏģÏĨ": 5978,
      "mer": 5979,
      "ĠÏĢÎ±ÏģÎ¿ÏħÏĥÎ¹Î±Î¶ÎµÎ¹": 5980,
      "ĠÎµÎ¾Î±Î³ÏīÎ³ÏīÎ½": 5981,
      "ĠÎµÏĢÎ¹ÎºÎ±Î¹ÏģÎ¿": 5982,
      "ĠÏĥÏħÎ³ÏĩÏħ": 5983,
      "ĠÎ´Î¹ÎºÎ±ÏĥÏĦÎ·ÏģÎ¹ÏīÎ½": 5984,
      "Ġ114": 5985,
      "Ġare": 5986,
      "ĠÎµÎºÏĦÎ¹Î¼Î·ÏĥÎµÎ¹ÏĤ": 5987,
      "ĠÎ´Î¹ÎºÎ±ÏĥÏĦÎ¹ÎºÎ·": 5988,
      "ĠÎµÎ»Î±ÏĨ": 5989,
      "ĠÏĥÏħÎ¼ÏĢÎµÏģÎ¹Î»Î±Î¼Î²Î±Î½Î¿Î¼ÎµÎ½Î¿Ïħ": 5990,
      "ĠÎ±Î½Î±ÎºÎ¿Î¹Î½ÏīÏĥÎµÏīÏĤ": 5991,
      "ĠÎ´Î±Î½Î¹Î±": 5992,
      "ĠÎ¼ÎµÎ³Î±Î»Î·ÏĤ": 5993,
      "ĠÎ²Î¹Î¿Î¼Î·ÏĩÎ±Î½Î¹Î±ÏĤ": 5994,
      "ĠÏĥÏħÏĥÏĦÎ±ÏĥÎµÎ¹ÏĤ": 5995,
      "ĠÎ¹Î´Î¹Î¿ÏħÏĤ": 5996,
      "Ġ218": 5997,
      "ĠÏĦÎµÎ¼Î±ÏĩÎ¹Î±": 5998,
      "ĠÎ±Î½ÏĦÎ¹ÏĥÏĦÎ¿Î¹ÏĩÎµÏĤ": 5999,
      "ĠÎ¾Î·": 6000,
      "ĠÏĢÎ±ÏģÎ¿Î¼Î¿Î¹ÎµÏĤ": 6001,
      "ĠÎµÏĢÎ¹Î²Î±ÏĦÏīÎ½": 6002,
      "ĠÎ»Î±Î¼Î²Î±Î½Î¿Î¼ÎµÎ½Î·ÏĤ": 6003,
      "Ġrep": 6004,
      "ÏĥÏĦÎ·ÏĥÎµÎ¹": 6005,
      "ĠÎ´Î¹ÎµÎ½ÎµÏģÎ³Î·": 6006,
      "Î¶Î±Î½": 6007,
      "ĠÏĢÎ±ÏģÎµÎ¼Î²Î±ÏĥÎ·": 6008,
      "ĠÏĢÏģÎ¿Î²Î»ÎµÏĨÎ¸ÎµÎ¹": 6009,
      "ep": 6010,
      "ĠÎµÎ¼ÏĢÎ»Îµ": 6011,
      "ĠÎ´Î¹ÎºÎ·Î³Î¿ÏģÎ¿Î¹": 6012,
      "ĠÏĥÎ·Î¼ÎµÎ¹ÏīÎ¸ÎµÎ¹": 6013,
      "ĠÎ´ÎµÎ¹ÎºÏĦÎµÏĤ": 6014,
      "ĠÎµÏĢÎµÎ¾Î·Î³Î·": 6015,
      "ĠÎµÏĢÎ¹ÎºÎ¿Î¹Î½ÏīÎ½Î¹ÏīÎ½": 6016,
      "ĠÎµÏĥÏīÏĦÎµÏģÎ¹ÎºÏīÎ½": 6017,
      "ĠÏħÏĥÏĦÎµÏģÏīÎ½": 6018,
      "ÏģÏĩÎ¿": 6019,
      "ĠÎ´Î¹ÎºÎ±ÏĥÏĦÎ·ÏģÎ¹Î±": 6020,
      "olog": 6021,
      "ĠÎµÎ¾Î±Î½ÏĦ": 6022,
      "ĠÏĢÎ±ÏģÎ±ÎºÎ±ÏĦÏī": 6023,
      "ĠÎ²Î±Î»": 6024,
      "ĠÏĢÎ¿ÏĥÎ¿ÏĥÏĦÏīÏĥÎµÎ¹ÏĤ": 6025,
      "ĠÎ±Î½ÎµÏĢÎ±Ïģ": 6026,
      "ĠÏģÏħÏĢÎ±Î½": 6027,
      "uss": 6028,
      "ĠÎºÎ±ÏĢÎ¿Î¹Î±": 6029,
      "ĠÎ·Î»ÎµÎºÏĦÏģÎ¿Î½Î¹ÎºÎ·": 6030,
      "Ê¼": 6031,
      "ĠÎµÎ¼ÏĢÎ¹ÏĥÏĦÎ¿ÏĥÏħÎ½Î·ÏĤ": 6032,
      "ĠÏĥÏĩÎµÏĥÎµÏīÎ½": 6033,
      "ĠÎµÏħÎµ": 6034,
      "ĠÎµÎ½Î½Î¿Î¼Î·": 6035,
      "ĠÏģÎ¹Î¿": 6036,
      "ĠÏĩÎ¹Î»Î¹Î¿": 6037,
      "ĠÏĢÎµÏģÎ¹Î¿ÏģÎ¹ÏĥÎ¼ÏīÎ½": 6038,
      "ĠÏģÎ¸ÏģÎ¿": 6039,
      "ĠÎ±Ê¹": 6040,
      "ĠÎ´ÎµÏĥÏĢÎ¿": 6041,
      "ĠÎ±Î½Î±Îº": 6042,
      "ĠÎ´Î¹ÎºÎ±Î¹Î¿ÏħÏĩÏīÎ½": 6043,
      "37": 6044,
      "Ġeconom": 6045,
      "Î¿Î¼ÎµÎ½ÏīÎ½": 6046,
      "Î¹ÏĥÏĦÎµÎ¹": 6047,
      "ĠÎµÏĢÎ¹Î´ÎµÎ¹": 6048,
      "ĠÎ³Î´": 6049,
      "ĠÎ´Î±ÏĥÎ¼Î¿ÏĤ": 6050,
      "ÎºÎ¹ÏĤ": 6051,
      "ĠÎ±ÎµÏģÎ¹ÏīÎ½": 6052,
      "ÎºÎµÏĪÎ·": 6053,
      "ĠÎ¹Î±ÏĢÏīÎ½": 6054,
      "Ġ$": 6055,
      "ĠÏħÏĪÎ·Î»Î·ÏĤ": 6056,
      "Ġdie": 6057,
      "ÏĥÏĦÏģÎ±": 6058,
      "ĠÎµÏģÎ³Î±ÏĥÎ¹": 6059,
      "ĠÎ¼Î±ÏĦÎ±": 6060,
      "ĠÏħÎ»Î¿ÏĢÎ¿Î¹Î·ÏĥÎ·ÏĤ": 6061,
      "ĠÎ´Î¹Î±ÏĥÎ±ÏĨÎ·": 6062,
      "ĠÏĨÎ¿ÏģÏīÎ½": 6063,
      "Ġcn": 6064,
      "ĠÎ·ÏĢÎ±": 6065,
      "ÏĥÎ¹Î¼ÎµÏĤ": 6066,
      "ĠÏĩÏģÎ¿Î½Î¹ÎºÎ·": 6067,
      "ĠÎ³ÎµÏīÏģÎ³Î¹Î±ÏĤ": 6068,
      "ĠÎµÎ»ÎµÎ³ÏĩÎ¿Î¹": 6069,
      "ĠÎµÏĨÎ±ÏģÎ¼Î¿ÏĥÏĦÎµÎ¹": 6070,
      "Ġcommunity": 6071,
      "ĠÎ³Î¹Î¿Ïħ": 6072,
      "Ġlim": 6073,
      "ĠÏĢÏģÎ¿Î²Î¿": 6074,
      "ĠÎºÎ±ÏĦÎ±Î½Îµ": 6075,
      "gal": 6076,
      "ĠÏĢÎ±ÏģÎ±Î²Î±ÏĥÎµÎ¹ÏĤ": 6077,
      "ĠÎµÏĢÎ¿ÏĢÏĦÎµÎ¹Î±": 6078,
      "Ġair": 6079,
      "ĠÏħÏĢÎ¿Î²Î±Î»Î»Î¿ÏħÎ½": 6080,
      "ĠÎ±Î½Î±Î³Î½ÏīÏģÎ¹ÏĥÎ·ÏĤ": 6081,
      "200": 6082,
      "ĠÎºÎ±ÏĦÎ±Î»Î»Î·Î»ÎµÏĤ": 6083,
      "ĠÎ±Î¾Î¹Î¿ÏĢÎ¹Ïĥ": 6084,
      "ĠÏĥÏħÎ½Î±ÏģÎ¼Î¿": 6085,
      "ĠÎ±ÎµÏģÎ±": 6086,
      "utsch": 6087,
      "ÏĦÎµÎ½": 6088,
      "ĠÎ¼Î±ÎºÏģÎ¿ÏĢÏģÎ¿Î¸ÎµÏĥ": 6089,
      "Ġlo": 6090,
      "ĠÎµÎ³ÎºÎ±Î¹": 6091,
      "ef": 6092,
      "ĠÏĦÏģÎ¿ÏĨÎ¹Î¼Î±": 6093,
      "ĠÎ¹ÏĩÎ¸Ïħ": 6094,
      "enz": 6095,
      "ĠÎµÏĥÏĨÎ±Î»Î¼ÎµÎ½Î·": 6096,
      "ĠÎ¼ÎµÏģÎ¹ÎºÎ·": 6097,
      "ĠÎ´Î¹Î±ÏĢÎ¹ÏĥÏĦÏīÏĥÎµÎ¹": 6098,
      "Ġ610": 6099,
      "60": 6100,
      "ÏģÎ¹ÏĥÏĦÎ·": 6101,
      "ĠÎºÎ±ÏĢÎ¿Î¹Î¿": 6102,
      "ĠÎ´Î¹Î±Î²Î±": 6103,
      "ĠÎµÎºÎºÏģÎµÎ¼ÎµÎ¹": 6104,
      "Ġport": 6105,
      "ĠÎ±ÎµÏģÎ¿Î»Î¹": 6106,
      "ĠÎ¿Î½ÏĦÎ¿ÏĦÎ·ÏĦÎµÏĤ": 6107,
      "ĠÎ´Î¹Ïī": 6108,
      "ĠÎ´Î¹Î±Î¼ÎµÏĥÎ¿Î»Î±Î²Î·": 6109,
      "ĠÎµÎ½Î´Î¹Î±ÏĨÎµÏģÎ¿Î¼ÎµÎ½Î¿Ïħ": 6110,
      "ĠÏĢÎµÏģÎ¹Î¿ÏĩÎ·ÏĤ": 6111,
      "Ġdo": 6112,
      "ĠÎ´Î¹Î±ÏĢÏģÎ±Î³Î¼Î±ÏĦÎµÏħÏĥÎµÏīÎ½": 6113,
      "ĠÎ²ÎµÎ½": 6114,
      "ĠÎ´Î¹Î±ÏĦÎ±Î³Î¼Î±": 6115,
      "Ġ138": 6116,
      "ĠÏĦÏħÏĢÎ¿ÏĤ": 6117,
      "ĠÎºÎ¿Î¹Î½ÏīÎ½Î¹ÎºÎ¿": 6118,
      "ĠÎ·Î¼ÎµÏģÎ¿Î»Î¿Î³Î¹Î±": 6119,
      "da": 6120,
      "ÏħÎ¼Î²Î±Î»Î»Î¿": 6121,
      "ĠÏħÏĢÎ±Î»Î»Î·Î»Î¿Ïħ": 6122,
      "ĠÎµÎ¾Î±ÏĥÏĨÎ±Î»Î¹Î¶ÎµÏĦÎ±Î¹": 6123,
      "ĠÎµÎ³Î³ÏħÎ·ÏĥÎµÏīÎ½": 6124,
      "ĠÏĨÎ¿ÏģÎ¿Î»Î¿Î³Î¹ÎºÎ·ÏĤ": 6125,
      "uh": 6126,
      "ĠÎ±Î¹ÏĦÎ¹Î¿Î»Î¿Î³Î·ÏĥÎµÏīÏĤ": 6127,
      "Ġ700": 6128,
      "Î¼Î¿ÏħÎ½": 6129,
      "ĠÎ¿Î¹Î½Î¿Î¹": 6130,
      "Î¹ÎºÎµÏĥ": 6131,
      "ĠÎ±Î½ÏĦÎ¹ÏĥÏħÎ¼Î²Î±Î»Î»Î¿": 6132,
      "ĠÎºÎ±Î»ÏħÏĢÏĦÎ¿ÏħÎ½": 6133,
      "ĠÎºÏħÏģÏīÏĥÎµÏīÎ½": 6134,
      "ÏħÎº": 6135,
      "ĠÏħÎ»Î·": 6136,
      "ĠÎµÎºÏĢÎ»Î·ÏģÏīÏĥÎ·": 6137,
      "ĠÏĢÎ¿ÏģÎ¿Î¹": 6138,
      "Ġother": 6139,
      "ĠÎµÎ¾Î¿ÏĢÎ»Î¹ÏĥÎ¼Î¿": 6140,
      "ĠÎµÎ»Î²ÎµÏĦÎ¹Î±": 6141,
      "ÏĥÏĦÎ±ÏĥÎµÏīÏĤ": 6142,
      "ĠÏĦÎµÏģÎ¼Î±": 6143,
      "ĠÏĨÎ±ÏģÎ¼Î±ÎºÏīÎ½": 6144,
      "ĠÎ¼ÎµÏĦÎ±Î²Î¹Î²Î±ÏĥÎ·": 6145,
      "ĠÎ²Î±ÏĥÎ¹ÎºÏīÎ½": 6146,
      "ĠÎ»Î±Î¼Î²Î±Î½Î¿Î¼ÎµÎ½Î¿Ïħ": 6147,
      "ĠÎ±ÏĢÎ±ÏģÎ±Î¹ÏĦÎ·ÏĦÎµÏĤ": 6148,
      "ĠÎ¼ÎµÏĦÎ±ÏĩÎµÎ¹ÏģÎ¹ÏĥÎ·ÏĤ": 6149,
      "ĠÎ¼ÎµÏĦÎ±Î½Î±ÏĥÏĦÎµ": 6150,
      "Ġna": 6151,
      "act": 6152,
      "ĠÎ±ÏĢÎ¿ÏĥÎºÎ¿ÏĢÎ¿ÏħÎ½": 6153,
      "ĠÎµÎ½Î´ÎµÏĩÎ¿Î¼ÎµÎ½Î¿": 6154,
      "ms": 6155,
      "ĠÎµÎºÎ´ÏīÏĥÎµÎ¹": 6156,
      "ÏĢÎµÏģÎ¹": 6157,
      "Ġsan": 6158,
      "ĠÎµÏĢÏīÎ½Ïħ": 6159,
      "ĠÏĥÏħÎ½Î¸ÎµÏĦÎ¹ÎºÎµÏĤ": 6160,
      "ĠÏĦÎµÎ»ÎµÎ¹": 6161,
      "ĠÏĥÏħÎ½Î±Î³ÎµÏĦÎ±Î¹": 6162,
      "ĠÎ´Î¹Î±ÏĦÎ±Î¾Î·ÏĤ": 6163,
      "ĠÎ´Î¹Î±ÏĨÎ¿ÏģÎµÏĦÎ¹ÎºÎµÏĤ": 6164,
      "ĠÎ¿Î½ÏĦÎ¿ÏĦÎ·ÏĦÎ±": 6165,
      "Ġber": 6166,
      "ĠÎ¿ÏģÎ³Î±Î½ÏīÏĥÎµÏīÏĤ": 6167,
      "Ġ123": 6168,
      "ĠÏĢÏģÎ±ÎºÏĦÎ¹ÎºÎ±": 6169,
      "ÎµÏĢÎ¹": 6170,
      "ĠÂ¬": 6171,
      "ĠÏĢÎ±ÏģÎ±Î´Î¿ÏĥÎ¹Î±": 6172,
      "ĠÎµÎ¼ÏĢÎµÎ¹ÏģÎ¿Î³Î½ÏīÎ¼Î¿Î½ÏīÎ½": 6173,
      "ĠÎ¼ÏĢ": 6174,
      "ĠÎ¶Ïħ": 6175,
      "Ġ178": 6176,
      "ĠÏĥÏħÎ½Î¿Î»Î¹ÎºÎ·ÏĤ": 6177,
      "ĠÏħÏĢÎ¿Î´Î¿Î¼Î·ÏĤ": 6178,
      "ĠÏĦÎµÏĩÎ½Î¹ÎºÎ±": 6179,
      "ĠÏĥÏĦÎ¿Î¹ÏĩÎµÎ¹Î¿Ïħ": 6180,
      "ĠÎºÎ¹Î½ÎµÎ¶": 6181,
      "ĠÎºÎ±Î¸ÏħÏĥÏĦÎµÏģÎ·ÏĥÎ·": 6182,
      "ĠÏĦÎµÏĦÎ¿Î¹Î±ÏĤ": 6183,
      "ĠÎ±ÎºÏĦÎ¹": 6184,
      "ĠÎºÎ±ÏĦÎ¿ÏĩÏħ": 6185,
      "Î¼Î¿Î¹ÏīÏĤ": 6186,
      "ĠÎ±Î»Î¹ÎµÏħÏĦÎ¹ÎºÎ·ÏĤ": 6187,
      "ĠÎµÎºÎ±ÏĦÎ¿Î¼Î¼ÏħÏģÎ¹Î±": 6188,
      "ĠÎµÎ¹ÏĥÎ±Î³Î¿": 6189,
      "ĠÏĥÏħÎ³ÎºÎ±ÏĦÎ±": 6190,
      "ater": 6191,
      "Î¼Î¹Î½": 6192,
      "ĠÎ´Î¹ÎµÏħÎºÏģÎ¹Î½Î¹Î¶ÎµÎ¹": 6193,
      "ĠÎ¸ÎµÏīÏģÎ·Î¸Î¿ÏħÎ½": 6194,
      "ĠÎºÎ±Î¸Î¿ÏģÎ¹Î¶Î¿ÏħÎ½": 6195,
      "ÏĥÎ¹Î¼ÏīÎ½": 6196,
      "Ġhttp": 6197,
      "ĠÎ·ÏĦÏĦÎ·": 6198,
      "ĠÎµÏĢÎ±Î½ÎµÎ¾ÎµÏĦÎ±ÏĥÎ·ÏĤ": 6199,
      "Ġ010": 6200,
      "ĠÎµÎ¾Î±ÎºÎ¿Î»Î¿ÏħÎ¸ÎµÎ¹": 6201,
      "ĠÎµÏĨÎ¿Î´Î¹Î±ÏĥÎ¼Î¿Ïħ": 6202,
      "Î³ÎµÎ¹Î±": 6203,
      "ÏģÎµÏĥ": 6204,
      "Ġpt": 6205,
      "ĠÎµÎ¾Î±Î³ÏīÎ³ÎµÎ±ÏĤ": 6206,
      "ĠÎ±ÏħÏĥÏĦÏģÎ¹Î±ÏĤ": 6207,
      "ĠÎ¼ÎµÎ»ÎµÏĦÎ·": 6208,
      "Ġpri": 6209,
      "ĠÎ±ÏĢÎ¿ÏĦÎµÎ»ÎµÏĥÎ¼Î±ÏĦÎ¹ÎºÎ¿ÏĦÎ·ÏĦÎ±ÏĤ": 6210,
      "istra": 6211,
      "ÏĩÎ¸Î·ÎºÎ±Î½": 6212,
      "ĠÎ²Î±ÏĥÎ¹ÎºÎ¿": 6213,
      "ĠÏħÏĢÎ¿Î´Î·": 6214,
      "ĠÎµÎºÏĦÎµÎ»ÎµÏĥÎµÏīÏĤ": 6215,
      "ĠÎ´Î·Î¼Î¿ÏĥÎ¹Î¿Î½Î¿Î¼Î¹ÎºÎµÏĤ": 6216,
      "ĠÎ±Î½Î±ÏĢÏģÎ¿ÏĥÎ±ÏģÎ¼Î¿": 6217,
      "ĠÏĢÏģÎ¿ÎµÎ»ÎµÏħÏĥÎµÏīÏĤ": 6218,
      "ĠÏħÏĢÎ¿ÏĩÏģÎµÏīÏĥÎ·ÏĤ": 6219,
      "ĠÎ½Î¿ÏĥÎ¿": 6220,
      "ĠÎºÎ±ÏĦÎµÎ¸ÎµÏĥÎµ": 6221,
      "Î¼Î¼ÎµÎ½Î±": 6222,
      "ĠÎ±ÏĢÎ¿ÎºÎ»ÎµÎ¹ÎµÎ¹": 6223,
      "ĠÎµÏħÏĩÎµÏģÎµÎ¹Î±": 6224,
      "ĠÎ»Î±ÏĩÎ±Î½": 6225,
      "Ġ1978": 6226,
      "ĠÎ²Î±ÏĥÎ¹Î¶Î¿Î½ÏĦÎ±Î¹": 6227,
      "ĠÏĥÏħÎ½Î±ÏģÏĦÎ·ÏĥÎ·": 6228,
      "Î¹Ïĩ": 6229,
      "ÏĢÎµÏģÎ±": 6230,
      "ĠÎºÎ±Î¸Î¹ÎµÏģÏī": 6231,
      "ĠÎµÏĢÎ¹ÏĨÎ±Î½ÎµÎ¹Î±": 6232,
      "ĠÏĦÎ±Î¼ÎµÎ¹Î±": 6233,
      "ques": 6234,
      "ĠÏĢÎ±ÏģÎ±Î¼Îµ": 6235,
      "ĠÏĢÏģÎ¿ÏĥÏĨÎµÏħÎ³Î¿Î½ÏĦÎ±": 6236,
      "ĠÎ´Î¹ÎºÎ±Î¹Î¿ÏħÏĩÎ¿Ïħ": 6237,
      "ĠÎ¼Ïħ": 6238,
      "Ġda": 6239,
      "ings": 6240,
      "Î²Î¹Î²Î±": 6241,
      "ijga": 6242,
      "ĠÎºÎ±ÏĦÏīÏĦÎ±": 6243,
      "ĠÎ±Î½Î±ÏĢÎ¿": 6244,
      "ĠÎ¼Î½ÎµÎ¹Î±": 6245,
      "ÎµÎ¹Î´Î¹Îº": 6246,
      "ĠÎ±Î´Î¹Î±": 6247,
      "ĠÏĢÏģÎ¿ÏĥÎ´Î¹Î¿ÏģÎ¹Î¶Î¿Î½ÏĦÎ±Î¹": 6248,
      "ĠÎµÎºÎµÎ¹Î½Î¿": 6249,
      "ĠÎ·Î¼ÎµÏģÎ¿Î¼Î·Î½Î¹Î±ÏĤ": 6250,
      "ÏĢÎ¿Î¹Î·Î¸ÎµÎ¹": 6251,
      "ÏģÎ¼Î±ÏĦÎ±": 6252,
      "Ġque": 6253,
      "ĠÏĢÏģÏīÏĦÎ¿Î´Î¹ÎºÎµÎ¹": 6254,
      "ĠÏħÏĢÎ·ÎºÎ¿ÏīÎ½": 6255,
      "ĠÏĢÎ»ÎµÎ¹Î¿ÏĪÎ·ÏĨÎ¹Î±": 6256,
      "ĠÎµÏĢÎ¹Î¼Î±ÏĩÎ¿": 6257,
      "ĠÏĦÎµÏĥÏĥÎµÏģÎ¹ÏĤ": 6258,
      "den": 6259,
      "ĠÎºÎ¿Î¹Î½ÎµÏĤ": 6260,
      "ĠÎ´ÎµÏĥÏĢÎ¿Î¶": 6261,
      "ĠÎµÎºÏĦÎµÎ»ÎµÏĥÏĦÎ¹ÎºÎ¿": 6262,
      "Ġfrance": 6263,
      "ĠÏĢÎµÏģÎ¹Î¿ÏħÏĥÎ¹Î±ÎºÏīÎ½": 6264,
      "ence": 6265,
      "ĠÏĢÏģÎ¿ÏĥÏīÏģÎ¹Î½Î¿Ïħ": 6266,
      "Ã·": 6267,
      "ĠÏĦÏģÎ¿Î¼Î¿ÎºÏģÎ±": 6268,
      "mo": 6269,
      "acion": 6270,
      "ĠÏģÏħÎ¸Î¼Î¹ÏĥÎµÏīÏĤ": 6271,
      "ÏĦÏħÏĢÏī": 6272,
      "ĠÎ´Î¹Î±Î¸ÎµÏĥÎ¹Î¼Î±": 6273,
      "Ġepisqop": 6274,
      "ĠÏĩÎ»Ïī": 6275,
      "ĠÏĥÏħÎ½Î¹ÏĥÏĦÏī": 6276,
      "oll": 6277,
      "ĠÎµÏĢÎ¹ÏĢÏĦÏīÏĥÎ·": 6278,
      "ĠÏĢÎ¿Î¹Î±": 6279,
      "ĠÏĢÎ»Î¿Î¹Î¿": 6280,
      "ĠÎ´ÏħÎ½Î·": 6281,
      "38": 6282,
      "ĠÎ±Î½ÏĦÎ¹ÏĥÏĦÎ¿Î¹ÏĩÏīÎ½": 6283,
      "ĠÎµÏĢÎ¹Î´Î¹ÏīÎºÎµÎ¹": 6284,
      "ĠÎ±ÏĢÎ¿Î´ÎµÎ¹ÎºÎ½ÏħÎµÏĦÎ±Î¹": 6285,
      "ĠÎµÎºÏĦÎ¹Î¸Îµ": 6286,
      "Ġcia": 6287,
      "Ġ2150": 6288,
      "ĠÎµÎºÏĦÎµÎ»ÎµÏĥÏĦÎ¹ÎºÎ¿Ïħ": 6289,
      "ĠÎ±Î½Î·ÎºÎµÎ¹": 6290,
      "ĠÏĢÎµÏģÎ¹Î¿ÏģÎ¹ÏĥÎ¼Î¿ÏĤ": 6291,
      "ĠÎ²Ê¹": 6292,
      "ĠÎ´Î¹Î±Î´Î¹ÎºÎ±ÏĥÎ¹": 6293,
      "ko": 6294,
      "ĠÎºÎ±ÏĦÎ¿Î¹ÎºÎ¹Î±": 6295,
      "ĠÏĥÏĦÎ±Î¸Î¼Î¹Ïĥ": 6296,
      "ĠÏĢÏģÎ¿Î¿ÏģÎ¹ÏĥÎ¼Î¿Ïħ": 6297,
      "ĠÎ´ÎµÏĥÎ¼ÎµÏħÏĥÎµÎ¹ÏĤ": 6298,
      "Ġho": 6299,
      "Ġfi": 6300,
      "ĠÏĦÎµÎ»ÏīÎ½ÎµÎ¹Î±ÎºÎ·": 6301,
      "ĠÎ³ÏħÎ½Î±Î¹ÎºÏīÎ½": 6302,
      "Î»Î¿Î³Î¹Î¿": 6303,
      "Î¹Î¿ÏĦÎ·ÏĦÎ±ÏĤ": 6304,
      "ĠÎ±ÏħÎ¾Î±": 6305,
      "Ġrod": 6306,
      "ÏĢÎ¿Î½ÏĦÎ±ÏĤ": 6307,
      "ĠÎºÏīÎ½": 6308,
      "ĠÎ±ÏĢÎ¿ÏĦÏģÎµ": 6309,
      "ĠÏĢÎ±Î¹Î´Î¹Î±": 6310,
      "ĠÎ´Î¹ÎºÎ±ÏĥÏĦÎ¹ÎºÎ·ÏĤ": 6311,
      "qiaot": 6312,
      "ĠÏĩÏģÎ¿Î½Î¿Î´Î¹Î±": 6313,
      "ĠÎ²Î¿ÏħÏĦÏħ": 6314,
      "ÏĦÎ¿Î¼Îµ": 6315,
      "ĠÎ»Î¿ÏħÎ¾ÎµÎ¼Î²Î¿ÏħÏģÎ³Î¿Ïħ": 6316,
      "Ġ630": 6317,
      "rec": 6318,
      "ĠÎ±Î¾Î¹Î¿Î»Î¿Î³": 6319,
      "ĠÎ±Î¹ÏĥÎ¸Î·": 6320,
      "ĠÎ´Î¹Î±Î½Î¿Î·ÏĦÎ¹ÎºÎ·ÏĤ": 6321,
      "ĠÎ¹ÏĥÎ¿ÏģÏģÎ¿": 6322,
      "ĠÎµÏĢÎ¹ÏĦÏģÎµÏĪÎµÎ¹": 6323,
      "ĠÎµÎ³ÎºÎ±ÏĦÎ±ÏĥÏĦÎ±ÏĥÎµÏīÏĤ": 6324,
      "ĠÎ±ÏĥÏĨÎ±Î»Î¹ÏĥÏĦÎ¹ÎºÏīÎ½": 6325,
      "ru": 6326,
      "ĠÎºÎ±Î¸Î¿ÏģÎ¹ÏĥÎµÎ¹": 6327,
      "ĠÎ¼ÎµÏĦÎ±Î²Î¿Î»Î·": 6328,
      "ĠÎµÎ¾ÎµÏĦÎ±ÏĥÎµÏīÏĤ": 6329,
      "Î³Î½Î·": 6330,
      "ĠÎ¼Î¼Îµ": 6331,
      "ĠÎµÏĢÎ¹ÎºÎ¿ÏħÏģÎ¿Ïħ": 6332,
      "ĠÎ¿ÏĥÎ±ÎºÎ¹ÏĤ": 6333,
      "ĠÎ´Î¹Î±Î´Î¹ÎºÎ¿ÏħÏĤ": 6334,
      "42": 6335,
      "ong": 6336,
      "ĠÎ±ÏĢÎ¿ÏĨÎ±Î¹Î½ÎµÏĦÎ±Î¹": 6337,
      "ĠÎ¼Î·ÏĩÎ±Î½Î¹ÏĥÎ¼Î¿Ïħ": 6338,
      "ĠÎ¿ÏģÎ³Î±Î½ÏīÏĥÎµÎ¹ÏĤ": 6339,
      "ĠÏĢÎ¿Î»ÏīÎ½Î¹Î±ÏĤ": 6340,
      "ĠÏĢÎ±ÏģÎµÎ¼Î²Î±Î¹Î½Î¿ÏħÏĥÎ±": 6341,
      "Ġ111": 6342,
      "Ġsur": 6343,
      "ĠÏĢÎ±ÏģÎ±Î³ÏīÎ³Î¿ÏĤ": 6344,
      "ĠÎ±ÏĢÎ¿ÏģÏģÎ¿": 6345,
      "ĠÏĦÎ´": 6346,
      "hm": 6347,
      "ĠÎ±Î½Î±ÏĦÎ¿": 6348,
      "ÎµÎ¹Î´Î¹ÎºÎµÏħ": 6349,
      "100": 6350,
      "ije": 6351,
      "ĠÏĢÎ¿ÏĦÎ±": 6352,
      "ĠÏĢÎµÏģÎ¹ÏĥÏĦÎ±ÏĥÎµÏīÎ½": 6353,
      "ĠÏĥÏĦÎ·ÏģÎ¹Î¶Î¿": 6354,
      "ĠÎµÎ³Î³ÏħÎ·ÏĥÎµÎ¹ÏĤ": 6355,
      "ĠÏĢÏģÎ¿ÎºÎ±ÏĦÎ±ÏģÎº": 6356,
      "ĠÎ±Î¹ÏĦÎ¹Î¿Î»Î¿Î³Î·Î¼ÎµÎ½Î·": 6357,
      "ĠÏĥÏħÎ½Î·Î¸ÏīÏĤ": 6358,
      "ĠÎ¿Î¹ÎºÎ¿Î³ÎµÎ½ÎµÎ¹Î±ÏĤ": 6359,
      "ĠÏĢÏĦÏħÏĩÎµÏĤ": 6360,
      "ĠÎµÎ»ÎµÏħÎ¸ÎµÏģÎ¹Î±ÏĤ": 6361,
      "uf": 6362,
      "ĠÎµÎºÎ±ÏĦÎ¿": 6363,
      "ĠÎµÎ»ÎµÏħÎ¸ÎµÏģÎ¹Î±": 6364,
      "ÎºÏĦÎ¹ÎºÎ±": 6365,
      "Î½Î¿Î¼ÎµÏĤ": 6366,
      "ĠÏĢÏħÏģÎ¿": 6367,
      "ĠÎ±ÏĢÎ¿ÏĦÎµÎ»ÎµÏĥÎ¼Î±ÏĦÎ¹ÎºÎ¿": 6368,
      "ĠÎºÎ±ÏĦÎµÎ»Î·Î¾Îµ": 6369,
      "ays": 6370,
      "ĠÎºÎ±ÏħÏĥÎ¹Î¼ÏīÎ½": 6371,
      "ĠÎ±Î¼ÎµÏĦÎ±": 6372,
      "ĠÎµÏģÎµÏħÎ½ÎµÏĤ": 6373,
      "ĠÎ±Î½ÏĦÎ±ÏĢÎ¿ÎºÏģÎ¹Î½ÎµÏĦÎ±Î¹": 6374,
      "ĠÏĩÏģÎ·ÏĥÎµÎ¹ÏĤ": 6375,
      "eld": 6376,
      "Î½Î¿ÏĦÎ·ÏĦÎ±ÏĤ": 6377,
      "ĠÎ´ÏīÎ´Îµ": 6378,
      "Ġcont": 6379,
      "ĠÎ±Î½Î±ÎºÏħ": 6380,
      "Ġ550": 6381,
      "ĠÎ±Î½Î±ÎºÎ¿Î¹Î½ÏīÎ½": 6382,
      "ĠÎ¿Î¼Î¿Î¹ÏīÏĤ": 6383,
      "ĠÏĢÎ±ÏģÎ¿ÏħÏĥÎ¹Î±ÏĥÎ·": 6384,
      "ĠÏĢÏģÎ¿ÏīÎ¸Î·": 6385,
      "ĠÎ±Î³Î±Î¸Î±": 6386,
      "Î»Î±Î²Îµ": 6387,
      "Ġ176": 6388,
      "ĠetqxpaÃ¸jxam": 6389,
      "ÏĥÏĦÎ¿ÏħÎ½": 6390,
      "Ġ001": 6391,
      "ĠÎ±ÏĢÎ¿Î¸ÎµÎ¼Î±ÏĦÏīÎ½": 6392,
      "ker": 6393,
      "ĠÏħÏĢÎ·ÏģÏĩÎµ": 6394,
      "ĠÎ³ÎµÏīÏģÎ³Î¹ÎºÎ·ÏĤ": 6395,
      "Ġindustri": 6396,
      "ĠÏĢÎ¿ÏģÏĦÎ¿Î³Î±Î»Î¹ÎºÎ·": 6397,
      "ĠÎ±ÏĢÎ±ÏģÎ±Î¹ÏĦÎ·ÏĦÎ±": 6398,
      "ĠÏĢÎ»ÎµÎº": 6399,
      "ĠÏĢÎ±ÏģÎ±Î½Î¿Î¼Î·": 6400,
      "ĠÎ²Î±ÏĥÎ·ÏĤ": 6401,
      "ĠÎµÎ¹ÏĥÏĨÎ¿ÏģÎ±ÏĤ": 6402,
      "sc": 6403,
      "gen": 6404,
      "ĠÎºÎ¿Î¹Î½Î¿ÏĢÎ¿Î¹Î·ÏĥÎ·ÏĤ": 6405,
      "ĠÎ¹Î´Î¹ÏīÏĦÎ¹ÎºÎ¿Ïħ": 6406,
      "ĠÎ¸ÎµÏĥÏĢÎ¹Î¶Î¿ÏħÎ½": 6407,
      "ĠÎ¿ÏģÎ¹ÏĥÎ¼Î¿ÏĤ": 6408,
      "ĠÏĨÎµÏģÎ¿": 6409,
      "ÏģÎ¹Îº": 6410,
      "ĠÎ±Î³ÏīÎ³Î·ÏĤ": 6411,
      "ÏģÎ¹Î½": 6412,
      "ĠÎ¼Î¿Î½ÏĦÎµ": 6413,
      "ola": 6414,
      "ÏĥÏĦÎµÎ¹Î»ÎµÎ¹": 6415,
      "ĠÎ´Î¹Î±Î¹ÏĦÎ·ÏĥÎ¹Î±ÏĤ": 6416,
      "ĠÏĢÎ±ÏģÎ±Î´Î¿ÏĥÎ·": 6417,
      "ĠÏĢÎ»Î·ÏģÎ·ÏĤ": 6418,
      "Ġtechn": 6419,
      "Ġcer": 6420,
      "ĠÎ±ÏĢÎ±ÏģÎ±Î¹ÏĦÎ·ÏĦÎ·": 6421,
      "ĠÏĢÎµÏģÎ¹Î·Î»Î¸Îµ": 6422,
      "ĠÎµÎ¹ÏĥÏĨÎ¿ÏģÎ±": 6423,
      "Ã¦Ã¦": 6424,
      "Ġdg": 6425,
      "ĠÏĩÏģÎ·ÏĥÏĦÎ·": 6426,
      "ĠÏĨÎ¿ÏģÎ¿ÏĤ": 6427,
      "Ġeuropa": 6428,
      "ĠÏĢÏģÎ¿ÏĦÎ¹Î¼Î·ÏĥÎ¹Î±": 6429,
      "ĠÏĢÎ±ÏģÎ±Î³Î¿Î½ÏĦÎ±Î¹": 6430,
      "ĠÏĥÏħÎ½ÏĦÎµÎ»ÎµÏĥÏĦÎµÏĤ": 6431,
      "ĠÏĩÏģÎ¿Î½Î¿ÏĤ": 6432,
      "Ġvo": 6433,
      "ÏĢÎ¿Î½ÏĦÎ±Î¹": 6434,
      "ĠÏĢÏģÎ¿ÏĢÎ±": 6435,
      "Î½Î¿Î¼Î¹Î±": 6436,
      "ĠÎ¼ÎµÏĦÎ¿ÏĩÏīÎ½": 6437,
      "ÏĦÎ¿ÏħÏĥÎµ": 6438,
      "ĠÎµÏħÏģÏīÏĢÎ·ÏĤ": 6439,
      "ĠÎ´Î·Î¼Î¿ÏĥÎ¹ÎµÏħÎ¸ÎµÎ¹": 6440,
      "ĠÎµÎ¼ÏĢÎ»ÎµÎºÎ¿": 6441,
      "ĠÎµÎ¹ÏĥÎµ": 6442,
      "ĠÎ´Î¹ÎºÎ±Î¹Î¿ÏħÏĦÎ±Î¹": 6443,
      "ĠÎ¿Î»Î¿ÎºÎ»Î·ÏģÎ·": 6444,
      "ĠÎ³ÏģÎ±ÏĨÎ¿ÏĤ": 6445,
      "ÏģÏĩÎ¿Î½ÏĦÎ±Î¹": 6446,
      "ĠÎµÎ¾ÏīÏĦÎµÏģÎ¹ÎºÎ¿": 6447,
      "ĠÏĢÏģÎ¿ÏĥÏĦÎ±ÏĦÎµÏħÎ¿Î¼ÎµÎ½Î·": 6448,
      "ĠÏĥÏħÎ½Î¿ÏģÏīÎ½": 6449,
      "ĠÎ¼ÎµÎ¹Î¿Î½": 6450,
      "ood": 6451,
      "ÏĩÎ¹ÏĥÎ·": 6452,
      "Î²Ïī": 6453,
      "Ġmt": 6454,
      "ĠÏĢÏģÎ¹Î¼Î¿Î´Î¿": 6455,
      "ĠÎµÏĢÎ¹Î¼Î±ÏĩÏīÎ½": 6456,
      "ĠÏĥÏħÎ¶Ïħ": 6457,
      "ĠÎµÏĢÎµÎºÏĦÎ±": 6458,
      "ĠÎ¹ÏĥÎ¿ÏĦÎ¹": 6459,
      "ĠÎµÎ¼ÏĢÎ¿ÏģÎ¹Î±": 6460,
      "ĠÎ»Î·ÏĪÎµÏīÏĤ": 6461,
      "ĠÎ´ÎµÎ¹Î³Î¼Î±ÏĦÎ¿Î»Î·ÏĪ": 6462,
      "ĠÎ¿ÏģÎ¹ÏĥÎ¼ÎµÎ½Î¿Ïħ": 6463,
      "ĠÏĢÏģÎ±Î³Î¼Î±ÏĦÎ¹ÎºÎ¿ÏĦÎ·ÏĦÎ±": 6464,
      "ĠÎ´Î¹Î±ÏĦÎ±Î³Î¼Î±ÏĦÎ¿ÏĤ": 6465,
      "ĠÎ±Î³ÏīÎ³": 6466,
      "ĠÏĢÎ±ÏģÎ±Î¼ÎµÎ½ÎµÎ¹": 6467,
      "ĠÎ±ÏĢÎ¿Î´Î¿ÏĩÏīÎ½": 6468,
      "ĠÏĥÏħÏĥÏĦÎ±Î¸ÎµÎ¹": 6469,
      "ĠÎ¼Î¿Î½Î±Î´ÏīÎ½": 6470,
      "ĠÎºÎ±ÏĦÎ±ÏĥÎºÎµÏħÎ·ÏĤ": 6471,
      "ĠÎ´Î¹Î±ÏĦÏģÎ¿ÏĨÎ·ÏĤ": 6472,
      "ente": 6473,
      "70": 6474,
      "ĠÎ¿ÏģÎ¹ÏĥÎ¼ÎµÎ½Î¿ÏħÏĤ": 6475,
      "ĠÎµÎºÏĢ": 6476,
      "ĠÎ½Î¿Î¼Î¿Î¸ÎµÏĦÎ¹ÎºÏīÎ½": 6477,
      "ĠÎ¼Î±Î½": 6478,
      "Ġdem": 6479,
      "Ġ129": 6480,
      "ĠÎ±ÏĦÎ¿Î¼Î¹ÎºÎ·ÏĤ": 6481,
      "ĠÎ¿Î¹ÎºÎµÎ¹ÏīÎ½": 6482,
      "ĠÎ±Î»Î»Î·Î»ÎµÎ³": 6483,
      "ĠÎ¼ÎµÏĦÎ±ÏĨÏģÎ±ÏĥÎ·": 6484,
      "Ġcontr": 6485,
      "til": 6486,
      "ĠÎ´Î¹ÎºÎ±Î¹Î¿ÏħÏĩÎ¿ÏħÏĤ": 6487,
      "ĠÎ¸ÎµÏĥÏĥÎ±Î»Î¿": 6488,
      "ĠÏĦÎµÏĦÎ¿Î¹ÎµÏĤ": 6489,
      "ĠÎ±ÏĢÎ¿ÏĥÏĢÎ±Ïĥ": 6490,
      "ĠÎ±Î»Î»Î·Î»ÎµÎ³Î³Ïħ": 6491,
      "ĠÏĢÏģÎ¿ÏĥÎ±ÏħÎ¾Î·": 6492,
      "ĠÎ´Î¹Î±Î´ÏģÎ¿": 6493,
      "ÏģÎ±ÏĥÎºÎµÏħ": 6494,
      "ĠÏĥÎµÎ»Î¹Î´Î±": 6495,
      "ĠÏĢÏģÎ¿ÏĥÎ´Î¹Î¿ÏģÎ¹Î¶ÎµÏĦÎ±Î¹": 6496,
      "ĠÎ´Î¹ÎºÎ±Î¹Î¿Î´Î¿ÏĥÎ¹Î±ÏĤ": 6497,
      "ĠÏĦÏĥÎµÏĩÎ¹ÎºÎ·": 6498,
      "ĠÎ¼Î±Î¹": 6499,
      "ĠÏĢÏģÏīÏĦÎ¿Î²Î¿Ïħ": 6500,
      "Ġjoimosgasxm": 6501,
      "ĠÏĥÏĨÏģÎ±": 6502,
      "ication": 6503,
      "Ġfur": 6504,
      "ĠÎ±ÏĢÎ±Î³Î¿ÏģÎµÏħÎµÏĦÎ±Î¹": 6505,
      "55": 6506,
      "ĠÏĢÎ±ÏģÎµÎ¼Î²Î±ÏĥÎ·ÏĤ": 6507,
      "Ġesp": 6508,
      "ĠÎµÏģÎµÏħÎ½ÏīÎ½": 6509,
      "ĠÎºÎ±ÏĦÎ±ÏĥÎºÎµÏħÎ±": 6510,
      "ÎºÎ¿Î¹Î½Î¿": 6511,
      "ĠÎµÏĢÎµÎ½Î´ÏħÏĥÎ·": 6512,
      "ĠÏĢÎµÏģÎ¹Î¸Î±Î»": 6513,
      "ĠÎ±ÏģÏĩÎ¹ÏĥÎµÎ¹": 6514,
      "ĠÏħÏĢÎ¿ÏĩÏģÎµÏīÏĦÎ¹ÎºÎ·": 6515,
      "Ġjurid": 6516,
      "ĠÏĥÏħÎ½ÎµÎ´ÏģÎ¹Î±ÏĥÎµÎ¹ÏĤ": 6517,
      "ĠÏĥÏħÎ³ÎºÏģÎ¿Ïħ": 6518,
      "ĠÏĩÏģÎ·Î¼Î±ÏĦÎ¿ÏĢÎ¹ÏĥÏĦÏīÏĦÎ¹ÎºÏīÎ½": 6519,
      "ĠÏĦoÏħ": 6520,
      "Î»Î¿Î³Î·ÏĥÎ·": 6521,
      "Ġue": 6522,
      "ĠÏĥÏĦÎµÎ»Îµ": 6523,
      "ĠÎ±ÏĢÎ¿ÏģÏģÎ¹ÏĪÎµÎ¹": 6524,
      "Î¶Ïī": 6525,
      "schaft": 6526,
      "ĠÎ´Î¹Ïĥ": 6527,
      "ÏĦÎ¹ÏĥÎ¼Î¿": 6528,
      "Ġ1068": 6529,
      "Ġvom": 6530,
      "ÏģÎ¹ÏĥÏĦÎ±": 6531,
      "ĠÏĢÎ¿ÏĥÎ¿ÏĦÎ·ÏĦÏīÎ½": 6532,
      "ĠÏĢÏģÎ¿Î±Î¹ÏģÎµ": 6533,
      "ĠÎ»Î¿Î³Î±ÏģÎ¹Î±ÏĥÎ¼ÏīÎ½": 6534,
      "ĠÎµÏĢÎ¹Î´Î¿ÏĦÎ·ÏĥÎ·": 6535,
      "ĠÎ¿ÏĢÎ¿Î¹Î¿ÏħÎ´Î·ÏĢÎ¿ÏĦÎµ": 6536,
      "ĠÎ±Î½ÎµÏģÏĩÎµÏĦÎ±Î¹": 6537,
      "ÏĢÎ¹Î¿Ïħ": 6538,
      "ĠÏĢÏģÎ¿Î²Î»Î·Î¼Î±": 6539,
      "cht": 6540,
      "ese": 6541,
      "ĠÎµÏħÏģÎ¹Ïĥ": 6542,
      "Ġden": 6543,
      "ĠÎµÎ¼ÏĢÎ¿Î´Î¹Î¶ÎµÎ¹": 6544,
      "bl": 6545,
      "ÏģÏīÎ½ÏĦÎ±ÏĤ": 6546,
      "ĠÎºÎ±ÏĦÎ±ÏĥÎºÎµÏħÎ±ÏĥÏĦÎ·ÏĤ": 6547,
      "ĠÎµÎ¾Î±ÏģÏĦÎ·Î¼Î±ÏĦÎ±": 6548,
      "ĠÏħÏĢÎ¿Î²Î»Î·Î¸ÎµÎ¹ÏĥÎ±": 6549,
      "ĠÏĢÏģÎ¿ÎµÏģÏĩÎ¿": 6550,
      "Ġimportant": 6551,
      "Ġrec": 6552,
      "ĠÏĥÏĦÎµÏģÎµ": 6553,
      "ĠÎ´Î¿Î¼Î·": 6554,
      "ĠÏĥÏħÎ³ÏĩÏģÎ¿Î½": 6555,
      "ĠÎºÏģÎ¹Î¸ÎµÎ¹": 6556,
      "ĠÎµÎ½Î½Î¿Î¹Î±ÏĤ": 6557,
      "ha": 6558,
      "ĠÎ±Î½ÎµÏģÎ³Î¿Î¹": 6559,
      "ĠÎ´ÏħÎ½Î±ÏĦÎ¿ÏĦÎ·ÏĦÎ±ÏĤ": 6560,
      "ĠÎºÏģÎ±ÏĦÎ¹ÎºÎµÏĤ": 6561,
      "ĠÎµÎºÏĦÎ¹Î¼Î·ÏĥÎ·ÏĤ": 6562,
      "ĠÎºÎ±ÏĦÎ±Î²Î±Î»Î»ÎµÏĦÎ±Î¹": 6563,
      "ĠÏĢÏģÎ¿ÏĥÎ¸ÎµÏĦÎµÏĤ": 6564,
      "etz": 6565,
      "Ã¸Åĵ": 6566,
      "ĠÏħÏĢÎ¿ÏĪÎ·ÏĨÎ¹ÏīÎ½": 6567,
      "ĠÎ¹Î´ÏģÏħÎ¼Î±ÏĦÏīÎ½": 6568,
      "mar": 6569,
      "ĠÎ¶ÏīÎ½Î·ÏĤ": 6570,
      "ĠÏĥÏħÎ¼Î²Î¿ÏħÎ»Î¹": 6571,
      "Ġev": 6572,
      "ÏĥÏĥÎµÏĦÎ±Î¹": 6573,
      "ĠÎ»Î¿Î³ÏīÎ½": 6574,
      "ĠÎ²Î¿Î¿": 6575,
      "Ġjam": 6576,
      "ĠÎ¿ÏħÎ´Î¿": 6577,
      "ÏĥÎ·Î¼Î±": 6578,
      "Ġfinanc": 6579,
      "ĠÎ¿ÏĦÎ¿Ïħ": 6580,
      "Ġdis": 6581,
      "ĠÎµÎ½Î´ÎµÏĩÎ¿Î¼ÎµÎ½Î·": 6582,
      "ĠÎ±Î½Î±Î´ÏģÎ¿Î¼": 6583,
      "Ġtar": 6584,
      "ĠÎµÏĢÎ¹Î²": 6585,
      "Ġrso": 6586,
      "Ðº": 6587,
      "ĠÎ¿ÏĢÎ¿Î¹Î¿Î½": 6588,
      "ĠÎµÎºÎ¼ÎµÏĦÎ±Î»Î»ÎµÏħÏĥÎµÏīÏĤ": 6589,
      "ĠÏīÏĨÎµÎ»Î¿Ïħ": 6590,
      "ĠÎµÎ½Î¹Î±Î¹Î±ÏĤ": 6591,
      "ÏĩÎµÎ¹Î±ÏĤ": 6592,
      "ĠÎ¹Î¸Î±Î³ÎµÎ½ÎµÎ¹Î±ÏĤ": 6593,
      "Ġshall": 6594,
      "ĠÎ±ÏĢÎ±Î³Î¿ÏģÎµÏħÏĥÎµÏīÏĤ": 6595,
      "ĠÏĦÎ±ÏħÏĦÎ¿ÏĦÎ·ÏĦÎ±ÏĤ": 6596,
      "Ġprov": 6597,
      "ĠÎ¼ÎµÏĥÎ·": 6598,
      "Ġuk": 6599,
      "ĠÏĢÏģÎ¿Î»Î·ÏĢ": 6600,
      "Î¹ÎºÎµÏħ": 6601,
      "Î³Î±Î½": 6602,
      "ĠÎµÎºÎ´Î¹Î´ÎµÏĦÎ±Î¹": 6603,
      "ĠÎ²Î±ÏĥÎ¹ÎºÎ±": 6604,
      "ĠÏĩÎ±Î»": 6605,
      "ĠÎ´Î¹Î±ÏĦÎ·ÏģÎ·Î¼ÎµÎ½Î±": 6606,
      "Ġarch": 6607,
      "ĠÎµÏĢÎ¹ÏĦÎ·ÏģÎ·": 6608,
      "ĠÏĢÎ±ÏģÎ±ÏĢÎµÎ¼ÏĢÎµÎ¹": 6609,
      "ÏĦÏĥÎ¿Ïħ": 6610,
      "ĠÎ±ÏĢÎ¿Î´Î¿ÏĩÎ·": 6611,
      "ĠÏĦÎµÏĦÎ¿Î¹ÏīÎ½": 6612,
      "ĠÎ±Î½Î±Î¸ÎµÏīÏģÎ·ÏĥÎ·": 6613,
      "ĠÏĢÏģÎ¿Î´Î·Î»ÏīÏĤ": 6614,
      "ÏīÎ½ÎµÎ¹": 6615,
      "ĠÎ¼Î¼": 6616,
      "Ġ135": 6617,
      "ĠÎ±ÏĥÎ¸ÎµÎ½ÎµÎ¹Î±ÏĤ": 6618,
      "ĠÎ±ÏĢÎ¿Î¸ÎµÎ¼Î±ÏĦÎ±": 6619,
      "ÏĦÎ±Î¹Î½": 6620,
      "Ġmod": 6621,
      "ĠÏĦÎµÏĦÎ±ÏģÏĦÎ¿Ïħ": 6622,
      "Ġcy": 6623,
      "ĠÎµÏĢÎ·ÏģÎµÎ±Î¶ÎµÎ¹": 6624,
      "ĠÎ±ÏĨÎ·": 6625,
      "ĠÎ±Î½Î¸ÏģÏīÏĢÎ¿Ïħ": 6626,
      "ĠÏħÎ»Î¹ÎºÎ¿Ïħ": 6627,
      "Î¿Î´Î¿": 6628,
      "ĠÎ±ÏģÏĩÎ·Î½": 6629,
      "ĠÎ±Î¸Î»Î·": 6630,
      "ĠÏĥÏĩÎµÏĦÎ¹ÎºÎ¿Ïħ": 6631,
      "ĠÎµÎ¾ÎµÏĦÎ±ÏĥÎ·ÏĤ": 6632,
      "Ġspp": 6633,
      "ĠÎºÎ·ÏĤ": 6634,
      "ĠÎ´Î¹Î±ÏĦÎ·ÏģÎ·ÏĥÎ·ÏĤ": 6635,
      "ĠÎ±Î½ÏĦÎ¹Î¸ÎµÏĦÎ·": 6636,
      "Ġbl": 6637,
      "ĠÎµÎºÎ´Î·Î»Ïī": 6638,
      "ÏĦÏĦÎ¿": 6639,
      "ĠÎ´Î¹ÎºÎ±Î¹Î¿ÏħÏĩÎ¿": 6640,
      "ĠÎµÏĢÎ¹Î»ÏħÏĥÎ·": 6641,
      "ĠÎ±ÏĢÎ¿Î´ÎµÎºÏĦÎ·": 6642,
      "ĠÎ¿ÏħÎ´Î¿Î»ÏīÏĤ": 6643,
      "Ġjuridique": 6644,
      "ĠÎ±Î¼ÏĨÎ¹ÏĥÎ²Î·ÏĦÎµÎ¹ÏĦÎ±Î¹": 6645,
      "Ġavis": 6646,
      "ÏĥÏĦÏīÎ½": 6647,
      "ĠÏĢÏģÎ¿Î·Î³": 6648,
      "ex": 6649,
      "ĠÎ´ÏīÏģÎµ": 6650,
      "ĠÎºÎ±Î»ÏħÏĢÏĦÎµÏĦÎ±Î¹": 6651,
      "Ġnet": 6652,
      "Ġ267": 6653,
      "ĠÎ±Î½ÏĦÎ¹ÎºÏģÎ¿Ïħ": 6654,
      "ĠÎºÎ±ÏĦÎ·Î³Î¿ÏģÎ¹ÏīÎ½": 6655,
      "ĠÎ¼Î¹ÏĥÎ¸Î¿": 6656,
      "ĠÎºÎ±Î¸Î¹ÎµÏģÏīÏĥÎ·": 6657,
      "ÏĩÎ·Î½": 6658,
      "ĠÏĢÏģÎ¿ÏĥÎ·": 6659,
      "ĠÏĦÎµÎ»ÏīÎ½ÎµÎ¹Î±ÎºÎ¿Ïħ": 6660,
      "nex": 6661,
      "ĠÏĥÏħÎ½Î·Î¸Î·": 6662,
      "Ġ139": 6663,
      "Î¾Î¹ÎºÎ¿": 6664,
      "ĠÏĩÏģÎ·ÏĥÏĦÎ·ÏĤ": 6665,
      "ĠÏĢÎµÏģÎ¹Î¿ÏģÎ¹ÏĥÏĦÎ¹ÎºÎ±": 6666,
      "ĠÏĥÏħÎ³ÎºÎ¿": 6667,
      "ÏĢÏĦ": 6668,
      "Ġ180": 6669,
      "ĠÎ´ÏħÎ½Î±ÏĦÎ¿ÏĦÎ·ÏĦÏīÎ½": 6670,
      "ĠÎµÏĢÎ¿Î¼ÎµÎ½Î·": 6671,
      "ĠÎ´ÎµÎº": 6672,
      "ĠÏĢÎ±ÏģÎ±ÏĢÎ¿Î¼ÏĢÎ·ÏĤ": 6673,
      "Ġra": 6674,
      "Ġher": 6675,
      "ĠÎ±ÏĢÎ¿ÏĨÏħÎ³Î·": 6676,
      "ĠÎµÎ½Î´Î¹Î±ÏĨÎµÏģÎ¿Î½ÏĦÎ¿ÏĤ": 6677,
      "ĠÎ±ÏĢÎ±ÏģÎ±Î´ÎµÎºÏĦÎ·": 6678,
      "ĠÎ¹ÏĥÎ¿Î´ÏħÎ½Î±Î¼Î¿Ïħ": 6679,
      "elb": 6680,
      "ĠÏĨÏģÎ¿Î½ÎµÎ¹": 6681,
      "Ġdans": 6682,
      "ĠÎ»Î·ÏĪÎ·ÏĤ": 6683,
      "Ġconform": 6684,
      "ĠÏĢÏģÎ¿ÏĥÏĢÎ±Î¸ÎµÎ¹ÎµÏĤ": 6685,
      "Î¼ÎµÏĥÎ±": 6686,
      "Ġ128": 6687,
      "ĠÎºÎµÏĢ": 6688,
      "ĠÏĥÏĩÎµÎ´Î¿Î½": 6689,
      "ĠÎºÎ±ÏĦÎµÏĥÏĦÎ·": 6690,
      "ĠÎºÎ±ÏĦÎµÏħÎ¸ÏħÎ½ÏĦÎ·ÏģÎ¹ÏīÎ½": 6691,
      "Ġ127": 6692,
      "ĠÎµÏĦÎ·ÏĥÎ¹Î¿": 6693,
      "ÎºÎ¹Ïĥ": 6694,
      "ĠÏĢÏģÎ±Î³Î¼Î±ÏĦÎ¹ÎºÎ¿": 6695,
      "Ġ149": 6696,
      "ĠÎ¿Î¹Î½Î¿ÏĤ": 6697,
      "ĠÎµÎ½ÏīÏĥÎµÏīÏĤ": 6698,
      "ĠÏĥÏħÎ½ÏĦÎ¿Î¼Î¿": 6699,
      "Î»Î¿Î³Î¹ÎºÏīÎ½": 6700,
      "ori": 6701,
      "ĠÏĢÏģÎ¿Î³ÎµÎ½ÎµÏĥÏĦÎµÏģÎ¿": 6702,
      "ĠÎ±Î»Î»Î·Î»Î¿": 6703,
      "ĠÏĦÏĥÎ¹": 6704,
      "Î¾ÎµÎ½": 6705,
      "ĠÏĥÏħÎ½ÎµÏĩÎ¹ÏĥÎ·": 6706,
      "ĠÎ±ÏĢÎ¿Î´ÎµÎ¹ÎºÏĦÎ¹ÎºÏīÎ½": 6707,
      "ĠÎµÏĢÎ¹Î²Î±Î»Î»Î¿ÏħÎ½": 6708,
      "ĠÎ±ÏģÏĩÎ¹ÎºÎ±": 6709,
      "ĠÎ¿Î½ÏĦÎ¿ÏĦÎ·ÏĦÏīÎ½": 6710,
      "ĠÎ´Î¹Î±ÏĥÏĨÎ±Î»Î¹Î¶ÎµÏĦÎ±Î¹": 6711,
      "walt": 6712,
      "ĠÏĢÏģÎ¿ÏĥÏĢÎ±Î¸ÎµÎ¹Î±": 6713,
      "ĠÏĢÎ¿ÏĥÎ¿ÏĦÎ·ÏĦÎ±ÏĤ": 6714,
      "ĠÎ¶Î·ÏĦÎ·Î¸Î·ÎºÎµ": 6715,
      "ĠÎ±ÏģÎ¼Î¿Î´Î¹Î¿ÏĦÎ·ÏĦÎ±ÏĤ": 6716,
      "Ġdeutsch": 6717,
      "ĠÎ±ÏģÎ¼Î¿Î´Î¹Î±ÏĤ": 6718,
      "ĠÎ±Î½Î±Î»Î±Î²ÎµÎ¹": 6719,
      "ĠÏĢÏģÎ¿ÏĥÎºÎ»Î·": 6720,
      "ĠÎµÏģÎ³Î±Î»ÎµÎ¹Î±": 6721,
      "ĠÎ¼Î±Î¶Î±": 6722,
      "Ê½": 6723,
      "ĠÏĨÏħÏĦÎ¿": 6724,
      "ĠÎ¼ÎµÎ³Î¹ÏĥÏĦÎ¿": 6725,
      "ĠÎ³Î½ÏīÏĥÏĦÎ¿ÏĢÎ¿Î¹Î·ÏĥÎ·": 6726,
      "Ġ134": 6727,
      "ĠÎ±ÎºÏģÎ¿Î±Ïĥ": 6728,
      "ÎºÎµÎ¹ÏĦÎ¿": 6729,
      "Î¸ÎµÏĥÎ±Î½": 6730,
      "ĠÎºÏħÎºÎ»Ïī": 6731,
      "ĠÏĥÏħÎ¼Î¼ÎµÏĦÎµÏĩÎµÎ¹": 6732,
      "aria": 6733,
      "Ġmol": 6734,
      "ĠÎ±Î½ÏĦÎ¹ÎºÏĦÏħÏĢÎ¿": 6735,
      "ĠÎ´Î·Î»ÏīÏĥÎ·ÏĤ": 6736,
      "ÏģÏīÏĥÎ·ÏĤ": 6737,
      "Ġviii": 6738,
      "ĠÎ³Î¹Î½Î¿ÏħÎ½": 6739,
      "ĠÎ¼Î·Î½Î¹Î±": 6740,
      "ĠÏĢÎ»ÎµÏħÏģÎ±": 6741,
      "Î³ÏĩÎ±Î½": 6742,
      "ĠÎ´Î¹ÎºÎ±Î¹Î¿Î»Î¿Î³Î·ÏĦÎ¹ÎºÎ±": 6743,
      "ĠÏĥÏħÎ½ÎµÏĩÎµÎ¹ÏĤ": 6744,
      "ĠÎ´Î¹Î±Î²Î¹Î²Î±ÏĥÎ·": 6745,
      "Î¿ÏĦÎ·ÏĦÎ±ÏĤ": 6746,
      "ĠÎºÎ±Î½Î¿Î½Î¹ÎºÎ·": 6747,
      "ĠÎºÎ±ÏĦÎ±Î½Î¿Î·": 6748,
      "Î´Î¹ÎºÎ±Î¹Î¿": 6749,
      "ĠÏħÏĨÎ±Î½ÏĦÎ¹ÎºÎµÏĤ": 6750,
      "ĠÎ¾ÎµÎ½": 6751,
      "ĠÏĥÎ¿ÏħÎ·Î´Î¹Î±": 6752,
      "ĠÏĢÏģÎ¿Î±Î½Î±ÏĨÎµÏģÎ¿": 6753,
      "ĠÏĥÏħÎ½Î¿Î¼Î¿": 6754,
      "ĠÎ¶Î±ÏĩÎ±ÏģÎ¿": 6755,
      "ĠÏģÎ¸ÏģÎ¿Ïħ": 6756,
      "ĠÎ±Î½Î±ÏĥÏĦÎ¿Î»Î·ÏĤ": 6757,
      "ĠÎµÎ¾Î±Î¹ÏģÎµÎ¹ÏĦÎ±Î¹": 6758,
      "ĠÏĦÏīÏģÎ±": 6759,
      "ĠÎµÏĢÎ¹ÏĩÎµÎ¹ÏģÎ·Î¼Î±ÏĦÎ¿Î»Î¿Î³Î¹Î±": 6760,
      "ĠÎ±ÏĢÎ¿Î²Î»Îµ": 6761,
      "Ġiso": 6762,
      "ĠÎ½Î¿Î¼Î¹Î¼Î¿ÏĦÎ·ÏĦÎ±": 6763,
      "Ġregion": 6764,
      "ĠÎ±ÏħÏĦÎ¿ÎºÎ¹Î½Î·ÏĦÏīÎ½": 6765,
      "Êģ": 6766,
      "ys": 6767,
      "Ġ157": 6768,
      "ĠÎ±ÏĢÎ¿Î²Î»Î·ÏĦÎ±": 6769,
      "ĠÎµÎ»Î±ÏĩÎ¹ÏĥÏĦÎ·": 6770,
      "ĠÏīÏģÎµÏĤ": 6771,
      "ĠÎ¼Î±ÏģÎ¿": 6772,
      "ĠÏĦÎ¿Î½Î¿": 6773,
      "heim": 6774,
      "ĠÎµÎ½Î¹Î±Î¹Î¿": 6775,
      "ĠÎºÎ±Î½Î¿Î½Î¹ÏĥÏĦÎ¹ÎºÏīÎ½": 6776,
      "ĠÎµÎ½ÏĦÏħÏĢÎ¿": 6777,
      "ĠÎºÎ±ÏĢÎ½Î¿Ïħ": 6778,
      "ĠÎ±Î½ÏĦÎ¹Î´Î¹ÎºÎ¿ÏĤ": 6779,
      "Ġ354": 6780,
      "ĠÎ¿Î³ÎºÎ¿ÏĤ": 6781,
      "ĠÏĢÎ¿ÏĦÎµ": 6782,
      "Ġje": 6783,
      "ĠÎµÎ³Î³ÏģÎ±ÏĨ": 6784,
      "ĠÎºÎµÎ½ÏĦÏģÎ¹ÎºÎ·ÏĤ": 6785,
      "ĠÏĥÏĦÏģÎ±ÏĦÎ¹Ïī": 6786,
      "ÏĦÎµÎ¿": 6787,
      "ĠÎ´Î±ÏĥÎ¼Î¿Î»Î¿Î³Î¹Î¿Ïħ": 6788,
      "ĠÏħÏĢÎ¿ÏĥÏĦÎ·ÏģÎ¹Î¾Î·ÏĤ": 6789,
      "ĠÎ±ÏĢÎ¿ÎºÎ»ÎµÎ¹ÏĥÏĦÎ¹ÎºÏīÏĤ": 6790,
      "ĠÎµÏĢÎ¹Î²Î±ÏģÏħÎ½ÏĥÎ·": 6791,
      "ĠÎ±ÏĢÎ¿ÏģÏģÎ·": 6792,
      "able": 6793,
      "ĠÎ³ÎµÏīÏģÎ³Î¹ÎºÎ±": 6794,
      "Ġ140": 6795,
      "Î¹Î½Î±Î½": 6796,
      "ĠÎ»ÎµÎ¹ÏĦÎ¿ÏħÏģÎ³Î¿ÏħÎ½": 6797,
      "ines": 6798,
      "ÏĨÎ¿ÏģÎ¹ÎºÎ±": 6799,
      "ĠÏĢÏģÎ¿ÏĥÏĨÎµÏħÎ³Î¿ÏħÏĥÏīÎ½": 6800,
      "Ġinc": 6801,
      "ĠÏĦÎµÎ»ÏīÎ½ÎµÎ¹Î±ÎºÎ·ÏĤ": 6802,
      "ĠÎ´ÏħÎ½Î±Î¼Î¹ÎºÎ¿Ïħ": 6803,
      "ĠÎµÎ¾ÎµÎ¹Î´Î¹ÎºÎµÏħ": 6804,
      "ĠÎ²Î»Î±": 6805,
      "Ġorg": 6806,
      "Ġfinanz": 6807,
      "gc": 6808,
      "Î¼Î±ÏĦÎ¿Î»Î¿Î³Î¹Î±ÏĤ": 6809,
      "ĠÎºÎ¹Î½Î±ÏĤ": 6810,
      "ĠÎµÏĢÎ¹ÏĥÎ·Î¼Î±Î½ÏĥÎ·": 6811,
      "Ġod": 6812,
      "Î´ÏģÎ±ÏĥÎ·": 6813,
      "ĠÏĦÎ·ÏĥÎ·": 6814,
      "ĠÏĦÎ±Ïħ": 6815,
      "Î±ÏĢÎ¿ÏĨÎ±ÏĥÎ·": 6816,
      "ĠÏĢÏģÎ¿ÏĢÎ±ÏģÎ±ÏĥÎºÎµÏħ": 6817,
      "ĠÎ±Î½ÏĦÎ±ÏĢÎ¿ÎºÏģÎ¹Î½Î¿Î½ÏĦÎ±Î¹": 6818,
      "ĠÏĦÏģÎ¿ÏĢÎ¿ÏĢÎ¿Î¹ÎµÎ¹": 6819,
      "ĠÎ¼ÎµÏĦÎ±Î»": 6820,
      "ĠÎ±ÏĥÏħÎ¼Î²Î¹Î²Î±Ïĥ": 6821,
      "ĠÏĥÏħÎ¼Î²Î¹Î²Î±": 6822,
      "ĠÏĢÎµÏģÎ¹Î¿ÏĩÏīÎ½": 6823,
      "ĠÎ¿ÏģÎ³Î±Î½ÏīÏĥÎ·ÏĤ": 6824,
      "ĠÎµÎ¾Î±ÏĥÏĨÎ±Î»Î¹ÏĥÎµÎ¹": 6825,
      "ĠÎµÏħÎºÎ±Î¹ÏģÎ¹Î±": 6826,
      "ĠÏĦÏģÎ¿ÏĢÎ¿ÏĢÎ¿Î¹Î·ÏĥÎµÏīÎ½": 6827,
      "ose": 6828,
      "Î³ÏģÎ±ÏĨÎ±": 6829,
      "ĠÎ±ÏģÎ¹Î¸Î¼Î·": 6830,
      "ĠÎ±ÏĢÎ¿Î´Î¿ÏĥÎ·ÏĤ": 6831,
      "ĠÎ±ÏĢÎ¿ÏģÏģÎ¹Î¼Î¼Î±ÏĦÎ±": 6832,
      "ĠÎ´Î¹Î±ÏĨÎ¿ÏģÎµÏĦÎ¹ÎºÎ¿": 6833,
      "ĠÎµÎ½Î´Î¹Î±ÏĨÎµÏģÎ¿Î¼ÎµÎ½Î¿ÏħÏĤ": 6834,
      "ĠÎ´ÏīÎ´ÎµÎºÎ±": 6835,
      "ÏĥÏĨÎ±Î¹": 6836,
      "ÏĢÏĦÎ¹ÎºÏīÎ½": 6837,
      "ÏĩÎ±Î¹": 6838,
      "ĠÎ²ÏģÏī": 6839,
      "Ġnr": 6840,
      "ĠÏĢÎ±ÏģÎ±Î³ÏīÎ³Î±": 6841,
      "ĠÏħÏĢÎ¿Î´Î¿Î¼ÏīÎ½": 6842,
      "ĠÏĢÎµÏĦÏģÎµÎ»Î±Î¹Î¿Ïħ": 6843,
      "ĠÏħÏĢÎ¿Î³ÏģÎ±Î¼Î¼Î¹Ïĥ": 6844,
      "ĠÎ´Î¹Î±Î½Î¿Î¼Î·": 6845,
      "ĠÎ¿ÎºÏĦÏīÎ²": 6846,
      "ĠÎµÎ½ÏĦÎ¿Î»Î·": 6847,
      "ĠÏĥÏĦÏģÎ±ÏĦÎ·Î³Î¹ÎºÎ·ÏĤ": 6848,
      "ĠÎ¼Î¿Î½Î¹Î¼Î·": 6849,
      "ĠÎ·Î¼ÎµÎ´Î±": 6850,
      "ĠÎµÏĦÎµ": 6851,
      "ÏĦÎ¹Î¼Î·ÏĥÎ·": 6852,
      "Ġfer": 6853,
      "Ġ226": 6854,
      "ĠÎºÎ±Î»Î¿Ïħ": 6855,
      "ĠÎºÎ±Î½Î¿Î½Î¹ÏĥÎ¼Î¿Î¹": 6856,
      "ĠÎ´Î¹Î±Î¸ÎµÏĥÎ¹Î¼ÎµÏĤ": 6857,
      "Ġtrans": 6858,
      "ĠÏĢÏģÎ¿Î·Î³Î¿ÏħÎ¼ÎµÎ½Î¿": 6859,
      "ĠÎ³ÏħÎ±": 6860,
      "ĠÎ±ÏĢÎ¿ÏĪÎµÏīÏĤ": 6861,
      "ĠÎ½Î¿Î¿ÏħÎ½ÏĦÎ±Î¹": 6862,
      "ĠÏĨÎ¿ÏģÎ¿Î»Î¿Î³Î¹Î±ÏĤ": 6863,
      "ja": 6864,
      "ĠÎºÏģÎµ": 6865,
      "ĠÎ½Î¿Î¼Î¿Î¸ÎµÏĦÎ¹ÎºÎ·": 6866,
      "Ġ121": 6867,
      "Î³ÎºÎ±": 6868,
      "ÏīÏĥ": 6869,
      "ĠÏĩÏģÎ·ÏĥÏĦÏīÎ½": 6870,
      "Î½Î¹ÎºÎ±": 6871,
      "ĠÎ´Î¹Î±ÏĥÏĨÎ±Î»Î¹ÏĥÎ·ÏĤ": 6872,
      "Ġvin": 6873,
      "Ġ2694": 6874,
      "ĠÎµÎ»Î·ÏĨÎ¸Î·ÏĥÎ±Î½": 6875,
      "ĠÏĨÏħÏĦÏīÎ½": 6876,
      "ĠÎ´ÏħÏĥÎ±": 6877,
      "ĠÎµÎ¾Î¿ÏĢÎ»Î¹ÏĥÎ¼Î¿ÏĤ": 6878,
      "Ġinsti": 6879,
      "Ġvon": 6880,
      "ĠÎ³Î¹Î±ÏĦÎ¹": 6881,
      "ĠÎ¶Î·Î¼Î¹ÎµÏĤ": 6882,
      "ita": 6883,
      "Ġgroup": 6884,
      "Ġ1975": 6885,
      "uo": 6886,
      "ĠÏĢÏģÎ¿ÎµÎºÏĦÎµ": 6887,
      "ĠÏĢÏģÏīÏĦÎ¿Î²Î¿ÏħÎ»Î¹Î±ÏĤ": 6888,
      "Ġpour": 6889,
      "ĠÎ¿Î¼Î±Î´ÏīÎ½": 6890,
      "enne": 6891,
      "ĠÏħÏĢÎ¿Î²Î±Î»Î¿ÏħÎ½": 6892,
      "ĠÎµÎ»Î±Î¹Î¿": 6893,
      "ĠÎ±Î½ÎµÏĢÏĦÏħÎ¾Îµ": 6894,
      "ĠÎ¼ÎµÏĦÎ±Î²Î»Î·": 6895,
      "ĠÎµÏĢÎ¹ÏĥÏĦÎ¿Î»ÏīÎ½": 6896,
      "ÎºÏīÏĤ": 6897,
      "ĠÏĢÎµÎ´Î¹Î¿Ïħ": 6898,
      "ÏĦÎ¹ÎºÏī": 6899,
      "ĠÎµÏħÎºÎ¿": 6900,
      "ĠÏĨÎ±ÏģÎ¼Î±ÎºÎ¿": 6901,
      "ĠÎ´Î¹ÎµÏħÎ¸ÏħÎ½ÏĦÎ·ÏĤ": 6902,
      "ĠÎ±Î¹ÏĦÎ¹Î¿Î»Î¿Î³Î·ÏĥÎ·": 6903,
      "red": 6904,
      "ÏĦÎµÎ¸Î·ÎºÎµ": 6905,
      "Ġ168": 6906,
      "Ġdep": 6907,
      "ĠÏĦÎ±Î¾Î¹Î´Î¹Ïī": 6908,
      "ĠÎ¿Î¿": 6909,
      "ijo": 6910,
      "ĠÎ¹Î´Î¹ÏīÏĦÎ¹ÎºÎ¿": 6911,
      "ĠÏĢÎ¹Î¸Î±Î½Î¿": 6912,
      "ton": 6913,
      "ĠÏĦÎµÎ»ÏīÎ½ÎµÎ¹Î±ÎºÏīÎ½": 6914,
      "ÏĦÎ·ÏģÎ±": 6915,
      "ĠÎ±Î½Î±ÎºÏĦÎ·": 6916,
      "ÏĢÎ¿Î¹Î¹Î±ÏĤ": 6917,
      "ĠÎ´Î·Î¼Î¿ÏĥÎ¹Î¿Î½Î¿Î¼Î¹ÎºÎ·": 6918,
      "ÏĥÏĥÎ±": 6919,
      "ĠÎ¼ÎµÏĦÎ±Î»Î»Î±": 6920,
      "ĠÏĢÏģÎ¿ÏĦÎµÏģÎ±Î¹Î¿ÏĦÎ·ÏĦÎ±": 6921,
      "ĠÏĢÎ¿Î»Î»ÎµÏĤ": 6922,
      "ĠÎ±Î½Î±ÎºÏĦÎ·ÏĥÎ·": 6923,
      "ĠÏĢÎ±ÏģÎ±ÏĥÎºÎµÏħÎ±ÏĥÎ¼ÎµÎ½Î±": 6924,
      "Ġsyst": 6925,
      "ÏĩÎµÎ¹Î¿": 6926,
      "ĠÎµÏĢÎ¹Î´Î¿ÏĦÎ·ÏĥÎ·ÏĤ": 6927,
      "ĠÎºÎ±ÏĦÎ±Î²Î»Î·Î¸ÎµÎ¹": 6928,
      "ĠÎ»Î¹Ïĩ": 6929,
      "ĠÎµÎ¹ÎºÎ¿Î½Î¹Ïĥ": 6930,
      "Ġrtl": 6931,
      "Ġdom": 6932,
      "ĠÎ´Î¹Î±Î¼Î¿Î½Î·": 6933,
      "ĠÎºÎ±ÏĦÎ±Î³Î¿Î¼ÎµÎ½ÏīÎ½": 6934,
      "ÏĨÎ¿ÏģÏĦÎ¹Ïĥ": 6935,
      "Ġfl": 6936,
      "ĠÎµÏĢÎ±Î»Î·Î¸ÎµÏħÏĥÎ·": 6937,
      "ates": 6938,
      "ĠÎµÏĩÏī": 6939,
      "ĠÎ±Î½Î¸ÏģÏīÏĢÎ¹Î½ÏīÎ½": 6940,
      "ĠÏĨÎ¿ÏģÎ¿Î»Î¿Î³Î¿Ïħ": 6941,
      "ÎµÎ¹Î´Î¿": 6942,
      "ĠÎ¸ÎµÏĥÎµÎ¹": 6943,
      "ĠÎºÎ±Î»": 6944,
      "uk": 6945,
      "ĠÏĦÎ¿ÎºÏīÎ½": 6946,
      "Ġsom": 6947,
      "ĠÏĥÏħÎ½ÏĦÏģÎµÏĩÎµÎ¹": 6948,
      "ÏģÎµÎ³Î³Ïħ": 6949,
      "ĠÏĢÏģÎ¿ÏĥÏīÏģÎ¹Î½Î·ÏĤ": 6950,
      "ĠÎ´Î¹ÎµÎº": 6951,
      "ĠÎ¿ÏģÎ¹ÏĥÎ¼Î¿Î¹": 6952,
      "Ġappl": 6953,
      "ÏĥÏĦÎ±Î¹Î½": 6954,
      "ĠÏĥÏĦÎ±ÏĦÎ¹ÏĥÏĦÎ¹ÎºÏīÎ½": 6955,
      "ĠÎµÎºÏĢÏĦÏīÏĥÎ·": 6956,
      "Ġâĸł": 6957,
      "ĠÏĨÎ·": 6958,
      "Ġ1976": 6959,
      "ĠÎµÏĢÎ¹ÏĥÏĦÎ·Î¼Î¿Î½Î¹ÎºÎ·": 6960,
      "ÏĦÎ·ÏģÏīÎ½": 6961,
      "ĠÎµÏĢÎ±Î³Î³ÎµÎ»Î¼Î±ÏĦÎ¹ÎºÏīÎ½": 6962,
      "ÏĨÎ¿ÏģÎ¿": 6963,
      "Ã¦i": 6964,
      "ĠÎºÎµÎ¹Î¼ÎµÎ½Î±": 6965,
      "ĠÎ±Î½Î±ÏĥÏĦÎµÎ¹Î»ÎµÎ¹": 6966,
      "ĠÏĢÏģÎ¿ÎºÎ·ÏģÏħÎ¾Î·": 6967,
      "ĠÏĢi": 6968,
      "Î²Î¹Î±ÏĤ": 6969,
      "ĠÎµÏģÏīÏĦÎ·Î¼Î±ÏĦÏīÎ½": 6970,
      "Î´Î¹ÎºÎ±Î¹Î¿Î»Î¿Î³Î·": 6971,
      "ĠÎ¼ÎµÎ¹ÏīÏĥÎ·ÏĤ": 6972,
      "ĠÎµÎºÎ¸ÎµÏĥÎµÏīÏĤ": 6973,
      "ĠÎ±Î½ÏĦÎ±Î³ÏīÎ½Î¹ÏĥÎ¼Î¿ÏĤ": 6974,
      "ĠÏĢÎ±ÏģÎµÏĩÎ¿": 6975,
      "Î±ÏģÎ¹": 6976,
      "ĠÂ±": 6977,
      "ĠÎ»ÎµÎ¹ÏĦÎ¿ÏħÏģÎ³ÎµÎ¹": 6978,
      "asi": 6979,
      "ĠÎ¼Î·ÏĩÎ±Î½Î¹ÏĥÎ¼Î¿": 6980,
      "ĠÕ": 6981,
      "ĠÎ¼ÎµÎ¹ÎºÏĦÎ·ÏĤ": 6982,
      "ĠÏħÏĢÎ¿Î»ÎµÎ¹": 6983,
      "ĠÎµÎ¼ÏĢÎ¿ÏģÎ¹ÎºÎ¿": 6984,
      "Ġ722": 6985,
      "Ġproc": 6986,
      "gram": 6987,
      "ĠÎµÏĢÎ¹Î²Î»Î·Î¸Î·ÎºÎµ": 6988,
      "ÎµÎºÎµ": 6989,
      "ĠÎ±ÎµÎ¹": 6990,
      "Ġhist": 6991,
      "Ġ230": 6992,
      "ĠÎ¾ÏħÎ»ÎµÎ¹Î±ÏĤ": 6993,
      "ĠÎ´Î¹ÎºÎ±Î¹Î¿ÏħÏĩÎ¿Î¹": 6994,
      "ĠÎµÎ¾Î±ÎºÎ¿Î»Î¿ÏħÎ¸Î¿ÏħÎ½": 6995,
      "ĠÏĢiÎ½Î±ÎºÎ±": 6996,
      "ĠÎ±ÏĢÎ¿Î´ÎµÎ¹ÎºÎ½ÏħÎµÎ¹": 6997,
      "âĪ": 6998,
      "ĠÎ´Î¹Î±ÏĨÎ±Î½ÎµÎ¹Î±ÏĤ": 6999,
      "Î¹Î½Ïħ": 7000,
      "ĠÎµÏĢÎ±Î½Î±Î»Î±Î¼Î²Î±": 7001,
      "ĠÎµÏĢÎ¹Î´Î¹ÎºÎ·ÏĤ": 7002,
      "Ġexp": 7003,
      "ÏĩÎ¹Î±ÏĤ": 7004,
      "Ġital": 7005,
      "ĠÎ±ÎºÏģÎ¹Î²ÎµÎ¹Î±": 7006,
      "Ġ145": 7007,
      "ĠÏĨÎ±ÏģÎ¼Î±ÎºÎ±": 7008,
      "ĠÎºÎ±Î¿Ïħ": 7009,
      "ĠÎ³Ïī": 7010,
      "ĠÎºÎ¿Î¹Î½Î¿ÏĦÎ¹ÎºÎ¿ÏĤ": 7011,
      "ĠÎ·Î»ÎµÎºÏĦÏģÎ¿Î½Î¹ÎºÎ±": 7012,
      "Ġ1515": 7013,
      "ĠÏĩÏīÏģÎ·": 7014,
      "ĠÎºÎ±ÏĦÎ¿Î½Î¿Î¼Î±": 7015,
      "ĠÎ¹Î¸Î±Î³ÎµÎ½ÎµÎ¹Î±": 7016,
      "ÏĦÎµÎ½ÏĥÏĦÎ±Î¹Î½": 7017,
      "ĠÎ±Î½ÏĦÎ¹ÎºÎ±ÏĦÎ±ÏĥÏĦÎ±": 7018,
      "ĠÎºÎ»ÏīÏĥ": 7019,
      "ĠÏĢÏģÎ¿ÏĦÎµÎ¹Î½ÎµÏĦÎ±Î¹": 7020,
      "ĠÎ½Î¿ÏģÎ²Î·Î³Î¹Î±ÏĤ": 7021,
      "ĠÎµÎ½Î±Î³ÏīÎ½": 7022,
      "ĠÎ·Î»Î¹ÎºÎ¹Î±": 7023,
      "ĠÏĢÎ±ÏģÎµÎ¹": 7024,
      "ĠÎ´Î¹Î±ÏĩÎµÎ¹ÏģÎ¹ÏĥÎµÏīÏĤ": 7025,
      "orf": 7026,
      "Ê¾": 7027,
      "ĠÎ±Î½ÏĦÎ¹ÏĥÏĦÎ¿Î¹ÏĩÎ·": 7028,
      "ĠÎºÎ±ÏĦÎ±Î³Î³ÎµÎ»Î¹Î±ÏĤ": 7029,
      "Ġ160": 7030,
      "ĠÎµÎ¾Î±Î½ÏĦÎ»Î·": 7031,
      "ĠÏĢÎ»Î¿Î¹ÏīÎ½": 7032,
      "ĠÎ´Î¹Î¿ÏģÎ¹Ïĥ": 7033,
      "ĠÏĦÎ¹ÏĦÎ»ÏīÎ½": 7034,
      "ĠÎµÏĩ": 7035,
      "ited": 7036,
      "ĠÎ´ÎµÏħÏĦÎµÏģÎ·ÏĤ": 7037,
      "ĠÎºÎ±ÏĦÎ±ÏģÏĩÎ·Î½": 7038,
      "ĠÎ±ÏĥÎºÎ¿Ïħ": 7039,
      "ĠÏĥÏħÎ¼Î²Î±Î¹Î½ÎµÎ¹": 7040,
      "Î»Î¸ÎµÎ¹": 7041,
      "ĠÏĢÏģÏīÏĦÎ¿ÏĤ": 7042,
      "ĠÎ¼ÎµÏģ": 7043,
      "ĠÎ¼ÎµÎ¹Î¶Î¿": 7044,
      "ÏĦÏħÏĢÏīÏĥÎ·": 7045,
      "Ã¸Ã¦": 7046,
      "ĠÏĦÏģÎ¿ÏĢÎ¿ÏħÏĤ": 7047,
      "ĠÎ·Î¸": 7048,
      "ĠÏĥÏħÎ¼ÏĢÎ»Î·ÏģÏīÎ¼Î±ÏĦÎ¹ÎºÎµÏĤ": 7049,
      "itt": 7050,
      "ĠÎµÎ½Î´Î¹Î±ÏĨÎµÏģÎ¿Î¼ÎµÎ½Î¿ÏĤ": 7051,
      "Î³ÏģÎ±ÏĨÎ¹Î±ÏĤ": 7052,
      "ĠÎ»Î¹ÏĩÏĦÎµÎ½ÏĥÏĦÎ±Î¹Î½": 7053,
      "ĠÏĢÎ¹ÎµÏĥÎ·": 7054,
      "ĠÎºÎ±Î»ÏħÏĦÎµÏģÎ·": 7055,
      "ĠÏĢÏģÎ¿ÏĥÎºÎ¿Î¼Î¹ÏĥÎµ": 7056,
      "ĠÎ±Î½ÎµÏģÎ³Î¿ÏħÏĤ": 7057,
      "Î³Î±Î³Îµ": 7058,
      "ĠÎ±Î³ÏīÎ½": 7059,
      "ĠÎ²ÎµÎ²Î±Î¹ÏīÏĥÎ·": 7060,
      "ĠÎºÎ¿Î¹Î½Ïī": 7061,
      "ĠÎ´Î¹Î±ÏĦÎ±Î¾ÎµÎ¹": 7062,
      "burg": 7063,
      "ĠÏĢÏģÎ¿ÏĥÎ»Î·ÏĪÎ·": 7064,
      "ĠÏĦÏģÎ¿ÏĢÎ¿ÏĢÎ¿Î¹Î·ÏĥÎµÏīÏĤ": 7065,
      "ĠÏĥÏħÎ¼Î²Î±Î»ÎµÎ¹": 7066,
      "ËĨ": 7067,
      "ĠÎºÎ»Î¹Î¼Î±ÎºÎ±ÏĤ": 7068,
      "Ġ156": 7069,
      "ĠÎ½ÏīÎ½": 7070,
      "ĠÎ½Î¿Ïħ": 7071,
      "Ġ340": 7072,
      "ĠÏĥÏħÎ¼Î¼ÎµÏĦÎ±Ïĥ": 7073,
      "ĠÏĥÏħÎ¼ÏĢÎ»Î·ÏģÏīÏĥÎ·": 7074,
      "ĠÎ±ÏĦÎ¼Î¿": 7075,
      "ĠÎ±ÏĥÏĦÏħ": 7076,
      "Ġcod": 7077,
      "ĠÎ´Î·Î¼Î¿ÏĥÎ¹ÎµÏħÏĥÎ·ÏĤ": 7078,
      "ĠÎµÎºÏĦÎ¹Î¼Î±ÏĦÎ±Î¹": 7079,
      "ĠÏĦÏģÎ¿ÏĢÎ¿ÏĢÎ¿Î¹Î·ÏĥÎ·ÏĤ": 7080,
      "ĠÎ±Î¼ÏĢÎµ": 7081,
      "ĠÎ¿ÏħÏĥÎ¹Î±ÏĥÏĦÎ¹ÎºÎ·": 7082,
      "ĠÎµÏĢÎ±Î½ÎµÎ¹": 7083,
      "Î¼Î±Îº": 7084,
      "ĠÎµÎ½Î±Îµ": 7085,
      "Ġoa": 7086,
      "ara": 7087,
      "ĠÏĢÎ»Î·ÏģÎ¿Ïħ": 7088,
      "ĠÎ±Î¼ÏĨÎ¿": 7089,
      "ĠÎ»Î´": 7090,
      "ÎºÎµÎ´Î¿Î½": 7091,
      "ĠÎ´Î¹Î¿ÏģÎ¸ÏīÏĥÎ·": 7092,
      "Î»ÎµÏħÏĥÎ·ÏĤ": 7093,
      "Ġ847": 7094,
      "ĠÏĥÏħÎ³ÏĩÏģÎ·Î¼Î±ÏĦÎ¿Î´Î¿": 7095,
      "ĠÎºÎ±ÏĦÎ¿ÏĩÎ·": 7096,
      "Ġ800": 7097,
      "Ġ158": 7098,
      "ĠÎ½ÎµÎ¿ÏħÏĤ": 7099,
      "ĠÎ¼Î¿Î½Î±Î´Î±ÏĤ": 7100,
      "ĠÎºÎ±Î¸Î¹ÏĥÏĦÎ±ÏĦÎ±Î¹": 7101,
      "Î¹ÎºÎ±ÏĥÏĦÎ·": 7102,
      "ĠÏĥÎºÎ¿Î½Î·": 7103,
      "ÏĨÏīÎ½Î±": 7104,
      "ĠÎ±Î´Î¹ÎºÎ±Î¹Î¿Î»Î¿Î³Î·": 7105,
      "ĠÎ´Î±ÏĥÎ¼Î¿Î»Î¿Î³Î¹ÎºÏīÎ½": 7106,
      "ĠÎ±Î½Î¸ÏģÏīÏĢÎ¹Î½Î·": 7107,
      "ĠÎ±Î½Î±Î»Î±Î¼Î²Î±Î½ÎµÎ¹": 7108,
      "ĠÏĥÏħÎ½Î±ÏĪÎ·ÏĤ": 7109,
      "ĠÎ±ÏĢÎ¿Î´ÎµÎºÏĦÎµÏĤ": 7110,
      "ĠÏĥÏħÎ¼Î²Î¿ÏħÎ»ÏīÎ½": 7111,
      "ÏĦÎ¿Î½Î¹Î±ÏĤ": 7112,
      "ĠÎ¸ÎµÏĥÎ¼Î¹ÎºÎ±": 7113,
      "ĠÎ½Î¿ÏĥÎ¿ÎºÎ¿": 7114,
      "ĠÏĢÏģÎ¿Î¸ÎµÏĥÎ¼Î¹ÎµÏĤ": 7115,
      "ĠÎ¹Î±ÏĦÏģÎ¿": 7116,
      "ĠÏĦÏģÎ¿ÏĢÎ¿Î»Î¿Î³Î¹Î±": 7117,
      "ĠâĮ": 7118,
      "ĠÎ±Î¼ÎµÏĥÎµÏĤ": 7119,
      "ÏĨÎµÏģÎ¿Î½ÏĦÎ±Î¹": 7120,
      "ĠÎºÎ±ÏĦÎ±ÏĨÎ±": 7121,
      "ons": 7122,
      "Ġrws": 7123,
      "Ġ133": 7124,
      "Ġ611": 7125,
      "ĠÏĥÏĦÎ±ÏĦÎ¹ÏĥÏĦÎ¹ÎºÎµÏĤ": 7126,
      "ĠÎ³Î¿ÏħÏĥÎ±": 7127,
      "ĠÎµÏĢÎ¹Î¼Î±ÏĩÎ·ÏĤ": 7128,
      "Î½Î¿Î¼Î¹Î±ÏĤ": 7129,
      "ĠÎ¼ÎµÎ½Î·": 7130,
      "ĠÎºÏģÏħ": 7131,
      "ĠÏĥÏħÎ½Î±Î´ÎµÎ¹": 7132,
      "Ġty": 7133,
      "ĠÎ»ÎµÎºÏĦÎ¹ÎºÎ¿": 7134,
      "ĠÎ±Î½Î¸Îµ": 7135,
      "ĠÎ±Î¹ÏĦÎ¹Î¿Î»Î¿Î³Î¹Î±ÏĤ": 7136,
      "ĠÎ±Î½Î±ÏĦÎµÎ¸ÎµÎ¹": 7137,
      "yl": 7138,
      "ĠÏĢÏģÎ±ÎºÏĦÎ¿": 7139,
      "ĠÎ±Î½ÏĦÎ¹Î²Î±Î¹Î½ÎµÎ¹": 7140,
      "ĠÏģÎ¿ÏħÎ¼Î±Î½Î¹Î±": 7141,
      "ĠÎµÎ³ÎºÏģÎ¹Î¸Î·ÎºÎµ": 7142,
      "ĠÏĢÎ±Î½Î¿Î¼Î¿": 7143,
      "ĠÎ±Î½Î±Î³ÎºÎ±Ïĥ": 7144,
      "aux": 7145,
      "ĠÏĢÏģÎ¿ÏĦÎµÏģÎ±Î¹Î¿ÏĦÎ·ÏĦÎ±ÏĤ": 7146,
      "Ġ730": 7147,
      "ĠÎ´ÏīÏģÎµÎ±Î½": 7148,
      "ĠÎµÏĢÎ±ÏģÎºÎµÎ¹ÏĤ": 7149,
      "ĠÎ¼Î¿Î½Î·": 7150,
      "ĠÎ¿ÏħÏĥÎ¹Î±ÏĥÏĦÎ¹ÎºÎ±": 7151,
      "57": 7152,
      "ĠÏĢÎ±Î½Î¿Î¼Î¿Î¹Î¿": 7153,
      "ĠÎµÎ¹ÏĥÎ¿Î´Î¿": 7154,
      "ĠÏĢÏģÎ¿ÎµÎ¹Î´Î¿": 7155,
      "ĠÎµÏģÎ¼Î·Î½ÎµÎ¹Î±ÏĤ": 7156,
      "ĠÎ·Î»ÎµÎºÏĦÏģÎ¿Î½Î¹ÎºÎ¿Ïħ": 7157,
      "ÏĨÎ¿ÏģÎ¿Ïħ": 7158,
      "ĠÎºÏģÎµÎ±ÏĤ": 7159,
      "ĠÎ¿Î½ÏĦÏīÏĤ": 7160,
      "ĠÎ³ÏģÎ¹": 7161,
      "Ġpa": 7162,
      "ĠÎ±Î±": 7163,
      "ĠÎ³Î»ÏīÏĥÏĥÎµÏĤ": 7164,
      "ĠÎºÎ±ÏĦÎ±ÏĦÎ±Ïĥ": 7165,
      "Ð´": 7166,
      "Ġregulation": 7167,
      "ĠÎ´Î·Î¼Î·ÏĦÏģÎ¹Î±": 7168,
      "Î·Îµ": 7169,
      "Ġconse": 7170,
      "Ġ141": 7171,
      "ĠÎ¼ÎµÎ¸Î¿Î´ÏīÎ½": 7172,
      "ÏĦÏģÎ¿ÏĨ": 7173,
      "ÏĢÏģÎ¿ÏĥÏĦÎ±": 7174,
      "ĠÎµÎ¾ÎµÏĦÎ±ÏĥÎµ": 7175,
      "Ġpet": 7176,
      "ĠÏĩÎ¿Î½Î´": 7177,
      "Ġ131": 7178,
      "ĠÏĥÏĦÏģÎµÎ²": 7179,
      "ĠÎ³Î±Î»Î±ÎºÏĦÎ¿ÎºÎ¿Î¼": 7180,
      "ase": 7181,
      "ium": 7182,
      "ĠÏħÏĥÏĦÎµÏģÎ±": 7183,
      "amt": 7184,
      "ĠÎ¿Î´Î·Î³Î·ÏĥÎµÎ¹": 7185,
      "ĠÏĢÏģÎ¿ÏħÏĢÎ¿Î¸ÎµÏĦÎµÎ¹": 7186,
      "ive": 7187,
      "ĠÏĢÏģÎ¿ÏĥÎ¸ÎµÏĦÎ±": 7188,
      "ĠÎ¹ÏĥÏĩÏħÎ¿Î½": 7189,
      "Â£": 7190,
      "ĠÏĢÏģÎ¿ÎµÎ²Î»Îµ": 7191,
      "kg": 7192,
      "ova": 7193,
      "ÏĦÏĥÎ¿ÏħÎº": 7194,
      "ĠÎ±ÏĢÏīÎ»ÎµÎ¹Î±": 7195,
      "ĠÎ±ÏĢÎ±Î½ÏĦÎ·ÏĥÎµÎ¹ÏĤ": 7196,
      "ĠÎµÏĢÎ¹ÎºÎ±Î»Ïħ": 7197,
      "urs": 7198,
      "ÏĥÏĦÎ¹": 7199,
      "ĠÏħÏĢÎµÏħÎ¸ÏħÎ½Î·": 7200,
      "ĠÎµÎ¹ÏĥÎ±Î³Î¿Î½ÏĦÎ±Î¹": 7201,
      "ĠÏĢÏģÎ¿ÏĥÎºÎ¿Î¼": 7202,
      "ÏĢÏģ": 7203,
      "Ġ124": 7204,
      "ĠÎ´Î±Î½ÎµÎ¹Î±": 7205,
      "ĠÏĥÏħÎ¼ÏĢÏģÎ±Î¾ÎµÏīÏĤ": 7206,
      "ĠÏĩÎ·ÏĤ": 7207,
      "ĠÏħÏĢÎ·ÏģÎ¾Îµ": 7208,
      "Ġimp": 7209,
      "Ġ1049": 7210,
      "ĠÎºÎ±ÏħÏĥÎ¹Î¼Î¿Ïħ": 7211,
      "Ġ122": 7212,
      "ĠÏĢÎ±ÏģÎ±Î³ÏīÎ³Î¿": 7213,
      "ĠÎ±Î½Î±ÏģÏĦÎ·": 7214,
      "ĠÎºÎ»Î±Î´Î¿ÏĤ": 7215,
      "ĠÏĦÎ·ÏģÎµÎ¹": 7216,
      "Ġtpoa": 7217,
      "ĠÎºÎ±Î¿ÏħÏĦÏĥÎ¿ÏħÎº": 7218,
      "Î¸ÎµÎ½ÏĦÎµÏĤ": 7219,
      "ÏģÎºÏī": 7220,
      "ĠÎµÏģÎ³Î±Î¶Î¿Î¼ÎµÎ½Î¿ÏĤ": 7221,
      "ĠÏĢÏģÎ¿ÏĦÏħÏĢÎ¿": 7222,
      "Ġpic": 7223,
      "Ġrsgm": 7224,
      "ĠÎµÎ¸Îµ": 7225,
      "Ġbv": 7226,
      "ĠÏĥÏħÏĥÏĥÏī": 7227,
      "Ġthat": 7228,
      "ĠÎµÎ¼ÏĢÎµÎ¹ÏģÎ¿Î³Î½ÏīÎ¼Î¿Î½ÎµÏĤ": 7229,
      "Î¾Î¹Î±ÏĤ": 7230,
      "ĠÎºÏħÏģÎ¹Î¿ÏĤ": 7231,
      "ĠÎºÎ¿Î¹Î½Î¿ÏĢÎ¿Î¹Î¿ÏħÎ½": 7232,
      "ÏĢÏģÎ¿ÏĥÎ¸Îµ": 7233,
      "ĠÏĢÏģÎ¿ÏĥÎ±ÏģÎ¼Î¿Î³ÎµÏĤ": 7234,
      "ĠÎ¼ÎµÏĦÎ±ÎºÎ¹Î½Î·": 7235,
      "ÏĥÏĦÎ·ÎºÎ±Î½": 7236,
      "ÏĢÎ¿Î¹Î·Î¼ÎµÎ½Î·": 7237,
      "ĠÏĥÏĦÎ¿ÏĩÎµÏħ": 7238,
      "ĠÏĥÏĩÎµÎ´Î¹Î±ÏĥÎ¼Î¿Ïħ": 7239,
      "Ġsr": 7240,
      "ÏĦÏīÎ½ÏĦÎ±Î¹": 7241,
      "ĠÎ±ÏĢÎ¿ÎºÎ»ÎµÎ¹ÏĥÏĦÎ¹ÎºÎ·": 7242,
      "Î²Î±Î¸Î¼Î¹Î±ÏĤ": 7243,
      "ĠÎµÎ¾Î±Î¹ÏģÎµÏĥÎµÎ¹ÏĤ": 7244,
      "ĠÏĥÏħÎ½Î¸Î·": 7245,
      "ett": 7246,
      "ĠÏĥÏħÏĥÎºÎµÏħÎ±ÏĥÎ¹Î±ÏĤ": 7247,
      "Ġoqh": 7248,
      "Î¼ÏĢÎ±": 7249,
      "Î»Î·ÏĪÎ·ÏĤ": 7250,
      "ĠÏħÏĢÎ¿ÏĩÏģÎµÎ¿ÏħÎ½ÏĦÎ±Î¹": 7251,
      "ĠÏĦÎµÏĩÎ½Î¿Î»Î¿Î³Î¹ÏīÎ½": 7252,
      "ĠÎºÎ±Î½Î¿Î½Î¹ÎºÎ±": 7253,
      "ues": 7254,
      "ĠÎ¿Î¾Îµ": 7255,
      "ĠÎºÎ±ÏĦÎ±Î²Î±Î»Î»Î¿Î½ÏĦÎ±Î¹": 7256,
      "ĠÏĢÏģÎ¿Î´Î·Î»Î·": 7257,
      "der": 7258,
      "ĠÎµÎ³ÎºÏħÎº": 7259,
      "ÎºÏģÎ¹Î½Îµ": 7260,
      "Ġcal": 7261,
      "ĠÎ»Î¹Î¼ÎµÎ½Î±": 7262,
      "ĠÏĥÏħÎ½ÏĦÎ·ÏģÎ·ÏĥÎ·": 7263,
      "gel": 7264,
      "ÃĹ": 7265,
      "ĠÎºÎ±ÏĦÎ±Ïĩ": 7266,
      "ĠÏĢÎ¿ÏĥÎ¿ÏĥÏĦÎ¿Ïħ": 7267,
      "ĠÎµÏĢÎ¹ÏĦÏģÎ±ÏĢÎµÎ¹": 7268,
      "ĠÏĢÎ±ÏģÎµÎ¼ÏĢÎ¹ÏĢÏĦÎ¿Î½": 7269,
      "ĠÎ¼Î±ÎºÎµÎ´Î¿Î½": 7270,
      "ros": 7271,
      "ĠÎ±ÏģÏĩÎ±ÏĤ": 7272,
      "ĠÎ¼ÎµÎ³ÎµÎ¸Î¿ÏħÏĤ": 7273,
      "ĠÏĢÎ±ÏģÎ±ÏĦÎ·ÏģÎµÎ¹": 7274,
      "ĠÏĥÎ·Î¼ÎµÏģÎ¹": 7275,
      "ĠÎ¸ÎµÏĥÎ¼Î¹ÎºÎ¿": 7276,
      "ĠÎµÏĢÎ·ÏģÎµÎ±Î¶Î¿ÏħÎ½": 7277,
      "Ġbud": 7278,
      "ĠÎµÏĥÏĦÎ¹Î±": 7279,
      "ĠÏĥÏħÎ½Î±Î¹": 7280,
      "Î¼Î¿Î½Î·": 7281,
      "ĠÏĢÎ±ÏģÎ±Î»Î±Î²Î·": 7282,
      "ĠÎ±Î»Î¹ÎµÏħÎ¼Î±ÏĦÎ±": 7283,
      "ĠÎºÎ¿Î¹Î½ÏīÏĨÎµ": 7284,
      "ĠÏĩÎ¿Ïħ": 7285,
      "ĠÏĢÏģÎ¿Î¹ÏĥÏĦÎ±": 7286,
      "Ġ137": 7287,
      "ĠÎºÎ±Î¹Î½Î¿ÏĦÎ¿Î¼Î¹Î±ÏĤ": 7288,
      "ĠÎ¼ÎµÏĦÎ±ÏĨÎµÏģ": 7289,
      "ĠÎ±Î½ÏĦÎ¹Î¸ÎµÏĥÎ·": 7290,
      "ĠÎµÎ½ÏĦÎ±Î¾Î·": 7291,
      "ÏģÎ¹ÏĥÏĦÎ¿Ïħ": 7292,
      "ĠÏĨÏħÎ»Î±": 7293,
      "ĠÎ´Î¹Î±ÏĦÎ±ÏģÎ±": 7294,
      "ĠÏĨÎ¿ÏģÎ¿Î»Î¿Î³Î¹ÎºÏīÎ½": 7295,
      "ĠÎ³ÏīÎ½": 7296,
      "ĠÎºÎ±ÏĦÎ±ÏĥÏĦÎ·Î¼Î±": 7297,
      "ĠÎ³ÎµÎ³Î¿Î½Î¿ÏĦÎ¿ÏĤ": 7298,
      "ĠÎ¹ÏĥÏĩÏħÏģÎ¹ÏĥÎ¼Î¿ÏĤ": 7299,
      "ĠÎ±Î½Î±Î»Î·ÏĪÎ·ÏĤ": 7300,
      "qot": 7301,
      "Ġ173": 7302,
      "ĠÎ¸ÎµÏīÏģÎ·ÏĥÎ·ÏĤ": 7303,
      "ĠÎ´Î·Î¼Î¹Î¿ÏħÏģÎ³ÎµÎ¹": 7304,
      "ĠÏĢÎ±ÏģÎµÎ¼Î²Î±ÏĥÎµÏīÏĤ": 7305,
      "Ġagre": 7306,
      "Ġben": 7307,
      "no": 7308,
      "ĠÎ¹Î½ÏīÎ½": 7309,
      "ĠÎ¶Î·Î¼Î¹ÏīÎ½": 7310,
      "ĠÎºÎ»Î±ÏĥÎµÎ¹ÏĤ": 7311,
      "ĠÎµÎ¾ÎµÎ»Î¹Î¾ÎµÎ¹ÏĤ": 7312,
      "ĠÎµÎ¾ÏīÏĦÎµÏģÎ¹ÎºÎ·": 7313,
      "ĠÎ¹ÏĥÏĩÏħÎ¿ÏħÏĥÎµÏĤ": 7314,
      "ĠÎ»Î±Î¹ÎºÎ·ÏĤ": 7315,
      "ĠÎ³Î»Ïī": 7316,
      "ated": 7317,
      "ĠÎ±Î»ÎµÏħ": 7318,
      "ÏģÎµÎ¹Î¿": 7319,
      "Ġapo": 7320,
      "ĠÏĢÏģÎ¿ÏĦÎµÎ¹Î½Î¿Î¼ÎµÎ½Î·": 7321,
      "ĠÏħÏĢÎ±Î³ÎµÏĦÎ±Î¹": 7322,
      "go": 7323,
      "ĠÏģÏħÎ¸Î¼Î¹ÏĥÎµÏīÎ½": 7324,
      "ĠÎºÏħÎ»Î¹Î½": 7325,
      "ĠÎ¹Î´ÏģÏħÎ¼Î±ÏĦÎ¿ÏĤ": 7326,
      "ĠÏĥÏħÎ½Î±ÏĩÎ¸ÎµÎ¹": 7327,
      "Î½Î¿ÏħÏģÎ³Î·": 7328,
      "ide": 7329,
      "ĠÎ¿ÏħÏĥÎ¹ÏīÎ´Î·": 7330,
      "ĠÏĢÏĦÏī": 7331,
      "ĠÏħÏĢÎ±ÏģÎ¾ÎµÏīÏĤ": 7332,
      "ĠÎ´ÎµÎ¹ÎºÏĦÎ·ÏĤ": 7333,
      "ĠÎµÏĢÎ¹ÏĢÏģÎ¿ÏĥÎ¸Îµ": 7334,
      "ĠÎ´Î¹ÎµÏģÎµÏħ": 7335,
      "ĠÎ¿ÏĨÎµÎ»Î·": 7336,
      "ĠÎ´Î¹Î±ÏĨÎ·Î¼Î¹Ïĥ": 7337,
      "ĠÏĢÏģÎ¿ÎµÏĦÎ¿Î¹Î¼Î±ÏĥÎ¹Î±": 7338,
      "lich": 7339,
      "ices": 7340,
      "ĠÏĨÎ¹Î»Î¿": 7341,
      "air": 7342,
      "ĠÎ²Î±ÏĥÎµÏīÏĤ": 7343,
      "ĠÎµÏĢÎ¹ÏĥÎºÎµ": 7344,
      "ember": 7345,
[...]
