{
  "version": "1.0",
  "truncation": null,
  "padding": null,
  "added_tokens": [
    {
      "id": 0,
      "content": "<pad>",
      "single_word": false,
      "lstrip": false,
      "rstrip": false,
      "normalized": false,
      "special": true
    },
    {
      "id": 1,
      "content": "<s>",
      "single_word": false,
      "lstrip": false,
      "rstrip": false,
      "normalized": false,
      "special": true
    },
    {
      "id": 2,
      "content": "</s>",
      "single_word": false,
      "lstrip": false,
      "rstrip": false,
      "normalized": false,
      "special": true
    },
    {
      "id": 3,
      "content": "<unk>",
      "single_word": false,
      "lstrip": false,
      "rstrip": false,
      "normalized": false,
      "special": true
    },
    {
      "id": 4,
      "content": "<mask>",
      "single_word": false,
      "lstrip": false,
      "rstrip": false,
      "normalized": false,
      "special": true
    }
  ],
  "normalizer": {
    "type": "Sequence",
    "normalizers": [
      {
        "type": "NFKD"
      },
      {
        "type": "BertNormalizer",
        "clean_text": true,
        "handle_chinese_chars": true,
        "strip_accents": null,
        "lowercase": true
      }
    ]
  },
  "pre_tokenizer": {
    "type": "Sequence",
    "pretokenizers": [
      {
        "type": "BertPreTokenizer"
      },
      {
        "type": "ByteLevel",
        "add_prefix_space": true,
        "trim_offsets": true,
        "use_regex": true
      }
    ]
  },
  "post_processor": {
    "type": "RobertaProcessing",
    "sep": [
      "</s>",
      2
    ],
    "cls": [
      "<s>",
      1
    ],
    "trim_offsets": true,
    "add_prefix_space": true
  },
  "decoder": {
    "type": "ByteLevel",
    "add_prefix_space": true,
    "trim_offsets": true,
    "use_regex": true
  },
  "model": {
    "type": "BPE",
    "dropout": null,
    "unk_token": "<unk>",
    "continuing_subword_prefix": null,
    "end_of_word_suffix": null,
    "fuse_unk": false,
    "vocab": {
      "<pad>": 0,
      "<s>": 1,
      "</s>": 2,
      "<unk>": 3,
      "<mask>": 4,
      "!": 5,
      "\"": 6,
      "#": 7,
      "$": 8,
      "%": 9,
      "&": 10,
      "'": 11,
      "(": 12,
      ")": 13,
      "*": 14,
      "+": 15,
      ",": 16,
      "-": 17,
      ".": 18,
      "/": 19,
      "0": 20,
      "1": 21,
      "2": 22,
      "3": 23,
      "4": 24,
      "5": 25,
      "6": 26,
      "7": 27,
      "8": 28,
      "9": 29,
      ":": 30,
      ";": 31,
      "<": 32,
      "=": 33,
      ">": 34,
      "?": 35,
      "@": 36,
      "[": 37,
      "\\": 38,
      "]": 39,
      "^": 40,
      "_": 41,
      "`": 42,
      "a": 43,
      "b": 44,
      "c": 45,
      "d": 46,
      "e": 47,
      "f": 48,
      "g": 49,
      "h": 50,
      "i": 51,
      "j": 52,
      "k": 53,
      "l": 54,
      "m": 55,
      "n": 56,
      "o": 57,
      "p": 58,
      "q": 59,
      "r": 60,
      "s": 61,
      "t": 62,
      "u": 63,
      "v": 64,
      "w": 65,
      "x": 66,
      "y": 67,
      "z": 68,
      "{": 69,
      "|": 70,
      "}": 71,
      "~": 72,
      "¡": 73,
      "¢": 74,
      "£": 75,
      "¤": 76,
      "¥": 77,
      "¦": 78,
      "§": 79,
      "¨": 80,
      "©": 81,
      "ª": 82,
      "«": 83,
      "¬": 84,
      "®": 85,
      "¯": 86,
      "°": 87,
      "±": 88,
      "²": 89,
      "³": 90,
      "´": 91,
      "µ": 92,
      "¶": 93,
      "·": 94,
      "¸": 95,
      "¹": 96,
      "º": 97,
      "»": 98,
      "¼": 99,
      "½": 100,
      "¾": 101,
      "¿": 102,
      "Â": 103,
      "Ã": 104,
      "Ä": 105,
      "Å": 106,
      "Æ": 107,
      "Ç": 108,
      "È": 109,
      "É": 110,
      "Ê": 111,
      "Ë": 112,
      "Î": 113,
      "Ï": 114,
      "Ð": 115,
      "Ñ": 116,
      "Ó": 117,
      "Õ": 118,
      "Ö": 119,
      "×": 120,
      "Ø": 121,
      "Ù": 122,
      "Ú": 123,
      "Û": 124,
      "ß": 125,
      "à": 126,
      "á": 127,
      "â": 128,
      "ã": 129,
      "ä": 130,
      "å": 131,
      "æ": 132,
      "ç": 133,
      "è": 134,
      "é": 135,
      "ï": 136,
      "ð": 137,
      "Ġ": 138,
      "Ģ": 139,
      "ģ": 140,
      "Ĥ": 141,
      "ĥ": 142,
      "Ħ": 143,
      "ħ": 144,
      "Ĩ": 145,
      "ĩ": 146,
      "Ī": 147,
      "ī": 148,
      "Ĭ": 149,
      "ĭ": 150,
      "Į": 151,
      "į": 152,
      "İ": 153,
      "ı": 154,
      "Ĳ": 155,
      "ĳ": 156,
      "Ĵ": 157,
      "ĵ": 158,
      "Ķ": 159,
      "ķ": 160,
      "ĸ": 161,
      "Ĺ": 162,
      "ĺ": 163,
      "Ļ": 164,
      "ļ": 165,
      "Ľ": 166,
      "ľ": 167,
      "Ŀ": 168,
      "ŀ": 169,
      "Ł": 170,
      "ł": 171,
      "Ń": 172,
      "Ġd": 173,
      "es": 174,
      "Ġl": 175,
      "on": 176,
      "Ġa": 177,
      "en": 178,
      "Ġc": 179,
      "Ġp": 180,
      "re": 181,
      "ti": 182,
      "Ġde": 183,
      "Ġ,": 184,
      "Ġe": 185,
      "te": 186,
      "an": 187,
      "Ġs": 188,
      "er": 189,
      "is": 190,
      "ur": 191,
      "Ġ.": 192,
      "qu": 193,
      "tion": 194,
      "Ġla": 195,
      "ent": 196,
      "in": 197,
      "le": 198,
      "ar": 199,
      "Ġâ": 200,
      "ĠâĢ": 201,
      "Ġm": 202,
      "Ġ'": 203,
      "Ġet": 204,
      "Ġ1": 205,
      "ne": 206,
      "ĠâĢĻ": 207,
      "or": 208,
      "it": 209,
      "Ġ2": 210,
      "om": 211,
      "Ġle": 212,
      "Ġcon": 213,
      "Ġre": 214,
      "ation": 215,
      "que": 216,
      "Ġdes": 217,
      "Ġu": 218,
      "ment": 219,
      "res": 220,
      "Ġdu": 221,
      "ou": 222,
      "Ġau": 223,
      "Ġf": 224,
      "Ġen": 225,
      "Ġpar": 226,
      "Ġt": 227,
      "ro": 228,
      "Ġles": 229,
      "ant": 230,
      "si": 231,
      "Ġ)": 232,
      "Ġn": 233,
      "ra": 234,
      "Ġcom": 235,
      "ce": 236,
      "il": 237,
      "ie": 238,
      "al": 239,
      "our": 240,
      "Ġ(": 241,
      "Ġin": 242,
      "ic": 243,
      "Ġ/": 244,
      "Ġ-": 245,
      "Ġv": 246,
      "me": 247,
      "Ġce": 248,
      "se": 249,
      "ai": 250,
      "ans": 251,
      "ve": 252,
      "Ġ0": 253,
      "Ġqu": 254,
      "ite": 255,
      "Ġb": 256,
      "Ġque": 257,
      "Ġar": 258,
      "Ġun": 259,
      "Ġcomm": 260,
      "Ġpro": 261,
      "Ġ3": 262,
      "au": 263,
      "Ġ20": 264,
      "de": 265,
      "pe": 266,
      "at": 267,
      "Ġo": 268,
      "Ġj": 269,
      "as": 270,
      "Ġdans": 271,
      "tic": 272,
      "he": 273,
      "Ġune": 274,
      "Ġes": 275,
      "ter": 276,
      "ag": 277,
      "sion": 278,
      "Ġex": 279,
      "Ġpour": 280,
      "du": 281,
      "Ġg": 282,
      "li": 283,
      "ff": 284,
      "Ġou": 285,
      "pp": 286,
      "ion": 287,
      "les": 288,
      "un": 289,
      "ont": 290,
      "mb": 291,
      "lle": 292,
      "Ġ4": 293,
      "ri": 294,
      "Ġartic": 295,
      "Ġ5": 296,
      "ci": 297,
      "Ġi": 298,
      "Ġse": 299,
      "oi": 300,
      "di": 301,
      "lement": 302,
      "Ġme": 303,
      "Ġ:": 304,
      "Ġpre": 305,
      "Ġarticle": 306,
      "Ġac": 307,
      "ab": 308,
      "Ġest": 309,
      "Ġsur": 310,
      "ait": 311,
      "Ġ19": 312,
      "Ġil": 313,
      "us": 314,
      "ue": 315,
      "Ġreg": 316,
      "Ġne": 317,
      "aire": 318,
      "ission": 319,
      "Ġpo": 320,
      "Ġdec": 321,
      "ĠÂ": 322,
      "Ġaut": 323,
      "Ġdi": 324,
      "po": 325,
      "Ġan": 326,
      "Ġ9": 327,
      "Ġmo": 328,
      "Ġapp": 329,
      "ise": 330,
      "Ġcommission": 331,
      "Ġsu": 332,
      "Ġaux": 333,
      "Ġconc": 334,
      "Ġ200": 335,
      "ati": 336,
      "Ġ8": 337,
      "Ġ6": 338,
      "ort": 339,
      "Ġ7": 340,
      "Ġqui": 341,
      "Ġpas": 342,
      "ations": 343,
      "Ġno": 344,
      "ision": 345,
      "mp": 346,
      "tions": 347,
      "ch": 348,
      "tes": 349,
      "ul": 350,
      "ure": 351,
      "Ġpres": 352,
      "Ġeur": 353,
      "ta": 354,
      "Ġres": 355,
      "ct": 356,
      "ces": 357,
      "tre": 358,
      "ig": 359,
      "Ġdecision": 360,
      "Ġch": 361,
      "Ġeuro": 362,
      "Ġcommun": 363,
      "00": 364,
      "ge": 365,
      "ction": 366,
      "tif": 367,
      "Ġent": 368,
      "Ġ;": 369,
      "Ġmar": 370,
      "Ġh": 371,
      "Ġ%": 372,
      "Ġav": 373,
      "Ġcomp": 374,
      "ence": 375,
      "Ġdis": 376,
      "urs": 377,
      "Ġper": 378,
      "rap": 379,
      "Ġetat": 380,
      "Ġr": 381,
      "ale": 382,
      "lu": 383,
      "mbre": 384,
      "ance": 385,
      "ts": 386,
      "Ġeurope": 387,
      "Ġte": 388,
      "ier": 389,
      "for": 390,
      "ques": 391,
      "Ġob": 392,
      "Ġpr": 393,
      "st": 394,
      "Ġeuropeen": 395,
      "che": 396,
      "oc": 397,
      "Ġetre": 398,
      "Ġcet": 399,
      "Ġdire": 400,
      "der": 401,
      "aires": 402,
      "Ġ201": 403,
      "Ġreglement": 404,
      "ir": 405,
      "lic": 406,
      "Ġentre": 407,
      "tive": 408,
      "Ġparti": 409,
      "ine": 410,
      "ente": 411,
      "Ġsou": 412,
      "Ġrep": 413,
      "ais": 414,
      "Ġrec": 415,
      "Ġparag": 416,
      "Ġparagrap": 417,
      "Ġad": 418,
      "Ġpl": 419,
      "Ġtra": 420,
      "ac": 421,
      "Ġtou": 422,
      "Ġ10": 423,
      "ens": 424,
      "Ġprodu": 425,
      "ites": 426,
      "man": 427,
      "je": 428,
      "ord": 429,
      "Ġcont": 430,
      "Ġcommunau": 431,
      "Ġconse": 432,
      "ate": 433,
      "ux": 434,
      "oit": 435,
      "ol": 436,
      "Ġpe": 437,
      "Ġparagraphe": 438,
      "lles": 439,
      "ĠâĢĶ": 440,
      "Ġsont": 441,
      "aux": 442,
      "age": 443,
      "Ġser": 444,
      "Ġdirec": 445,
      "ub": 446,
      "its": 447,
      "id": 448,
      "ĠÂ»": 449,
      "ĠÂ«": 450,
      "Ġpoin": 451,
      "ique": 452,
      "nes": 453,
      "Ġinter": 454,
      "Ġ199": 455,
      "quer": 456,
      "end": 457,
      "oir": 458,
      "Ġli": 459,
      "posi": 460,
      "ut": 461,
      "Ġacc": 462,
      "ret": 463,
      "Ġconcer": 464,
      "Ġcons": 465,
      "mes": 466,
      "Ġra": 467,
      "Ġti": 468,
      "Ġ\"": 469,
      "am": 470,
      "Ġcette": 471,
      "Ġfon": 472,
      "ante": 473,
      "ffe": 474,
      "ves": 475,
      "onne": 476,
      "Ġconseil": 477,
      "Ġces": 478,
      "Ġsi": 479,
      "vi": 480,
      "Ġproce": 481,
      "tu": 482,
      "Ġtr": 483,
      "ver": 484,
      "Ġete": 485,
      "Ġdro": 486,
      "ises": 487,
      "Ġconsi": 488,
      "Ġfin": 489,
      "op": 490,
      "Ġor": 491,
      "ss": 492,
      "ments": 493,
      "ures": 494,
      "Ġmes": 495,
      "pr": 496,
      "Ġsa": 497,
      "Ġdirective": 498,
      "rib": 499,
      "iere": 500,
      "Ġag": 501,
      "ours": 502,
      "Ġrequer": 503,
      "Ġpoint": 504,
      "ven": 505,
      "Ġju": 506,
      "ten": 507,
      "Ġca": 508,
      "Ġson": 509,
      "ors": 510,
      "Ġdisposi": 511,
      "Ġver": 512,
      "Ġdeman": 513,
      "Ġco": 514,
      "min": 515,
      "Ġ12": 516,
      "Ġautor": 517,
      "ys": 518,
      "ĠâĢĵ": 519,
      "Ġci": 520,
      "ille": 521,
      "Ġeffe": 522,
      "ist": 523,
      "Ġ11": 524,
      "vent": 525,
      "xe": 526,
      "Ġst": 527,
      "Ġimp": 528,
      "Ġautres": 529,
      "Ġfait": 530,
      "Ġapplic": 531,
      "pres": 532,
      "Ġat": 533,
      "and": 534,
      "Ġrel": 535,
      "able": 536,
      "Ġanne": 537,
      "Ġmemb": 538,
      "ants": 539,
      "Ġelle": 540,
      "Ġpa": 541,
      "Ġeuropeenne": 542,
      "ric": 543,
      "Ġmembres": 544,
      "lique": 545,
      "Ġtrans": 546,
      "ins": 547,
      "Ġave": 548,
      "Ġfr": 549,
      "Ġ15": 550,
      "Ġdep": 551,
      "con": 552,
      "Ġcha": 553,
      "Ġfor": 554,
      "Ġavec": 555,
      "isation": 556,
      "Ġetats": 557,
      "per": 558,
      "fic": 559,
      "Ġeg": 560,
      "Ġal": 561,
      "dure": 562,
      "Ġaff": 563,
      "Ġcour": 564,
      "Ġma": 565,
      "Ġpartie": 566,
      "Ġk": 567,
      "Ġdemande": 568,
      "Ġprocedure": 569,
      "Ġprev": 570,
      "til": 571,
      "Ġjo": 572,
      "Ġaccord": 573,
      "Ġpresente": 574,
      "Ġrelati": 575,
      "Ġconfor": 576,
      "Ġunion": 577,
      "Ġlors": 578,
      "Ġnon": 579,
      "ourn": 580,
      "Ġass": 581,
      "Ġ|": 582,
      "ales": 583,
      "Ġy": 584,
      "Ġdroit": 585,
      "Ġjur": 586,
      "Ġprem": 587,
      "vant": 588,
      "Ġtraite": 589,
      "Ġont": 590,
      "dic": 591,
      "Ġconsider": 592,
      "titu": 593,
      "Ġsous": 594,
      "jet": 595,
      "ls": 596,
      "Ġdef": 597,
      "Ġain": 598,
      "Ġainsi": 599,
      "Ġ13": 600,
      "tin": 601,
      "ru": 602,
      "Ġoff": 603,
      "dre": 604,
      "cte": 605,
      "Ġcas": 606,
      "inci": 607,
      "Ġplus": 608,
      "um": 609,
      "Ġpub": 610,
      "Ġcee": 611,
      "Ġcomme": 612,
      "ard": 613,
      "lon": 614,
      "Ġ]": 615,
      "Ġ[": 616,
      "Ġprinci": 617,
      "Ġlie": 618,
      "ene": 619,
      "Ġcondi": 620,
      "la": 621,
      "Ġpri": 622,
      "Ġ14": 623,
      "ieme": 624,
      "Ġproduits": 625,
      "lo": 626,
      "Ġdoit": 627,
      "Ġarret": 628,
      "orte": 629,
      "bre": 630,
      "cu": 631,
      "Ġexp": 632,
      "Ġetab": 633,
      "ons": 634,
      "Ġw": 635,
      "Ġcar": 636,
      "Ġcer": 637,
      "Ġinte": 638,
      "Ġtrib": 639,
      "Ġvi": 640,
      "iss": 641,
      "tie": 642,
      "Ġtribun": 643,
      "Ġter": 644,
      "Ġins": 645,
      "Ġmarche": 646,
      "Ġ25": 647,
      "Ġ>": 648,
      "os": 649,
      "Ġutil": 650,
      "Ġpartic": 651,
      "ers": 652,
      "im": 653,
      "ilite": 654,
      "va": 655,
      "Ġtribunal": 656,
      "Ġgr": 657,
      "ui": 658,
      "Ġ17": 659,
      "Ġmeme": 660,
      "Ġ16": 661,
      "lig": 662,
      "Ġentrepr": 663,
      "form": 664,
      "alite": 665,
      "og": 666,
      "Ġconcerne": 667,
      "aient": 668,
      "ents": 669,
      "Ġleur": 670,
      "Ġdeux": 671,
      "Ġ*": 672,
      "Ġgen": 673,
      "Ġcontra": 674,
      "iques": 675,
      "Ġdispositions": 676,
      "Ġrequerante": 677,
      "Ġfi": 678,
      "nant": 679,
      "Ġses": 680,
      "Ġmembre": 681,
      "Ġ18": 682,
      "Ġannexe": 683,
      "Ġren": 684,
      "Ġ30": 685,
      "Ġpeut": 686,
      "Ġapplication": 687,
      "ang": 688,
      "Ġmoy": 689,
      "Ġmesures": 690,
      "Ġab": 691,
      "Ġapres": 692,
      "Ġfe": 693,
      "Ġconforme": 694,
      "ues": 695,
      "Ġpresent": 696,
      "tiv": 697,
      "Ġnation": 698,
      "ble": 699,
      "Ġparties": 700,
      "Ġcommunaute": 701,
      "Ġpers": 702,
      "Ġjus": 703,
      "fer": 704,
      "met": 705,
      "Ġmodi": 706,
      "Ġgener": 707,
      "sement": 708,
      "Ġim": 709,
      "Ġ22": 710,
      "Ġlieu": 711,
      "Ġman": 712,
      "alement": 713,
      "Ġ21": 714,
      "ouve": 715,
      "anc": 716,
      "Ġ00": 717,
      "Ġba": 718,
      "Ġrecours": 719,
      "Ġ198": 720,
      "cep": 721,
      "ree": 722,
      "mment": 723,
      "iel": 724,
      "eres": 725,
      "Ġconditions": 726,
      "Ġautre": 727,
      "Ġrapp": 728,
      "Ġai": 729,
      "estion": 730,
      "onn": 731,
      "Ġmati": 732,
      "Ġsui": 733,
      "Â°": 734,
      "Ġimport": 735,
      "ies": 736,
      "io": 737,
      "Ġ31": 738,
      "Ġ29": 739,
      "ien": 740,
      "tique": 741,
      "Ġinform": 742,
      "cess": 743,
      "des": 744,
      "Ġcou": 745,
      "Ġtitre": 746,
      "Ġnota": 747,
      "Ġsub": 748,
      "Ġselon": 749,
      "Ġfonction": 750,
      "Ġconformement": 751,
      "nement": 752,
      "Ġtoute": 753,
      "Ġni": 754,
      "Ġexe": 755,
      "voir": 756,
      "Ġconcernant": 757,
      "gan": 758,
      "Ġleg": 759,
      "Ġro": 760,
      "ines": 761,
      "vre": 762,
      "Ġnotamment": 763,
      "Ġcadre": 764,
      "tifs": 765,
      "ere": 766,
      "ssi": 767,
      "Ġpart": 768,
      "ser": 769,
      "pose": 770,
      "Ġaffaire": 771,
      "Ġ23": 772,
      "ois": 773,
      "Ġconsiderant": 774,
      "ult": 775,
      "vic": 776,
      "oire": 777,
      "Ġii": 778,
      "Ġorgan": 779,
      "Ġve": 780,
      "Ġnom": 781,
      "if": 782,
      "Ġcontre": 783,
      "Ġmont": 784,
      "val": 785,
      "Ġbe": 786,
      "ot": 787,
      "Ġconclu": 788,
      "ing": 789,
      "Ġspe": 790,
      "Ġrepub": 791,
      "yant": 792,
      "Ġcommunaut": 793,
      "Ġmesure": 794,
      "Ġindi": 795,
      "ables": 796,
      "erci": 797,
      "Ġprincip": 798,
      "Ġpays": 799,
      "Ġ28": 800,
      "iste": 801,
      "Ġservic": 802,
      "Ġ27": 803,
      "Ġoct": 804,
      "áĥ": 805,
      "ause": 806,
      "Ġcompte": 807,
      "Ġso": 808,
      "Ġservices": 809,
      "Ġann": 810,
      "Ġinst": 811,
      "Ġdece": 812,
      "Ġ24": 813,
      "Ġdont": 814,
      "Ġetabl": 815,
      "Ġspeci": 816,
      "Ġ26": 817,
      "ju": 818,
      "Ġrepublique": 819,
      "Ġz": 820,
      "Ġecon": 821,
      "urait": 822,
      "Ġcerta": 823,
      "Ġdonne": 824,
      "yste": 825,
      "Ġdiff": 826,
      "Ġoblig": 827,
      "Ġeconom": 828,
      "Ġder": 829,
      "Ġbase": 830,
      "Ġrapport": 831,
      "Ġmet": 832,
      "Ġoffic": 833,
      "Ġpremier": 834,
      "Ġport": 835,
      "Ġid": 836,
      "Ġsec": 837,
      "Ġsens": 838,
      "Ġdecembre": 839,
      "Ġpou": 840,
      "Ġcontro": 841,
      "Ġpublic": 842,
      "Ġayant": 843,
      "Ġsyste": 844,
      "Ġcl": 845,
      "Ġrepres": 846,
      "Ġnecess": 847,
      "Ġactiv": 848,
      "rait": 849,
      "Ġcommunautes": 850,
      "ances": 851,
      "Ġprec": 852,
      "Ġfourn": 853,
      "Ġexc": 854,
      "Ġalle": 855,
      "Ġmodif": 856,
      "Ġam": 857,
      "20": 858,
      "Ġten": 859,
      "Ġsoit": 860,
      "Ġprix": 861,
      "Ġvu": 862,
      "tiques": 863,
      "Ġinc": 864,
      "ocie": 865,
      "Ġadmin": 866,
      "Ġadop": 867,
      "Ġeffet": 868,
      "tific": 869,
      "Ġpeu": 870,
      "Ġec": 871,
      "uation": 872,
      "agne": 873,
      "Ġtout": 874,
      "ences": 875,
      "ital": 876,
      "Ġadminist": 877,
      "Ġaide": 878,
      "ud": 879,
      "Ġeuropeennes": 880,
      "Ġdepens": 881,
      "Ġcause": 882,
      "Ġrequerant": 883,
      "Ġele": 884,
      "vo": 885,
      "Ġinf": 886,
      "ĠâĢĲ": 887,
      "Ġoper": 888,
      "Ġdom": 889,
      "Ġ=": 890,
      "Ġ197": 891,
      "Ġsupp": 892,
      "Ġcor": 893,
      "Ġmoyen": 894,
      "Ġsans": 895,
      "Ġobjet": 896,
      "Ġdel": 897,
      "gra": 898,
      "rit": 899,
      "Ġtrava": 900,
      "ace": 901,
      "fin": 902,
      "entes": 903,
      "Ġconf": 904,
      "urr": 905,
      "Ġmin": 906,
      "iee": 907,
      "Ġvise": 908,
      "Ġtro": 909,
      "Ġperio": 910,
      "Ġcompe": 911,
      "Ġ90": 912,
      "rer": 913,
      "ill": 914,
      "ature": 915,
      "Ġcompr": 916,
      "Ġchar": 917,
      "Ġsocie": 918,
      "ats": 919,
      "tro": 920,
      "ds": 921,
      "ole": 922,
      "Ġavant": 923,
      "Ġjourn": 924,
      "Ġlim": 925,
      "tionne": 926,
      "Ġpeuvent": 927,
      "ande": 928,
      "Ġconside": 929,
      "endant": 930,
      "Ġjournal": 931,
      "Ġofficiel": 932,
      "Ġval": 933,
      "Ġstat": 934,
      "Ġleurs": 935,
      "tis": 936,
      "Ġthe": 937,
      "Ġprote": 938,
      "oivent": 939,
      "Ġdefin": 940,
      "abilite": 941,
      "Ġegalement": 942,
      "Ġ40": 943,
      "Ġmise": 944,
      "Ġnouve": 945,
      "ire": 946,
      "Ġautorites": 947,
      "illet": 948,
      "Ġsep": 949,
      "ses": 950,
      "bles": 951,
      "Ġexam": 952,
      "vient": 953,
      "ciation": 954,
      "dit": 955,
      "Ġdoivent": 956,
      "Ġcommunautaire": 957,
      "ches": 958,
      "Ġph": 959,
      "Ġdroits": 960,
      "Ġdern": 961,
      "Ġbr": 962,
      "Ġvale": 963,
      "Ġjuin": 964,
      "Ġtrois": 965,
      "onc": 966,
      "Ġrais": 967,
      "Ġegard": 968,
      "Ġbene": 969,
      "anti": 970,
      "Ġelement": 971,
      "Ġjuillet": 972,
      "Ġdeter": 973,
      "Ġdate": 974,
      "Ġrespe": 975,
      "Ġcelle": 976,
      "hes": 977,
      "ip": 978,
      "Ġdoc": 979,
      "Ġcap": 980,
      "Ġobje": 981,
      "Ġpu": 982,
      "Ġpreju": 983,
      "Ġetait": 984,
      "endre": 985,
      "sition": 986,
      "Ġlaque": 987,
      "Ġpremiere": 988,
      "Ġlaquelle": 989,
      "isl": 990,
      "Ġtransp": 991,
      "Ġrele": 992,
      "Ġentreprises": 993,
      "Ġpersonne": 994,
      "ign": 995,
      "ouver": 996,
      "Ġatta": 997,
      "Ġlui": 998,
      "cri": 999,
      "ides": 1000,
      "Ġparlement": 1001,
      "Ġils": 1002,
      "Ġconcurr": 1003,
      "Ġress": 1004,
      "Ġarticles": 1005,
      "Ġcarac": 1006,
      "Ġquestion": 1007,
      "Ġdou": 1008,
      "idi": 1009,
      "mis": 1010,
      "Ġsit": 1011,
      "Ġinformations": 1012,
      "Ġvoir": 1013,
      "teur": 1014,
      "Ġpermet": 1015,
      "ulation": 1016,
      "Ġmontant": 1017,
      "ribu": 1018,
      "terie": 1019,
      "pon": 1020,
      "tue": 1021,
      "Ġcre": 1022,
      "chn": 1023,
      "Ġgar": 1024,
      "Ġcontrole": 1025,
      "Ġmais": 1026,
      "Ġrelative": 1027,
      "Ġchambre": 1028,
      "Ġcomite": 1029,
      "Ġjan": 1030,
      "vier": 1031,
      "ule": 1032,
      "omm": 1033,
      "Ġperiode": 1034,
      "Ġdiffer": 1035,
      "one": 1036,
      "ateur": 1037,
      "Ġdocu": 1038,
      "Ġappre": 1039,
      "tee": 1040,
      "Ġequ": 1041,
      "Ġeu": 1042,
      "Ġconvient": 1043,
      "Ġinstitu": 1044,
      "Ġjuridi": 1045,
      "xte": 1046,
      "Ġta": 1047,
      "Ġexig": 1048,
      "vention": 1049,
      "isse": 1050,
      "onnes": 1051,
      "Ġavis": 1052,
      "uxe": 1053,
      "Ġvertu": 1054,
      "vri": 1055,
      "Ġord": 1056,
      "Ġaurait": 1057,
      "sions": 1058,
      "Ġelles": 1059,
      "Ġcompet": 1060,
      "Ġproduit": 1061,
      "gu": 1062,
      "ctue": 1063,
      "fs": 1064,
      "Ġobjec": 1065,
      "10": 1066,
      "rite": 1067,
      "ange": 1068,
      "Ġcir": 1069,
      "Ġtechn": 1070,
      "Ġmatiere": 1071,
      "ient": 1072,
      "Ġsus": 1073,
      "Ġenv": 1074,
      "tement": 1075,
      "Ġdev": 1076,
      "Ġmoins": 1077,
      "Ġech": 1078,
      "ges": 1079,
      "ateurs": 1080,
      "all": 1081,
      "Ġattaque": 1082,
      "Ġmars": 1083,
      "Ġof": 1084,
      "Ġjanvier": 1085,
      "Ġemp": 1086,
      "uli": 1087,
      "Ġgeneral": 1088,
      "Ġorig": 1089,
      "iti": 1090,
      "Ġ50": 1091,
      "Ġpoints": 1092,
      "Ġregi": 1093,
      "Ġvo": 1094,
      "Ġgra": 1095,
      "Ġarre": 1096,
      "Ġappro": 1097,
      "Ġsysteme": 1098,
      "cteur": 1099,
      "Ġ2002": 1100,
      "Ġlegisl": 1101,
      "Ġ_": 1102,
      "eration": 1103,
      "Ġpresid": 1104,
      "llement": 1105,
      "fication": 1106,
      "ad": 1107,
      "igne": 1108,
      "Ġexecu": 1109,
      "30": 1110,
      "Ġtoutes": 1111,
      "Ġeng": 1112,
      "Ġess": 1113,
      "ages": 1114,
      "Ġsecur": 1115,
      "Ġ2004": 1116,
      "ap": 1117,
      "Ġnor": 1118,
      "gie": 1119,
      "Ġentreprise": 1120,
      "Ġvaleur": 1121,
      "Ġsuivant": 1122,
      "uvre": 1123,
      "gram": 1124,
      "Ġroy": 1125,
      "isant": 1126,
      "pre": 1127,
      "mble": 1128,
      "Ġ2003": 1129,
      "Ġital": 1130,
      "trodu": 1131,
      "Ġfa": 1132,
      "Ġprogram": 1133,
      "tives": 1134,
      "Ġfab": 1135,
      "ration": 1136,
      "Ġ2009": 1137,
      "Ġintrodu": 1138,
      "Ġ2001": 1139,
      "Ġ35": 1140,
      "Ġeconomique": 1141,
      "Ġocto": 1142,
      "Ġoctobre": 1143,
      "Ġregion": 1144,
      "Ġtous": 1145,
      "Ġmai": 1146,
      "Ġfranc": 1147,
      "Ġpossi": 1148,
      "Ġsecurite": 1149,
      "Ġeval": 1150,
      "Ġ85": 1151,
      "Ġavait": 1152,
      "co": 1153,
      "0000": 1154,
      "Ġbenefic": 1155,
      "Ġforme": 1156,
      "Ġconst": 1157,
      "Ġinde": 1158,
      "Ġir": 1159,
      "Ġmarque": 1160,
      "Ġservi": 1161,
      "Ġue": 1162,
      "ieur": 1163,
      "anci": 1164,
      "Ġrepresent": 1165,
      "Ġform": 1166,
      "Ġtelle": 1167,
      "lui": 1168,
      "Ġfac": 1169,
      "be": 1170,
      "Ġconsequ": 1171,
      "Ġprotection": 1172,
      "Ġ2006": 1173,
      "Ġprincipe": 1174,
      "Ġremp": 1175,
      "issant": 1176,
      "Ġ000": 1177,
      "Ġcelui": 1178,
      "Ġmil": 1179,
      "Ġcommerci": 1180,
      "Ġautorite": 1181,
      "omp": 1182,
      "Ġref": 1183,
      "Ġdeuxieme": 1184,
      "iser": 1185,
      "Ġdonc": 1186,
      "Ġnive": 1187,
      "aume": 1188,
      "Ġaides": 1189,
      "Ġlorsque": 1190,
      "Ġ39": 1191,
      "Ġense": 1192,
      "Ġjuridique": 1193,
      "Ġparticuli": 1194,
      "ril": 1195,
      "Ġrepon": 1196,
      "Ġroyaume": 1197,
      "mbour": 1198,
      "Ġhe": 1199,
      "Ġservice": 1200,
      "ho": 1201,
      "21": 1202,
      "Ġcal": 1203,
      "ler": 1204,
      "Ġgrou": 1205,
      "Ġap": 1206,
      "olog": 1207,
      "Ġexclu": 1208,
      "Ġnove": 1209,
      "Ġregles": 1210,
      "Ġlet": 1211,
      "Ġdonnees": 1212,
      "Ġpresident": 1213,
      "Ġadministra": 1214,
      "illeurs": 1215,
      "ye": 1216,
      "Ġgouver": 1217,
      "Ġlang": 1218,
      "Ġfig": 1219,
      "Ġmen": 1220,
      "Ġelements": 1221,
      "Ġavoir": 1222,
      "Ġavril": 1223,
      "Ġespe": 1224,
      "idic": 1225,
      "Ġjuridic": 1226,
      "Ġrest": 1227,
      "Ġer": 1228,
      "Ġexist": 1229,
      "bilite": 1230,
      "Ġchaque": 1231,
      "Ġconstitu": 1232,
      "Ġfra": 1233,
      "Ġnovembre": 1234,
      "Ġprof": 1235,
      "entie": 1236,
      "Ġ1999": 1237,
      "Ġsepte": 1238,
      "Ġdefen": 1239,
      "ruct": 1240,
      "Ġnature": 1241,
      "Ġto": 1242,
      "Ġseptembre": 1243,
      "Ġ2000": 1244,
      "Ġus": 1245,
      "Ġrefer": 1246,
      "Ġetabli": 1247,
      "Ġafin": 1248,
      "Ġx": 1249,
      "Ġfaire": 1250,
      "Ġposition": 1251,
      "Ġtemp": 1252,
      "aise": 1253,
      "Ġ32": 1254,
      "Ġregime": 1255,
      "Ġon": 1256,
      "istre": 1257,
      "Ġactivites": 1258,
      "Ġmatieres": 1259,
      "pos": 1260,
      "urant": 1261,
      "Ġesp": 1262,
      "quel": 1263,
      "Ġdernier": 1264,
      "Ġorganis": 1265,
      "cher": 1266,
      "Ġ38": 1267,
      "reg": 1268,
      "Ġliti": 1269,
      "Ġ33": 1270,
      "lar": 1271,
      "ctions": 1272,
      "Ġconcurrence": 1273,
      "Ġris": 1274,
      "ber": 1275,
      "Ġargu": 1276,
      "Ġproduction": 1277,
      "Ġrelatives": 1278,
      "ueur": 1279,
      "Ġfonde": 1280,
      "Ġobser": 1281,
      "vrier": 1282,
      "Ġtransport": 1283,
      "Ġindu": 1284,
      "Ġden": 1285,
      "Ġinfra": 1286,
      "Ġuni": 1287,
      "Ġ36": 1288,
      "Ġ2008": 1289,
      "ner": 1290,
      "Ġdess": 1291,
      "dite": 1292,
      "Ġresult": 1293,
      "Ġfinanci": 1294,
      "tra": 1295,
      "Ġviol": 1296,
      "Ġloi": 1297,
      "isees": 1298,
      "Ġ34": 1299,
      "Ġterrit": 1300,
      "position": 1301,
      "Ġty": 1302,
      "Ġreal": 1303,
      "Ġfevrier": 1304,
      "Ġsociete": 1305,
      "Ġconten": 1306,
      "aine": 1307,
      "Ġ37": 1308,
      "Ġna": 1309,
      "Ġ196": 1310,
      "Ġfabric": 1311,
      "Ġcours": 1312,
      "Ġconsta": 1313,
      "Ġdelai": 1314,
      "Ġoutre": 1315,
      "Ġmaniere": 1316,
      "Ġaline": 1317,
      "Ġconsidere": 1318,
      "ane": 1319,
      "Ġtant": 1320,
      "Ġniveau": 1321,
      "Ġredu": 1322,
      "rie": 1323,
      "Ġpoli": 1324,
      "Ġsubst": 1325,
      "Ġinves": 1326,
      "par": 1327,
      "Ġexecution": 1328,
      "ctive": 1329,
      "nation": 1330,
      "Ġem": 1331,
      "Ġqualite": 1332,
      "issement": 1333,
      "vel": 1334,
      "Ġdisposition": 1335,
      "Ġassure": 1336,
      "use": 1337,
      "voi": 1338,
      "tien": 1339,
      "pement": 1340,
      "hic": 1341,
      "ia": 1342,
      "uer": 1343,
      "Ġvue": 1344,
      "sie": 1345,
      "Ġpouvoir": 1346,
      "Ġ2011": 1347,
      "Ġnecessaire": 1348,
      "titue": 1349,
      "are": 1350,
      "Ġvig": 1351,
      "Ġelect": 1352,
      "Ġ2013": 1353,
      "Ġgre": 1354,
      "Ġcompris": 1355,
      "Ġcaracte": 1356,
      "tation": 1357,
      "Ġportant": 1358,
      "Ġtiers": 1359,
      "Ġsoci": 1360,
      "Ġdevant": 1361,
      "Ġobten": 1362,
      "Åĵ": 1363,
      "Ġalinea": 1364,
      "Ġequi": 1365,
      "Ġ84": 1366,
      "Ġappreciation": 1367,
      "Ġetant": 1368,
      "Ġcharge": 1369,
      "une": 1370,
      "Ġensemble": 1371,
      "Ġparticip": 1372,
      "Ġgestion": 1373,
      "tant": 1374,
      "Ġpra": 1375,
      "dam": 1376,
      "Ġappli": 1377,
      "resse": 1378,
      "Ġserait": 1379,
      "ative": 1380,
      "mi": 1381,
      "Ġvigueur": 1382,
      "antes": 1383,
      "crip": 1384,
      "Ġcent": 1385,
      "Ġstatut": 1386,
      "ession": 1387,
      "Ġexemp": 1388,
      "ca": 1389,
      "Ġclas": 1390,
      "ception": 1391,
      "her": 1392,
      "Ġesti": 1393,
      "Ġspecif": 1394,
      "Ġfix": 1395,
      "Ġ2010": 1396,
      "Ġmon": 1397,
      "Ġcaractere": 1398,
      "Ġgouvernement": 1399,
      "Ġcrite": 1400,
      "Ġlangue": 1401,
      "Ġ44": 1402,
      "Ġ45": 1403,
      "Ġsign": 1404,
      "Ġopp": 1405,
      "Ġtravail": 1406,
      "Ġbel": 1407,
      "aiss": 1408,
      "Ġapplique": 1409,
      "due": 1410,
      "Ġ94": 1411,
      "Ġabs": 1412,
      "11": 1413,
      "tification": 1414,
      "aut": 1415,
      "Ġ60": 1416,
      "Ġ2012": 1417,
      "Ġliste": 1418,
      "Ġ43": 1419,
      "Ġtel": 1420,
      "Ġ42": 1421,
      "Ġvehic": 1422,
      "Ġceux": 1423,
      "Ġtraitement": 1424,
      "Ġcelles": 1425,
      "Ġ48": 1426,
      "Ġenvir": 1427,
      "Ġviolation": 1428,
      "Ġpartir": 1429,
      "Ġmoyens": 1430,
      "Ġexport": 1431,
      "Ġappar": 1432,
      "Ġbas": 1433,
      "tient": 1434,
      "Ġdetermin": 1435,
      "ome": 1436,
      "Ġresp": 1437,
      "Ġtar": 1438,
      "Ġindust": 1439,
      "Ġdesti": 1440,
      "velop": 1441,
      "Ġplu": 1442,
      "ĠÅĵ": 1443,
      "Ġ2014": 1444,
      "magne": 1445,
      "ous": 1446,
      "ke": 1447,
      "Ġfer": 1448,
      "Ġpersonnes": 1449,
      "Ġ2007": 1450,
      "cteurs": 1451,
      "Ġ2005": 1452,
      "Ġge": 1453,
      "Ġallemagne": 1454,
      "Ġavoc": 1455,
      "ll": 1456,
      "Ġsituation": 1457,
      "Ġlimite": 1458,
      "Ġcertaines": 1459,
      "Ġmois": 1460,
      "Ġ87": 1461,
      "Ġ41": 1462,
      "Ġinternation": 1463,
      "ger": 1464,
      "Ġfins": 1465,
      "Ġprincipal": 1466,
      "Ġreference": 1467,
      "Ġdefini": 1468,
      "Ġas": 1469,
      "Ġengage": 1470,
      "Ġ93": 1471,
      "Ġobligation": 1472,
      "Ġprevues": 1473,
      "Ġrespons": 1474,
      "Ġrap": 1475,
      "Ġdem": 1476,
      "Ġcondam": 1477,
      "Ġjuris": 1478,
      "nent": 1479,
      "Ġfixe": 1480,
      "land": 1481,
      "Ġdevelop": 1482,
      "Ġnationale": 1483,
      "Ġ95": 1484,
      "atis": 1485,
      "Ġ92": 1486,
      "fois": 1487,
      "erce": 1488,
      "Ġali": 1489,
      "Ġsuff": 1490,
      "Ġanal": 1491,
      "Ġinteret": 1492,
      "Ġfil": 1493,
      "Ġacces": 1494,
      "out": 1495,
      "Ġreje": 1496,
      "Ġnombre": 1497,
      "az": 1498,
      "ercice": 1499,
      "Ġexercice": 1500,
      "Ġattaquee": 1501,
      "udence": 1502,
      "Ġprejudic": 1503,
      "Ġjuge": 1504,
      "Ġche": 1505,
      "Ġdeclar": 1506,
      "Ġ91": 1507,
      "Ġjurispr": 1508,
      "Ġ49": 1509,
      "int": 1510,
      "Ġaer": 1511,
      "Ġespece": 1512,
      "Ġaccor": 1513,
      "Ġnecessaires": 1514,
      "Ġjurisprudence": 1515,
      "Ġtexte": 1516,
      "art": 1517,
      "Ġsecteur": 1518,
      "Ġlesque": 1519,
      "Ġeffectue": 1520,
      "ules": 1521,
      "gor": 1522,
      "Ġinvestis": 1523,
      "Ġevaluation": 1524,
      "Ġconsomm": 1525,
      "ulte": 1526,
      "Ġcommunic": 1527,
      "ced": 1528,
      "Ġbien": 1529,
      "Ġfonctionn": 1530,
      "Ġutilisation": 1531,
      "Ġ01": 1532,
      "get": 1533,
      "prie": 1534,
      "toc": 1535,
      "Ġproced": 1536,
      "Ġ75": 1537,
      "Ġdecisions": 1538,
      "Ġtoutefois": 1539,
      "Ġ46": 1540,
      "ong": 1541,
      "ee": 1542,
      "000": 1543,
      "Ġjusqu": 1544,
      "Ġjuridiction": 1545,
      "Ġfais": 1546,
      "isee": 1547,
      "Ġmal": 1548,
      "itre": 1549,
      "Ġ+": 1550,
      "Ġagric": 1551,
      "Ġdist": 1552,
      "ĠÅĵuvre": 1553,
      "Ġconvention": 1554,
      "Ġporte": 1555,
      "Ġtot": 1556,
      "Ġquat": 1557,
      "Ġmax": 1558,
      "Ġcoop": 1559,
      "ice": 1560,
      "mine": 1561,
      "Ġiden": 1562,
      "Ġoctro": 1563,
      "ja": 1564,
      "Ġexpl": 1565,
      "Ġplan": 1566,
      "Ġmilli": 1567,
      "Ġacte": 1568,
      "Ġobligations": 1569,
      "Ġ80": 1570,
      "Ġsuper": 1571,
      "Ġcertains": 1572,
      "Ġcorres": 1573,
      "Ġexamen": 1574,
      "Ġfonds": 1575,
      "Ġand": 1576,
      "onnement": 1577,
      "esse": 1578,
      "Ġcan": 1579,
      "Ġtroisieme": 1580,
      "Ġcorrespon": 1581,
      "Ġgroupe": 1582,
      "Ġindique": 1583,
      "Ġrelatif": 1584,
      "Ġactivite": 1585,
      "oires": 1586,
      "Ġprojet": 1587,
      "Ġpendant": 1588,
      "Ġ55": 1589,
      "Ġanim": 1590,
      "pot": 1591,
      "Ġduree": 1592,
      "ribution": 1593,
      "Ġcontrat": 1594,
      "Ġaffaires": 1595,
      "dice": 1596,
      "Ġterritoire": 1597,
      "Ġprogramme": 1598,
      "Ġrou": 1599,
      "Ġsuiv": 1600,
      "Ġreser": 1601,
      "Ġprotoc": 1602,
      "Ġparticulier": 1603,
      "Ġexploit": 1604,
      "Ġannee": 1605,
      "Ġcate": 1606,
      "Ġatt": 1607,
      "Ġbo": 1608,
      "cul": 1609,
      "Ġdeci": 1610,
      "vision": 1611,
      "Ġconclusions": 1612,
      "Ġtaux": 1613,
      "Ġaucu": 1614,
      "lution": 1615,
      "Ġsuc": 1616,
      "Ġobserv": 1617,
      "Ġrem": 1618,
      "Ġsoi": 1619,
      "Ġeche": 1620,
      "Ġpos": 1621,
      "Ġsavoir": 1622,
      "Ġsuite": 1623,
      "Ġcategor": 1624,
      "Ġunique": 1625,
      "ende": 1626,
      "Ġnotif": 1627,
      "Ġ96": 1628,
      "Ġ?": 1629,
      "da": 1630,
      "Ġ99": 1631,
      "Ġenreg": 1632,
      "Ġbi": 1633,
      "su": 1634,
      "Ġcorrespond": 1635,
      "Ġconstitue": 1636,
      "ich": 1637,
      "Ġhy": 1638,
      "omme": 1639,
      "Ġaj": 1640,
      "mentation": 1641,
      "Ġmarches": 1642,
      "Ġladite": 1643,
      "Ġmain": 1644,
      "Ġraison": 1645,
      "Ġnational": 1646,
      "Ġchap": 1647,
      "Ġcircon": 1648,
      "alites": 1649,
      "mer": 1650,
      "Ġlettre": 1651,
      "Ġtenu": 1652,
      "Ġpaie": 1653,
      "Ġsau": 1654,
      "Ġ100": 1655,
      "Ġaucune": 1656,
      "tees": 1657,
      "Ġpen": 1658,
      "umer": 1659,
      "tice": 1660,
      "Ġ51": 1661,
      "Ġreun": 1662,
      "Ġdeveloppement": 1663,
      "rets": 1664,
      "ze": 1665,
      "Ġprevue": 1666,
      "mo": 1667,
      "Ġ53": 1668,
      "Ġprofession": 1669,
      "Ġtermes": 1670,
      "Ġ54": 1671,
      "Ġeff": 1672,
      "Ġ98": 1673,
      "Ġfrance": 1674,
      "Ġdestin": 1675,
      "medi": 1676,
      "Ġtype": 1677,
      "Ġ97": 1678,
      "Ġ47": 1679,
      "Ġ70": 1680,
      "iant": 1681,
      "Ġban": 1682,
      "leg": 1683,
      "Ġfabrication": 1684,
      "Ġexcl": 1685,
      "Ġreconn": 1686,
      "Ġdocuments": 1687,
      "Ġagents": 1688,
      "Ġmarch": 1689,
      "arm": 1690,
      "Ġcirconst": 1691,
      "yl": 1692,
      "Ġquanti": 1693,
      "Ġmm": 1694,
      "Ġprendre": 1695,
      "Ġneg": 1696,
      "Ġaffe": 1697,
      "Ġ65": 1698,
      "Ġans": 1699,
      "Ġ88": 1700,
      "Ġ89": 1701,
      "Ġ59": 1702,
      "Ġenregistre": 1703,
      "Ġappe": 1704,
      "Ġpreu": 1705,
      "Ġconn": 1706,
      "Ġaction": 1707,
      "Ġcontin": 1708,
      "Ġinterieur": 1709,
      "Ġatte": 1710,
      "Ġannulation": 1711,
      "Ġlequel": 1712,
      "Ġgaranti": 1713,
      "Ġprotocole": 1714,
      "Ġje": 1715,
      "Ġ73": 1716,
      "Ġques": 1717,
      "Ġfis": 1718,
      "quete": 1719,
      "Ġel": 1720,
      "Ġvis": 1721,
      "Ġbruxe": 1722,
      "Ġexigences": 1723,
      "Ġ1998": 1724,
      "Ġchapitre": 1725,
      "Ġtele": 1726,
      "Ġprocedures": 1727,
      "Ġluxe": 1728,
      "Ġapplicable": 1729,
      "Ġlorsqu": 1730,
      "Ġcondition": 1731,
      "Ġseul": 1732,
      "acite": 1733,
      "ture": 1734,
      "sieurs": 1735,
      "Ġ56": 1736,
      "Ġret": 1737,
      "Ġ61": 1738,
      "agn": 1739,
      "Ġdeli": 1740,
      "cun": 1741,
      "ari": 1742,
      "Ġassurer": 1743,
      "Ġacqu": 1744,
      "Ġbruxelles": 1745,
      "Ġloc": 1746,
      "Ġmode": 1747,
      "Ġjustice": 1748,
      "Ġvente": 1749,
      "forme": 1750,
      "Ġinvo": 1751,
      "Ġdefender": 1752,
      "vite": 1753,
      "inte": 1754,
      "Ġ2015": 1755,
      "Ġ52": 1756,
      "Ġpersonnel": 1757,
      "Ġitalien": 1758,
      "ignes": 1759,
      "Ġplusieurs": 1760,
      "Ġrespect": 1761,
      "Ġoc": 1762,
      "Ġabsence": 1763,
      "Ġorigine": 1764,
      "Ġ72": 1765,
      "Ġsal": 1766,
      "once": 1767,
      "Ġtarif": 1768,
      "Ġart": 1769,
      "Ġcol": 1770,
      "ici": 1771,
      "Ġjustif": 1772,
      "Ġ64": 1773,
      "Ġdessus": 1774,
      "rees": 1775,
      "Ġapplicables": 1776,
      "Ġcommunication": 1777,
      "raient": 1778,
      "Ġquestions": 1779,
      "Ġcooperation": 1780,
      "men": 1781,
      "por": 1782,
      "teurs": 1783,
      "erc": 1784,
      "Ġcriteres": 1785,
      "Ġindic": 1786,
      "uis": 1787,
      "Ġis": 1788,
      "atives": 1789,
      "Ġmarchand": 1790,
      "Ġdouan": 1791,
      "Ġasso": 1792,
      "Ġrappe": 1793,
      "Ġfaisant": 1794,
      "cien": 1795,
      "Ġdepenses": 1796,
      "Ġiii": 1797,
      "Ġdeb": 1798,
      "lace": 1799,
      "Ġindustrie": 1800,
      "Ġ57": 1801,
      "Ġluxembour": 1802,
      "Ġsim": 1803,
      "Ġaccorde": 1804,
      "Ġpertin": 1805,
      "Ġsoient": 1806,
      "Ġcomple": 1807,
      "Ġmetho": 1808,
      "Ġplace": 1809,
      "Ġmaxim": 1810,
      "Ġbud": 1811,
      "ination": 1812,
      "cepti": 1813,
      "Ġdefenderesse": 1814,
      "Ġeee": 1815,
      "Ġprofessionne": 1816,
      "Ġetaient": 1817,
      "Ġmme": 1818,
      "Ġlegislation": 1819,
      "Ġ1997": 1820,
      "Ġressort": 1821,
      "Ġcouts": 1822,
      "Ġfrais": 1823,
      "Ġtit": 1824,
      "Ġth": 1825,
      "Ġcommune": 1826,
      "Ġailleurs": 1827,
      "Ġavocat": 1828,
      "Ġdispositif": 1829,
      "ources": 1830,
      "Ġsuscepti": 1831,
      "Ġ68": 1832,
      "Ġenvironnement": 1833,
      "Ġcin": 1834,
      "iner": 1835,
      "Ġestime": 1836,
      "bil": 1837,
      "Ġ58": 1838,
      "ron": 1839,
      "Ġrisque": 1840,
      "Ġ77": 1841,
      "Ġorigin": 1842,
      "Ġvaloir": 1843,
      "Ġnumer": 1844,
      "Ġpropres": 1845,
      "Ġsera": 1846,
      "Ġobservations": 1847,
      "Ġobjectifs": 1848,
      "Ġdeta": 1849,
      "ielle": 1850,
      "Ġtable": 1851,
      "Ġ02": 1852,
      "Ġinstru": 1853,
      "Ġener": 1854,
      "Ġmodifie": 1855,
      "vement": 1856,
      "aissance": 1857,
      "Ġfeder": 1858,
      "pes": 1859,
      "orter": 1860,
      "Ġinterp": 1861,
      "mand": 1862,
      "Ġassur": 1863,
      "Ġaucun": 1864,
      "cription": 1865,
      "antie": 1866,
      "cid": 1867,
      "Ġarrete": 1868,
      "Ġinformation": 1869,
      "Ġcolle": 1870,
      "Ġarguments": 1871,
      "ak": 1872,
      "Ġetablissement": 1873,
      "Ġfinance": 1874,
      "Ġsuit": 1875,
      "Ġiniti": 1876,
      "Ġadministration": 1877,
      "Ġ1994": 1878,
      "Ġsecon": 1879,
      "Ġinfraction": 1880,
      "Ġ71": 1881,
      "Ġordonn": 1882,
      "Ġfisc": 1883,
      "Ġminim": 1884,
      "Ġprevoit": 1885,
      "Ġ1996": 1886,
      "01": 1887,
      "Ġprejudice": 1888,
      "Ġprom": 1889,
      "vis": 1890,
      "Ġexistence": 1891,
      "Ġaussi": 1892,
      "Ġ79": 1893,
      "Ġprecite": 1894,
      "Ġpolitique": 1895,
      "Ġ76": 1896,
      "Ġmotifs": 1897,
      "Ġamende": 1898,
      "Ġfinanc": 1899,
      "Ġreglementation": 1900,
      "Ġautorisation": 1901,
      "Ġdirect": 1902,
      "Ġproven": 1903,
      "ide": 1904,
      "terieure": 1905,
      "xes": 1906,
      "yn": 1907,
      "Ġoperations": 1908,
      "Ġinterpret": 1909,
      "fications": 1910,
      "Ġorganisation": 1911,
      "Ġpublique": 1912,
      "Ġtemps": 1913,
      "Ġvisees": 1914,
      "rog": 1915,
      "Ġcomb": 1916,
      "Ġcomporte": 1917,
      "Ġ04": 1918,
      "Ġmis": 1919,
      "oles": 1920,
      "Ġcode": 1921,
      "Ġinterpre": 1922,
      "Ġoperation": 1923,
      "Ġ86": 1924,
      "iaire": 1925,
      "Ġsol": 1926,
      "Ġ69": 1927,
      "Ġluxembourg": 1928,
      "Ġinstance": 1929,
      "Ð°": 1930,
      "Ġenti": 1931,
      "Ġ81": 1932,
      "Ġ1995": 1933,
      "ification": 1934,
      "Ġnationales": 1935,
      "02": 1936,
      "Ġrece": 1937,
      "Ġsurve": 1938,
      "atif": 1939,
      "Ġdocument": 1940,
      "Ġ62": 1941,
      "uliere": 1942,
      "Ġdeja": 1943,
      "Ġbudget": 1944,
      "Ġseu": 1945,
      "Ġcondu": 1946,
      "Ġinterets": 1947,
      "tte": 1948,
      "Ġmod": 1949,
      "Ġfrancais": 1950,
      "Ġsix": 1951,
      "illance": 1952,
      "Ġrepresente": 1953,
      "Ġfonctionnement": 1954,
      "Ġouver": 1955,
      "Ġrequerantes": 1956,
      "Ġvises": 1957,
      "Ġrenvoi": 1958,
      "Ġcontes": 1959,
      "Ġexper": 1960,
      "ils": 1961,
      "ly": 1962,
      "Ġpeche": 1963,
      "Ġinterpretation": 1964,
      "Ġparticipation": 1965,
      "ug": 1966,
      "Ġdecla": 1967,
      "Ġintroduit": 1968,
      "Ġdestine": 1969,
      "Ġ2016": 1970,
      "Ġcertific": 1971,
      "Ġrestric": 1972,
      "Ġinterven": 1973,
      "Ġaccomp": 1974,
      "Ġconcent": 1975,
      "el": 1976,
      "ung": 1977,
      "Ġjour": 1978,
      "Ġsaurait": 1979,
      "Ġ67": 1980,
      "Ġmedic": 1981,
      "Ġpris": 1982,
      "oment": 1983,
      "Ġaudi": 1984,
      "Ġenc": 1985,
      "Ġall": 1986,
      "Ġri": 1987,
      "Ġdomaine": 1988,
      "anges": 1989,
      "Ġentree": 1990,
      "to": 1991,
      "Ġevent": 1992,
      "Ġvol": 1993,
      "alisation": 1994,
      "Ġmarchandises": 1995,
      "Ġsocietes": 1996,
      "Ġprise": 1997,
      "gique": 1998,
      "Ġrese": 1999,
      "anche": 2000,
      "Ġajou": 2001,
      "Ġpaiement": 2002,
      "Ġreunion": 2003,
      "quent": 2004,
      "Ġrecher": 2005,
      "ose": 2006,
      "vra": 2007,
      "loi": 2008,
      "Ġaug": 2009,
      "ulaire": 2010,
      "Ġadoption": 2011,
      "Ġmillions": 2012,
      "Ġagissant": 2013,
      "Ġmater": 2014,
      "Ġquant": 2015,
      "Ġ63": 2016,
      "03": 2017,
      "Ġannue": 2018,
      "ma": 2019,
      "Ġpla": 2020,
      "uration": 2021,
      "Ġ78": 2022,
      "Ġagent": 2023,
      "Ġ66": 2024,
      "Ġgenerale": 2025,
      "Ġsan": 2026,
      "Ġimportation": 2027,
      "Ġbes": 2028,
      "Ġcommunautaires": 2029,
      "Ġ&": 2030,
      "Ġmodalites": 2031,
      "endu": 2032,
      "yer": 2033,
      "Ġobjectif": 2034,
      "Ġfigurant": 2035,
      "Ġcalcul": 2036,
      "Ġreserve": 2037,
      "Ġprest": 2038,
      "Ġpossible": 2039,
      "Ġsupplement": 2040,
      "Ġpreuve": 2041,
      "site": 2042,
      "ctivement": 2043,
      "Ġerre": 2044,
      "Ġinstall": 2045,
      "Ġ07": 2046,
      "Ġconsequent": 2047,
      "Ġsp": 2048,
      "core": 2049,
      "ĠÐ": 2050,
      "jo": 2051,
      "tent": 2052,
      "Ġemploi": 2053,
      "Ġcontraire": 2054,
      "Ġtelles": 2055,
      "Ġcomptes": 2056,
      "Ġcli": 2057,
      "Ġdetermine": 2058,
      "Ġsais": 2059,
      "ĠÎ": 2060,
      "ueil": 2061,
      "mite": 2062,
      "andes": 2063,
      "Ġsurveillance": 2064,
      "Ġalors": 2065,
      "Ġ05": 2066,
      "Ġinstituant": 2067,
      "Ġdos": 2068,
      "Ġencore": 2069,
      "ili": 2070,
      "Ġeuros": 2071,
      "Ġindem": 2072,
      "Ġsch": 2073,
      "Ġlitigie": 2074,
      "uses": 2075,
      "Ġnavi": 2076,
      "atoire": 2077,
      "Ġsante": 2078,
      "Ġfinanciere": 2079,
      "Ġaur": 2080,
      "Ġanimaux": 2081,
      "ori": 2082,
      "Ġrequ": 2083,
      "Ġpage": 2084,
      "Ġ2017": 2085,
      "Ġgrie": 2086,
      "Ġeffect": 2087,
      "Ġ74": 2088,
      "Ġlibre": 2089,
      "Ġnorm": 2090,
      "Ġdeclaration": 2091,
      "Ġdecide": 2092,
      "rique": 2093,
      "Ġ1993": 2094,
      "Ġchi": 2095,
      "orti": 2096,
      "Ġsuivantes": 2097,
      "Ġlong": 2098,
      "Ġvers": 2099,
      "Ġinterne": 2100,
      "Ġvisant": 2101,
      "Ġmodifiee": 2102,
      "Ġregle": 2103,
      "Ġdistin": 2104,
      "atisf": 2105,
      "Ġadresse": 2106,
      "Ġhau": 2107,
      "Ġtotal": 2108,
      "Ġrepar": 2109,
      "Ġ03": 2110,
      "yse": 2111,
      "asse": 2112,
      "Ġmoment": 2113,
      "Ġreleve": 2114,
      "Ġeventue": 2115,
      "ton": 2116,
      "cier": 2117,
      "Ġsatisf": 2118,
      "Ġinteg": 2119,
      "Ġutilisees": 2120,
      "ructure": 2121,
      "Ġemb": 2122,
      "Ġsoum": 2123,
      "itaire": 2124,
      "Ġactions": 2125,
      "raph": 2126,
      "Ġemplo": 2127,
      "Ġcommerce": 2128,
      "Ġqual": 2129,
      "Ġsimil": 2130,
      "Ġaccords": 2131,
      "Ġreten": 2132,
      "Ġaupres": 2133,
      "cede": 2134,
      "05": 2135,
      "Ġexploitation": 2136,
      "lande": 2137,
      "Ġop": 2138,
      "ka": 2139,
      "Ġconsult": 2140,
      "Ġoe": 2141,
      "Ġresulte": 2142,
      "Ġordonnance": 2143,
      "Ġcirconstances": 2144,
      "Ġsoumis": 2145,
      "ieure": 2146,
      "Ġtres": 2147,
      "pl": 2148,
      "Ġconstru": 2149,
      "Ġreponse": 2150,
      "Ġproje": 2151,
      "Ġcouver": 2152,
      "ataire": 2153,
      "ph": 2154,
      "Ġdudit": 2155,
      "Ġ83": 2156,
      "Ġessentie": 2157,
      "Ġadopte": 2158,
      "Ġconstater": 2159,
      "th": 2160,
      "08": 2161,
      "Ġcaracter": 2162,
      "Ġsuffis": 2163,
      "Ġimportations": 2164,
      "04": 2165,
      "Ġbis": 2166,
      "22": 2167,
      "Ġrepresentants": 2168,
      "Ġparagraphes": 2169,
      "Ġree": 2170,
      "vor": 2171,
      "Ġcompati": 2172,
      "Ġdepart": 2173,
      "Ġ2018": 2174,
      "poses": 2175,
      "Ġconcours": 2176,
      "Ġindep": 2177,
      "Ġprecise": 2178,
      "Ġprincipes": 2179,
      "Ġtechniques": 2180,
      "Ġeffets": 2181,
      "Ġep": 2182,
      "Ġlo": 2183,
      "Ġbeso": 2184,
      "Ġtels": 2185,
      "Ġvehicules": 2186,
      "Ġappare": 2187,
      "Ġiv": 2188,
      "Ġdispose": 2189,
      "Ġexerc": 2190,
      "Ġfonctionnaires": 2191,
      "Ġgaz": 2192,
      "Ġdevrait": 2193,
      "Ġetu": 2194,
      "Ġinfer": 2195,
      "Ġbar": 2196,
      "Ġfacon": 2197,
      "Ġensu": 2198,
      "Ġtf": 2199,
      "Ġtire": 2200,
      "oration": 2201,
      "Ġindemn": 2202,
      "Ġimportant": 2203,
      "Ġpratique": 2204,
      "Ġtechnique": 2205,
      "Ġ08": 2206,
      "Ġindivi": 2207,
      "Ġnote": 2208,
      "ontre": 2209,
      "Ġaout": 2210,
      "Ġrendu": 2211,
      "Ġ1992": 2212,
      "Ġpes": 2213,
      "iees": 2214,
      "Ġlitige": 2215,
      "Ġvisee": 2216,
      "Ġentra": 2217,
      "Ġpass": 2218,
      "Ġphy": 2219,
      "cle": 2220,
      "ttes": 2221,
      "Ġfinancement": 2222,
      "Ġprevu": 2223,
      "Ġmanque": 2224,
      "Ġderniere": 2225,
      "Ġappliquer": 2226,
      "urg": 2227,
      "Ġpossibilite": 2228,
      "Ġanalyse": 2229,
      "Ġrejete": 2230,
      "Ġassurance": 2231,
      "Ġexclusion": 2232,
      "Ġconfir": 2233,
      "Ġbelgique": 2234,
      "Ġchiff": 2235,
      "Ġoffice": 2236,
      "uler": 2237,
      "mar": 2238,
      "omb": 2239,
      "Ġ82": 2240,
      "Î¹": 2241,
      "Ġsection": 2242,
      "Ġnouvelle": 2243,
      "Ġprepar": 2244,
      "Ġmanif": 2245,
      "Ð¸": 2246,
      "Ġmettre": 2247,
      "Ġdemandes": 2248,
      "Ġrev": 2249,
      "Ġproprie": 2250,
      "Ġconsequence": 2251,
      "est": 2252,
      "cts": 2253,
      "poni": 2254,
      "Ġcentra": 2255,
      "dition": 2256,
      "Ġremplace": 2257,
      "Ġlic": 2258,
      "Ġexportation": 2259,
      "Ġcro": 2260,
      "Ġang": 2261,
      "99": 2262,
      "Ġrefus": 2263,
      "ones": 2264,
      "Ġfois": 2265,
      "Ġame": 2266,
      "Ġecheant": 2267,
      "Ġressources": 2268,
      "Ġtransfer": 2269,
      "Ġprejudicielle": 2270,
      "Ġtfue": 2271,
      "Ġespagne": 2272,
      "Ġcontrats": 2273,
      "Ġproducteurs": 2274,
      "Ġconser": 2275,
      "Ġrecherche": 2276,
      "dits": 2277,
      "Ġconclusion": 2278,
      "Ġequival": 2279,
      "Ġit": 2280,
      "posee": 2281,
      "Ġtex": 2282,
      "Ġpie": 2283,
      "Ġfont": 2284,
      "Ġlignes": 2285,
      "Ġrembour": 2286,
      "rices": 2287,
      "Ġadap": 2288,
      "Ġmor": 2289,
      "Ġdisponi": 2290,
      "Ġdossi": 2291,
      "Ġeffic": 2292,
      "Ġorganismes": 2293,
      "Ġcondamner": 2294,
      "Ġexemple": 2295,
      "Ġpubl": 2296,
      "Ġitalie": 2297,
      "Ġtravailleurs": 2298,
      "Ġnotification": 2299,
      "vers": 2300,
      "Î±": 2301,
      "Ġaliment": 2302,
      "rieme": 2303,
      "Ġtaxe": 2304,
      "Ġquatrieme": 2305,
      "Ġ06": 2306,
      "Ġfaits": 2307,
      "we": 2308,
      "Ġmemes": 2309,
      "Ġfai": 2310,
      "Ġaccep": 2311,
      "Ġfournit": 2312,
      "did": 2313,
      "Ġfrancaise": 2314,
      "Ġsystemes": 2315,
      "Ġconformite": 2316,
      "Ġarrets": 2317,
      "ock": 2318,
      "Ġdeterminer": 2319,
      "Ġdepuis": 2320,
      "ulture": 2321,
      "Ġterme": 2322,
      "Ġresultats": 2323,
      "aison": 2324,
      "Ġreduction": 2325,
      "Ġlesquelles": 2326,
      "Ġcorre": 2327,
      "Ġdouanier": 2328,
      "Ġappr": 2329,
      "Ġmarques": 2330,
      "Ġdecou": 2331,
      "Ġsubstance": 2332,
      "Ġcompar": 2333,
      "Ġameli": 2334,
      "Ġessai": 2335,
      "Ġcela": 2336,
      "indre": 2337,
      "atique": 2338,
      "Ġnumero": 2339,
      "Ġoctroi": 2340,
      "Ġportug": 2341,
      "Ġsimp": 2342,
      "Ġacquis": 2343,
      "issent": 2344,
      "Ġgarantie": 2345,
      "Ġcategorie": 2346,
      "Ġresid": 2347,
      "Ġcandid": 2348,
      "Ġechanges": 2349,
      "Ġradi": 2350,
      "Ġseulement": 2351,
      "Ġderog": 2352,
      "Ġoriginaires": 2353,
      "Ġmodification": 2354,
      "Ġmanifes": 2355,
      "06": 2356,
      "Ġautant": 2357,
      "Ġinvestisse": 2358,
      "Ġpermettre": 2359,
      "illes": 2360,
      "Ġerreur": 2361,
      "Ġdirectement": 2362,
      "Ġsie": 2363,
      "Ġkg": 2364,
      "poser": 2365,
      "Ġcompens": 2366,
      "Ġutilises": 2367,
      "gen": 2368,
      "Ġindividue": 2369,
      "Ġactes": 2370,
      "Î¿": 2371,
      "armon": 2372,
      "Ġfinancier": 2373,
      "Ġsecret": 2374,
      "Ġpuis": 2375,
      "lam": 2376,
      "Ġconcl": 2377,
      "Ġmer": 2378,
      "Ġspecifiques": 2379,
      "Ġrepresentant": 2380,
      "Ġvehicule": 2381,
      "Ġoeuvre": 2382,
      "Ġlar": 2383,
      "can": 2384,
      "Ġ2019": 2385,
      "Ġpreced": 2386,
      "mination": 2387,
      "Ġsta": 2388,
      "Ġdeche": 2389,
      "Ġcompetentes": 2390,
      "Ġrecu": 2391,
      "Ġformation": 2392,
      "Ġharmon": 2393,
      "Ġrelevant": 2394,
      "Ġvan": 2395,
      "Ġconstate": 2396,
      "Ġprises": 2397,
      "Ġexclusi": 2398,
      "Ġemission": 2399,
      "Ġresponsabilite": 2400,
      "Ġpourvoi": 2401,
      "Ġhu": 2402,
      "tivation": 2403,
      "Ġordre": 2404,
      "Ġproposition": 2405,
      "12": 2406,
      "Ġmodifiant": 2407,
      "Ġcompter": 2408,
      "Ġait": 2409,
      "idite": 2410,
      "ass": 2411,
      "Ġmi": 2412,
      "Ġobtenir": 2413,
      "Ġchamp": 2414,
      "Ġchac": 2415,
      "Ġaffir": 2416,
      "Ġeleve": 2417,
      "Ġusage": 2418,
      "Ġexception": 2419,
      "duction": 2420,
      "Ġetablie": 2421,
      "Ġassociation": 2422,
      "Ġ1990": 2423,
      "Ġenergie": 2424,
      "Ġinforme": 2425,
      "Ġconven": 2426,
      "Ġsoutien": 2427,
      "Ġparticuliere": 2428,
      "Ġache": 2429,
      "Ġinvestissement": 2430,
      "Ġmotivation": 2431,
      "Ġcapital": 2432,
      "gne": 2433,
      "no": 2434,
      "Ġsh": 2435,
      "judic": 2436,
      "Ġsuivants": 2437,
      "Ġvie": 2438,
      "Ġcompetente": 2439,
      "enc": 2440,
      "Ġ1991": 2441,
      "Ġincid": 2442,
      "Ġreven": 2443,
      "veur": 2444,
      "vait": 2445,
      "icile": 2446,
      "Ġstra": 2447,
      "07": 2448,
      "Ġenquete": 2449,
      "Ġlesquels": 2450,
      "Ġpublics": 2451,
      "istance": 2452,
      "Ġnouveau": 2453,
      "usion": 2454,
      "Ġappel": 2455,
      "Ġverif": 2456,
      "Ġ09": 2457,
      "13": 2458,
      "Ġpoi": 2459,
      "Ġsein": 2460,
      "ennent": 2461,
      "ob": 2462,
      "oli": 2463,
      "Ġsen": 2464,
      "Ġinternational": 2465,
      "Ġuniquement": 2466,
      "Ġinvoque": 2467,
      "Ġcirc": 2468,
      "Ġjours": 2469,
      "Ġzone": 2470,
      "Ġprojets": 2471,
      "licite": 2472,
      "sees": 2473,
      "Ġactue": 2474,
      "Ġenregistrement": 2475,
      "Ġcontribu": 2476,
      "mettre": 2477,
      "Ġdiscri": 2478,
      "Ġpropor": 2479,
      "Ġprestations": 2480,
      "Ġconsideration": 2481,
      "gee": 2482,
      "Ġsubstances": 2483,
      "Ġavaient": 2484,
      "Ġdifferents": 2485,
      "Ġetablir": 2486,
      "Ġoh": 2487,
      "Ġsociale": 2488,
      "fe": 2489,
      "Ð¾": 2490,
      "Ġrempl": 2491,
      "Ġdossier": 2492,
      "Ġetr": 2493,
      "Ġsecond": 2494,
      "Ġatten": 2495,
      "Ġmainten": 2496,
      "Ġpourrait": 2497,
      "Ġgrande": 2498,
      "Ġorganisme": 2499,
      "Ðµ": 2500,
      "amment": 2501,
      "Ġinstitutions": 2502,
      "Ġprincipaux": 2503,
      "Ġfaveur": 2504,
      "cter": 2505,
      "Ġcredit": 2506,
      "Ġliber": 2507,
      "tres": 2508,
      "Ġautom": 2509,
      "Ġremboursement": 2510,
      "Ġquel": 2511,
      "Ġprive": 2512,
      "Ġmand": 2513,
      "see": 2514,
      "Ġeconomiques": 2515,
      "Ġspecifique": 2516,
      "Ġirre": 2517,
      "Ġaudience": 2518,
      "ctif": 2519,
      "ager": 2520,
      "Ġcoord": 2521,
      "ograph": 2522,
      "Ġfonctions": 2523,
      "Ġinteresse": 2524,
      "Ġeau": 2525,
      "vaux": 2526,
      "Ġechange": 2527,
      "Ġda": 2528,
      "ablement": 2529,
      "Ġcite": 2530,
      "Ġrelatifs": 2531,
      "Ġcapacite": 2532,
      "Ġregard": 2533,
      "Ġinstitution": 2534,
      "aitre": 2535,
      "Ġpermettant": 2536,
      "Ġdechets": 2537,
      "lob": 2538,
      "Ġlt": 2539,
      "Ġsigne": 2540,
      "Ġannuler": 2541,
      "Ġfond": 2542,
      "Ġsoulig": 2543,
      "Ġcompetence": 2544,
      "Ġraisons": 2545,
      "Ġexaminer": 2546,
      "Ġenfin": 2547,
      "hesion": 2548,
      "ataires": 2549,
      "mbh": 2550,
      "Ġrecom": 2551,
      "Ġrepro": 2552,
      "Ġcirculation": 2553,
      "ommes": 2554,
      "Ġconclut": 2555,
      "Ġexiste": 2556,
      "Ġlimites": 2557,
      "Ġgmbh": 2558,
      "Ġ2020": 2559,
      "Ġrejet": 2560,
      "Ġconstat": 2561,
      "Ġpoids": 2562,
      "Ġbl": 2563,
      "Ġstructure": 2564,
      "Ġpor": 2565,
      "Ġperman": 2566,
      "Ġenf": 2567,
      "Ġcomplement": 2568,
      "Ġcep": 2569,
      "gar": 2570,
      "Ġadjudic": 2571,
      "Ġseront": 2572,
      "Ġextra": 2573,
      "Ġreseau": 2574,
      "Ã¸": 2575,
      "Ġcaracteris": 2576,
      "orts": 2577,
      "Ġexpres": 2578,
      "Ġfournir": 2579,
      "Ġmention": 2580,
      "Ġgrand": 2581,
      "Ġannees": 2582,
      "Ġrisques": 2583,
      "Ġprovis": 2584,
      "Ġaa": 2585,
      "Ġnormes": 2586,
      "Ġstock": 2587,
      "ume": 2588,
      "Ġrepr": 2589,
      "leve": 2590,
      "Ġressorti": 2591,
      "Ġohmi": 2592,
      "vr": 2593,
      "quant": 2594,
      "Ġbanque": 2595,
      "itaires": 2596,
      "Ġadministrative": 2597,
      "33": 2598,
      "19": 2599,
      "Ġrestruct": 2600,
      "Ġmission": 2601,
      "Ġreve": 2602,
      "Ġenonce": 2603,
      "Ġtravaux": 2604,
      "Ġindepend": 2605,
      "Ġsauf": 2606,
      "Ġfre": 2607,
      "Ġconcernes": 2608,
      "Ġilleg": 2609,
      "Ġcertificat": 2610,
      "Ġinten": 2611,
      "Ġhab": 2612,
      "Ġzones": 2613,
      "issements": 2614,
      "Ġrealisation": 2615,
      "Ġsocial": 2616,
      "ko": 2617,
      "Ġtenir": 2618,
      "Ġsusp": 2619,
      "tiere": 2620,
      "Ġrappeler": 2621,
      "Ġcontenant": 2622,
      "Ġtableau": 2623,
      "Ġmentionne": 2624,
      "09": 2625,
      "Ġutilis": 2626,
      "Ġagence": 2627,
      "Ġprogrammes": 2628,
      "Ġnu": 2629,
      "Ġfau": 2630,
      "Ġpubli": 2631,
      "Ġsoutient": 2632,
      "Ġauraient": 2633,
      "Ġpreal": 2634,
      "Ġconcentration": 2635,
      "25": 2636,
      "ano": 2637,
      "Ġsc": 2638,
      "Ġbut": 2639,
      "Ġglob": 2640,
      "mission": 2641,
      "ii": 2642,
      "vation": 2643,
      "Ġcontract": 2644,
      "Ġfederale": 2645,
      "Ġpret": 2646,
      "vrais": 2647,
      "Ġáĥ": 2648,
      "rime": 2649,
      "15": 2650,
      "Ġhum": 2651,
      "Ġoffre": 2652,
      "Ġpromo": 2653,
      "Ġconte": 2654,
      "Ġequipe": 2655,
      "Ġappui": 2656,
      "Ġcontroles": 2657,
      "itime": 2658,
      "Ġtonnes": 2659,
      "Ġnotion": 2660,
      "Ġrestructuration": 2661,
      "Ġevo": 2662,
      "lee": 2663,
      "Ġcommunique": 2664,
      "ba": 2665,
      "ielles": 2666,
      "Ġcependant": 2667,
      "Ġirlande": 2668,
      "Ġdesign": 2669,
      "Ġapproprie": 2670,
      "onner": 2671,
      "ular": 2672,
      "Ġdirecteur": 2673,
      "Ġscien": 2674,
      "Ġpratiques": 2675,
      "Ġrelever": 2676,
      "Ġnet": 2677,
      "itation": 2678,
      "do": 2679,
      "enter": 2680,
      "osition": 2681,
      "sif": 2682,
      "Ġimmedi": 2683,
      "Ġmethode": 2684,
      "Ġconta": 2685,
      "Ġfondee": 2686,
      "Ġanti": 2687,
      "Ġresultant": 2688,
      "Ġul": 2689,
      "Ġmach": 2690,
      "Ġfavor": 2691,
      "Ġsixieme": 2692,
      "14": 2693,
      "Ġusine": 2694,
      "Ġdefense": 2695,
      "xy": 2696,
      "Ġautric": 2697,
      "Ġlarge": 2698,
      "af": 2699,
      "Ġrecueil": 2700,
      "airement": 2701,
      "Ġmecan": 2702,
      "Ġquatre": 2703,
      "Ġnego": 2704,
      "Ġtechnolog": 2705,
      "Ġprovenance": 2706,
      "Ġconsommation": 2707,
      "Ġgarantir": 2708,
      "Ġliqu": 2709,
      "Ġdirection": 2710,
      "Ġscientif": 2711,
      "Ġtota": 2712,
      "Ġfinanciers": 2713,
      "ki": 2714,
      "Ġdestines": 2715,
      "Ġfonctionnaire": 2716,
      "Ġom": 2717,
      "Ġfournisse": 2718,
      "Ġdirectrices": 2719,
      "ries": 2720,
      "Ġcontenu": 2721,
      "Ġsusceptible": 2722,
      "Ġmotif": 2723,
      "Ġphysi": 2724,
      "Ġmul": 2725,
      "erland": 2726,
      "sui": 2727,
      "Ġtransfert": 2728,
      "Ġallemand": 2729,
      "bres": 2730,
      "Ġseule": 2731,
      "ates": 2732,
      "naire": 2733,
      "Ġfam": 2734,
      "Ġadministratives": 2735,
      "Ġexerce": 2736,
      "Ġchange": 2737,
      "Ġelectron": 2738,
      "Ġremun": 2739,
      "Ġbiens": 2740,
      "Ġlu": 2741,
      "Ġoffres": 2742,
      "Ġbon": 2743,
      "Ġcondamne": 2744,
      "Ġspecial": 2745,
      "Ġdo": 2746,
      "Ġconsideree": 2747,
      "tiles": 2748,
      "Ġconformes": 2749,
      "Ġespagn": 2750,
      "Ġair": 2751,
      "Ġinspe": 2752,
      "Ġrenfor": 2753,
      "Ġenvis": 2754,
      "Ġitalienne": 2755,
      "ae": 2756,
      "iles": 2757,
      "Ġnavires": 2758,
      "isme": 2759,
      "Ġpartici": 2760,
      "Ġconcernee": 2761,
      "eneur": 2762,
      "Ġetrang": 2763,
      "lant": 2764,
      "Ġ1989": 2765,
      "Ġengagements": 2766,
      "Ġcarb": 2767,
      "Ġsue": 2768,
      "atoires": 2769,
      "hese": 2770,
      "Ġpoursui": 2771,
      "Ġhypot": 2772,
      "diction": 2773,
      "Ġsele": 2774,
      "Ġmun": 2775,
      "vabilite": 2776,
      "Ġtransform": 2777,
      "Ġcontexte": 2778,
      "Ġcomportement": 2779,
      "gre": 2780,
      "Ġuk": 2781,
      "Ġcinqu": 2782,
      "iaires": 2783,
      "dites": 2784,
      "Ġproceder": 2785,
      "na": 2786,
      "Ġopposition": 2787,
      "18": 2788,
      "ÏĦ": 2789,
      "Ġrense": 2790,
      "Ġdifferentes": 2791,
      "Ġfinal": 2792,
      "oy": 2793,
      "Ġaerop": 2794,
      "Ġber": 2795,
      "Ġunite": 2796,
      "16": 2797,
      "Ġmut": 2798,
      "Ġutilise": 2799,
      "Ġdomicile": 2800,
      "Ġpublication": 2801,
      "ĠÃ": 2802,
      "Ġauxque": 2803,
      "Ġdeten": 2804,
      "Ġadhesion": 2805,
      "Ġsyn": 2806,
      "Ġvolu": 2807,
      "orteur": 2808,
      "Ġressortiss": 2809,
      "mark": 2810,
      "Ġlitigieuse": 2811,
      "Ġ1988": 2812,
      "Ġcaracteristiques": 2813,
      "Ġcategories": 2814,
      "Ð½": 2815,
      "Ġdevraient": 2816,
      "ciations": 2817,
      "inaire": 2818,
      "gres": 2819,
      "ps": 2820,
      "ÅĤ": 2821,
      "Ġbonne": 2822,
      "Ġple": 2823,
      "Ġdenomme": 2824,
      "ica": 2825,
      "Ġtva": 2826,
      "Ġbure": 2827,
      "Ġfoi": 2828,
      "Ġvar": 2829,
      "Ġha": 2830,
      "Ġdirectives": 2831,
      "ond": 2832,
      "Ġnouvelles": 2833,
      "od": 2834,
      "Ġdeme": 2835,
      "23": 2836,
      "24": 2837,
      "Ġprecede": 2838,
      "Ġdistribution": 2839,
      "Ġsusceptibles": 2840,
      "Ġstatuer": 2841,
      "gue": 2842,
      "Ġagricoles": 2843,
      "Ġnord": 2844,
      "oix": 2845,
      "pa": 2846,
      "Ġlait": 2847,
      "Ġvous": 2848,
      "Ġtempor": 2849,
      "ÑĢ": 2850,
      "Ġgro": 2851,
      "Ġimpose": 2852,
      "Ġancien": 2853,
      "17": 2854,
      "dament": 2855,
      "mation": 2856,
      "Ġserie": 2857,
      "Ġregions": 2858,
      "Ġtard": 2859,
      "Ġrapports": 2860,
      "Ġsorte": 2861,
      "ck": 2862,
      "Ġintervention": 2863,
      "tage": 2864,
      "ĠâĢľ": 2865,
      "ombe": 2866,
      "Ġprocede": 2867,
      "Ġbou": 2868,
      "Ġneces": 2869,
      "vrir": 2870,
      "Ġfondament": 2871,
      "vile": 2872,
      "Ġagit": 2873,
      "tionnel": 2874,
      "Ġposi": 2875,
      "Ġchiffre": 2876,
      "Ġseraient": 2877,
      "Ġneerland": 2878,
      "Ġjudic": 2879,
      "ceder": 2880,
      "Ġconcernees": 2881,
      "Ġnouveaux": 2882,
      "riques": 2883,
      "Ġfigure": 2884,
      "Ġetablissements": 2885,
      "antil": 2886,
      "Ġassistance": 2887,
      "Ġrequete": 2888,
      "mping": 2889,
      "Ġcommercial": 2890,
      "Ġhyd": 2891,
      "vable": 2892,
      "Ġimporte": 2893,
      "Ġproble": 2894,
      "Ġreclam": 2895,
      "Ġprofessionnelle": 2896,
      "Ġprovisoire": 2897,
      "Ġdefaut": 2898,
      "ition": 2899,
      "Ġpromotion": 2900,
      "Ġjuges": 2901,
      "Ġpropre": 2902,
      "Ġach": 2903,
      "Ġemball": 2904,
      "Ġappareils": 2905,
      "Ġsimilaires": 2906,
      "Ġwe": 2907,
      "tt": 2908,
      "Ġeffectuees": 2909,
      "Ġouverture": 2910,
      "Ġdeclare": 2911,
      "Ġanterieure": 2912,
      "Ġexced": 2913,
      "Ġavantage": 2914,
      "Ġtri": 2915,
      "Ġechantil": 2916,
      "bor": 2917,
      "Ġvoie": 2918,
      "dis": 2919,
      "Ġae": 2920,
      "Ġho": 2921,
      "Ġirrece": 2922,
      "Ġplaise": 2923,
      "Ġdescription": 2924,
      "Ġexemption": 2925,
      "Ġquantite": 2926,
      "Ġautorise": 2927,
      "Ġappliquent": 2928,
      "Ġdesigne": 2929,
      "enne": 2930,
      "iers": 2931,
      "Ġbesoins": 2932,
      "Ġverb": 2933,
      "Ġrepondre": 2934,
      "Ġcinq": 2935,
      "Ġpieces": 2936,
      "Ġorient": 2937,
      "Ġcinquieme": 2938,
      "lage": 2939,
      "Ġinstallations": 2940,
      "Ġprestation": 2941,
      "jour": 2942,
      "Ġslo": 2943,
      "Ġlum": 2944,
      "zo": 2945,
      "ister": 2946,
      "Ġgrief": 2947,
      "Ġcentre": 2948,
      "Ġpresentee": 2949,
      "Ġdefinition": 2950,
      "Ġetablissant": 2951,
      "Ġmel": 2952,
      "ommun": 2953,
      "29": 2954,
      "Ġfixation": 2955,
      "Ġechantillon": 2956,
      "Ġlivrais": 2957,
      "Ġsouten": 2958,
      "ity": 2959,
      "Ġalleman": 2960,
      "ann": 2961,
      "Ġdiffic": 2962,
      "aines": 2963,
      "Ġegalite": 2964,
      "Ġgu": 2965,
      "Ġdeven": 2966,
      "Ġpeti": 2967,
      "Ġpron": 2968,
      "ks": 2969,
      "Ġmodifications": 2970,
      "Ġintermedi": 2971,
      "Ġempe": 2972,
      "Ġresponsable": 2973,
      "Ġensuite": 2974,
      "intes": 2975,
      "atom": 2976,
      "Ġchef": 2977,
      "Ġdeleg": 2978,
      "Ġapprouve": 2979,
      "orer": 2980,
      "icht": 2981,
      "Ġmontants": 2982,
      "Ġsucre": 2983,
      "Ġchau": 2984,
      "Ġconsommateurs": 2985,
      "Ġnecessite": 2986,
      "Ġoppos": 2987,
      "Ġreception": 2988,
      "Ġreparti": 2989,
      "Ġcr": 2990,
      "ignements": 2991,
      "adie": 2992,
      "Ġpouvait": 2993,
      "Ġraisonn": 2994,
      "Ġ<": 2995,
      "Ġtitulaire": 2996,
      "Ġnotifiee": 2997,
      "viter": 2998,
      "Ġcommerciale": 2999,
      "00000000": 3000,
      "Ġrepresentee": 3001,
      "Ġ107": 3002,
      "ront": 3003,
      "Ġbeneficiaire": 3004,
      "Ġverifier": 3005,
      "Ġinterprete": 3006,
      "Ġligne": 3007,
      "Ġrede": 3008,
      "Ġadmis": 3009,
      "Ġmaladie": 3010,
      "Ġexon": 3011,
      "Ġfinancieres": 3012,
      "Ġelectric": 3013,
      "Ġbru": 3014,
      "Ġbre": 3015,
      "ĠâĢĿ": 3016,
      "Ġexercer": 3017,
      "pro": 3018,
      "Ġclients": 3019,
      "Ġeuratom": 3020,
      "itu": 3021,
      "Ġentendu": 3022,
      "Ġsitue": 3023,
      "Ġ195": 3024,
      "Ġpermis": 3025,
      "Ġventes": 3026,
      "dec": 3027,
      "Ġcommis": 3028,
      "uts": 3029,
      "ribue": 3030,
      "Ġportee": 3031,
      "Ġhom": 3032,
      "Ġversion": 3033,
      "Ġtransit": 3034,
      "Ġgreff": 3035,
      "Ġeffectivement": 3036,
      "Ġemploye": 3037,
      "Ġconteste": 3038,
      "Ġpension": 3039,
      "Ġencontre": 3040,
      "Ġavance": 3041,
      "ana": 3042,
      "Ġsupplementaires": 3043,
      "Ġmaj": 3044,
      "Ġsite": 3045,
      "Ġrempli": 3046,
      "Ġgenerales": 3047,
      "Ġnationaux": 3048,
      "rage": 3049,
      "Ġltd": 3050,
      "Ġoperateurs": 3051,
      "Ġexcep": 3052,
      "Ġdiv": 3053,
      "tile": 3054,
      "Ġ104": 3055,
      "Ġrenseignements": 3056,
      "istes": 3057,
      "Ġconsiderer": 3058,
      "enant": 3059,
      "ith": 3060,
      "Ġcorrespondant": 3061,
      "Ġcalcu": 3062,
      "Ġexige": 3063,
      "Î½": 3064,
      "Ġforce": 3065,
      "Ġinterdiction": 3066,
      "ctes": 3067,
      "Ġvin": 3068,
      "issance": 3069,
      "Ġporc": 3070,
      "commun": 3071,
      "lor": 3072,
      "Ġdet": 3073,
      "ium": 3074,
      "Ġmateriel": 3075,
      "Ġtrou": 3076,
      "criptions": 3077,
      "Ġ2021": 3078,
      "Ġincomp": 3079,
      "Ġargument": 3080,
      "Ġprend": 3081,
      "atiques": 3082,
      "Ġengagement": 3083,
      "ting": 3084,
      "Ġrecommand": 3085,
      "Ġexpose": 3086,
      "Ġeaux": 3087,
      "Ġimmediate": 3088,
      "Ġcy": 3089,
      "Ġenviron": 3090,
      "Ġpuisse": 3091,
      "Ġtravaille": 3092,
      "Ġledit": 3093,
      "Ġidentif": 3094,
      "ariat": 3095,
      "Ġpresenter": 3096,
      "Ġverification": 3097,
      "Ġelab": 3098,
      "Ġderogation": 3099,
      "Ġconstruction": 3100,
      "Ġfourniture": 3101,
      "Ġbov": 3102,
      "Ġspeciale": 3103,
      "titude": 3104,
      "endes": 3105,
      "Ġsy": 3106,
      "Ġpresence": 3107,
      "Ġfili": 3108,
      "Ġsalar": 3109,
      "Ġaerien": 3110,
      "Ġreso": 3111,
      "Ġbeneficier": 3112,
      "Ġprocess": 3113,
      "Ġcop": 3114,
      "Ġrequerants": 3115,
      "Ġaccordee": 3116,
      "Ġveter": 3117,
      "Ġdonner": 3118,
      "Ġaffecte": 3119,
      "Ġincl": 3120,
      "ctuelle": 3121,
      "ÑĤ": 3122,
      "Ġconstituent": 3123,
      "ry": 3124,
      "Ġexamine": 3125,
      "Ġministe": 3126,
      "Ġquantites": 3127,
      "Ġdestinees": 3128,
      "Ġentite": 3129,
      "abil": 3130,
      "Ġasse": 3131,
      "Ġpropriete": 3132,
      "ase": 3133,
      "har": 3134,
      "Ġaugmentation": 3135,
      "Ġsensi": 3136,
      "Ġdecret": 3137,
      "Ġharmonisation": 3138,
      "Ġvaleurs": 3139,
      "Ġgreffier": 3140,
      "act": 3141,
      "Ġcompt": 3142,
      "Ġexposes": 3143,
      "Ġparten": 3144,
      "Ġemissions": 3145,
      "Ġimportance": 3146,
      "Îµ": 3147,
      "uel": 3148,
      "Ġsem": 3149,
      "Ġchim": 3150,
      "Ġfru": 3151,
      "Ġimpo": 3152,
      "ression": 3153,
      "Ġcout": 3154,
      "Ġenvisage": 3155,
      "Ġtypes": 3156,
      "hen": 3157,
      "go": 3158,
      "Ġsk": 3159,
      "Ġlies": 3160,
      "bation": 3161,
      "Ġinfrast": 3162,
      "Ġactifs": 3163,
      "Ġland": 3164,
      "Ġcritere": 3165,
      "Ġpap": 3166,
      "Ġbenef": 3167,
      "Ġdomm": 3168,
      "Ġimm": 3169,
      "Ġ1987": 3170,
      "Ġconnaissance": 3171,
      "Ġpop": 3172,
      "Ġappartient": 3173,
      "Ġinvestissements": 3174,
      "Ġentites": 3175,
      "air": 3176,
      "Ġiss": 3177,
      "Ġ1986": 3178,
      "Ġ500": 3179,
      "aisse": 3180,
      "Ġreglements": 3181,
      "Ġaci": 3182,
      "Ġpresentant": 3183,
      "rige": 3184,
      "Ġutiliser": 3185,
      "Ġeviter": 3186,
      "ain": 3187,
      "Ġsuperieur": 3188,
      "Ġparven": 3189,
      "Ġsiege": 3190,
      "Ġprogres": 3191,
      "Ġcommercialisation": 3192,
      "Ġdestinataire": 3193,
      "Ġpouvant": 3194,
      "ral": 3195,
      "Ġabro": 3196,
      "Ġposte": 3197,
      "Ġev": 3198,
      "Ġaf": 3199,
      "Ġtotale": 3200,
      "Ġrepond": 3201,
      "Ġrespectivement": 3202,
      "Ġdelais": 3203,
      "Ġconfirme": 3204,
      "atifs": 3205,
      "Ġespeces": 3206,
      "Ñģ": 3207,
      "Ġagricole": 3208,
      "Ġprevus": 3209,
      "Ġeconomie": 3210,
      "Ġproportion": 3211,
      "Ġdiscrimination": 3212,
      "gent": 3213,
      "Ġveill": 3214,
      "Ġautriche": 3215,
      "Ġdetermination": 3216,
      "Ġimpot": 3217,
      "Ġagree": 3218,
      "Ġinstruments": 3219,
      "Ġpropose": 3220,
      "Ġcau": 3221,
      "Ġannexes": 3222,
      "Ġdur": 3223,
      "Ġcontribution": 3224,
      "Ġsouleve": 3225,
      "50": 3226,
      "Ġcapit": 3227,
      "Ġeli": 3228,
      "Ġincomb": 3229,
      "break": 3230,
      "Ġcharges": 3231,
      "Ġgeograph": 3232,
      "Ġdemont": 3233,
      "Ġtendant": 3234,
      "za": 3235,
      "Ġprovenant": 3236,
      "Ġremuneration": 3237,
      "Ġatteinte": 3238,
      "Ġdemandeur": 3239,
      "Ġconstituer": 3240,
      "27": 3241,
      "Ġjuridiques": 3242,
      "Ġcoordination": 3243,
      "Ġpreten": 3244,
      "Ġsucc": 3245,
      "Ġreglementaires": 3246,
      "rites": 3247,
      "Ġavocats": 3248,
      "Ġapporte": 3249,
      "Ġliees": 3250,
      "Ġarr": 3251,
      "Ġsouligne": 3252,
      "Ġmethodes": 3253,
      "Ġabord": 3254,
      "Ġmedica": 3255,
      "naires": 3256,
      "Ġessais": 3257,
      "28": 3258,
      "Ġbil": 3259,
      "Ġvoy": 3260,
      "Ġqualif": 3261,
      "Ġdemander": 3262,
      "ore": 3263,
      "Ġpat": 3264,
      "cent": 3265,
      "Ġoctroye": 3266,
      "Ġelectricite": 3267,
      "Ġund": 3268,
      "ib": 3269,
      "Ġmodifier": 3270,
      "Ġfibres": 3271,
      "Ġclo": 3272,
      "Ġhui": 3273,
      "vres": 3274,
      "Ġvac": 3275,
      "chement": 3276,
      "Ġconclure": 3277,
      "cer": 3278,
      "Ġconjo": 3279,
      "Ġ1985": 3280,
      "Ġsuivi": 3281,
      "sse": 3282,
      "Ġfigur": 3283,
      "Ġsujet": 3284,
      "Ġformule": 3285,
      "Ġprocessus": 3286,
      "Ġnous": 3287,
      "Ġmachines": 3288,
      "Ġva": 3289,
      "Ġbenefice": 3290,
      "Ġsuperieure": 3291,
      "Ġaudit": 3292,
      "Ġsuffisamment": 3293,
      "Ġsejour": 3294,
      "Ġmaximale": 3295,
      "Ġreclamation": 3296,
      "áĥĶ": 3297,
      "Ġadopter": 3298,
      "Ġclassi": 3299,
      "dequ": 3300,
      "Ġher": 3301,
      "ocation": 3302,
      "ibles": 3303,
      "Ġdestinataires": 3304,
      "Ġvalidite": 3305,
      "Ġdiver": 3306,
      "Ġreunions": 3307,
      "pn": 3308,
      "Ġvolume": 3309,
      "Ġceca": 3310,
      "Ġ207": 3311,
      "berg": 3312,
      "Ġconsiderants": 3313,
      "Ġeffectuee": 3314,
      "Ġclasse": 3315,
      "Ġexpir": 3316,
      "Ġrelations": 3317,
      "Ġjou": 3318,
      "tionnelle": 3319,
      "Ġ1977": 3320,
      "Ġmixte": 3321,
      "Ġrestitu": 3322,
      "Ġ1983": 3323,
      "Ġindire": 3324,
      "Ġtenue": 3325,
      "Ġtransports": 3326,
      "sta": 3327,
      "Ġcompagn": 3328,
      "yes": 3329,
      "lin": 3330,
      "Ġmateri": 3331,
      "ennes": 3332,
      "Ġdevait": 3333,
      "Ġlien": 3334,
      "anie": 3335,
      "Ġintegra": 3336,
      "Ġtransformation": 3337,
      "Ġstrate": 3338,
      "Ġlettres": 3339,
      "Ġprescriptions": 3340,
      "Ġ1980": 3341,
      "rier": 3342,
      "Ġteneur": 3343,
      "Ġgriefs": 3344,
      "uelle": 3345,
      "Ġconsiderations": 3346,
      "Ġcivile": 3347,
      "Ġexceder": 3348,
      "Ġsuivante": 3349,
      "ĠÂ°": 3350,
      "Ġviande": 3351,
      "Ġtenant": 3352,
      "Ġprealable": 3353,
      "Ġmodele": 3354,
      "Ġpubliques": 3355,
      "Ġfeu": 3356,
      "ata": 3357,
      "Ïģ": 3358,
      "Ġnotifie": 3359,
      "Ġviandes": 3360,
      "Ġcitee": 3361,
      "39": 3362,
      "Ġalimentaires": 3363,
      "Ġparticulieres": 3364,
      "ructures": 3365,
      "Ġrapporteur": 3366,
      "Ġincompati": 3367,
      "Ġoppose": 3368,
      "Ġassu": 3369,
      "Ġeffectuer": 3370,
      "Ġdeterminee": 3371,
      "Ġintroduction": 3372,
      "Ġinflu": 3373,
      "Ġredev": 3374,
      "Ġbranche": 3375,
      "Ġindemnite": 3376,
      "Ġapprobation": 3377,
      "orite": 3378,
      "positions": 3379,
      "lais": 3380,
      "Ġministere": 3381,
      "Ġchoix": 3382,
      "Ġrend": 3383,
      "Ġdelivre": 3384,
      "ÃŁ": 3385,
      "Ġfo": 3386,
      "nel": 3387,
      "Ġconsoli": 3388,
      "Ġetude": 3389,
      "gation": 3390,
      "pra": 3391,
      "Ġocca": 3392,
      "26": 3393,
      "Ġaeroport": 3394,
      "Ġexperi": 3395,
      "Ġcit": 3396,
      "Ġpesc": 3397,
      "Ġedition": 3398,
      "Ġcomport": 3399,
      "Ġcreation": 3400,
      "Ġnomination": 3401,
      "Ġimposition": 3402,
      "Ġfixees": 3403,
      "Ġrenouve": 3404,
      "Ġecar": 3405,
      "Ġpolitiques": 3406,
      "Ġdix": 3407,
      "uations": 3408,
      "ĠÂ§": 3409,
      "Ġbureau": 3410,
      "Ġcentrale": 3411,
      "Ġprele": 3412,
      "Ġresolution": 3413,
      "Ġauton": 3414,
      "Ġhabit": 3415,
      "Ġentend": 3416,
      "Ġpol": 3417,
      "Ġrespecte": 3418,
      "Ġmoteur": 3419,
      "Ġfixes": 3420,
      "44": 3421,
      "Ġpublie": 3422,
      "geant": 3423,
      "ards": 3424,
      "Ġequipements": 3425,
      "Ġnot": 3426,
      "Ġinstallation": 3427,
      "gn": 3428,
      "Ġeffectues": 3429,
      "Ġpoten": 3430,
      "Ġadequ": 3431,
      "Ġdechar": 3432,
      "Ġattribution": 3433,
      "ific": 3434,
      "Ġentente": 3435,
      "Ġaffect": 3436,
      "Ġcompos": 3437,
      "Ġsomme": 3438,
      "Ð²": 3439,
      "Ġclause": 3440,
      "alle": 3441,
      "Ġdifference": 3442,
      "Ġanalog": 3443,
      "mente": 3444,
      "Ġlut": 3445,
      "Ġsauve": 3446,
      "Ġlumiere": 3447,
      "Ġmanifeste": 3448,
      "Ġdouane": 3449,
      "Ġtransf": 3450,
      "Ġgaranties": 3451,
      "Ġachat": 3452,
      "Ġinternationale": 3453,
      "ame": 3454,
      "Ġradio": 3455,
      "Ġneu": 3456,
      "Ġrestrictions": 3457,
      "Ġoccasion": 3458,
      "Ġinclu": 3459,
      "vil": 3460,
      "Ġcompose": 3461,
      "Ġdane": 3462,
      "Ġdispos": 3463,
      "Ġfacilite": 3464,
      "Ġexpiration": 3465,
      "pol": 3466,
      "Ġtextiles": 3467,
      "Ġgroupes": 3468,
      "Ġdefinitive": 3469,
      "Ġ1975": 3470,
      "Ġpresentes": 3471,
      "enti": 3472,
      "Ġmandat": 3473,
      "Ġ1979": 3474,
      "Ġpoly": 3475,
      "gi": 3476,
      "Ġconge": 3477,
      "Ġhong": 3478,
      "Ġconstante": 3479,
      "sidi": 3480,
      "Ġdurant": 3481,
      "Ġacier": 3482,
      "Ġcondamnee": 3483,
      "ctives": 3484,
      "Ġassujet": 3485,
      "Ġpresentees": 3486,
      "Ġaspe": 3487,
      "Ġimmediatement": 3488,
      "Ġanglais": 3489,
      "Ġdetail": 3490,
      "Ġdanemark": 3491,
      "Ġetablies": 3492,
      "Ġfiscale": 3493,
      "Ġevolution": 3494,
      "Ġpror": 3495,
      "Ġdestination": 3496,
      "lite": 3497,
      "Ġpagebreak": 3498,
      "anch": 3499,
      "Ġministre": 3500,
      "Ġmem": 3501,
      "áĥĺ": 3502,
      "Ġpotentie": 3503,
      "Ġrepartition": 3504,
      "Ġreex": 3505,
      "Ġpartant": 3506,
      "Ġaddi": 3507,
      "Ġbois": 3508,
      "53": 3509,
      "Ġlegislatives": 3510,
      "ding": 3511,
      "Ġchacun": 3512,
      "wer": 3513,
      "Ġconfid": 3514,
      "Ġresultat": 3515,
      "crit": 3516,
      "Ġeui": 3517,
      "Ġsuspen": 3518,
      "Ġeuipo": 3519,
      "Î¿Ï": 3520,
      "Ġexterie": 3521,
      "Ġbu": 3522,
      "Ġreduire": 3523,
      "Ġsolution": 3524,
      "Ġunis": 3525,
      "Ġhomolog": 3526,
      "Ġreste": 3527,
      "Ġannuel": 3528,
      "Ġefficacite": 3529,
      "ource": 3530,
      "iche": 3531,
      "Ġgrade": 3532,
      "Ġfournies": 3533,
      "Ġja": 3534,
      "Ġfact": 3535,
      "tivite": 3536,
      "Ġatteindre": 3537,
      "Ġdisponibles": 3538,
      "Ġphra": 3539,
      "Ġbanc": 3540,
      "Ġbeneficiaires": 3541,
      "Ġattes": 3542,
      "áĥĲ": 3543,
      "Ġliberte": 3544,
      "ĠâĢĺ": 3545,
      "Ġ1982": 3546,
      "Ġapprecier": 3547,
      "Ġ300": 3548,
      "hy": 3549,
      "Ġetablis": 3550,
      "Ġsubsidi": 3551,
      "Ġapprovision": 3552,
      "ologique": 3553,
      "mann": 3554,
      "Ġ108": 3555,
      "Ġsaisie": 3556,
      "cies": 3557,
      "Ġfils": 3558,
      "Ġelig": 3559,
      "Ġeux": 3560,
      "Ġfixant": 3561,
      "Ġmoyenne": 3562,
      "Ġsupport": 3563,
      "Ġmotive": 3564,
      "Ġconfer": 3565,
      "ute": 3566,
      "Ġparticulierement": 3567,
      "rou": 3568,
      "angere": 3569,
      "Ġinteres": 3570,
      "Ġelu": 3571,
      "Ġur": 3572,
      "Ġsupporte": 3573,
      "Ġbce": 3574,
      "jours": 3575,
      "Ġneerlandais": 3576,
      "Ġhol": 3577,
      "Ġhaute": 3578,
      "nalite": 3579,
      "Ġpolo": 3580,
      "Ġpouvoirs": 3581,
      "Ġincidence": 3582,
      "Ġdeclarations": 3583,
      "Ġlog": 3584,
      "Ġprecedent": 3585,
      "Ġlin": 3586,
      "Ġnavire": 3587,
      "Ġajoute": 3588,
      "Ġtiss": 3589,
      "uff": 3590,
      "Ġmulti": 3591,
      "Ġsuisse": 3592,
      "Ġcommuni": 3593,
      "Ġecus": 3594,
      "erer": 3595,
      "Ġeffective": 3596,
      "ile": 3597,
      "acites": 3598,
      "entiel": 3599,
      "Ġlegitime": 3600,
      "64": 3601,
      "fa": 3602,
      "Ġfile": 3603,
      "Ġseconde": 3604,
      "Ġcommerciales": 3605,
      "Ġmises": 3606,
      "ultes": 3607,
      "Ġformes": 3608,
      "Ġselection": 3609,
      "Ġtaxes": 3610,
      "Ġconsultation": 3611,
      "Ġstatis": 3612,
      "rations": 3613,
      "Ġcommunes": 3614,
      "mmes": 3615,
      "Ġmedi": 3616,
      "rement": 3617,
      "Ġmodeles": 3618,
      "Ġsubs": 3619,
      "Ġdirige": 3620,
      "Ġdecharge": 3621,
      "Ġven": 3622,
      "Ġjudiciaire": 3623,
      "Ġassi": 3624,
      "Ġsti": 3625,
      "Ġ1984": 3626,
      "Ġunites": 3627,
      "Ġinferieure": 3628,
      "Ġbul": 3629,
      "Ġintermediaire": 3630,
      "Ġdedu": 3631,
      "Ġfaut": 3632,
      "Ġaipn": 3633,
      "Ġine": 3634,
      "Ġcompensation": 3635,
      "Ġappropriees": 3636,
      "Ġconcurrents": 3637,
      "rone": 3638,
      "Ġparts": 3639,
      "tionnelles": 3640,
      "ik": 3641,
      "moins": 3642,
      "Ġexcedant": 3643,
      "Ġfut": 3644,
      "Ġorganisations": 3645,
      "Ġhypothese": 3646,
      "Ġ125": 3647,
      "et": 3648,
      "sive": 3649,
      "Ġimpos": 3650,
      "Ġjustifier": 3651,
      "rant": 3652,
      "issons": 3653,
      "Ġconformer": 3654,
      "Ġmas": 3655,
      "Ġexclusivement": 3656,
      "Ġdispositifs": 3657,
      "Ġpapier": 3658,
      "Ġflu": 3659,
      "Ġscientifique": 3660,
      "Ġcandidats": 3661,
      "Ġsud": 3662,
      "Ġ1981": 3663,
      "Ġencour": 3664,
      "rent": 3665,
      "Ġacquisition": 3666,
      "Ġtur": 3667,
      "Ġmaintien": 3668,
      "ieux": 3669,
      "ulaires": 3670,
      "Ġconsommateur": 3671,
      "Ġtoujours": 3672,
      "Ġetc": 3673,
      "Ġamendes": 3674,
      "Ġsoli": 3675,
      "Ġfaite": 3676,
      "Ġtranspar": 3677,
      "Ġensuit": 3678,
      "Ġpologne": 3679,
      "Ġpleine": 3680,
      "Ġcirconstance": 3681,
      "Ġcertificats": 3682,
      "Ġtrouve": 3683,
      "Ġchacune": 3684,
      "45": 3685,
      "df": 3686,
      "Ġaccueil": 3687,
      "Ġfondement": 3688,
      "Ġajoutee": 3689,
      "Ġparce": 3690,
      "ira": 3691,
      "Ġimplique": 3692,
      "Ġdebut": 3693,
      "Î·": 3694,
      "Ġarb": 3695,
      "Ġcompeten": 3696,
      "Ġmene": 3697,
      "llen": 3698,
      "Ġcompatible": 3699,
      "Ġaccorder": 3700,
      "Ġlimitee": 3701,
      "Ġindication": 3702,
      "Ġgene": 3703,
      "Ġlegislations": 3704,
      "36": 3705,
      "Ġintitu": 3706,
      "iance": 3707,
      "Ġviole": 3708,
      "Ġjam": 3709,
      "Ġfruits": 3710,
      "Ġcri": 3711,
      "Ġbesoin": 3712,
      "Ġgrece": 3713,
      "Ġcu": 3714,
      "31": 3715,
      "Ġclairement": 3716,
      "den": 3717,
      "Ġsusmen": 3718,
      "Ġcat": 3719,
      "Ġger": 3720,
      "Ġcompatibilite": 3721,
      "zi": 3722,
      "Ð»": 3723,
      "Ġressortissants": 3724,
      "Ġdefinies": 3725,
      "Ġincombent": 3726,
      "Ġlibe": 3727,
      "Ġdit": 3728,
      "agement": 3729,
      "Ġpost": 3730,
      "Ġurg": 3731,
      "Ġtour": 3732,
      "Ġsecteurs": 3733,
      "Ġrevanche": 3734,
      "hr": 3735,
      "Ġcompetences": 3736,
      "agers": 3737,
      "Ġrejeter": 3738,
      "Ġsource": 3739,
      "Ġpermanent": 3740,
      "action": 3741,
      "Ġecrit": 3742,
      "Ġerrone": 3743,
      "Ġdivision": 3744,
      "tieme": 3745,
      "Ġconsiderees": 3746,
      "Ġ1978": 3747,
      "ther": 3748,
      "face": 3749,
      "Ġby": 3750,
      "Ġinscription": 3751,
      "Ġsupplementaire": 3752,
      "Ġcapacites": 3753,
      "Ġcomplete": 3754,
      "Ġannule": 3755,
      "Ġgreffe": 3756,
      "Ġregimes": 3757,
      "Ġparmi": 3758,
      "tel": 3759,
      "otas": 3760,
      "Ġresidence": 3761,
      "Ġnav": 3762,
      "Ġconsequences": 3763,
      "Ġinsuff": 3764,
      "ms": 3765,
      "Ġpreparations": 3766,
      "Ġcote": 3767,
      "ctement": 3768,
      "ina": 3769,
      "Ġmag": 3770,
      "Ġsupra": 3771,
      "Ġinvite": 3772,
      "Ġpresentation": 3773,
      "Ġ1976": 3774,
      "Ġphase": 3775,
      "Ġphrase": 3776,
      "Ġquotas": 3777,
      "Ġconfiance": 3778,
      "Ġcf": 3779,
      "las": 3780,
      "Ġlegalite": 3781,
      "conn": 3782,
      "34": 3783,
      "Ġauquel": 3784,
      "Ġsomm": 3785,
      "Ġdesignation": 3786,
      "Ġecrite": 3787,
      "90": 3788,
      "Ġtemporaire": 3789,
      "Ġsoumises": 3790,
      "Ġportugal": 3791,
      "Ġculture": 3792,
      "omet": 3793,
      "Ġmondi": 3794,
      "Ġcertain": 3795,
      "Ġidentification": 3796,
      "Ġinferieur": 3797,
      "Ġbun": 3798,
      "Ġ106": 3799,
      "Ġsubi": 3800,
      "Ġconsideres": 3801,
      "Ġbal": 3802,
      "gh": 3803,
      "Ġduquel": 3804,
      "lige": 3805,
      "Ġrecou": 3806,
      "Ġdisc": 3807,
      "sen": 3808,
      "Ġpic": 3809,
      "gericht": 3810,
      "98": 3811,
      "Ġalimentaire": 3812,
      "Ġminimum": 3813,
      "Ġpourraient": 3814,
      "Ġsouh": 3815,
      "Ġreconnaissance": 3816,
      "Ġaccompagne": 3817,
      "cc": 3818,
      "37": 3819,
      "Ġexplo": 3820,
      "Ġq": 3821,
      "Ġadoptee": 3822,
      "Ġpourcent": 3823,
      "Ġdifficultes": 3824,
      "Ġprob": 3825,
      "Ġ101": 3826,
      "Ġanterie": 3827,
      "mon": 3828,
      "Ġmanquement": 3829,
      "Ġadjudication": 3830,
      "Ġespace": 3831,
      "Ġinstitue": 3832,
      "Ġmarge": 3833,
      "Ġlivraison": 3834,
      "Ġinternet": 3835,
      "Ġindiquer": 3836,
      "Ġcombus": 3837,
      "Ġdomaines": 3838,
      "Ġlicence": 3839,
      "Ġtravailleur": 3840,
      "Ġfixer": 3841,
      "Ġporter": 3842,
      "Ġgeographique": 3843,
      "Ġsuede": 3844,
      "Ġrole": 3845,
      "Ġprelevement": 3846,
      "Ġdela": 3847,
      "Ġresi": 3848,
      "Ġbor": 3849,
      "vie": 3850,
      "Ġaient": 3851,
      "tiennent": 3852,
      "stra": 3853,
      "Ġargumentation": 3854,
      "Ġinspection": 3855,
      "Ġcredits": 3856,
      "ach": 3857,
      "Ġtransmission": 3858,
      "Ġsubstantie": 3859,
      "iens": 3860,
      "Ġfourni": 3861,
      "Ġhaut": 3862,
      "Ġbra": 3863,
      "Ġbelge": 3864,
      "Ġoperateur": 3865,
      "Ġamer": 3866,
      "Ġreparation": 3867,
      "Ġveget": 3868,
      "Ġtitres": 3869,
      "Ġpaye": 3870,
      "Ġtes": 3871,
      "Ġreseaux": 3872,
      "ga": 3873,
      "Ġregional": 3874,
      "Ġsanction": 3875,
      "Ġproblemes": 3876,
      "Ġferro": 3877,
      "Ġobligatoire": 3878,
      "Ġchois": 3879,
      "Ġintention": 3880,
      "Ġdepot": 3881,
      "anz": 3882,
      "Ġsubord": 3883,
      "Ġefficace": 3884,
      "Ġcontrairement": 3885,
      "Ġindications": 3886,
      "Ġhydro": 3887,
      "Ġwith": 3888,
      "Ġdie": 3889,
      "ctifs": 3890,
      "Ġtemper": 3891,
      "Ġsynt": 3892,
      "Ġexperts": 3893,
      "Ġreexam": 3894,
      "Ġnorve": 3895,
      "Ġelectronique": 3896,
      "Ġpasse": 3897,
      "anger": 3898,
      "200": 3899,
      "so": 3900,
      "att": 3901,
      "Ġetudes": 3902,
      "formes": 3903,
      "Ġdomin": 3904,
      "Ġamelioration": 3905,
      "35": 3906,
      "lex": 3907,
      "Ġpaiements": 3908,
      "bilites": 3909,
      "Ġretenue": 3910,
      "isent": 3911,
      "Ġutilisee": 3912,
      "Ġinfractions": 3913,
      "Ġtrafic": 3914,
      "Ġprevoir": 3915,
      "ieres": 3916,
      "ay": 3917,
      "Ġgeneraux": 3918,
      "Ġfabricant": 3919,
      "Ġhellen": 3920,
      "Ġpertinentes": 3921,
      "Ġadoptees": 3922,
      "Ġrecettes": 3923,
      "Ġope": 3924,
      "Ġregionale": 3925,
      "Ġdeh": 3926,
      "Ġproportionnalite": 3927,
      "Ġexigence": 3928,
      "Ġtaches": 3929,
      "Ġpubliee": 3930,
      "Ġcomprend": 3931,
      "Ġfamille": 3932,
      "Ġexpe": 3933,
      "Ġalco": 3934,
      "Ġcapitaux": 3935,
      "Ġexperience": 3936,
      "Ġsimple": 3937,
      "Ġ115": 3938,
      "Ġequivalent": 3939,
      "Ġnos": 3940,
      "Ġreci": 3941,
      "Ġirreg": 3942,
      "adi": 3943,
      "Ġconservation": 3944,
      "Ġappen": 3945,
      "Ġ!": 3946,
      "Ġretra": 3947,
      "sc": 3948,
      "Ġpoursu": 3949,
      "Ġment": 3950,
      "Ġdelivr": 3951,
      "Ġgrec": 3952,
      "47": 3953,
      "ible": 3954,
      "isions": 3955,
      "Ġpertes": 3956,
      "Ġaele": 3957,
      "Ġdisponible": 3958,
      "Ġauxquelles": 3959,
      "Ġparticipe": 3960,
      "Ġaffer": 3961,
      "Ġlimit": 3962,
      "Ġtion": 3963,
      "Ġrue": 3964,
      "Ġavantages": 3965,
      "Ġpt": 3966,
      "Ġrappro": 3967,
      "Ġpression": 3968,
      "Ġadressee": 3969,
      "taire": 3970,
      "len": 3971,
      "Ġprononce": 3972,
      "Ġdirecte": 3973,
      "Ġreti": 3974,
      "Ġouvra": 3975,
      "Ġparis": 3976,
      "Ġcp": 3977,
      "Ġmaterie": 3978,
      "Ġfournisseurs": 3979,
      "Ġantic": 3980,
      "Ġexprime": 3981,
      "Ġrespecter": 3982,
      "isations": 3983,
      "ungs": 3984,
      "áĥĶáĥ": 3985,
      "Ġaccordees": 3986,
      "Ġ112": 3987,
      "Ġtarifaire": 3988,
      "Ġsoumise": 3989,
      "oph": 3990,
      "Ġsources": 3991,
      "Ġtran": 3992,
      "Ġentiere": 3993,
      "Ġdepasse": 3994,
      "Ġobtenu": 3995,
      "Ġvites": 3996,
      "priee": 3997,
      "Ġsignific": 3998,
      "Ġameliorer": 3999,
      "Ġtre": 4000,
      "Ġcharb": 4001,
      "Ġagriculture": 4002,
      "Ġadministrateur": 4003,
      "Ġmaximum": 4004,
      "Ġbundes": 4005,
      "ifications": 4006,
      "Ġfiscal": 4007,
      "Ġvoyage": 4008,
      "bo": 4009,
      "Ġtub": 4010,
      "hyl": 4011,
      "Ġconver": 4012,
      "Ġdecoulant": 4013,
      "Ġpara": 4014,
      "Ġfron": 4015,
      "Ġ118": 4016,
      "Ġlabor": 4017,
      "Ġ109": 4018,
      "Ġcontractantes": 4019,
      "Ġprets": 4020,
      "Ġlibelle": 4021,
      "Ġpromou": 4022,
      "Ġcomposee": 4023,
      "Ġdefa": 4024,
      "nelle": 4025,
      "Ġsommaire": 4026,
      "Ġautorisee": 4027,
      "wal": 4028,
      "Ġmeconn": 4029,
      "Ġaspects": 4030,
      "Ġderi": 4031,
      "Ġste": 4032,
      "Ġraisonnable": 4033,
      "Ġenoncees": 4034,
      "Ġprejudiciel": 4035,
      "ĠÃĹ": 4036,
      "dus": 4037,
      "Ġcontient": 4038,
      "Ġdehors": 4039,
      "Ġrestre": 4040,
      "Ġ1968": 4041,
      "fon": 4042,
      "Ġprolon": 4043,
      "Ġsuffisant": 4044,
      "ĠÏ": 4045,
      "Ġvari": 4046,
      "Ġheures": 4047,
      "ties": 4048,
      "Ġutile": 4049,
      "Ġsignature": 4050,
      "Ġgo": 4051,
      "Ġjustifie": 4052,
      "ank": 4053,
      "inaires": 4054,
      "Ġconsolide": 4055,
      "Ġrevenus": 4056,
      "tements": 4057,
      "Ġtiret": 4058,
      "Ġtche": 4059,
      "orf": 4060,
      "preu": 4061,
      "dt": 4062,
      "rice": 4063,
      "Ġcollecte": 4064,
      "rits": 4065,
      "Ġhors": 4066,
      "Ġlutte": 4067,
      "Ġetique": 4068,
      "dri": 4069,
      "Ġdemontre": 4070,
      "Ġtotalite": 4071,
      "Ġdetaille": 4072,
      "Ġ030": 4073,
      "Ġepreu": 4074,
      "Ġalimentation": 4075,
      "quie": 4076,
      "Ġconsist": 4077,
      "Ġprov": 4078,
      "Ġpal": 4079,
      "Ġsanc": 4080,
      "oul": 4081,
      "Ġapparten": 4082,
      "anmoins": 4083,
      "Ġallant": 4084,
      "Ġattribue": 4085,
      "Ġliquid": 4086,
      "Ġpreuves": 4087,
      "Ġperiodes": 4088,
      "Ġneanmoins": 4089,
      "Ġmobil": 4090,
      "Ġtab": 4091,
      "Ðº": 4092,
      "Ġpon": 4093,
      "Ġseuls": 4094,
      "Ġ177": 4095,
      "Ġiso": 4096,
      "Ġsuspension": 4097,
      "ao": 4098,
      "iches": 4099,
      "Ġdessous": 4100,
      "Ġcamp": 4101,
      "Ġrecru": 4102,
      "dres": 4103,
      "Ġappropriee": 4104,
      "oriz": 4105,
      "tieres": 4106,
      "vaient": 4107,
      "Ġprejudicielles": 4108,
      "Ġappendice": 4109,
      "Ġquelle": 4110,
      "Ġdimin": 4111,
      "Ġintra": 4112,
      "Ġcum": 4113,
      "Ġapparait": 4114,
      "Ġoccu": 4115,
      "Ġcere": 4116,
      "Ġexcede": 4117,
      "Ġcontact": 4118,
      "Ġexoneration": 4119,
      "Ġhellenique": 4120,
      "Ġcoe": 4121,
      "Ġarri": 4122,
      "Ġhomologation": 4123,
      "cht": 4124,
      "sa": 4125,
      "Ġdepas": 4126,
      "Ġorientation": 4127,
      "Ġadaptation": 4128,
      "umes": 4129,
      "Ġactive": 4130,
      "Ġsaisi": 4131,
      "Ġrelation": 4132,
      "Ġdecider": 4133,
      "Ġinteresses": 4134,
      "Ġrequis": 4135,
      "Ġnationalite": 4136,
      "Ġsemences": 4137,
      "Ġgouverne": 4138,
      "Ġbio": 4139,
      "Ġcree": 4140,
      "Ġlimiter": 4141,
      "yc": 4142,
      "Ġconne": 4143,
      "Ġurgence": 4144,
      "Ġko": 4145,
      "Ġmedicaments": 4146,
      "Ġmaintenir": 4147,
      "Ġfaciliter": 4148,
      "Ġinval": 4149,
      "ino": 4150,
      "uant": 4151,
      "Ġspa": 4152,
      "Ġobsta": 4153,
      "Ġfaible": 4154,
      "Ġpharm": 4155,
      "Ġarbit": 4156,
      "Ġhumaine": 4157,
      "iter": 4158,
      "Ġdemontrer": 4159,
      "Ġantidu": 4160,
      "Ġpuisque": 4161,
      "Ġcommande": 4162,
      "ola": 4163,
      "ologiques": 4164,
      "Ġrenvo": 4165,
      "Ġantidumping": 4166,
      "Ġrequises": 4167,
      "ato": 4168,
      "Ġactuellement": 4169,
      "ack": 4170,
      "ores": 4171,
      "Ġsurface": 4172,
      "cipl": 4173,
      "Ġirrecevable": 4174,
      "tr": 4175,
      "Ġvra": 4176,
      "Ġegale": 4177,
      "Ġespagnol": 4178,
      "Ġsanctions": 4179,
      "Ġdevenu": 4180,
      "Ġrenforce": 4181,
      "Ġpourcentage": 4182,
      "Ġdelivrance": 4183,
      "Ġbei": 4184,
      "Ġcourt": 4185,
      "tern": 4186,
      "Ġexpressement": 4187,
      "Ġmecanisme": 4188,
      "Ġrendue": 4189,
      "Ġfournis": 4190,
      "Ġderniers": 4191,
      "lt": 4192,
      "Ġsecretaire": 4193,
      "Ġfondamentaux": 4194,
      "Ġisl": 4195,
      "sk": 4196,
      "Ġdepose": 4197,
      "fait": 4198,
      "Ġconduite": 4199,
      "Ġvic": 4200,
      "Ġenfants": 4201,
      "Ġulterieure": 4202,
      "Ġrecouvre": 4203,
      "Ġrecuper": 4204,
      "Ġprefer": 4205,
      "Ġcoll": 4206,
      "sibles": 4207,
      "Ġposse": 4208,
      "Ġnul": 4209,
      "Ġsituations": 4210,
      "Ġbovine": 4211,
      "Ġmic": 4212,
      "Ġallemande": 4213,
      "Ġauteur": 4214,
      "Ġinvoques": 4215,
      "Ġcomplementaires": 4216,
      "Ġ105": 4217,
      "Ġrub": 4218,
      "mblee": 4219,
      "Ġlou": 4220,
      "leur": 4221,
      "Ġpossibilites": 4222,
      "Ġetablit": 4223,
      "Ġapprovisionnement": 4224,
      "Ġdonnee": 4225,
      "duc": 4226,
      "iz": 4227,
      "Ġretrait": 4228,
      "Ġrendre": 4229,
      "Ġintroduite": 4230,
      "Ġcommunications": 4231,
      "ada": 4232,
      "fr": 4233,
      "viennent": 4234,
      "Ġdesque": 4235,
      "Ġtemperature": 4236,
      "Ġcombin": 4237,
      "car": 4238,
      "Ġhoriz": 4239,
      "vage": 4240,
      "Ġpolice": 4241,
      "Ġfinlande": 4242,
      "Ġfixee": 4243,
      "Ġphysiques": 4244,
      "Ġfiliale": 4245,
      "Ġcombine": 4246,
      "Ġveterinaire": 4247,
      "67": 4248,
      "atera": 4249,
      "Ġsoumission": 4250,
      "301": 4251,
      "Ġtraduction": 4252,
      "Ġ103": 4253,
      "Ġther": 4254,
      "Ġissue": 4255,
      "Ġdemeure": 4256,
      "ade": 4257,
      "Ġentretien": 4258,
      "ieurs": 4259,
      "ft": 4260,
      "Ġsubsidiaire": 4261,
      "Ġpreven": 4262,
      "Ġdimen": 4263,
      "Ġlocaux": 4264,
      "Ġautrement": 4265,
      "chaf": 4266,
      "Ġrapide": 4267,
      "Ġaffirme": 4268,
      "Ġhuiles": 4269,
      "app": 4270,
      "Ġvitesse": 4271,
      "Ġ1972": 4272,
      "tor": 4273,
      "Ġage": 4274,
      "Ġsuffit": 4275,
      "Ġproces": 4276,
      "Ġimpossi": 4277,
      "lees": 4278,
      "Ġ119": 4279,
      "Ġpertinents": 4280,
      "Ġsanitaire": 4281,
      "89": 4282,
      "Ġphysique": 4283,
      "Ġcitoy": 4284,
      "Ġcomment": 4285,
      "sses": 4286,
      "Ġdepend": 4287,
      "pens": 4288,
      "Ġru": 4289,
      "Ġaccess": 4290,
      "Ġfacteurs": 4291,
      "Ġstric": 4292,
      "Ġportugaise": 4293,
      "Ġouvrir": 4294,
      "Ġmedec": 4295,
      "Ġeventuelle": 4296,
      "Ġrecour": 4297,
      "Ġparticuliers": 4298,
      "Ġtransmis": 4299,
      "Ġperte": 4300,
      "Ġquantit": 4301,
      "ions": 4302,
      "Ġimportante": 4303,
      "Ġroute": 4304,
      "Ġappareil": 4305,
      "dent": 4306,
      "Ġbeneficie": 4307,
      "Ġdil": 4308,
      "Ġdiscipl": 4309,
      "Ġbudgetaire": 4310,
      "Ġjuridictions": 4311,
      "Ġcession": 4312,
      "Ġdouanieres": 4313,
      "ione": 4314,
      "Ġdenom": 4315,
      "Ġchimiques": 4316,
      "Ġarrange": 4317,
      "ieures": 4318,
      "oncer": 4319,
      "Ġpuissance": 4320,
      "Ġimpact": 4321,
      "Ġhor": 4322,
      "Ġbord": 4323,
      "Ġdegre": 4324,
      "Ġ150": 4325,
      "Ġsucces": 4326,
      "dement": 4327,
      "Ġ102": 4328,
      "Ġcontractue": 4329,
      "Ġinternationales": 4330,
      "Ġinstrument": 4331,
      "vee": 4332,
      "Ġabou": 4333,
      "Ġamb": 4334,
      "Ġcharte": 4335,
      "Ġdessins": 4336,
      "Ġstade": 4337,
      "Ġplainte": 4338,
      "Ġpassagers": 4339,
      "Ġutilisateurs": 4340,
      "Ġconsac": 4341,
      "sible": 4342,
      "Ġpetro": 4343,
      "Ġincor": 4344,
      "55": 4345,
      "Ġpermettent": 4346,
      "Ġpromouvoir": 4347,
      "Ġrestriction": 4348,
      "icip": 4349,
      "Ġannuels": 4350,
      "Ġirregular": 4351,
      "Ġbati": 4352,
      "Ġemballages": 4353,
      "Ġparticiper": 4354,
      "Ġlit": 4355,
      "Ġlitigieux": 4356,
      "Ġreguliere": 4357,
      "Ġclassification": 4358,
      "Ġbro": 4359,
      "Ġcab": 4360,
      "Ġretard": 4361,
      "Ġeta": 4362,
      "Ġpropos": 4363,
      "Ġaliments": 4364,
      "urement": 4365,
      "anes": 4366,
      "aceu": 4367,
      "Ġtrait": 4368,
      "Ġdangere": 4369,
      "Ġdemandee": 4370,
      "Ġemballage": 4371,
      "ignement": 4372,
      "Ġpublicite": 4373,
      "Ġinitiale": 4374,
      "Ġfournisseur": 4375,
      "Ġstockage": 4376,
      "Ġmontee": 4377,
      "Ġmat": 4378,
      "Ġcouverture": 4379,
      "Ġdivul": 4380,
      "97": 4381,
      "Ġvarie": 4382,
      "Ġmasse": 4383,
      "Ġrealiser": 4384,
      "Ġlangues": 4385,
      "manie": 4386,
      "Ġrefuse": 4387,
      "Ġplans": 4388,
      "Ġtome": 4389,
      "Ġvotre": 4390,
      "mobil": 4391,
      "Ġniveaux": 4392,
      "Ġclassement": 4393,
      "Ġdistribu": 4394,
      "Ġentraine": 4395,
      "Ġreconnu": 4396,
      "utes": 4397,
      "Ġrealise": 4398,
      "Ġvii": 4399,
      "Ġdipl": 4400,
      "Ġcontinu": 4401,
      "Ġ400": 4402,
      "Ġcontinue": 4403,
      "lutions": 4404,
      "istres": 4405,
      "Ġsalaries": 4406,
      "wa": 4407,
      "Ġhomme": 4408,
      "Ġnavig": 4409,
      "Ġobserver": 4410,
      "Ġchez": 4411,
      "Ġplas": 4412,
      "arti": 4413,
      "Ġnorme": 4414,
      "Ġnegociations": 4415,
      "sation": 4416,
      "Ġrecommandation": 4417,
      "Ġdernieres": 4418,
      "Ġslova": 4419,
      "ĠâĪ": 4420,
      "Ġprea": 4421,
      "Ġterra": 4422,
      "hn": 4423,
      "Ġprop": 4424,
      "Ġsystem": 4425,
      "Ġsil": 4426,
      "Ġsaint": 4427,
      "Ġrelevent": 4428,
      "Ġparticipants": 4429,
      "Ġlimitation": 4430,
      "Ġrus": 4431,
      "Ġpositions": 4432,
      "Ġchiffres": 4433,
      "Ġcz": 4434,
      "Ġtaille": 4435,
      "Ġsusmentionne": 4436,
      "Ġsuffisante": 4437,
      "Ġmaximal": 4438,
      "Ġforfait": 4439,
      "Ġ117": 4440,
      "Ġdan": 4441,
      "Ġamp": 4442,
      "46": 4443,
      "Ġconnaiss": 4444,
      "Ġdouble": 4445,
      "Ġcomposition": 4446,
      "Ġmunicip": 4447,
      "Îº": 4448,
      "Ġenvo": 4449,
      "Ġemployeur": 4450,
      "Ġprincipalement": 4451,
      "Ġrestitution": 4452,
      "Ġpayer": 4453,
      "Ġchangement": 4454,
      "Ġeuropea": 4455,
      "Ġpreparation": 4456,
      "41": 4457,
      "Ġtu": 4458,
      "Ġcontingent": 4459,
      "Ġhar": 4460,
      "Ġabrogeant": 4461,
      "Ġ113": 4462,
      "Ġconclus": 4463,
      "Ġexportations": 4464,
      "Ġving": 4465,
      "Ġaccompag": 4466,
      "Ġevaluer": 4467,
      "Ġdefinis": 4468,
      "Ġallegue": 4469,
      "ha": 4470,
      "endue": 4471,
      "Ġagences": 4472,
      "Ġaccompl": 4473,
      "43": 4474,
      "Ġaven": 4475,
      "Ġbanques": 4476,
      "Ġsubven": 4477,
      "Ġamen": 4478,
      "Ġglobale": 4479,
      "Ġthis": 4480,
      "Ġ126": 4481,
      "atures": 4482,
      "00000": 4483,
      "Ġexplic": 4484,
      "hof": 4485,
      "Ġmeille": 4486,
      "Ġqualification": 4487,
      "Ġintitule": 4488,
      "Ġversement": 4489,
      "Ġsatisfait": 4490,
      "Ġconstitution": 4491,
      "Ġradiation": 4492,
      "Ġgrave": 4493,
      "Ġjugement": 4494,
      "Ġinsuffis": 4495,
      "áĥĿ": 4496,
      "Ġtransposition": 4497,
      "Ġcereales": 4498,
      "Ġcontribuer": 4499,
      "Ġconnaitre": 4500,
      "Ġ120": 4501,
      "Ġattendu": 4502,
      "Ġauxquels": 4503,
      "hl": 4504,
      "Ġautorises": 4505,
      "Ġferrovi": 4506,
      "Ġrenforcer": 4507,
      "Ġliaison": 4508,
      "Ġnormalement": 4509,
      "Ġapport": 4510,
      "Ġautoriser": 4511,
      "Ġdeduction": 4512,
      "Ġsuccombe": 4513,
      "Ġdommages": 4514,
      "ĠâĪĴ": 4515,
      "Ġnotation": 4516,
      "ris": 4517,
      "Ġconcession": 4518,
      "tite": 4519,
      "Ġukra": 4520,
      "Ġamendement": 4521,
      "Ġcharbon": 4522,
      "Ġkm": 4523,
      "85": 4524,
      "Ġsoumettre": 4525,
      "Ġproducteur": 4526,
      "Ġmicro": 4527,
      "Ġpuissent": 4528,
      "Ġetro": 4529,
      "Ġprofessionnel": 4530,
      "Ġmanifestement": 4531,
      "Ġempecher": 4532,
      "Ġfur": 4533,
      "Ġtarifs": 4534,
      "Ġassiste": 4535,
      "Ġwal": 4536,
      "Ġflo": 4537,
      "Ġclasses": 4538,
      "ty": 4539,
      "Ġpi": 4540,
      "velo": 4541,
      "Ġadministratif": 4542,
      "vene": 4543,
      "alog": 4544,
      "Ġnecessairement": 4545,
      "Ġhabilite": 4546,
      "Ġdestinee": 4547,
      "Ġvice": 4548,
      "Ġabouti": 4549,
      "Ġtissus": 4550,
      "Ġrecuperation": 4551,
      "Ġancienne": 4552,
      "Ġremise": 4553,
      "Ġimmobil": 4554,
      "áĥĲáĥ": 4555,
      "sel": 4556,
      "Ġdeclarer": 4557,
      "Ġmere": 4558,
      "Ġ1971": 4559,
      "pi": 4560,
      "Ġobtenus": 4561,
      "49": 4562,
      "Ġrestrictives": 4563,
      "Ġdiscrimin": 4564,
      "ienne": 4565,
      "Ġig": 4566,
      "Ġos": 4567,
      "Ġbreve": 4568,
      "Ġmateriaux": 4569,
      "Ġtextes": 4570,
      "Ġprior": 4571,
      "Ġphot": 4572,
      "Ġremplies": 4573,
      "Ġconstatation": 4574,
      "minaire": 4575,
      "Ġartific": 4576,
      "Ġajus": 4577,
      "Ġconfere": 4578,
      "Ġgi": 4579,
      "Ġphyt": 4580,
      "Ġperc": 4581,
      "Ġrent": 4582,
      "Ġsynthe": 4583,
      "vantage": 4584,
      "entielle": 4585,
      "Ġintelle": 4586,
      "Ġparvenue": 4587,
      "Ġeffectif": 4588,
      "Ð´": 4589,
      "Ġmots": 4590,
      "Ġfiscales": 4591,
      "Ġretro": 4592,
      "Ġrefere": 4593,
      "Ġsupporter": 4594,
      "enz": 4595,
      "Ġanalys": 4596,
      "communic": 4597,
      "velopp": 4598,
      "Ġfol": 4599,
      "Ġtcheque": 4600,
      "Ġentierement": 4601,
      "Ġinitialement": 4602,
      "Ġvoi": 4603,
      "Ġagrement": 4604,
      "Ġconception": 4605,
      "Ġimpli": 4606,
      "Ġconfe": 4607,
      "Ġlocal": 4608,
      "Ġaffirm": 4609,
      "Ġhtt": 4610,
      "Ġcouvrir": 4611,
      "Ġfigurent": 4612,
      "Ġnotes": 4613,
      "Ġfinances": 4614,
      "Ġprofit": 4615,
      "Ġnations": 4616,
      "Ġcm": 4617,
      "Ġcommerciaux": 4618,
      "Ġrevision": 4619,
      "lir": 4620,
      "itude": 4621,
      "Ġenum": 4622,
      "Ġsubvention": 4623,
      "rom": 4624,
      "Ġtelecommunic": 4625,
      "Ġtraites": 4626,
      "Ġlivre": 4627,
      "Ġroumanie": 4628,
      "Ġpreciser": 4629,
      "Ġpropositions": 4630,
      "acer": 4631,
      "Ġocc": 4632,
      "cie": 4633,
      "Ġacquit": 4634,
      "Ġdenrees": 4635,
      "andis": 4636,
      "Ġfrequ": 4637,
      "Ġreproche": 4638,
      "Ġ1974": 4639,
      "Ġscientifiques": 4640,
      "gues": 4641,
      "Ġmemoire": 4642,
      "ĠÃ°": 4643,
      "Ġcoeff": 4644,
      "Ġ250": 4645,
      "Ġerronee": 4646,
      "Ġmaritime": 4647,
      "aus": 4648,
      "Ġrecon": 4649,
      "ni": 4650,
      "Ġassocie": 4651,
      "ologie": 4652,
      "Ġpretendu": 4653,
      "Ġcomportant": 4654,
      "Ġ721": 4655,
      "Ġexclure": 4656,
      "Ġexces": 4657,
      "iels": 4658,
      "Ġautomatique": 4659,
      "ker": 4660,
      "Ġpertinent": 4661,
      "sser": 4662,
      "Ġ145": 4663,
      "âĸ": 4664,
      "Ġdefinie": 4665,
      "Ġindependant": 4666,
      "Ġcompetent": 4667,
      "Ġinv": 4668,
      "Ġminer": 4669,
      "tein": 4670,
      "ĵâĸ": 4671,
      "Ġdesdites": 4672,
      "Ġrapprochement": 4673,
      "Ġenume": 4674,
      "Ġdifferente": 4675,
      "Ġmentionnes": 4676,
      "Ġhongrie": 4677,
      "Ġecl": 4678,
      "lies": 4679,
      "ĵâĸĵâĸ": 4680,
      "Ġexten": 4681,
      "Ġsauvegar": 4682,
      "Ġinfrastructure": 4683,
      "40": 4684,
      "Ġsuppression": 4685,
      "Ġorganes": 4686,
      "Ġinternes": 4687,
      "Ġsatisfaire": 4688,
      "Ġrecevabilite": 4689,
      "Ġ020": 4690,
      "69": 4691,
      "als": 4692,
      "Ġimput": 4693,
      "Ġmentionnees": 4694,
      "Ġnucle": 4695,
      "Ġaccid": 4696,
      "Ġinfluence": 4697,
      "Ġdeuts": 4698,
      "Ġbv": 4699,
      "Ġitaliennes": 4700,
      "ense": 4701,
      "Ġregistre": 4702,
      "Ġ110": 4703,
      "Ġtox": 4704,
      "Ġanimale": 4705,
      "Ġunies": 4706,
      "Ġjuste": 4707,
      "Ġsor": 4708,
      "Ġrealite": 4709,
      "Ġaffecter": 4710,
      "Ġacide": 4711,
      "Ġmultip": 4712,
      "Ġcouverts": 4713,
      "Ġpremieres": 4714,
      "ini": 4715,
      "itable": 4716,
      "ÏĤ": 4717,
      "Ġtend": 4718,
      "Ġinse": 4719,
      "Ġexplique": 4720,
      "ita": 4721,
      "Ġlot": 4722,
      "Ġdumping": 4723,
      "Ġagir": 4724,
      "Ġallocation": 4725,
      "Ġmg": 4726,
      "Ġproc": 4727,
      "Ġhorizont": 4728,
      "erations": 4729,
      "jon": 4730,
      "42": 4731,
      "Ġry": 4732,
      "Ġquo": 4733,
      "Ġ600": 4734,
      "Ġterre": 4735,
      "Ġproduire": 4736,
      "Ġdepar": 4737,
      "gement": 4738,
      "oser": 4739,
      "Ġdon": 4740,
      "Ġsac": 4741,
      "Ġ720": 4742,
      "Ġcontrepar": 4743,
      "onses": 4744,
      "ution": 4745,
      "38": 4746,
      "Ġprevention": 4747,
      "rete": 4748,
      "Ġbarre": 4749,
      "ling": 4750,
      "32": 4751,
      "Ġbri": 4752,
      "Ġaffectation": 4753,
      "Ġ1408": 4754,
      "Ġelectroniques": 4755,
      "Î»": 4756,
      "Ġmaxi": 4757,
      "Ġcourrier": 4758,
      "arque": 4759,
      "Ġverbal": 4760,
      "Ġreponses": 4761,
      "Ġapproche": 4762,
      "56": 4763,
      "Ġcombinaison": 4764,
      "Ġprevo": 4765,
      "Ġintellectuelle": 4766,
      "Ġeventuellement": 4767,
      "Ġmu": 4768,
      "Ġcoher": 4769,
      "nc": 4770,
      "Ġmajorite": 4771,
      "Ġcs": 4772,
      "Ġsommes": 4773,
      "Ġterres": 4774,
      "Ġsuivie": 4775,
      "ints": 4776,
      "Ġenregistree": 4777,
      "Ġspecifications": 4778,
      "Ġclau": 4779,
      "Ġillegalite": 4780,
      "Ġglobal": 4781,
      "Ġretraite": 4782,
      "áĥĺáĥ": 4783,
      "Ġsubordonne": 4784,
      "Ġdominante": 4785,
      "Ġcc": 4786,
      "Ġbenefices": 4787,
      "Ġelectrique": 4788,
      "Ġbulgar": 4789,
      "communaut": 4790,
      "Ġlib": 4791,
      "ural": 4792,
      "Ġactu": 4793,
      "Ġatteint": 4794,
      "58": 4795,
      "Ġtransporte": 4796,
      "Ġannuelle": 4797,
      "Ġici": 4798,
      "Ġexac": 4799,
      "Ġregissant": 4800,
      "oe": 4801,
      "Ġfrom": 4802,
      "Ġcopie": 4803,
      "Ġidentite": 4804,
      "Ġexistant": 4805,
      "Ġdue": 4806,
      "Ġstatistiques": 4807,
      "Ġ1973": 4808,
      "Ġcomparaison": 4809,
      "48": 4810,
      "Ġparalle": 4811,
      "Ġstrategie": 4812,
      "Ġconsiste": 4813,
      "Ġdeg": 4814,
      "Ġdument": 4815,
      "Ġcooper": 4816,
      "Ġmone": 4817,
      "ope": 4818,
      "Ġenumeres": 4819,
      "Ġentrainer": 4820,
      "Ġvendu": 4821,
      "Ġacce": 4822,
      "mbl": 4823,
      "Ġessentiel": 4824,
      "urrence": 4825,
      "Ġgeneralement": 4826,
      "osp": 4827,
      "Ġ1970": 4828,
      "ust": 4829,
      "Ġseg": 4830,
      "Ġliee": 4831,
      "Ġpremierement": 4832,
      "Ġappliquees": 4833,
      "ibilite": 4834,
      "riere": 4835,
      "Ġrappelle": 4836,
      "Ġtransparence": 4837,
      "Ġdete": 4838,
      "Ġproteger": 4839,
      "Ġterritori": 4840,
      "Ġindis": 4841,
      "Ġâī": 4842,
      "iliation": 4843,
      "Ġderou": 4844,
      "Ġrevenu": 4845,
      "Ġcher": 4846,
      "bes": 4847,
      "rimer": 4848,
      "Ġgravite": 4849,
      "Ġcomplementaire": 4850,
      "Ġdeuxiemement": 4851,
      "Ġpan": 4852,
      "Ġtor": 4853,
      "Ġcompagnies": 4854,
      "cia": 4855,
      "Ġ169": 4856,
      "Ġestim": 4857,
      "Ġtermin": 4858,
      "Ġmilliards": 4859,
      "Ġouvert": 4860,
      "Ġcombusti": 4861,
      "Ġveiller": 4862,
      "omes": 4863,
      "Ġintracommunaut": 4864,
      "Ġlesdites": 4865,
      "aises": 4866,
      "Ġeligibles": 4867,
      "Ġpartenariat": 4868,
      "Ġtechnologies": 4869,
      "Ġfemmes": 4870,
      "Ġincombe": 4871,
      "Ġ114": 4872,
      "trait": 4873,
      "Ġsecretariat": 4874,
      "Ġimposer": 4875,
      "Ġcreer": 4876,
      "Ġredi": 4877,
      "Ġelaboration": 4878,
      "Ġcertaine": 4879,
      "Ġsr": 4880,
      "Ġassemblee": 4881,
      "Ġ127": 4882,
      "Ġsignes": 4883,
      "mber": 4884,
      "fond": 4885,
      "Ġvit": 4886,
      "Ġsubventions": 4887,
      "ara": 4888,
      "quetes": 4889,
      "ÃŁe": 4890,
      "igh": 4891,
      "metres": 4892,
      "Ġconsistant": 4893,
      "Ġpartiellement": 4894,
      "Ġpenale": 4895,
      "Ġautorisations": 4896,
      "encie": 4897,
      "Ġsubstitu": 4898,
      "cles": 4899,
      "inage": 4900,
      "Ġporcine": 4901,
      "Ġcarte": 4902,
      "Ġoffer": 4903,
      "Ġvote": 4904,
      "onces": 4905,
      "Ġoutil": 4906,
      "Ġappliquee": 4907,
      "Ġreduit": 4908,
      "Ġconfl": 4909,
      "Ġaqu": 4910,
      "Ġinsc": 4911,
      "Ġfrancaises": 4912,
      "Ġface": 4913,
      "Ġprives": 4914,
      "hi": 4915,
      "ena": 4916,
      "Ġcotis": 4917,
      "Ġfinalite": 4918,
      "mises": 4919,
      "Ġpose": 4920,
      "Ġ139": 4921,
      "Ġequipement": 4922,
      "Ġdevelopp": 4923,
      "Ġreexamen": 4924,
      "Ġtabac": 4925,
      "Ġexplicite": 4926,
      "Ġfl": 4927,
      "Ġexportateur": 4928,
      "Ġjury": 4929,
      "Ġ116": 4930,
      "Ġattribu": 4931,
      "Ġ156": 4932,
      "Ġrecommandations": 4933,
      "Ġmetal": 4934,
      "Ġmoi": 4935,
      "Ġinternationaux": 4936,
      "Ġseules": 4937,
      "Ġvoit": 4938,
      "Ġadres": 4939,
      "Ġsites": 4940,
      "ligee": 4941,
      "Ġinfrastructures": 4942,
      "Ġdistinctif": 4943,
      "Ġnaissance": 4944,
      "Ġredevances": 4945,
      "Ġbrit": 4946,
      "Ġterritoires": 4947,
      "onie": 4948,
      "ero": 4949,
      "Ġdg": 4950,
      "Ġlegumes": 4951,
      "Ġoccurrence": 4952,
      "Ġexpression": 4953,
      "Ġfraiches": 4954,
      "Ġsul": 4955,
      "Ġdelegue": 4956,
      "Ġindiquant": 4957,
      "Ġindemnisation": 4958,
      "ken": 4959,
      "ctor": 4960,
      "Ġsatisfais": 4961,
      "vants": 4962,
      "Ġtelecommunications": 4963,
      "Ġelectriques": 4964,
      "ico": 4965,
      "Ġderogations": 4966,
      "75": 4967,
      "ters": 4968,
      "Ġ148": 4969,
      "oxy": 4970,
      "Ġlaiti": 4971,
      "Ġfour": 4972,
      "Ġinterventions": 4973,
      "Ġetrangeres": 4974,
      "Ġegal": 4975,
      "Ġbrut": 4976,
      "ieu": 4977,
      "Ġinitiative": 4978,
      "Ġconsultations": 4979,
      "Ġessentielles": 4980,
      "tier": 4981,
      "Ġlois": 4982,
      "Ġhuile": 4983,
      "atric": 4984,
      "Ġverse": 4985,
      "Ġassujetti": 4986,
      "Ġdemeurant": 4987,
      "Ġ1969": 4988,
      "Ġapporter": 4989,
      "chaft": 4990,
      "Ġdommage": 4991,
      "ani": 4992,
      "Ġprevoyant": 4993,
      "Ġrecouvrement": 4994,
      "Ġinclus": 4995,
      "ng": 4996,
      "Ġintervenante": 4997,
      "Ġgraves": 4998,
      "run": 4999,
      "Ġmonte": 5000,
      "Ġminimal": 5001,
      "Ð¸Ñ": 5002,
      "Ġelar": 5003,
      "Ġother": 5004,
      "Ġemis": 5005,
      "Ġprime": 5006,
      "orm": 5007,
      "Ġtelevision": 5008,
      "fi": 5009,
      "dee": 5010,
      "Ġ1964": 5011,
      "ld": 5012,
      "Ġenerge": 5013,
      "urre": 5014,
      "Ġprofessionnelles": 5015,
      "Ġenfant": 5016,
      "Ïī": 5017,
      "Ġdevoir": 5018,
      "Ġinteressees": 5019,
      "Ġminimale": 5020,
      "Ġpartielle": 5021,
      "ares": 5022,
      "Ġinno": 5023,
      "Ġtrop": 5024,
      "ws": 5025,
      "Ġremplacement": 5026,
      "ast": 5027,
      "Ġrien": 5028,
      "Ġintegration": 5029,
      "Ġpostes": 5030,
      "Ġquin": 5031,
      "Ġobserve": 5032,
      "Ġinvalidite": 5033,
      "Ġplai": 5034,
      "Ġerreurs": 5035,
      "los": 5036,
      "sives": 5037,
      "Ġ121": 5038,
      "Ġjac": 5039,
      "Ġdecoule": 5040,
      "Ġhand": 5041,
      "Ġukraine": 5042,
      "Ġnormale": 5043,
      "Ġuniver": 5044,
      "bel": 5045,
      "Ġautonome": 5046,
      "Ġnr": 5047,
      "Ġcoton": 5048,
      "chen": 5049,
      "Ġ320": 5050,
      "tionnels": 5051,
      "Ġcam": 5052,
      "Ġ520": 5053,
      "Ġretour": 5054,
      "Ġprennent": 5055,
      "Ġmontre": 5056,
      "Ġcle": 5057,
      "Ġfranch": 5058,
      "Ġlegislateur": 5059,
      "Ġteleph": 5060,
      "lier": 5061,
      "52": 5062,
      "61": 5063,
      "Ġengager": 5064,
      "Ġmouve": 5065,
      "Ġobstacle": 5066,
      "Ġsimplement": 5067,
      "Ġgrace": 5068,
      "Ġrealises": 5069,
      "Ġexiger": 5070,
      "hm": 5071,
      "ov": 5072,
      "Ġfinale": 5073,
      "Ġapprop": 5074,
      "ind": 5075,
      "wn": 5076,
      "ij": 5077,
      "Ġvingt": 5078,
      "Ġcertification": 5079,
      "77": 5080,
      "Ġend": 5081,
      "Ġed": 5082,
      "port": 5083,
      "Ġ138": 5084,
      "Ġetendue": 5085,
      "Ġjustifiee": 5086,
      "Ġcentral": 5087,
      "Ġindependamment": 5088,
      "itimes": 5089,
      "Ġaccepte": 5090,
      "Ġpassation": 5091,
      "Ġincompatible": 5092,
      "Ġimmatric": 5093,
      "Ġ1967": 5094,
      "Ġ208": 5095,
      "Ġsurc": 5096,
      "ache": 5097,
      "Ġ130": 5098,
      "Ġliquidation": 5099,
      "Ġdouaniere": 5100,
      "Ġidentiques": 5101,
      "Ġexploitations": 5102,
      "Ġdebit": 5103,
      "ky": 5104,
      "Ġexterieur": 5105,
      "Ġdistance": 5106,
      "Ġverre": 5107,
      "lan": 5108,
      "ctivite": 5109,
      "Ġaddition": 5110,
      "Ġreguli": 5111,
      "Ġsociales": 5112,
      "Ġuniforme": 5113,
      "ilibre": 5114,
      "mines": 5115,
      "Ġconcernent": 5116,
      "tit": 5117,
      "aces": 5118,
      "Ġclient": 5119,
      "Ġnormal": 5120,
      "Ġ111": 5121,
      "Ġassocies": 5122,
      "Ġformelle": 5123,
      "Ġprevoi": 5124,
      "Ġpdf": 5125,
      "Ġdetour": 5126,
      "Ġordonne": 5127,
      "Ġwest": 5128,
      "Ġdocumentation": 5129,
      "Ġdifferences": 5130,
      "Ġdiffusion": 5131,
      "Ġeuropeens": 5132,
      "deur": 5133,
      "Ġcertif": 5134,
      "Ġequip": 5135,
      "menter": 5136,
      "Ġpreval": 5137,
      "Ġwo": 5138,
      "Ġenseignement": 5139,
      "Ġstand": 5140,
      "Ġsupportera": 5141,
      "Ġretenu": 5142,
      "Ïĥ": 5143,
      "Ġorale": 5144,
      "Ġconfusion": 5145,
      "Ġprorog": 5146,
      "Ġinformer": 5147,
      "Ġbulgarie": 5148,
      "Ġara": 5149,
      "Ġrequise": 5150,
      "Ġhauteur": 5151,
      "Ġevene": 5152,
      "Ġmac": 5153,
      "Ġoli": 5154,
      "endrait": 5155,
      "riel": 5156,
      "Ġadmission": 5157,
      "cture": 5158,
      "Ġ~": 5159,
      "Ġintroduire": 5160,
      "Ġconstituant": 5161,
      "Ġtort": 5162,
      "hal": 5163,
      "Ġnc": 5164,
      "Ġecou": 5165,
      "Ġevalue": 5166,
      "Ġstocks": 5167,
      "tiers": 5168,
      "Ġesc": 5169,
      "Ĥ¬": 5170,
      "Ġveillent": 5171,
      "Ġdivers": 5172,
      "Ġ129": 5173,
      "Ġdouanes": 5174,
      "Ġaugmente": 5175,
      "Ġsepare": 5176,
      "Ġ189": 5177,
      "Ġlicences": 5178,
      "Ġchaine": 5179,
      "Ġov": 5180,
      "Ġexter": 5181,
      "Ġbarreau": 5182,
      "aite": 5183,
      "Ġappartenant": 5184,
      "Ġessentiellement": 5185,
      "tal": 5186,
      "Ġepo": 5187,
      "Ġplantes": 5188,
      "tur": 5189,
      "Ġalcool": 5190,
      "Ġconsultatif": 5191,
      "Ġdavantage": 5192,
      "Ġconnaissances": 5193,
      "Ġshall": 5194,
      "000000000000": 5195,
      "Ġlocation": 5196,
      "Ġdefic": 5197,
      "Ġtelec": 5198,
      "Ġinstruction": 5199,
      "guer": 5200,
      "Ġressortissant": 5201,
      "Ġtitulaires": 5202,
      "Ġperception": 5203,
      "Ġaccro": 5204,
      "Ġ$": 5205,
      "100": 5206,
      "Ġkil": 5207,
      "Ġling": 5208,
      "Ġpourra": 5209,
      "Ġdiverses": 5210,
      "Ġcommuniquer": 5211,
      "rimes": 5212,
      "tissement": 5213,
      "Ġcreances": 5214,
      "Ġexposition": 5215,
      "Ġcompeti": 5216,
      "Ġmt": 5217,
      "Ġjointes": 5218,
      "Ġbg": 5219,
      "Ġvon": 5220,
      "acion": 5221,
      "Ġrepe": 5222,
      "mise": 5223,
      "Ġreserves": 5224,
      "Ġsar": 5225,
      "Ġgouvernements": 5226,
      "Ġind": 5227,
      "Ġconduire": 5228,
      "Ġrepondu": 5229,
      "Ġmonn": 5230,
      "Ġdisposer": 5231,
      "Ġsaur": 5232,
      "wo": 5233,
      "Ġcontrepartie": 5234,
      "Ġechantillons": 5235,
      "Ġconduit": 5236,
      "59": 5237,
      "Ġprecisement": 5238,
      "ignant": 5239,
      "Ġ123": 5240,
      "Ġverser": 5241,
      "tine": 5242,
      "Ġ137": 5243,
      "Ġvins": 5244,
      "mbours": 5245,
      "Ġjamais": 5246,
      "Ġmarke": 5247,
      "Ġlitu": 5248,
      "Ġcroissance": 5249,
      "Ġstructures": 5250,
      "Ġsignif": 5251,
      "enes": 5252,
      "Ġ388": 5253,
      "Ġtrouver": 5254,
      "áĥĿáĥ": 5255,
      "Ġetranger": 5256,
      "uellement": 5257,
      "Ġjean": 5258,
      "Ġfamili": 5259,
      "Ġsider": 5260,
      "Ġfaites": 5261,
      "Ġfaculte": 5262,
      "Ġdurable": 5263,
      "oun": 5264,
      "tot": 5265,
      "Ġgal": 5266,
      "Ġ1962": 5267,
      "Ġabu": 5268,
      "Ġbeurre": 5269,
      "Ġcru": 5270,
      "Ġcontributions": 5271,
      "Ġinterdit": 5272,
      "Ġelimination": 5273,
      "Ġunivers": 5274,
      "Ġrefle": 5275,
      "Ġimper": 5276,
      "Ġfrau": 5277,
      "Ġfavorable": 5278,
      "und": 5279,
      "Ġprenant": 5280,
      "Ġcommunauteas": 5281,
      "Ġnaturel": 5282,
      "Ġalu": 5283,
      "Ġcompagnie": 5284,
      "68": 5285,
      "Ġimpots": 5286,
      "Ġimportants": 5287,
      "Ġcontinuer": 5288,
      "Ġsouhait": 5289,
      "dant": 5290,
      "Ġvegetaux": 5291,
      "Ġparticipant": 5292,
      "Ġ135": 5293,
      "Ġappu": 5294,
      "Ġenquetes": 5295,
      "lacement": 5296,
      "Ġpleinement": 5297,
      "Ġcalcule": 5298,
      "Ġregulierement": 5299,
      "Ġ234": 5300,
      "ary": 5301,
      "Ġcoup": 5302,
      "actions": 5303,
      "Ġpouvaient": 5304,
      "Ġjapon": 5305,
      "Ġmateriels": 5306,
      "Ġrecrutement": 5307,
      "gl": 5308,
      "Ġextension": 5309,
      "ok": 5310,
      "Ġprogrammation": 5311,
      "Ġattention": 5312,
      "itz": 5313,
      "Ġautorisant": 5314,
      "Ġexistantes": 5315,
      "Ġtax": 5316,
      "cadre": 5317,
      "Ġcomposants": 5318,
      "Ġsynthetiques": 5319,
      "Ġdeposee": 5320,
      "Ġproducts": 5321,
      "Ġ136": 5322,
      "Ġindiquees": 5323,
      "Ġfederal": 5324,
      "Ġdette": 5325,
      "Ġimportantes": 5326,
      "Ġsauvegarde": 5327,
      "ices": 5328,
      "deration": 5329,
      "Ġaura": 5330,
      "Ġsupple": 5331,
      "fp": 5332,
      "rop": 5333,
      "Ġ160": 5334,
      "Ġrech": 5335,
      "Ġdefinitif": 5336,
      "any": 5337,
      "Ġaccessoires": 5338,
      "Ġlivraisons": 5339,
      "Ġregular": 5340,
      "Ġtient": 5341,
      "Ġnorvege": 5342,
      "Ġcircul": 5343,
      "Ġdistor": 5344,
      "Ġmaje": 5345,
      "Ġcant": 5346,
      "Ġza": 5347,
      "Ġ185": 5348,
      "Ġencadre": 5349,
      "Ġdenomination": 5350,
      "chi": 5351,
      "Ġenumerees": 5352,
      "Ġdk": 5353,
      "ted": 5354,
      "Ġnouvel": 5355,
      "Ġquelcon": 5356,
      "Ġavances": 5357,
      "iller": 5358,
      "Ġcorrection": 5359,
      "Ġholding": 5360,
      "Ġare": 5361,
      "Ġutilisant": 5362,
      "Ġarmes": 5363,
      "ault": 5364,
      "Ġnomme": 5365,
      "Ġquand": 5366,
      "Ġeat": 5367,
      "Ġchlor": 5368,
      "Ġwag": 5369,
      "Ġ178": 5370,
      "Ġemplois": 5371,
      "Ġcivil": 5372,
      "Ġvir": 5373,
      "rup": 5374,
      "Ġformulaire": 5375,
      "Ġexistants": 5376,
      "atie": 5377,
      "Ġobjective": 5378,
      "Ġseuil": 5379,
      "ourv": 5380,
      "Ġeventuelles": 5381,
      "Ġsoutenir": 5382,
      "Ġrembours": 5383,
      "Ġ128": 5384,
      "diff": 5385,
      "Ġsupposer": 5386,
      "Ġevid": 5387,
      "Ġsoins": 5388,
      "Ġpil": 5389,
      "Ġmoral": 5390,
      "Ġoxy": 5391,
      "Ġpartage": 5392,
      "Ġint": 5393,
      "Ġindividuelle": 5394,
      "Ġdeveloppe": 5395,
      "sch": 5396,
      "Ġcreanci": 5397,
      "Ġ149": 5398,
      "Ġpertinence": 5399,
      "Ġmoteurs": 5400,
      "Ġalb": 5401,
      "onte": 5402,
      "ince": 5403,
      "Ġfaute": 5404,
      "wie": 5405,
      "Ġdepourv": 5406,
      "Ġnew": 5407,
      "Ġacp": 5408,
      "302": 5409,
      "Ġtarifaires": 5410,
      "Ġgros": 5411,
      "Ġarm": 5412,
      "Ġlicencie": 5413,
      "Ġimmun": 5414,
      "Ġ190": 5415,
      "Ġpresentent": 5416,
      "Ġlistes": 5417,
      "Ġidentique": 5418,
      "Ġrecomman": 5419,
      "63": 5420,
      "Ġmelanges": 5421,
      "Ġbeau": 5422,
      "Ġfiliales": 5423,
      "Ġqua": 5424,
      "Ġfar": 5425,
      "Ġcloture": 5426,
      "Ġdevaient": 5427,
      "Ġcollab": 5428,
      "Ġee": 5429,
      "gr": 5430,
      "Ġgran": 5431,
      "Ġsauraient": 5432,
      "Ġresponsables": 5433,
      "Ġconseiller": 5434,
      "Ġepoque": 5435,
      "Ġcanada": 5436,
      "Ġmig": 5437,
      "ado": 5438,
      "Ġ173": 5439,
      "Ġimparti": 5440,
      "60": 5441,
      "Ġeduc": 5442,
      "Ġml": 5443,
      "Ġvacc": 5444,
      "Ġtest": 5445,
      "Ġgeme": 5446,
      "Ġimportes": 5447,
      "Ġboissons": 5448,
      "Ġcrise": 5449,
      "Ġbritann": 5450,
      "Ġpopulation": 5451,
      "Ġprecitee": 5452,
      "Ġsanitaires": 5453,
      "Ġke": 5454,
      "Ġblanc": 5455,
      "Ġregionales": 5456,
      "Ġeuropeaennes": 5457,
      "Ġindispens": 5458,
      "entielles": 5459,
      "Ġdefinir": 5460,
      "Ġversees": 5461,
      "Î¹Î±": 5462,
      "Ġautorisees": 5463,
      "Ġrealisees": 5464,
      "Ġrejetee": 5465,
      "eneurs": 5466,
      "Ġprevoient": 5467,
      "Ġpoudre": 5468,
      "Ġjeu": 5469,
      "Ġjoue": 5470,
      "Ġhttp": 5471,
      "Ġcompatibles": 5472,
      "Ġperspe": 5473,
      "Ġderives": 5474,
      "Ġperform": 5475,
      "rr": 5476,
      "yp": 5477,
      "Ġmelange": 5478,
      "Ġmieux": 5479,
      "uri": 5480,
      "Ġdepass": 5481,
      "Ġactuelle": 5482,
      "Ġprivee": 5483,
      "Ġcycle": 5484,
      "Ġ140": 5485,
      "Ġsollicite": 5486,
      "itant": 5487,
      "Ġinvestisseur": 5488,
      "Ġquelconque": 5489,
      "Ġ414": 5490,
      "Ġcarbone": 5491,
      "nie": 5492,
      "Ġcomplet": 5493,
      "Ġadequate": 5494,
      "Ġnullite": 5495,
      "Ġconventions": 5496,
      "Ġdepasser": 5497,
      "Ġfacture": 5498,
      "Ġpensions": 5499,
      "Ġinstructions": 5500,
      "Ġtandis": 5501,
      "Ġpermanente": 5502,
      "Ġtechnologie": 5503,
      "vir": 5504,
      "Ġ267": 5505,
      "sifs": 5506,
      "Ġcontiennent": 5507,
      "Ġ159": 5508,
      "Ġpp": 5509,
      "Ġcontroler": 5510,
      "Ġprim": 5511,
      "Ġaeriens": 5512,
      "Ġnit": 5513,
      "Ġredevance": 5514,
      "Ġsion": 5515,
      "Ġprobleme": 5516,
      "Ġorgane": 5517,
      "Ġindustries": 5518,
      "ario": 5519,
      "Ġouverte": 5520,
      "Ġwa": 5521,
      "Ġinstau": 5522,
      "oga": 5523,
      "Ġlesdits": 5524,
      "Ġnomin": 5525,
      "Ġtun": 5526,
      "Ġmissions": 5527,
      "Ġrecevoir": 5528,
      "ocra": 5529,
      "burg": 5530,
      "Ġacceptation": 5531,
      "Ġposees": 5532,
      "Ġelevee": 5533,
      "Ġvola": 5534,
      "Ġmettant": 5535,
      "Ġattestation": 5536,
      "Ġcommuniquees": 5537,
      "Ġdistinction": 5538,
      "Ġpetites": 5539,
      "Ġfonder": 5540,
      "Ġdoutes": 5541,
      "ĠÏĦ": 5542,
      "dire": 5543,
      "ote": 5544,
      "Ġsignificative": 5545,
      "Ġ122": 5546,
      "Ġcomprise": 5547,
      "Ġ900": 5548,
      "Ġaltern": 5549,
      "Ġlaitiers": 5550,
      "ria": 5551,
      "Ġnegative": 5552,
      "Ġlongue": 5553,
      "Ġirrecevabilite": 5554,
      "Ġstatuant": 5555,
      "Ġneant": 5556,
      "Ġconstant": 5557,
      "Ġvide": 5558,
      "uf": 5559,
      "Ġbret": 5560,
      "Ġrepresentation": 5561,
      "Ġ124": 5562,
      "Ġ620": 5563,
      "titut": 5564,
      "uille": 5565,
      "Ġequilibre": 5566,
      "Ġ134": 5567,
      "Ġbat": 5568,
      "Ġcles": 5569,
      "Ġdesigner": 5570,
      "ires": 5571,
      "Ġrealisee": 5572,
      "Ġpoursuivre": 5573,
      "Ġbour": 5574,
      "Ġdoute": 5575,
      "65": 5576,
      "Ġprescription": 5577,
      "Ġfusion": 5578,
      "Ġps": 5579,
      "Ġak": 5580,
      "Î¼": 5581,
      "laise": 5582,
      "Ġautomo": 5583,
      "lis": 5584,
      "tations": 5585,
      "Ġsloven": 5586,
      "intement": 5587,
      "Ġsoule": 5588,
      "Ġmetaux": 5589,
      "Ġactif": 5590,
      "hol": 5591,
      "Ġville": 5592,
      "Ġsolid": 5593,
      "Ġrendement": 5594,
      "taires": 5595,
      "vrant": 5596,
      "Ġofficielle": 5597,
      "Ġincident": 5598,
      "ura": 5599,
      "let": 5600,
      "Ġveterinaires": 5601,
      "Ġenonces": 5602,
      "Ġabat": 5603,
      "Ġhommes": 5604,
      "Ġ147": 5605,
      "heim": 5606,
      "Ġroyal": 5607,
      "Ġobtenues": 5608,
      "Ġsolutions": 5609,
      "Ġ230": 5610,
      "Ġechelle": 5611,
      "Ġquelque": 5612,
      "mestre": 5613,
      "Ġclauses": 5614,
      "Ġconstructeur": 5615,
      "Ġcertes": 5616,
      "Ġappropries": 5617,
      "aie": 5618,
      "Ġpresomp": 5619,
      "Ġ131": 5620,
      "aceutiques": 5621,
      "Ġreag": 5622,
      "Ġ700": 5623,
      "Ġremplacee": 5624,
      "Ġmit": 5625,
      "Ġdefavor": 5626,
      "Ġforfaitaire": 5627,
      "Ġcpc": 5628,
      "Ġverbale": 5629,
      "Ġsl": 5630,
      "Ġpassage": 5631,
      "Ġprevenir": 5632,
      "Ġenvoye": 5633,
      "Ġnl": 5634,
      "Ġreglementaire": 5635,
      "gees": 5636,
      "Ġ180": 5637,
      "Ġxx": 5638,
      "ed": 5639,
      "Ġconjointement": 5640,
      "ancement": 5641,
      "iennes": 5642,
      "Ġanterieures": 5643,
      "Ġvoies": 5644,
      "Ġcourant": 5645,
      "Ġsemble": 5646,
      "ail": 5647,
      "Ġinfligee": 5648,
      "Ġnavigation": 5649,
      "Ġcumul": 5650,
      "Ġpopulaire": 5651,
      "Ġray": 5652,
      "onnage": 5653,
      "Ġassurances": 5654,
      "Ġanglaise": 5655,
      "Ġtradi": 5656,
      "chant": 5657,
      "Ġdemar": 5658,
      "ismes": 5659,
      "Ġdemocra": 5660,
      "Ġ133": 5661,
      "ku": 5662,
      "Ġie": 5663,
      "Ġble": 5664,
      "Ġpresc": 5665,
      "adies": 5666,
      "Ġassociations": 5667,
      "Ġcarburant": 5668,
      "Ġmorale": 5669,
      "walt": 5670,
      "Ġimposees": 5671,
      "Ã¦": 5672,
      "gos": 5673,
      "78": 5674,
      "Ġpoursuivi": 5675,
      "Ġdesignes": 5676,
      "Ġhuit": 5677,
      "Ġpuisqu": 5678,
      "Ġ218": 5679,
      "Ġfacteur": 5680,
      "Ġoui": 5681,
      "Ġmerc": 5682,
      "Ġextract": 5683,
      "dc": 5684,
      "54": 5685,
      "Ġradiodiff": 5686,
      "Ġww": 5687,
      "Ġconcentrations": 5688,
      "Ġobtention": 5689,
      "Ġmedical": 5690,
      "voque": 5691,
      "Ġvolont": 5692,
      "roit": 5693,
      "pore": 5694,
      "opo": 5695,
      "isses": 5696,
      "ortun": 5697,
      "Ġetroite": 5698,
      "Ġletton": 5699,
      "Ġcalend": 5700,
      "Ġmaladies": 5701,
      "Ġmodu": 5702,
      "Ġbank": 5703,
      "Ġminimales": 5704,
      "Ġetrangers": 5705,
      "Ġemet": 5706,
      "Ġreprises": 5707,
      "Ġbos": 5708,
      "Ġprofessionnels": 5709,
      "Ġsuivre": 5710,
      "Ġsociaux": 5711,
      "Ġefforts": 5712,
      "Ġextre": 5713,
      "Ġrom": 5714,
      "Ġindustriels": 5715,
      "Ġferroviaire": 5716,
      "yle": 5717,
      "Ġoctroyee": 5718,
      "Ġdisposent": 5719,
      "Ġlaboratoire": 5720,
      "Ġveille": 5721,
      "Ġdecrit": 5722,
      "Ġportent": 5723,
      "Ġcandidat": 5724,
      "Ġconflit": 5725,
      "icient": 5726,
      "Ġod": 5727,
      "dium": 5728,
      "Ġstabilite": 5729,
      "Ġamerique": 5730,
      "xim": 5731,
      "Ġcontenues": 5732,
      "Ġdm": 5733,
      "51": 5734,
      "Ġdouze": 5735,
      "Ġprincipale": 5736,
      "Ġlivres": 5737,
      "Ġsupprime": 5738,
      "Ġsoumet": 5739,
      "Ġzur": 5740,
      "Ġobjets": 5741,
      "Ġintervenir": 5742,
      "Ġinterpretee": 5743,
      "Ġprealablement": 5744,
      "Ġdesdits": 5745,
      "Ġpolon": 5746,
      "aisons": 5747,
      "Ġemprun": 5748,
      "Ġpreser": 5749,
      "Ġ1963": 5750,
      "Ġneerlandaise": 5751,
      "Ġlis": 5752,
      "Ġexploitant": 5753,
      "ran": 5754,
      "Ġrenouvellement": 5755,
      "Ġgrands": 5756,
      "Ġepreuve": 5757,
      "Ġpartenaires": 5758,
      "Ġviii": 5759,
      "Ġhou": 5760,
      "bs": 5761,
      "cs": 5762,
      "Ġvoor": 5763,
      "ĠÂ±": 5764,
      "Ġstabil": 5765,
      "Ġdelegation": 5766,
      "lation": 5767,
      "Ġ268": 5768,
      "ony": 5769,
      "Ġfores": 5770,
      "gents": 5771,
      "Ġplutot": 5772,
      "Ġlocales": 5773,
      "minee": 5774,
      "Ġbretagne": 5775,
      "aute": 5776,
      "ĠÎµ": 5777,
      "Ġfavoriser": 5778,
      "Ġbate": 5779,
      "Ġrefuser": 5780,
      "dom": 5781,
      "Ġpertinente": 5782,
      "Ġ141": 5783,
      "Ġseptieme": 5784,
      "Ġ158": 5785,
      "Ġopposer": 5786,
      "ompe": 5787,
      "sten": 5788,
      "Ġcontractante": 5789,
      "Ġfeoga": 5790,
      "Ġanalogie": 5791,
      "Ġ1966": 5792,
      "Ġduche": 5793,
      "Ġdiscus": 5794,
      "Ġjustification": 5795,
      "Ġ226": 5796,
      "Ġsoutenu": 5797,
      "quage": 5798,
      "Ġencadrement": 5799,
      "Ġaccomplissement": 5800,
      "Ġcomprendre": 5801,
      "Ġ}": 5802,
      "Ġlongueur": 5803,
      "Ġoriginaire": 5804,
      "Ġsrl": 5805,
      "Ġ{": 5806,
      "part": 5807,
      "Ġposterieure": 5808,
      "Ġcontenir": 5809,
      "issait": 5810,
      "Ñĥ": 5811,
      "Ġfournie": 5812,
      "zy": 5813,
      "Ġoctroyees": 5814,
      "Ġforte": 5815,
      "Ġcomprenant": 5816,
      "acao": 5817,
      "Ġchimique": 5818,
      "bie": 5819,
      "Ġ209": 5820,
      "Ġrenc": 5821,
      "Ġimpossible": 5822,
      "Ġtransactions": 5823,
      "Ġremplir": 5824,
      "Ġvrai": 5825,
      "Ġusages": 5826,
      "Ġconference": 5827,
      "Ġinterpretes": 5828,
      "Ġ142": 5829,
      "Ġproprietaire": 5830,
      "Ġchine": 5831,
      "essions": 5832,
      "Ġhist": 5833,
      "ated": 5834,
      "Ġabus": 5835,
      "Ġpoursuite": 5836,
      "Ġvalable": 5837,
      "Ġfederation": 5838,
      "Ġinscrit": 5839,
      "Ġges": 5840,
      "teri": 5841,
      "sivement": 5842,
      "Ġ187": 5843,
      "Ġciv": 5844,
      "tta": 5845,
      "inc": 5846,
      "Ġaver": 5847,
      "Ġsuperfic": 5848,
      "Ġcentres": 5849,
      "Ġben": 5850,
      "Ïħ": 5851,
      "Ġprecis": 5852,
      "Ġheure": 5853,
      "Ġxi": 5854,
      "Ġpreleve": 5855,
      "mique": 5856,
      "Ġdifferent": 5857,
      "Ġdispar": 5858,
      "Ġinitial": 5859,
      "Ġcoefficient": 5860,
      "Ġminister": 5861,
      "Ġimme": 5862,
      "Ġprecision": 5863,
      "Ġkar": 5864,
      "Ġeleves": 5865,
      "Ġcommise": 5866,
      "Ġdenommee": 5867,
      "Ġarrangement": 5868,
      "Ġajouter": 5869,
      "Ġtransaction": 5870,
      "Ġcentrales": 5871,
      "Ġreprise": 5872,
      "Ġindiquee": 5873,
      "Ġetiquetage": 5874,
      "Ġschen": 5875,
      "Ġintracommunautaires": 5876,
      "Ġespagnole": 5877,
      "Ġbeneficient": 5878,
      "ings": 5879,
      "Ġmilitaire": 5880,
      "Ġcomposes": 5881,
      "Ġeman": 5882,
      "Ġalumin": 5883,
      "Ġindiques": 5884,
      "Ġvisent": 5885,
      "Ġpresomption": 5886,
      "Ġfondees": 5887,
      "gations": 5888,
      "arch": 5889,
      "Ġpollution": 5890,
      "rante": 5891,
      "Ġdra": 5892,
      "Ġmess": 5893,
      "Ġengagee": 5894,
      "Ġtests": 5895,
      "Ġresidus": 5896,
      "Ġopportun": 5897,
      "Ġstatuts": 5898,
      "Ġrecevable": 5899,
      "ych": 5900,
      "Ġjoint": 5901,
      "Ġopposent": 5902,
      "Ġjustific": 5903,
      "Ġfabricants": 5904,
      "Ġ263": 5905,
      "Ġfermet": 5906,
      "miner": 5907,
      "Ġcommuns": 5908,
      "Ġyou": 5909,
      "Ġproportionne": 5910,
      "Ġdifficulte": 5911,
      "Ġprestataire": 5912,
      "Ġtransitoire": 5913,
      "Ġentache": 5914,
      "Ġactionnaires": 5915,
      "istan": 5916,
      "chet": 5917,
      "bl": 5918,
      "Ġ610": 5919,
      "Ġpretend": 5920,
      "Ġprononcer": 5921,
      "Ġappell": 5922,
      "Ġintegralite": 5923,
      "Ġcolonne": 5924,
      "Ġallou": 5925,
      "Ġnes": 5926,
      "Ġcarriere": 5927,
      "gin": 5928,
      "Ġdetournement": 5929,
      "Ġindirectement": 5930,
      "arite": 5931,
      "Ġvia": 5932,
      "Ġtenus": 5933,
      "Ġreproduction": 5934,
      "Ġcorrectement": 5935,
      "Ġrea": 5936,
      "Ġoutils": 5937,
      "Ġdesquels": 5938,
      "oup": 5939,
      "Ġ800": 5940,
      "Ġinex": 5941,
      "Ġ132": 5942,
      "Ġmorales": 5943,
      "Ġretab": 5944,
      "Ġempeche": 5945,
      "1000": 5946,
      "atrice": 5947,
      "Ġmecanismes": 5948,
      "Ġ143": 5949,
      "Ġpercu": 5950,
      "73": 5951,
      "Ġ220": 5952,
      "han": 5953,
      "Ġgui": 5954,
      "Ġindividuellement": 5955,
      "Ġ175": 5956,
      "Ġgratu": 5957,
      "Ġessentiels": 5958,
      "Ġrussie": 5959,
      "Ġdimension": 5960,
      "reme": 5961,
      "Ġ204": 5962,
      "Ġecrites": 5963,
      "Ġidentifier": 5964,
      "Ġrepris": 5965,
      "Ġcommence": 5966,
      "Ġ352": 5967,
      "Ġcouvert": 5968,
      "Ġreprodu": 5969,
      "Ġmou": 5970,
      "Ġsyndic": 5971,
      "Ġillegale": 5972,
      "Ġsimilaire": 5973,
      "Ġprevoy": 5974,
      "Ġindependance": 5975,
      "Ġbancaire": 5976,
      "Ġ168": 5977,
      "Ġsubstantielle": 5978,
      "nelles": 5979,
      "Ġimmeub": 5980,
      "Ġrappele": 5981,
      "Ġbilan": 5982,
      "Ġâī¤": 5983,
      "ancer": 5984,
      "Ġperformance": 5985,
      "liques": 5986,
      "Ġrenforcement": 5987,
      "Ġnic": 5988,
      "Ġauto": 5989,
      "Ġarretees": 5990,
      "Ġpartiel": 5991,
      "Ġversee": 5992,
      "Ġautrich": 5993,
      "Ġmarchandise": 5994,
      "Ġeuropean": 5995,
      "Ġgmin": 5996,
      "ĠÂ·": 5997,
      "Ġports": 5998,
      "ros": 5999,
      "Ġulterie": 6000,
      "Î¹Îº": 6001,
      "66": 6002,
      "Ġprocure": 6003,
      "dique": 6004,
      "Ġ215": 6005,
      "Ġpier": 6006,
      "Ġmot": 6007,
      "Ġcouvre": 6008,
      "Ġthat": 6009,
      "Ġtradu": 6010,
      "Ġgam": 6011,
      "Ġ157": 6012,
      "Ġimportateur": 6013,
      "Ġgraph": 6014,
      "Ġ155": 6015,
      "iellement": 6016,
      "Ġcotisations": 6017,
      "Ġtrouvent": 6018,
      "Ġmedicale": 6019,
      "plus": 6020,
      "Ġprincipales": 6021,
      "Ġcalculee": 6022,
      "isement": 6023,
      "Ġkir": 6024,
      "Ġcandidature": 6025,
      "Ġaffirmative": 6026,
      "Ġdevra": 6027,
      "Ġdanger": 6028,
      "Ġpriv": 6029,
      "Ġverifications": 6030,
      "Ġconstatations": 6031,
      "Ġindustrielle": 6032,
      "encl": 6033,
      "Ġvisa": 6034,
      "Ġmandataire": 6035,
      "Ġcel": 6036,
      "Ġgeor": 6037,
      "Ġlettonie": 6038,
      "zer": 6039,
      "Ġdepartement": 6040,
      "Ġbelges": 6041,
      "Ġ211": 6042,
      "Ġmedecin": 6043,
      "time": 6044,
      "Ġreglementations": 6045,
      "Ġasi": 6046,
      "Ġmoder": 6047,
      "Ġplein": 6048,
      "ya": 6049,
      "nels": 6050,
      "Ġera": 6051,
      "Ġchargee": 6052,
      "Ġpriorite": 6053,
      "mit": 6054,
      "Ġnomencl": 6055,
      "Ġapparaitre": 6056,
      "Ġretroac": 6057,
      "Ġcontestee": 6058,
      "Ġliquide": 6059,
      "Ġfrontieres": 6060,
      "ulations": 6061,
      "Ġechelon": 6062,
      "Ġcampagne": 6063,
      "Ġchy": 6064,
      "Ġmedicament": 6065,
      "Ġdomes": 6066,
      "char": 6067,
      "ulter": 6068,
      "hor": 6069,
      "Ġdr": 6070,
      "Ġwww": 6071,
      "Ġ3199": 6072,
      "Ġreferences": 6073,
      "Ġindependants": 6074,
      "agent": 6075,
      "Ġpommes": 6076,
      "Ġprovision": 6077,
      "Ġaerone": 6078,
      "Ġaeroports": 6079,
      "Ġcitoyens": 6080,
      "Ġechap": 6081,
      "kel": 6082,
      "Ġ167": 6083,
      "Ġchem": 6084,
      "Ġsche": 6085,
      "Ġoise": 6086,
      "Ġ161": 6087,
      "Ġcontribue": 6088,
      "ders": 6089,
      "Ġemployes": 6090,
      "Ġdivulgation": 6091,
      "Ġpremiers": 6092,
      "Ġzero": 6093,
      "Ġ184": 6094,
      "Ġflux": 6095,
      "Ġbureaux": 6096,
      "Ġlituanie": 6097,
      "Ġchypre": 6098,
      "Ġdisp": 6099,
      "Ġplafond": 6100,
      "Ġpeine": 6101,
      "Ġnetto": 6102,
      "Ġmentionnee": 6103,
      "Ġgb": 6104,
      "Ġrubrique": 6105,
      "Ġaugmenter": 6106,
      "nee": 6107,
      "Ġkon": 6108,
      "vree": 6109,
      "Ġindicateurs": 6110,
      "Ġsouligner": 6111,
      "Ġmondial": 6112,
      "Ġsurplus": 6113,
      "Ġplupart": 6114,
      "Ġbhm": 6115,
      "Ġpetrole": 6116,
      "Ġ146": 6117,
      "Ġmol": 6118,
      "Ġ1965": 6119,
      "Ġ151": 6120,
      "Ġration": 6121,
      "Ġagrees": 6122,
      "83": 6123,
      "ĠÎ±": 6124,
      "Ġsortie": 6125,
      "Ġslovaque": 6126,
      "Ġsm": 6127,
      "Ġga": 6128,
      "Ġreelle": 6129,
      "Ġintensite": 6130,
      "Ġindividuelles": 6131,
      "Ġsept": 6132,
      "omique": 6133,
      "Ġorientations": 6134,
      "Ġdangereuses": 6135,
      "Ġinscri": 6136,
      "Ġpourv": 6137,
      "Ġtravers": 6138,
      "laces": 6139,
      "Ġpoissons": 6140,
      "Ġbeneficiant": 6141,
      "derland": 6142,
      "Ġ1049": 6143,
      "Ġaptitude": 6144,
      "leration": 6145,
      "tz": 6146,
      "Ġpertur": 6147,
      "ĠâĤ¬": 6148,
      "table": 6149,
      "Ġix": 6150,
      "Ġarme": 6151,
      "Ġarriere": 6152,
      "Ġcircu": 6153,
      "Ġafferents": 6154,
      "Ġremar": 6155,
      "inde": 6156,
      "dra": 6157,
      "Ġappliquant": 6158,
      "Ġschengen": 6159,
      "Ġace": 6160,
      "Ġapplicabilite": 6161,
      "Ġjeun": 6162,
      "Ġdies": 6163,
      "Î¿ÏĤ": 6164,
      "Ġdifferend": 6165,
      "Ġreconnaiss": 6166,
      "Ġintegrante": 6167,
      "abilites": 6168,
      "Ġcontractuelle": 6169,
      "Ġiles": 6170,
      "Ġposee": 6171,
      "ĠstraÃŁe": 6172,
      "arer": 6173,
      "uels": 6174,
      "Ġsitues": 6175,
      "Ġouvrages": 6176,
      "Ġ217": 6177,
      "Ġavenir": 6178,
      "here": 6179,
      "Ġremplit": 6180,
      "Ġmettent": 6181,
      "Ġnomenclature": 6182,
      "Ġprotegee": 6183,
      "Ġfu": 6184,
      "Ġpy": 6185,
      "Ġutiles": 6186,
      "Ġmachine": 6187,
      "Ġrecupe": 6188,
      "Ġaffectes": 6189,
      "Ġog": 6190,
      "Ġsuccurs": 6191,
      "dation": 6192,
      "Ġsauvetage": 6193,
      "Ġdevelopper": 6194,
      "Ġguy": 6195,
      "ied": 6196,
      "Ġbiais": 6197,
      "Ġreel": 6198,
      "Ġplate": 6199,
      "olu": 6200,
      "Ġmonnaie": 6201,
      "Ġrepos": 6202,
      "Ġenergetique": 6203,
      "ylene": 6204,
      "Ġfront": 6205,
      "Ġkre": 6206,
      "Ġrenouvel": 6207,
      "Ġ228": 6208,
      "Ġcollective": 6209,
      "Ġmalgre": 6210,
      "Ġtransporteurs": 6211,
      "Ġaudition": 6212,
      "lication": 6213,
      "Ġvertic": 6214,
      "ĠâĢ¢": 6215,
      "Ġindividuel": 6216,
      "Ġconcre": 6217,
      "Ġpeste": 6218,
      "Ġporcs": 6219,
      "encer": 6220,
      "Ġenerg": 6221,
      "Ġlegal": 6222,
      "Ġofficielles": 6223,
      "Ġstandard": 6224,
      "Ġspeciaux": 6225,
      "Ġclu": 6226,
      "roid": 6227,
      "entement": 6228,
      "Ġxii": 6229,
      "Ġpatri": 6230,
      "Ġslovenie": 6231,
      "Ġfeux": 6232,
      "Ġaluminium": 6233,
      "Ġintegre": 6234,
      "62": 6235,
      "Ġulterieurement": 6236,
      "aci": 6237,
      "Ġapportees": 6238,
      "Ġpati": 6239,
      "Ġimpression": 6240,
      "Ġiran": 6241,
      "alogue": 6242,
      "Ġtubes": 6243,
      "Ġclaire": 6244,
      "Ġgrandes": 6245,
      "Ġkra": 6246,
      "Ġ144": 6247,
      "Ġsimpli": 6248,
      "Ġanalyses": 6249,
      "Ġdefinitions": 6250,
      "Ġ010": 6251,
      "blement": 6252,
      "Ġexpire": 6253,
      "Ġtires": 6254,
      "illage": 6255,
      "ona": 6256,
      "Ġinvesti": 6257,
      "Ġsoutiennent": 6258,
      "bank": 6259,
      "Ġtroisiemement": 6260,
      "Ġterrain": 6261,
      "Ġcomparables": 6262,
      "diteur": 6263,
      "pots": 6264,
      "Ġprescrit": 6265,
      "ida": 6266,
      "Ġdifficile": 6267,
      "Ġclar": 6268,
      "villon": 6269,
      "Ġomi": 6270,
      "Ġfabrique": 6271,
      "mme": 6272,
      "Ġannonce": 6273,
      "Ġvivants": 6274,
      "Ġmutuelle": 6275,
      "Ġ152": 6276,
      "Ġthese": 6277,
      "Ġvalor": 6278,
      "Ġannulee": 6279,
      "Ġappliques": 6280,
      "ÏĢ": 6281,
      "Ġangle": 6282,
      "Ġricht": 6283,
      "Ġryan": 6284,
      "Ġhal": 6285,
      "Ġraisonnement": 6286,
      "bach": 6287,
      "dy": 6288,
      "Ġsulf": 6289,
      "Ġze": 6290,
      "Ġmine": 6291,
      "Ġreductions": 6292,
      "Ġhuitieme": 6293,
      "tera": 6294,
      "Ġmoyennes": 6295,
      "Ġdefinit": 6296,
      "Ġcondamnation": 6297,
      "Ġespagnoles": 6298,
      "Ġ170": 6299,
      "Ġproposer": 6300,
      "Ġadapter": 6301,
      "Ġnederland": 6302,
      "Ġfort": 6303,
      "Ġeuropa": 6304,
      "Ġpne": 6305,
      "Ġtransporteur": 6306,
      "Ġdeac": 6307,
      "Ġcabine": 6308,
      "ĠÑģ": 6309,
      "Ġnat": 6310,
      "Ġtotalement": 6311,
      "Ġfinanz": 6312,
      "Ġexposees": 6313,
      "Ġmay": 6314,
      "Ġassorti": 6315,
      "Ġshe": 6316,
      "Ġinclure": 6317,
      "Ġinstitut": 6318,
      "Ġgroup": 6319,
      "Ġquelques": 6320,
      "Ġpretendue": 6321,
      "conne": 6322,
      "Ġexpli": 6323,
      "Ġsuedo": 6324,
      "Ġmenee": 6325,
      "pel": 6326,
      "Ġpur": 6327,
      "iteur": 6328,
      "Ġprimes": 6329,
      "anches": 6330,
      "Ġnormales": 6331,
      "Ġutilisateur": 6332,
      "Ġbovins": 6333,
      "Ġexcedent": 6334,
      "Ġautomobil": 6335,
      "Ġtem": 6336,
      "Ġimposee": 6337,
      "Ġ730": 6338,
      "Ġenvisagee": 6339,
      "iable": 6340,
      "Ġpavillon": 6341,
      "Ġsignifie": 6342,
      "Ġcanton": 6343,
      "Ġconfirmer": 6344,
      "joint": 6345,
      "71": 6346,
      "Ġeducation": 6347,
      "Ġconstituee": 6348,
      "Ġinterpreter": 6349,
      "Ġstatue": 6350,
      "Ġfabriques": 6351,
      "Ġproro": 6352,
      "apes": 6353,
      "Ġ165": 6354,
      "Ġrecfp": 6355,
      "Ġtransmettre": 6356,
      "Ġintero": 6357,
      "Ġreforme": 6358,
      "Ġhc": 6359,
      "Ġpretendument": 6360,
      "ox": 6361,
      "Ġnaturelles": 6362,
      "Ġregulation": 6363,
      "Ġmaritimes": 6364,
      "Ġ253": 6365,
      "Ġvendre": 6366,
      "Ġparametres": 6367,
      "chou": 6368,
      "Ġjeux": 6369,
      "Ġagreement": 6370,
      "Ġcra": 6371,
      "Ġlaisse": 6372,
      "Ġmenace": 6373,
      "del": 6374,
      "Ġdefault": 6375,
      "Ġraff": 6376,
      "Ġmau": 6377,
      "Ġresistance": 6378,
      "Ġlargeur": 6379,
      "Ġlegale": 6380,
      "Ġenvoi": 6381,
      "Ġequitable": 6382,
      "Ġnegociation": 6383,
      "inee": 6384,
      "Ġcalendrier": 6385,
      "Ġmenees": 6386,
      "Ġconserve": 6387,
      "Ġoiseaux": 6388,
      "Ġka": 6389,
      "Ġirregularites": 6390,
      "ogra": 6391,
      "rich": 6392,
      "of": 6393,
      "Ġconsulte": 6394,
      "Ġ188": 6395,
      "Ġcommunity": 6396,
      "Ġbilatera": 6397,
      "quoi": 6398,
      "Ġ319": 6399,
      "Ġcessation": 6400,
      "Ġincidences": 6401,
      "Ġbaisse": 6402,
      "Ġneuf": 6403,
      "Ġ239": 6404,
      "Ġsouvent": 6405,
      "seur": 6406,
      "Ġconversion": 6407,
      "Ġryanair": 6408,
      "irait": 6409,
      "Ġprecises": 6410,
      "Ġ337": 6411,
      "Ġspeciales": 6412,
      "Ġmilieu": 6413,
      "Ġsimult": 6414,
      "Ġ191": 6415,
      "Ġdissu": 6416,
      "Ġepaisse": 6417,
      "var": 6418,
      "Ġinteroper": 6419,
      "Ġadmettre": 6420,
      "Ġexpedition": 6421,
      "Ġconstituait": 6422,
      "Ġsepar": 6423,
      "Ġrecues": 6424,
      "Ġactuel": 6425,
      "Ġante": 6426,
      "Ġcouleur": 6427,
      "Ġgas": 6428,
      "Ġeliminer": 6429,
      "tise": 6430,
      "azione": 6431,
      "dees": 6432,
      "sibilite": 6433,
      "Ġpourquoi": 6434,
      "Ġprorogation": 6435,
      "mps": 6436,
      "Ġbrb": 6437,
      "Ġpotentiel": 6438,
      "Ġrichtung": 6439,
      "Ġ176": 6440,
      "Ġsimilitude": 6441,
      "zz": 6442,
      "Ġrapidement": 6443,
      "Ġplaques": 6444,
      "Ġautonom": 6445,
      "Ġliminaire": 6446,
      "Ġvolonte": 6447,
      "Î¿Ïħ": 6448,
      "Ġliens": 6449,
      "Ġsector": 6450,
      "Ġimplicite": 6451,
      "Ġestonie": 6452,
      "Ġlinguis": 6453,
      "Ġ166": 6454,
      "Ġcorrespondantes": 6455,
      "Ġchauff": 6456,
      "Ġmonetaire": 6457,
      "Ġmy": 6458,
      "Ġbus": 6459,
      "Ġly": 6460,
      "Ġsurete": 6461,
      "forment": 6462,
      "Ġsalarie": 6463,
      "Ġqualifiee": 6464,
      "inateur": 6465,
      "Ð°Ð½": 6466,
      "Ġsimultane": 6467,
      "Ġeuropol": 6468,
      "Ġsembl": 6469,
      "sieur": 6470,
      "Ġtransferts": 6471,
      "Ġposer": 6472,
      "Ġfrancs": 6473,
      "Ġinsta": 6474,
      "Ġgestionnaire": 6475,
      "Ġreconnaitre": 6476,
      "Ġ4064": 6477,
      "Ġrentabilite": 6478,
      "Ġclim": 6479,
      "ĠÐ¿": 6480,
      "Ġdeclaree": 6481,
      "Ġquelles": 6482,
      "enn": 6483,
      "kt": 6484,
      "Ġecart": 6485,
      "Ġcos": 6486,
      "Ġimportateurs": 6487,
      "Ġ193": 6488,
      "Ġdano": 6489,
      "quait": 6490,
      "Ġpare": 6491,
      "Ġepreuves": 6492,
      "Ġquoi": 6493,
      "Ġgarde": 6494,
      "Ġautomobiles": 6495,
      "ala": 6496,
      "Ġnotre": 6497,
      "Ġriz": 6498,
      "Ġmodes": 6499,
      "lich": 6500,
      "Ġmajo": 6501,
      "Ġexistait": 6502,
      "Ġpreli": 6503,
      "Ġresponsabilites": 6504,
      "ribues": 6505,
      "Ġsate": 6506,
      "57": 6507,
      "Ġretenus": 6508,
      "Ġtransfere": 6509,
      "Ġsexe": 6510,
      "Ġprevaloir": 6511,
      "Ġaxe": 6512,
      "Ġferme": 6513,
      "Ġinvoquer": 6514,
      "Ġmarketing": 6515,
      "ĠÎº": 6516,
      "Ġcaout": 6517,
      "Ġ278": 6518,
      "ynam": 6519,
      "Ġpros": 6520,
      "Ġhon": 6521,
      "Ġcomparable": 6522,
      "Ġindividuels": 6523,
      "Ġabatt": 6524,
      "Ġexclut": 6525,
      "entiels": 6526,
      "Ġreport": 6527,
      "Ġdeplo": 6528,
      "Ġspecialement": 6529,
      "Ġlv": 6530,
      "Ġrepose": 6531,
      "Ġraisonnablement": 6532,
      "Ġprep": 6533,
      "occu": 6534,
      "Ġoblige": 6535,
      "Ġdivid": 6536,
      "Ġspecifiquement": 6537,
      "Ġfrequence": 6538,
      "tait": 6539,
      "Ġindice": 6540,
      "Ġelevage": 6541,
      "Ġsant": 6542,
      "Ġrapporte": 6543,
      "Ġmedicaux": 6544,
      "Ġrecipro": 6545,
      "Ġinfe": 6546,
      "Ġsuffisantes": 6547,
      "Ġdiscriminatoire": 6548,
      "Ġhr": 6549,
      "Ġepaisseur": 6550,
      "Ġdecrites": 6551,
      "Ġram": 6552,
      "Ġcorrespondance": 6553,
      "liers": 6554,
      "Ġ171": 6555,
      "ror": 6556,
      "Ġcauses": 6557,
      "Ġ248": 6558,
      "Ġcomptable": 6559,
      "Ġcollege": 6560,
      "Ġchom": 6561,
      "jus": 6562,
      "Ġpurement": 6563,
      "Ġcesse": 6564,
      "Ġconcep": 6565,
      "quere": 6566,
      "Ġnumerique": 6567,
      "Ġsolde": 6568,
      "Ġmoitie": 6569,
      "Ġlour": 6570,
      "Ġpresents": 6571,
      "Ġsensibles": 6572,
      "ora": 6573,
      "Ġves": 6574,
      "Ġnv": 6575,
      "Ġcaoutchou": 6576,
      "Ġhas": 6577,
      "Ġserieux": 6578,
      "Ġrh": 6579,
      "Ġdest": 6580,
      "Ġmartin": 6581,
      "Ġreconnait": 6582,
      "Ġcontingents": 6583,
      "chees": 6584,
      "Ġ210": 6585,
      "Ġye": 6586,
      "Ġsusv": 6587,
      "tshof": 6588,
      "Ġqualifications": 6589,
      "Ġconjoint": 6590,
      "92": 6591,
      "Ġsci": 6592,
      "mant": 6593,
      "Ġapplications": 6594,
      "dorf": 6595,
      "tures": 6596,
      "Ġstation": 6597,
      "Ġmodifies": 6598,
      "Ġmens": 6599,
      "ievre": 6600,
      "Ġremedi": 6601,
      "carb": 6602,
      "Ġlogic": 6603,
      "Ġinforment": 6604,
      "Ġexportateurs": 6605,
      "toire": 6606,
      "Ġjudiciaires": 6607,
      "xion": 6608,
      "Ġprecedemment": 6609,
      "Ġazo": 6610,
      "Ġcreance": 6611,
      "Ġrig": 6612,
      "Ġexceptions": 6613,
      "Ġnoms": 6614,
      "Ġchomage": 6615,
      "Ġincompatibles": 6616,
      "Ġjustifiant": 6617,
      "Ð¼": 6618,
      "Ġpreoccu": 6619,
      "vables": 6620,
      "Ġturquie": 6621,
      "diterr": 6622,
      "Ġsas": 6623,
      "Ġtransmet": 6624,
      "Ġkw": 6625,
      "Ġlitigieuses": 6626,
      "Ġvende": 6627,
      "Ġsatell": 6628,
      "Ġgross": 6629,
      "Ġirregularite": 6630,
      "Ġproduite": 6631,
      "Ġhier": 6632,
      "Ġphen": 6633,
      "Ġdonn": 6634,
      "Ġsw": 6635,
      "Ġlan": 6636,
      "Ġ2022": 6637,
      "Ġdecol": 6638,
      "Ġarreter": 6639,
      "Ġdiffe": 6640,
      "Ġchr": 6641,
      "red": 6642,
      "Ġmur": 6643,
      "Ġexpert": 6644,
      "Ġaffirmation": 6645,
      "Ġbatiments": 6646,
      "Ġparc": 6647,
      "Ġforces": 6648,
      "hte": 6649,
      "Ġfermeture": 6650,
      "Ġpere": 6651,
      "Ġhai": 6652,
      "Ġmondiale": 6653,
      "dul": 6654,
      "Ġcarton": 6655,
      "Î³": 6656,
      "Ġtrain": 6657,
      "Ġconfederation": 6658,
      "diterrane": 6659,
      "Ġsang": 6660,
      "Ġbres": 6661,
      "Ġmodifiees": 6662,
      "Ġinnovation": 6663,
      "Ġ221": 6664,
      "Ġintermediaires": 6665,
      "Ġrelativement": 6666,
      "Ġlibertes": 6667,
      "Ġarbitrage": 6668,
      "Ġcodes": 6669,
      "Ġdispro": 6670,
      "Ġexclusif": 6671,
      "leurs": 6672,
      "Ġsystematique": 6673,
      "Ġprepare": 6674,
      "Ġecarter": 6675,
      "bi": 6676,
      "Ġnorveg": 6677,
      "Ġ258": 6678,
      "Ġdissua": 6679,
      "Ġsodium": 6680,
      "ametre": 6681,
      "Ġdispropor": 6682,
      "Ġallegations": 6683,
      "Ġtto": 6684,
      "Ġcroatie": 6685,
      "Ġoctroyer": 6686,
      "Ġadoptent": 6687,
      "Ġetudi": 6688,
      "Ġinn": 6689,
      "Ġcontraires": 6690,
      "rir": 6691,
      "Ġinterdire": 6692,
      "Ġvoire": 6693,
      "maines": 6694,
      "Ġaugment": 6695,
      "Ġderoulement": 6696,
      "Ġregrou": 6697,
      "Ġpau": 6698,
      "Ġviabilite": 6699,
      "Ġindemnites": 6700,
      "Ġnombreux": 6701,
      "Ġtol": 6702,
      "Ġlieux": 6703,
      "Ġfausser": 6704,
      "Ġprecites": 6705,
      "ruction": 6706,
      "Ġservir": 6707,
      "uaires": 6708,
      "Ġentrer": 6709,
      "Ġhypothe": 6710,
      "ĠpoÅĤ": 6711,
      "Ġperce": 6712,
      "Ġmentions": 6713,
      "Ġfiles": 6714,
      "Ġdeterminees": 6715,
      "era": 6716,
      "Ġexercant": 6717,
      "orique": 6718,
      "Ġ205": 6719,
      "Ġcompany": 6720,
      "Ġ298": 6721,
      "Ġnucleaire": 6722,
      "Ġperfor": 6723,
      "Ġechappement": 6724,
      "Ġconsentement": 6725,
      "Ġclassees": 6726,
      "Ġlimitations": 6727,
      "Ġsin": 6728,
      "Ġabsor": 6729,
      "Ġaccident": 6730,
      "tish": 6731,
      "Ġanimal": 6732,
      "Ġmerites": 6733,
      "Ġactives": 6734,
      "cas": 6735,
      "Ġrs": 6736,
      "Ġ179": 6737,
      "Ġexecutif": 6738,
      "ingen": 6739,
      "Ġcorrespondent": 6740,
      "Ġaccepter": 6741,
      "lb": 6742,
      "Ġblanch": 6743,
      "Ġimmatriculation": 6744,
      "79": 6745,
      "Ġrepondant": 6746,
      "Ġcouvertes": 6747,
      "Ġtransitoires": 6748,
      "Ġlicenciement": 6749,
      "Ġrespectees": 6750,
      "opharm": 6751,
      "Ġmonsieur": 6752,
      "Ġlitiges": 6753,
      "Ġcontester": 6754,
      "Ġsom": 6755,
      "Ġanalogues": 6756,
      "Ġmouvements": 6757,
      "Ġremettre": 6758,
      "Ġacheteur": 6759,
      "chent": 6760,
      "Ġclassif": 6761,
      "Ġqualifie": 6762,
      "Ġsupre": 6763,
      "Ġconducteur": 6764,
      "tim": 6765,
      "Ġplomb": 6766,
      "Ð¾Ð²": 6767,
      "licit": 6768,
      "Ġinsol": 6769,
      "Ġapprou": 6770,
      "ars": 6771,
      "Ġamendements": 6772,
      "Ġcoc": 6773,
      "Ġeventuels": 6774,
      "Ġopposant": 6775,
      "Ġtransition": 6776,
      "Ġinvestisseurs": 6777,
      "Ġfrontiere": 6778,
      "Ġparvenir": 6779,
      "Ġrural": 6780,
      "Ġprud": 6781,
      "Ġfranchise": 6782,
      "Ġdistributeurs": 6783,
      "Ġevenements": 6784,
      "Ġassuree": 6785,
      "Ġdues": 6786,
      "Ġtardi": 6787,
      "Ġconfidenti": 6788,
      "Ġrestent": 6789,
      "Ġartis": 6790,
      "Ġhabil": 6791,
      "Ġchaud": 6792,
      "Ġislande": 6793,
      "Ġ213": 6794,
      "Ġafrique": 6795,
      "Ġsouhaite": 6796,
      "Ġrestreindre": 6797,
      "Ġtrente": 6798,
      "icil": 6799,
      "Ġremor": 6800,
      "Ġalli": 6801,
      "Ġ225": 6802,
      "Ġdetaillee": 6803,
      "Ġfraude": 6804,
      "laf": 6805,
      "Ġincon": 6806,
      "ĠÅĵu": 6807,
      "ow": 6808,
      "Ġdecrite": 6809,
      "Ġapurement": 6810,
      "istra": 6811,
      "Ġenfre": 6812,
      "Ġadmet": 6813,
      "Ġ302": 6814,
      "Ġprivile": 6815,
      "Ġsignal": 6816,
      "Ġparf": 6817,
      "Ġrepondent": 6818,
      "Ġcommuniquent": 6819,
      "Ġ163": 6820,
      "Ġdiminution": 6821,
      "Ġpasser": 6822,
      "Ġ270": 6823,
      "Ġ153": 6824,
      "Ġbases": 6825,
      "Ġremedier": 6826,
      "Ġlocale": 6827,
      "Ġconstatant": 6828,
      "poration": 6829,
      "Ġartificielles": 6830,
      "Ġsoup": 6831,
      "Ġoccup": 6832,
      "2000": 6833,
      "ssant": 6834,
      "81": 6835,
      "Ġdisciplinaire": 6836,
      "iante": 6837,
      "Ġros": 6838,
      "Ġdisposait": 6839,
      "Ġdesquelles": 6840,
      "Ġaust": 6841,
      "Ġmediterrane": 6842,
      "Ġmarquage": 6843,
      "Ġcassation": 6844,
      "Ġ3200": 6845,
      "Ġexclusive": 6846,
      "haus": 6847,
      "lij": 6848,
      "ical": 6849,
      "Ġallu": 6850,
      "Ġinspections": 6851,
      "Ġ249": 6852,
      "Ġole": 6853,
      "Ġcart": 6854,
      "Ġbass": 6855,
      "osph": 6856,
      "Ġ182": 6857,
      "Ġprepares": 6858,
      "Ġrevetant": 6859,
      "Ġprouver": 6860,
      "Ġstructurels": 6861,
      "Ġfigurative": 6862,
      "Ġ659": 6863,
      "Ġamenagement": 6864,
      "Ġhydrog": 6865,
      "Ġofficiellement": 6866,
      "Ġrevele": 6867,
      "Ġprecedente": 6868,
      "pees": 6869,
      "Ġfri": 6870,
      "Ġsurven": 6871,
      "Ġ410": 6872,
      "Ġavi": 6873,
      "Ġfiche": 6874,
      "Ġcombustibles": 6875,
      "Ġgminy": 6876,
      "Ġloy": 6877,
      "Ġexterieures": 6878,
      "Ġclin": 6879,
      "nt": 6880,
      "Ġtaxation": 6881,
      "Ġradiodiffusion": 6882,
      "weg": 6883,
      "Ġamor": 6884,
      "Ġmalte": 6885,
      "Ġlegalement": 6886,
      "Ġchangements": 6887,
      "Ġfaci": 6888,
      "Ġtonne": 6889,
      "Ġposteri": 6890,
      "ocations": 6891,
      "Ġintroduites": 6892,
      "Ġreglemente": 6893,
      "Ġmotivee": 6894,
      "Ġcommand": 6895,
      "vages": 6896,
      "gosla": 6897,
      "Ġindependante": 6898,
      "Ġdetient": 6899,
      "Ġecheance": 6900,
      "Ġmonde": 6901,
      "Ġbrevet": 6902,
      "Ġtirer": 6903,
      "ÐµÐ½": 6904,
      "Ġdol": 6905,
      "ele": 6906,
      "Ġsg": 6907,
      "Ġtraitees": 6908,
      "Ġarrivee": 6909,
      "Ġaerienne": 6910,
      "Ġsuedoise": 6911,
      "Ġ202": 6912,
      "Ġobservation": 6913,
      "waltungs": 6914,
      "Ġconseils": 6915,
      "Ġadresser": 6916,
      "issage": 6917,
      "Ġposteriori": 6918,
      "onciation": 6919,
      "Ġtetra": 6920,
      "Ġcommentaires": 6921,
      "oirs": 6922,
      "arquement": 6923,
      "Ġallemandes": 6924,
      "Ġcult": 6925,
      "Ġcommu": 6926,
      "Ġ611": 6927,
      "ĠÎ¼": 6928,
      "Ġdimensions": 6929,
      "Ġstrateg": 6930,
      "Ġdeclarees": 6931,
      "Ġappels": 6932,
      "Ġinteroperabilite": 6933,
      "Ġatomique": 6934,
      "Ġplastique": 6935,
      "Ġattente": 6936,
      "viendrait": 6937,
      "Ġtelecop": 6938,
      "Ġ203": 6939,
      "Ġvarietes": 6940,
      "Ġvirus": 6941,
      "Ġcherche": 6942,
      "Ġstip": 6943,
      "Ġcalculer": 6944,
      "Ġ174": 6945,
      "Ġadjudicateur": 6946,
      "Ð³": 6947,
      "Ġcur": 6948,
      "ali": 6949,
      "Ġdossiers": 6950,
      "Ġcaisse": 6951,
      "Ġif": 6952,
      "Ġsalaire": 6953,
      "Ġallemands": 6954,
      "86": 6955,
      "Ġtransmises": 6956,
      "dr": 6957,
      "Ġobligatoires": 6958,
      "Ġ875": 6959,
      "Ġpourront": 6960,
      "Ġstatistique": 6961,
      "Ġgamme": 6962,
      "Ġdelivree": 6963,
      "Ġpme": 6964,
      "Ġcapr": 6965,
      "Ġtiree": 6966,
      "Ġcaus": 6967,
      "Ġanticonc": 6968,
      "Ġcollaboration": 6969,
      "agen": 6970,
      "ette": 6971,
      "osan": 6972,
      "Ġfeuilles": 6973,
      "Ġanticoncurr": 6974,
      "Ġic": 6975,
      "Ġwin": 6976,
      "cose": 6977,
      "Ġdonnant": 6978,
      "Ġtraiter": 6979,
      "Ġ224": 6980,
      "ĵâĸĵâĸĵâĸĵâĸ": 6981,
      "Ġacquere": 6982,
      "Ġreunies": 6983,
      "aleur": 6984,
      "Ġjuridictionnel": 6985,
      "Ġyougosla": 6986,
      "Ġlex": 6987,
      "Ġposs": 6988,
      "Ġcorps": 6989,
      "Ġvil": 6990,
      "Ġgru": 6991,
      "Ġ233": 6992,
      "Ġ375": 6993,
      "Ġfievre": 6994,
      "Ġreque": 6995,
      "coup": 6996,
      "Ġ164": 6997,
      "Ġds": 6998,
      "enstein": 6999,
      "Ġetal": 7000,
      "Ġpetits": 7001,
      "heses": 7002,
      "Ġacteurs": 7003,
      "urants": 7004,
      "Ġreac": 7005,
      "terdam": 7006,
      "Ġneut": 7007,
      "Ġeventuel": 7008,
      "Ġcoordonne": 7009,
      "Ġlargement": 7010,
      "Ġadoptant": 7011,
      "stant": 7012,
      "Ġprovisoires": 7013,
      "Ġdettes": 7014,
      "Ġbananes": 7015,
      "Ġconserves": 7016,
      "Ġjuridictionnelle": 7017,
      "Ġacceleration": 7018,
      "Ġdup": 7019,
      "Ġcompensatoires": 7020,
      "Ġdynam": 7021,
      "Ġphytopharm": 7022,
      "Ġindispensable": 7023,
      "Ġ212": 7024,
      "Ġformulees": 7025,
      "Ġnova": 7026,
      "Ġproprietes": 7027,
      "Ġlandes": 7028,
      "Ġbudgetaires": 7029,
      "Ġespr": 7030,
      "Ġcombinee": 7031,
      "Ġdates": 7032,
      "Ġtransfront": 7033,
      "Ġabattage": 7034,
      "Ġprovince": 7035,
      "atea": 7036,
      "Ġdecollage": 7037,
      "Ġtransfrontal": 7038,
      "Ġopere": 7039,
      "Ġapprec": 7040,
      "Ġconstatee": 7041,
      "Ġestimation": 7042,
      "endra": 7043,
      "Ġvou": 7044,
      "Ġexercee": 7045,
      "Ġinapp": 7046,
      "dication": 7047,
      "Ġsituees": 7048,
      "Ġdeacision": 7049,
      "Ġchanti": 7050,
      "Ġ172": 7051,
      "atrices": 7052,
      "Ġeurop": 7053,
      "72": 7054,
      "Ġecologique": 7055,
      "Ġgrasses": 7056,
      "Ġ1605": 7057,
      "son": 7058,
      "Ġlegislatif": 7059,
      "Ġdividendes": 7060,
      "Ġremplacer": 7061,
      "Ġvois": 7062,
      "Ġrestitutions": 7063,
      "Ġterror": 7064,
      "Ġappreciations": 7065,
      "Ġrecourir": 7066,
      "Ġinterim": 7067,
      "Ġprevis": 7068,
      "Ġcomptabilite": 7069,
      "Ġfal": 7070,
      "Ġ181": 7071,
      "Ġnuis": 7072,
      "change": 7073,
      "Ġ154": 7074,
      "Ġadoptes": 7075,
      "Ġestiment": 7076,
      "atisation": 7077,
      "Ġdata": 7078,
      "Ġvisite": 7079,
      "Ġconsacre": 7080,
      "Ġresume": 7081,
      "Ġtechnologique": 7082,
      "Ġadministratifs": 7083,
      "ĠÏĢ": 7084,
      "Ġcoherence": 7085,
      "303": 7086,
      "Ġequipes": 7087,
      "Ġsignale": 7088,
      "Ġaeriennes": 7089,
      "Ġenvisagees": 7090,
      "Ġremunerations": 7091,
      "Ġfondes": 7092,
      "Ġvacance": 7093,
      "Ġtom": 7094,
      "Ġretenir": 7095,
      "Ġexterne": 7096,
      "zn": 7097,
      "Ġcomun": 7098,
      "Ġ235": 7099,
      "moine": 7100,
      "Ġdeficit": 7101,
      "Ġpresse": 7102,
      "ogene": 7103,
      "Ġsuppose": 7104,
      "Ġindices": 7105,
      "Ġgeographiques": 7106,
      "Ġajustement": 7107,
      "Ġ206": 7108,
      "Ġ194": 7109,
      "Ġdeutsche": 7110,
      "isser": 7111,
      "Ġintegrite": 7112,
      "Ġraa": 7113,
      "ial": 7114,
      "Ġlecture": 7115,
      "Ġsemaines": 7116,
      "Ġdeterminant": 7117,
      "Ġtraitements": 7118,
      "Ġbeaucoup": 7119,
      "Ġesprit": 7120,
      "Ġarbitra": 7121,
      "Ġrespectives": 7122,
      "Ġprestataires": 7123,
      "Ġomc": 7124,
      "Ġconcern": 7125,
      "ley": 7126,
      "obstant": 7127,
      "Ġtemporaires": 7128,
      "Ġacquise": 7129,
      "Ġ355": 7130,
      "Ġanterieurement": 7131,
      "Ġlots": 7132,
      "uelles": 7133,
      "Ġimage": 7134,
      "Ġquit": 7135,
      "aste": 7136,
      "Ġgere": 7137,
      "Ġactual": 7138,
      "Ġsensiblement": 7139,
      "Ġcomprennent": 7140,
      "br": 7141,
      "94": 7142,
      "dia": 7143,
      "Ġinitiatives": 7144,
      "Ġbritish": 7145,
      "cn": 7146,
      "Ġinflige": 7147,
      "Ġindustriel": 7148,
      "Ġexterieure": 7149,
      "Ġcase": 7150,
      "nage": 7151,
      "Ġexecuter": 7152,
      "Ġequivalente": 7153,
      "Ġsnc": 7154,
      "Ġwil": 7155,
      "Ġhet": 7156,
      "Ġmargin": 7157,
      "Ġeradication": 7158,
      "glom": 7159,
      "Ġrevet": 7160,
      "iert": 7161,
      "agnos": 7162,
      "Ġexceptionnelles": 7163,
      "Ġaviation": 7164,
      "Ġverses": 7165,
      "oig": 7166,
      "Ġgrecque": 7167,
      "eneg": 7168,
      "Ġfaill": 7169,
      "sis": 7170,
      "Ġcomportements": 7171,
      "dh": 7172,
      "Ġperforman": 7173,
      "financement": 7174,
      "Ġnonobstant": 7175,
      "ells": 7176,
      "Ġreduite": 7177,
      "Ġfaisait": 7178,
      "Ġexpertise": 7179,
      "Ġbail": 7180,
      "Ġ296": 7181,
      "illant": 7182,
      "Ġadjoint": 7183,
      "Ġbatiment": 7184,
      "Ġacquer": 7185,
      "Ġjeunes": 7186,
      "Ġ247": 7187,
      "oux": 7188,
      "lia": 7189,
      "bour": 7190,
      "Ġfinancer": 7191,
      "llo": 7192,
      "Ġinje": 7193,
      "Ġententes": 7194,
      "Ġexempl": 7195,
      "Ġmodern": 7196,
      "020": 7197,
      "Ġams": 7198,
      "Ġtenues": 7199,
      "Ġencourager": 7200,
      "Ġmaroc": 7201,
      "Ġtransformes": 7202,
      "Ġ261": 7203,
      "Ġdegra": 7204,
      "Ġadministrations": 7205,
      "Ġ192": 7206,
      "Ġmeilleure": 7207,
      "eno": 7208,
      "Ġcul": 7209,
      "etz": 7210,
      "Ġpossession": 7211,
      "Ġ183": 7212,
      "Ġ820": 7213,
      "Ġdistric": 7214,
      "Ġact": 7215,
      "Ġirland": 7216,
      "Ġfournitures": 7217,
      "Ġpotentiels": 7218,
      "Ġcomites": 7219,
      "Ġdetaillees": 7220,
      "Ġquantitative": 7221,
      "Ġtoxic": 7222,
      "Ġconcus": 7223,
      "Ġtal": 7224,
      "Ġetape": 7225,
      "Ġservant": 7226,
      "Ġcontradic": 7227,
      "Ġgib": 7228,
      "Ġsel": 7229,
      "Ġnie": 7230,
      "Ġrecue": 7231,
      "Ġtranche": 7232,
      "Ġkn": 7233,
      "Ġgenre": 7234,
      "91": 7235,
      "bile": 7236,
      "gend": 7237,
      "Ġsusmentionnee": 7238,
      "deurs": 7239,
      "Ġdeduire": 7240,
      "Ġlegales": 7241,
      "Ġprocedur": 7242,
      "Ġfaibles": 7243,
      "Ġspor": 7244,
      "Ġolaf": 7245,
      "Ġallocations": 7246,
      "Ġplacement": 7247,
      "Ġdetection": 7248,
      "Ġdisproportionne": 7249,
      "Ġparticipations": 7250,
      "ormais": 7251,
      "Ġcad": 7252,
      "Ġquantitatives": 7253,
      "positif": 7254,
      "Ġaccordes": 7255,
      "Ġpossede": 7256,
      "Ġindeter": 7257,
      "ork": 7258,
      "Ġ162": 7259,
      "Ġglu": 7260,
      "Ġamene": 7261,
      "dispositif": 7262,
      "Ġconfidentialite": 7263,
      "Ġrejetant": 7264,
      "Ġattribuer": 7265,
      "Ġoffrir": 7266,
      "Ġlumine": 7267,
      "ĠÐ½": 7268,
      "Ġcommiss": 7269,
      "Ġmethyl": 7270,
      "Ġseparement": 7271,
      "Ġvoitures": 7272,
      "Ġrati": 7273,
      "Ġmeconnaissance": 7274,
      "Ġcommuniques": 7275,
      "Ġextraction": 7276,
      "Ġnullement": 7277,
      "Ġdesormais": 7278,
      "Ġincer": 7279,
      "Ġparent": 7280,
      "Ġclair": 7281,
      "Ġ3198": 7282,
      "Ġdus": 7283,
      "vid": 7284,
      "Ġ232": 7285,
      "olue": 7286,
      "Ġaeronefs": 7287,
      "dies": 7288,
      "Ġast": 7289,
      "Ġcontenue": 7290,
      "Ġgel": 7291,
      "Ġelectro": 7292,
      "Ġecarte": 7293,
      "Ġconcurrent": 7294,
      "Ġliquides": 7295,
      "Ġcompromet": 7296,
      "verse": 7297,
      "Ġ#": 7298,
      "Ġnotifiees": 7299,
      "Ġdetention": 7300,
      "itions": 7301,
      "Ġmajeure": 7302,
      "Ġportugais": 7303,
      "Ġetrangere": 7304,
      "87": 7305,
      "Ġbayer": 7306,
      "Ġrepresentent": 7307,
      "Ġperformances": 7308,
      "Ġstu": 7309,
      "Ġavere": 7310,
      "Ġtuy": 7311,
      "Ġaider": 7312,
      "Ġrepublic": 7313,
      "Ġluc": 7314,
      "Ġcouvrant": 7315,
      "Ġequivalentes": 7316,
      "Ġsemi": 7317,
      "Ġcoope": 7318,
      "Ġvolailles": 7319,
      "Ġbandes": 7320,
      "Ġ305": 7321,
      "Ġtete": 7322,
      "motifs": 7323,
      "Ġmoindre": 7324,
      "Ġprevisions": 7325,
      "Ġphil": 7326,
      "Ġdiscre": 7327,
      "Ġaccise": 7328,
      "Ġuse": 7329,
      "Ġhierarch": 7330,
      "Ġdge": 7331,
      "Ġwh": 7332,
      "Ġelargie": 7333,
      "Ġtrouvant": 7334,
      "Ġpot": 7335,
      "Ġurba": 7336,
      "decisions": 7337,
      "Ġentendre": 7338,
      "Ġluxembourge": 7339,
      "Ġpresume": 7340,
      "Ġillicite": 7341,
      "Ġ271": 7342,
      "Ġprecisant": 7343,
      "Ġcui": 7344,
      "Ġdepots": 7345,
      "Ġdelivres": 7346,
      "Ġexplicitement": 7347,
      "Ġeffectifs": 7348,
      "Ġ260": 7349,
      "Ġstate": 7350,
      "Ġrestant": 7351,
      "Ġconserver": 7352,
      "Ġproposes": 7353,
      "Ġprepa": 7354,
      "licher": 7355,
      "Ġantici": 7356,
      "Ġappellation": 7357,
      "Ġsupprimer": 7358,
      "cules": 7359,
      "Ġoil": 7360,
      "Ġordon": 7361,
      "Ġvetements": 7362,
      "ink": 7363,
      "Ġ255": 7364,
      "yage": 7365,
      "Ġdefendeur": 7366,
      "Ġsituee": 7367,
      "cion": 7368,
      "Ġdepensesdispositif": 7369,
      "Ġarretdecisions": 7370,
      "Ġcomportent": 7371,
      "Ġexistante": 7372,
      "Ġprouve": 7373,
      "ompte": 7374,
      "Ġsuperieurs": 7375,
      "Ġachats": 7376,
      "Ġrecyc": 7377,
      "Ġcritique": 7378,
      "Ġtextile": 7379,
      "Ġcaoutchouc": 7380,
      "Ġcomporter": 7381,
      "Î¹Î½": 7382,
      "Ġ219": 7383,
      "Ġordonner": 7384,
      "ape": 7385,
      "Ġimpossibilite": 7386,
      "Ġfacil": 7387,
      "Ġinterieures": 7388,
      "Ġmener": 7389,
      "Ġpollu": 7390,
      "Ġaciers": 7391,
      "Ġadditionnel": 7392,
      "Ġpren": 7393,
      "iables": 7394,
      "Ġprivees": 7395,
      "urance": 7396,
      "pf": 7397,
      "áĥł": 7398,
      "Ġ223": 7399,
      "Ġpublications": 7400,
      "Ġreplique": 7401,
      "Ġinsolvabilite": 7402,
      "nees": 7403,
      "Ġarrangements": 7404,
      "ellschaft": 7405,
      "illets": 7406,
      "Ġ186": 7407,
      "Ġptom": 7408,
      "Ġcorro": 7409,
      "Ġfondant": 7410,
      "Ġconnexes": 7411,
      "Ġemanant": 7412,
      "Ġproche": 7413,
      "Ġdeclarant": 7414,
      "Ġdefinitivement": 7415,
      "Ġfournissent": 7416,
      "Ġ335": 7417,
      "ruption": 7418,
      "Ġcartes": 7419,
      "lent": 7420,
      "Ġvul": 7421,
      "tifie": 7422,
      "Ġrembourser": 7423,
      "avant": 7424,
      "Ġexplications": 7425,
      "Ġdepos": 7426,
      "Ġchargement": 7427,
      "ische": 7428,
      "ix": 7429,
      "Ġ301": 7430,
      "Ġscen": 7431,
      "Ġverifie": 7432,
      "Ġchauss": 7433,
      "Ġsuperficie": 7434,
      "Ġregionaux": 7435,
      "Ġarch": 7436,
      "Ġcorri": 7437,
      "Ġmaintenance": 7438,
      "Ġpatrimoine": 7439,
      "Ġsensible": 7440,
      "fel": 7441,
      "Ġproposees": 7442,
      "Ġcaution": 7443,
      "ider": 7444,
      "arb": 7445,
      "Ġprze": 7446,
      "Ġchaleur": 7447,
      "av": 7448,
      "Ġdomicil": 7449,
      "Ġprolongation": 7450,
      "Ġboute": 7451,
      "Ġrome": 7452,
      "ourner": 7453,
      "arante": 7454,
      "Ġ330": 7455,
      "Ġhumaines": 7456,
      "Ð·": 7457,
      "mburg": 7458,
      "Ġdiagnos": 7459,
      "Ġchauffage": 7460,
      "lie": 7461,
      "Ġlimited": 7462,
      "Ġreservoir": 7463,
      "Ġpeennes": 7464,
      "Ġcomplexe": 7465,
      "Ġparticules": 7466,
      "Ġretirer": 7467,
      "ham": 7468,
      "Ġdella": 7469,
      "Ġtension": 7470,
      "Ġoperant": 7471,
      "Ġremplaces": 7472,
      "Ġterritoriale": 7473,
      "Ġvoyageurs": 7474,
      "isson": 7475,
      "Ġcreanciers": 7476,
      "Ġreaction": 7477,
      "uent": 7478,
      "Ġpure": 7479,
      "Ġgemeinde": 7480,
      "lik": 7481,
      "Ġcolor": 7482,
      "Ġ236": 7483,
      "Ġresiliation": 7484,
      "tm": 7485,
      "Ġalig": 7486,
      "Ġdemocratique": 7487,
      "Ġrespectifs": 7488,
      "Ġmeconnu": 7489,
      "Ġengra": 7490,
      "Ġcultures": 7491,
      "Ġcompetents": 7492,
      "Ġfir": 7493,
      "Ġintegralement": 7494,
      "voc": 7495,
      "Ġexploite": 7496,
      "dere": 7497,
      "Ġnombreuses": 7498,
      "Ġpates": 7499,
      "Ġmillion": 7500,
      "Ġdero": 7501,
      "Ġtrimestre": 7502,
      "Ġnumeros": 7503,
      "Ġprecedant": 7504,
      "Ġpneum": 7505,
      "Ġquels": 7506,
      "Ġpresidents": 7507,
      "Ġessentielle": 7508,
      "Ġsuspendre": 7509,
      "Ġfaillite": 7510,
      "Ġinvestie": 7511,
      "enza": 7512,
      "Ġ350": 7513,
      "Ġcontacts": 7514,
      "Ġatti": 7515,
      "Ġinterro": 7516,
      "Ġaggra": 7517,
      "Ġeclai": 7518,
      "Ġ288": 7519,
      "Ġ287": 7520,
      "Ġconstituerait": 7521,
      "Ġcorrecte": 7522,
      "Ġpreoccup": 7523,
      "tout": 7524,
      "Ġ630": 7525,
      "Ġregularite": 7526,
      "low": 7527,
      "Ġjuger": 7528,
      "Ġremplissent": 7529,
      "Ġoption": 7530,
      "Ġdilig": 7531,
      "lux": 7532,
      "fonds": 7533,
      "Ġaccroitre": 7534,
      "Ġ303": 7535,
      "Ġfun": 7536,
      "Ġone": 7537,
      "Ġlond": 7538,
      "Ġevoque": 7539,
      "Ġexercees": 7540,
      "Ġinher": 7541,
      "Ġassurant": 7542,
      "zen": 7543,
      "Ġassemb": 7544,
      "Ġdevront": 7545,
      "Ġextraits": 7546,
      "Ġrencont": 7547,
      "olo": 7548,
      "Ġconcessions": 7549,
      "ctiv": 7550,
      "Ġazote": 7551,
      "Ġdialogue": 7552,
      "Ġcommandes": 7553,
      "Ġassiette": 7554,
      "Ġbasee": 7555,
      "Ġpermettrait": 7556,
      "Ġnegoci": 7557,
      "faces": 7558,
      "Ġexercent": 7559,
      "Ġdeduit": 7560,
      "Ġmort": 7561,
      "Ġredige": 7562,
      "Ġ280": 7563,
      "Ġcadres": 7564,
      "Ġ214": 7565,
      "Ġate": 7566,
      "pc": 7567,
      "Ġchemin": 7568,
      "Ġresidents": 7569,
      "Ġrodri": 7570,
      "Ġcliente": 7571,
      "js": 7572,
      "Ġconvenu": 7573,
      "Ġdetente": 7574,
      "Ġeb": 7575,
      "Ġevidence": 7576,
      "organ": 7577,
      "ichtshof": 7578,
      "Ġcontraignant": 7579,
      "Ġrecuperer": 7580,
      "Ġessie": 7581,
      "Ġpay": 7582,
      "Ġeclairage": 7583,
      "Ġouvrais": 7584,
      "Ġguer": 7585,
      "Ġindiquent": 7586,
      "Ġequivalence": 7587,
      "Ġconcord": 7588,
      "wi": 7589,
      "Ġconviennent": 7590,
      "Ġaudio": 7591,
      "Ġ281": 7592,
      "Ġmajor": 7593,
      "Ġcoree": 7594,
      "Ġhongro": 7595,
      "Ġ318": 7596,
      "Ġ299": 7597,
      "Ġbac": 7598,
      "Ġpenales": 7599,
      "Ġcompenser": 7600,
      "Ġ259": 7601,
      "Ġentrain": 7602,
      "Ġfactures": 7603,
      "Ġbrus": 7604,
      "Ġauthen": 7605,
      "Ġ216": 7606,
      "Ġdepassement": 7607,
      "Ġdirects": 7608,
      "Ġexprimee": 7609,
      "Ġfrontal": 7610,
      "terre": 7611,
      "itres": 7612,
      "Ġrecep": 7613,
      "Ġbancaires": 7614,
      "cal": 7615,
      "Ġ275": 7616,
      "nis": 7617,
      "ssent": 7618,
      "voquer": 7619,
      "Ġvols": 7620,
      "Ġpont": 7621,
      "Ġobtenue": 7622,
      "Ġbateaux": 7623,
      "apacite": 7624,
      "Ġmaintenant": 7625,
      "Ġdiscipline": 7626,
      "Ġexercices": 7627,
      "cut": 7628,
      "contin": 7629,
      "Ġchamb": 7630,
      "Ġenvironnementale": 7631,
      "tale": 7632,
      "Ġmunicipal": 7633,
      "Ġproposee": 7634,
      "Ġproduites": 7635,
      "auche": 7636,
      "Ġhydrocarb": 7637,
      "assi": 7638,
      "Ġexploitants": 7639,
      "Ġpanne": 7640,
      "Ġcell": 7641,
      "Ġsignatures": 7642,
      "Ġtableaux": 7643,
      "Ġpositive": 7644,
      "Ġchargees": 7645,
      "fre": 7646,
      "Ġvole": 7647,
      "Ġracc": 7648,
      "Ġliaisons": 7649,
      "Ġ257": 7650,
      "Ġproxim": 7651,
      "istique": 7652,
      "Ġsimplif": 7653,
      "Ġsolicit": 7654,
      "Ġratta": 7655,
      "Ġneutral": 7656,
      "Ġhausse": 7657,
      "Ġopin": 7658,
      "Ġefficaces": 7659,
      "Ġindirecte": 7660,
      "Ġ357": 7661,
      "Ġgenetique": 7662,
      "Ġanciennete": 7663,
      "Ġisland": 7664,
      "Ġinsuffisance": 7665,
      "Ġprevoyait": 7666,
      "Ġreconnus": 7667,
      "Ġaccompagnee": 7668,
      "Ġhabilitee": 7669,
      "Ġconcertation": 7670,
      "ains": 7671,
      "ania": 7672,
      "Ġinjus": 7673,
      "Ġrapportant": 7674,
      "Ġeffort": 7675,
      "Ã°": 7676,
      "Ġunder": 7677,
      "Ġacceder": 7678,
      "ticle": 7679,
      "Ġnette": 7680,
      "Ġlabel": 7681,
      "Ġ321": 7682,
      "Ġdessin": 7683,
      "Ġbonneterie": 7684,
      "prop": 7685,
      "Ġdiscretion": 7686,
      "Ġrecipi": 7687,
      "Ġinsere": 7688,
      "pee": 7689,
      "Ġfactue": 7690,
      "Ġpetite": 7691,
      "ning": 7692,
      "lio": 7693,
      "parties": 7694,
      "Ġargent": 7695,
      "Ġ240": 7696,
      "Ġ245": 7697,
      "Ġcompleter": 7698,
      "Ġsurtout": 7699,
      "Ġhabitats": 7700,
      "det": 7701,
      "Ġdiplome": 7702,
      "Ġengagees": 7703,
      "Ġpetit": 7704,
      "Ġvalorisation": 7705,
      "Ġliecht": 7706,
      "Ġrefusant": 7707,
      "Ġnoter": 7708,
      "Ġinformee": 7709,
      "Ġsubordonnee": 7710,
      "Ġcombustible": 7711,
      "Ġolive": 7712,
      "Ġindex": 7713,
      "Ġ222": 7714,
      "Ġ279": 7715,
      "bert": 7716,
      "Ġciter": 7717,
      "Ġcomptables": 7718,
      "Ġconsid": 7719,
      "Ġ262": 7720,
      "Ġasile": 7721,
      "Ġquinze": 7722,
      "Ġremplie": 7723,
      "Ġprospe": 7724,
      "Ġminutes": 7725,
      "Ġexporte": 7726,
      "Ġconfirmee": 7727,
      "Ġcuir": 7728,
      "Ġarom": 7729,
      "Ġ308": 7730,
      "esses": 7731,
      "Ġdescrip": 7732,
      "Ġrecol": 7733,
      "Ġpreliminaire": 7734,
      "Ġouest": 7735,
      "Ġapprecie": 7736,
      "Ġcuivre": 7737,
      "Ġcah": 7738,
      "Ġagglom": 7739,
      "Ġsymb": 7740,
      "Ġprecitees": 7741,
      "Ġprocedes": 7742,
      "Ġlogement": 7743,
      "Ġhande": 7744,
      "Ġsommaireparties": 7745,
      "Ġsam": 7746,
      "Ġpossibles": 7747,
      "Ġinu": 7748,
      "Ġarron": 7749,
      "Ġmutuellement": 7750,
      "Ġliechtenstein": 7751,
      "Ġ427": 7752,
      "Ġhorizontaux": 7753,
      "Ġamont": 7754,
      "Ġdangereux": 7755,
      "sent": 7756,
      "Ġlamines": 7757,
      "Ġ229": 7758,
      "Ġetendre": 7759,
      "Ġplaces": 7760,
      "Ġbritannique": 7761,
      "Ġsimples": 7762,
      "Ġacquerir": 7763,
      "Ġinformatique": 7764,
      "Ġvendus": 7765,
      "Ġrepu": 7766,
      "Ġjugee": 7767,
      "Ġechantillonnage": 7768,
      "Ġaphte": 7769,
      "Ġchefs": 7770,
      "Ġaop": 7771,
      "Ġindeterminee": 7772,
      "Ġatm": 7773,
      "Ġsignification": 7774,
      "Ġsz": 7775,
      "Ġdetermines": 7776,
      "Ġbloc": 7777,
      "Ġdiscussions": 7778,
      "Ġdebiteur": 7779,
      "Ġmonopo": 7780,
      "ben": 7781,
      "Ġbande": 7782,
      "Ġrendus": 7783,
      "Ġaz": 7784,
      "Ġnegocie": 7785,
      "Ġextreme": 7786,
      "Ġdiscontin": 7787,
      "aria": 7788,
      "Ġaband": 7789,
      "noise": 7790,
      "ath": 7791,
      "Ġinterval": 7792,
      "jonction": 7793,
      "Ġib": 7794,
      "ÑĢÐ°": 7795,
      "Ġdepassant": 7796,
      "Ġsatisfont": 7797,
      "Ġformat": 7798,
      "Ġcotes": 7799,
      "Ġcollectiv": 7800,
      "Ġkl": 7801,
      "Ġsegment": 7802,
      "Ġrab": 7803,
      "Ġecreme": 7804,
      "Ġethyl": 7805,
      "Ġreda": 7806,
      "Ġ340": 7807,
      "Ġconsecu": 7808,
      "Ġdistorsions": 7809,
      "hau": 7810,
      "Ġportes": 7811,
      "Ġsigner": 7812,
      "Ġpai": 7813,
      "Ġmmes": 7814,
      "Ġfondation": 7815,
      "Ġ227": 7816,
      "Ġbet": 7817,
      "Ġuniversel": 7818,
      "cif": 7819,
      "ym": 7820,
      "Ġreconnues": 7821,
      "Ġale": 7822,
      "Ġintegree": 7823,
      "Ġcaptures": 7824,
      "Ġreconnue": 7825,
      "Ġinterconne": 7826,
      "Ġhydrocarbures": 7827,
      "Ġsecrets": 7828,
      "Ġster": 7829,
      "Ġclassique": 7830,
      "Ġperspective": 7831,
      "Ġemplacement": 7832,
      "Ġcollectivites": 7833,
      "Ġuti": 7834,
      "Ġceci": 7835,
      "Ġcen": 7836,
      "amine": 7837,
      "Ġphytosan": 7838,
      "Ġ295": 7839,
      "ji": 7840,
      "Ġautomatiquement": 7841,
      "Ġreper": 7842,
      "icao": 7843,
      "Ġquota": 7844,
      "Ġjau": 7845,
      "Ġchoc": 7846,
      "tifications": 7847,
      "Ġcorrespondante": 7848,
      "Ġmed": 7849,
      "Ġfinnoise": 7850,
      "Ġadmissibles": 7851,
      "Ġarchite": 7852,
      "Ġrecommande": 7853,
      "Ġpretendre": 7854,
      "Ġ510": 7855,
      "Ġ241": 7856,
      "gel": 7857,
      "Ġbranches": 7858,
      "Ġsoumissionnaire": 7859,
      "Ġchaines": 7860,
      "Ġconfidentiel": 7861,
      "Ġmiche": 7862,
      "Ġsollic": 7863,
      "Ġ283": 7864,
      "Ġrecherches": 7865,
      "Ġinvoquee": 7866,
      "Ġindument": 7867,
      "Ġcellu": 7868,
      "Ġmanuel": 7869,
      "Ġadaptations": 7870,
      "Ġrenvoie": 7871,
      "Ġvalid": 7872,
      "Ġtache": 7873,
      "Ġimpu": 7874,
      "Ġkirch": 7875,
      "Ġcourir": 7876,
      "Ġallegation": 7877,
      "mens": 7878,
      "Ġdanois": 7879,
      "Ġventil": 7880,
      "Ġpriorites": 7881,
      "Ġparallele": 7882,
      "oz": 7883,
      "Ġdiri": 7884,
      "Ġretr": 7885,
      "Ġrenouvelables": 7886,
      "rants": 7887,
      "Ġfavorables": 7888,
      "Ġsuppleants": 7889,
      "Ġpc": 7890,
      "Ġmadri": 7891,
      "Ġimposent": 7892,
      "acent": 7893,
      "Ġaller": 7894,
      "Ġexclus": 7895,
      "ĠÐ²": 7896,
      "Ġresidant": 7897,
      "Ġpak": 7898,
      "Ġdetenus": 7899,
      "Ġamid": 7900,
      "Ġdelib": 7901,
      "Ġbillets": 7902,
      "80": 7903,
      "Ġauront": 7904,
      "Ġalineas": 7905,
      "Ġstr": 7906,
      "Ġtions": 7907,
      "Ġimmunite": 7908,
      "Ġstabilisation": 7909,
      "Ġsug": 7910,
      "Ġwer": 7911,
      "Ġresident": 7912,
      "ward": 7913,
      "Ġzo": 7914,
      "Ġusd": 7915,
      "Ġautonomie": 7916,
      "Ġpluri": 7917,
      "Ġstage": 7918,
      "Ġdemandeurs": 7919,
      "Ġ251": 7920,
      "Ġ252": 7921,
      "Ġ317": 7922,
      "Ġpersonn": 7923,
      "ras": 7924,
      "Ġmethod": 7925,
      "Ġsoumissionnaires": 7926,
      "Ġlaboratoires": 7927,
      "Ġsiderurg": 7928,
      "Ġgol": 7929,
      "Ġconfidentielles": 7930,
      "Ġvene": 7931,
      "aud": 7932,
      "Ġsieges": 7933,
      "Ġinscrits": 7934,
      "Ġcacao": 7935,
      "tig": 7936,
      "Ġsauvages": 7937,
      "Ġenregistres": 7938,
      "onnements": 7939,
      "Ġgl": 7940,
      "isso": 7941,
      "ĠÎ´": 7942,
      "Ġvegetales": 7943,
      "Ġ442": 7944,
      "Ġbrute": 7945,
      "Ġbout": 7946,
      "Ġhote": 7947,
      "Ġvoix": 7948,
      "Ġprobable": 7949,
      "Ġdemandees": 7950,
      "Ġfraction": 7951,
      "ias": 7952,
      "Ġsurse": 7953,
      "Ġvolumes": 7954,
      "Ġenoncee": 7955,
      "amt": 7956,
      "Ġexhaus": 7957,
      "Ġanony": 7958,
      "Ġflotte": 7959,
      "Ġdistrict": 7960,
      "Ġcommissions": 7961,
      "Ġprioritaires": 7962,
      "Ġdetails": 7963,
      "Ġrecipients": 7964,
      "Ġdirectes": 7965,
      "Ġabsten": 7966,
      "Ġversions": 7967,
      "Ġcombustion": 7968,
      "Ġwat": 7969,
      "Ġindustri": 7970,
      "Ġdenommes": 7971,
      "Ġimpliquant": 7972,
      "Ġ347": 7973,
      "bc": 7974,
      "ns": 7975,
      "Ġicao": 7976,
      "300": 7977,
      "Ġroues": 7978,
      "Ġpluriann": 7979,
      "Ġwhic": 7980,
      "Ġcatal": 7981,
      "Ġ331": 7982,
      "Ġthermique": 7983,
      "mas": 7984,
      "Ġfondamentales": 7985,
      "Ġcables": 7986,
      "Ġsouff": 7987,
      "Ġpercus": 7988,
      "Ġactionnaire": 7989,
      "Ġ238": 7990,
      "ÏīÎ½": 7991,
      "Ġstato": 7992,
      "Ġabsolu": 7993,
      "Ġ256": 7994,
      "Ġassurent": 7995,
      "Ġappreciee": 7996,
      "loy": 7997,
      "Ġmadrid": 7998,
      "Ġsurseoir": 7999,
      "riment": 8000,
      "ÑģÑĤ": 8001,
      "Ġaccum": 8002,
      "Ġdal": 8003,
      "tisse": 8004,
      "Ġexactitude": 8005,
      "Ġdomestiques": 8006,
      "Ġfinalement": 8007,
      "Ġaffectees": 8008,
      "Ġhigh": 8009,
      "Ġacquereur": 8010,
      "teil": 8011,
      "Ġintervenant": 8012,
      "Ġbarr": 8013,
      "methyl": 8014,
      "Ġ420": 8015,
      "Ġdisponibilite": 8016,
      "Ġcontractuelles": 8017,
      "Ġsurcroit": 8018,
      "ulteurs": 8019,
      "Ġup": 8020,
      "Ġfigurer": 8021,
      "Ġcalcules": 8022,
      "Ġhonne": 8023,
      "Ð½Ð°": 8024,
      "Ġalger": 8025,
      "rehen": 8026,
      "Ġetapes": 8027,
      "Ġff": 8028,
      "ded": 8029,
      "Ġagre": 8030,
      "Ġcommuniquee": 8031,
      "Ġ231": 8032,
      "Ġdemi": 8033,
      "Ġveuille": 8034,
      "Ġ269": 8035,
      "Ġchoisi": 8036,
      "Ġexamens": 8037,
      "Ġprovisions": 8038,
      "ader": 8039,
      "oure": 8040,
      "Ġenvers": 8041,
      "Ġsaisir": 8042,
      "uh": 8043,
      "Ġraad": 8044,
      "ceau": 8045,
      "Ġany": 8046,
      "Ġsusmentionnees": 8047,
      "Ġwhich": 8048,
      "Ġserre": 8049,
      "Ġnettement": 8050,
      "Ġfondamental": 8051,
      "Ġunil": 8052,
      "Ġinterieure": 8053,
      "Ġ243": 8054,
      "Ġinclut": 8055,
      "Ġevaluations": 8056,
      "Ġpoursuivis": 8057,
      "Ġenregistrees": 8058,
      "Ġcelex": 8059,
      "Ġimportees": 8060,
      "Ġxiii": 8061,
      "Ġfiscaux": 8062,
      "Ġamerica": 8063,
      "Ġpul": 8064,
      "Ġexecut": 8065,
      "Ġmagas": 8066,
      "mage": 8067,
      "fsa": 8068,
      "Ġ297": 8069,
      "Ġlibrement": 8070,
      "Ġaval": 8071,
      "Ġetendu": 8072,
      "Ġapportee": 8073,
      "Î´": 8074,
      "Ġchoisir": 8075,
      "Ġrester": 8076,
      "Ġutilisations": 8077,
      "Ġharce": 8078,
      "Ġsv": 8079,
      "Ġjose": 8080,
      "Ġwas": 8081,
      "Ġomis": 8082,
      "Ġfinals": 8083,
      "Ġrot": 8084,
      "Ġextrait": 8085,
      "cell": 8086,
      "Ġobjectivement": 8087,
      "Ġdiminue": 8088,
      "Ġsiderur": 8089,
      "Ġmateriau": 8090,
      "Ġaphteuse": 8091,
      "Ġinferieurs": 8092,
      "Ġproximite": 8093,
      "Ġmusi": 8094,
      "84": 8095,
      "Ġalt": 8096,
      "Ġeffor": 8097,
      "Ġguide": 8098,
      "Ġmait": 8099,
      "Ġveuillez": 8100,
      "Ġintegral": 8101,
      "Ġreside": 8102,
      "ova": 8103,
      "Ġpens": 8104,
      "Ġpersonnels": 8105,
      "ott": 8106,
      "Ġacheter": 8107,
      "obile": 8108,
      "Ġlub": 8109,
      "cor": 8110,
      "Ġfla": 8111,
      "Ġinstances": 8112,
      "Ġoriginal": 8113,
      "Ġplaque": 8114,
      "Ġtv": 8115,
      "Ġconcurrentielle": 8116,
      "Ġsimultanement": 8117,
      "Ġ343": 8118,
      "Ġcig": 8119,
      "Ġimposant": 8120,
      "Ġassistee": 8121,
      "ouse": 8122,
      "Ġnotifies": 8123,
      "ish": 8124,
      "ativement": 8125,
      "Ġ621": 8126,
      "Ġseparation": 8127,
      "Ġavancement": 8128,
      "Ġbasse": 8129,
      "Ġsemaine": 8130,
      "Ġmaur": 8131,
      "Ġconfirmation": 8132,
      "Ġetend": 8133,
      "din": 8134,
      "temps": 8135,
      "Ġrecap": 8136,
      "Ġred": 8137,
      "Ġ273": 8138,
      "Ġdeplacement": 8139,
      "Ġbec": 8140,
      "Ġcontractant": 8141,
      "diques": 8142,
      "ÏĦÎ±": 8143,
      "Ġrembourse": 8144,
      "Ġperiodique": 8145,
      "Ġdestruction": 8146,
      "Ġinteressee": 8147,
      "Ġredaction": 8148,
      "Ġline": 8149,
      "Ġcohesion": 8150,
      "Ġclientele": 8151,
      "Ġ290": 8152,
      "Ð¿": 8153,
      "tar": 8154,
      "Ġgul": 8155,
      "uta": 8156,
      "Ġcirculaire": 8157,
      "Ġsuperieures": 8158,
      "yee": 8159,
      "Ġbur": 8160,
      "Ġapprouver": 8161,
      "Ġautomobile": 8162,
      "Ġcible": 8163,
      "Ġidentifie": 8164,
      "Ġassimi": 8165,
      "Ġdistorsion": 8166,
      "Ġfiabilite": 8167,
      "ny": 8168,
      "Ġinstaure": 8169,
      "hc": 8170,
      "Ġnegatif": 8171,
      "Ġberlin": 8172,
      "Ġ450": 8173,
      "Ġhypotheses": 8174,
      "Ġnominale": 8175,
      "Ġ293": 8176,
      "Ġpiece": 8177,
      "Ġscol": 8178,
      "Ġvoyages": 8179,
      "Ġachevement": 8180,
      "Ġshort": 8181,
      "Ġgon": 8182,
      "Ġmarins": 8183,
      "Ġrich": 8184,
      "iler": 8185,
      "ods": 8186,
      "Ġfroment": 8187,
      "Ġsubstitution": 8188,
      "Ġquasi": 8189,
      "Ġmesuree": 8190,
      "Ġonu": 8191,
      "Ġtoler": 8192,
      "Ġstrictement": 8193,
      "zione": 8194,
      "Ġpreserver": 8195,
      "Ġrio": 8196,
      "Ġeligibilite": 8197,
      "ator": 8198,
      "Ġlca": 8199,
      "Ġproch": 8200,
      "Ġmanuf": 8201,
      "Ġdesignee": 8202,
      "Ġtue": 8203,
      "prd": 8204,
      "Ġaquac": 8205,
      "Ġsab": 8206,
      "Ġdiagnostic": 8207,
      "Ġtribunale": 8208,
      "gene": 8209,
      "Ġ289": 8210,
      "Ġzu": 8211,
      "Ġcruz": 8212,
      "Ġcabinet": 8213,
      "Ġhonor": 8214,
      "Ġcontenus": 8215,
      "Ġconvenues": 8216,
      "Ġdiametre": 8217,
      "Ġvendeur": 8218,
      "3000": 8219,
      "Ġlegislative": 8220,
      "lla": 8221,
      "Ġtendre": 8222,
      "Ġdemon": 8223,
      "Ġcontractuel": 8224,
      "Ġ328": 8225,
      "icy": 8226,
      "liger": 8227,
      "Ġ1961": 8228,
      "Ġhop": 8229,
      "Ġbag": 8230,
      "lus": 8231,
      "Ġmari": 8232,
      "ols": 8233,
      "Ġnum": 8234,
      "Ġhi": 8235,
      "ĠÏĥ": 8236,
      "Ġmaria": 8237,
      "Ġpierre": 8238,
      "Ġexaminee": 8239,
      "Ġattendre": 8240,
      "Ġextraord": 8241,
      "bri": 8242,
      "Ġaig": 8243,
      "Ġplanification": 8244,
      "Ġpublier": 8245,
      "entieuse": 8246,
      "Ġaccessibles": 8247,
      "Ġ266": 8248,
      "Ġphotograph": 8249,
      "Ġfamiliales": 8250,
      "jets": 8251,
      "Ġfret": 8252,
      "urent": 8253,
      "abe": 8254,
      "Ġblanchi": 8255,
      "Ġroulant": 8256,
      "Ġseuils": 8257,
      "Ġintervenue": 8258,
      "Ġnucleaires": 8259,
      "Ġenfreint": 8260,
      "qprd": 8261,
      "rus": 8262,
      "ometres": 8263,
      "Ġprecont": 8264,
      "Ġvolontaire": 8265,
      "Ġpermettra": 8266,
      "Ġlaisser": 8267,
      "Ġcomprehen": 8268,
      "Ġfreinage": 8269,
      "Ġread": 8270,
      "aga": 8271,
      "Ġ311": 8272,
      "usement": 8273,
      "oxyde": 8274,
      "Ġorganise": 8275,
      "itent": 8276,
      "Ġsels": 8277,
      "Ġmus": 8278,
      "Ġreus": 8279,
      "Ġportefe": 8280,
      "Ġauthor": 8281,
      "Ġmanagement": 8282,
      "Ġoperationnel": 8283,
      "Ġapprouvee": 8284,
      "wiecie": 8285,
      "Ġisra": 8286,
      "Ġaudiovis": 8287,
      "oms": 8288,
      "dif": 8289,
      "Ġmodernisation": 8290,
      "Ġmanufact": 8291,
      "Ġmobile": 8292,
      "Ġalbanie": 8293,
      "by": 8294,
      "Ġdistinguer": 8295,
      "Ġadditifs": 8296,
      "Ġgraines": 8297,
      "Ġassujettis": 8298,
      "ime": 8299,
      "Ġtourisme": 8300,
      "Ġouvrables": 8301,
      "Ġ304": 8302,
      "Ġdeposees": 8303,
      "Ġexpliquer": 8304,
      "Ġphytopharmaceutiques": 8305,
      "Ġvalide": 8306,
      "Ġaffectee": 8307,
      "ometrique": 8308,
      "Ġbrevets": 8309,
      "ceaux": 8310,
      "Ġtelephone": 8311,
      "ases": 8312,
      "Ġminimaux": 8313,
      "Ġclassifiees": 8314,
      "Ġdetenue": 8315,
      "Ġmilitaires": 8316,
      "Ġchaussures": 8317,
      "Ġentachee": 8318,
      "oudre": 8319,
      "Ġcoupe": 8320,
      "Ġ1960": 8321,
      "Ġagi": 8322,
      "Ġroule": 8323,
      "Ġintitulee": 8324,
      "Ġvariete": 8325,
      "Ġost": 8326,
      "gio": 8327,
      "Ġanterieur": 8328,
      "9000": 8329,
      "zone": 8330,
      "Ġsuffisants": 8331,
      "Ġcontrolee": 8332,
      "Ġdesignees": 8333,
      "Ġelabore": 8334,
      "Ġacquitter": 8335,
      "Ġober": 8336,
      "endie": 8337,
      "Ġpenal": 8338,
      "Ð¸Ñı": 8339,
      "Ġpowiecie": 8340,
      "Ġfinancees": 8341,
      "dien": 8342,
      "Ġ4253": 8343,
      "fection": 8344,
      "Ġproviennent": 8345,
      "Ġnotifications": 8346,
      "Ġsouver": 8347,
      "Ġdanoise": 8348,
      "Ġconditionnement": 8349,
      "mie": 8350,
      "Ġlongtemps": 8351,
      "Ġvape": 8352,
      "Ġpoursuites": 8353,
      "Ġcontraintes": 8354,
      "Ġconferer": 8355,
      "Ġordinaire": 8356,
      "Ġconnu": 8357,
      "Ġconsig": 8358,
      "Ġprelevements": 8359,
      "Ġchambres": 8360,
      "Ġrevise": 8361,
      "Ġstable": 8362,
      "Ġmediateur": 8363,
      "Ġbonnes": 8364,
      "Ġpeau": 8365,
      "Ġmarin": 8366,
      "raphe": 8367,
      "Ġmeilleures": 8368,
      "Ġtunis": 8369,
      "Ġcorporation": 8370,
      "Ġconjointe": 8371,
      "Ġdilution": 8372,
      "Ġmc": 8373,
      "Ġslovaquie": 8374,
      "Ġweb": 8375,
      "oper": 8376,
      "Ġmade": 8377,
      "áĥļ": 8378,
      "ities": 8379,
      "Ġnaturels": 8380,
      "Ġcorrespondants": 8381,
      "Ġinsuffisant": 8382,
      "Ġsoutenue": 8383,
      "Ġkos": 8384,
      "Ġevalu": 8385,
      "Ġdeutsch": 8386,
      "Ġ521": 8387,
      "lons": 8388,
      "cident": 8389,
      "Ġ314": 8390,
      "Ġreels": 8391,
      "Ġsper": 8392,
      "Ġdatee": 8393,
      "74": 8394,
      "Ġaus": 8395,
      "orth": 8396,
      "Ġrt": 8397,
      "Ġkor": 8398,
      "ĠÎ¿": 8399,
      "Ġlaine": 8400,
      "Ġprovinci": 8401,
      "Ġpath": 8402,
      "Ġbulle": 8403,
      "Ġfournissant": 8404,
      "ight": 8405,
      "Ġ1001": 8406,
      "Ġattribuee": 8407,
      "nd": 8408,
      "Ġsatellite": 8409,
      "Ġdepit": 8410,
      "Ġah": 8411,
      "Ġblo": 8412,
      "Ġmaximales": 8413,
      "Ġvictime": 8414,
      "Ġcahier": 8415,
      "Ġexigent": 8416,
      "ert": 8417,
      "Ġaffil": 8418,
      "Ġoccident": 8419,
      "Ġharcelement": 8420,
      "Ġsing": 8421,
      "Ġmobiles": 8422,
      "ouris": 8423,
      "Ġinscrire": 8424,
      "Ġgaze": 8425,
      "Ġdetenues": 8426,
      "Ġindicateur": 8427,
      "Ġron": 8428,
      "Ġindustrielles": 8429,
      "ssen": 8430,
      "kre": 8431,
      "Ġcafe": 8432,
      "Ġhandels": 8433,
      "Ġatmosp": 8434,
      "Ð±": 8435,
      "Ġwy": 8436,
      "Ġfacult": 8437,
      "ual": 8438,
      "Ġviolations": 8439,
      "Ġinfir": 8440,
      "Ġnotifier": 8441,
      "Ġfinland": 8442,
      "Ġreferant": 8443,
      "Ġdeterminante": 8444,
      "Ġajout": 8445,
      "Ġ246": 8446,
      "Ġsort": 8447,
      "Ġvalablement": 8448,
      "tibles": 8449,
      "Ġip": 8450,
      "ieare": 8451,
      "Ġplants": 8452,
      "Ġattribues": 8453,
      "Ġdistincte": 8454,
      "Ġpel": 8455,
      "Ġ425": 8456,
      "Ġmad": 8457,
      "gs": 8458,
      "Ġrsue": 8459,
      "jan": 8460,
      "Ġarbe": 8461,
      "Ġdecrits": 8462,
      "Ġincendie": 8463,
      "Ġgrd": 8464,
      "Ġ310": 8465,
      "Ġelarg": 8466,
      "ulsion": 8467,
      "Ġlogique": 8468,
      "vin": 8469,
      "Ġacheteurs": 8470,
      "Ġcontinuite": 8471,
      "Ġproprietaires": 8472,
      "Ġpun": 8473,
      "Ġconcret": 8474,
      "Ġspecific": 8475,
      "Ġzinc": 8476,
      "die": 8477,
      "Ġingre": 8478,
      "Ġexonerations": 8479,
      "ciens": 8480,
      "Ġsiderurgiques": 8481,
      "minaires": 8482,
      "Ġpreparer": 8483,
      "Ġlance": 8484,
      "ket": 8485,
      "Ġconserv": 8486,
      "Ġbenelux": 8487,
      "Ġaspect": 8488,
      "Ġcommises": 8489,
      "ĠÐ´": 8490,
      "Ġissus": 8491,
      "ref": 8492,
      "Ġmoyennant": 8493,
      "Ġrefri": 8494,
      "ÏģÎ±": 8495,
      "Ġnap": 8496,
      "Ġdb": 8497,
      "101": 8498,
      "Ġsupportes": 8499,
      "Ġsex": 8500,
      "Ġconsiderent": 8501,
      "Ġreellement": 8502,
      "Ġlege": 8503,
      "Ġitalia": 8504,
      "Ġcombinees": 8505,
      "Ġdc": 8506,
      "Ġ360": 8507,
      "bourg": 8508,
      "Ġdeces": 8509,
      "Ġaccidents": 8510,
      "Ġofficiels": 8511,
      "ĠÑ": 8512,
      "Ġmeilleurs": 8513,
      "Ġingredi": 8514,
      "Ġhydroxy": 8515,
      "Ġ625": 8516,
      "Ġrecourant": 8517,
      "Ġcouverte": 8518,
      "Ġcontradictoire": 8519,
      "aret": 8520,
      "Ġinclusion": 8521,
      "Ġnettoyage": 8522,
      "Ġspect": 8523,
      "Ġpersonnelle": 8524,
      "Ġampleur": 8525,
      "techn": 8526,
      "cho": 8527,
      "Ġqualites": 8528,
      "kes": 8529,
      "Ġreass": 8530,
      "Ġ325": 8531,
      "Ġferroviaires": 8532,
      "Ġremis": 8533,
      "less": 8534,
      "Ġ313": 8535,
      "Ġ264": 8536,
      "Ġsuspendu": 8537,
      "Ġefsa": 8538,
      "Ġfacilement": 8539,
      "Ġtransforme": 8540,
      "Ġmontage": 8541,
      "Ġconcertee": 8542,
      "Ġsis": 8543,
      "Ġfini": 8544,
      "Ġáĥĵ": 8545,
      "Ġestimer": 8546,
      "Ġneglig": 8547,
      "vich": 8548,
      "Ġregulier": 8549,
      "Ġdiscontinues": 8550,
      "ousse": 8551,
      "Ġparticipent": 8552,
      "Ġimposable": 8553,
      "rat": 8554,
      "Ġplen": 8555,
      "Ġperspectives": 8556,
      "Ġlimitees": 8557,
      "giene": 8558,
      "Ġclub": 8559,
      "Ġflex": 8560,
      "Ġabats": 8561,
      "Ġmouvement": 8562,
      "Ġbulletin": 8563,
      "Ġgraphique": 8564,
      "Ġmultil": 8565,
      "mpes": 8566,
      "Ġprivatisation": 8567,
      "Ġadmissible": 8568,
      "Ġprogressive": 8569,
      "Ġequivalents": 8570,
      "gesetz": 8571,
      "Ġaffectant": 8572,
      "Ġmark": 8573,
      "aca": 8574,
      "Ġpsych": 8575,
      "Ġ312": 8576,
      "dro": 8577,
      "Ġplafonds": 8578,
      "Ġsignee": 8579,
      "Ġtonnage": 8580,
      "Ġchapitres": 8581,
      "Ġcompetitivite": 8582,
      "Ġepu": 8583,
      "Ġprecedentes": 8584,
      "Ġdiffere": 8585,
      "ĠâĢ²": 8586,
      "Ġaujour": 8587,
      "Ġinfliger": 8588,
      "oine": 8589,
      "Ġdevenue": 8590,
      "Ġretire": 8591,
      "Ġterrains": 8592,
      "Ġeconomies": 8593,
      "Ġprecisions": 8594,
      "Ġformalites": 8595,
      "Ġnegatifs": 8596,
      "Ġdelivrer": 8597,
      "Ġmerci": 8598,
      "Ġmanip": 8599,
      "Ġanton": 8600,
      "oni": 8601,
      "Ġ315": 8602,
      "Ġintr": 8603,
      "Ġdelle": 8604,
      "Ġlouis": 8605,
      "Ġsections": 8606,
      "Ġpate": 8607,
      "Ġproduct": 8608,
      "icients": 8609,
      "Ġsuivent": 8610,
      "Ġfroid": 8611,
      "Ġaujourd": 8612,
      "enland": 8613,
      "Ġsolides": 8614,
      "Ġterrorisme": 8615,
      "Ġcyl": 8616,
      "Ġlas": 8617,
      "Ġ395": 8618,
      "Ġverwaltungs": 8619,
      "Ġneuv": 8620,
      "Ġdub": 8621,
      "Ġhosp": 8622,
      "Ġdistil": 8623,
      "Ġagissait": 8624,
      "Ġexploiter": 8625,
      "tionnellement": 8626,
      "Ġgrass": 8627,
      "Ġassim": 8628,
      "Ġexprimes": 8629,
      "Ġjann": 8630,
      "Ġsusmention": 8631,
      "Ġpharmaceutiques": 8632,
      "riers": 8633,
      "Ġprevision": 8634,
      "Ġinterimaire": 8635,
      "fur": 8636,
      "mat": 8637,
      "Ġsig": 8638,
      "Ġ309": 8639,
      "Ġhumain": 8640,
      "Ġadequat": 8641,
      "Ġout": 8642,
      "Ġdebou": 8643,
      "Ġremet": 8644,
      "Ġorganiser": 8645,
      "Ġlutter": 8646,
      "Ġdemonst": 8647,
      "Ġmacro": 8648,
      "Ġprotocoles": 8649,
      "Ġmb": 8650,
      "Ġmetres": 8651,
      "Ġsecondaire": 8652,
      "fal": 8653,
      "Ġgab": 8654,
      "Ġcommet": 8655,
      "Ġ316": 8656,
      "Ġcontinent": 8657,
      "Ġcosme": 8658,
      "orerie": 8659,
      "teries": 8660,
      "Ġ294": 8661,
      "Ġcontestation": 8662,
      "hel": 8663,
      "Ġshell": 8664,
      "ĠÐ¾": 8665,
      "aturation": 8666,
      "Ġparticular": 8667,
      "Ġhonneur": 8668,
      "Ġenvironnementales": 8669,
      "70": 8670,
      "Ġhandic": 8671,
      "Ġembarquement": 8672,
      "ÑĬ": 8673,
      "Ġchose": 8674,
      "tiver": 8675,
      "Ġrestreint": 8676,
      "Ġorganiques": 8677,
      "vrent": 8678,
      "Ġfrapp": 8679,
      "Ġtresorerie": 8680,
      "ogrammes": 8681,
      "Ġafric": 8682,
      "Ġimmobiliers": 8683,
      "Ġsession": 8684,
      "Ġobstacles": 8685,
      "Ġneglige": 8686,
      "Ġaboutir": 8687,
      "Ġengrais": 8688,
      "Ġresta": 8689,
      "uev": 8690,
      "Ġvert": 8691,
      "Ġ276": 8692,
      "Ġincorpor": 8693,
      "Ġdefinitifs": 8694,
      "Ġmajoration": 8695,
      "Ġformulee": 8696,
      "Ġsouci": 8697,
      "Ġobjectives": 8698,
      "ĠÐ¸": 8699,
      "Ġ244": 8700,
      "Ġhygiene": 8701,
      "Ġcumule": 8702,
      "Ġsatisfaisant": 8703,
      "2018": 8704,
      "vine": 8705,
      "Ġsoulevee": 8706,
      "Ġautrichien": 8707,
      "Ġbarrister": 8708,
      "Ġpied": 8709,
      "Ġneuvieme": 8710,
      "Ġestimations": 8711,
      "Ġ391": 8712,
      "Ġmobilite": 8713,
      "Ġimmeuble": 8714,
      "Ġdiplomes": 8715,
      "ĠÐ½Ð°": 8716,
      "Ġcalculs": 8717,
      "Ġdistinctes": 8718,
      "Ġassist": 8719,
      "Ġ282": 8720,
      "ek": 8721,
      "Ġunilatera": 8722,
      "Ġcreancier": 8723,
      "Ġedic": 8724,
      "Ġanimales": 8725,
      "Ġphilip": 8726,
      "Ġjustifiees": 8727,
      "Ġbiologique": 8728,
      "Ġcandidatures": 8729,
      "Ġ432": 8730,
      "Ġcoefficients": 8731,
      "Ġham": 8732,
      "Ġinterdite": 8733,
      "auer": 8734,
      "Ġ384": 8735,
      "Ġanciens": 8736,
      "Ġphosph": 8737,
      "Ġ413": 8738,
      "Ġoccupe": 8739,
      "Ð¸Ñĩ": 8740,
      "Ġauteurs": 8741,
      "Ġconsiderable": 8742,
      "Ġ285": 8743,
      "Ġbruit": 8744,
      "Ġsalaires": 8745,
      "Ġapos": 8746,
      "Ġviser": 8747,
      "Ġbelg": 8748,
      "Ġisol": 8749,
      "Ġetiquette": 8750,
      "sh": 8751,
      "tir": 8752,
      "Ġrevient": 8753,
      "idad": 8754,
      "Ġprotege": 8755,
      "Ġsatisfaisante": 8756,
      "Ġmonopole": 8757,
      "bru": 8758,
      "Ġagriculteurs": 8759,
      "uz": 8760,
      "Ġwagner": 8761,
      "Ġol": 8762,
      "Ġprovisoirement": 8763,
      "yr": 8764,
      "Ġprotegees": 8765,
      "Ġquater": 8766,
      "Ġeut": 8767,
      "Ġassor": 8768,
      "Ġdiplom": 8769,
      "Ġcomposant": 8770,
      "Ġentrent": 8771,
      "Ġauxili": 8772,
      "Ġcourte": 8773,
      "Ġavions": 8774,
      "Ġaquaculture": 8775,
      "Ġdonnent": 8776,
      "Ġtoi": 8777,
      "Ġmaintenu": 8778,
      "Ġcommandant": 8779,
      "Ġkirchberg": 8780,
      "Ġdeutschland": 8781,
      "fort": 8782,
      "agas": 8783,
      "Ġ284": 8784,
      "áĥĵ": 8785,
      "membre": 8786,
      "Ġpent": 8787,
      "pt": 8788,
      "Ġgly": 8789,
      "Ġlinguistiques": 8790,
      "Ġconsulter": 8791,
      "Ġaan": 8792,
      "Ġ254": 8793,
      "Ġvoul": 8794,
      "Ġintegres": 8795,
      "ost": 8796,
      "Ġvos": 8797,
      "Ġhel": 8798,
      "Ġ349": 8799,
      "Ġ374": 8800,
      "Ġ307": 8801,
      "Ġelaborer": 8802,
      "Ġide": 8803,
      "Ġdeputes": 8804,
      "Ġlos": 8805,
      "Ġarbitraire": 8806,
      "Ġentrant": 8807,
      "utation": 8808,
      "Ġcitoyen": 8809,
      "Ä§": 8810,
      "Ġpreferentiel": 8811,
      "Ġhospital": 8812,
      "Ġadmise": 8813,
      "Ġspp": 8814,
      "Ġnance": 8815,
      "Ġreguliers": 8816,
      "Ġposterieurement": 8817,
      "lijke": 8818,
      "Ġfern": 8819,
      "Ġentrave": 8820,
      "Ġile": 8821,
      "Ġoptim": 8822,
      "Ġorts": 8823,
      "Ġcausalite": 8824,
      "Ġtiennent": 8825,
      "Ġvend": 8826,
      "Ġcircuits": 8827,
      "mans": 8828,
      "Ġ511": 8829,
      "Ġvalables": 8830,
      "Ġstructurelles": 8831,
      "ban": 8832,
      "Ġalias": 8833,
      "Ġafferentes": 8834,
      "Ġwar": 8835,
      "Ġintroduits": 8836,
      "Ġpropag": 8837,
      "Ġpercevoir": 8838,
      "Ġapprouves": 8839,
      "Ġpercue": 8840,
      "Ġestimant": 8841,
      "Ġ462": 8842,
      "Ġrouge": 8843,
      "Ġreu": 8844,
      "Ġauditeur": 8845,
[...]
