{
  "version": "1.0",
  "truncation": null,
  "padding": null,
  "added_tokens": [
    {
      "id": 0,
      "content": "<pad>",
      "single_word": false,
      "lstrip": false,
      "rstrip": false,
      "normalized": false,
      "special": true
    },
    {
      "id": 1,
      "content": "<s>",
      "single_word": false,
      "lstrip": false,
      "rstrip": false,
      "normalized": false,
      "special": true
    },
    {
      "id": 2,
      "content": "</s>",
      "single_word": false,
      "lstrip": false,
      "rstrip": false,
      "normalized": false,
      "special": true
    },
    {
      "id": 3,
      "content": "<unk>",
      "single_word": false,
      "lstrip": false,
      "rstrip": false,
      "normalized": false,
      "special": true
    },
    {
      "id": 4,
      "content": "<mask>",
      "single_word": false,
      "lstrip": false,
      "rstrip": false,
      "normalized": false,
      "special": true
    }
  ],
  "normalizer": {
    "type": "Sequence",
    "normalizers": [
      {
        "type": "NFKD"
      },
      {
        "type": "BertNormalizer",
        "clean_text": true,
        "handle_chinese_chars": true,
        "strip_accents": null,
        "lowercase": true
      }
    ]
  },
  "pre_tokenizer": {
    "type": "Sequence",
    "pretokenizers": [
      {
        "type": "BertPreTokenizer"
      },
      {
        "type": "ByteLevel",
        "add_prefix_space": true,
        "trim_offsets": true,
        "use_regex": true
      }
    ]
  },
  "post_processor": {
    "type": "RobertaProcessing",
    "sep": [
      "</s>",
      2
    ],
    "cls": [
      "<s>",
      1
    ],
    "trim_offsets": true,
    "add_prefix_space": true
  },
  "decoder": {
    "type": "ByteLevel",
    "add_prefix_space": true,
    "trim_offsets": true,
    "use_regex": true
  },
  "model": {
    "type": "BPE",
    "dropout": null,
    "unk_token": "<unk>",
    "continuing_subword_prefix": null,
    "end_of_word_suffix": null,
    "fuse_unk": false,
    "vocab": {
      "<pad>": 0,
      "<s>": 1,
      "</s>": 2,
      "<unk>": 3,
      "<mask>": 4,
      "!": 5,
      "\"": 6,
      "#": 7,
      "$": 8,
      "%": 9,
      "&": 10,
      "'": 11,
      "(": 12,
      ")": 13,
      "*": 14,
      "+": 15,
      ",": 16,
      "-": 17,
      ".": 18,
      "/": 19,
      "0": 20,
      "1": 21,
      "2": 22,
      "3": 23,
      "4": 24,
      "5": 25,
      "6": 26,
      "7": 27,
      "8": 28,
      "9": 29,
      ":": 30,
      ";": 31,
      "<": 32,
      "=": 33,
      ">": 34,
      "?": 35,
      "@": 36,
      "[": 37,
      "\\": 38,
      "]": 39,
      "^": 40,
      "_": 41,
      "`": 42,
      "a": 43,
      "b": 44,
      "c": 45,
      "d": 46,
      "e": 47,
      "f": 48,
      "g": 49,
      "h": 50,
      "i": 51,
      "j": 52,
      "k": 53,
      "l": 54,
      "m": 55,
      "n": 56,
      "o": 57,
      "p": 58,
      "q": 59,
      "r": 60,
      "s": 61,
      "t": 62,
      "u": 63,
      "v": 64,
      "w": 65,
      "x": 66,
      "y": 67,
      "z": 68,
      "{": 69,
      "|": 70,
      "}": 71,
      "~": 72,
      "¡": 73,
      "¢": 74,
      "£": 75,
      "¤": 76,
      "¥": 77,
      "¦": 78,
      "§": 79,
      "¨": 80,
      "©": 81,
      "ª": 82,
      "«": 83,
      "¬": 84,
      "®": 85,
      "¯": 86,
      "°": 87,
      "±": 88,
      "²": 89,
      "³": 90,
      "´": 91,
      "µ": 92,
      "¶": 93,
      "·": 94,
      "¸": 95,
      "¹": 96,
      "º": 97,
      "»": 98,
      "¼": 99,
      "½": 100,
      "¾": 101,
      "¿": 102,
      "Â": 103,
      "Ã": 104,
      "Ä": 105,
      "Å": 106,
      "Æ": 107,
      "É": 108,
      "Ê": 109,
      "Ë": 110,
      "Î": 111,
      "Ï": 112,
      "Ð": 113,
      "Ñ": 114,
      "Ò": 115,
      "Ó": 116,
      "Õ": 117,
      "Ö": 118,
      "×": 119,
      "Ø": 120,
      "Ù": 121,
      "Ú": 122,
      "Û": 123,
      "ß": 124,
      "à": 125,
      "á": 126,
      "â": 127,
      "ã": 128,
      "ä": 129,
      "å": 130,
      "æ": 131,
      "ç": 132,
      "è": 133,
      "é": 134,
      "ï": 135,
      "ð": 136,
      "Ġ": 137,
      "Ģ": 138,
      "ģ": 139,
      "Ĥ": 140,
      "ĥ": 141,
      "Ħ": 142,
      "ħ": 143,
      "Ĩ": 144,
      "ĩ": 145,
      "Ī": 146,
      "ī": 147,
      "Ĭ": 148,
      "ĭ": 149,
      "Į": 150,
      "į": 151,
      "İ": 152,
      "ı": 153,
      "Ĳ": 154,
      "ĳ": 155,
      "Ĵ": 156,
      "ĵ": 157,
      "Ķ": 158,
      "ķ": 159,
      "ĸ": 160,
      "Ĺ": 161,
      "ĺ": 162,
      "Ļ": 163,
      "ļ": 164,
      "Ľ": 165,
      "ľ": 166,
      "Ŀ": 167,
      "ŀ": 168,
      "Ł": 169,
      "ł": 170,
      "Ń": 171,
      "en": 172,
      "de": 173,
      "Ġv": 174,
      "an": 175,
      "in": 176,
      "er": 177,
      "Ġde": 178,
      "et": 179,
      "Ġvan": 180,
      "ing": 181,
      "Ġ,": 182,
      "el": 183,
      "or": 184,
      "Ġb": 185,
      "st": 186,
      "Ġ.": 187,
      "Ġo": 188,
      "Ġt": 189,
      "Ġh": 190,
      "ij": 191,
      "Ġa": 192,
      "ge": 193,
      "Ġd": 194,
      "Ġn": 195,
      "ch": 196,
      "re": 197,
      "ie": 198,
      "at": 199,
      "Ġ1": 200,
      "Ġe": 201,
      "Ġin": 202,
      "Ġm": 203,
      "ar": 204,
      "Ġw": 205,
      "oe": 206,
      "Ġver": 207,
      "Ġ2": 208,
      "it": 209,
      "oor": 210,
      "is": 211,
      "Ġhet": 212,
      "den": 213,
      "Ġp": 214,
      "Ġge": 215,
      "iet": 216,
      "Ġen": 217,
      "al": 218,
      "Ġbe": 219,
      "Ġ)": 220,
      "Ġc": 221,
      "Ġ-": 222,
      "Ġniet": 223,
      "on": 224,
      "Ġz": 225,
      "cht": 226,
      "Ġl": 227,
      "Ġk": 228,
      "Ġ(": 229,
      "as": 230,
      "Ġs": 231,
      "der": 232,
      "Ġ/": 233,
      "gen": 234,
      "aar": 235,
      "ro": 236,
      "Ġvoor": 237,
      "Ġâ": 238,
      "id": 239,
      "Ġtoe": 240,
      "ĠâĢ": 241,
      "om": 242,
      "ik": 243,
      "Ġop": 244,
      "Ġg": 245,
      "Ġeen": 246,
      "Ġ0": 247,
      "ver": 248,
      "ass": 249,
      "ra": 250,
      "ijk": 251,
      "Ġ3": 252,
      "orden": 253,
      "pass": 254,
      "Ġte": 255,
      "Ġtoepass": 256,
      "uit": 257,
      "Ġaan": 258,
      "Ġtoepassing": 259,
      "un": 260,
      "ig": 261,
      "Ġon": 262,
      "sch": 263,
      "Ġre": 264,
      "Ġdat": 265,
      "Ġ20": 266,
      "Ġar": 267,
      "em": 268,
      "Ġ_": 269,
      "Ġal": 270,
      "ot": 271,
      "ingen": 272,
      "ken": 273,
      "ol": 274,
      "stel": 275,
      "Ġdie": 276,
      "Ġuit": 277,
      "ee": 278,
      "Ġ5": 279,
      "eer": 280,
      "ct": 281,
      "Ġ4": 282,
      "ijn": 283,
      "een": 284,
      "Ġmet": 285,
      "Ġf": 286,
      "ent": 287,
      "Ġr": 288,
      "ur": 289,
      "Ġbij": 290,
      "Ġ:": 291,
      "ic": 292,
      "Ġart": 293,
      "Ġ9": 294,
      "Ġis": 295,
      "del": 296,
      "ikel": 297,
      "aat": 298,
      "Ġartikel": 299,
      "Ġof": 300,
      "Ġover": 301,
      "Ġonder": 302,
      "he": 303,
      "Ġst": 304,
      "elijk": 305,
      "kt": 306,
      "eg": 307,
      "iss": 308,
      "Ġ7": 309,
      "ien": 310,
      "Ġ19": 311,
      "ft": 312,
      "Ġcom": 313,
      "Ġworden": 314,
      "Ġ6": 315,
      "Ġ8": 316,
      "ou": 317,
      "ze": 318,
      "and": 319,
      "ordening": 320,
      "Ġi": 321,
      "ven": 322,
      "du": 323,
      "es": 324,
      "icht": 325,
      "ap": 326,
      "Ġlid": 327,
      "am": 328,
      "ast": 329,
      "Ġnr": 330,
      "ak": 331,
      "Ġcomm": 332,
      "Ġverordening": 333,
      "ad": 334,
      "Ġbet": 335,
      "Ġom": 336,
      "Ġpro": 337,
      "Ġdoor": 338,
      "Ġzijn": 339,
      "atie": 340,
      "oer": 341,
      "te": 342,
      "Ġj": 343,
      "Ġtot": 344,
      "ele": 345,
      "le": 346,
      "issie": 347,
      "Ġ200": 348,
      "Ġcommissie": 349,
      "sp": 350,
      "ende": 351,
      "Ġdeze": 352,
      "Ġ10": 353,
      "Ġan": 354,
      "il": 355,
      "Ġgem": 356,
      "ĠâĢĵ": 357,
      "aal": 358,
      "erk": 359,
      "ru": 360,
      "dt": 361,
      "rij": 362,
      "aan": 363,
      "Ġeu": 364,
      "gel": 365,
      "oo": 366,
      "Ġwaar": 367,
      "sl": 368,
      "schap": 369,
      "Ġmo": 370,
      "art": 371,
      "voer": 372,
      "um": 373,
      "stell": 374,
      "ĠâĢĶ": 375,
      "Ġvol": 376,
      "Ġbl": 377,
      "heid": 378,
      "Ġ;": 379,
      "Ġrecht": 380,
      "eeft": 381,
      "ier": 382,
      "ul": 383,
      "Ġaf": 384,
      "ag": 385,
      "Ġheeft": 386,
      "red": 387,
      "van": 388,
      "ff": 389,
      "ve": 390,
      "ste": 391,
      "dere": 392,
      "kom": 393,
      "Ġals": 394,
      "us": 395,
      "zoe": 396,
      "Ġvast": 397,
      "Ġbep": 398,
      "ers": 399,
      "Ġ*": 400,
      "ere": 401,
      "pen": 402,
      "Ġwor": 403,
      "Ġ201": 404,
      "rediet": 405,
      "Ġgemeen": 406,
      "bl": 407,
      "Ġwordt": 408,
      "ion": 409,
      "we": 410,
      "ut": 411,
      "Ġ00": 412,
      "ings": 413,
      "ies": 414,
      "dra": 415,
      "nem": 416,
      "rop": 417,
      "eit": 418,
      "aling": 419,
      "Ġwan": 420,
      "sten": 421,
      "Ġgemeenschap": 422,
      "Ġeurop": 423,
      "Ġgeb": 424,
      "zoek": 425,
      "ci": 426,
      "wij": 427,
      "ige": 428,
      "isch": 429,
      "Ġmoet": 430,
      "Ġandere": 431,
      "Ġcon": 432,
      "eld": 433,
      "Ġgr": 434,
      "Ġ11": 435,
      "unt": 436,
      "len": 437,
      "Ġdan": 438,
      "Ġprodu": 439,
      "zen": 440,
      "elijke": 441,
      "Ġbetre": 442,
      "steld": 443,
      "se": 444,
      "ke": 445,
      "ikk": 446,
      "bet": 447,
      "dig": 448,
      "Ġra": 449,
      "ale": 450,
      "la": 451,
      "be": 452,
      "Ġer": 453,
      "Ġ12": 454,
      "ico": 455,
      "Ġovereen": 456,
      "ran": 457,
      "ber": 458,
      "orm": 459,
      "ese": 460,
      "Ġbesch": 461,
      "ri": 462,
      "nen": 463,
      "isico": 464,
      "Ġpart": 465,
      "do": 466,
      "rb": 467,
      "ond": 468,
      "Ġ199": 469,
      "eerde": 470,
      "00": 471,
      "Ġder": 472,
      "Ġeuropese": 473,
      "iteit": 474,
      "Ġtegen": 475,
      "Ġhe": 476,
      "ding": 477,
      "komst": 478,
      "Ġzo": 479,
      "elde": 480,
      "dien": 481,
      "ant": 482,
      "ische": 483,
      "Ġverzoek": 484,
      "aten": 485,
      "betaling": 486,
      "Ġ\"": 487,
      "Ġter": 488,
      "Ġpunt": 489,
      "Ġbest": 490,
      "Ġkrediet": 491,
      "ader": 492,
      "Ġzij": 493,
      "risico": 494,
      "Ġwanbetaling": 495,
      "Ġeg": 496,
      "pl": 497,
      "Ġsch": 498,
      "ce": 499,
      "ang": 500,
      "Ġing": 501,
      "ation": 502,
      "Ġaange": 503,
      "ist": 504,
      "Ġblz": 505,
      "kken": 506,
      "Ġall": 507,
      "Ġ'": 508,
      "ĠâĢĿ": 509,
      "of": 510,
      "Ġna": 511,
      "onder": 512,
      "Ġbesl": 513,
      "im": 514,
      "Ġeeg": 515,
      "Ġten": 516,
      "op": 517,
      "Ġgev": 518,
      "drag": 519,
      "Ġbel": 520,
      "Ġdo": 521,
      "Ġraad": 522,
      "og": 523,
      "ĠâĢŀ": 524,
      "Ġhoo": 525,
      "Ġverk": 526,
      "Ġ15": 527,
      "zien": 528,
      "gesteld": 529,
      "Ġ13": 530,
      "gende": 531,
      "enten": 532,
      "Ġun": 533,
      "Ġondernem": 534,
      "ten": 535,
      "ubl": 536,
      "act": 537,
      "ter": 538,
      "Ġdit": 539,
      "iddel": 540,
      "Ġme": 541,
      "sen": 542,
      "Ġdaar": 543,
      "Ġsp": 544,
      "ruik": 545,
      "Ġ17": 546,
      "Ġinge": 547,
      "Ġovereenkomst": 548,
      "Ġricht": 549,
      "regel": 550,
      "Ġ14": 551,
      "bb": 552,
      "Ġpb": 553,
      "Ġhaar": 554,
      "deling": 555,
      "sel": 556,
      "Ġ%": 557,
      "Ġont": 558,
      "Ġkan": 559,
      "Ġpartij": 560,
      "mo": 561,
      "lijk": 562,
      "erecht": 563,
      "lijn": 564,
      "Ġex": 565,
      "Ġbev": 566,
      "stelling": 567,
      "Ġwerk": 568,
      "ouden": 569,
      "geven": 570,
      "Ġber": 571,
      "Ġ16": 572,
      "gens": 573,
      "Ġ|": 574,
      "waar": 575,
      "Ġle": 576,
      "Ġeer": 577,
      "ens": 578,
      "Ġafge": 579,
      "eri": 580,
      "Ġma": 581,
      "oeg": 582,
      "ine": 583,
      "oep": 584,
      "Ġgen": 585,
      "Ġgel": 586,
      "Ġrichtlijn": 587,
      "Ġeur": 588,
      "Ġ50": 589,
      "Ġben": 590,
      "ember": 591,
      "Ġel": 592,
      "kk": 593,
      "Ġ30": 594,
      "me": 595,
      "Ġhoof": 596,
      "Ġbeh": 597,
      "oot": 598,
      "10": 599,
      "Ġbepaal": 600,
      "uur": 601,
      "Ġlidst": 602,
      "rest": 603,
      "Ġbijla": 604,
      "Ġpl": 605,
      "Ġgeen": 606,
      "ect": 607,
      "Ġverb": 608,
      "Ġza": 609,
      "Ġdi": 610,
      "Ġsu": 611,
      "eci": 612,
      "ort": 613,
      "Ġuitvoer": 614,
      "zig": 615,
      "Ġgebruik": 616,
      "wikk": 617,
      "ster": 618,
      "igen": 619,
      "Ġmeer": 620,
      "ai": 621,
      "Ġbijlage": 622,
      "wee": 623,
      "Ġad": 624,
      "Ġmar": 625,
      "Ġondernemingen": 626,
      "omen": 627,
      "rokken": 628,
      "rans": 629,
      "Ġ18": 630,
      "Ġhebb": 631,
      "heden": 632,
      "pr": 633,
      "ffende": 634,
      "Ġ21": 635,
      "Ġdien": 636,
      "Ġvastgesteld": 637,
      "if": 638,
      "ok": 639,
      "Ġ90": 640,
      "osten": 641,
      "woor": 642,
      "Ġunie": 643,
      "ode": 644,
      "Ġ25": 645,
      "racht": 646,
      "gev": 647,
      "Ġproduct": 648,
      "Ġbedo": 649,
      "Ġ198": 650,
      "ich": 651,
      "Ġgerecht": 652,
      "Ġkun": 653,
      "eerd": 654,
      "Ġ23": 655,
      "stellingen": 656,
      "Ġ22": 657,
      "zak": 658,
      "Ġbeg": 659,
      "Ġhebben": 660,
      "Ġarrest": 661,
      "adering": 662,
      "iek": 663,
      "aatregel": 664,
      "Ġ29": 665,
      "Ġberoep": 666,
      "Ġbetrokken": 667,
      "os": 668,
      "Ġml": 669,
      "con": 670,
      "Ġii": 671,
      "Ġno": 672,
      "Ġtrans": 673,
      "Ġnaar": 674,
      "part": 675,
      "acht": 676,
      "Ġindien": 677,
      "Ġbetreffende": 678,
      "ker": 679,
      "Ġgoe": 680,
      "ab": 681,
      "Ġhof": 682,
      "Ġwel": 683,
      "Ġmln": 684,
      "Ġtwee": 685,
      "dure": 686,
      "Ġ>": 687,
      "cedure": 688,
      "Ġ31": 689,
      "Ġgrond": 690,
      "Ġmin": 691,
      "Ġbenadering": 692,
      "iv": 693,
      "andel": 694,
      "Ġregel": 695,
      "Ġ=": 696,
      "recht": 697,
      "mer": 698,
      "Ġeerste": 699,
      "irb": 700,
      "Ġirb": 701,
      "aren": 702,
      "Ġverw": 703,
      "Ġkmo": 704,
      "ari": 705,
      "Ġwij": 706,
      "kking": 707,
      "Ġ]": 708,
      "Ġ[": 709,
      "acties": 710,
      "ief": 711,
      "raag": 712,
      "Ġkunnen": 713,
      "end": 714,
      "Ġmarkt": 715,
      "Ġstaat": 716,
      "cl": 717,
      "als": 718,
      "Ġpartijen": 719,
      "Ġinvoer": 720,
      "Ġ26": 721,
      "Ġ27": 722,
      "Ġook": 723,
      "af": 724,
      "ijd": 725,
      "ement": 726,
      "Ġwet": 727,
      "Ġtransacties": 728,
      "Ġverm": 729,
      "ree": 730,
      "Ġtegenpart": 731,
      "ussen": 732,
      "Ġpubl": 733,
      "gt": 734,
      "ating": 735,
      "enn": 736,
      "Ġ28": 737,
      "Ġ24": 738,
      "wikkelde": 739,
      "erd": 740,
      "Ġwe": 741,
      "Ġkredietrisico": 742,
      "Ġbesluit": 743,
      "ijkrediet": 744,
      "Ġtegenpartijkrediet": 745,
      "Ġtegenpartijkredietrisico": 746,
      "Ġafgewikkelde": 747,
      "Ġbas": 748,
      "ouw": 749,
      "Ġtussen": 750,
      "Ġpre": 751,
      "ikking": 752,
      "land": 753,
      "Ġreg": 754,
      "ĠâĢĻ": 755,
      "Ġdeel": 756,
      "Ġfin": 757,
      "Ġrating": 758,
      "geb": 759,
      "ron": 760,
      "Ġcor": 761,
      "Ġzaak": 762,
      "20": 763,
      "aart": 764,
      "akt": 765,
      "ific": 766,
      "aatregelen": 767,
      "alingen": 768,
      "Ġinter": 769,
      "ame": 770,
      "ĠâĢĲ": 771,
      "elf": 772,
      "deel": 773,
      "pro": 774,
      "Ġgemeenschappen": 775,
      "Ġcont": 776,
      "Ġvolgens": 777,
      "erking": 778,
      "Ġnation": 779,
      "amen": 780,
      "Ġzoals": 781,
      "kend": 782,
      "alis": 783,
      "ieu": 784,
      "Ġwas": 785,
      "stand": 786,
      "stellen": 787,
      "gelijk": 788,
      "Ġbeschikking": 789,
      "Ġovereenkomstig": 790,
      "ming": 791,
      "oc": 792,
      "Ġalle": 793,
      "Ġ100": 794,
      "Ġzich": 795,
      "voor": 796,
      "Ġmoeten": 797,
      "Ġgro": 798,
      "delijk": 799,
      "Ġhier": 800,
      "oem": 801,
      "Ġprodukt": 802,
      "Ġverdrag": 803,
      "pt": 804,
      "Ġgesp": 805,
      "uk": 806,
      "Ġgeval": 807,
      "rijk": 808,
      "zake": 809,
      "aats": 810,
      "Ġhun": 811,
      "org": 812,
      "Ġverv": 813,
      "qu": 814,
      "innen": 815,
      "Ġinzake": 816,
      "leg": 817,
      "aire": 818,
      "Ġper": 819,
      "Ġlu": 820,
      "Ġcr": 821,
      "lening": 822,
      "Ġgegeven": 823,
      "Ġgeh": 824,
      "Ġ197": 825,
      "kening": 826,
      "Ġfinan": 827,
      "deren": 828,
      "Ġbr": 829,
      "plicht": 830,
      "ug": 831,
      "Ġprocedure": 832,
      "ees": 833,
      "Ġmiddel": 834,
      "Ġbepaalde": 835,
      "ert": 836,
      "Ġhoofd": 837,
      "iden": 838,
      "blad": 839,
      "Ġkosten": 840,
      "form": 841,
      "itie": 842,
      "Ġse": 843,
      "Ġgespeci": 844,
      "Ġbetrekking": 845,
      "Ġtoege": 846,
      "Ġvrij": 847,
      "ieren": 848,
      "lijke": 849,
      "baar": 850,
      "verlening": 851,
      "Ġland": 852,
      "reden": 853,
      "stelde": 854,
      "40": 855,
      "min": 856,
      "Ġaanv": 857,
      "atieblad": 858,
      "ac": 859,
      "Ġaut": 860,
      "aliseerde": 861,
      "iteiten": 862,
      "neer": 863,
      "Ġoor": 864,
      "Ġgew": 865,
      "richt": 866,
      "ust": 867,
      "ied": 868,
      "Ġwanneer": 869,
      "ering": 870,
      "Ġvaststelling": 871,
      "gem": 872,
      "zonder": 873,
      "Ġbloot": 874,
      "Ġlidstaat": 875,
      "ks": 876,
      "Ġgespecialiseerde": 877,
      "Ġhandel": 878,
      "Ġhoe": 879,
      "oop": 880,
      "Ġhouden": 881,
      "Ġkredietverlening": 882,
      "hou": 883,
      "Ġged": 884,
      "Ġ01": 885,
      "Ġbesliss": 886,
      "igheid": 887,
      "anden": 888,
      "Ġmaatregelen": 889,
      "geleg": 890,
      "Ġversch": 891,
      "spra": 892,
      "au": 893,
      "Ġ02": 894,
      "Ġbevoeg": 895,
      "Ġbinnen": 896,
      "Ġwat": 897,
      "Ġbasis": 898,
      "Ġsub": 899,
      "ving": 900,
      "Ġnationale": 901,
      "zet": 902,
      "eren": 903,
      "dat": 904,
      "Ġjur": 905,
      "Ġdec": 906,
      "wezen": 907,
      "are": 908,
      "Ġbepalingen": 909,
      "Ġbere": 910,
      "Ġto": 911,
      "oven": 912,
      "Ġoverwe": 913,
      "Ġadv": 914,
      "wijzig": 915,
      "Ġvolgende": 916,
      "Ġderde": 917,
      "rift": 918,
      "Ġoverwegende": 919,
      "Ġverzoekster": 920,
      "Ġim": 921,
      "Ġblootstellingen": 922,
      "Ġprij": 923,
      "Ġverwij": 924,
      "Ġtweede": 925,
      "Ġmede": 926,
      "Ġpar": 927,
      "Ġch": 928,
      "hal": 929,
      "stig": 930,
      "Ġkon": 931,
      "Ġpers": 932,
      "Ġzou": 933,
      "Ġplaats": 934,
      "ha": 935,
      "waarden": 936,
      "oon": 937,
      "schrij": 938,
      "Ġx": 939,
      "oren": 940,
      "za": 941,
      "Ġ40": 942,
      "delen": 943,
      "ceerde": 944,
      "ici": 945,
      "Ġbeoor": 946,
      "publ": 947,
      "und": 948,
      "stem": 949,
      "Ġcorp": 950,
      "over": 951,
      "middel": 952,
      "Ġgewijzig": 953,
      "Ġste": 954,
      "Ġeven": 955,
      "bij": 956,
      "Ġct": 957,
      "Ġ<": 958,
      "Ġjun": 959,
      "na": 960,
      "Ġgea": 961,
      "tegen": 962,
      "ging": 963,
      "Ġsl": 964,
      "Ġwelke": 965,
      "Ġverl": 966,
      "Ġkle": 967,
      "ill": 968,
      "ia": 969,
      "Ġbedoelde": 970,
      "Ġkg": 971,
      "Ġsamen": 972,
      "Ġhad": 973,
      "Ġro": 974,
      "Ġzin": 975,
      "ffen": 976,
      "Ġairb": 977,
      "mec": 978,
      "Ġgeavan": 979,
      "Ġkader": 980,
      "Ġgeavanceerde": 981,
      "Ġvorm": 982,
      "ciele": 983,
      "wer": 984,
      "Ġact": 985,
      "Ġgelet": 986,
      "Ġlidstaten": 987,
      "alen": 988,
      "Ġdecember": 989,
      "ds": 990,
      "Ġsmec": 991,
      "oef": 992,
      "aande": 993,
      "lement": 994,
      "digd": 995,
      "Ġuitge": 996,
      "Ġverplicht": 997,
      "Ġverg": 998,
      "Ġze": 999,
      "Ġverkl": 1000,
      "Ġ+": 1001,
      "Ġher": 1002,
      "amer": 1003,
      "ma": 1004,
      "Ġfeit": 1005,
      "Ġname": 1006,
      "Ġpo": 1007,
      "Ġgewijzigd": 1008,
      "Ġinst": 1009,
      "entie": 1010,
      "ud": 1011,
      "Ġkracht": 1012,
      "ss": 1013,
      "Ġbelast": 1014,
      "Ġverst": 1015,
      "Ġlaat": 1016,
      "Ġrechter": 1017,
      "Ġ85": 1018,
      "zo": 1019,
      "gelijke": 1020,
      "Ġzie": 1021,
      "Ġjuni": 1022,
      "Ġ33": 1023,
      "onden": 1024,
      "Ġne": 1025,
      "Ġwaarvan": 1026,
      "Ġgegevens": 1027,
      "Ġ35": 1028,
      "kelijk": 1029,
      "Ġger": 1030,
      "Ġander": 1031,
      "io": 1032,
      "Ġvertegen": 1033,
      "Ġ39": 1034,
      "yl": 1035,
      "ui": 1036,
      "eel": 1037,
      "Ġhoofde": 1038,
      "schrift": 1039,
      "enig": 1040,
      "Ġhij": 1041,
      "Ġfinanciele": 1042,
      "Ġvertegenwoor": 1043,
      "Ġbeslissing": 1044,
      "Ġsteun": 1045,
      "bare": 1046,
      "Ġbelang": 1047,
      "aard": 1048,
      "Ġkamer": 1049,
      "uw": 1050,
      "kende": 1051,
      "Ġbestreden": 1052,
      "Ġ32": 1053,
      "Ġvolgt": 1054,
      "centen": 1055,
      "Ġgoed": 1056,
      "Ġbedrag": 1057,
      "Ġ07": 1058,
      "pp": 1059,
      "vl": 1060,
      "Ġprodukten": 1061,
      "publiek": 1062,
      "Ġdou": 1063,
      "uli": 1064,
      "Ġ000": 1065,
      "ne": 1066,
      "Ġstellen": 1067,
      "Ġgemeenschapp": 1068,
      "icul": 1069,
      "Ġ99": 1070,
      "ting": 1071,
      "bre": 1072,
      "Ġinform": 1073,
      "wel": 1074,
      "slag": 1075,
      "Ġjuli": 1076,
      "mat": 1077,
      "insel": 1078,
      "Ġonderzoek": 1079,
      "Ġdouan": 1080,
      "br": 1081,
      "ger": 1082,
      "Ġalgem": 1083,
      "Ġbedoeld": 1084,
      "spron": 1085,
      "Ġartikelen": 1086,
      "Ġterm": 1087,
      "ning": 1088,
      "Ġoorspron": 1089,
      "Ġelke": 1090,
      "drij": 1091,
      "Ġ38": 1092,
      "gelegd": 1093,
      "olg": 1094,
      "Ġvoort": 1095,
      "conom": 1096,
      "30": 1097,
      "inden": 1098,
      "kte": 1099,
      "ite": 1100,
      "produ": 1101,
      "genomen": 1102,
      "mb": 1103,
      "Ġjaar": 1104,
      "Ġit": 1105,
      "umenten": 1106,
      "zelf": 1107,
      "Ġzonder": 1108,
      "Ġstel": 1109,
      "oemde": 1110,
      "Ġparticul": 1111,
      "aring": 1112,
      "Ġautor": 1113,
      "Ġwer": 1114,
      "ide": 1115,
      "spraak": 1116,
      "Ġregeling": 1117,
      "Ġspeci": 1118,
      "Ġ36": 1119,
      "ijst": 1120,
      "Ġ37": 1121,
      "Ġtar": 1122,
      "eriode": 1123,
      "Ġvoer": 1124,
      "Ġdoel": 1125,
      "yp": 1126,
      "cent": 1127,
      "Ġeconom": 1128,
      "Ġvraag": 1129,
      "Ġinformatie": 1130,
      "Ġru": 1131,
      "ootschap": 1132,
      "sc": 1133,
      "Ġpublic": 1134,
      "han": 1135,
      "Ġontvan": 1136,
      "Ġkrachtens": 1137,
      "Ġ010": 1138,
      "Ġeigen": 1139,
      "komen": 1140,
      "Ġ95": 1141,
      "order": 1142,
      "vol": 1143,
      "krijk": 1144,
      "Ġvenn": 1145,
      "Ġ91": 1146,
      "chter": 1147,
      "ctie": 1148,
      "dragen": 1149,
      "Ġapr": 1150,
      "bo": 1151,
      "aut": 1152,
      "Ġvoorwaarden": 1153,
      "Ġvoorzien": 1154,
      "aties": 1155,
      "veel": 1156,
      "Ġproducten": 1157,
      "stree": 1158,
      "ragen": 1159,
      "Ġverband": 1160,
      "Ġvennootschap": 1161,
      "ober": 1162,
      "Ġ75": 1163,
      "Ġnl": 1164,
      "Ġjan": 1165,
      "Ġokt": 1166,
      "Ġgesch": 1167,
      "Ġtij": 1168,
      "Ġboven": 1169,
      "Ġwerking": 1170,
      "Ġoktober": 1171,
      "iteri": 1172,
      "Ġpunten": 1173,
      "verk": 1174,
      "Ġwijzig": 1175,
      "Ġ34": 1176,
      "Ġmaar": 1177,
      "Ġheff": 1178,
      "aakt": 1179,
      "Ġ92": 1180,
      "Ġenk": 1181,
      "zelfde": 1182,
      "Ġfran": 1183,
      "merk": 1184,
      "ade": 1185,
      "Ġfe": 1186,
      "Ġval": 1187,
      "Ġwaren": 1188,
      "bouw": 1189,
      "ijf": 1190,
      "oten": 1191,
      "Ġvl": 1192,
      "Ġdient": 1193,
      "Ġ84": 1194,
      "Ġ2009": 1195,
      "engen": 1196,
      "clus": 1197,
      "wal": 1198,
      "Ġ08": 1199,
      "oed": 1200,
      "onen": 1201,
      "zeker": 1202,
      "Ġbetreft": 1203,
      "Ġ80": 1204,
      "zit": 1205,
      "deeld": 1206,
      "eek": 1207,
      "Ġnieu": 1208,
      "Ġdergelijke": 1209,
      "Ġgoederen": 1210,
      "rie": 1211,
      "Ġvoldo": 1212,
      "Ġkleine": 1213,
      "Ġkenn": 1214,
      "Ġlanden": 1215,
      "Ġwerd": 1216,
      "fin": 1217,
      "ind": 1218,
      "Ġmaart": 1219,
      "Ġpublicatieblad": 1220,
      "voerd": 1221,
      "Ġ60": 1222,
      "ateg": 1223,
      "Ġve": 1224,
      "eling": 1225,
      "Ġwaarin": 1226,
      "Ġbescher": 1227,
      "Ġrechts": 1228,
      "Ġoorsprong": 1229,
      "uari": 1230,
      "Ġrekening": 1231,
      "gr": 1232,
      "Ġverenig": 1233,
      "Ġervan": 1234,
      "Ġind": 1235,
      "ene": 1236,
      "uiten": 1237,
      "ĠÂ": 1238,
      "atieve": 1239,
      "ure": 1240,
      "istr": 1241,
      "Ġhoudende": 1242,
      "ard": 1243,
      "Ġ70": 1244,
      "Ġblijk": 1245,
      "Ġrepubliek": 1246,
      "Ġjanuari": 1247,
      "ood": 1248,
      "werk": 1249,
      "diging": 1250,
      "Ġparticulieren": 1251,
      "itut": 1252,
      "Ġcontro": 1253,
      "Ġfirb": 1254,
      "Ġ2001": 1255,
      "Ġbelasting": 1256,
      "86": 1257,
      "Ġ2006": 1258,
      "Ġ2003": 1259,
      "Ġmogelijk": 1260,
      "Ġsect": 1261,
      "Ġcriteri": 1262,
      "zon": 1263,
      "50": 1264,
      "drijf": 1265,
      "Ġstaten": 1266,
      "past": 1267,
      "Ġ0106": 1268,
      "ir": 1269,
      "Ġwaarde": 1270,
      "orie": 1271,
      "Ġ93": 1272,
      "Ġmei": 1273,
      "Ġ41": 1274,
      "Ġcommun": 1275,
      "ip": 1276,
      "ertific": 1277,
      "weg": 1278,
      "lecht": 1279,
      "iciele": 1280,
      "Ġrechtstree": 1281,
      "Ġnov": 1282,
      "Ġjuris": 1283,
      "Ġgewicht": 1284,
      "21": 1285,
      "keur": 1286,
      "orte": 1287,
      "je": 1288,
      "Ġ96": 1289,
      "organ": 1290,
      "Ġduit": 1291,
      "Ġthe": 1292,
      "Ġ94": 1293,
      "wijs": 1294,
      "val": 1295,
      "Ġ87": 1296,
      "age": 1297,
      "andeling": 1298,
      "gestelde": 1299,
      "ces": 1300,
      "gang": 1301,
      "Ġopen": 1302,
      "erende": 1303,
      "schrijving": 1304,
      "Ġco": 1305,
      "Ġgele": 1306,
      "Ġoverige": 1307,
      "Ġaant": 1308,
      "iding": 1309,
      "Ġ71": 1310,
      "Ġcons": 1311,
      "Ġ04": 1312,
      "Ġhoeveel": 1313,
      "Ġeuropees": 1314,
      "oord": 1315,
      "inea": 1316,
      "Ġsept": 1317,
      "offen": 1318,
      "ate": 1319,
      "Ġant": 1320,
      "ank": 1321,
      "Ġparlement": 1322,
      "Ġspecif": 1323,
      "Ġgek": 1324,
      "Ġdus": 1325,
      "Ġmon": 1326,
      "reven": 1327,
      "Ġgeld": 1328,
      "zicht": 1329,
      "Ġalinea": 1330,
      "Ġadvoc": 1331,
      "Ġseptember": 1332,
      "Ġeconomische": 1333,
      "Ġwaarop": 1334,
      "Ġpost": 1335,
      "Ġ2013": 1336,
      "Ġ43": 1337,
      "Ġ2004": 1338,
      "bru": 1339,
      "Ġ42": 1340,
      "Ġomstand": 1341,
      "ieke": 1342,
      "Ġrest": 1343,
      "ategorie": 1344,
      "Ġwaarbij": 1345,
      "ument": 1346,
      "Ġnovember": 1347,
      "Ġapril": 1348,
      "heids": 1349,
      "Ġ73": 1350,
      "Ġarg": 1351,
      "Ġzeker": 1352,
      "Ġhand": 1353,
      "Ġgebruikt": 1354,
      "Ġbeginsel": 1355,
      "iker": 1356,
      "Ġtijd": 1357,
      "Ġcode": 1358,
      "Ġ2002": 1359,
      "eng": 1360,
      "res": 1361,
      "sluit": 1362,
      "Ġtermijn": 1363,
      "Ġ44": 1364,
      "stemming": 1365,
      "Ġsy": 1366,
      "Ġaangezien": 1367,
      "Ġactiv": 1368,
      "Ġgez": 1369,
      "Ġvermeld": 1370,
      "Ġkonin": 1371,
      "Ġzelf": 1372,
      "Ġ61": 1373,
      "Ġbevoegd": 1374,
      "Ġor": 1375,
      "Ġslecht": 1376,
      "vat": 1377,
      "fer": 1378,
      "Ġ2008": 1379,
      "itu": 1380,
      "igheden": 1381,
      "Ġbepaald": 1382,
      "Ġingedien": 1383,
      "Ġverricht": 1384,
      "chn": 1385,
      "Ġ54": 1386,
      "tre": 1387,
      "Ġ45": 1388,
      "Ġdiensten": 1389,
      "Ġat": 1390,
      "Ġ97": 1391,
      "ett": 1392,
      "Ġdienst": 1393,
      "Ġital": 1394,
      "Ġ72": 1395,
      "Ġ2011": 1396,
      "Ġbeschik": 1397,
      "prij": 1398,
      "Ġbevat": 1399,
      "Ġbru": 1400,
      "jud": 1401,
      "Ġ1999": 1402,
      "Ġree": 1403,
      "Ġbepaling": 1404,
      "Ġsoor": 1405,
      "Ġ51": 1406,
      "middelen": 1407,
      "Ġaanzien": 1408,
      "Ġbestem": 1409,
      "Ġ03": 1410,
      "Ġ98": 1411,
      "Ġslechts": 1412,
      "Ġuitvoerings": 1413,
      "Ġverwijz": 1414,
      "els": 1415,
      "Ġ2000": 1416,
      "Ġmag": 1417,
      "mar": 1418,
      "Ġelk": 1419,
      "Ġprejud": 1420,
      "Ġcriteria": 1421,
      "Ġdaarvan": 1422,
      "Ġ05": 1423,
      "Ġlever": 1424,
      "Ġbedrijf": 1425,
      "Ġopge": 1426,
      "Ġgrote": 1427,
      "Ġ89": 1428,
      "co": 1429,
      "Ġverkoop": 1430,
      "Ġ52": 1431,
      "atuur": 1432,
      "Ġ48": 1433,
      "emen": 1434,
      "Ġnietig": 1435,
      "Ġfebru": 1436,
      "Ġdatum": 1437,
      "Ġvere": 1438,
      "Ġbeoordeling": 1439,
      "Ġfebruari": 1440,
      "verordening": 1441,
      "Ġ77": 1442,
      "Ġ68": 1443,
      "Ġrechtstreeks": 1444,
      "port": 1445,
      "Ġres": 1446,
      "Ġ79": 1447,
      "Ġ59": 1448,
      "rip": 1449,
      "Ġalgemene": 1450,
      "Ġkoninkrijk": 1451,
      "halve": 1452,
      "Ġaanm": 1453,
      "rect": 1454,
      "zocht": 1455,
      "Ġprejudiciele": 1456,
      "schriften": 1457,
      "Ġverstre": 1458,
      "legging": 1459,
      "Ġcc": 1460,
      "Ġda": 1461,
      "iel": 1462,
      "Ġ196": 1463,
      "Ġprijs": 1464,
      "vestig": 1465,
      "Ġ2007": 1466,
      "Ġhog": 1467,
      "Ġ76": 1468,
      "Ġ81": 1469,
      "Ġgenomen": 1470,
      "komsten": 1471,
      "Ġla": 1472,
      "Ġgesteld": 1473,
      "ram": 1474,
      "anen": 1475,
      "Ġfo": 1476,
      "Ġ67": 1477,
      "Ġ49": 1478,
      "Ġwijziging": 1479,
      "Ġpass": 1480,
      "Ġterug": 1481,
      "Ġschade": 1482,
      "Ġ88": 1483,
      "Ġrechten": 1484,
      "Ġlandbouw": 1485,
      "Ġec": 1486,
      "antwoor": 1487,
      "Ġingesteld": 1488,
      "Ġkennis": 1489,
      "Ġgenoemde": 1490,
      "Ġstat": 1491,
      "Ġsteek": 1492,
      "Ġnieuwe": 1493,
      "Ġbevoegde": 1494,
      "sters": 1495,
      "haal": 1496,
      "urg": 1497,
      "Ġsector": 1498,
      "ente": 1499,
      "Ġsteekpr": 1500,
      "Ġ55": 1501,
      "Ġ46": 1502,
      "antie": 1503,
      "Ġ53": 1504,
      "Ġintern": 1505,
      "Ġperiode": 1506,
      "Ġgemeenschappelijke": 1507,
      "Ġdoc": 1508,
      "Ġ2014": 1509,
      "Ġalleen": 1510,
      "Ġamb": 1511,
      "Ġgelijk": 1512,
      "inde": 1513,
      "Ġmot": 1514,
      "oeding": 1515,
      "Ġverzoe": 1516,
      "Ġjurispr": 1517,
      "Ġsuiker": 1518,
      "Ġsteekproef": 1519,
      "Ġ06": 1520,
      "Ġbuiten": 1521,
      "Ġton": 1522,
      "ders": 1523,
      "ult": 1524,
      "Ġrestitut": 1525,
      "Ġgemeenschaps": 1526,
      "werking": 1527,
      "gebied": 1528,
      "Ġreeds": 1529,
      "uele": 1530,
      "Ġnood": 1531,
      "01": 1532,
      "dus": 1533,
      "achtig": 1534,
      "sk": 1535,
      "Ġtoegepast": 1536,
      "raf": 1537,
      "dige": 1538,
      "Ġmiddelen": 1539,
      "Ġopgenomen": 1540,
      "tu": 1541,
      "Ġgedaan": 1542,
      "imum": 1543,
      "orteur": 1544,
      "spro": 1545,
      "beg": 1546,
      "Ġonderneming": 1547,
      "Ġ56": 1548,
      "ministr": 1549,
      "Ġconclus": 1550,
      "Ġpublik": 1551,
      "mede": 1552,
      "Ġvennootschappen": 1553,
      "Ġ2012": 1554,
      "dens": 1555,
      "gaande": 1556,
      "Ġderhalve": 1557,
      "Ġ57": 1558,
      "stuk": 1559,
      "Ġminder": 1560,
      "geving": 1561,
      "Ġcommunaut": 1562,
      "Ġpa": 1563,
      "Ġprijzen": 1564,
      "dent": 1565,
      "Ġ78": 1566,
      "Ġtechn": 1567,
      "ive": 1568,
      "Ġfor": 1569,
      "Ġhoog": 1570,
      "Ġmax": 1571,
      "sper": 1572,
      "Ġ86": 1573,
      "Ġet": 1574,
      "Ġdezelfde": 1575,
      "ening": 1576,
      "Ġneder": 1577,
      "zij": 1578,
      "Ġschen": 1579,
      "Ġstelt": 1580,
      "Ġvert": 1581,
      "ga": 1582,
      "ieden": 1583,
      "Ġ47": 1584,
      "Ġstand": 1585,
      "Ġinbre": 1586,
      "ete": 1587,
      "94": 1588,
      "merkt": 1589,
      "hav": 1590,
      "Ġmee": 1591,
      "Ġingediend": 1592,
      "Ġaanmerking": 1593,
      "organis": 1594,
      "Ġ74": 1595,
      "oek": 1596,
      "waarde": 1597,
      "Ġpublikatieblad": 1598,
      "Ġgemaakt": 1599,
      "Ġmaken": 1600,
      "houd": 1601,
      "Ġfound": 1602,
      "Ġaantal": 1603,
      "Ġfoundation": 1604,
      "Ġlucht": 1605,
      "spect": 1606,
      "Ġ65": 1607,
      "Ġvastgestelde": 1608,
      "Ġqu": 1609,
      "oci": 1610,
      "Ġblijkt": 1611,
      "neming": 1612,
      "Ġaldus": 1613,
      "Ġ69": 1614,
      "Ġbeper": 1615,
      "men": 1616,
      "Ġalsmede": 1617,
      "Ġgener": 1618,
      "Ġonderhav": 1619,
      "od": 1620,
      "Ġwijze": 1621,
      "Ġ040": 1622,
      "Ġnemen": 1623,
      "vent": 1624,
      "sland": 1625,
      "Ġhierna": 1626,
      "Ġiii": 1627,
      "nemers": 1628,
      "ject": 1629,
      "Ġbekend": 1630,
      "chten": 1631,
      "Ġomstandigheden": 1632,
      "Ġuitzonder": 1633,
      "vens": 1634,
      "Ġtijdens": 1635,
      "Ġmat": 1636,
      "Ġrechtspraak": 1637,
      "Ġreden": 1638,
      "Ġleden": 1639,
      "Ġonderhavige": 1640,
      "Ġvolle": 1641,
      "ell": 1642,
      "Ġsitu": 1643,
      "Ġdouane": 1644,
      "zijd": 1645,
      "Ġ09": 1646,
      "ssel": 1647,
      "Ġonderdelen": 1648,
      "Ġcategorie": 1649,
      "Ġu": 1650,
      "Ġmil": 1651,
      "Ġgemachtig": 1652,
      "Ġgebied": 1653,
      "Ġdefin": 1654,
      "ium": 1655,
      "Ġpol": 1656,
      "Ġuitvoering": 1657,
      "Ġele": 1658,
      "Ġ58": 1659,
      "Ġid": 1660,
      "Ġautoriteiten": 1661,
      "Ġhou": 1662,
      "oog": 1663,
      "Ġie": 1664,
      "Ġnog": 1665,
      "toe": 1666,
      "abel": 1667,
      "Ġ66": 1668,
      "Ġkl": 1669,
      "Ġ2005": 1670,
      "Ġdag": 1671,
      "Ġnorm": 1672,
      "Ġgelden": 1673,
      "overeen": 1674,
      "ping": 1675,
      "eur": 1676,
      "ull": 1677,
      "all": 1678,
      "Ġhoofdstuk": 1679,
      "Ġ?": 1680,
      "ract": 1681,
      "Ġadvocaat": 1682,
      "Ġ2015": 1683,
      "Ġgewichtsper": 1684,
      "02": 1685,
      "Ġbrussel": 1686,
      "Ġgehouden": 1687,
      "Ġadministr": 1688,
      "air": 1689,
      "Ġac": 1690,
      "Ġ62": 1691,
      "Ġ0086": 1692,
      "inst": 1693,
      "beid": 1694,
      "isc": 1695,
      "Ġoverweg": 1696,
      "Ġ83": 1697,
      "Ġproce": 1698,
      "Ġenkel": 1699,
      "Ġ2016": 1700,
      "Ġcas": 1701,
      "ii": 1702,
      "Ġmerk": 1703,
      "Ġzover": 1704,
      "elk": 1705,
      "staan": 1706,
      "steem": 1707,
      "Ġ82": 1708,
      "verkl": 1709,
      "per": 1710,
      "orpen": 1711,
      "Ġâī": 1712,
      "Ġhoofdge": 1713,
      "com": 1714,
      "Ġschending": 1715,
      "Ġgezien": 1716,
      "aanse": 1717,
      "gebre": 1718,
      "Ġbehandeling": 1719,
      "schreven": 1720,
      "Ġmer": 1721,
      "oegd": 1722,
      "Ġbijzon": 1723,
      "rouw": 1724,
      "Ġgehe": 1725,
      "elevan": 1726,
      "Ġ2010": 1727,
      "Ġbijzondere": 1728,
      "Ġhu": 1729,
      "Ġaangehaal": 1730,
      "Ġpr": 1731,
      "Ġproducenten": 1732,
      "delijke": 1733,
      "Ġverleen": 1734,
      "ordering": 1735,
      "Ġwett": 1736,
      "Ġcertific": 1737,
      "Ġspecifieke": 1738,
      "Ġovereenstemming": 1739,
      "Ġvier": 1740,
      "Ġlijst": 1741,
      "Ġinternation": 1742,
      "sloten": 1743,
      "Ġ2017": 1744,
      "Ġarbeid": 1745,
      "Ġvertegenwoordigd": 1746,
      "Ġvertegenwoordig": 1747,
      "erde": 1748,
      "zakelijk": 1749,
      "Ġmededing": 1750,
      "Ġken": 1751,
      "dru": 1752,
      "verklaring": 1753,
      "Ġgevolg": 1754,
      "Ġbeschouw": 1755,
      "Ġbewijs": 1756,
      "Ġnederland": 1757,
      "Ġuitsluit": 1758,
      "richting": 1759,
      "Ġbedragen": 1760,
      "Ġ64": 1761,
      "Ġ63": 1762,
      "illende": 1763,
      "mers": 1764,
      "Ġwil": 1765,
      "Ġmoe": 1766,
      "Ġverzoeksters": 1767,
      "Ġverschillende": 1768,
      "Ġvervaar": 1769,
      "derd": 1770,
      "man": 1771,
      "Ġelekt": 1772,
      "Ġlc": 1773,
      "Ġdes": 1774,
      "cont": 1775,
      "Ġbescherming": 1776,
      "Ġhoofdgeding": 1777,
      "Ġinbreuk": 1778,
      "its": 1779,
      "Ġcomite": 1780,
      "burg": 1781,
      "stelijk": 1782,
      "Ġbeheer": 1783,
      "Ġverh": 1784,
      "zijds": 1785,
      "dan": 1786,
      "Ġzal": 1787,
      "Ġechter": 1788,
      "Ġjust": 1789,
      "Ġâī¤": 1790,
      "Ġbovendien": 1791,
      "Ġconc": 1792,
      "daan": 1793,
      "Ġrelevan": 1794,
      "Ġverzeker": 1795,
      "iver": 1796,
      "Ġol": 1797,
      "wijz": 1798,
      "Ġmeth": 1799,
      "Ġtoegev": 1800,
      "Ġwaarvoor": 1801,
      "Ġheffing": 1802,
      "ruct": 1803,
      "Ġko": 1804,
      "Ġnam": 1805,
      "Ġonge": 1806,
      "Ġand": 1807,
      "Ġaard": 1808,
      "11": 1809,
      "Ġhem": 1810,
      "gi": 1811,
      "iere": 1812,
      "Ġden": 1813,
      "Ġcommunautaire": 1814,
      "Ġvragen": 1815,
      "Ġjurid": 1816,
      "sh": 1817,
      "Ġregering": 1818,
      "Ġargumenten": 1819,
      "08": 1820,
      "Ġverzoeker": 1821,
      "houden": 1822,
      "eleid": 1823,
      "ositie": 1824,
      "ummer": 1825,
      "porteur": 1826,
      "Ġdoch": 1827,
      "Ġrapp": 1828,
      "vis": 1829,
      "Ġsituatie": 1830,
      "elen": 1831,
      "Ġgevol": 1832,
      "Ġpersonen": 1833,
      "Ġvoorschriften": 1834,
      "Ġgranen": 1835,
      "Ġomdat": 1836,
      "Ġpersoon": 1837,
      "waliteit": 1838,
      "99": 1839,
      "pens": 1840,
      "umping": 1841,
      "Ġambten": 1842,
      "Ġuitgelegd": 1843,
      "oge": 1844,
      "xt": 1845,
      "Ġadvies": 1846,
      "schapp": 1847,
      "ister": 1848,
      "mon": 1849,
      "gram": 1850,
      "erend": 1851,
      "gaan": 1852,
      "Ġontwikk": 1853,
      "Ġkomen": 1854,
      "sche": 1855,
      "reedt": 1856,
      "Ġener": 1857,
      "gie": 1858,
      "unning": 1859,
      "ieve": 1860,
      "Ġnodig": 1861,
      "Ġsoort": 1862,
      "Ġdrie": 1863,
      "Ġlaatstelijk": 1864,
      "Ġint": 1865,
      "mak": 1866,
      "bep": 1867,
      "Ġduitsland": 1868,
      "prijs": 1869,
      "regen": 1870,
      "Ġgewichtspercenten": 1871,
      "idt": 1872,
      "Ġtoepasselijk": 1873,
      "ureau": 1874,
      "Ġonver": 1875,
      "Ġbez": 1876,
      "open": 1877,
      "vangen": 1878,
      "09": 1879,
      "Ġth": 1880,
      "Ġlit": 1881,
      "Ġbestuur": 1882,
      "05": 1883,
      "Ġcontrole": 1884,
      "Ġha": 1885,
      "Ġcent": 1886,
      "grond": 1887,
      "hang": 1888,
      "zaam": 1889,
      "brengen": 1890,
      "werp": 1891,
      "Ġwegens": 1892,
      "Ġverplichtingen": 1893,
      "Ġproces": 1894,
      "Ġverschil": 1895,
      "cier": 1896,
      "oepen": 1897,
      "staal": 1898,
      "Ġsa": 1899,
      "kten": 1900,
      "Ġverwer": 1901,
      "Ġuitzondering": 1902,
      "ident": 1903,
      "ukken": 1904,
      "04": 1905,
      "dust": 1906,
      "ĠâĢľ": 1907,
      "iveau": 1908,
      "Ġinstellingen": 1909,
      "ikt": 1910,
      "Ġverlen": 1911,
      "les": 1912,
      "Ġport": 1913,
      "Ġgestelde": 1914,
      "Ġvoertu": 1915,
      "rechten": 1916,
      "lu": 1917,
      "Ġevenwel": 1918,
      "Ġgeneraal": 1919,
      "gehal": 1920,
      "Ġvergelijk": 1921,
      "Ġoog": 1922,
      "Ġproductie": 1923,
      "steun": 1924,
      "int": 1925,
      "Ġhandels": 1926,
      "Ġeff": 1927,
      "vloe": 1928,
      "Î±": 1929,
      "mee": 1930,
      "Ġverbinden": 1931,
      "Ġleg": 1932,
      "Ġgebracht": 1933,
      "Ġdier": 1934,
      "enen": 1935,
      "Ġtreedt": 1936,
      "Ġform": 1937,
      "Ġ1995": 1938,
      "Ġmaan": 1939,
      "met": 1940,
      "Ġvooraf": 1941,
      "voerde": 1942,
      "Ġjustitie": 1943,
      "ude": 1944,
      "punt": 1945,
      "Ġman": 1946,
      "Ġspan": 1947,
      "Ġdelen": 1948,
      "07": 1949,
      "stof": 1950,
      "Ġnietigverklaring": 1951,
      "Ġ2018": 1952,
      "Ġmateri": 1953,
      "Ġ1998": 1954,
      "Ġecu": 1955,
      "Ġbijgev": 1956,
      "Ġtri": 1957,
      "Ġnoodzakelijk": 1958,
      "agen": 1959,
      "Ġrefer": 1960,
      "Ġrisico": 1961,
      "cy": 1962,
      "Ġfun": 1963,
      "stoffen": 1964,
      "Ġmogen": 1965,
      "bes": 1966,
      "Ġlux": 1967,
      "fte": 1968,
      "Ġpagebre": 1969,
      "Ġpagebreak": 1970,
      "31": 1971,
      "woord": 1972,
      "Ġviss": 1973,
      "Ġ1992": 1974,
      "overeenkomst": 1975,
      "cten": 1976,
      "Ġaanvull": 1977,
      "Ġtarief": 1978,
      "leiding": 1979,
      "Ġwerden": 1980,
      "oden": 1981,
      "Ġaug": 1982,
      "orgen": 1983,
      "Ġverwezen": 1984,
      "gehalte": 1985,
      "Ġopmerk": 1986,
      "ys": 1987,
      "Ġgedeel": 1988,
      "Ġtoegang": 1989,
      "Ġinstelling": 1990,
      "Ġlaatste": 1991,
      "Ġrestitutie": 1992,
      "vestigd": 1993,
      "licht": 1994,
      "Ġimmers": 1995,
      "Ġopmerkingen": 1996,
      "Î¿": 1997,
      "ementen": 1998,
      "Ġregels": 1999,
      "Ġdu": 2000,
      "urende": 2001,
      "vaart": 2002,
      "Ġonro": 2003,
      "Ġluxem": 2004,
      "Ġverweer": 2005,
      "Ġverenigd": 2006,
      "Ġnaam": 2007,
      "Ġsoci": 2008,
      "Ġvers": 2009,
      "gramma": 2010,
      "Ġ1994": 2011,
      "lacht": 2012,
      "Ġtabel": 2013,
      "Ġvervoer": 2014,
      "sid": 2015,
      "wi": 2016,
      "Ġbijgevolg": 2017,
      "Ġprocestaal": 2018,
      "ater": 2019,
      "Ġminste": 2020,
      "Ġfr": 2021,
      "Ġterecht": 2022,
      "Ġzes": 2023,
      "lop": 2024,
      "akk": 2025,
      "reding": 2026,
      "03": 2027,
      "bel": 2028,
      "Ġlt": 2029,
      "22": 2030,
      "Ġorganis": 2031,
      "Ġmarkten": 2032,
      "Ġaugust": 2033,
      "Ġoff": 2034,
      "Ġgebas": 2035,
      "Ġget": 2036,
      "nemer": 2037,
      "Ġuitvoeringsverordening": 2038,
      "Ġveil": 2039,
      "ta": 2040,
      "Ġcompens": 2041,
      "ina": 2042,
      "Ġcomp": 2043,
      "Ġwettelijke": 2044,
      "Ġverbindend": 2045,
      "Ġautoriteit": 2046,
      "eert": 2047,
      "Ġ1996": 2048,
      "Ġbijzonder": 2049,
      "ventie": 2050,
      "Ġheffingen": 2051,
      "Ġbestaan": 2052,
      "Ġbrengen": 2053,
      "Ġaugustus": 2054,
      "Ġdirect": 2055,
      "Ġgar": 2056,
      "regeling": 2057,
      "vaar": 2058,
      "Ġelement": 2059,
      "Ġvijf": 2060,
      "Ġtre": 2061,
      "Ġbepaalt": 2062,
      "etar": 2063,
      "Ġuitlegging": 2064,
      "Ġgrondgebied": 2065,
      "eten": 2066,
      "Ġkom": 2067,
      "Ġaangegeven": 2068,
      "Ġgecon": 2069,
      "Ġdienen": 2070,
      "Ġinschrijving": 2071,
      "inn": 2072,
      "Ġverkregen": 2073,
      "Ġspanje": 2074,
      "Ġtotale": 2075,
      "12": 2076,
      "Ġdel": 2077,
      "ullen": 2078,
      "ines": 2079,
      "Ġoprichting": 2080,
      "Ġverwijzende": 2081,
      "ment": 2082,
      "Ġgemeenschappelijk": 2083,
      "making": 2084,
      "Ġgroot": 2085,
      "Ġ2019": 2086,
      "iff": 2087,
      "Ġgeding": 2088,
      "Ġy": 2089,
      "Ġhoeveelheid": 2090,
      "06": 2091,
      "onds": 2092,
      "Ġmaanden": 2093,
      "Ġvermelde": 2094,
      "abr": 2095,
      "Ġverplichting": 2096,
      "13": 2097,
      "Ġitali": 2098,
      "ov": 2099,
      "oegde": 2100,
      "Ġhoeveelheden": 2101,
      "15": 2102,
      "bank": 2103,
      "Ġgevolgen": 2104,
      "Ġevent": 2105,
      "uld": 2106,
      "Ġgeldt": 2107,
      "Ġdoen": 2108,
      "ogen": 2109,
      "Ġzodat": 2110,
      "Ġverz": 2111,
      "gelegde": 2112,
      "Ġ1997": 2113,
      "Ġvoldoen": 2114,
      "Ġzekergesteld": 2115,
      "Ġeis": 2116,
      "ox": 2117,
      "Ġgedurende": 2118,
      "Ġtoet": 2119,
      "ificatie": 2120,
      "Ġverklaard": 2121,
      "Ġweer": 2122,
      "Ġonj": 2123,
      "Ġgn": 2124,
      "Ġab": 2125,
      "Ġvergoeding": 2126,
      "anten": 2127,
      "di": 2128,
      "igheids": 2129,
      "Ġdefinitie": 2130,
      "out": 2131,
      "Ġkw": 2132,
      "Ġ1993": 2133,
      "Ġonroerend": 2134,
      "Ġbrief": 2135,
      "Ġeffect": 2136,
      "Ġtechnische": 2137,
      "Ġgeven": 2138,
      "weu": 2139,
      "Ġuitsluitend": 2140,
      "Ġvweu": 2141,
      "assen": 2142,
      "Ġfeiten": 2143,
      "Ġredenen": 2144,
      "oemd": 2145,
      "Ġzaken": 2146,
      "Ġzw": 2147,
      "Ġbestaat": 2148,
      "Ġgede": 2149,
      "Ġcasu": 2150,
      "Ġtyp": 2151,
      "Ġontvankelijk": 2152,
      "Ġvanaf": 2153,
      "Ġhar": 2154,
      "Ġinstantie": 2155,
      "Ġconclusie": 2156,
      "worpen": 2157,
      "daar": 2158,
      "Ġdui": 2159,
      "Ġblij": 2160,
      "Ġident": 2161,
      "Ġverei": 2162,
      "Ġgeko": 2163,
      "Ġgeldbo": 2164,
      "Ġdocumenten": 2165,
      "Ġtarwe": 2166,
      "maatregelen": 2167,
      "ow": 2168,
      "iele": 2169,
      "Ġweg": 2170,
      "vang": 2171,
      "wijk": 2172,
      "olog": 2173,
      "Ġindust": 2174,
      "Ġenkele": 2175,
      "Ġbevoegdheid": 2176,
      "Ġmededeling": 2177,
      "Ġluxemburg": 2178,
      "geen": 2179,
      "Ġta": 2180,
      "Ġanders": 2181,
      "erij": 2182,
      "Ġmelk": 2183,
      "Ġvet": 2184,
      "Ġaanvullende": 2185,
      "Ġarbeids": 2186,
      "wijzing": 2187,
      "ctum": 2188,
      "repen": 2189,
      "Ġaanleg": 2190,
      "get": 2191,
      "Ġreglement": 2192,
      "dering": 2193,
      "uut": 2194,
      "Ġuitoef": 2195,
      "Ġspra": 2196,
      "Ġgebaseerd": 2197,
      "one": 2198,
      "Ġou": 2199,
      "fa": 2200,
      "Ġhogere": 2201,
      "Ġhyp": 2202,
      "uigen": 2203,
      "pres": 2204,
      "93": 2205,
      "Ġbegrip": 2206,
      "Ġberekening": 2207,
      "Ġberekend": 2208,
      "Ġvoorts": 2209,
      "Ġgemiddel": 2210,
      "Ġstrij": 2211,
      "Ġsubsid": 2212,
      "Ġaldaar": 2213,
      "Ġweten": 2214,
      "Ġaanvraag": 2215,
      "erland": 2216,
      "Ġbetaal": 2217,
      "Ġvierde": 2218,
      "Ġmaximum": 2219,
      "000": 2220,
      "Ġgaan": 2221,
      "Ġbeschouwd": 2222,
      "Ġverp": 2223,
      "sing": 2224,
      "staat": 2225,
      "Ġpres": 2226,
      "plo": 2227,
      "ocol": 2228,
      "Ġalgemeen": 2229,
      "Ġanal": 2230,
      "kenning": 2231,
      "apit": 2232,
      "Ġhetgeen": 2233,
      "Ġstelsel": 2234,
      "Ġwaarb": 2235,
      "hebb": 2236,
      "zitter": 2237,
      "gifte": 2238,
      "anties": 2239,
      "Ġzouden": 2240,
      "Ġrelevante": 2241,
      "stat": 2242,
      "Ġlang": 2243,
      "16": 2244,
      "bin": 2245,
      "atief": 2246,
      "dracht": 2247,
      "ĠÎ": 2248,
      "gever": 2249,
      "par": 2250,
      "producten": 2251,
      "Ġtr": 2252,
      "Ġvoorz": 2253,
      "Ġcol": 2254,
      "Ġhypot": 2255,
      "Ġvoorlop": 2256,
      "iqu": 2257,
      "Ġbehoe": 2258,
      "ulp": 2259,
      "door": 2260,
      "cr": 2261,
      "Ġvervangen": 2262,
      "Ġmotiver": 2263,
      "Ġtoezicht": 2264,
      "Ġvoorziening": 2265,
      "Ġtest": 2266,
      "ator": 2267,
      "Ġomschrijving": 2268,
      "Ġiv": 2269,
      "18": 2270,
      "Ġgeheel": 2271,
      "Ġstoffen": 2272,
      "Ġus": 2273,
      "Ġprot": 2274,
      "ije": 2275,
      "Ġrijst": 2276,
      "Ġonderbrengen": 2277,
      "Ġrechterlijke": 2278,
      "ein": 2279,
      "Ġvoortvloe": 2280,
      "Ġacht": 2281,
      "Ġam": 2282,
      "Ġnamelijk": 2283,
      "Ġbetaling": 2284,
      "th": 2285,
      "Ġslsc": 2286,
      "Ġsprake": 2287,
      "Ġgriff": 2288,
      "ont": 2289,
      "wijl": 2290,
      "Ġvoorzitter": 2291,
      "Ġfranse": 2292,
      "unstig": 2293,
      "Ġstof": 2294,
      "vraag": 2295,
      "ob": 2296,
      "Ġactiviteiten": 2297,
      "Ġpri": 2298,
      "Ġeind": 2299,
      "Ġinternationale": 2300,
      "Ġruim": 2301,
      "Ġverkeer": 2302,
      "Ġkar": 2303,
      "Ġzu": 2304,
      "aatschapp": 2305,
      "dom": 2306,
      "Ġuitgevoerd": 2307,
      "Ġkop": 2308,
      "Ġgroep": 2309,
      "Ġtek": 2310,
      "17": 2311,
      "Ġordening": 2312,
      "Ġverzoekende": 2313,
      "Ġdisc": 2314,
      "Ġonderzocht": 2315,
      "Ġgevallen": 2316,
      "boven": 2317,
      "vest": 2318,
      "pre": 2319,
      "ploit": 2320,
      "Ġ0094": 2321,
      "ung": 2322,
      "Ġgebruikte": 2323,
      "Ġbestemd": 2324,
      "reken": 2325,
      "Ġmaatregel": 2326,
      "wet": 2327,
      "Ġnot": 2328,
      "ieuze": 2329,
      "Ġvo": 2330,
      "Ġapp": 2331,
      "Ġvervaardiging": 2332,
      "Ġnet": 2333,
      "ib": 2334,
      "uren": 2335,
      "Ġvermin": 2336,
      "urr": 2337,
      "gar": 2338,
      "Ġcar": 2339,
      "hol": 2340,
      "Ġweig": 2341,
      "Ġas": 2342,
      "Ġwerknemers": 2343,
      "Ġgee": 2344,
      "Ġcontract": 2345,
      "uiste": 2346,
      "Ġwezen": 2347,
      "besl": 2348,
      "Ġnatuur": 2349,
      "Ġopenbare": 2350,
      "Ġnoch": 2351,
      "Ġtele": 2352,
      "Ġ&": 2353,
      "Ġontwikkeling": 2354,
      "bev": 2355,
      "Ġvaste": 2356,
      "Ġvervol": 2357,
      "Ġbegrepen": 2358,
      "Ġniveau": 2359,
      "Ġwijn": 2360,
      "houding": 2361,
      "Ġvergunning": 2362,
      "yd": 2363,
      "verg": 2364,
      "rale": 2365,
      "Ġvormen": 2366,
      "Ġwit": 2367,
      "Ġimport": 2368,
      "apitaal": 2369,
      "Ġem": 2370,
      "ose": 2371,
      "Ġteken": 2372,
      "14": 2373,
      "27": 2374,
      "Ġgaat": 2375,
      "Ġass": 2376,
      "delings": 2377,
      "Ġtoel": 2378,
      "Ġvoldaan": 2379,
      "Ġbestaande": 2380,
      "Ġprotocol": 2381,
      "Ġhoger": 2382,
      "Ġmogelijkheid": 2383,
      "Ġverleend": 2384,
      "Ġneer": 2385,
      "Ġuiter": 2386,
      "Ġadministratieve": 2387,
      "uist": 2388,
      "handel": 2389,
      "Ġmerken": 2390,
      "Ġondersche": 2391,
      "rechtelijke": 2392,
      "Ġgemiddelde": 2393,
      "Ġdictum": 2394,
      "Ġeinde": 2395,
      "stak": 2396,
      "Ġschap": 2397,
      "Ġherinn": 2398,
      "iging": 2399,
      "Ġvoorwaarde": 2400,
      "sn": 2401,
      "hans": 2402,
      "Ġzak": 2403,
      "Ġinterne": 2404,
      "itaire": 2405,
      "Ġomvat": 2406,
      "quit": 2407,
      "ice": 2408,
      "Ġbh": 2409,
      "Ġgedrag": 2410,
      "Ġau": 2411,
      "zitting": 2412,
      "ueel": 2413,
      "ins": 2414,
      "Ġhypothe": 2415,
      "Ġnett": 2416,
      "Ġag": 2417,
      "Ġvallen": 2418,
      "ans": 2419,
      "Ġgoedkeur": 2420,
      "Ġlicht": 2421,
      "Ġopgemerkt": 2422,
      "Ġsom": 2423,
      "Ġsol": 2424,
      "Ġreken": 2425,
      "Ġent": 2426,
      "Ġontvangen": 2427,
      "Ġ1991": 2428,
      "Ġprocedures": 2429,
      "gegeven": 2430,
      "landse": 2431,
      "beginsel": 2432,
      "markt": 2433,
      "tw": 2434,
      "Ĥ¬": 2435,
      "Ġexporteur": 2436,
      "kl": 2437,
      "Ġgeacht": 2438,
      "Ġduidelijk": 2439,
      "Ġnage": 2440,
      "Ġinterventie": 2441,
      "Ġovereenkomsten": 2442,
      "Ġafwijk": 2443,
      "eens": 2444,
      "ijen": 2445,
      "Ġonderzoe": 2446,
      "ĠâĤ¬": 2447,
      "Ġorde": 2448,
      "besch": 2449,
      "Ġil": 2450,
      "naam": 2451,
      "resten": 2452,
      "Ġverder": 2453,
      "Ġgemachtigden": 2454,
      "Ġfabr": 2455,
      "oeder": 2456,
      "Ġonrecht": 2457,
      "Ġverzocht": 2458,
      "Ġmed": 2459,
      "Ġstrijd": 2460,
      "bedrag": 2461,
      "Ġafgewezen": 2462,
      "Ġbis": 2463,
      "mogen": 2464,
      "Ġvia": 2465,
      "Ġlevens": 2466,
      "Ġsociale": 2467,
      "Ġbelanghebb": 2468,
      "Ġvoldoende": 2469,
      "sy": 2470,
      "oordeeld": 2471,
      "sels": 2472,
      "Ġ1990": 2473,
      "plaats": 2474,
      "Ġperson": 2475,
      "Ġarresten": 2476,
      "Ġsan": 2477,
      "Ġzowel": 2478,
      "Ġstre": 2479,
      "Ġcp": 2480,
      "Ġbedrijfstak": 2481,
      "Ġmotivering": 2482,
      "merken": 2483,
      "Ġvis": 2484,
      "19": 2485,
      "ling": 2486,
      "Ġuitspraak": 2487,
      "einde": 2488,
      "Ġkwaliteit": 2489,
      "rum": 2490,
      "Ġitaliaanse": 2491,
      "shof": 2492,
      "Ġ020": 2493,
      "Ġequit": 2494,
      "23": 2495,
      "rek": 2496,
      "Ġtra": 2497,
      "ivid": 2498,
      "erv": 2499,
      "baarheid": 2500,
      "Ġambtenaren": 2501,
      "Ġmodel": 2502,
      "Ġcertificaat": 2503,
      "Ġequity": 2504,
      "Ġoverwegingen": 2505,
      "gebracht": 2506,
      "Î¹": 2507,
      "ensio": 2508,
      "Ġvisserij": 2509,
      "Ġaty": 2510,
      "Ġbureau": 2511,
      "Ġbescherm": 2512,
      "issen": 2513,
      "Ġvi": 2514,
      "Ġhypotheken": 2515,
      "Ġwerkzaam": 2516,
      "Ġmcy": 2517,
      "Ġomzet": 2518,
      "Ġuitga": 2519,
      "Ġhierboven": 2520,
      "Ġduur": 2521,
      "Ġgereg": 2522,
      "az": 2523,
      "Ġindivid": 2524,
      "Ġbevatten": 2525,
      "Ġfact": 2526,
      "Ġext": 2527,
      "Ġvoertuig": 2528,
      "ore": 2529,
      "Ġexploit": 2530,
      "Ġresult": 2531,
      "Ġgl": 2532,
      "sprocedure": 2533,
      "Ġvolledig": 2534,
      "Ġreferentie": 2535,
      "vak": 2536,
      "Ġdom": 2537,
      "vatting": 2538,
      "Ġpubliek": 2539,
      "Ġlitig": 2540,
      "Ġ1987": 2541,
      "bepalingen": 2542,
      "Ġslot": 2543,
      "Ġdist": 2544,
      "Ġinbeg": 2545,
      "Ġonderdeel": 2546,
      "beh": 2547,
      "Ġconcurr": 2548,
      "raad": 2549,
      "Ġ2020": 2550,
      "Ġrek": 2551,
      "Ġgenoemd": 2552,
      "Ġverantwoor": 2553,
      "ande": 2554,
      "49": 2555,
      "Ġ0000": 2556,
      "ilie": 2557,
      "Ġbtw": 2558,
      "jes": 2559,
      "nemen": 2560,
      "Ġbepalen": 2561,
      "Ġverpakk": 2562,
      "Ġhoge": 2563,
      "iliteit": 2564,
      "Ġmm": 2565,
      "Ġ106": 2566,
      "Ġltd": 2567,
      "Ġhen": 2568,
      "isatie": 2569,
      "25": 2570,
      "etarief": 2571,
      "Ġstaats": 2572,
      "Ġminimum": 2573,
      "Ġlitigieuze": 2574,
      "kelijke": 2575,
      "Ġ1985": 2576,
      "Ġmededingings": 2577,
      "Ġrechtbank": 2578,
      "indt": 2579,
      "Ġmis": 2580,
      "Ġ1988": 2581,
      "Ġachter": 2582,
      "Ġhadden": 2583,
      "Ġterechtzitting": 2584,
      "matige": 2585,
      "Ġelementen": 2586,
      "Ġvoorkom": 2587,
      "olie": 2588,
      "Ġdaad": 2589,
      "Ġbekendmaking": 2590,
      "vo": 2591,
      "Ġbesluiten": 2592,
      "procedure": 2593,
      "gels": 2594,
      "Ġsysteem": 2595,
      "Ġbelgie": 2596,
      "34": 2597,
      "Ġminister": 2598,
      "Ġdouanetarief": 2599,
      "Ġzesde": 2600,
      "Ġelektr": 2601,
      "Ġnormale": 2602,
      "Ġgeldende": 2603,
      "Ġaangehaald": 2604,
      "Ġ1989": 2605,
      "Ġbete": 2606,
      "Ġfrankrijk": 2607,
      "gezet": 2608,
      "rimin": 2609,
      "oen": 2610,
      "Ġwater": 2611,
      "Ġoverheids": 2612,
      "Ġrekwi": 2613,
      "Ġeveneens": 2614,
      "Ġob": 2615,
      "Ġrekwiran": 2616,
      "Ġbeperkt": 2617,
      "Ġdieren": 2618,
      "Ġoordeel": 2619,
      "beeld": 2620,
      "angen": 2621,
      "Ġitalie": 2622,
      "Ġsk": 2623,
      "Ġzet": 2624,
      "Ġmilieu": 2625,
      "igd": 2626,
      "Ġtoegevoegd": 2627,
      "Ġstatuut": 2628,
      "Ġvern": 2629,
      "Ġaangehaalde": 2630,
      "Ġbew": 2631,
      "Ġuitdru": 2632,
      "Ġvordering": 2633,
      "Ġproject": 2634,
      "Ġpersoneel": 2635,
      "gericht": 2636,
      "77": 2637,
      "Ġluchtvaart": 2638,
      "ssier": 2639,
      "Ġgekozen": 2640,
      "Ġhandeling": 2641,
      "sa": 2642,
      "clude": 2643,
      "atte": 2644,
      "Ġvertegenwoordigers": 2645,
      "Ġverwerende": 2646,
      "Ġhandelingen": 2647,
      "eef": 2648,
      "Ġtype": 2649,
      "85": 2650,
      "Ġoverweging": 2651,
      "Ġtit": 2652,
      "aam": 2653,
      "oond": 2654,
      "Ġaanpass": 2655,
      "Ġtoegekend": 2656,
      "Ġstraf": 2657,
      "Ġpassen": 2658,
      "av": 2659,
      "emt": 2660,
      "ieken": 2661,
      "Ġverbonden": 2662,
      "Ġvervolgens": 2663,
      "Ġbhim": 2664,
      "Ġverstrekt": 2665,
      "Ġkol": 2666,
      "Ġdumping": 2667,
      "Ġgewezen": 2668,
      "Ġconclusies": 2669,
      "prijzen": 2670,
      "Ġinbegrip": 2671,
      "Ġdocument": 2672,
      "verkeer": 2673,
      "Ġprem": 2674,
      "Ġcentrale": 2675,
      "Ġpresident": 2676,
      "Ġsoorten": 2677,
      "ÏĦ": 2678,
      "arken": 2679,
      "Ġprogramma": 2680,
      "Ġgepl": 2681,
      "Ġbo": 2682,
      "spectie": 2683,
      "ase": 2684,
      "Ġvoeren": 2685,
      "Ġverwijzen": 2686,
      "Ġvoorlopige": 2687,
      "Ġkapitaal": 2688,
      "ordeningen": 2689,
      "33": 2690,
      "oogt": 2691,
      "asting": 2692,
      "24": 2693,
      "Ġsal": 2694,
      "Ġelementaire": 2695,
      "Ġuiteen": 2696,
      "Ġafval": 2697,
      "ica": 2698,
      "Ġvormt": 2699,
      "Ġgemeenschapsrecht": 2700,
      "ante": 2701,
      "Ġpra": 2702,
      "Ġaanhang": 2703,
      "Ġca": 2704,
      "uim": 2705,
      "Ġeisen": 2706,
      "60": 2707,
      "Ġaanspra": 2708,
      "Ġwetgeving": 2709,
      "Ġdaadwerk": 2710,
      "Ġoosten": 2711,
      "Ġonderworpen": 2712,
      "Ġfi": 2713,
      "Ġantwoord": 2714,
      "Ġterwijl": 2715,
      "Ġgesloten": 2716,
      "Ġargument": 2717,
      "Ġdru": 2718,
      "agt": 2719,
      "Ġtext": 2720,
      "74": 2721,
      "Ġvoornaam": 2722,
      "Ġverklaring": 2723,
      "certific": 2724,
      "Ġbeantwoor": 2725,
      "Ġkunst": 2726,
      "Ġgelijke": 2727,
      "Ġsmer": 2728,
      "Ġrij": 2729,
      "Ġverbl": 2730,
      "ktijk": 2731,
      "meel": 2732,
      "Ġdaarbij": 2733,
      "digde": 2734,
      "bie": 2735,
      "Ġmaand": 2736,
      "Ġonderling": 2737,
      "wijzen": 2738,
      "Ġonjuiste": 2739,
      "ĠÂ°": 2740,
      "Ġgb": 2741,
      "wicht": 2742,
      "Ġverklaren": 2743,
      "Ġinhoud": 2744,
      "heff": 2745,
      "Ġq": 2746,
      "struct": 2747,
      "maatschapp": 2748,
      "treding": 2749,
      "Ġveroor": 2750,
      "uig": 2751,
      "Ġanderzijds": 2752,
      "Ġbank": 2753,
      "osit": 2754,
      "45": 2755,
      "Ġvaart": 2756,
      "Ġintre": 2757,
      "Ġzodan": 2758,
      "Ġcl": 2759,
      "Ġmededinging": 2760,
      "Ġvoed": 2761,
      "Ġ1975": 2762,
      "centage": 2763,
      "ec": 2764,
      "Ġvrije": 2765,
      "akter": 2766,
      "Ġwerken": 2767,
      "Ġgebieden": 2768,
      "volgende": 2769,
      "Ġes": 2770,
      "Ġopt": 2771,
      "hyl": 2772,
      "genoemde": 2773,
      "Ġzijnde": 2774,
      "slagen": 2775,
      "Ġverzoekers": 2776,
      "Ġmaakt": 2777,
      "ider": 2778,
      "Ġvoortvloeien": 2779,
      "Ġbeoordelings": 2780,
      "Ġvoornaamste": 2781,
      "vorm": 2782,
      "Ġgeoordeeld": 2783,
      "ost": 2784,
      "produkten": 2785,
      "Ġvertrouw": 2786,
      "ancier": 2787,
      "Ġdaaronder": 2788,
      "ction": 2789,
      "Ġjuridische": 2790,
      "Ġerop": 2791,
      "cie": 2792,
      "ed": 2793,
      "Ġkomt": 2794,
      "Ġomschreven": 2795,
      "Ġschrift": 2796,
      "Ġbelangrijk": 2797,
      "ign": 2798,
      "35": 2799,
      "Ġern": 2800,
      "Ġaangemerkt": 2801,
      "29": 2802,
      "eu": 2803,
      "matig": 2804,
      "vester": 2805,
      "ondheid": 2806,
      "ensioen": 2807,
      "Ġvr": 2808,
      "Ġsh": 2809,
      "Ġgericht": 2810,
      "Ġbezwaar": 2811,
      "Ġvolledige": 2812,
      "eed": 2813,
      "fr": 2814,
      "vloed": 2815,
      "Ġgevestigd": 2816,
      "66": 2817,
      "urs": 2818,
      "chines": 2819,
      "Ġgeldboete": 2820,
      "ieven": 2821,
      "Ġquot": 2822,
      "boek": 2823,
      "ydro": 2824,
      "Ġzelfs": 2825,
      "Ġluidt": 2826,
      "Ġopzicht": 2827,
      "Ġleiden": 2828,
      "Ġposten": 2829,
      "Ġafgegeven": 2830,
      "ba": 2831,
      "Ġenerzijds": 2832,
      "Ġverordeningen": 2833,
      "ager": 2834,
      "Ġierland": 2835,
      "Ġgoedkeuring": 2836,
      "Ġblijven": 2837,
      "Ġdiscrimin": 2838,
      "Ġsn": 2839,
      "Ġban": 2840,
      "Ġvoorwerp": 2841,
      "Ġthans": 2842,
      "ograf": 2843,
      "betre": 2844,
      "Ġwerknemer": 2845,
      "Ġlevering": 2846,
      "positie": 2847,
      "Ġbehandel": 2848,
      "oort": 2849,
      "Ġchem": 2850,
      "Ġverrichten": 2851,
      "Ġnatuurlijke": 2852,
      "uitvoer": 2853,
      "Ġoostenrijk": 2854,
      "mbh": 2855,
      "rijgen": 2856,
      "volge": 2857,
      "Ġvoorkomen": 2858,
      "28": 2859,
      "Ġingevolge": 2860,
      "stukken": 2861,
      "ieuw": 2862,
      "Ġtotaal": 2863,
      "belasting": 2864,
      "Ġinvester": 2865,
      "Ġnad": 2866,
      "Ġactiva": 2867,
      "Ġtoegevoegde": 2868,
      "ique": 2869,
      "Ġkarakter": 2870,
      "Ġgrens": 2871,
      "gemaakt": 2872,
      "Ġwinst": 2873,
      "Ġaansprakelijk": 2874,
      "Ġgmbh": 2875,
      "Ġgemachtigde": 2876,
      "Ġbestemming": 2877,
      "Ġgedeelt": 2878,
      "38": 2879,
      "Ġboek": 2880,
      "Ġje": 2881,
      "Ġvereist": 2882,
      "hankelijk": 2883,
      "erkingen": 2884,
      "ptie": 2885,
      "Ġmens": 2886,
      "Ġzeg": 2887,
      "Ġstr": 2888,
      "draagt": 2889,
      "Ġrestituties": 2890,
      "Ġomvang": 2891,
      "asse": 2892,
      "Ġeuro": 2893,
      "eleinden": 2894,
      "Ġdefinitieve": 2895,
      "Ġinzonder": 2896,
      "Ġdaarom": 2897,
      "Ġbasisverordening": 2898,
      "Ġverwijzing": 2899,
      "Ġrapport": 2900,
      "Ġafdeling": 2901,
      "Ġmeng": 2902,
      "republiek": 2903,
      "diensten": 2904,
      "Ġvermogen": 2905,
      "sf": 2906,
      "Ġvii": 2907,
      "ook": 2908,
      "Ġstree": 2909,
      "Ġdro": 2910,
      "Ġlig": 2911,
      "Ġportug": 2912,
      "Ġvoorge": 2913,
      "mijn": 2914,
      "Ġmeel": 2915,
      "Ġgra": 2916,
      "Ġmotor": 2917,
      "pel": 2918,
      "Ġverwerking": 2919,
      "Ġ125": 2920,
      "Ġaanbe": 2921,
      "Ġaanget": 2922,
      "Ġinstanties": 2923,
      "Ġdagen": 2924,
      "Ġenige": 2925,
      "chte": 2926,
      "gst": 2927,
      "Ġtekst": 2928,
      "jaar": 2929,
      "Ġindiening": 2930,
      "kosten": 2931,
      "Ġhoogte": 2932,
      "Ð°": 2933,
      "Ġvlees": 2934,
      "Ġbeschikbaar": 2935,
      "bruik": 2936,
      "ori": 2937,
      "Ġzekerheid": 2938,
      "los": 2939,
      "Ġcontroles": 2940,
      "Ġkant": 2941,
      "90": 2942,
      "Ġvalt": 2943,
      "Ġteneinde": 2944,
      "ratie": 2945,
      "Ġinschrij": 2946,
      "Ġverniet": 2947,
      "ben": 2948,
      "stip": 2949,
      "Ġstandpunt": 2950,
      "Ġverzoeken": 2951,
      "Ġbur": 2952,
      "Ġnieuw": 2953,
      "hr": 2954,
      "Ġ1986": 2955,
      "Ġbre": 2956,
      "Ġaank": 2957,
      "Ġkenmerken": 2958,
      "Ġ2021": 2959,
      "Ġgries": 2960,
      "Ġnu": 2961,
      "sol": 2962,
      "her": 2963,
      "Ġmom": 2964,
      "Ġsamenwerking": 2965,
      "Ġinzonderheid": 2966,
      "Ġrechters": 2967,
      "Ġvor": 2968,
      "Ġduitse": 2969,
      "ane": 2970,
      "Ġgehal": 2971,
      "Ġhetzij": 2972,
      "Ġwaaronder": 2973,
      "44": 2974,
      "Ġeraan": 2975,
      "Ġleven": 2976,
      "Ġfa": 2977,
      "Ġberoeps": 2978,
      "Ġintrekking": 2979,
      "Ġgerechtshof": 2980,
      "Ġtijdstip": 2981,
      "Ġvijfde": 2982,
      "orr": 2983,
      "Ġvereiste": 2984,
      "Ġcy": 2985,
      "Ġbouw": 2986,
      "Ġafzonder": 2987,
      "Ġhal": 2988,
      "Ġbeteken": 2989,
      "izo": 2990,
      "Ġik": 2991,
      "va": 2992,
      "staande": 2993,
      "Ġbijstand": 2994,
      "Ġvertegenwoordiger": 2995,
      "Ġforfa": 2996,
      "Ġdragen": 2997,
      "Ġportugal": 2998,
      "walific": 2999,
      "Ġantid": 3000,
      "Ġap": 3001,
      "aliteit": 3002,
      "Ġtitel": 3003,
      "Ġbegunstig": 3004,
      "orde": 3005,
      "to": 3006,
      "zame": 3007,
      "Ġ101": 3008,
      "Ïģ": 3009,
      "Ġnak": 3010,
      "Ġgere": 3011,
      "wist": 3012,
      "80": 3013,
      "Ġopenbaar": 3014,
      "wiss": 3015,
      "aris": 3016,
      "Ġmaxim": 3017,
      "Ġmoment": 3018,
      "Ġonderver": 3019,
      "Ġantidumping": 3020,
      "unn": 3021,
      "Ġstukken": 3022,
      "Ġverantwoordelijk": 3023,
      "Ġtextiel": 3024,
      "Ġklacht": 3025,
      "Ġwaarborgen": 3026,
      "Ġplaat": 3027,
      "Ġdossier": 3028,
      "Ġbeginselen": 3029,
      "Ġharmon": 3030,
      "Ġsamengesteld": 3031,
      "cohol": 3032,
      "Ġmening": 3033,
      "Ġiedere": 3034,
      "Ġregion": 3035,
      "Ġingang": 3036,
      "ca": 3037,
      "Ġwereld": 3038,
      "gele": 3039,
      "rol": 3040,
      "Ġwie": 3041,
      "ucht": 3042,
      "Ġbeide": 3043,
      "Ġuitoefening": 3044,
      "Ġwijzigingen": 3045,
      "Ġmits": 3046,
      "Ġovergang": 3047,
      "Ġfinancier": 3048,
      "uss": 3049,
      "Ġdoelstellingen": 3050,
      "26": 3051,
      "Ġingevoerd": 3052,
      "name": 3053,
      "Ġtoepasselijke": 3054,
      "zaak": 3055,
      "Ġwerkzaamheden": 3056,
      "Ġadvocaten": 3057,
      "Ġertoe": 3058,
      "apac": 3059,
      "inten": 3060,
      "delingen": 3061,
      "Ġ104": 3062,
      "Ġcommer": 3063,
      "Ġextra": 3064,
      "36": 3065,
      "leden": 3066,
      "Ġmort": 3067,
      "Ġ1983": 3068,
      "Ġeigendom": 3069,
      "present": 3070,
      "Ġweder": 3071,
      "Ġverlenen": 3072,
      "Ġtur": 3073,
      "39": 3074,
      "Ġinacht": 3075,
      "Ġoppositie": 3076,
      "Ġhoogste": 3077,
      "ingent": 3078,
      "autor": 3079,
      "nieuw": 3080,
      "Ġgehalte": 3081,
      "Ġuiterlijk": 3082,
      "ity": 3083,
      "ong": 3084,
      "gent": 3085,
      "ue": 3086,
      "ĠÂ§": 3087,
      "ann": 3088,
      "37": 3089,
      "Ġtevens": 3090,
      "materi": 3091,
      "Ġbedraagt": 3092,
      "Ġverblijf": 3093,
      "Ġir": 3094,
      "gez": 3095,
      "Ġgeeft": 3096,
      "Ġeventuele": 3097,
      "vou": 3098,
      "up": 3099,
      "oers": 3100,
      "Ġnauw": 3101,
      "Ġli": 3102,
      "Ġwoon": 3103,
      "Ġinwerking": 3104,
      "Ġinachtneming": 3105,
      "put": 3106,
      "Ġkr": 3107,
      "Ġwijst": 3108,
      "Ġ1984": 3109,
      "enden": 3110,
      "Ġgenees": 3111,
      "Ġwaarmee": 3112,
      "wezig": 3113,
      "voeg": 3114,
      "Ġ500": 3115,
      "Ġaangevoerd": 3116,
      "Ġvak": 3117,
      "Ġingedeeld": 3118,
      "Ġkort": 3119,
      "Ġuitdrukk": 3120,
      "Ġsup": 3121,
      "Ġonderzoeken": 3122,
      "Ġmen": 3123,
      "Ġ1981": 3124,
      "voorwaarden": 3125,
      "Ġinvloed": 3126,
      "betreffende": 3127,
      "Ġeerst": 3128,
      "Ġgriffier": 3129,
      "haven": 3130,
      "att": 3131,
      "zuur": 3132,
      "Ġgoedge": 3133,
      "Ġ107": 3134,
      "vlees": 3135,
      "Ġnationaal": 3136,
      "Ġvoldoet": 3137,
      "Ġorganisatie": 3138,
      "Ġvoert": 3139,
      "Ġgoedgekeur": 3140,
      "ern": 3141,
      "yse": 3142,
      "ord": 3143,
      "elingen": 3144,
      "Ġ207": 3145,
      "Ġprp": 3146,
      "Ġvervatte": 3147,
      "58": 3148,
      "Ġmethode": 3149,
      "activ": 3150,
      "Ġdergelijk": 3151,
      "Ġaanleiding": 3152,
      "rumenten": 3153,
      "Ġdaartoe": 3154,
      "iezen": 3155,
      "Ġverzet": 3156,
      "ts": 3157,
      "Ġondersteun": 3158,
      "Ġvon": 3159,
      "Ġdw": 3160,
      "Ġslacht": 3161,
      "Ġkart": 3162,
      "oi": 3163,
      "apaciteit": 3164,
      "room": 3165,
      "Ġkolom": 3166,
      "Ġ\\": 3167,
      "Ġ120": 3168,
      "zeg": 3169,
      "Ġinwerkingtreding": 3170,
      "gd": 3171,
      "98": 3172,
      "Ġlijk": 3173,
      "Ġbetwist": 3174,
      "Ġgrondslag": 3175,
      "Ġzodanig": 3176,
      "verzeker": 3177,
      "Ġrepresent": 3178,
      "Îµ": 3179,
      "ffici": 3180,
      "Ġuitker": 3181,
      "Ġdesbetreffende": 3182,
      "dele": 3183,
      "Ð¸": 3184,
      "Ġonmiddel": 3185,
      "ierecht": 3186,
      "ute": 3187,
      "zer": 3188,
      "cties": 3189,
      "Ġzake": 3190,
      "Ġstaan": 3191,
      "Ġbezit": 3192,
      "lo": 3193,
      "mun": 3194,
      "Ġhetzelfde": 3195,
      "47": 3196,
      "Ġrol": 3197,
      "ner": 3198,
      "marge": 3199,
      "Ġproducent": 3200,
      "Ġtenuitvoer": 3201,
      "Ġverd": 3202,
      "Ġforfaitaire": 3203,
      "stige": 3204,
      "Ġtoekenning": 3205,
      "Ġ1977": 3206,
      "Ġobject": 3207,
      "utie": 3208,
      "ck": 3209,
      "ament": 3210,
      "Ġbrand": 3211,
      "Ġ1968": 3212,
      "duur": 3213,
      "Ġbetalen": 3214,
      "ay": 3215,
      "Ġgevaar": 3216,
      "omat": 3217,
      "Ġevenred": 3218,
      "rib": 3219,
      "Ġdk": 3220,
      "Ġgehele": 3221,
      "Ġnakom": 3222,
      "Ġmacht": 3223,
      "beleid": 3224,
      "Ġtem": 3225,
      "Ġlaten": 3226,
      "Ġhebbende": 3227,
      "des": 3228,
      "Ġharmonisatie": 3229,
      "Ġ1982": 3230,
      "lever": 3231,
      "itt": 3232,
      "stemen": 3233,
      "laag": 3234,
      "Ġbedrijfs": 3235,
      "Ġges": 3236,
      "Ġruwe": 3237,
      "iceerd": 3238,
      "voering": 3239,
      "Ġbetoogt": 3240,
      "Ġmate": 3241,
      "Ġonderte": 3242,
      "Ġopslag": 3243,
      "Ġ115": 3244,
      "Ġongeacht": 3245,
      "Ġfil": 3246,
      "speriode": 3247,
      "eringen": 3248,
      "Ġbehoren": 3249,
      "Ġonderscheiden": 3250,
      "drijven": 3251,
      "Ġverschul": 3252,
      "Ġsubsidi": 3253,
      "Ġindividuele": 3254,
      "ingsmiddelen": 3255,
      "Ġverenigde": 3256,
      "Ġlast": 3257,
      "zels": 3258,
      "Ġinlicht": 3259,
      "izoen": 3260,
      "Ġopzichte": 3261,
      "Î¿Ï": 3262,
      "ko": 3263,
      "Ġmaterialen": 3264,
      "Ġcompenserende": 3265,
      "fl": 3266,
      "Ġ300": 3267,
      "Ġoe": 3268,
      "yn": 3269,
      "Ġlevensmiddelen": 3270,
      "Ġvolks": 3271,
      "Ġzeggen": 3272,
      "Ġ136": 3273,
      "aad": 3274,
      "Ġ105": 3275,
      "Ġij": 3276,
      "Ġtran": 3277,
      "Ġrespectie": 3278,
      "velijk": 3279,
      "Ġaft": 3280,
      "chan": 3281,
      "Ġnodige": 3282,
      "cis": 3283,
      "besluit": 3284,
      "Ġaanvra": 3285,
      "Ġsta": 3286,
      "Ġtenuitvoerlegging": 3287,
      "Ġfeitelijke": 3288,
      "Ġherinnerd": 3289,
      "entiele": 3290,
      "Ġnummer": 3291,
      "Ġopgelegd": 3292,
      "Ġlen": 3293,
      "Ġsyn": 3294,
      "Ġpensioen": 3295,
      "Ġbelanghebbende": 3296,
      "ĠÃ": 3297,
      "Ġrust": 3298,
      "spl": 3299,
      "plic": 3300,
      "aatst": 3301,
      "orgaan": 3302,
      "erings": 3303,
      "Ġindustrie": 3304,
      "Ġbeschrij": 3305,
      "Ġgroenten": 3306,
      "46": 3307,
      "Ġplaatsv": 3308,
      "Ġdaarin": 3309,
      "uis": 3310,
      "Ġdienaan": 3311,
      "Ġverworpen": 3312,
      "Ġverbod": 3313,
      "Ġdienaangaande": 3314,
      "Ġzee": 3315,
      "Ġveiligheid": 3316,
      "Ġbelangen": 3317,
      "Ġpraktijk": 3318,
      "Ġ1976": 3319,
      "idingen": 3320,
      "Ġfruit": 3321,
      "56": 3322,
      "Ġzullen": 3323,
      "Ġrespectievelijk": 3324,
      "Ġappar": 3325,
      "Ġoverheid": 3326,
      "Ġaanbeste": 3327,
      "Ġloop": 3328,
      "Ġwaardoor": 3329,
      "dte": 3330,
      "Ġstaal": 3331,
      "ub": 3332,
      "etische": 3333,
      "Ġjuist": 3334,
      "Ġverzoekschrift": 3335,
      "Ġregistr": 3336,
      "Ġverstrekken": 3337,
      "Ġverbinten": 3338,
      "Ġpe": 3339,
      "Ġoper": 3340,
      "Ġvaststellen": 3341,
      "Ġlich": 3342,
      "bescher": 3343,
      "achte": 3344,
      "Ġsc": 3345,
      "Ġverschillen": 3346,
      "zijde": 3347,
      "dienst": 3348,
      "vaardigd": 3349,
      "Ġzeer": 3350,
      "Ġelektron": 3351,
      "Ġmunt": 3352,
      "Ġbed": 3353,
      "ient": 3354,
      "Ġvoorkomend": 3355,
      "Ġbeperkingen": 3356,
      "Ġverval": 3357,
      "Ġdefinit": 3358,
      "vervoer": 3359,
      "Ġdr": 3360,
      "Ġslotte": 3361,
      "Ġprest": 3362,
      "Ġfl": 3363,
      "Ġleggen": 3364,
      "mot": 3365,
      "icilie": 3366,
      "Ġjaarlijk": 3367,
      "Ġtoevoeg": 3368,
      "Ġfrans": 3369,
      "Ġvoorm": 3370,
      "nummer": 3371,
      "elden": 3372,
      "oopt": 3373,
      "95": 3374,
      "arm": 3375,
      "ipo": 3376,
      "Ġaanvaard": 3377,
      "Ġproduktie": 3378,
      "Ġchina": 3379,
      "Ġalcohol": 3380,
      "Ġbelg": 3381,
      "Ġ148": 3382,
      "Ġaandu": 3383,
      "Ġbeperking": 3384,
      "41": 3385,
      "Ġrx": 3386,
      "Ġrechtsp": 3387,
      "Ġvoorziet": 3388,
      "vordering": 3389,
      "veil": 3390,
      "Ġhuis": 3391,
      "Ġbestuurs": 3392,
      "ingsk": 3393,
      "Ġbevestigd": 3394,
      "70": 3395,
      "gegevens": 3396,
      "Ġburger": 3397,
      "Ġnakoming": 3398,
      "Ġconcent": 3399,
      "Ġfunction": 3400,
      "Ġef": 3401,
      "oere": 3402,
      "vrij": 3403,
      "Ġdaadwerkelijk": 3404,
      "oeffici": 3405,
      "Ġpap": 3406,
      "verd": 3407,
      "Ġomstandigheid": 3408,
      "Ġimporteur": 3409,
      "Ġstreep": 3410,
      "Ġvoorgaande": 3411,
      "Ġnederlandse": 3412,
      "Ġdomicilie": 3413,
      "oogd": 3414,
      "Ġinlichtingen": 3415,
      "sm": 3416,
      "ografische": 3417,
      "Ġgest": 3418,
      "code": 3419,
      "kse": 3420,
      "Ġkennisgeving": 3421,
      "Ġhoudt": 3422,
      "rectie": 3423,
      "Ġbelastingplicht": 3424,
      "Ġmeege": 3425,
      "aald": 3426,
      "indingen": 3427,
      "Î½": 3428,
      "Ġafkomst": 3429,
      "Ġberoepen": 3430,
      "Ġtijdvak": 3431,
      "dit": 3432,
      "aft": 3433,
      "Ġpas": 3434,
      "Ġbetaald": 3435,
      "Ġdirecteur": 3436,
      "zaken": 3437,
      "systeem": 3438,
      "Ġgeschonden": 3439,
      "Ġgoede": 3440,
      "Ġ400": 3441,
      "Ġeventueel": 3442,
      "Ġbijeen": 3443,
      "Ġwerkgever": 3444,
      "Ġambtenaar": 3445,
      "Ġverklaart": 3446,
      "Ġgeschil": 3447,
      "Ġ1979": 3448,
      "oeren": 3449,
      "Ġaanpassing": 3450,
      "Ġbestand": 3451,
      "ess": 3452,
      "ĠÐ": 3453,
      "Ġblad": 3454,
      "doende": 3455,
      "Ġ1510": 3456,
      "Ġstuk": 3457,
      "iedt": 3458,
      "Ġbijge": 3459,
      "53": 3460,
      "Ġbi": 3461,
      "Ġhr": 3462,
      "bon": 3463,
      "houdende": 3464,
      "Ġvrijstelling": 3465,
      "ionele": 3466,
      "Ġruimte": 3467,
      "icatie": 3468,
      "Ġeenheid": 3469,
      "Ġbot": 3470,
      "ei": 3471,
      "gebrachte": 3472,
      "Ġkin": 3473,
      "Ġeuipo": 3474,
      "Ġexporteurs": 3475,
      "57": 3476,
      "rom": 3477,
      "Ġgehoord": 3478,
      "Ġverslag": 3479,
      "Ġactiviteit": 3480,
      "Ġgedeelte": 3481,
      "Ġopnieuw": 3482,
      "istre": 3483,
      "Ġsi": 3484,
      "Ġleidt": 3485,
      "Ġtoegestaan": 3486,
      "ulf": 3487,
      "Î·": 3488,
      "Ġgemeenschapsmerk": 3489,
      "54": 3490,
      "Ġuitgaven": 3491,
      "Â°": 3492,
      "Ġcf": 3493,
      "Ġtenzij": 3494,
      "Ġrel": 3495,
      "Ġonaf": 3496,
      "Ġaangetoond": 3497,
      "Ġrente": 3498,
      "Ġpercentage": 3499,
      "Ġwaaraan": 3500,
      "Ġmais": 3501,
      "Ġveel": 3502,
      "Ġvoorstel": 3503,
      "bureau": 3504,
      "eenheden": 3505,
      "Ġbonds": 3506,
      "ler": 3507,
      "ĠâĢĺ": 3508,
      "Ġnadat": 3509,
      "Ġverweerster": 3510,
      "Ġdiscriminatie": 3511,
      "bracht": 3512,
      "ĠÏ": 3513,
      "omencl": 3514,
      "Ġ108": 3515,
      "Ġinterven": 3516,
      "Ġbeschikt": 3517,
      "dam": 3518,
      "Ġcorrect": 3519,
      "Ġdraag": 3520,
      "ivel": 3521,
      "Ġunierecht": 3522,
      "Ġuur": 3523,
      "Ġhol": 3524,
      "digheid": 3525,
      "Ġgelegen": 3526,
      "Ġmr": 3527,
      "Ġuitvoeringsbepalingen": 3528,
      "Ġzorgen": 3529,
      "Ġongev": 3530,
      "ikte": 3531,
      "Ġ030": 3532,
      "werkt": 3533,
      "Ġ112": 3534,
      "drage": 3535,
      "Ġlos": 3536,
      "Ġfabrik": 3537,
      "Ġconsument": 3538,
      "Ġts": 3539,
      "rem": 3540,
      "Ġbar": 3541,
      "ogelijk": 3542,
      "pe": 3543,
      "68": 3544,
      "Ġingevoerde": 3545,
      "32": 3546,
      "Ġassoci": 3547,
      "Ġkool": 3548,
      "ctor": 3549,
      "omenclatuur": 3550,
      "Ġexport": 3551,
      "Ġcn": 3552,
      "Ġverkoopse": 3553,
      "59": 3554,
      "nis": 3555,
      "Ġuitgesloten": 3556,
      "Ġtaal": 3557,
      "Ġafwijking": 3558,
      "Ġschul": 3559,
      "Ġadres": 3560,
      "Ġopdracht": 3561,
      "ÅĤ": 3562,
      "Ġfunctie": 3563,
      "Ġgebruiken": 3564,
      "kwaliteit": 3565,
      "Ġgevraag": 3566,
      "Ġgerechtvaardigd": 3567,
      "Ġtoen": 3568,
      "engt": 3569,
      "Ġpassende": 3570,
      "Ġbio": 3571,
      "Ġstatist": 3572,
      "Ġaante": 3573,
      "gge": 3574,
      "vi": 3575,
      "Ġgewee": 3576,
      "Ġtoegewezen": 3577,
      "Ġgeweest": 3578,
      "Ġ118": 3579,
      "Ġaangevoerde": 3580,
      "oeden": 3581,
      "Ġformul": 3582,
      "Ġgecom": 3583,
      "Ġaangewezen": 3584,
      "Ġgas": 3585,
      "Ġsomm": 3586,
      "vergoeding": 3587,
      "uge": 3588,
      "Ġbegro": 3589,
      "Ġervoor": 3590,
      "Ġvermelding": 3591,
      "Ġnale": 3592,
      "Ġbewijzen": 3593,
      "Ġgekwalific": 3594,
      "Ġoverleg": 3595,
      "Ġwaaruit": 3596,
      "Ġ0406": 3597,
      "ho": 3598,
      "Ġstreepje": 3599,
      "vers": 3600,
      "Ġprocesvoering": 3601,
      "Ġklein": 3602,
      "Ġafgifte": 3603,
      "gelaten": 3604,
      "Ġaangevraag": 3605,
      "Ġmilj": 3606,
      "Ġrelevant": 3607,
      "Ġgu": 3608,
      "Ġtransp": 3609,
      "tende": 3610,
      "Ġ1980": 3611,
      "etten": 3612,
      "Ġresultaten": 3613,
      "Ġbeleid": 3614,
      "Ġchin": 3615,
      "Ġwitte": 3616,
      "ones": 3617,
      "Ġhulp": 3618,
      "Ġsche": 3619,
      "Ġaanwezig": 3620,
      "Ġtoestellen": 3621,
      "Ġfisc": 3622,
      "Ġhuid": 3623,
      "Ġpt": 3624,
      "Ġconclude": 3625,
      "Ġvorder": 3626,
      "Ġuitdrukkelijk": 3627,
      "Ġstad": 3628,
      "alt": 3629,
      "Ġjaren": 3630,
      "periode": 3631,
      "Ġkat": 3632,
      "Ġstandaard": 3633,
      "elle": 3634,
      "Ġ102": 3635,
      "Ġsin": 3636,
      "Ġstee": 3637,
      "Ġ1978": 3638,
      "Ġdoeltre": 3639,
      "Ġja": 3640,
      "Ġmarktdeel": 3641,
      "Ġcolle": 3642,
      "Ġenergie": 3643,
      "da": 3644,
      "91": 3645,
      "Ġavis": 3646,
      "Ġ103": 3647,
      "Ġ110": 3648,
      "Ġdaarmee": 3649,
      "Ġwerkings": 3650,
      "Ġontvankelijkheid": 3651,
      "Ġimportant": 3652,
      "Ġ177": 3653,
      "tijd": 3654,
      "Ġvoertuigen": 3655,
      "Ġsommige": 3656,
      "Ã¸": 3657,
      "Ġverde": 3658,
      "Ġka": 3659,
      "Ġjuridique": 3660,
      "Ġnagekomen": 3661,
      "gebruik": 3662,
      "Ġstem": 3663,
      "ana": 3664,
      "Ġhouder": 3665,
      "Ġest": 3666,
      "Ġtw": 3667,
      "amp": 3668,
      "voorschriften": 3669,
      "Ġgesl": 3670,
      "sfeer": 3671,
      "Ġindeling": 3672,
      "Ġvoedsel": 3673,
      "Ġveiligheids": 3674,
      "ijden": 3675,
      "voorbeeld": 3676,
      "Ġherzien": 3677,
      "Ġbil": 3678,
      "71": 3679,
      "oersen": 3680,
      "Ġvoordeel": 3681,
      "Ġerkend": 3682,
      "Ġmonet": 3683,
      "Ġtel": 3684,
      "Ġconsum": 3685,
      "Ġrichtsn": 3686,
      "aus": 3687,
      "Ġbijvoorbeeld": 3688,
      "Ġkeu": 3689,
      "Ġbehoeft": 3690,
      "iciteit": 3691,
      "Ġoverheden": 3692,
      "Ġvoorbe": 3693,
      "Ġelkaar": 3694,
      "Ġcontact": 3695,
      "Ġbeschreven": 3696,
      "Ġregelingen": 3697,
      "Ġwerkzame": 3698,
      "Ġzorg": 3699,
      "Ġgeprodu": 3700,
      "ieerd": 3701,
      "Ġoplos": 3702,
      "Ġfinanciering": 3703,
      "Ġverko": 3704,
      "Ġvereisten": 3705,
      "pru": 3706,
      "Ġrapporteur": 3707,
      "Ġexc": 3708,
      "Ġvoorafgaande": 3709,
      "Ġpoly": 3710,
      "Ġwelis": 3711,
      "Ġ1972": 3712,
      "ologische": 3713,
      "Ġhel": 3714,
      "Ġvoorn": 3715,
      "Ġhoewel": 3716,
      "Ġweliswaar": 3717,
      "Ġgeografische": 3718,
      "Ġalsook": 3719,
      "Ġbeoordeeld": 3720,
      "vestigde": 3721,
      "ilijk": 3722,
      "Ġwateren": 3723,
      "Ġgelast": 3724,
      "Ġanalyse": 3725,
      "Ġbeein": 3726,
      "Ġherk": 3727,
      "Ġgewe": 3728,
      "Ġuitma": 3729,
      "Ġinteg": 3730,
      "ae": 3731,
      "orter": 3732,
      "Ġzuivel": 3733,
      "Ġ1006": 3734,
      "Ġvestig": 3735,
      "43": 3736,
      "Ġbinnenlandse": 3737,
      "bod": 3738,
      "Ġplan": 3739,
      "Ġmachines": 3740,
      "uta": 3741,
      "oordin": 3742,
      "Ġaanvragen": 3743,
      "actie": 3744,
      "Ġverbruik": 3745,
      "Ġtoetreding": 3746,
      "Ġpositie": 3747,
      "Ġvari": 3748,
      "som": 3749,
      "Ġdroge": 3750,
      "Ġgeg": 3751,
      "Ġtariefcont": 3752,
      "Ġcontrol": 3753,
      "Ðµ": 3754,
      "iz": 3755,
      "Ġlim": 3756,
      "Ġbetrokkene": 3757,
      "Ġwen": 3758,
      "Ġlaatst": 3759,
      "Ġindi": 3760,
      "Ġuiteengezet": 3761,
      "no": 3762,
      "Ġlet": 3763,
      "iti": 3764,
      "Ġwaarover": 3765,
      "valu": 3766,
      "Ġverbet": 3767,
      "Ġbegunstigde": 3768,
      "Ġcategorieen": 3769,
      "84": 3770,
      "Ġinstall": 3771,
      "ione": 3772,
      "Ġaftrek": 3773,
      "Ġjurispru": 3774,
      "Ġgeregistre": 3775,
      "go": 3776,
      "text": 3777,
      "Ġrichtsnoeren": 3778,
      "garije": 3779,
      "Ġafwijzing": 3780,
      "aans": 3781,
      "Ġwiss": 3782,
      "gew": 3783,
      "Ġgemeng": 3784,
      "Ġnavolgende": 3785,
      "formul": 3786,
      "vee": 3787,
      "regels": 3788,
      "76": 3789,
      "Ġdaarop": 3790,
      "Ġsamenvatting": 3791,
      "Ġdoordat": 3792,
      "Ġgeschikt": 3793,
      "Ġwerkingssfeer": 3794,
      "Ġmoest": 3795,
      "mogelijk": 3796,
      "ateur": 3797,
      "bun": 3798,
      "maatschappij": 3799,
      "Ġgrieken": 3800,
      "Ġdoet": 3801,
      "Ġmethyl": 3802,
      "Ġrechtvaar": 3803,
      "Ġbeschikbare": 3804,
      "ros": 3805,
      "Ġorgan": 3806,
      "erie": 3807,
      "eland": 3808,
      "Ġtoestemming": 3809,
      "ijnen": 3810,
      "Ġgezondheid": 3811,
      "Ġdochter": 3812,
      "Ġprof": 3813,
      "Ġmem": 3814,
      "heffing": 3815,
      "Ġzone": 3816,
      "Ġdenem": 3817,
      "Ġieder": 3818,
      "Ġondergebrachte": 3819,
      "75": 3820,
      "nemingen": 3821,
      "Ġverkoopseizoen": 3822,
      "instellingen": 3823,
      "oel": 3824,
      "Ġweigering": 3825,
      "zaad": 3826,
      "Ð¾": 3827,
      "raat": 3828,
      "ume": 3829,
      "ander": 3830,
      "Ġaa": 3831,
      "Ġontbre": 3832,
      "Ġret": 3833,
      "Ġaandelen": 3834,
      "Ġ1967": 3835,
      "Ġcertificaten": 3836,
      "uiver": 3837,
      "Ġmel": 3838,
      "ps": 3839,
      "42": 3840,
      "Ġrogge": 3841,
      "Ġwon": 3842,
      "ichting": 3843,
      "Ġning": 3844,
      "Ġacc": 3845,
      "Ġportuge": 3846,
      "Ġneg": 3847,
      "Ġmisbruik": 3848,
      "Ġrekwirante": 3849,
      "Ġconsider": 3850,
      "Ġinkomsten": 3851,
      "cli": 3852,
      "dende": 3853,
      "Ġverzekeren": 3854,
      "Ġolie": 3855,
      "Ġweef": 3856,
      "meth": 3857,
      "Ġserv": 3858,
      "Ġerkenning": 3859,
      "iken": 3860,
      "Ġgeleden": 3861,
      "ule": 3862,
      "Ġondersteuning": 3863,
      "beheer": 3864,
      "Ġdierv": 3865,
      "ry": 3866,
      "bere": 3867,
      "Ġelektronische": 3868,
      "Ġ210": 3869,
      "Ġoorspronkelijke": 3870,
      "Ġschriftelijke": 3871,
      "Ġ150": 3872,
      "ino": 3873,
      "Ġbv": 3874,
      "oereik": 3875,
      "Ġdistrib": 3876,
      "matigheid": 3877,
      "Ġnetto": 3878,
      "Ġdouanerecht": 3879,
      "Ġaanvrager": 3880,
      "materiaal": 3881,
      "aden": 3882,
      "ht": 3883,
      "Ġgedeeltelijk": 3884,
      "aming": 3885,
      "Ġevenmin": 3886,
      "oxy": 3887,
      "Ġwaarsch": 3888,
      "Ġrichtlijnen": 3889,
      "Ġwijzen": 3890,
      "Ġvervaardigd": 3891,
      "Ġzz": 3892,
      "ress": 3893,
      "55": 3894,
      "Ġeurope": 3895,
      "Ġopgesteld": 3896,
      "Ġaanvan": 3897,
      "Ġgoedgekeurd": 3898,
      "Ġmout": 3899,
      "Ġverpakking": 3900,
      "Ġentiteiten": 3901,
      "datum": 3902,
      "eter": 3903,
      "Ġbericht": 3904,
      "inen": 3905,
      "Ġcan": 3906,
      "Ġrechtspers": 3907,
      "Ġvaartuigen": 3908,
      "0000": 3909,
      "autoriteiten": 3910,
      "Ġingeschreven": 3911,
      "akte": 3912,
      "Ġinget": 3913,
      "Ġgepubl": 3914,
      "Ġexcl": 3915,
      "ets": 3916,
      "Ġstruct": 3917,
      "Ġzwits": 3918,
      "Ġrund": 3919,
      "che": 3920,
      "urt": 3921,
      "drachten": 3922,
      "Ġbun": 3923,
      "Ġnut": 3924,
      "Ġmoeder": 3925,
      "assa": 3926,
      "Ġstaatssteun": 3927,
      "69": 3928,
      "Ġconcludeert": 3929,
      "Ġidentificatie": 3930,
      "Ġmoeilijk": 3931,
      "Ġbron": 3932,
      "Ġcontext": 3933,
      "Ġair": 3934,
      "aanvraag": 3935,
      "Ġregio": 3936,
      "Ġ117": 3937,
      "haling": 3938,
      "Ġaandeel": 3939,
      "car": 3940,
      "overeenkomsten": 3941,
      "Ġwijz": 3942,
      "oll": 3943,
      "wisseling": 3944,
      "oos": 3945,
      "woorden": 3946,
      "Ġverminderd": 3947,
      "keningen": 3948,
      "enzen": 3949,
      "Ġauton": 3950,
      "ruim": 3951,
      "Ġsoortgelijke": 3952,
      "igens": 3953,
      "boden": 3954,
      "Ġsteeds": 3955,
      "houder": 3956,
      "Ġafhankelijk": 3957,
      "ano": 3958,
      "Ġoverigens": 3959,
      "bevoegd": 3960,
      "Ġnoord": 3961,
      "Ġverkrijgen": 3962,
      "Ġchinese": 3963,
      "Ġaangebracht": 3964,
      "ika": 3965,
      "sver": 3966,
      "Ġsluit": 3967,
      "gl": 3968,
      "tectie": 3969,
      "81": 3970,
      "Ġnat": 3971,
      "Ġconsumptie": 3972,
      "Ġperman": 3973,
      "52": 3974,
      "ĠâĢļ": 3975,
      "Ġnaleving": 3976,
      "Ġonbe": 3977,
      "Ġzul": 3978,
      "Ġofficiele": 3979,
      "Ġcodes": 3980,
      "Ġpluim": 3981,
      "Ġecht": 3982,
      "wijze": 3983,
      "clusief": 3984,
      "ink": 3985,
      "Ġbesloten": 3986,
      "sector": 3987,
      "Ġaansprakelijkheid": 3988,
      "Ġmodellen": 3989,
      "Ġbeoordelen": 3990,
      "Ġinf": 3991,
      "Ġduits": 3992,
      "Ġhydro": 3993,
      "Ġvloe": 3994,
      "Ġ}": 3995,
      "Ġfeder": 3996,
      "Ġcommerciele": 3997,
      "Ġmarktaan": 3998,
      "Ġverwijst": 3999,
      "Ġbek": 4000,
      "Ġnoor": 4001,
      "ingsmiddel": 4002,
      "dentie": 4003,
      "Ġgh": 4004,
      "Ġonvol": 4005,
      "omst": 4006,
      "Ġopper": 4007,
      "Ġgeconstat": 4008,
      "Ġschor": 4009,
      "48": 4010,
      "ĠÂ»": 4011,
      "Ġkennen": 4012,
      "Ġtab": 4013,
      "antit": 4014,
      "Ġconsiderans": 4015,
      "Ġbijdrage": 4016,
      "ille": 4017,
      "Ġministerie": 4018,
      "werken": 4019,
      "rus": 4020,
      "ime": 4021,
      "Ġklasse": 4022,
      "Ġengels": 4023,
      "ange": 4024,
      "vul": 4025,
      "Ġwetenschapp": 4026,
      "Ġkonden": 4027,
      "Ġontbreken": 4028,
      "Ġingetrokken": 4029,
      "Ġbehouden": 4030,
      "Ġhandelsverkeer": 4031,
      "Ġgevestigde": 4032,
      "Ġnauwkeur": 4033,
      "Ġbeslissingen": 4034,
      "oging": 4035,
      "Ġversie": 4036,
      "Ġ{": 4037,
      "Ġenz": 4038,
      "Ġwoord": 4039,
      "Ġcorrectie": 4040,
      "Ġkal": 4041,
      "Ġontstaan": 4042,
      "Ġafkomstig": 4043,
      "Ġbeperken": 4044,
      "Ġ5493": 4045,
      "Ġph": 4046,
      "Ġverboden": 4047,
      "Ġparticuliere": 4048,
      "rit": 4049,
      "wa": 4050,
      "splicht": 4051,
      "Ġwijzigen": 4052,
      "Ġoverdracht": 4053,
      "Ġgriffie": 4054,
      "kv": 4055,
      "Ġmiljoen": 4056,
      "water": 4057,
      "reg": 4058,
      "Ġafg": 4059,
      "Ġlager": 4060,
      "Ġelektrische": 4061,
      "Ġsupra": 4062,
      "Ġzwe": 4063,
      "ome": 4064,
      "Ġkwe": 4065,
      "Ġregistratie": 4066,
      "Ġee": 4067,
      "Ġakte": 4068,
      "Ġpremies": 4069,
      "oemen": 4070,
      "Ġvoortvloeiende": 4071,
      "Ġovereenstem": 4072,
      "vin": 4073,
      "Ġverstrekte": 4074,
      "Ġhuidige": 4075,
      "werkende": 4076,
      "aringen": 4077,
      "schappen": 4078,
      "Ġeconomisch": 4079,
      "Ġbg": 4080,
      "issing": 4081,
      "Ġonrechte": 4082,
      "ellen": 4083,
      "Ġherkomst": 4084,
      "Ġcommunautair": 4085,
      "Ġ119": 4086,
      "Ġregister": 4087,
      "oud": 4088,
      "Ġ1973": 4089,
      "Ġ130": 4090,
      "Ġnadere": 4091,
      "Ġbehal": 4092,
      "Ġdenemarken": 4093,
      "Ġmeegedeeld": 4094,
      "Ġ549300": 4095,
      "Ġblijft": 4096,
      "cess": 4097,
      "Ġoverschrij": 4098,
      "structuur": 4099,
      "Ġkn": 4100,
      "Ġspecifiek": 4101,
      "Ġ109": 4102,
      "Ġsinds": 4103,
      "Ġbehalve": 4104,
      "65": 4105,
      "hoe": 4106,
      "Ġconcurrentie": 4107,
      "Ġgriekenland": 4108,
      "roren": 4109,
      "Ġrechtstreekse": 4110,
      "geerde": 4111,
      "Ġontvangst": 4112,
      "stelt": 4113,
      "Ġverstaan": 4114,
      "atoren": 4115,
      "Ġcal": 4116,
      "Ġzelfstand": 4117,
      "Ġbondsrepubliek": 4118,
      "Ġbijlagen": 4119,
      "Ġbeschrijving": 4120,
      "Ġonderverdeling": 4121,
      "Ġonregel": 4122,
      "handeling": 4123,
      "Ġsynth": 4124,
      "ertes": 4125,
      "mann": 4126,
      "sluitende": 4127,
      "Ġingediende": 4128,
      "Ġcoordin": 4129,
      "Ġnum": 4130,
      "Ġvorige": 4131,
      "Ġpolen": 4132,
      "Ġneergelegde": 4133,
      "king": 4134,
      "enties": 4135,
      "wijf": 4136,
      "Ġagent": 4137,
      "Ġsamenhang": 4138,
      "Ġziekte": 4139,
      "Ġfra": 4140,
      "Ġonjuist": 4141,
      "Ġoct": 4142,
      "Ġverzam": 4143,
      "Ġbereikt": 4144,
      "Ġvoet": 4145,
      "chl": 4146,
      "berg": 4147,
      "char": 4148,
      "Ġoffertes": 4149,
      "Ġindustri": 4150,
      "Ġdaaraan": 4151,
      "commun": 4152,
      "Ġefsa": 4153,
      "Ġregionale": 4154,
      "Ġdefinitief": 4155,
      "Ġaangeboden": 4156,
      "Ġvru": 4157,
      "79": 4158,
      "aging": 4159,
      "Ġverkopen": 4160,
      "72": 4161,
      "Ġontl": 4162,
      "Ġbevoegdheden": 4163,
      "Ġbuitenlandse": 4164,
      "Ġjurisprudentie": 4165,
      "Ġund": 4166,
      "Ġgedefin": 4167,
      "ielen": 4168,
      "Ġverleende": 4169,
      "zending": 4170,
      "Ġrepresentatieve": 4171,
      "Ġecli": 4172,
      "Ġvanuit": 4173,
      "Ġdra": 4174,
      "Ġvestiging": 4175,
      "Ġbehoeve": 4176,
      "Ġtribun": 4177,
      "uizen": 4178,
      "89": 4179,
      "Ð½": 4180,
      "werpen": 4181,
      "Ġbal": 4182,
      "Ġwereldmarkt": 4183,
      "Ġneemt": 4184,
      "vaard": 4185,
      "gekomen": 4186,
      "Ġhon": 4187,
      "aars": 4188,
      "Ġspaanse": 4189,
      "Ġvlucht": 4190,
      "Ġsluiten": 4191,
      "Ġverwerkte": 4192,
      "Ġbelastingplichtige": 4193,
      "Ġchemische": 4194,
      "Ġevalu": 4195,
      "Ġbanken": 4196,
      "Ġbehage": 4197,
      "Ġbein": 4198,
      "drukt": 4199,
      "orst": 4200,
      "loop": 4201,
      "Ġvergelijking": 4202,
      "Ġeffecten": 4203,
      "Ġgepubliceerd": 4204,
      "Ġinstrumenten": 4205,
      "Ġkamerpres": 4206,
      "yt": 4207,
      "64": 4208,
      "ingsver": 4209,
      "Ġvrijheid": 4210,
      "Ġgeldboeten": 4211,
      "Ġverlies": 4212,
      "73": 4213,
      "Ġorgaan": 4214,
      "minderd": 4215,
      "Ġquota": 4216,
      "Ġvoorgeschreven": 4217,
      "opend": 4218,
      "Ġaangepast": 4219,
      "regelingen": 4220,
      "wett": 4221,
      "Ġinde": 4222,
      "Ġce": 4223,
      "oefficient": 4224,
      "Ġverweerder": 4225,
      "Ġinvesteringen": 4226,
      "abiliteit": 4227,
      "okken": 4228,
      "afd": 4229,
      "Ġdaarna": 4230,
      "Ġkennelijk": 4231,
      "Ġvrouw": 4232,
      "rust": 4233,
      "vende": 4234,
      "Ġhuur": 4235,
      "kkingen": 4236,
      "Ġgezag": 4237,
      "elding": 4238,
      "Ġverzekering": 4239,
      "Ġcriterium": 4240,
      "Ġconform": 4241,
      "Ġbeginnen": 4242,
      "Ġbladzijde": 4243,
      "Ġmenselijke": 4244,
      "Ġhout": 4245,
      "Ġernstige": 4246,
      "82": 4247,
      "Ġolijf": 4248,
      "Ġgedele": 4249,
      "roffen": 4250,
      "ieten": 4251,
      "Ġgecombin": 4252,
      "dur": 4253,
      "010": 4254,
      "Ġgun": 4255,
      "Ġone": 4256,
      "Ġfabrikant": 4257,
      "Ġaangifte": 4258,
      "Ġbewoord": 4259,
      "Ġuitgave": 4260,
      "Ġbewoordingen": 4261,
      "unningen": 4262,
      "iseerde": 4263,
      "51": 4264,
      "Ġautomat": 4265,
      "our": 4266,
      "Ġtien": 4267,
      "Ġvarken": 4268,
      "Ġbelgische": 4269,
      "best": 4270,
      "tr": 4271,
      "Ġproducts": 4272,
      "Ġvoorzover": 4273,
      "ingenten": 4274,
      "Ġrundvlees": 4275,
      "Ġkeuze": 4276,
      "63": 4277,
      "entegen": 4278,
      "Ġbehandeld": 4279,
      "Ġingev": 4280,
      "Ġgroup": 4281,
      "doc": 4282,
      "fac": 4283,
      "Ġbegin": 4284,
      "Ġonverminderd": 4285,
      "Ġbb": 4286,
      "Ġwoor": 4287,
      "Ġdaarentegen": 4288,
      "Ġvoorzieningen": 4289,
      "Ġcla": 4290,
      "Ġdienstver": 4291,
      "ogewicht": 4292,
      "Ġtoepassings": 4293,
      "antwoord": 4294,
      "Ġingestelde": 4295,
      "87": 4296,
      "Ġopgelegde": 4297,
      "Ġaanvaar": 4298,
      "Ġinvoerrechten": 4299,
      "Ġoperation": 4300,
      "gevingen": 4301,
      "Ġomreken": 4302,
      "Ġinternational": 4303,
      "erwijs": 4304,
      "oorten": 4305,
      "eenheid": 4306,
      "sproken": 4307,
      "Ġcm": 4308,
      "Ġbevroren": 4309,
      "Ġgekwalificeerde": 4310,
      "gevonden": 4311,
      "Ġspa": 4312,
      "Ġbra": 4313,
      "Ġmogelijke": 4314,
      "Ġbu": 4315,
      "Ġonmiddellijk": 4316,
      "Ġgeleid": 4317,
      "lex": 4318,
      "Ġgeneesmiddelen": 4319,
      "aalde": 4320,
      "Ġaanzienlijke": 4321,
      "Ġsec": 4322,
      "pelijk": 4323,
      "Ġdaarvoor": 4324,
      "ix": 4325,
      "Ġamer": 4326,
      "Ġ113": 4327,
      "Ġposit": 4328,
      "Ġoudere": 4329,
      "Ġgec": 4330,
      "Ġinn": 4331,
      "breng": 4332,
      "Ġzien": 4333,
      "Ġleverancier": 4334,
      "schaft": 4335,
      "Ġturk": 4336,
      "Ġgeleverd": 4337,
      "Ġaz": 4338,
      "Ġplaatsgevonden": 4339,
      "Ġsele": 4340,
      "Ġcz": 4341,
      "Ġkand": 4342,
      "Ġconcentratie": 4343,
      "83": 4344,
      "ceerd": 4345,
      "Ġfactoren": 4346,
      "Ġexploitatie": 4347,
      "Ġaangenomen": 4348,
      "ÑĢ": 4349,
      "Ġrustende": 4350,
      "Ġgezamen": 4351,
      "Ġhieruit": 4352,
      "Ġgeantwoord": 4353,
      "Ġdeelneming": 4354,
      "Ġcass": 4355,
      "Ġgronden": 4356,
      "Ġplant": 4357,
      "Ġbelanghebbenden": 4358,
      "Ġverstrijk": 4359,
      "Ġed": 4360,
      "Ġbeslissen": 4361,
      "Ġonverenig": 4362,
      "onderneming": 4363,
      "Ġnationaliteit": 4364,
      "Ġ1971": 4365,
      "Ġ2574": 4366,
      "eend": 4367,
      "roken": 4368,
      "stermijn": 4369,
      "Ġjaarlijkse": 4370,
      "Ġgi": 4371,
      "Ġindic": 4372,
      "akken": 4373,
      "cieel": 4374,
      "Ġvrc": 4375,
      "Ġmijn": 4376,
      "Ġtaken": 4377,
      "Ġgegrond": 4378,
      "zetting": 4379,
      "Ġfiscale": 4380,
      "Ġelektriciteit": 4381,
      "Ġgelijkwaar": 4382,
      "ikkingen": 4383,
      "fde": 4384,
      "wege": 4385,
      "Ġontwerp": 4386,
      "Ġgedelegeerde": 4387,
      "Ġlat": 4388,
      "egd": 4389,
      "Ġoverge": 4390,
      "tings": 4391,
      "Ġwaarden": 4392,
      "Ġmt": 4393,
      "Ġ1974": 4394,
      "maatregel": 4395,
      "Ġmont": 4396,
      "Ġfund": 4397,
      "Ġ140": 4398,
      "Ġvetgehalte": 4399,
      "Ġ0402": 4400,
      "Ġverdediging": 4401,
      "Ġ114": 4402,
      "Ġneergelegd": 4403,
      "iform": 4404,
      "Ġgrief": 4405,
      "elt": 4406,
      "Ġemissie": 4407,
      "tern": 4408,
      "Ġredelijk": 4409,
      "orende": 4410,
      "Ġspoor": 4411,
      "Ã¦": 4412,
      "Ġso": 4413,
      "abele": 4414,
      "aca": 4415,
      "sta": 4416,
      "Ġgeble": 4417,
      "war": 4418,
      "Ġportugese": 4419,
      "Ġlandbouwproducten": 4420,
      "oring": 4421,
      "Ġsubsidiair": 4422,
      "Ġgriek": 4423,
      "Ġzweden": 4424,
      "tt": 4425,
      "vb": 4426,
      "akkelijk": 4427,
      "Ġverenigbaar": 4428,
      "ited": 4429,
      "rekening": 4430,
      "Ġnomenclatuur": 4431,
      "Ġconsumenten": 4432,
      "Ġschadevergoeding": 4433,
      "88": 4434,
      "Ġhandvest": 4435,
      "Ġentiteit": 4436,
      "posit": 4437,
      "Ġindirect": 4438,
      "Ġess": 4439,
      "Ġoplever": 4440,
      "Ġsg": 4441,
      "Ġwaarom": 4442,
      "Ġbetaalde": 4443,
      "ading": 4444,
      "Ġaanzienlijk": 4445,
      "Ġcps": 4446,
      "Ġleveren": 4447,
      "Ġkredietpro": 4448,
      "ance": 4449,
      "Ġdoelstelling": 4450,
      "Ġmondeling": 4451,
      "Ġ129": 4452,
      "Ġverschuldigd": 4453,
      "Ġkredietprotectie": 4454,
      "61": 4455,
      "Ġdoeleinden": 4456,
      "Ġkoper": 4457,
      "Ġpapier": 4458,
      "Ġkwest": 4459,
      "activiteiten": 4460,
      "Ġolijfolie": 4461,
      "apport": 4462,
      "ato": 4463,
      "gas": 4464,
      "kle": 4465,
      "Ġwerkelijke": 4466,
      "Ġaanhangsel": 4467,
      "ema": 4468,
      "Ġ2309": 4469,
      "Ġ999": 4470,
      "Ġzuiver": 4471,
      "Ġnamens": 4472,
      "iment": 4473,
      "Ġgrenzen": 4474,
      "Ġingezet": 4475,
      "roep": 4476,
      "Ġcombin": 4477,
      "waren": 4478,
      "rig": 4479,
      "Ġmal": 4480,
      "Ġnettogewicht": 4481,
      "Ġba": 4482,
      "Ġmateriaal": 4483,
      "Ġcir": 4484,
      "Ġonderscheid": 4485,
      "certificaten": 4486,
      "Ġpot": 4487,
      "Ġzachte": 4488,
      "Ġkwal": 4489,
      "emmer": 4490,
      "Ġsynthetische": 4491,
      "ada": 4492,
      "eense": 4493,
      "undige": 4494,
      "beoor": 4495,
      "Ġconcr": 4496,
      "gelegen": 4497,
      "Ġ250": 4498,
      "Ġaankoop": 4499,
      "schot": 4500,
      "Ġvorderingen": 4501,
      "Ġvar": 4502,
      "Ġvkv": 4503,
      "Ġongeveer": 4504,
      "cia": 4505,
      "Ġcijf": 4506,
      "Ġplaatsen": 4507,
      "Ġinspect": 4508,
      "Ġeerder": 4509,
      "Ġ169": 4510,
      "contract": 4511,
      "Ġschrij": 4512,
      "Ġverhouding": 4513,
      "ethyl": 4514,
      "Ġenig": 4515,
      "Ġverwerkt": 4516,
      "Ġ116": 4517,
      "Ġsac": 4518,
      "Ġbevattende": 4519,
      "Ġbrengt": 4520,
      "Ġverwezenlijk": 4521,
      "Ġbeschikken": 4522,
      "Ġcontingent": 4523,
      "umul": 4524,
      "Ġkartel": 4525,
      "Ġturkije": 4526,
      "Ġmarktaandeel": 4527,
      "Ġmic": 4528,
      "Ġlichamen": 4529,
      "Ġverdeling": 4530,
      "Ġbeeld": 4531,
      "wegen": 4532,
      "Ġ600": 4533,
      "Ġpet": 4534,
      "Ġgeldigheid": 4535,
      "cc": 4536,
      "wit": 4537,
      "control": 4538,
      "Ġinterveni": 4539,
      "Ġic": 4540,
      "Ġtwijf": 4541,
      "ctieve": 4542,
      "Ġvlie": 4543,
      "Ġpersoneels": 4544,
      "Ġafzonderlijke": 4545,
      "Ġquotum": 4546,
      "Ġiso": 4547,
      "Ġaspect": 4548,
      "bs": 4549,
      "Ġterugbetaling": 4550,
      "ysteem": 4551,
      "78": 4552,
      "Ġgemengd": 4553,
      "xy": 4554,
      "Ġloopt": 4555,
      "komt": 4556,
      "Ġbestrij": 4557,
      "Ġresultaat": 4558,
      "fact": 4559,
      "groep": 4560,
      "Ġhoudend": 4561,
      "ungs": 4562,
      "kun": 4563,
      "Ġredelijke": 4564,
      "Ġ123": 4565,
      "borg": 4566,
      "Ġdaaruit": 4567,
      "Ġlanger": 4568,
      "Ġbetoog": 4569,
      "Ġindex": 4570,
      "scategorie": 4571,
      "laf": 4572,
      "Ġdis": 4573,
      "Ġvall": 4574,
      "Ġprojecten": 4575,
      "Ġur": 4576,
      "Ġblijkens": 4577,
      "Ġbieden": 4578,
      "fd": 4579,
      "outen": 4580,
      "oorte": 4581,
      "Ġbos": 4582,
      "Ġfac": 4583,
      "Ġgedefinieerd": 4584,
      "Ġschuld": 4585,
      "Ġ234": 4586,
      "oper": 4587,
      "Ġvermindering": 4588,
      "Ġverwacht": 4589,
      "Ġdouaneautoriteiten": 4590,
      "Ġbijdragen": 4591,
      "Ġsamenstelling": 4592,
      "Ġgeboorte": 4593,
      "Ġgekomen": 4594,
      "produkt": 4595,
      "ini": 4596,
      "Ġuitgebre": 4597,
      "uken": 4598,
      "Ġouder": 4599,
      "kennen": 4600,
      "Ġwenst": 4601,
      "Ġongelijk": 4602,
      "Ġbevest": 4603,
      "ors": 4604,
      "Ġregul": 4605,
      "Ġ900": 4606,
      "zekerheid": 4607,
      "Ġbul": 4608,
      "ges": 4609,
      "stro": 4610,
      "kleed": 4611,
      "Ġafzonderlijk": 4612,
      "ouwen": 4613,
      "Ġbundes": 4614,
      "Ġkandid": 4615,
      "Ġongegrond": 4616,
      "Ġmunteenheden": 4617,
      "Ġmeest": 4618,
      "Ġprim": 4619,
      "Ġ145": 4620,
      "Ġbeschermde": 4621,
      "Ġ160": 4622,
      "67": 4623,
      "Ġmechan": 4624,
      "Ġgehand": 4625,
      "orf": 4626,
      "Ġovergelegd": 4627,
      "Ġsecr": 4628,
      "ach": 4629,
      "Ġstelde": 4630,
      "Ġhiervoor": 4631,
      "Ġ111": 4632,
      "Ġ1001": 4633,
      "Ġverkocht": 4634,
      "sterdam": 4635,
      "Ġverorde": 4636,
      "Ġfer": 4637,
      "Ġonderzoekt": 4638,
      "hy": 4639,
      "Ġgriesmeel": 4640,
      "Ġlv": 4641,
      "ffend": 4642,
      "hoeveel": 4643,
      "Ġweefsels": 4644,
      "Ġverlaag": 4645,
      "cose": 4646,
      "ologie": 4647,
      "bedrijf": 4648,
      "Ġverlaging": 4649,
      "financier": 4650,
      "Ġleng": 4651,
      "Î¼": 4652,
      "ondernemingen": 4653,
      "Ġfundament": 4654,
      "Ġhell": 4655,
      "cludeerd": 4656,
      "Ġgeconcludeerd": 4657,
      "handelingen": 4658,
      "beschikking": 4659,
      "Ġ138": 4660,
      "Ġbeperkende": 4661,
      "gings": 4662,
      "Ġ2022": 4663,
      "tuigen": 4664,
      "onde": 4665,
      "rand": 4666,
      "Ġ0805": 4667,
      "Ġinci": 4668,
      "ka": 4669,
      "iers": 4670,
      "Ġong": 4671,
      "Ġby": 4672,
      "Ġamsterdam": 4673,
      "Ġrun": 4674,
      "Ġ139": 4675,
      "Ġzetmeel": 4676,
      "Ġverzoekt": 4677,
      "Ġbereiken": 4678,
      "Ġsign": 4679,
      "Ġvolg": 4680,
      "gevend": 4681,
      "Ġbelangrijke": 4682,
      "ivers": 4683,
      "charose": 4684,
      "Ġmateriele": 4685,
      "Ġsil": 4686,
      "leggen": 4687,
      "umin": 4688,
      "Ġdoorhaling": 4689,
      "kracht": 4690,
      "Ġtoegelaten": 4691,
      "Ġkredietkwaliteit": 4692,
      "ijnlijk": 4693,
      "Ġbestuursrechtelijke": 4694,
      "Ġjp": 4695,
      "Ġmarktdeelnemers": 4696,
      "Ġveroorza": 4697,
      "Ġtoekomst": 4698,
      "programma": 4699,
      "Ġgerapport": 4700,
      "vezels": 4701,
      "Ġinc": 4702,
      "Ġnaast": 4703,
      "ons": 4704,
      "oeken": 4705,
      "Ġdesk": 4706,
      "Ġzwaar": 4707,
      "Ġtijdelijke": 4708,
      "Ġalt": 4709,
      "arr": 4710,
      "Ġlo": 4711,
      "Ġlin": 4712,
      "maatschappijen": 4713,
      "Ġverklaringen": 4714,
      "orderd": 4715,
      "reet": 4716,
      "raal": 4717,
      "Ġgevoegde": 4718,
      "Ġobjectieve": 4719,
      "Ġple": 4720,
      "srecht": 4721,
      "ola": 4722,
      "est": 4723,
      "Ġnader": 4724,
      "lucose": 4725,
      "Ġwerkelijk": 4726,
      "Ġleningen": 4727,
      "Ġnon": 4728,
      "Ġvarkens": 4729,
      "Ġverrichte": 4730,
      "Ġ121": 4731,
      "Ġgeproduceerd": 4732,
      "ingsc": 4733,
      "92": 4734,
      "Ġconcrete": 4735,
      "Ġinbreuken": 4736,
      "roog": 4737,
      "ili": 4738,
      "Ġkwantit": 4739,
      "Ġgeregistreerd": 4740,
      "Ġgebeur": 4741,
      "Ġaanbie": 4742,
      "Ġfrance": 4743,
      "Ġ135": 4744,
      "Ġdegen": 4745,
      "Ġav": 4746,
      "Ġingekomen": 4747,
      "Ġmedewerking": 4748,
      "Ġzwitserland": 4749,
      "Ġimporteurs": 4750,
      "Ġgeldig": 4751,
      "Ġzulks": 4752,
      "Ġgroepen": 4753,
      "hi": 4754,
      "isme": 4755,
      "Ġuitgedrukt": 4756,
      "Ġbelastingen": 4757,
      "Ġperi": 4758,
      "ws": 4759,
      "jech": 4760,
      "eiden": 4761,
      "Ġbeschouwen": 4762,
      "alings": 4763,
      "Ġ1408": 4764,
      "Ġlaag": 4765,
      "Ġgebruikers": 4766,
      "wikkeling": 4767,
      "Ġ0207": 4768,
      "Ġeuropa": 4769,
      "pers": 4770,
      "Ġtsjech": 4771,
      "Ġuniform": 4772,
      "Ġkunstmatige": 4773,
      "Ġbevestig": 4774,
      "ain": 4775,
      "Ġbedrijven": 4776,
      "Ġbeschikkingen": 4777,
      "Ġaud": 4778,
      "Ïĥ": 4779,
      "eeftijd": 4780,
      "Ġvaluta": 4781,
      "Ġmaximaal": 4782,
      "ijdvak": 4783,
      "zi": 4784,
      "Ġinterventiebureau": 4785,
      "Ġberust": 4786,
      "Ġtoewijzing": 4787,
      "Ġbelemmer": 4788,
      "Ġ180": 4789,
      "Ġuitkering": 4790,
      "Ġafr": 4791,
      "Ġkredietkwaliteitscategorie": 4792,
      "Ġsnel": 4793,
      "Ġkru": 4794,
      "Ġwelk": 4795,
      "Ġ141": 4796,
      "Ġetik": 4797,
      "Ġnormen": 4798,
      "Ġgelezen": 4799,
      "vla": 4800,
      "Ġsm": 4801,
      "Ġverlenging": 4802,
      "kant": 4803,
      "Ġkamerpresident": 4804,
      "Ġcapaciteit": 4805,
      "ura": 4806,
      "Ġstelling": 4807,
      "raden": 4808,
      "bescherming": 4809,
      "Ġcit": 4810,
      "Ġvaartuig": 4811,
      "bevoegdheid": 4812,
      "zins": 4813,
      "ph": 4814,
      "Ġidentific": 4815,
      "Ġ134": 4816,
      "Ġoptreden": 4817,
      "Ġwisselk": 4818,
      "Ġbekendgemaakt": 4819,
      "Ġstrekken": 4820,
      "gave": 4821,
      "Ġaantekening": 4822,
      "Ġolien": 4823,
      "Ġacties": 4824,
      "wijdte": 4825,
      "Ġtoegekende": 4826,
      "enyl": 4827,
      "Ġfre": 4828,
      "certificaat": 4829,
      "Ġ1970": 4830,
      "off": 4831,
      "Ġmeen": 4832,
      "Ġtoestand": 4833,
      "okk": 4834,
      "Ġgewaar": 4835,
      "Ġstap": 4836,
      "orten": 4837,
      "Ġtekeningen": 4838,
      "ise": 4839,
      "Ġomrekeningsk": 4840,
      "Ġspeciale": 4841,
      "Ġbeantwoord": 4842,
      "Ġ122": 4843,
      "Ġlou": 4844,
      "bren": 4845,
      "Ġboter": 4846,
      "Ġga": 4847,
      "faciliteit": 4848,
      "Ġmetaal": 4849,
      "Ġsectoren": 4850,
      "Ġkleur": 4851,
      "elings": 4852,
      "verei": 4853,
      "Ġgedroog": 4854,
      "Ġplanten": 4855,
      "Ġ!": 4856,
      "Ġlater": 4857,
      "Ġbenaming": 4858,
      "Ġinstru": 4859,
      "Ġacs": 4860,
      "Ġverstrijken": 4861,
      "amb": 4862,
      "po": 4863,
      "Ġbetekent": 4864,
      "Ġgemaakte": 4865,
      "Ġbetalingen": 4866,
      "Ġdoeltreffend": 4867,
      "Ġbut": 4868,
      "Ġdeut": 4869,
      "Ġvallende": 4870,
      "idelijk": 4871,
      "Ġbeleg": 4872,
      "Ġbevestigen": 4873,
      "Ġaanb": 4874,
      "gere": 4875,
      "Ġomvatten": 4876,
      "Ġaanduiding": 4877,
      "stelsel": 4878,
      "beslissing": 4879,
      "hydro": 4880,
      "idende": 4881,
      "icit": 4882,
      "Ġverzekerings": 4883,
      "gend": 4884,
      "eth": 4885,
      "Ġcontractuele": 4886,
      "Ġonwett": 4887,
      "hl": 4888,
      "uiker": 4889,
      "Ġfabriek": 4890,
      "Ġvertaling": 4891,
      "Ġbetekenis": 4892,
      "Ġverpakkingen": 4893,
      "Ġonderd": 4894,
      "Ġafstand": 4895,
      "Ġ1107": 4896,
      "landen": 4897,
      "Ġgehad": 4898,
      "Ġgedeta": 4899,
      "Ġgewijzigde": 4900,
      "Ġrekwirant": 4901,
      "Ġvolksrepubliek": 4902,
      "Ġtreffen": 4903,
      "Ġecb": 4904,
      "Ġtijde": 4905,
      "Ġonvoldoende": 4906,
      "Ġminim": 4907,
      "ĠÂ£": 4908,
      "Ġonderlinge": 4909,
      "ions": 4910,
      "Ġadministratie": 4911,
      "Ġpubliekrechtelijke": 4912,
      "ja": 4913,
      "Ġevaluatie": 4914,
      "Ġkm": 4915,
      "Ġgedragingen": 4916,
      "62": 4917,
      "ĠÃ°": 4918,
      "Ġ320": 4919,
      "gevende": 4920,
      "ations": 4921,
      "aak": 4922,
      "wijzingen": 4923,
      "Ġhk": 4924,
      "gesch": 4925,
      "isen": 4926,
      "appar": 4927,
      "Ġkatoen": 4928,
      "Ġopening": 4929,
      "Ġmondelinge": 4930,
      "stens": 4931,
      "ativ": 4932,
      "atien": 4933,
      "zing": 4934,
      "emin": 4935,
      "kra": 4936,
      "Ġvergelijkend": 4937,
      "Ġligt": 4938,
      "Ġ131": 4939,
      "erve": 4940,
      "Ġoctro": 4941,
      "Ġprecis": 4942,
      "Ġbro": 4943,
      "Ġ281": 4944,
      "Ġdim": 4945,
      "Ġmedische": 4946,
      "Ġgecontrol": 4947,
      "Ġpremie": 4948,
      "Ġovereenkomstige": 4949,
      "Ġreferent": 4950,
      "Ġgol": 4951,
      "gezondheid": 4952,
      "Ġgehandha": 4953,
      "Ġvonnis": 4954,
      "Ñģ": 4955,
      "idu": 4956,
      "Ġlag": 4957,
      "Ïī": 4958,
      "Ġmac": 4959,
      "Ġrang": 4960,
      "plaat": 4961,
      "Ġ230": 4962,
      "Ġbovengenoemde": 4963,
      "Ġgecombineerde": 4964,
      "Ġoffer": 4965,
      "Ġbereken": 4966,
      "Ġrechtsop": 4967,
      "Ð²": 4968,
      "Ġunivers": 4969,
      "Ġgetroffen": 4970,
      "Ġevenredigheids": 4971,
      "Ġhalf": 4972,
      "peratuur": 4973,
      "Ġovereengekomen": 4974,
      "Ġgeschorst": 4975,
      "Ġerkende": 4976,
      "gn": 4977,
      "dag": 4978,
      "Ġ170": 4979,
      "Ġ128": 4980,
      "aliteiten": 4981,
      "96": 4982,
      "Ġ142": 4983,
      "Ġverleent": 4984,
      "Ġfam": 4985,
      "lagen": 4986,
      "anderen": 4987,
      "will": 4988,
      "Ġpluimvee": 4989,
      "iseerd": 4990,
      "Ġkwestie": 4991,
      "Ġuitoefenen": 4992,
      "Ġonderdanen": 4993,
      "Ġmerkt": 4994,
      "Ġverbintenissen": 4995,
      "Ġgehandhaafd": 4996,
      "Ġimo": 4997,
      "Ġtoetsing": 4998,
      "voorzien": 4999,
      "Ġequ": 5000,
      "Ġvoordat": 5001,
      "Îº": 5002,
      "oegen": 5003,
      "Ġkredietinstellingen": 5004,
      "Ġfinland": 5005,
      "zone": 5006,
      "Ġvinden": 5007,
      "Ġnoodzaak": 5008,
      "Ġjuridisch": 5009,
      "Ġtonen": 5010,
      "Ġwh": 5011,
      "Ġvertrouwen": 5012,
      "ret": 5013,
      "Ġomzetting": 5014,
      "Ġdran": 5015,
      "Ġ124": 5016,
      "trent": 5017,
      "bber": 5018,
      "Ġgeweig": 5019,
      "Ġstructuur": 5020,
      "Ġ126": 5021,
      "Ġgebre": 5022,
      "Ġcat": 5023,
      "Ġkrijgen": 5024,
      "Ġzit": 5025,
      "role": 5026,
      "Ġloon": 5027,
      "oom": 5028,
      "Ġinclusief": 5029,
      "Ġev": 5030,
      "Ġaanvullen": 5031,
      "Ġbijgestaan": 5032,
      "Ġverkrij": 5033,
      "Ġ050": 5034,
      "Ġgeslacht": 5035,
      "Ġaangevraagde": 5036,
      "Ġ700": 5037,
      "Ġderden": 5038,
      "oeders": 5039,
      "trek": 5040,
      "Ġlengte": 5041,
      "nes": 5042,
      "Ġdeelgenomen": 5043,
      "Ġkwantitatieve": 5044,
      "Ġoverheidsop": 5045,
      "Ġmult": 5046,
      "Ġgmin": 5047,
      "Ġtermijnen": 5048,
      "Ġ133": 5049,
      "Ġdeta": 5050,
      "nex": 5051,
      "Ġverhoogd": 5052,
      "Ġoppervla": 5053,
      "Ġham": 5054,
      "Ġ190": 5055,
      "Ġzen": 5056,
      "ijven": 5057,
      "Ġbevindingen": 5058,
      "Ġmol": 5059,
      "Ġschappelijk": 5060,
      "Ġactief": 5061,
      "Ġmeerdere": 5062,
      "Ġgeconstateerd": 5063,
      "atische": 5064,
      "Ġactie": 5065,
      "Ġuitgegaan": 5066,
      "Ġonafhankelijk": 5067,
      "Ġvergoed": 5068,
      "ool": 5069,
      "Ġagentschap": 5070,
      "Ġgeheven": 5071,
      "Ġfase": 5072,
      "Ġpat": 5073,
      "Ġgeplaatst": 5074,
      "Ġhele": 5075,
      "Ġindienen": 5076,
      "Ġrunderen": 5077,
      "Ġ267": 5078,
      "Ġwol": 5079,
      "Ġwarm": 5080,
      "Ġzuid": 5081,
      "Ġbeslist": 5082,
      "Ġ204": 5083,
      "Ġkredietfaciliteit": 5084,
      "Ġtabak": 5085,
      "uten": 5086,
      "igde": 5087,
      "restitut": 5088,
      "Ġtoepassen": 5089,
      "Ġmetalen": 5090,
      "Ġwetenschappelijke": 5091,
      "Ġsituaties": 5092,
      "app": 5093,
      "Ġwaarschijnlijk": 5094,
      "ile": 5095,
      "Ġtaak": 5096,
      "Ġbeen": 5097,
      "Ġnutt": 5098,
      "Ġjegens": 5099,
      "Ġ173": 5100,
      "Ġglas": 5101,
      "Ġwith": 5102,
      "Ġtoevoegingsmiddel": 5103,
      "Ġgeweigerd": 5104,
      "Ġrad": 5105,
      "Ġ164": 5106,
      "Ġagr": 5107,
      "Ġtol": 5108,
      "spre": 5109,
      "Ġtoelaat": 5110,
      "Ġkinderen": 5111,
      "Ġdierlijke": 5112,
      "mingen": 5113,
      "Ġminer": 5114,
      "zakelijke": 5115,
      "Ġonderscheidend": 5116,
      "iteits": 5117,
      "Ġstud": 5118,
      "Ġ540": 5119,
      "Ġvertra": 5120,
      "Ġkind": 5121,
      "Ġgedeeltelijke": 5122,
      "Ġvervuld": 5123,
      "asten": 5124,
      "stre": 5125,
      "Ġlaste": 5126,
      "Ġdouanewet": 5127,
      "uminium": 5128,
      "orrel": 5129,
      "Ġjap": 5130,
      "brenging": 5131,
      "Ġvergunningen": 5132,
      "Ġ151": 5133,
      "Ġgemeente": 5134,
      "ata": 5135,
      "Ġweek": 5136,
      "Ġdouanerechten": 5137,
      "Ġdur": 5138,
      "heffingen": 5139,
      "Ġopleiding": 5140,
      "Ġ166": 5141,
      "Ġprefer": 5142,
      "Ġuitgeoef": 5143,
      "Ġingeval": 5144,
      "breuk": 5145,
      "Ġlijkt": 5146,
      "Ġ1969": 5147,
      "Ġofferte": 5148,
      "gers": 5149,
      "Ġevenredigheidsbeginsel": 5150,
      "Ġvice": 5151,
      "vallen": 5152,
      "Ġverhoging": 5153,
      "Ġantwoorden": 5154,
      "capaciteit": 5155,
      "ian": 5156,
      "yr": 5157,
      "Ġgeformul": 5158,
      "Ġkern": 5159,
      "Ġaute": 5160,
      "net": 5161,
      "Ġpoeder": 5162,
      "Ġbeveil": 5163,
      "Ġetiket": 5164,
      "Ġfinancieel": 5165,
      "Ġbrandstof": 5166,
      "Ġhelleense": 5167,
      "Ġflu": 5168,
      "methode": 5169,
      "Ġverliezen": 5170,
      "Ġaanwijzing": 5171,
      "Ġontleend": 5172,
      "Ġcompensatie": 5173,
      "Ġsancties": 5174,
      "Ġaanbev": 5175,
      "Ġdaardoor": 5176,
      "Ġijzer": 5177,
      "Ġhongarije": 5178,
      "Ġniets": 5179,
      "vaardigen": 5180,
      "ĠÎº": 5181,
      "Ġindia": 5182,
      "Ġheden": 5183,
      "Ġvernemen": 5184,
      "ish": 5185,
      "aamde": 5186,
      "ellect": 5187,
      "deelde": 5188,
      "Ġvernietiging": 5189,
      "Ġindividueel": 5190,
      "Ġ132": 5191,
      "Ġ143": 5192,
      "Ġuitvoeren": 5193,
      "plan": 5194,
      "Ġmid": 5195,
      "missie": 5196,
      "Ġwetgevingen": 5197,
      "Ġinschrijv": 5198,
      "Ġaanstelling": 5199,
      "Ġ1701": 5200,
      "Ġintellect": 5201,
      "Ġverbintenis": 5202,
      "norm": 5203,
      "Ġgroter": 5204,
      "kent": 5205,
      "Ġgep": 5206,
      "Ġoverl": 5207,
      "Ġvlag": 5208,
      "Ġvervoerd": 5209,
      "pa": 5210,
      "Ġpolitie": 5211,
      "Ġbanden": 5212,
      "wijn": 5213,
      "Ġprestaties": 5214,
      "Î¿Ïħ": 5215,
      "Ġindones": 5216,
      "Ġrevol": 5217,
      "Ġogen": 5218,
      "Ġovergangs": 5219,
      "Ġfot": 5220,
      "Ġafgeleid": 5221,
      "Ġfonds": 5222,
      "Ġgeint": 5223,
      "Ġlok": 5224,
      "Ġchl": 5225,
      "vergunning": 5226,
      "allen": 5227,
      "Ġprepar": 5228,
      "Ġ220": 5229,
      "rium": 5230,
      "Ġegks": 5231,
      "Ġorganisaties": 5232,
      "macht": 5233,
      "Ġgevangen": 5234,
      "Ġbewijsmateriaal": 5235,
      "ats": 5236,
      "Ġ620": 5237,
      "zee": 5238,
      "Ġghs": 5239,
      "Ġonverenigbaar": 5240,
      "Ġwoorden": 5241,
      "alige": 5242,
      "Ġ149": 5243,
      "Ġwoonplaats": 5244,
      "Ġesp": 5245,
      "Ġ263": 5246,
      "Ġbevordering": 5247,
      "Ġreis": 5248,
      "Ġverdere": 5249,
      "overweg": 5250,
      "Ġgewoon": 5251,
      "chlor": 5252,
      "Ġcoordinatie": 5253,
      "Ġ156": 5254,
      "Ġdruk": 5255,
      "Ġvindt": 5256,
      "Ġafvalstoffen": 5257,
      "Ġbeste": 5258,
      "Ġgemot": 5259,
      "Ð»": 5260,
      "Ġharde": 5261,
      "Ġfur": 5262,
      "Ġbelangrijkste": 5263,
      "Ġoplossing": 5264,
      "Ġaanvankelijk": 5265,
      "Ġ127": 5266,
      "Ġ178": 5267,
      "Ġnoodzakelijke": 5268,
      "Ġwin": 5269,
      "Ġgelang": 5270,
      "Ġbree": 5271,
      "Ġgepre": 5272,
      "Ġonderzoektijdvak": 5273,
      "Ġkennelijke": 5274,
      "verzekering": 5275,
      "Ġlaatstgenoemde": 5276,
      "Ġinvoering": 5277,
      "Ġinhou": 5278,
      "Ġ137": 5279,
      "Ġaanvullend": 5280,
      "Ġleeftijd": 5281,
      "heidsbeginsel": 5282,
      "Ġverwarr": 5283,
      "Ġregelgeving": 5284,
      "blemen": 5285,
      "Ġrond": 5286,
      "Ġvangst": 5287,
      "Ġzekerheden": 5288,
      "Ġgerst": 5289,
      "Ġrechtvaardigen": 5290,
      "Ġtaf": 5291,
      "Ġgevolgd": 5292,
      "Ġgriekse": 5293,
      "Ġbereid": 5294,
      "jn": 5295,
      "Ġvoren": 5296,
      "Ġviii": 5297,
      "Ġdepart": 5298,
      "Ġgering": 5299,
      "Ġgespecif": 5300,
      "Ġartic": 5301,
      "Ġpassend": 5302,
      "ÏĤ": 5303,
      "ott": 5304,
      "Ġhiervan": 5305,
      "houders": 5306,
      "Ġtribunal": 5307,
      "Ġabsol": 5308,
      "Ġmonetaire": 5309,
      "Ġvre": 5310,
      "ral": 5311,
      "iven": 5312,
      "rempel": 5313,
      "Ġsterk": 5314,
      "Ġww": 5315,
      "ructies": 5316,
      "stane": 5317,
      "Ġconst": 5318,
      "Ġhoedan": 5319,
      "Ġspp": 5320,
      "istan": 5321,
      "ries": 5322,
      "Ġvaststelt": 5323,
      "Ġoekra": 5324,
      "ote": 5325,
      "ondheids": 5326,
      "auw": 5327,
      "Ġvruchten": 5328,
      "Ġvit": 5329,
      "Ġ147": 5330,
      "ÑĤ": 5331,
      "Ġrechtens": 5332,
      "aterale": 5333,
      "Ġsubsidie": 5334,
      "ĠÏĢ": 5335,
      "beoordeling": 5336,
      "ado": 5337,
      "Ġ189": 5338,
      "Ġgemotiv": 5339,
      "Ġprin": 5340,
      "Ġrecl": 5341,
      "Ġmob": 5342,
      "Ġdubb": 5343,
      "Î³": 5344,
      "hulp": 5345,
      "ero": 5346,
      "Ġafbreuk": 5347,
      "atom": 5348,
      "ala": 5349,
      "grondslag": 5350,
      "Ġpersoonlijke": 5351,
      "rr": 5352,
      "oedkeur": 5353,
      "Ġdeelname": 5354,
      "oereikend": 5355,
      "spraken": 5356,
      "Ġvoorbehoud": 5357,
      "Ġverlening": 5358,
      "Ġbeeindiging": 5359,
      "rapp": 5360,
      "Ġaluminium": 5361,
      "ket": 5362,
      "Ġschriftelijk": 5363,
      "doeleinden": 5364,
      "Ġfundamentele": 5365,
      "Ġeenheden": 5366,
      "Ġlevende": 5367,
      "comite": 5368,
      "Ġ388": 5369,
      "Ġoperationele": 5370,
      "Ġopzet": 5371,
      "vor": 5372,
      "Ġapparaten": 5373,
      "arma": 5374,
      "Ġrechtvaardiging": 5375,
      "olen": 5376,
      "amt": 5377,
      "Ġdeelt": 5378,
      "Ġintellectuele": 5379,
      "verende": 5380,
      "Ġbreuk": 5381,
      "iland": 5382,
      "Ġvergadering": 5383,
      "dingen": 5384,
      "Ġkoop": 5385,
      "Ġmor": 5386,
      "Ġgevraagde": 5387,
      "verslag": 5388,
      "Ġhandha": 5389,
      "Ġvergelijkbare": 5390,
      "bit": 5391,
      "igings": 5392,
      "Ġvolume": 5393,
      "ioneel": 5394,
      "Ġ1068": 5395,
      "Ġprovin": 5396,
      "Ġpen": 5397,
      "Ġsanctie": 5398,
      "Ġethyl": 5399,
      "spositie": 5400,
      "Ġbeperkte": 5401,
      "Ġvervallen": 5402,
      "vragen": 5403,
      "Ġexploitant": 5404,
      "Ġvoortvloeit": 5405,
      "Ġscha": 5406,
      "Ġvoorziene": 5407,
      "Ġanalys": 5408,
      "rastructuur": 5409,
      "Ġparag": 5410,
      "Ġ2727": 5411,
      "Ġlog": 5412,
      "Ġonderwijs": 5413,
      "Ġwetboek": 5414,
      "Ġtelevis": 5415,
      "Ġnetwerk": 5416,
      "richtlijn": 5417,
      "Ġtekens": 5418,
      "Ġbehoort": 5419,
      "Ġbehoudens": 5420,
      "Ġinterveniente": 5421,
      "Ġot": 5422,
      "Ġaltern": 5423,
      "Ġgebleken": 5424,
      "plement": 5425,
      "Ġvoorlopig": 5426,
      "Ġvroeg": 5427,
      "Ġdraagt": 5428,
      "abor": 5429,
      "oont": 5430,
      "Ġtreden": 5431,
      "schak": 5432,
      "Ġspecific": 5433,
      "Ġaanwijzingen": 5434,
      "maal": 5435,
      "Ġtariefcontingent": 5436,
      "Ġhy": 5437,
      "Ġ168": 5438,
      "Ġtijdelijk": 5439,
      "Ġimplic": 5440,
      "Ġgerapporteerd": 5441,
      "Ġaangem": 5442,
      "Ġexp": 5443,
      "Ġnederlanden": 5444,
      "Ġincident": 5445,
      "ban": 5446,
      "Ġpersoons": 5447,
      "Ġsur": 5448,
      "Ġtal": 5449,
      "oogst": 5450,
      "Ġmaatschapp": 5451,
      "oogde": 5452,
      "Ġsteunmaatregelen": 5453,
      "Ġindustriele": 5454,
      "Ġwillen": 5455,
      "Ġomtrent": 5456,
      "Ġmun": 5457,
      "Ġuitgebreid": 5458,
      "Ġakk": 5459,
      "doen": 5460,
      "Ġsr": 5461,
      "poeder": 5462,
      "Ġdaadwerkelijke": 5463,
      "Ġnoo": 5464,
      "Ġplaatsvindt": 5465,
      "Ġ157": 5466,
      "Ġontslag": 5467,
      "illeerde": 5468,
      "Ġlij": 5469,
      "orven": 5470,
      "Ġgminy": 5471,
      "Ġ2150": 5472,
      "Ġ172": 5473,
      "9900": 5474,
      "ical": 5475,
      "Ġoverw": 5476,
      "gingen": 5477,
      "Ġrechtspersoon": 5478,
      "Ġ0404": 5479,
      "Ġho": 5480,
      "Ġgevraagd": 5481,
      "indust": 5482,
      "Ġgewaarborg": 5483,
      "Ġliqu": 5484,
      "yc": 5485,
      "egoedkeur": 5486,
      "Ġregelen": 5487,
      "ĠÎµ": 5488,
      "Ġgrondrechten": 5489,
      "Ġcijfers": 5490,
      "Ġlatere": 5491,
      "Ġreserve": 5492,
      "Ġ730": 5493,
      "Ġgeldigheids": 5494,
      "Ġvoornoemde": 5495,
      "reerde": 5496,
      "ierst": 5497,
      "amine": 5498,
      "Ġfeitelijk": 5499,
      "Ġein": 5500,
      "dings": 5501,
      "dieren": 5502,
      "Ġuitsluiting": 5503,
      "rage": 5504,
      "Ġstro": 5505,
      "osf": 5506,
      "mogens": 5507,
      "Ġimp": 5508,
      "Ġbinden": 5509,
      "Ġ175": 5510,
      "Ġoef": 5511,
      "Ġrapporter": 5512,
      "Ġdm": 5513,
      "sprodu": 5514,
      "Ġboete": 5515,
      "niveau": 5516,
      "Ġinternationaal": 5517,
      "Ġtu": 5518,
      "Ġaangaande": 5519,
      "erm": 5520,
      "Ġoffic": 5521,
      "Ġod": 5522,
      "Ġelders": 5523,
      "vel": 5524,
      "Ġbijk": 5525,
      "Ġzetten": 5526,
      "Ġbeoordelingsperiode": 5527,
      "Ġdwingen": 5528,
      "Ġovereenkomstsluitende": 5529,
      "Ġvanwege": 5530,
      "Ġdouanewetboek": 5531,
      "Ġsaccharose": 5532,
      "rechter": 5533,
      "Ġmengsels": 5534,
      "uid": 5535,
      "ĠÏĦ": 5536,
      "Ġgerezen": 5537,
      "Ġaanvoer": 5538,
      "Ġuk": 5539,
      "Ġ721": 5540,
      "Ġschappen": 5541,
      "Ġprestatie": 5542,
      "Ġplaatsvinden": 5543,
      "Ġ155": 5544,
      "kundig": 5545,
      "Ġcommiss": 5546,
      "Ġonmogelijk": 5547,
      "Ġog": 5548,
      "Ġvervan": 5549,
      "Ġaangedu": 5550,
      "Ġvolgen": 5551,
      "Ġeerdere": 5552,
      "Ġtransport": 5553,
      "organisatie": 5554,
      "ften": 5555,
      "Ġrechtsopvatting": 5556,
      "Ġjapan": 5557,
      "artikel": 5558,
      "Ġverlang": 5559,
      "Ġeerbie": 5560,
      "Ġsoc": 5561,
      "Ġkwart": 5562,
      "Ġhoedanigheid": 5563,
      "Ġaanbesteding": 5564,
      "Ġcif": 5565,
      "Ġgewone": 5566,
      "Î»": 5567,
      "Ġzijde": 5568,
      "ontwikkeling": 5569,
      "Ġrevolverende": 5570,
      "gebieden": 5571,
      "ex": 5572,
      "temin": 5573,
      "Ġsystem": 5574,
      "Ġuniforme": 5575,
      "Ġuitkeringen": 5576,
      "Ġtrekken": 5577,
      "Ġuitrust": 5578,
      "Ġmicro": 5579,
      "Ġsystemen": 5580,
      "Ġ520": 5581,
      "azione": 5582,
      "Ġherhaal": 5583,
      "zin": 5584,
      "vert": 5585,
      "Ġeuratom": 5586,
      "Ġherinnering": 5587,
      "Ġnormaal": 5588,
      "stein": 5589,
      "ias": 5590,
      "Ġvoordelen": 5591,
      "ureaus": 5592,
      "aff": 5593,
      "97": 5594,
      "Ġmeet": 5595,
      "Ġorig": 5596,
      "Ġbegroting": 5597,
      "Ġnal": 5598,
      "Ġ440": 5599,
      "Ġgraan": 5600,
      "Ġwezenlijke": 5601,
      "Ġinvoerwaarden": 5602,
      "Ġgein": 5603,
      "hankelijke": 5604,
      "Ġlic": 5605,
      "Ġ720": 5606,
      "Ġgewichtspercent": 5607,
      "Ġ181": 5608,
      "Ġmotiveringsplicht": 5609,
      "lijst": 5610,
      "Ġtwijfel": 5611,
      "Ġbestemde": 5612,
      "Ġnb": 5613,
      "Ġantidumpingrecht": 5614,
      "hand": 5615,
      "Ġbetwi": 5616,
      "Ġvolstaat": 5617,
      "Ġkleding": 5618,
      "Ġechtgen": 5619,
      "ux": 5620,
      "Ġjo": 5621,
      "Ġ171": 5622,
      "bescherm": 5623,
      "Ġvariabele": 5624,
      "Ġtypegoedkeur": 5625,
      "Ġgeldigheidsduur": 5626,
      "omin": 5627,
      "huis": 5628,
      "Ġaqu": 5629,
      "Ġbestanddelen": 5630,
      "Ġboord": 5631,
      "Ġmethoden": 5632,
      "Ġdistill": 5633,
      "merking": 5634,
      "ants": 5635,
      "Ġyl": 5636,
      "Ġverj": 5637,
      "Ġbestond": 5638,
      "Ġzon": 5639,
      "erse": 5640,
      "Ġ152": 5641,
      "Ġauth": 5642,
      "Ġonverwijl": 5643,
      "Ġuw": 5644,
      "Ġverhuur": 5645,
      "fu": 5646,
      "Ġmocht": 5647,
      "Ġ1234": 5648,
      "Ġverzending": 5649,
      "egeling": 5650,
      "Ġnagestree": 5651,
      "Ġkil": 5652,
      "ificeerd": 5653,
      "Ġtradit": 5654,
      "Ġverdachte": 5655,
      "oul": 5656,
      "Ġmoeilijkheden": 5657,
      "Ġafzet": 5658,
      "Ġhaven": 5659,
      "Ġassociatie": 5660,
      "korrel": 5661,
      "Ġ167": 5662,
      "Ġkore": 5663,
      "Ġherziening": 5664,
      "Ġnv": 5665,
      "Ġstaving": 5666,
      "ym": 5667,
      "Ġfys": 5668,
      "Ġwisselkoersen": 5669,
      "Ġwal": 5670,
      "Ġvermoeden": 5671,
      "Ġband": 5672,
      "Ġdetail": 5673,
      "Ġ174": 5674,
      "any": 5675,
      "Ġdaarnaast": 5676,
      "Ġinput": 5677,
      "Ġuitgevoerde": 5678,
      "Ġ154": 5679,
      "Ġstrekt": 5680,
      "Ġ529900": 5681,
      "Ġstadium": 5682,
      "Ġstatus": 5683,
      "Ġles": 5684,
      "Ġ146": 5685,
      "Ġuitbre": 5686,
      "Ġ800": 5687,
      "eegd": 5688,
      "Ġslow": 5689,
      "Ġox": 5690,
      "ival": 5691,
      "Ġrespect": 5692,
      "Ġ1702": 5693,
      "ype": 5694,
      "Ġdiver": 5695,
      "Ġgelegenheid": 5696,
      "Ġhtt": 5697,
      "Ġwaarborg": 5698,
      "stoe": 5699,
      "arissen": 5700,
      "Ġdranken": 5701,
      "Ġiniti": 5702,
      "Ġvoorbere": 5703,
      "Ġstij": 5704,
      "Ġhoeft": 5705,
      "Ġuitwisseling": 5706,
      "Ġkla": 5707,
      "Ġuitgeoefend": 5708,
      "uz": 5709,
      "atier": 5710,
      "Ġmg": 5711,
      "Ġgevolge": 5712,
      "Ġuitein": 5713,
      "Ġinstructies": 5714,
      "Ġopschrift": 5715,
      "dert": 5716,
      "Ġformele": 5717,
      "Ġ340": 5718,
      "Ġvolt": 5719,
      "rukt": 5720,
      "Ġbehoor": 5721,
      "Ġ310": 5722,
      "Ġomrekeningskoers": 5723,
      "digt": 5724,
      "Ġcontante": 5725,
      "Ġaantonen": 5726,
      "band": 5727,
      "Ġtechnisch": 5728,
      "Ġ144": 5729,
      "Ġlijn": 5730,
      "ondsen": 5731,
      "Ġgezins": 5732,
      "Ġaanbestedende": 5733,
      "Ġ161": 5734,
      "bron": 5735,
      "Ġ404": 5736,
      "Ġqr": 5737,
      "overschrij": 5738,
      "Ġ153": 5739,
      "Ġnegatieve": 5740,
      "Ġaanhangig": 5741,
      "Ġlooptijd": 5742,
      "Ġbes": 5743,
      "Ġruss": 5744,
      "oma": 5745,
      "Ġhandhaven": 5746,
      "able": 5747,
      "ontre": 5748,
      "issement": 5749,
      "Ġpersoneelsleden": 5750,
      "ional": 5751,
      "Ġonverwijld": 5752,
      "nie": 5753,
      "onnen": 5754,
      "Ġ158": 5755,
      "Ġcontin": 5756,
      "Ġgaranderen": 5757,
      "onderzoek": 5758,
      "ature": 5759,
      "Ġ162": 5760,
      "Ġbewij": 5761,
      "structur": 5762,
      "Ġpermanente": 5763,
      "ars": 5764,
      "uc": 5765,
      "Ġbehulp": 5766,
      "oemenie": 5767,
      "Ġgeinteg": 5768,
      "Ġser": 5769,
      "Ġbetalings": 5770,
      "opende": 5771,
      "cip": 5772,
      "Ġroemenie": 5773,
      "Ġveror": 5774,
      "Ġondan": 5775,
      "Ġzodra": 5776,
      "Ġreclame": 5777,
      "Ġhoofdzakelijk": 5778,
      "Ġtelef": 5779,
      "Ġondanks": 5780,
      "sms": 5781,
      "Ġcombinatie": 5782,
      "pret": 5783,
      "Ġrq": 5784,
      "Ġderi": 5785,
      "Ġdirecte": 5786,
      "pleg": 5787,
      "zool": 5788,
      "gelang": 5789,
      "document": 5790,
      "Ġverantwoordelijkheid": 5791,
      "Ġlange": 5792,
      "Ġinvoerrecht": 5793,
      "Ġmachtspositie": 5794,
      "Ġzuivelprodukten": 5795,
      "Ġoversch": 5796,
      "Ġnaargelang": 5797,
      "Ġinschrijver": 5798,
      "ida": 5799,
      "Ġmarokk": 5800,
      "Ġtoegepaste": 5801,
      "Ġreto": 5802,
      "Ġniettemin": 5803,
      "Ġplatt": 5804,
      "Ġveran": 5805,
      "Ġtegelijk": 5806,
      "aarde": 5807,
      "Ġrsms": 5808,
      "Ġgarens": 5809,
      "200": 5810,
      "Ġaspecten": 5811,
      "Ġverschuldigde": 5812,
      "Ġformulier": 5813,
      "Ġsmot": 5814,
      "Ġoverheidsopdrachten": 5815,
      "Ġrqrr": 5816,
      "Ġqrre": 5817,
      "Ġprop": 5818,
      "Ġvoorgestelde": 5819,
      "Ġ165": 5820,
      "Ġ184": 5821,
      "duidelijk": 5822,
      "ĠÃĹ": 5823,
      "Ġmsc": 5824,
      "mark": 5825,
      "Ġaanwezigheid": 5826,
      "voertuigen": 5827,
      "Ġvooruit": 5828,
      "Ġweergegeven": 5829,
      "wn": 5830,
      "Ġ0403": 5831,
      "Ġtoelating": 5832,
      "Ġoekraine": 5833,
      "ĠâĢ¢": 5834,
      "Ġrubber": 5835,
      "Ġvezels": 5836,
      "criteri": 5837,
      "Ġonderhoud": 5838,
      "Ġonderstaande": 5839,
      "Ġvac": 5840,
      "Ġ182": 5841,
      "Ġ337": 5842,
      "machines": 5843,
      "gevol": 5844,
      "Ġapparatuur": 5845,
      "Ġdening": 5846,
      "Ġesc": 5847,
      "Ġ163": 5848,
      "Ġstrekking": 5849,
      "Ġrepubl": 5850,
      "rap": 5851,
      "Ġ299": 5852,
      "etaris": 5853,
      "Ġziet": 5854,
      "Ġarbeidsovereenkomst": 5855,
      "ido": 5856,
      "Ġcirc": 5857,
      "orting": 5858,
      "Ġgeprecis": 5859,
      "Ġterrit": 5860,
      "raaf": 5861,
      "Ġschulden": 5862,
      "Ġstate": 5863,
      "Ġafsch": 5864,
      "Ġverbetering": 5865,
      "Ġging": 5866,
      "Ġgebruiks": 5867,
      "Ġjunct": 5868,
      "Ġ159": 5869,
      "stroom": 5870,
      "Ġking": 5871,
      "ock": 5872,
      "Ġcassatie": 5873,
      "Ġtoch": 5874,
      "ict": 5875,
      "Ġkantoor": 5876,
      "ienten": 5877,
      "Ġnauwkeurig": 5878,
      "steund": 5879,
      "Ġplc": 5880,
      "laat": 5881,
      "Ġsim": 5882,
      "Ġdiverse": 5883,
      "Ġzogen": 5884,
      "Ġvervolg": 5885,
      "Ġherstructur": 5886,
      "aborator": 5887,
      "Ġjuiste": 5888,
      "Ġonrechtmatige": 5889,
      "ita": 5890,
      "Ġpersoonsgegevens": 5891,
      "bedrijven": 5892,
      "rijst": 5893,
      "Ġintra": 5894,
      "Ġcollectieve": 5895,
      "Ġbijeenkomst": 5896,
      "Ġgeregeld": 5897,
      "Ġverlengd": 5898,
      "Ġ1049": 5899,
      "Ġplatteland": 5900,
      "Ġmaat": 5901,
      "Ġlouter": 5902,
      "Ġvoorh": 5903,
      "Ġschorsing": 5904,
      "anal": 5905,
      "Ġexec": 5906,
      "Ġeerbiediging": 5907,
      "aardige": 5908,
      "Ġrechte": 5909,
      "Ġ610": 5910,
      "Ġwaartoe": 5911,
      "Ġnit": 5912,
      "Ġbevinden": 5913,
      "Ġuitgang": 5914,
      "Ġren": 5915,
      "Ġgeconsol": 5916,
      "Ġgepreciseerd": 5917,
      "undigen": 5918,
      "rein": 5919,
      "Ġrue": 5920,
      "Ġinvest": 5921,
      "Ġgeworden": 5922,
      "illa": 5923,
      "Ġgarantie": 5924,
      "Ġsluiting": 5925,
      "ira": 5926,
      "Ġorganen": 5927,
      "verplicht": 5928,
      "Ġvermeer": 5929,
      "industrie": 5930,
      "kundige": 5931,
      "iete": 5932,
      "Ġ2694": 5933,
      "Ġinstallaties": 5934,
      "Ġheer": 5935,
      "Ġbrit": 5936,
      "Ġkap": 5937,
      "goed": 5938,
      "systemen": 5939,
      "lich": 5940,
      "Ġhaak": 5941,
      "Ġtun": 5942,
      "Ġaller": 5943,
      "Ġuitmaakt": 5944,
      "Ġix": 5945,
      "100": 5946,
      "Ġdest": 5947,
      "Ġtier": 5948,
      "Ġwest": 5949,
      "Ġgemotiveerd": 5950,
      "Ġinleiding": 5951,
      "korrelige": 5952,
      "Ġovergedragen": 5953,
      "Ġverlaagd": 5954,
      "span": 5955,
      "instrumenten": 5956,
      "Ġbon": 5957,
      "orgt": 5958,
      "Ġonafhankelijke": 5959,
      "Ġbovenstaande": 5960,
      "Ġinstand": 5961,
      "Ġreele": 5962,
      "iem": 5963,
      "Ġleveringen": 5964,
      "Ġgunstig": 5965,
      "Ġvergem": 5966,
      "Ġcoefficient": 5967,
      "Ġaangehouden": 5968,
      "Ġ176": 5969,
      "Ġsociaal": 5970,
      "Ġ270": 5971,
      "Ġwonende": 5972,
      "rof": 5973,
      "afdeling": 5974,
      "Ġdon": 5975,
      "Ġauteurs": 5976,
      "Ġsulf": 5977,
      "Ġalthans": 5978,
      "Ġbeoogde": 5979,
      "Ġ226": 5980,
      "Ġonmiddellijke": 5981,
      "Ġinstrument": 5982,
      "Ġtoetred": 5983,
      "Ġker": 5984,
      "Ġtransactie": 5985,
      "ren": 5986,
      "Ġbetrekkingen": 5987,
      "Ġdienovereenkomst": 5988,
      "Ġbehoeften": 5989,
      "Ġeigenaar": 5990,
      "ijs": 5991,
      "Ġkorte": 5992,
      "Ġgezondheids": 5993,
      "Ġrende": 5994,
      "Ġbw": 5995,
      "hem": 5996,
      "gevaar": 5997,
      "Ġzwee": 5998,
      "Ġbiedt": 5999,
      "Ġondertekend": 6000,
      "Ġaanbod": 6001,
      "fout": 6002,
      "kop": 6003,
      "neden": 6004,
      "Ġhandhaving": 6005,
      "Ġminstens": 6006,
      "Ġvergelijkbaar": 6007,
      "Ġtempl": 6008,
      "Ġverzonden": 6009,
      "Ġoorsprongs": 6010,
      "carbon": 6011,
      "Ġjon": 6012,
      "Ġvergemakkelijk": 6013,
      "ĠpoÅĤ": 6014,
      "Ġinstallatie": 6015,
      "Ġbreukrijst": 6016,
      "Ġhl": 6017,
      "intig": 6018,
      "zy": 6019,
      "gaat": 6020,
      "Ġexter": 6021,
      "Ġlandbouwbeleid": 6022,
      "Ġpan": 6023,
      "Ġbenad": 6024,
      "Ġgevorderd": 6025,
      "richtingen": 6026,
      "Ġopgericht": 6027,
      "990": 6028,
      "Ġaanduidingen": 6029,
      "Ġann": 6030,
      "Ġ239": 6031,
      "Ġmaatst": 6032,
      "Ġbijeenkomsten": 6033,
      "install": 6034,
      "ieerde": 6035,
      "Ġuitdrukking": 6036,
      "Ġaangevraagd": 6037,
      "Ġgebrek": 6038,
      "Ġprocedur": 6039,
      "Ġvernietigen": 6040,
      "Ġwetgever": 6041,
      "Ġstatistische": 6042,
      "Ġtoepassingsgebied": 6043,
      "nl": 6044,
      "Ġbevor": 6045,
      "Ġadvis": 6046,
      "Ġveroorzaakt": 6047,
      "standigheden": 6048,
      "Ġdegene": 6049,
      "Ġuitmaken": 6050,
      "instelling": 6051,
      "Ġ215": 6052,
      "Ġkopie": 6053,
      "Ġonderdaan": 6054,
      "och": 6055,
      "Ġkalen": 6056,
      "Ġ1104": 6057,
      "Ġgehar": 6058,
      "Ġvrijgesteld": 6059,
      "Ġopgeslagen": 6060,
      "Ġgrondstoffen": 6061,
      "Ġdrempel": 6062,
      "Ġtranspar": 6063,
      "zonden": 6064,
      "ĠâĢ²": 6065,
      "Ġopgev": 6066,
      "Ġtoegestane": 6067,
      "Ġoefenen": 6068,
      "Ġstroom": 6069,
      "Ġgeconsolide": 6070,
      "Ġvergez": 6071,
      "Ġanderen": 6072,
      "Ġrec": 6073,
      "Ġoppervlakte": 6074,
      "Ġplattelands": 6075,
      "Ġtwaal": 6076,
      "markten": 6077,
      "ble": 6078,
      "Ġbewezen": 6079,
      "voudige": 6080,
      "Ġdemo": 6081,
      "Ġbevorderen": 6082,
      "Ġ253": 6083,
      "Ġonderverdelingen": 6084,
      "Ġbezwaren": 6085,
      "Ġvastgelegd": 6086,
      "Ġlie": 6087,
      "Ġiec": 6088,
      "Ġaccijn": 6089,
      "plaatsen": 6090,
      "Ġsubst": 6091,
      "gierst": 6092,
      "Ġgemeten": 6093,
      "Ġ187": 6094,
      "icip": 6095,
      "gro": 6096,
      "Ġvermeldingen": 6097,
      "Ġtariefcontingenten": 6098,
      "Ġbeinvloe": 6099,
      "Ġgedraging": 6100,
      "Ġcyp": 6101,
      "Ġklanten": 6102,
      "Ġbeschermen": 6103,
      "Ġloc": 6104,
      "ilanden": 6105,
      "bureaus": 6106,
      "Ġwa": 6107,
      "Ġkwalificatie": 6108,
      "Ġcomun": 6109,
      "Ġciv": 6110,
      "Ġgerechtelijke": 6111,
      "Ġrws": 6112,
      "Ġaanspraak": 6113,
      "digen": 6114,
      "Ġnoteringen": 6115,
      "Ġnagegaan": 6116,
      "Ġmail": 6117,
      "splan": 6118,
      "Ġlact": 6119,
      "Ġdef": 6120,
      "ogram": 6121,
      "Ðº": 6122,
      "Ġreeks": 6123,
      "Ġbeschermd": 6124,
      "ronden": 6125,
      "bu": 6126,
      "Ġinval": 6127,
      "loos": 6128,
      "Ġoverschreden": 6129,
      "Ġgemeinde": 6130,
      "uitker": 6131,
      "ali": 6132,
      "Ġsteunmaatregel": 6133,
      "fe": 6134,
      "Ġ1103": 6135,
      "behoren": 6136,
      "Ġeuropean": 6137,
      "Ġverificatie": 6138,
      "Ġrod": 6139,
      "Ġevenwicht": 6140,
      "Ġitaliaans": 6141,
      "Ġterugvordering": 6142,
      "cept": 6143,
      "Ġtafel": 6144,
      "Ġbegrotings": 6145,
      "Ġproblemen": 6146,
      "punten": 6147,
      "zel": 6148,
      "zn": 6149,
      "Ġgrootste": 6150,
      "Ġverwijt": 6151,
      "Ġcontroleren": 6152,
      "spunt": 6153,
      "endingen": 6154,
      "icol": 6155,
      "ulling": 6156,
      "Ġvoorschot": 6157,
      "Ġaus": 6158,
      "bedo": 6159,
      "Ġbuizen": 6160,
      "Ġpin": 6161,
      "Ġkomende": 6162,
      "Ġdam": 6163,
      "Ġinspectie": 6164,
      "Ġverwezenlijking": 6165,
      "gerekend": 6166,
      "Ġvliegt": 6167,
      "Ġplantaardige": 6168,
      "vogels": 6169,
      "Ġhandelen": 6170,
      "Ġdienovereenkomstig": 6171,
      "Ġpal": 6172,
      "ora": 6173,
      "Ġvermelden": 6174,
      "Ġontb": 6175,
      "erin": 6176,
      "rist": 6177,
      "rat": 6178,
      "Ġtotstand": 6179,
      "itiek": 6180,
      "Ġnota": 6181,
      "Ġinrichting": 6182,
      "Ġinspecteur": 6183,
      "Ġdella": 6184,
      "Ġderiv": 6185,
      "Ġmoesten": 6186,
      "Ġkro": 6187,
      "Ġjuncto": 6188,
      "Ġverplichte": 6189,
      "usule": 6190,
      "Ġondergaan": 6191,
      "vorder": 6192,
      "Ġifr": 6193,
      "Ġprijsver": 6194,
      "Ġgelegd": 6195,
      "bri": 6196,
      "Ġernstig": 6197,
      "Ġdiende": 6198,
      "Ġvat": 6199,
      "Ġmest": 6200,
      "jar": 6201,
      "gsten": 6202,
      "ack": 6203,
      "Ġverwijzings": 6204,
      "aarden": 6205,
      "Ġconcurrenten": 6206,
      "Ġletter": 6207,
      "Ġcpa": 6208,
      "ipp": 6209,
      "aria": 6210,
      "Ġfranco": 6211,
      "Ġbeantwoorden": 6212,
      "uel": 6213,
      "ituatie": 6214,
      "iceerde": 6215,
      "ikaanse": 6216,
      "Ġgeboden": 6217,
      "Ġconvent": 6218,
      "Ġras": 6219,
      "iten": 6220,
      "Ġplaatse": 6221,
      "Ġljn": 6222,
      "Ġverzetten": 6223,
      "acion": 6224,
      "Ġvereniging": 6225,
      "Ġmad": 6226,
      "igh": 6227,
      "Ġomzetbelasting": 6228,
      "Ġara": 6229,
      "Ġexclus": 6230,
      "tar": 6231,
      "Ġafgestem": 6232,
      "Ġstrekkende": 6233,
      "Ġerv": 6234,
      "Ã¸r": 6235,
      "vig": 6236,
      "Ġpassag": 6237,
      "Ġburg": 6238,
      "Ġverwerk": 6239,
      "Ġlgo": 6240,
      "oringen": 6241,
      "Ġaand": 6242,
      "Ġontvangt": 6243,
      "chloride": 6244,
      "Ġkinder": 6245,
      "Ġconcess": 6246,
      "Î±Ïģ": 6247,
      "Ġinfrastructuur": 6248,
      "kens": 6249,
      "Ġbasisbedrag": 6250,
      "Ġrussische": 6251,
      "Ġbeoogt": 6252,
      "eft": 6253,
      "Ġud": 6254,
      "etz": 6255,
      "Ġhieronder": 6256,
      "osl": 6257,
      "Ġvoeder": 6258,
      "schoon": 6259,
      "stellings": 6260,
      "Ġverontre": 6261,
      "instantie": 6262,
      "vorens": 6263,
      "rang": 6264,
      "Ġnatrium": 6265,
      "Ġannex": 6266,
      "Ġwww": 6267,
      "Ġ543": 6268,
      "Ġdiens": 6269,
      "Ġtekort": 6270,
      "Ġkarton": 6271,
      "Ġalvorens": 6272,
      "Ġias": 6273,
      "Ġrechtsgrondslag": 6274,
      "Ġvn": 6275,
      "ÃŁ": 6276,
      "Ġgeluid": 6277,
      "Ġmassa": 6278,
      "vorming": 6279,
      "Ġvooral": 6280,
      "Ġred": 6281,
      "Ġuitvoerrestitut": 6282,
      "Ġomkleed": 6283,
      "Ġanti": 6284,
      "Ġcontracten": 6285,
      "vlak": 6286,
      "Ġmensen": 6287,
      "Ġtoetredings": 6288,
      "Ġfactuur": 6289,
      "Ġdeskundigen": 6290,
      "urit": 6291,
      "overwegingen": 6292,
      "Ġdemocr": 6293,
      "sprij": 6294,
      "Ġtarieven": 6295,
      "Ġgrensoverschrij": 6296,
      "Ġongel": 6297,
      "Ġxx": 6298,
      "quentie": 6299,
      "Ġverspre": 6300,
      "Ġglucose": 6301,
      "Ġconse": 6302,
      "ices": 6303,
      "Ġ261": 6304,
      "Ġeigenschappen": 6305,
      "Ġpartner": 6306,
      "Ġtox": 6307,
      "kantoor": 6308,
      "ĠÂ±": 6309,
      "Ġ1515": 6310,
      "Ġcourt": 6311,
      "Ġhong": 6312,
      "Ġ179": 6313,
      "Ġvoorgelegd": 6314,
      "ransacties": 6315,
      "heim": 6316,
      "Ġgebreke": 6317,
      "Ġkabel": 6318,
      "Ġpermanent": 6319,
      "Ġfijn": 6320,
      "Ġsport": 6321,
      "Ġzaa": 6322,
      "Ġabsolute": 6323,
      "Ġvermenig": 6324,
      "Ġbekl": 6325,
      "Ġaankon": 6326,
      "Ġkorea": 6327,
      "eerst": 6328,
      "abil": 6329,
      "Ġverlaten": 6330,
      "Ġarticle": 6331,
      "Ġ202": 6332,
      "Ġisra": 6333,
      "que": 6334,
      "Ġbestemmingen": 6335,
      "Ġ9000": 6336,
      "Ġoppositieprocedure": 6337,
      "Ġdurum": 6338,
      "Ġbevindt": 6339,
      "Ġfinanz": 6340,
      "amingen": 6341,
      "blik": 6342,
      "Ġnoorwegen": 6343,
      "Ġzevende": 6344,
      "aag": 6345,
      "Ġafnemers": 6346,
      "Ġambts": 6347,
      "Ġdumpingmarge": 6348,
      "categorie": 6349,
      "Ġgeopend": 6350,
      "Ġmaximale": 6351,
      "prest": 6352,
      "Ġeens": 6353,
      "Ġoordelen": 6354,
      "gan": 6355,
      "kere": 6356,
      "Ġzogenaamde": 6357,
      "Ġtac": 6358,
      "Ġsteunregeling": 6359,
      "Ġverweten": 6360,
      "Ġgecontroleerd": 6361,
      "Ġtoezichthoudende": 6362,
      "idine": 6363,
      "Ġonrechtmatig": 6364,
      "Ġschak": 6365,
      "Ġkandidaten": 6366,
      "druk": 6367,
      "Ġ256": 6368,
      "Ġnoodzakelijkerwijs": 6369,
      "Ġgewett": 6370,
      "ota": 6371,
      "Ġbleek": 6372,
      "Ġ319": 6373,
      "Ġsen": 6374,
      "Ġeiser": 6375,
      "Ġjaarlijks": 6376,
      "Ġbesp": 6377,
      "Ġuiterste": 6378,
      "Ġvoedselhulp": 6379,
      "leven": 6380,
      "Ġgeraakt": 6381,
      "neemt": 6382,
      "eende": 6383,
      "ski": 6384,
      "wan": 6385,
      "Ġofschoon": 6386,
      "ceptie": 6387,
      "Ġthis": 6388,
      "Ġplaatsing": 6389,
      "autoriteit": 6390,
      "Ġvereen": 6391,
      "Ġcompany": 6392,
      "Ġhaag": 6393,
      "Ġ1966": 6394,
      "atis": 6395,
      "zie": 6396,
      "Ġonderwerp": 6397,
      "Ġrot": 6398,
      "Ġmarokko": 6399,
      "Ġambt": 6400,
      "Ġpij": 6401,
      "rapt": 6402,
      "Ġinvoerprijs": 6403,
      "Ġdre": 6404,
      "Ġep": 6405,
      "Ġanalog": 6406,
      "Ġwien": 6407,
      "Ġfen": 6408,
      "Ġstil": 6409,
      "Ġemissies": 6410,
      "Ġkeur": 6411,
      "Ġevenals": 6412,
      "Ġ0709": 6413,
      "Ġvoltoo": 6414,
      "pleging": 6415,
      "voudig": 6416,
      "Ġmij": 6417,
      "Ġgewogen": 6418,
      "Ġpool": 6419,
      "viden": 6420,
      "eters": 6421,
      "Ġ185": 6422,
      "Ġstemmen": 6423,
      "Ġ192": 6424,
      "gerecht": 6425,
      "Ġbetreffen": 6426,
      "Ġontworpen": 6427,
      "Ġessentiele": 6428,
      "cien": 6429,
      "Ġ191": 6430,
      "Ġtoelichting": 6431,
      "Ġpak": 6432,
      "Ġmaterie": 6433,
      "hoeveelheid": 6434,
      "Ġweigeren": 6435,
      "Ġisrael": 6436,
      "Ġproduc": 6437,
      "Ġdienstig": 6438,
      "Ġcanada": 6439,
      "Ġfuncties": 6440,
      "oenen": 6441,
      "Ġenerg": 6442,
      "Ġburgerlijke": 6443,
      "Ġintegr": 6444,
      "Ġrechtspersonen": 6445,
      "Ġnederlands": 6446,
      "ĠÂ«": 6447,
      "entieel": 6448,
      "Ġ414": 6449,
      "kw": 6450,
      "Ġ235": 6451,
      "rische": 6452,
      "Ġris": 6453,
      "Ġ240": 6454,
      "Ġvergezeld": 6455,
      "Ġmart": 6456,
      "Ġcarbon": 6457,
      "Ġcumul": 6458,
      "Ġweken": 6459,
      "iter": 6460,
      "Ġvoorbeeld": 6461,
      "Ġhaver": 6462,
      "Ġgelijkwaardig": 6463,
      "Ġovergelegde": 6464,
      "mogelijkheden": 6465,
      "Ġ296": 6466,
      "ense": 6467,
      "Ġtests": 6468,
      "monster": 6469,
      "Ġpreferentiele": 6470,
      "Ġcre": 6471,
      "Ġcommunicatie": 6472,
      "Ġbulgarije": 6473,
      "Ġ216": 6474,
      "Ġverenigbaarheid": 6475,
      "igt": 6476,
      "Ġsuc": 6477,
      "Ġexterne": 6478,
      "administr": 6479,
      "odem": 6480,
      "Ġopgegeven": 6481,
      "Ġiran": 6482,
      "Ġoneer": 6483,
      "Ġgebonden": 6484,
      "Ġwebs": 6485,
      "Ġeieren": 6486,
      "oeven": 6487,
      "Ġresol": 6488,
      "Ġ206": 6489,
      "Ġzichzelf": 6490,
      "Ġblijken": 6491,
      "Ġinvoerheffingen": 6492,
      "Ġrapportage": 6493,
      "Ġtha": 6494,
      "Ġresp": 6495,
      "Ġaandacht": 6496,
      "Ġfisch": 6497,
      "Ġ209": 6498,
      "Ġ0808": 6499,
      "ni": 6500,
      "Ġare": 6501,
      "Ġzones": 6502,
      "Ġinvalid": 6503,
      "bedragen": 6504,
      "Ġmut": 6505,
      "Ġ203": 6506,
      "Ġverjaring": 6507,
      "oning": 6508,
      "ierechten": 6509,
      "bestand": 6510,
      "reekt": 6511,
      "Ġschapen": 6512,
      "Ġ183": 6513,
      "Ġvissers": 6514,
      "orrels": 6515,
      "Ġderivaten": 6516,
      "ingsmaatregelen": 6517,
      "Ġautomatisch": 6518,
      "appelen": 6519,
      "oereikende": 6520,
      "Ġstuks": 6521,
      "Ġnooit": 6522,
      "Ġgeoogst": 6523,
      "ated": 6524,
      "Ġ188": 6525,
      "Ġplattelandsontwikkeling": 6526,
      "organisaties": 6527,
      "Ġ350": 6528,
      "Ġgebrand": 6529,
      "eeg": 6530,
      "Ġplat": 6531,
      "Ġovereenkomt": 6532,
      "Ġcomplex": 6533,
      "andes": 6534,
      "aanvragen": 6535,
      "ly": 6536,
      "gronden": 6537,
      "Ġplaten": 6538,
      "Ġ205": 6539,
      "Ġdikte": 6540,
      "Ġtemperatuur": 6541,
      "Ġaantekeningen": 6542,
      "Ġtwaalf": 6543,
      "bas": 6544,
      "illen": 6545,
      "Ġbrei": 6546,
      "Ġbuitenland": 6547,
      "ara": 6548,
      "Ġgeschrapt": 6549,
      "oriale": 6550,
      "pol": 6551,
      "Ġ@": 6552,
      "Ġcru": 6553,
      "Ġtref": 6554,
      "ameter": 6555,
      "fonds": 6556,
      "Ġdochteronderneming": 6557,
      "oet": 6558,
      "Ġinternet": 6559,
      "Ġinstellen": 6560,
      "Ġpraktijken": 6561,
      "Ġ249": 6562,
      "Ġpast": 6563,
      "Ġkam": 6564,
      "Ġgereed": 6565,
      "Ġke": 6566,
      "Ġblootstelling": 6567,
      "Ġwild": 6568,
      "Ġ236": 6569,
      "iekosten": 6570,
      "Ġbenadrukt": 6571,
      "Ġzouten": 6572,
      "Ġ228": 6573,
      "Ġadministrateur": 6574,
      "Ġoce": 6575,
      "Ġmidden": 6576,
      "itair": 6577,
      "Ġkaas": 6578,
      "Ġautonoom": 6579,
      "Ġ260": 6580,
      "Ġrekeneenheid": 6581,
      "Ġoverzee": 6582,
      "str": 6583,
      "Ġ221": 6584,
      "Ġgezamenlijke": 6585,
      "Ġgezamenlijk": 6586,
      "ther": 6587,
      "Ġ208": 6588,
      "Ġopneming": 6589,
      "Ġ193": 6590,
      "matigheden": 6591,
      "Ġvertrouwelijk": 6592,
      "Ġtraditionele": 6593,
      "tering": 6594,
      "Ġluiden": 6595,
      "ya": 6596,
      "Ġmeerder": 6597,
      "Ġamin": 6598,
      "Ġbijkom": 6599,
      "Ġitalia": 6600,
      "Ġbeantwoording": 6601,
      "ics": 6602,
      "Ġifrs": 6603,
      "Ġresidu": 6604,
      "fuhr": 6605,
      "Ġdata": 6606,
      "Ġgedroogd": 6607,
      "Ġeffectieve": 6608,
      "deis": 6609,
      "Ġbetrouw": 6610,
      "Ġplaatselijke": 6611,
      "Ġgekregen": 6612,
      "Ġcu": 6613,
      "Ġ211": 6614,
      "Ġuitbreiding": 6615,
      "Ġopsch": 6616,
      "rict": 6617,
      "Ġleverings": 6618,
      "Ġgeneesmiddel": 6619,
      "ieel": 6620,
      "rapport": 6621,
      "schuld": 6622,
      "Ġvertrek": 6623,
      "Ġ2138": 6624,
      "Ġ0001": 6625,
      "Ġmonster": 6626,
      "Ġweigerings": 6627,
      "Ġingevoegd": 6628,
      "orizon": 6629,
      "Ġinkomen": 6630,
      "Ġ212": 6631,
      "fun": 6632,
      "Ġschepen": 6633,
      "Ġruw": 6634,
      "Ġ213": 6635,
      "Ġradio": 6636,
      "Ġkir": 6637,
      "Ġhierbij": 6638,
      "Ġterugwerkende": 6639,
      "Ġakkoord": 6640,
      "Ġdruiven": 6641,
      "Ġmit": 6642,
      "kamer": 6643,
      "Ġgehant": 6644,
      "Ġcorpor": 6645,
      "Ġ640": 6646,
      "Ġgewaarborgd": 6647,
      "li": 6648,
      "Ġonderbouw": 6649,
      "Ġberg": 6650,
      "Ġonderhandelingen": 6651,
      "Ġtextielstoffen": 6652,
      "Ġpy": 6653,
      "spensioen": 6654,
      "Ġrespectieve": 6655,
      "Ġafloop": 6656,
      "Ġzaden": 6657,
      "Ġtewerk": 6658,
      "Ġvocht": 6659,
      "Ġlokale": 6660,
      "Ġactieve": 6661,
      "hn": 6662,
      "ĠÎ¼": 6663,
      "Ġdeutsch": 6664,
      "Ġschrijven": 6665,
      "Ġxii": 6666,
      "jaren": 6667,
      "Ġslachtaf": 6668,
      "Ġkra": 6669,
      "Ġrendement": 6670,
      "Ġspaans": 6671,
      "Ġstrateg": 6672,
      "Ġbreedte": 6673,
      "Ġvoorraden": 6674,
      "Ġverstreken": 6675,
      "Ġondersteund": 6676,
      "Ġdiervoeding": 6677,
      "ienst": 6678,
      "Ġxi": 6679,
      "Ġglob": 6680,
      "bedoelde": 6681,
      "Ġfout": 6682,
      "Ġkans": 6683,
      "ronde": 6684,
      "bewijs": 6685,
      "Ġhetwel": 6686,
      "pot": 6687,
      "Ġkwaliteits": 6688,
      "Ġzol": 6689,
      "Ġredenering": 6690,
      "Ġaansluit": 6691,
      "Ġstop": 6692,
      "Ġvolzin": 6693,
      "vaartuigen": 6694,
      "Ġopenbaarmaking": 6695,
      "strij": 6696,
      "Ġbeklemt": 6697,
      "Ġhetwelk": 6698,
      "reerd": 6699,
      "Ġrekeningen": 6700,
      "Ġogenblik": 6701,
      "stad": 6702,
      "Ġade": 6703,
      "Ġgewettigd": 6704,
      "Ġtom": 6705,
      "Ġri": 6706,
      "Ġbehoud": 6707,
      "Ġliggen": 6708,
      "Ġpu": 6709,
      "Ġwerkt": 6710,
      "Ġinderd": 6711,
      "Ġtijdig": 6712,
      "Ġcult": 6713,
      "pte": 6714,
      "Ġinderdaad": 6715,
      "partijen": 6716,
      "Ġinterpret": 6717,
      "Ġfile": 6718,
      "Ġ194": 6719,
      "Ġanalogie": 6720,
      "gaand": 6721,
      "Ġmak": 6722,
      "Ġ302": 6723,
      "020": 6724,
      "iviteit": 6725,
      "Ġruime": 6726,
      "idings": 6727,
      "ities": 6728,
      "Ġgunste": 6729,
      "Ġverscha": 6730,
      "Ġgevoegd": 6731,
      "Ġopzeg": 6732,
      "Ġregelmatig": 6733,
      "verzekerings": 6734,
      "Ġtrouw": 6735,
      "Ġ213800": 6736,
      "ertijd": 6737,
      "amide": 6738,
      "Ġtoegezonden": 6739,
      "cor": 6740,
      "redit": 6741,
      "Ġoverwogen": 6742,
      "andeld": 6743,
      "bra": 6744,
      "agn": 6745,
      "verenig": 6746,
      "Ġ550": 6747,
      "Ġgewas": 6748,
      "kleding": 6749,
      "Ġdistributie": 6750,
      "Ġrusland": 6751,
      "atienummer": 6752,
      "Ġidentiteit": 6753,
      "Ġverdragen": 6754,
      "oire": 6755,
      "activiteit": 6756,
      "Ġbeeindigd": 6757,
      "normen": 6758,
      "Ġmill": 6759,
      "vermogen": 6760,
      "Ġsorg": 6761,
      "ues": 6762,
      "Ġgeharmon": 6763,
      "Ġtegenover": 6764,
      "communaut": 6765,
      "Ġvrijwill": 6766,
      "Ġeffici": 6767,
      "Ġafrika": 6768,
      "Ġpriv": 6769,
      "Ġwens": 6770,
      "iveaus": 6771,
      "Ġkunststof": 6772,
      "rim": 6773,
      "Ġaanbied": 6774,
      "Ġindonesie": 6775,
      "Ġcyprus": 6776,
      "Ġobjectief": 6777,
      "Ġspecificaties": 6778,
      "Ġingezeten": 6779,
      "Ġdipl": 6780,
      "Ġvin": 6781,
      "Ġtotdat": 6782,
      "dossier": 6783,
      "Ġhorizon": 6784,
      "Ġaanvulling": 6785,
      "Ġfax": 6786,
      "Ġgronde": 6787,
      "Ġnegatief": 6788,
      "Ġ280": 6789,
      "Ġ295": 6790,
      "Ġdig": 6791,
      "Ġ347": 6792,
      "Ġgeim": 6793,
      "Ġ222": 6794,
      "Ġgekoeld": 6795,
      "wort": 6796,
      "empl": 6797,
      "Ġseg": 6798,
      "eldt": 6799,
      "Ġzeven": 6800,
      "Ġafgele": 6801,
      "Ġunited": 6802,
      "Ġdoeltreffende": 6803,
      "werkings": 6804,
      "Ġwettigheid": 6805,
      "Ġkwartaal": 6806,
      "witte": 6807,
      "ova": 6808,
      "Ġplaf": 6809,
      "Ġklassen": 6810,
      "Ġlaad": 6811,
      "Ġheffen": 6812,
      "oz": 6813,
      "Ġlaborator": 6814,
      "Ġschaal": 6815,
      "Ġtarif": 6816,
      "Ġvreem": 6817,
      "Ġbee": 6818,
      "Ġpreparaten": 6819,
      "betaald": 6820,
      "Ġmededingingsregels": 6821,
      "Ġverworven": 6822,
      "dagen": 6823,
      "ous": 6824,
      "ceut": 6825,
      "Ġgedetailleerde": 6826,
      "Ġup": 6827,
      "Ġgeboortedatum": 6828,
      "Ġverschijn": 6829,
      "Ġhaakwerk": 6830,
      "Ġwoning": 6831,
      "Ġbezol": 6832,
      "Ġspoorweg": 6833,
      "Ġ450": 6834,
      "hall": 6835,
      "uil": 6836,
      "Ġverhin": 6837,
      "Ġzodanige": 6838,
      "hoek": 6839,
      "Ġlimited": 6840,
      "Ġtoekomstige": 6841,
      "werkte": 6842,
      "Ġtemplate": 6843,
      "Ġ233": 6844,
      "post": 6845,
      "Ġ247": 6846,
      "Ġ186": 6847,
      "Ġspeciaal": 6848,
      "bur": 6849,
      "Ġdem": 6850,
      "Ġverster": 6851,
      "criteria": 6852,
      "Ġluchtvaartmaatschappijen": 6853,
      "Ġvolksgezondheid": 6854,
      "Ġinvoercertificaten": 6855,
      "Ġ630": 6856,
      "Ġ804": 6857,
      "Ġspoe": 6858,
      "Ġtwintig": 6859,
      "Ġuitzonderingen": 6860,
      "Ġuitgesproken": 6861,
      "Ġconser": 6862,
      "Ġgefinancier": 6863,
      "Ġnagestreefde": 6864,
      "Ġkalender": 6865,
      "ole": 6866,
      "Ġcorrectief": 6867,
      "Ġpow": 6868,
      "Ġonregelmatigheden": 6869,
      "kel": 6870,
      "Ġnamen": 6871,
      "Ġ225": 6872,
      "Ġindirecte": 6873,
      "Ġkorrels": 6874,
      "Ġraadpleging": 6875,
      "bepaalde": 6876,
      "Ġtelevisie": 6877,
      "Ġverzuim": 6878,
      "flict": 6879,
      "Ġzeggenschap": 6880,
      "Ġmass": 6881,
      "Ġheb": 6882,
      "Ġgrieven": 6883,
      "Ġdividen": 6884,
      "armaceut": 6885,
      "product": 6886,
      "Ġintracommunaut": 6887,
      "Ġrecent": 6888,
      "Ġprimaire": 6889,
      "Ġerf": 6890,
      "Ġrelatieve": 6891,
      "Ġbenz": 6892,
      "ruikel": 6893,
      "Ġdirector": 6894,
      "Ġlopende": 6895,
      "Ġbewerkt": 6896,
      "Ġ195": 6897,
      "Ġvracht": 6898,
      "Ġaanmerk": 6899,
      "Ġgoedgekeurde": 6900,
      "Ġtet": 6901,
      "nam": 6902,
      "Ġvoorstellen": 6903,
      "Ġgezin": 6904,
      "Ġdubbele": 6905,
      "Ġfaill": 6906,
      "iets": 6907,
      "ffer": 6908,
      "Ġ232": 6909,
      "Ġsubsidies": 6910,
      "Ġmaatstaf": 6911,
      "omstandigheden": 6912,
      "Ġvrouwen": 6913,
      "Ġfig": 6914,
      "Ġhoor": 6915,
      "pliek": 6916,
      "Ġstaven": 6917,
      "Ġprior": 6918,
      "ruikelijk": 6919,
      "Ġgeschillen": 6920,
      "Ġdeense": 6921,
      "Ġwets": 6922,
      "Ġrodrig": 6923,
      "ham": 6924,
      "imul": 6925,
      "Ġ258": 6926,
      "Ġopleveren": 6927,
      "Ġmitsdien": 6928,
      "Ġstra": 6929,
      "Ġzolang": 6930,
      "Ġprogram": 6931,
      "Ġ231": 6932,
      "Ġbene": 6933,
      "isse": 6934,
      "Ġln": 6935,
      "Ġofwel": 6936,
      "ites": 6937,
      "Ġkas": 6938,
      "inig": 6939,
      "Ġprod": 6940,
      "Ġbegunstigden": 6941,
      "Ġ217": 6942,
      "Ġvergoedingen": 6943,
      "Ġbeinvloeden": 6944,
      "Ġ318": 6945,
      "Ġwezenlijk": 6946,
      "Ġvoetn": 6947,
      "Ġtechnologie": 6948,
      "Ġcollege": 6949,
      "Ġ255": 6950,
      "Ġdwingende": 6951,
      "Ġcontain": 6952,
      "Ġveronder": 6953,
      "aderingen": 6954,
      "Ġvorderen": 6955,
      "feu": 6956,
      "lig": 6957,
      "Ġmonetair": 6958,
      "Ġgegar": 6959,
      "Ġbananen": 6960,
      "Ġverduidelijk": 6961,
      "sproces": 6962,
      "Ġmeent": 6963,
      "Ġdiezelfde": 6964,
      "Ġherstel": 6965,
      "iering": 6966,
      "Ġ2645": 6967,
      "Ġopvatting": 6968,
      "ussent": 6969,
      "Ġmelkpoeder": 6970,
      "Ġagen": 6971,
      "proces": 6972,
      "Ġcap": 6973,
      "Ġrapporteren": 6974,
      "Ġgbvb": 6975,
      "Ġselectie": 6976,
      "Ġaust": 6977,
      "Ġdicht": 6978,
      "Ġzekere": 6979,
      "ki": 6980,
      "Ġafmet": 6981,
      "Ġbodem": 6982,
      "Ġrekwirantes": 6983,
      "Ġaangesloten": 6984,
      "Ġmann": 6985,
      "zijdse": 6986,
      "Ġonbekend": 6987,
      "Ġtsjechische": 6988,
      "Ġdeelnemers": 6989,
      "Ġopbreng": 6990,
      "Ġgraf": 6991,
      "Ġpom": 6992,
      "Ġvastge": 6993,
      "Ġfrom": 6994,
      "anz": 6995,
      "Ġlagere": 6996,
      "Ġgete": 6997,
      "Ġverwijdering": 6998,
      "Ġhect": 6999,
      "aliseerd": 7000,
      "Ġaankondiging": 7001,
      "gelegenheid": 7002,
      "Ġtunes": 7003,
      "Ġexploitanten": 7004,
      "voorziening": 7005,
      "Ġoorsprongsben": 7006,
      "Ġvogel": 7007,
      "verdrag": 7008,
      "Ġaanbieding": 7009,
      "mechan": 7010,
      "Ġstato": 7011,
      "geschikt": 7012,
      "ortefeu": 7013,
      "oslav": 7014,
      "Ġrijk": 7015,
      "Ġvetten": 7016,
      "Ġ282": 7017,
      "Ġchloor": 7018,
      "Ġmelding": 7019,
      "controle": 7020,
      "Ġwederzijdse": 7021,
      "Ġadviseur": 7022,
      "Ġoostenrijkse": 7023,
      "Ġtijdvakken": 7024,
      "Ġ1008": 7025,
      "Ġbewijsstukken": 7026,
      "ropyl": 7027,
      "Ġgoedkeurings": 7028,
      "Ġzelfstandige": 7029,
      "uay": 7030,
      "Ġvoeg": 7031,
      "vrije": 7032,
      "flu": 7033,
      "Ġinvesterings": 7034,
      "Ġallereerst": 7035,
      "Ġveterin": 7036,
      "Ġpresent": 7037,
      "Ġout": 7038,
      "legt": 7039,
      "Ġuiteindelijk": 7040,
      "ruimte": 7041,
      "Ġliquid": 7042,
      "Ġholding": 7043,
      "Ġraam": 7044,
      "Ġerin": 7045,
      "Ġlage": 7046,
      "uurd": 7047,
      "Ġautomatische": 7048,
      "Ġtucht": 7049,
      "Ġ229": 7050,
      "Ġmarktdeelnemer": 7051,
      "Ġoneven": 7052,
      "Ġcel": 7053,
      "Ġjoeg": 7054,
      "Ġgebrachte": 7055,
      "Ġgetrokken": 7056,
      "verhouding": 7057,
      "Ġcomput": 7058,
      "Ġmach": 7059,
      "Ġ271": 7060,
      "koren": 7061,
      "actor": 7062,
      "inder": 7063,
      "Ġarn": 7064,
      "bi": 7065,
      "iban": 7066,
      "030": 7067,
      "Ġeindprodukt": 7068,
      "romat": 7069,
      "Ð´": 7070,
      "Ġ410": 7071,
      "Ġingevuld": 7072,
      "Ġoogpunt": 7073,
      "Ġvermenigvul": 7074,
      "Ġvereenvou": 7075,
      "keer": 7076,
      "umm": 7077,
      "geerd": 7078,
      "Ġvertraging": 7079,
      "ette": 7080,
      "isel": 7081,
      "lei": 7082,
      "Ġ335": 7083,
      "Ġmomenteel": 7084,
      "Ġlevert": 7085,
      "bestanden": 7086,
      "Ġdraad": 7087,
      "Ġdatab": 7088,
      "keerd": 7089,
      "werkzaam": 7090,
      "Ġverdeeld": 7091,
      "verbod": 7092,
      "Ġmogelijkheden": 7093,
      "Ġtussent": 7094,
      "Ġomgezet": 7095,
      "Ġ0401": 7096,
      "Ġfraude": 7097,
      "ario": 7098,
      "Ġuitzonderlijke": 7099,
      "Ġervaring": 7100,
      "Ġsorgho": 7101,
      "Ġvloei": 7102,
      "Ġvergele": 7103,
      "Ġovergenomen": 7104,
      "Ġvergeleken": 7105,
      "Ġlitouwen": 7106,
      "Ġwebsite": 7107,
      "massa": 7108,
      "Ġmonit": 7109,
      "won": 7110,
      "ungsgericht": 7111,
      "Ġsloven": 7112,
      "Ġinstandhouding": 7113,
      "Ġvlak": 7114,
      "Ġgeneral": 7115,
      "Ġtegelijkertijd": 7116,
      "Ġmoedermaatschappij": 7117,
      "Ġ510": 7118,
      "Ġambtshalve": 7119,
      "Ġ1785": 7120,
      "binding": 7121,
      "ati": 7122,
      "Ġlegt": 7123,
      "Ġduidelijke": 7124,
      "Ġzwaarte": 7125,
      "orn": 7126,
      "oefficienten": 7127,
      "vereiste": 7128,
      "gement": 7129,
      "Ġcommunity": 7130,
      "Ġ288": 7131,
      "Ġautonome": 7132,
      "Ġbfr": 7133,
      "ska": 7134,
      "zorg": 7135,
      "graad": 7136,
      "Ġarbeidson": 7137,
      "Ġleveranciers": 7138,
      "Ġmc": 7139,
      "Ġouderd": 7140,
      "Ġzetel": 7141,
      "Ġjoegoslav": 7142,
      "Ġintracommunautaire": 7143,
      "Ġpour": 7144,
      "Ġslachtafvallen": 7145,
      "Ġ343": 7146,
      "Ġwille": 7147,
      "ingssysteem": 7148,
      "Ġvernietigd": 7149,
      "Ġamerika": 7150,
      "ima": 7151,
      "Ġtussentijd": 7152,
      "Ġrekenen": 7153,
      "Ġvertrouwelijke": 7154,
      "Ġveroordelen": 7155,
      "Ġtalen": 7156,
      "Ġbestuurder": 7157,
      "kool": 7158,
      "Ġstichting": 7159,
      "gewassen": 7160,
      "Ġdeposit": 7161,
      "voet": 7162,
      "Ġgespecificeerd": 7163,
      "Ġvoormalige": 7164,
      "Ġspeel": 7165,
      "Ġbijkomende": 7166,
      "hof": 7167,
      "Ġsing": 7168,
      "Ġgenoeg": 7169,
      "Ġbestrijding": 7170,
      "Ġ251": 7171,
      "Ġ252": 7172,
      "Ġinzien": 7173,
      "Ġ262": 7174,
      "Ġconcentr": 7175,
      "Ġconf": 7176,
      "Ġwilde": 7177,
      "Ġrb": 7178,
      "Ġfir": 7179,
      "Ġ245": 7180,
      "oestellen": 7181,
      "Ġcount": 7182,
      "istische": 7183,
      "Ġbeoordelingsfout": 7184,
      "Ġexempl": 7185,
      "brengt": 7186,
      "Ġsalaris": 7187,
      "Ġwei": 7188,
      "schaps": 7189,
      "clu": 7190,
      "Ġgewoonlijk": 7191,
      "Ġgetreden": 7192,
      "Ġmengkoren": 7193,
      "Ġauto": 7194,
      "Ġoverlegging": 7195,
      "Ġouderdom": 7196,
      "verkoop": 7197,
      "Ġluchthaven": 7198,
      "Ġlening": 7199,
      "Ġ268": 7200,
      "lopende": 7201,
      "Ġbeschermings": 7202,
      "idae": 7203,
      "Ġmy": 7204,
      "Ġrep": 7205,
      "Ġemiss": 7206,
      "Ġhandte": 7207,
      "Ġcompon": 7208,
      "Ġsignific": 7209,
      "maken": 7210,
      "Ġliter": 7211,
      "Ġbruto": 7212,
      "lant": 7213,
      "Ġut": 7214,
      "partij": 7215,
      "Ġpotentiele": 7216,
      "Ġvolstaan": 7217,
      "naar": 7218,
      "Ġinschrijvings": 7219,
      "Ġdiervoeders": 7220,
      "Ġveroordeeld": 7221,
      "Ġsolas": 7222,
      "Ġmotorvoertuigen": 7223,
      "Ġsrl": 7224,
      "Ġgru": 7225,
      "Ġ275": 7226,
      "Ġae": 7227,
      "Ġbritt": 7228,
      "fabr": 7229,
      "amelijk": 7230,
      "Ġ223": 7231,
      "Ġmod": 7232,
      "Ġcour": 7233,
      "ÏĦÎ±": 7234,
      "Ġwarmte": 7235,
      "grens": 7236,
      "Ġ2204": 7237,
      "ĠÎºÎ±": 7238,
      "Ġgeschiedt": 7239,
      "Ġcpc": 7240,
      "Ġopgemaakt": 7241,
      "ruk": 7242,
      "Ġgegarande": 7243,
      "Ġster": 7244,
      "oei": 7245,
      "Ġinsol": 7246,
      "Ġverander": 7247,
      "Ġhab": 7248,
      "oekt": 7249,
      "Ġzieken": 7250,
      "Ġchar": 7251,
      "Ġgeproduceerde": 7252,
      "Ġbol": 7253,
      "Ġcoop": 7254,
      "Ġverscheiden": 7255,
      "Ġlijsten": 7256,
      "ÏĢ": 7257,
      "verbruik": 7258,
      "Ġmig": 7259,
      "igende": 7260,
      "urele": 7261,
      "gewicht": 7262,
      "cies": 7263,
      "Ġamo": 7264,
      "don": 7265,
      "aa": 7266,
      "Ġgeschikte": 7267,
      "verl": 7268,
      "Ġachtergrond": 7269,
      "Ġmale": 7270,
      "Ġmanier": 7271,
      "licit": 7272,
      "Ġober": 7273,
      "alisatie": 7274,
      "Ġvragenlijst": 7275,
      "Ġvil": 7276,
      "Ġopleggen": 7277,
      "Î¿ÏĤ": 7278,
      "oofd": 7279,
      "Ġdraagwijdte": 7280,
      "Ġ238": 7281,
      "Ġbor": 7282,
      "etters": 7283,
      "Ġvraagt": 7284,
      "Ġ297": 7285,
      "Ġvoorafgaand": 7286,
      "Ġtil": 7287,
      "Ġaanvankelijke": 7288,
      "Ġ308": 7289,
      "het": 7290,
      "gest": 7291,
      "Ġ1602": 7292,
      "Ġvermeldt": 7293,
      "Ġgegund": 7294,
      "acao": 7295,
      "Ġ259": 7296,
      "Ġexceptie": 7297,
      "Ġdeutschland": 7298,
      "Ġberoept": 7299,
      "Ġtelecommun": 7300,
      "Ġilleg": 7301,
      "Ġbiologische": 7302,
      "Ġperiod": 7303,
      "Ġtoebehoren": 7304,
      "chen": 7305,
      "Ġ219": 7306,
      "bleem": 7307,
      "Ġvergemakkelijken": 7308,
      "volume": 7309,
      "apparatuur": 7310,
      "vuld": 7311,
      "Ġvoorgenomen": 7312,
      "Ġteg": 7313,
      "Ġgelaten": 7314,
      "Ġrepresentatief": 7315,
      "Ġbeschouwing": 7316,
      "Ġother": 7317,
      "Ġasgehalte": 7318,
      "Ġhydroxy": 7319,
      "doel": 7320,
      "Ġdistribut": 7321,
      "ms": 7322,
      "Ġ290": 7323,
      "Ġparall": 7324,
      "Ġverkrijging": 7325,
      "productie": 7326,
      "Ġsteld": 7327,
      "Ġvoerde": 7328,
      "Ġnrs": 7329,
      "Ġ359": 7330,
      "Ġeilanden": 7331,
      "Ġinle": 7332,
      "Ġnomin": 7333,
      "zekerheids": 7334,
      "Ġhuishouden": 7335,
      "Ġjury": 7336,
      "Ġmededingingsregeling": 7337,
      "Ġbraz": 7338,
      "Ġmedewerkende": 7339,
      "Ġrei": 7340,
      "Ġshall": 7341,
      "Ġ218": 7342,
      "Ġmagere": 7343,
      "prestatie": 7344,
      "Ġbelet": 7345,
      "Ġdefinities": 7346,
      "hert": 7347,
      "isters": 7348,
      "nemens": 7349,
      "Ġ269": 7350,
      "Ġvermijden": 7351,
      "Ġvermeerderd": 7352,
      "Ġgeintegreerde": 7353,
      "Ġvervullen": 7354,
      "scom": 7355,
      "ye": 7356,
      "Ġvangsten": 7357,
      "Ġuitrusting": 7358,
      "draad": 7359,
      "Ġtoelaatbare": 7360,
      "Ġkoers": 7361,
      "Ġ303": 7362,
      "har": 7363,
      "Ġpassagiers": 7364,
      "Ġrusten": 7365,
      "Ġinnen": 7366,
      "Ġuitlaat": 7367,
      "bevel": 7368,
      "Ġei": 7369,
      "Ġverbieden": 7370,
      "Ġkeer": 7371,
      "Ġak": 7372,
      "sell": 7373,
      "Ġaangeduid": 7374,
      "Ġagre": 7375,
      "Ġrechtszekerheid": 7376,
      "Ġthailand": 7377,
      "Ġaltijd": 7378,
      "ogingen": 7379,
      "Ġverwachte": 7380,
      "Ġjam": 7381,
      "ubsid": 7382,
      "Ġopgevat": 7383,
      "Ġrat": 7384,
      "Ġtegoeden": 7385,
      "Ġkaderbesluit": 7386,
      "Ġaanbeveling": 7387,
      "Ġlangs": 7388,
      "Ġexecutie": 7389,
      "Ġbehoorlijk": 7390,
      "Ġverific": 7391,
      "Ġdigit": 7392,
      "Ġopdat": 7393,
      "annie": 7394,
      "rechtelijk": 7395,
      "Ġbereidingen": 7396,
      "Ġ1177": 7397,
      "Ġkenbaar": 7398,
      "Ġgeringe": 7399,
      "Ġorient": 7400,
      "Ġhttp": 7401,
      "Ġbedr": 7402,
      "Ġparagraaf": 7403,
      "Ġref": 7404,
      "Ġ254": 7405,
      "Ġmemorie": 7406,
      "sprocedures": 7407,
      "Ġrechtsorde": 7408,
      "Ġengel": 7409,
      "Ġnew": 7410,
      "Ġzicht": 7411,
      "Ġarbit": 7412,
      "Ġrent": 7413,
      "Ġondernemer": 7414,
      "Ġcil": 7415,
      "Ġonevenred": 7416,
      "Ġgeiten": 7417,
      "opp": 7418,
      "Ġinv": 7419,
      "tere": 7420,
      "Ġgebruikelijk": 7421,
      "houdings": 7422,
      "Ġ1766": 7423,
      "Ġkwam": 7424,
      "oxide": 7425,
      "Ġprakt": 7426,
      "ffect": 7427,
      "Ġsollicit": 7428,
      "Ġsar": 7429,
      "elect": 7430,
      "statuut": 7431,
      "Ġzuivelproducten": 7432,
      "Ġhuurder": 7433,
      "sproducten": 7434,
      "Ġafgestemde": 7435,
      "Ġ331": 7436,
      "Ġinziens": 7437,
      "iniging": 7438,
      "Ġbevestigend": 7439,
      "omer": 7440,
      "Ġtai": 7441,
      "Ġbenut": 7442,
      "Ġinitiatief": 7443,
      "ĠÎ±": 7444,
      "itsing": 7445,
      "Ġgg": 7446,
      "Ġzorgvul": 7447,
      "eenvolgende": 7448,
      "Ġzitting": 7449,
      "Ġbroe": 7450,
      "ulatie": 7451,
      "achting": 7452,
      "Ġ266": 7453,
      "Ġkost": 7454,
      "Ġonderzochte": 7455,
      "Ġafwijkingen": 7456,
      "Ġtrefwoorden": 7457,
      "Ġbeter": 7458,
      "Ġloopvogels": 7459,
      "Ġbrittannie": 7460,
      "Ġverklaarde": 7461,
      "0010": 7462,
      "Ġ305": 7463,
      "Ġhorizont": 7464,
      "Ġgewasbescherm": 7465,
      "Ġ214": 7466,
      "xe": 7467,
      "Ġobl": 7468,
      "Ġgebeurten": 7469,
      "Ġachtste": 7470,
      "Ġgepleegd": 7471,
      "Ġ243": 7472,
      "ookt": 7473,
      "Ġnagel": 7474,
      "Ġurug": 7475,
      "Ġsla": 7476,
      "koop": 7477,
      "Ġimmun": 7478,
      "Ġstart": 7479,
      "ikkel": 7480,
      "Ġvoornemens": 7481,
      "appen": 7482,
      "Ġterritoriale": 7483,
      "Ġdeb": 7484,
      "Ġherstructurering": 7485,
      "Ġlee": 7486,
      "Ġafgesloten": 7487,
      "Ġkantore": 7488,
      "kon": 7489,
      "Ġzonne": 7490,
      "Ġtoetredingsakte": 7491,
      "Ġverschaffen": 7492,
      "Î¹Îº": 7493,
      "spraktijk": 7494,
      "Ġuruguay": 7495,
      "Ġrechtmatigheid": 7496,
      "Ġoctrooi": 7497,
      "Ġbinnenkomst": 7498,
      "brand": 7499,
      "si": 7500,
      "Ġene": 7501,
      "Ġ052": 7502,
      "Ġvaststaat": 7503,
      "Ġkruis": 7504,
      "Ġven": 7505,
      "Ġ264": 7506,
      "Ġcorporation": 7507,
      "uro": 7508,
      "Ġ1806": 7509,
      "Ġhelft": 7510,
      "bische": 7511,
      "rijpen": 7512,
      "Ġmodu": 7513,
      "let": 7514,
      "Ġlopend": 7515,
      "Ġburgers": 7516,
      "oelen": 7517,
      "Ð¸Ñ": 7518,
      "Ġconflict": 7519,
      "Ġdemocratische": 7520,
      "Ġeog": 7521,
      "Ġfischler": 7522,
      "Ġeet": 7523,
      "verst": 7524,
      "Ġlam": 7525,
      "Ġbevattend": 7526,
      "Ġmultil": 7527,
      "Ġexclusieve": 7528,
      "Ġuitleg": 7529,
      "Ġfeite": 7530,
      "Ġ338": 7531,
      "Ġkilogram": 7532,
      "Ġgeregistreerde": 7533,
      "Ġmeerderheid": 7534,
      "ella": 7535,
      "opt": 7536,
      "Ġ241": 7537,
      "Ġbrieven": 7538,
      "Ġrollen": 7539,
      "Ġ289": 7540,
      "Ġinstitut": 7541,
      "Ġâī¥": 7542,
      "Ġmemor": 7543,
      "verde": 7544,
      "vrijheid": 7545,
      "Ġbehandelen": 7546,
      "Ġalternatieve": 7547,
      "plant": 7548,
      "Ġwinstgevend": 7549,
      "ctief": 7550,
      "Ġfamil": 7551,
      "Ġbat": 7552,
      "Ġvoorheen": 7553,
      "Ġvervanging": 7554,
      "Ġeogfl": 7555,
      "Ġpop": 7556,
      "Ġetikettering": 7557,
      "Ġlandbouwprodukten": 7558,
      "inf": 7559,
      "040": 7560,
      "Ġluchtvaartuigen": 7561,
      "reis": 7562,
      "Ġ301": 7563,
      "Ġbei": 7564,
      "eefd": 7565,
      "use": 7566,
      "Ġtermen": 7567,
      "dictum": 7568,
      "vormige": 7569,
      "Ġlasten": 7570,
      "Ġijsland": 7571,
      "Ġoceaan": 7572,
      "Ġelect": 7573,
      "Ġonregelmatigheid": 7574,
      "Ġ575": 7575,
      "Ġhert": 7576,
      "Ġstijging": 7577,
      "Ġ278": 7578,
      "Ġdouanevervoer": 7579,
      "wat": 7580,
      "Ġgeens": 7581,
      "gevolgen": 7582,
      "Ġkonink": 7583,
      "uwe": 7584,
      "Ġbetogen": 7585,
      "Ġ248": 7586,
      "Ġtaric": 7587,
      "Ġaanvaarding": 7588,
      "Ġlichaam": 7589,
      "Ġmi": 7590,
      "Ġbehorende": 7591,
      "Ġbelastingdienst": 7592,
      "weging": 7593,
      "hel": 7594,
      "Ġ257": 7595,
      "Ġgeenszins": 7596,
      "Ġneut": 7597,
      "ple": 7598,
      "Ġwaarnaar": 7599,
      "Ġbegaan": 7600,
      "Ġkostendictum": 7601,
      "cijf": 7602,
      "Ġarrestbeslissing": 7603,
      "Ġgaranties": 7604,
      "Ġresolutie": 7605,
      "Ġinterpretatie": 7606,
      "Ġversn": 7607,
      "Ġafgeleide": 7608,
      "Ġgesneden": 7609,
      "Ġverbiedt": 7610,
      "Ġ224": 7611,
      "vereisten": 7612,
      "Ġireland": 7613,
      "Ġinhoudt": 7614,
      "Ġvissen": 7615,
      "Ġdwang": 7616,
      "mi": 7617,
      "Ġzuur": 7618,
      "Ġconcreet": 7619,
      "lin": 7620,
      "Ġsoortgelijk": 7621,
      "dekt": 7622,
      "zochte": 7623,
      "ams": 7624,
      "Ġbeding": 7625,
      "hout": 7626,
      "wend": 7627,
      "Ġrt": 7628,
      "Ġinvestering": 7629,
      "med": 7630,
      "Ġvoorrang": 7631,
      "Ġdg": 7632,
      "Ġgran": 7633,
      "Ġmonsters": 7634,
      "ĠÏĥ": 7635,
      "Ġperioden": 7636,
      "elat": 7637,
      "rm": 7638,
      "Ġarnhem": 7639,
      "Ġverantwoordelijke": 7640,
      "Ġeng": 7641,
      "Ġcop": 7642,
      "Ġ227": 7643,
      "Ġ246": 7644,
      "Ġhove": 7645,
      "Ġprocedurele": 7646,
      "Ġondernemers": 7647,
      "Ġ354": 7648,
      "Ġestland": 7649,
      "bronnen": 7650,
      "singen": 7651,
      "Ġwier": 7652,
      "Ġdienstverlening": 7653,
      "Ġ265": 7654,
      "Ġcontingenten": 7655,
      "Ġwettelijk": 7656,
      "Ġ847": 7657,
      "Ġaanpassingen": 7658,
      "sellschaft": 7659,
      "Ġletland": 7660,
      "Ġlq": 7661,
      "terdam": 7662,
      "genees": 7663,
      "vru": 7664,
      "Ġbemonster": 7665,
      "Ġvoorschrift": 7666,
      "Ġinschrijvers": 7667,
      "vingen": 7668,
      "Ġamount": 7669,
      "Ġresiduen": 7670,
      "Ġuitoefent": 7671,
      "Ġspl": 7672,
      "venn": 7673,
      "oederen": 7674,
      "Ġ273": 7675,
      "Ġleiding": 7676,
      "Ġaanvaarden": 7677,
      "Ġontoereikend": 7678,
      "Ġverhogen": 7679,
      "Ġkiezen": 7680,
      "Ġberekenen": 7681,
      "Ïħ": 7682,
      "Ġmaterieel": 7683,
      "Ġgeschieden": 7684,
      "plos": 7685,
      "Ġslachtoff": 7686,
      "Ġsecret": 7687,
      "Ġoost": 7688,
      "Ġ805": 7689,
      "Ġgrensoverschrijdende": 7690,
      "Ġoo": 7691,
      "Ġdaling": 7692,
      "Ġ9100": 7693,
      "Ġnuttig": 7694,
      "elux": 7695,
      "Ġintervent": 7696,
      "162": 7697,
      "achten": 7698,
      "Ġschip": 7699,
      "Ġeva": 7700,
      "bloem": 7701,
      "Ġschuldeis": 7702,
      "Ġoverzicht": 7703,
      "hen": 7704,
      "Ġhigh": 7705,
      "Ġservices": 7706,
      "Ġlas": 7707,
      "Ġprze": 7708,
      "Ġraap": 7709,
      "Ġnul": 7710,
      "Ġopstelling": 7711,
      "Ġuitgebracht": 7712,
      "Ġrechtsgevolgen": 7713,
      "Ġlire": 7714,
      "spor": 7715,
      "Ġbenelux": 7716,
      "erts": 7717,
      "loze": 7718,
      "Ġgebaseerde": 7719,
      "Ġvervoers": 7720,
      "ware": 7721,
      "Ġgeident": 7722,
      "alig": 7723,
      "leu": 7724,
      "Ġuiteengezette": 7725,
      "Ġgerichte": 7726,
      "Ġisog": 7727,
      "Ġ314": 7728,
      "Ġgeformuleerd": 7729,
      "Ġoverschrijding": 7730,
      "Ġwto": 7731,
      "Ġprote": 7732,
      "Ġfarmaceut": 7733,
      "Ġvolgnummer": 7734,
      "Ġhieraan": 7735,
      "Ġ659": 7736,
      "Ġgroothert": 7737,
      "Ġgoederenverkeer": 7738,
      "Ġgezegd": 7739,
      "Î¹Ïĥ": 7740,
      "gelegenheden": 7741,
      "Ġmaxima": 7742,
      "verdeling": 7743,
      "nede": 7744,
      "wetgeving": 7745,
      "Ġnational": 7746,
      "oest": 7747,
      "Ġhamburg": 7748,
      "Ġ429": 7749,
      "Ġadress": 7750,
      "Ġaccijns": 7751,
      "aarten": 7752,
      "Ġfinancierings": 7753,
      "Ġrem": 7754,
      "Ġliq": 7755,
      "Ġ283": 7756,
      "Ġtelex": 7757,
      "Ġdirectoraat": 7758,
      "Ġvoedings": 7759,
      "Ġverminderen": 7760,
      "Ġbran": 7761,
      "Ġuitvoerrestituties": 7762,
      "type": 7763,
      "Ġlandbouwers": 7764,
      "Ġ1962": 7765,
      "Ġformule": 7766,
      "veiligheid": 7767,
      "Ġkoolstof": 7768,
      "Ġpad": 7769,
      "Ġberekende": 7770,
      "Ġclass": 7771,
      "Ġaw": 7772,
      "Ġrotterdam": 7773,
      "Ġig": 7774,
      "lucht": 7775,
      "Ġbou": 7776,
      "sprogramma": 7777,
      "Ġbestanddeel": 7778,
      "uchten": 7779,
      "Ġdoeltreffendheid": 7780,
      "Ġsolicit": 7781,
      "Ġexclusief": 7782,
      "ona": 7783,
      "Ġwaartegen": 7784,
      "Ġuniemerk": 7785,
      "percentage": 7786,
      "vie": 7787,
      "Ġingeleid": 7788,
      "Ġapplic": 7789,
      "ire": 7790,
      "Ġ279": 7791,
      "Ġpic": 7792,
      "Ġofc": 7793,
      "Ġstrikt": 7794,
      "Ġbedien": 7795,
      "Ġdecreet": 7796,
      "meren": 7797,
      "Ġwillekeur": 7798,
      "Ġvermeende": 7799,
      "Ġjean": 7800,
      "Ġdeleg": 7801,
      "Ġrekenkundig": 7802,
      "basis": 7803,
      "ley": 7804,
      "Ġbuitengew": 7805,
      "Ġ420": 7806,
      "Ġantidumpingmaatregelen": 7807,
      "bepaling": 7808,
      "ijft": 7809,
      "Ġernst": 7810,
      "Ġgelasten": 7811,
      "vennootschap": 7812,
      "Ġbevoor": 7813,
      "Ġdeeltjes": 7814,
      "gener": 7815,
      "iki": 7816,
      "eep": 7817,
      "Ġhabit": 7818,
      "Ġgeformuleerde": 7819,
      "kingen": 7820,
      "Ġoplevert": 7821,
      "Ġ940": 7822,
      "cha": 7823,
      "Ġvennootschaps": 7824,
      "Ġopnemen": 7825,
      "Ġverdragsluitende": 7826,
      "Ġorigin": 7827,
      "Ġmilitaire": 7828,
      "Ġprobleem": 7829,
      "straat": 7830,
      "ieen": 7831,
      "aux": 7832,
      "Ġatlant": 7833,
      "Ġbevestiging": 7834,
      "bro": 7835,
      "Ġmultilaterale": 7836,
      "Ġveld": 7837,
      "oeien": 7838,
      "ront": 7839,
      "Ġjuistheid": 7840,
      "bericht": 7841,
      "Ġmand": 7842,
      "Ġhanden": 7843,
      "icy": 7844,
      "Ġsamenvattingpartijen": 7845,
      "Ġduurzame": 7846,
      "Ġtoezeg": 7847,
      "Ġgroothertog": 7848,
      "isie": 7849,
      "benadering": 7850,
      "Ġgiet": 7851,
      "Ġafw": 7852,
      "Ġshar": 7853,
      "zoeken": 7854,
      "Ġasiel": 7855,
      "plaatsing": 7856,
      "Ġdistrict": 7857,
      "Ġnageleefd": 7858,
      "Ġpolitieke": 7859,
      "Ġoude": 7860,
      "Ġprimair": 7861,
      "Ġtabellen": 7862,
      "Ġindicatoren": 7863,
      "ologisch": 7864,
      "zam": 7865,
      "Ġverscheidene": 7866,
      "Ġbad": 7867,
      "Ġfus": 7868,
      "Ġformeel": 7869,
      "gevings": 7870,
      "Ġevenredig": 7871,
      "ids": 7872,
      "Ġstrip": 7873,
      "Ġgedo": 7874,
      "formulier": 7875,
      "maat": 7876,
      "Ġverbeteren": 7877,
      "Ġvergaderingen": 7878,
      "Ġantidumpingrechten": 7879,
      "Ġpensio": 7880,
      "Ġgroen": 7881,
      "hoeveelheden": 7882,
      "schul": 7883,
      "Ġontvanger": 7884,
      "Ġwag": 7885,
      "Ġverkoper": 7886,
      "Ġdeelnemen": 7887,
      "Ġ330": 7888,
      "Ġmaandelijk": 7889,
      "nomenclatuur": 7890,
      "Ġcam": 7891,
      "Ġtwintigste": 7892,
      "Ġreferentieperiode": 7893,
      "Ġovert": 7894,
      "cium": 7895,
      "Ġbetrokkenen": 7896,
      "Ġmedege": 7897,
      "ua": 7898,
      "Ġgeconstateerde": 7899,
      "Ġbevel": 7900,
      "Ġparijs": 7901,
      "Ġfactor": 7902,
      "Ġll": 7903,
      "Ġbewerk": 7904,
      "instanties": 7905,
      "Ġklachten": 7906,
      "tingen": 7907,
      "Ġtegenpartijen": 7908,
      "Ġmrw": 7909,
      "uring": 7910,
      "Ġinger": 7911,
      "Ġtypegoedkeurings": 7912,
      "ingsgevaar": 7913,
      "Ġappell": 7914,
      "Ġrester": 7915,
      "fÃ¸r": 7916,
      "Ġcentrum": 7917,
      "rak": 7918,
      "ani": 7919,
      "Ġvee": 7920,
      "Ġongewijzig": 7921,
      "Ġverblijfplaats": 7922,
      "Ġopmerking": 7923,
      "lid": 7924,
      "yer": 7925,
      "Ġfosf": 7926,
      "Ġopschorting": 7927,
      "Ġgemakkelijk": 7928,
      "Ġkwalific": 7929,
      "Ġsamenhan": 7930,
      "Ġgal": 7931,
      "Ġfrank": 7932,
      "Ġhandtekening": 7933,
      "Ġbeleggings": 7934,
      "Ġtax": 7935,
      "Ġ840": 7936,
      "Ġvellen": 7937,
      "kers": 7938,
      "Ġcentre": 7939,
      "Ġinterventiebureaus": 7940,
      "Ġwaarschuw": 7941,
      "Ġbronnen": 7942,
      "Ġbud": 7943,
      "Ġpp": 7944,
      "Ġfysieke": 7945,
      "df": 7946,
      "Ġ1005": 7947,
      "Ġverwijzingen": 7948,
      "arte": 7949,
      "Ġevenredigheid": 7950,
      "Ġnuttige": 7951,
      "Ġstimul": 7952,
      "Ġhoofdstukken": 7953,
      "Ġvoorbij": 7954,
      "spann": 7955,
      "ynam": 7956,
      "Ġnaties": 7957,
      "Ġ309": 7958,
      "lijkheid": 7959,
      "Ġxv": 7960,
      "Ġoneerlijke": 7961,
      "otte": 7962,
      "but": 7963,
      "Ġhom": 7964,
      "ijt": 7965,
      "Ġbeschikte": 7966,
      "Ġmachtiging": 7967,
      "ules": 7968,
      "Ġbeveiligings": 7969,
      "Ġbindende": 7970,
      "Ġbay": 7971,
      "Ġved": 7972,
      "Ġwiens": 7973,
      "Ġsocialezekerheids": 7974,
      "Ġ307": 7975,
      "amento": 7976,
      "Ġvs": 7977,
      "inform": 7978,
      "Ġbekende": 7979,
      "Ġrubr": 7980,
      "Ġmindering": 7981,
      "cin": 7982,
      "contracten": 7983,
      "Ġsteen": 7984,
      "Ġnatuurlijk": 7985,
      "Ġclausule": 7986,
      "Ġongunstig": 7987,
      "Ġverbindingen": 7988,
      "Ġverstoringen": 7989,
      "vruchten": 7990,
      "Ġopdrachten": 7991,
      "icale": 7992,
      "cn": 7993,
      "Ġ1101": 7994,
      "volen": 7995,
      "wikkelings": 7996,
      "iecie": 7997,
      "anger": 7998,
      "Ġboekhoud": 7999,
      "Ġgegrondheid": 8000,
      "Ġpositief": 8001,
      "Ġimpliceert": 8002,
      "Ġinvaliditeit": 8003,
      "gesetz": 8004,
      "Ġliechten": 8005,
      "Ġtunesie": 8006,
      "ners": 8007,
      "Ġfederatie": 8008,
      "Ġtotstandbrenging": 8009,
      "Ġafmetingen": 8010,
      "rente": 8011,
      "ria": 8012,
      "Ġveroordeling": 8013,
      "deelt": 8014,
      "Ġcze": 8015,
      "Ġ285": 8016,
      "Ġimmateri": 8017,
      "baan": 8018,
      "Ġintegratie": 8019,
      "ativo": 8020,
      "Ġaangemelde": 8021,
      "mos": 8022,
      "Ġovereenstemt": 8023,
      "Ġmedisch": 8024,
      "Ġverloop": 8025,
      "Ġ370": 8026,
      "Ġbeinvloed": 8027,
      "Ġbriefwisseling": 8028,
      "Ġfacult": 8029,
      "Ġ244": 8030,
      "Ġofficieel": 8031,
      "Ġsat": 8032,
      "werkzaamheden": 8033,
      "Ġimmateriele": 8034,
      "gete": 8035,
      "warende": 8036,
      "bal": 8037,
      "Ġbekleed": 8038,
      "Ġconclu": 8039,
      "Ġpowiecie": 8040,
      "Ġonderwerpen": 8041,
      "Ġsuik": 8042,
      "Ġpublicatie": 8043,
      "Ġonderzoeks": 8044,
      "Ġgebouw": 8045,
      "Ġproductiekosten": 8046,
      "scertific": 8047,
      "Ġzelfde": 8048,
      "Ġ61162": 8049,
      "Ġkandidaat": 8050,
      "Ġliechtenstein": 8051,
      "Ġwy": 8052,
      "Ġverse": 8053,
      "ji": 8054,
      "Ġonbepaalde": 8055,
      "spanning": 8056,
      "Ġbeslag": 8057,
      "Ġtoevoegingsmiddelen": 8058,
      "Ġty": 8059,
      "Ġslowaak": 8060,
      "Ġbit": 8061,
      "atic": 8062,
      "iene": 8063,
      "Ġvide": 8064,
      "Ġ442": 8065,
      "ld": 8066,
      "pels": 8067,
      "Ġtno": 8068,
      "Ġovername": 8069,
      "Ġwerkgelegenheid": 8070,
      "Ġ028": 8071,
      "Ġverzekerd": 8072,
      "Ġbelaste": 8073,
      "Ġambtenarenstatuut": 8074,
      "Ġschool": 8075,
      "Ġgevoel": 8076,
      "Ġtelefoon": 8077,
      "Ġspoedig": 8078,
      "Ġverwarringsgevaar": 8079,
      "Ġbedroeg": 8080,
      "Ġkaart": 8081,
      "beper": 8082,
      "Ġtransparantie": 8083,
      "Ġff": 8084,
      "belang": 8085,
      "arische": 8086,
      "Ġoblig": 8087,
      "Ġluchtvaartuig": 8088,
      "Ġzwav": 8089,
      "Ġkrij": 8090,
      "Ġcorrecties": 8091,
      "Ġ304": 8092,
      "orgd": 8093,
      "Ġ360": 8094,
      "telijke": 8095,
      "Ġklager": 8096,
      "Ġverschijnt": 8097,
      "Ġonafhankelijkheid": 8098,
      "Ġafger": 8099,
      "briden": 8100,
      "001": 8101,
      "Ġbewerking": 8102,
      "urd": 8103,
      "Ġopgeworpen": 8104,
      "Ġongeldig": 8105,
      "Ġtim": 8106,
      "Ġzendingen": 8107,
      "mel": 8108,
      "Ġgunning": 8109,
      "Ġstudie": 8110,
      "eerder": 8111,
      "Ġgemachtigd": 8112,
      "Ġaudit": 8113,
      "Ġonderhou": 8114,
      "Ġovereenstemm": 8115,
      "Ġverwarring": 8116,
      "jarige": 8117,
      "mand": 8118,
      "Ġfrequentie": 8119,
      "Ġfunctionaris": 8120,
      "Ġmaal": 8121,
      "ric": 8122,
      "Ġgul": 8123,
      "Ġpositieve": 8124,
      "Ġonwettigheid": 8125,
      "Ġequival": 8126,
      "bosch": 8127,
      "Ġgast": 8128,
      "akije": 8129,
      "pregn": 8130,
      "Ġbeschermende": 8131,
      "Ġaanbevolen": 8132,
      "Ġprofess": 8133,
      "iko": 8134,
      "emaal": 8135,
      "Ġdagelijk": 8136,
      "Ġacute": 8137,
      "Ġverandering": 8138,
      "Ġgekwalificeerd": 8139,
      "bert": 8140,
      "Ġerkent": 8141,
      "Ġbeloning": 8142,
      "kar": 8143,
      "nn": 8144,
      "uez": 8145,
      "oeisel": 8146,
      "wl": 8147,
      "Ġvermogens": 8148,
      "Ġtoer": 8149,
      "302": 8150,
      "Ġnadien": 8151,
      "relevan": 8152,
      "Ġstatistieken": 8153,
      "Ġbaseren": 8154,
      "Ġzware": 8155,
      "Ġreferentiel": 8156,
      "Ġ291": 8157,
      "Ġmededelingen": 8158,
      "ath": 8159,
      "Ġdal": 8160,
      "Ġambtenarenzaken": 8161,
      "Ġther": 8162,
      "Ġdkr": 8163,
      "Ġwoordmerk": 8164,
      "resp": 8165,
      "Ġgead": 8166,
      "Ġvaststellingen": 8167,
      "wetgever": 8168,
      "Î¹Î±": 8169,
      "Ġverschillend": 8170,
      "Ġplicht": 8171,
      "Ġ293": 8172,
      "procedures": 8173,
      "documenten": 8174,
      "Ġcycl": 8175,
      "ĶĢ": 8176,
      "Ġ312": 8177,
      "Ġvisbestanden": 8178,
      "Ġvoornamelijk": 8179,
      "Ġ292": 8180,
      "Ġgre": 8181,
      "ystemen": 8182,
      "Ġsecretaris": 8183,
      "Ġvoorkoming": 8184,
      "Ġargent": 8185,
      "Ġ325": 8186,
      "Ġices": 8187,
      "Ġvervaardigde": 8188,
      "Ġcooper": 8189,
      "effect": 8190,
      "Ġfoto": 8191,
      "Ġbedre": 8192,
      "Ġwinstgevendheid": 8193,
      "Ġlijke": 8194,
      "giften": 8195,
      "unnings": 8196,
      "Ġfiguur": 8197,
      "Ġpes": 8198,
      "geh": 8199,
      "Ġloond": 8200,
      "Ġsad": 8201,
      "Ġwetenschappelijk": 8202,
      "Ġconventioneel": 8203,
      "Ġgrootte": 8204,
      "isten": 8205,
      "Ġbetwisten": 8206,
      "Ġfaillissement": 8207,
      "Ġradi": 8208,
      "Ġalger": 8209,
      "uits": 8210,
      "idend": 8211,
      "Ġvoorgesteld": 8212,
      "Ġzoveel": 8213,
      "Ġgroothandel": 8214,
      "Ġ329": 8215,
      "ative": 8216,
      "oss": 8217,
      "Ġorientatie": 8218,
      "ton": 8219,
      "Ġ016": 8220,
      "Ġ327": 8221,
      "Ġgold": 8222,
      "Ġbewaar": 8223,
      "groepen": 8224,
      "vet": 8225,
      "stijd": 8226,
      "Ġcase": 8227,
      "sd": 8228,
      "Ġtoekomen": 8229,
      "essen": 8230,
      "walt": 8231,
      "ector": 8232,
      "Ġvrijwar": 8233,
      "Ġ1905": 8234,
      "blee": 8235,
      "vorderingen": 8236,
      "Ġ328": 8237,
      "Ġmeeste": 8238,
      "Ġminerale": 8239,
      "Ġverif": 8240,
      "Ġ277": 8241,
      "stromen": 8242,
      "illeerd": 8243,
      "Ġberekenings": 8244,
      "Ġvoortgezet": 8245,
      "Ġwonen": 8246,
      "Ġverzameld": 8247,
      "xyl": 8248,
      "ĺĲ": 8249,
      "iteur": 8250,
      "Ġdistillatie": 8251,
      "Ġadequ": 8252,
      "Ġvaak": 8253,
      "Ġstik": 8254,
      "Ġresterende": 8255,
      "Ġrepliek": 8256,
      "Ġgedragen": 8257,
      "zione": 8258,
      "Ġgenieten": 8259,
      "Ġinning": 8260,
      "Ġgang": 8261,
      "Ġnadel": 8262,
      "Ġ272": 8263,
      "Ġgedist": 8264,
      "Ġvoortzetting": 8265,
      "Ġafwezig": 8266,
      "Ġgemengde": 8267,
      "Ġ349": 8268,
      "Ġdochterondernemingen": 8269,
      "snede": 8270,
      "Ġinte": 8271,
      "Ġbemiddel": 8272,
      "Ġvoorraad": 8273,
      "Ġverwalt": 8274,
      "Ġling": 8275,
      "Ġ710": 8276,
      "stroop": 8277,
      "Ġast": 8278,
      "Ġvoegen": 8279,
      "Ġhant": 8280,
      "Ġdiscuss": 8281,
      "Ġvrucht": 8282,
      "Ġamerikaanse": 8283,
      "Ġgetuigen": 8284,
      "Ġgroothertogdom": 8285,
      "Ġrechtdoende": 8286,
      "Ġ315": 8287,
      "for": 8288,
      "Ġvoorgedaan": 8289,
      "Ġwerkloos": 8290,
      "Ġweinig": 8291,
      "Ġwijnbouw": 8292,
      "Ġgevaarlijke": 8293,
      "producenten": 8294,
      "Ġgeharmoniseerde": 8295,
      "Ġcur": 8296,
      "Ġondermijn": 8297,
      "Ġprocent": 8298,
      "jj": 8299,
      "inding": 8300,
      "brief": 8301,
      "dec": 8302,
      "ama": 8303,
      "atieven": 8304,
      "Ġsuikers": 8305,
      "Ġbob": 8306,
      "orrige": 8307,
      "Ġgeselect": 8308,
      "Ġzending": 8309,
      "Ġautom": 8310,
      "por": 8311,
      "Ġleder": 8312,
      "chi": 8313,
      "Ġaangevuld": 8314,
      "Ġgrotere": 8315,
      "Ġhandelaar": 8316,
      "Ġmotoren": 8317,
      "concent": 8318,
      "zamen": 8319,
      "Ġschil": 8320,
      "Ġvoormelde": 8321,
      "Ġnikkel": 8322,
      "fen": 8323,
      "rid": 8324,
      "ales": 8325,
      "Ġuitgegeven": 8326,
      "Ġmechanische": 8327,
      "Ġeurostat": 8328,
      "usten": 8329,
      "Ġnord": 8330,
      "Ġeenmaal": 8331,
      "Ġgehandeld": 8332,
      "Ġgeleverde": 8333,
      "Ġ521": 8334,
      "Ġzaad": 8335,
      "Ġonderzoeksprocedure": 8336,
      "vision": 8337,
      "agement": 8338,
      "straf": 8339,
      "Ġraamovereenkomst": 8340,
      "zuren": 8341,
      "Ġkab": 8342,
      "Ġkanton": 8343,
      "Ġagreement": 8344,
      "Ġring": 8345,
      "Ġontwikkelings": 8346,
      "var": 8347,
      "situatie": 8348,
      "Ġerkennen": 8349,
      "Ġverdrags": 8350,
      "Ġmannen": 8351,
      "sluiten": 8352,
      "Ġgebruiker": 8353,
      "Ġanderszins": 8354,
      "Ġaanbieden": 8355,
      "Ġmalta": 8356,
      "Ġgedroogde": 8357,
      "Ġpreciseert": 8358,
      "Ġopstellen": 8359,
      "Ġ294": 8360,
      "Ġdekking": 8361,
      "Ġspr": 8362,
      "ijver": 8363,
      "Ġtoevoeging": 8364,
      "Ġ336": 8365,
      "Ġbelastingplichtigen": 8366,
      "Ġtetra": 8367,
      "Ġclu": 8368,
      "Ġontwikkeld": 8369,
      "uwelijk": 8370,
      "Ġtoestaan": 8371,
      "ippen": 8372,
      "Ġbehoefte": 8373,
      "Ġcpz": 8374,
      "Ġmonitoring": 8375,
      "Ġ311": 8376,
      "Ġfinancien": 8377,
      "omb": 8378,
      "Ġkwij": 8379,
      "Ġprovincie": 8380,
      "pap": 8381,
      "banken": 8382,
      "mie": 8383,
      "Ġtand": 8384,
      "Ġwort": 8385,
      "Ġservice": 8386,
      "Ġsas": 8387,
      "techn": 8388,
      "Ġbeheers": 8389,
      "jo": 8390,
      "Ġreactie": 8391,
      "Ġbeoordelingsbevoegdheid": 8392,
      "Ġgezinsleden": 8393,
      "Ġaanvang": 8394,
      "Ġgeldige": 8395,
      "Ġredelijkerwijs": 8396,
      "Ġdimethyl": 8397,
      "Ġdek": 8398,
      "Ġwaarbinnen": 8399,
      "ates": 8400,
      "Ġpv": 8401,
      "Ġluchtvaartmaatschappij": 8402,
      "Ġverlangen": 8403,
      "Ġtari": 8404,
      "oof": 8405,
      "ary": 8406,
      "Ġaanwer": 8407,
      "Ġstam": 8408,
      "Ġgehecht": 8409,
      "Ġorganische": 8410,
      "ourn": 8411,
      "Ġeffectief": 8412,
      "Ġbrazilie": 8413,
      "oes": 8414,
      "Ġ396": 8415,
      "Ġoverschrijden": 8416,
      "Ġhorizontale": 8417,
      "Ġlactose": 8418,
      "Ġbalans": 8419,
      "Ġrechtmatig": 8420,
      "ures": 8421,
      "Ġ025": 8422,
      "cker": 8423,
      "Ġisoglucose": 8424,
      "ĠâĶĢ": 8425,
      "Ġ237": 8426,
      "Ġkoff": 8427,
      "Ġkalenderjaar": 8428,
      "Ġeetbare": 8429,
      "Ġvent": 8430,
      "ips": 8431,
      "Ġ820": 8432,
      "behandeling": 8433,
      "Ġ284": 8434,
      "Ġgear": 8435,
      "Ġgeboorteplaats": 8436,
      "Ġhalve": 8437,
      "Ġwl": 8438,
      "line": 8439,
      "Ġslovenie": 8440,
      "Ġdiscret": 8441,
      "Ġverkochte": 8442,
      "Ġopeenvolgende": 8443,
      "Ġwaardever": 8444,
      "Ġaandeelhouders": 8445,
      "digings": 8446,
      "bourg": 8447,
      "etisch": 8448,
      "levering": 8449,
      "ulen": 8450,
      "Ġschr": 8451,
      "elz": 8452,
      "Ġafkomstige": 8453,
      "Ġ313": 8454,
      "Ġelektro": 8455,
      "Ġplast": 8456,
      "Ġverwijderd": 8457,
      "Ġfabrikanten": 8458,
      "Ġnag": 8459,
      "050": 8460,
      "Ġ317": 8461,
      "Ġpla": 8462,
      "Ġirrelevan": 8463,
      "Ġarch": 8464,
      "cat": 8465,
      "weit": 8466,
      "Ġverwerpt": 8467,
      "von": 8468,
      "Ġcris": 8469,
      "nit": 8470,
      "nemende": 8471,
      "Ġgecorrige": 8472,
      "Ġkust": 8473,
      "Ġbloed": 8474,
      "aderen": 8475,
      "Ġbedingen": 8476,
      "Ġvolde": 8477,
      "ope": 8478,
      "Ġdiploma": 8479,
      "Ġarbeidsongeschikt": 8480,
      "Ġgever": 8481,
      "factor": 8482,
      "ep": 8483,
      "Ġfacil": 8484,
      "Ġschuldenaar": 8485,
      "Ġwenselijk": 8486,
      "Ġbijzonderheden": 8487,
      "Ġnace": 8488,
      "Ġrechthebb": 8489,
      "Ġvervat": 8490,
      "financiering": 8491,
      "roso": 8492,
      "ingscoefficient": 8493,
      "Ġunder": 8494,
      "Ġdouanegebied": 8495,
      "Ġuiteenzetting": 8496,
      "Ġkingdom": 8497,
      "fc": 8498,
      "Ġmaleisie": 8499,
      "cio": 8500,
      "Ġgedekte": 8501,
      "Ġbalan": 8502,
      "verplichtingen": 8503,
      "Ġaangezochte": 8504,
      "Ġgeconsolideerd": 8505,
      "enti": 8506,
      "administrateur": 8507,
      "sulf": 8508,
      "Ġafwijkt": 8509,
      "behorende": 8510,
      "Ġbevorder": 8511,
      "Ġarbeidsovereenkomsten": 8512,
      "apens": 8513,
      "soort": 8514,
      "Ġ287": 8515,
      "Ġcommission": 8516,
      "Ġstabiliteit": 8517,
      "Ġcorrig": 8518,
      "Ġsamenwerkings": 8519,
      "Ġzakken": 8520,
      "ionaire": 8521,
      "Ġneen": 8522,
      "Ġevrm": 8523,
      "Ġrepar": 8524,
      "Ġschat": 8525,
      "elles": 8526,
      "aamd": 8527,
      "Ġpaarden": 8528,
      "Ġgaf": 8529,
      "Ġnoot": 8530,
      "Ġpluimgierst": 8531,
      "Ġnominale": 8532,
      "nel": 8533,
      "Ġkirch": 8534,
      "motoren": 8535,
      "Ġoverbrenging": 8536,
      "Ġthat": 8537,
      "Ġsig": 8538,
      "tens": 8539,
      "Ġprzez": 8540,
      "achtigen": 8541,
      "Ġtelecommunicatie": 8542,
      "Ġhertogen": 8543,
      "koers": 8544,
      "Ġmengsel": 8545,
      "Ġople": 8546,
      "ulaire": 8547,
      "Ġconstat": 8548,
      "ĠÎ´": 8549,
      "Ġ242": 8550,
      "Ġaddit": 8551,
      "Ġwijnst": 8552,
      "wagens": 8553,
      "Ġminimaal": 8554,
      "arden": 8555,
      "Ġ530": 8556,
      "commissie": 8557,
      "Ġide": 8558,
      "Ġposition": 8559,
      "Ġtariff": 8560,
      "lam": 8561,
      "kr": 8562,
      "Ġbiod": 8563,
      "Ġplafond": 8564,
      "Ġstaande": 8565,
      "Ġidentificatienummer": 8566,
      "log": 8567,
      "Ġdd": 8568,
      "Ġ352": 8569,
      "Ġkopen": 8570,
      "Ġbilaterale": 8571,
      "Ġbezet": 8572,
      "Ġhist": 8573,
      "Ġib": 8574,
      "Ġbeslecht": 8575,
      "itieme": 8576,
      "elli": 8577,
      "Ġovergangsperiode": 8578,
      "pakk": 8579,
      "Ġeconomie": 8580,
      "Ġverwachten": 8581,
      "Ġhan": 8582,
      "artikelen": 8583,
      "weeg": 8584,
      "Ġgebruikmaking": 8585,
      "Ġcalcium": 8586,
      "vk": 8587,
      "ago": 8588,
      "Ġ357": 8589,
      "Ġomst": 8590,
      "Ġ740": 8591,
      "uitkering": 8592,
      "Î¸": 8593,
      "Ġcruz": 8594,
      "Ġamounts": 8595,
      "Ġonroerende": 8596,
      "Ġbelastbare": 8597,
      "Ġbereik": 8598,
      "Ġbench": 8599,
      "ortefeuille": 8600,
      "Ġvoornemen": 8601,
      "Ġuitspraken": 8602,
      "Ġ351": 8603,
      "ijzer": 8604,
      "slid": 8605,
      "Ġvroegere": 8606,
      "Ġlinii": 8607,
      "Ġraapzaad": 8608,
      "Ġwhol": 8609,
      "Ġserie": 8610,
      "Ġhau": 8611,
      "Ġverstaat": 8612,
      "dse": 8613,
      "methoden": 8614,
      "Ġwegen": 8615,
      "arch": 8616,
      "Ġeuropol": 8617,
      "dc": 8618,
      "Ġgeorganis": 8619,
      "Ġsw": 8620,
      "staai": 8621,
      "vereen": 8622,
      "Ġque": 8623,
      "Ġproef": 8624,
      "Ġaanbevelingen": 8625,
      "count": 8626,
      "fondsen": 8627,
      "Ñĥ": 8628,
      "Ġvloeist": 8629,
      "Ġjose": 8630,
      "Ġ333": 8631,
      "ijverheid": 8632,
      "Ġ2658": 8633,
      "Ġauthent": 8634,
      "emeth": 8635,
      "Ġoppositieafdeling": 8636,
      "quenties": 8637,
      "icium": 8638,
      "Ġbedoeling": 8639,
      "Î´": 8640,
      "Ġregelmatige": 8641,
      "Ġgevorm": 8642,
      "Ġuitvoerende": 8643,
      "Ġhertogenbosch": 8644,
      "inie": 8645,
      "ameters": 8646,
      "arts": 8647,
      "Ġtaiwan": 8648,
      "Ġ528": 8649,
      "soorten": 8650,
      "Ġelf": 8651,
      "Ġontoereikende": 8652,
      "Ġ355": 8653,
      "Ġdetailhandel": 8654,
      "Ġondernemings": 8655,
      "Ġfouten": 8656,
      "Ġregime": 8657,
      "Ġtomaten": 8658,
      "Ġgewij": 8659,
      "iger": 8660,
      "Ġleid": 8661,
      "jun": 8662,
      "Ġvaar": 8663,
      "Ġnietigheid": 8664,
      "deriv": 8665,
      "Ġgs": 8666,
      "Ġ1151": 8667,
      "Ġtribunale": 8668,
      "Ġprive": 8669,
      "Ġverslagen": 8670,
      "Ġgevoerd": 8671,
      "Ġ298": 8672,
      "Ġgram": 8673,
      "mans": 8674,
      "Ġvierk": 8675,
      "Ġprincip": 8676,
      "zwij": 8677,
      "Ġstilzwij": 8678,
      "ages": 8679,
      "Ġvoordoen": 8680,
      "iesel": 8681,
      "Ġtoereikend": 8682,
      "oli": 8683,
      "Ġondertekeningen": 8684,
      "Ġoverschrijdt": 8685,
      "Ġvoegt": 8686,
      "Ġwees": 8687,
      "Ġbepal": 8688,
      "Ġinvoercertificaat": 8689,
      "schikt": 8690,
      "Ġovereenkomen": 8691,
      "Ġpaard": 8692,
      "Ġtegenprestatie": 8693,
      "Ġgeweld": 8694,
      "Ġcorrectiefactor": 8695,
      "Ġroom": 8696,
      "Ġpetrole": 8697,
      "su": 8698,
      "Ġgene": 8699,
      "Ġmou": 8700,
      "vermogens": 8701,
      "Ġsaint": 8702,
      "ality": 8703,
      "model": 8704,
      "Ġgekopp": 8705,
      "Ġaanmelding": 8706,
      "bil": 8707,
      "Ġvullen": 8708,
      "slast": 8709,
      "Ġidentiek": 8710,
      "Ġtev": 8711,
      "Ġbetwiste": 8712,
      "sor": 8713,
      "Ġirrelevant": 8714,
      "Ġreserv": 8715,
      "itst": 8716,
      "Ġ366": 8717,
      "Ġextract": 8718,
      "Ġavi": 8719,
      "Ġpsy": 8720,
      "Ġwerkelijkheid": 8721,
      "Ġsedert": 8722,
      "stransacties": 8723,
      "Ġloondienst": 8724,
      "Ġzwitserse": 8725,
      "Ġvermenigvuldigd": 8726,
      "Ġgelijkwaardige": 8727,
      "060": 8728,
      "Ġ1102": 8729,
      "Ġzweedse": 8730,
      "Ġkoersen": 8731,
      "Ġinvoerprijzen": 8732,
      "Ġhiertoe": 8733,
      "Ġkoppel": 8734,
      "Ġinschrijvingen": 8735,
      "getrokken": 8736,
      "Ġstapel": 8737,
      "Ġconcluderen": 8738,
      "Ġbijz": 8739,
      "ructie": 8740,
      "Ġche": 8741,
      "fo": 8742,
      "Ġ274": 8743,
      "Ġdrij": 8744,
      "Ġcrm": 8745,
      "Ġ1964": 8746,
      "Ġplannen": 8747,
      "Ġvul": 8748,
      "Ġvrijheden": 8749,
      "Ġstrippen": 8750,
      "Ġhoofdgedingen": 8751,
      "ingsverplicht": 8752,
      "Ġfu": 8753,
      "Ġ316": 8754,
      "Ġstikstof": 8755,
      "Ġentre": 8756,
      "ike": 8757,
      "Ġfarmaceutische": 8758,
      "wassen": 8759,
      "Ġbevol": 8760,
      "Ġquater": 8761,
      "Ġschoeisel": 8762,
      "Ġ384": 8763,
      "Ġstandaardkwaliteit": 8764,
      "kapitaal": 8765,
      "Ġminimale": 8766,
      "Ġuitvoercertificaten": 8767,
      "Ġhoofdadministrateur": 8768,
      "aardigen": 8769,
      "Ġsie": 8770,
      "Ġ306": 8771,
      "Ġgeidentificeerd": 8772,
      "Ġjor": 8773,
      "120": 8774,
      "test": 8775,
      "Ġadministratief": 8776,
      "Ġdruiv": 8777,
      "ismen": 8778,
      "Ġspec": 8779,
      "Ġminuten": 8780,
      "Ġdeposito": 8781,
      "Ġbarri": 8782,
      "Ã¸b": 8783,
      "Ġperce": 8784,
      "Ġlangkorrelige": 8785,
      "Ġsectie": 8786,
      "Ġchemisch": 8787,
      "Ġspreken": 8788,
      "Ġdiameter": 8789,
      "Ġgenot": 8790,
      "Ġ276": 8791,
      "Ġvoorkeur": 8792,
      "zonderd": 8793,
      "Ġbezoldiging": 8794,
      "ych": 8795,
      "Ġslowaakse": 8796,
      "umine": 8797,
      "Ġvertrouwens": 8798,
      "Ġstu": 8799,
      "Ġ413": 8800,
      "Ġaromat": 8801,
      "ummers": 8802,
      "Ġ387": 8803,
      "Ġ2913": 8804,
      "Ġmaximumbedrag": 8805,
      "pra": 8806,
      "cel": 8807,
      "trekken": 8808,
      "Ġprocestaai": 8809,
      "Ġbeleids": 8810,
      "Ġgemont": 8811,
      "Ġnalaten": 8812,
      "Ġlees": 8813,
      "Ġamino": 8814,
      "voc": 8815,
      "Ġaangetast": 8816,
      "splitsing": 8817,
      "Ġpasp": 8818,
      "houdingen": 8819,
      "fi": 8820,
      "Ġtoegan": 8821,
      "jecten": 8822,
      "Ġuitvoeringsbesluit": 8823,
      "Ġfamilie": 8824,
      "ves": 8825,
      "Ġverwerving": 8826,
      "Ġmex": 8827,
      "Ġ341": 8828,
      "Ġjar": 8829,
      "Ġtoename": 8830,
      "Ġgedekt": 8831,
      "Ġgeboren": 8832,
      "Ġcab": 8833,
      "Ġgewal": 8834,
      "Ġpakistan": 8835,
      "anda": 8836,
      "Ġdeutsche": 8837,
      "banden": 8838,
      "schema": 8839,
      "Ġfunctioneren": 8840,
      "Ġtoegankelijk": 8841,
      "neem": 8842,
      "Ġsaldo": 8843,
      "Ġenergy": 8844,
      "Ġnoten": 8845,
[...]
