{
  "version": "1.0",
  "truncation": null,
  "padding": null,
  "added_tokens": [
    {
      "id": 0,
      "content": "<pad>",
      "single_word": false,
      "lstrip": false,
      "rstrip": false,
      "normalized": false,
      "special": true
    },
    {
      "id": 1,
      "content": "<s>",
      "single_word": false,
      "lstrip": false,
      "rstrip": false,
      "normalized": false,
      "special": true
    },
    {
      "id": 2,
      "content": "</s>",
      "single_word": false,
      "lstrip": false,
      "rstrip": false,
      "normalized": false,
      "special": true
    },
    {
      "id": 3,
      "content": "<unk>",
      "single_word": false,
      "lstrip": false,
      "rstrip": false,
      "normalized": false,
      "special": true
    },
    {
      "id": 4,
      "content": "<mask>",
      "single_word": false,
      "lstrip": false,
      "rstrip": false,
      "normalized": false,
      "special": true
    }
  ],
  "normalizer": {
    "type": "Sequence",
    "normalizers": [
      {
        "type": "NFKD"
      },
      {
        "type": "BertNormalizer",
        "clean_text": true,
        "handle_chinese_chars": true,
        "strip_accents": null,
        "lowercase": true
      }
    ]
  },
  "pre_tokenizer": {
    "type": "Sequence",
    "pretokenizers": [
      {
        "type": "BertPreTokenizer"
      },
      {
        "type": "ByteLevel",
        "add_prefix_space": true,
        "trim_offsets": true,
        "use_regex": true
      }
    ]
  },
  "post_processor": {
    "type": "RobertaProcessing",
    "sep": [
      "</s>",
      2
    ],
    "cls": [
      "<s>",
      1
    ],
    "trim_offsets": true,
    "add_prefix_space": true
  },
  "decoder": {
    "type": "ByteLevel",
    "add_prefix_space": true,
    "trim_offsets": true,
    "use_regex": true
  },
  "model": {
    "type": "BPE",
    "dropout": null,
    "unk_token": "<unk>",
    "continuing_subword_prefix": null,
    "end_of_word_suffix": null,
    "fuse_unk": false,
    "vocab": {
      "<pad>": 0,
      "<s>": 1,
      "</s>": 2,
      "<unk>": 3,
      "<mask>": 4,
      "!": 5,
      "\"": 6,
      "#": 7,
      "$": 8,
      "%": 9,
      "&": 10,
      "'": 11,
      "(": 12,
      ")": 13,
      "*": 14,
      "+": 15,
      ",": 16,
      "-": 17,
      ".": 18,
      "/": 19,
      "0": 20,
      "1": 21,
      "2": 22,
      "3": 23,
      "4": 24,
      "5": 25,
      "6": 26,
      "7": 27,
      "8": 28,
      "9": 29,
      ":": 30,
      ";": 31,
      "<": 32,
      "=": 33,
      ">": 34,
      "?": 35,
      "@": 36,
      "[": 37,
      "\\": 38,
      "]": 39,
      "^": 40,
      "_": 41,
      "`": 42,
      "a": 43,
      "b": 44,
      "c": 45,
      "d": 46,
      "e": 47,
      "f": 48,
      "g": 49,
      "h": 50,
      "i": 51,
      "j": 52,
      "k": 53,
      "l": 54,
      "m": 55,
      "n": 56,
      "o": 57,
      "p": 58,
      "q": 59,
      "r": 60,
      "s": 61,
      "t": 62,
      "u": 63,
      "v": 64,
      "w": 65,
      "x": 66,
      "y": 67,
      "z": 68,
      "{": 69,
      "|": 70,
      "}": 71,
      "~": 72,
      "¡": 73,
      "¢": 74,
      "£": 75,
      "¤": 76,
      "¥": 77,
      "¦": 78,
      "§": 79,
      "¨": 80,
      "©": 81,
      "ª": 82,
      "«": 83,
      "¬": 84,
      "®": 85,
      "¯": 86,
      "°": 87,
      "±": 88,
      "²": 89,
      "³": 90,
      "´": 91,
      "µ": 92,
      "¶": 93,
      "·": 94,
      "¸": 95,
      "¹": 96,
      "º": 97,
      "»": 98,
      "¼": 99,
      "½": 100,
      "¾": 101,
      "¿": 102,
      "Â": 103,
      "Ã": 104,
      "Ä": 105,
      "Å": 106,
      "Æ": 107,
      "É": 108,
      "Ê": 109,
      "Ë": 110,
      "Í": 111,
      "Î": 112,
      "Ï": 113,
      "Ð": 114,
      "Ñ": 115,
      "Ò": 116,
      "Ó": 117,
      "Õ": 118,
      "Ö": 119,
      "×": 120,
      "Ø": 121,
      "Ù": 122,
      "Û": 123,
      "ß": 124,
      "à": 125,
      "á": 126,
      "â": 127,
      "ã": 128,
      "ä": 129,
      "å": 130,
      "æ": 131,
      "ç": 132,
      "è": 133,
      "é": 134,
      "ï": 135,
      "ð": 136,
      "Ġ": 137,
      "Ģ": 138,
      "ģ": 139,
      "Ĥ": 140,
      "ĥ": 141,
      "Ħ": 142,
      "ħ": 143,
      "Ĩ": 144,
      "ĩ": 145,
      "Ī": 146,
      "ī": 147,
      "Ĭ": 148,
      "ĭ": 149,
      "Į": 150,
      "į": 151,
      "İ": 152,
      "ı": 153,
      "Ĳ": 154,
      "ĳ": 155,
      "Ĵ": 156,
      "ĵ": 157,
      "Ķ": 158,
      "ķ": 159,
      "ĸ": 160,
      "Ĺ": 161,
      "ĺ": 162,
      "Ļ": 163,
      "ļ": 164,
      "Ľ": 165,
      "ľ": 166,
      "Ŀ": 167,
      "ŀ": 168,
      "Ł": 169,
      "ł": 170,
      "Ń": 171,
      "Ġd": 172,
      "Ġde": 173,
      "Ġe": 174,
      "on": 175,
      "Ġl": 176,
      "Ġa": 177,
      "ci": 178,
      "Ġc": 179,
      "Ġp": 180,
      "re": 181,
      "Ġ,": 182,
      "en": 183,
      "Ġla": 184,
      "os": 185,
      "Ġs": 186,
      "ta": 187,
      "er": 188,
      "ti": 189,
      "ar": 190,
      "es": 191,
      "cion": 192,
      "Ġ.": 193,
      "or": 194,
      "Ġen": 195,
      "un": 196,
      "da": 197,
      "Ġel": 198,
      "ue": 199,
      "in": 200,
      "al": 201,
      "do": 202,
      "te": 203,
      "an": 204,
      "to": 205,
      "Ġre": 206,
      "que": 207,
      "Ġm": 208,
      "Ġcon": 209,
      "Ġque": 210,
      "as": 211,
      "tr": 212,
      "is": 213,
      "ic": 214,
      "Ġn": 215,
      "Ġes": 216,
      "acion": 217,
      "Ġ1": 218,
      "om": 219,
      "Ġdel": 220,
      "Ġy": 221,
      "Ġ2": 222,
      "Ġo": 223,
      "ro": 224,
      "cu": 225,
      "Ġun": 226,
      "Ġin": 227,
      "Ġse": 228,
      "Ġcom": 229,
      "Ġlos": 230,
      "Ġf": 231,
      "di": 232,
      "Ġlas": 233,
      "ion": 234,
      "men": 235,
      "Ġ)": 236,
      "ri": 237,
      "res": 238,
      "Ġpor": 239,
      "Ġpar": 240,
      "lo": 241,
      "cia": 242,
      "tiv": 243,
      "Ġsu": 244,
      "ter": 245,
      "la": 246,
      "li": 247,
      "Ġpro": 248,
      "Ġno": 249,
      "Ġ(": 250,
      "ec": 251,
      "dad": 252,
      "Ġ/": 253,
      "Ġap": 254,
      "Ġh": 255,
      "ten": 256,
      "Ġal": 257,
      "tu": 258,
      "Ġv": 259,
      "Ġtr": 260,
      "ien": 261,
      "Ġesta": 262,
      "mp": 263,
      "Ġar": 264,
      "dos": 265,
      "Ġi": 266,
      "ra": 267,
      "tos": 268,
      "Ġ20": 269,
      "Ġcu": 270,
      "Ġj": 271,
      "Ġb": 272,
      "ticu": 273,
      "rec": 274,
      "ib": 275,
      "mb": 276,
      "Ġcons": 277,
      "Ġso": 278,
      "Ġg": 279,
      "io": 280,
      "ado": 281,
      "Ġex": 282,
      "le": 283,
      "Ġuna": 284,
      "tado": 285,
      "Ġ3": 286,
      "ce": 287,
      "ab": 288,
      "Ġdi": 289,
      "Ġarticu": 290,
      "ĠÂ": 291,
      "us": 292,
      "de": 293,
      "ada": 294,
      "tes": 295,
      "Ġarticulo": 296,
      "Ġres": 297,
      "Ġan": 298,
      "Ġ:": 299,
      "ia": 300,
      "Ġâ": 301,
      "Ġsi": 302,
      "ĠâĢ": 303,
      "idad": 304,
      "pe": 305,
      "orm": 306,
      "Ġapar": 307,
      "Ġpara": 308,
      "lic": 309,
      "ision": 310,
      "mente": 311,
      "tra": 312,
      "gu": 313,
      "tan": 314,
      "Ġ-": 315,
      "tiva": 316,
      "mien": 317,
      "Ġ4": 318,
      "du": 319,
      "Ġob": 320,
      "ie": 321,
      "Ġ0": 322,
      "ici": 323,
      "ho": 324,
      "Ġper": 325,
      "era": 326,
      "Ġreg": 327,
      "se": 328,
      "den": 329,
      "Ġapartado": 330,
      "Ġsen": 331,
      "Ġme": 332,
      "Ġpre": 333,
      "Ġpres": 334,
      "ales": 335,
      "Ġ19": 336,
      "miento": 337,
      "Ġimp": 338,
      "bre": 339,
      "Ġdis": 340,
      "das": 341,
      "Ġcomision": 342,
      "Ġac": 343,
      "Ġdes": 344,
      "Ġas": 345,
      "sion": 346,
      "tor": 347,
      "Ġle": 348,
      "min": 349,
      "mento": 350,
      "Ġ5": 351,
      "Ġ200": 352,
      "qu": 353,
      "man": 354,
      "Ġtrib": 355,
      "fic": 356,
      "ciones": 357,
      "ul": 358,
      "ues": 359,
      "mi": 360,
      "Ġju": 361,
      "Ġ9": 362,
      "Ġtribun": 363,
      "Ġtribunal": 364,
      "der": 365,
      "ol": 366,
      "Ġlo": 367,
      "Ġdic": 368,
      "ren": 369,
      "Ġha": 370,
      "tencia": 371,
      "Ġ8": 372,
      "je": 373,
      "Ġmo": 374,
      "Ġdirec": 375,
      "Ġmedi": 376,
      "iz": 377,
      "aciones": 378,
      "cl": 379,
      "Ġcomo": 380,
      "dic": 381,
      "ca": 382,
      "gun": 383,
      "Ġdeci": 384,
      "Ġeu": 385,
      "Ġproce": 386,
      "ir": 387,
      "ente": 388,
      "Ġci": 389,
      "Ġdeb": 390,
      "lamento": 391,
      "Ġ6": 392,
      "ĠÂ«": 393,
      "ĠÂ»": 394,
      "Ġderec": 395,
      "Ġ7": 396,
      "ma": 397,
      "Ġpr": 398,
      "tal": 399,
      "fec": 400,
      "Ġsobre": 401,
      "Ġinter": 402,
      "Ġ201": 403,
      "Ġau": 404,
      "Ġcomun": 405,
      "enta": 406,
      "Ġor": 407,
      "cur": 408,
      "iemb": 409,
      "Ġser": 410,
      "pon": 411,
      "ante": 412,
      "Ġreglamento": 413,
      "ub": 414,
      "mo": 415,
      "cial": 416,
      "Ġconsi": 417,
      "co": 418,
      "Ġce": 419,
      "osi": 420,
      "Ġtra": 421,
      "Ġpri": 422,
      "tar": 423,
      "tro": 424,
      "go": 425,
      "Ġmar": 426,
      "Ġma": 427,
      "duc": 428,
      "Ġdecision": 429,
      "Ġeste": 430,
      "Ġdeman": 431,
      "tas": 432,
      "Ġto": 433,
      "Ġaplic": 434,
      "Ġti": 435,
      "Ġdemanda": 436,
      "tivo": 437,
      "tari": 438,
      "cip": 439,
      "ara": 440,
      "esti": 441,
      "Ġcomp": 442,
      "Ġsus": 443,
      "usti": 444,
      "Ġmiemb": 445,
      "ig": 446,
      "Ġdirectiva": 447,
      "Ġ;": 448,
      "Ġpue": 449,
      "unto": 450,
      "Ġinf": 451,
      "Ġrecur": 452,
      "jo": 453,
      "Ġcas": 454,
      "Ġjusti": 455,
      "ha": 456,
      "Ġefec": 457,
      "Ġt": 458,
      "Ġca": 459,
      "ados": 460,
      "Ġcontra": 461,
      "Ġpa": 462,
      "tacion": 463,
      "Ġderecho": 464,
      "Ġpo": 465,
      "ces": 466,
      "Ġprocedi": 467,
      "so": 468,
      "Ġad": 469,
      "posi": 470,
      "Ġconse": 471,
      "Ġprim": 472,
      "Ġparte": 473,
      "Ġins": 474,
      "Ġestab": 475,
      "iv": 476,
      "tre": 477,
      "Ġsentencia": 478,
      "Ġeuro": 479,
      "Ġ10": 480,
      "tin": 481,
      "Ġ199": 482,
      "Ġsegun": 483,
      "adas": 484,
      "ublic": 485,
      "lacion": 486,
      "pues": 487,
      "ido": 488,
      "Ġrec": 489,
      "ug": 490,
      "ando": 491,
      "Ġeurope": 492,
      "ĠâĢĶ": 493,
      "Ġconsider": 494,
      "Ġrep": 495,
      "Ġhab": 496,
      "Ġdemandan": 497,
      "ios": 498,
      "cias": 499,
      "Ġjusticia": 500,
      "ran": 501,
      "Ġprin": 502,
      "Ġestado": 503,
      "Ġve": 504,
      "Ġprincip": 505,
      "Ġprocedimiento": 506,
      "gan": 507,
      "lar": 508,
      "Ġter": 509,
      "Ġgen": 510,
      "ga": 511,
      "Ġproduc": 512,
      "titu": 513,
      "ur": 514,
      "Ġco": 515,
      "pec": 516,
      "Ġentre": 517,
      "ero": 518,
      "Ġab": 519,
      "Ġsin": 520,
      "lici": 521,
      "fici": 522,
      "Ġref": 523,
      "ros": 524,
      "Ġdo": 525,
      "Ġgener": 526,
      "arse": 527,
      "ier": 528,
      "mas": 529,
      "idades": 530,
      "Ġli": 531,
      "Ġdisposi": 532,
      "Ġobje": 533,
      "ili": 534,
      "Ġnacion": 535,
      "Ġfin": 536,
      "ida": 537,
      "per": 538,
      "estion": 539,
      "ris": 540,
      "ase": 541,
      "dor": 542,
      "ica": 543,
      "ĠâĢĲ": 544,
      "Ġale": 545,
      "ario": 546,
      "Ġemp": 547,
      "por": 548,
      "Ġconf": 549,
      "Ġcaso": 550,
      "ccion": 551,
      "Ġfun": 552,
      "Ġten": 553,
      "Ġform": 554,
      "les": 555,
      "ru": 556,
      "Ġautor": 557,
      "tido": 558,
      "Ġsolici": 559,
      "ior": 560,
      "ene": 561,
      "encia": 562,
      "Ġacu": 563,
      "ver": 564,
      "Ġdemandante": 565,
      "Ġnorm": 566,
      "hos": 567,
      "Ġ|": 568,
      "Ġrela": 569,
      "Ġ11": 570,
      "Ġjuris": 571,
      "Ġrespec": 572,
      "aba": 573,
      "Ġconsejo": 574,
      "cri": 575,
      "Ġorgan": 576,
      "tivos": 577,
      "Ġgeneral": 578,
      "cie": 579,
      "tud": 580,
      "Ġserv": 581,
      "ju": 582,
      "ans": 583,
      "tada": 584,
      "Ġcuestion": 585,
      "Ġrecurso": 586,
      "el": 587,
      "ven": 588,
      "ias": 589,
      "Ġcor": 590,
      "Ġasunto": 591,
      "los": 592,
      "eren": 593,
      "Ġdebe": 594,
      "vo": 595,
      "Ġfa": 596,
      "lig": 597,
      "Ġ12": 598,
      "Ġman": 599,
      "Ġmis": 600,
      "Ġpublic": 601,
      "Ġ]": 602,
      "tados": 603,
      "Ġ[": 604,
      "vi": 605,
      "Ġcompe": 606,
      "Ġsal": 607,
      "Ġmer": 608,
      "Ġte": 609,
      "Ġservici": 610,
      "Ġtrans": 611,
      "Ġcual": 612,
      "ĠâĢĵ": 613,
      "Ġinte": 614,
      "Ġdeter": 615,
      "Ġpuede": 616,
      "Ġpresente": 617,
      "Ġtal": 618,
      "Ġimpor": 619,
      "Ġdetermin": 620,
      "Ġleg": 621,
      "Ġmiembros": 622,
      "entes": 623,
      "Ġunion": 624,
      "olu": 625,
      "Ġ13": 626,
      "Ġu": 627,
      "anti": 628,
      "Ġestados": 629,
      "Ġacuer": 630,
      "Ġag": 631,
      "cep": 632,
      "izacion": 633,
      "Ġprimera": 634,
      "Ġpers": 635,
      "Ġasi": 636,
      "cio": 637,
      "Ġcontr": 638,
      "Ġta": 639,
      "Ġpos": 640,
      "zo": 641,
      "ilidad": 642,
      "va": 643,
      "lan": 644,
      "guien": 645,
      "Ġcar": 646,
      "Ġprev": 647,
      "Ġmen": 648,
      "no": 649,
      "Ġempres": 650,
      "Ġinform": 651,
      "dencia": 652,
      "Ġotr": 653,
      "Ġdicha": 654,
      "mentos": 655,
      "Ġdicho": 656,
      "Ġmiembro": 657,
      "cre": 658,
      "yo": 659,
      "cional": 660,
      "Ġ14": 661,
      "Ġado": 662,
      "clus": 663,
      "itari": 664,
      "Ġnacional": 665,
      "ch": 666,
      "Ġcuando": 667,
      "minis": 668,
      "Ġoblig": 669,
      "Ġ15": 670,
      "Ġespe": 671,
      "tancia": 672,
      "Ġperson": 673,
      "mbre": 674,
      "Ġaplicacion": 675,
      "00": 676,
      "cer": 677,
      "Ġadop": 678,
      "eces": 679,
      "lec": 680,
      "Ġestable": 681,
      "Ġparti": 682,
      "Ġmerc": 683,
      "za": 684,
      "mpli": 685,
      "Ġ17": 686,
      "Ġmas": 687,
      "Ġtraba": 688,
      "Ġra": 689,
      "pre": 690,
      "Ġsentido": 691,
      "clu": 692,
      "Ġmediante": 693,
      "po": 694,
      "Ġneces": 695,
      "Ġcal": 696,
      "tivas": 697,
      "Ġacuerdo": 698,
      "Ġcuenta": 699,
      "Ġden": 700,
      "Ġhec": 701,
      "pa": 702,
      "Ġtan": 703,
      "Ġlug": 704,
      "Ġcara": 705,
      "Ġconstitu": 706,
      "Ġ16": 707,
      "ista": 708,
      "con": 709,
      "Ġfi": 710,
      "cas": 711,
      "Ġbas": 712,
      "Ġestableci": 713,
      "cter": 714,
      "Ġrespecto": 715,
      "iste": 716,
      "mbien": 717,
      "Ġlugar": 718,
      "ctu": 719,
      "Ġpartes": 720,
      "Ġcaracter": 721,
      "og": 722,
      "Ġparticu": 723,
      "Ġval": 724,
      "Ġobs": 725,
      "Ġobjeto": 726,
      "Ġdisposiciones": 727,
      "Ġcos": 728,
      "Ġexp": 729,
      "Ġmater": 730,
      "Ġdecl": 731,
      "Ġ%": 732,
      "Ġreal": 733,
      "Ġ18": 734,
      "ya": 735,
      "ico": 736,
      "Ġk": 737,
      "Ġrelacion": 738,
      "Ġadminis": 739,
      "Ġrequ": 740,
      "ex": 741,
      "able": 742,
      "mos": 743,
      "Ġinterpre": 744,
      "jer": 745,
      "lio": 746,
      "Ġservicios": 747,
      "Ġbien": 748,
      "Ġcomunitari": 749,
      "Ġtanto": 750,
      "reg": 751,
      "Ġproductos": 752,
      "Ġjuri": 753,
      "puesto": 754,
      "ba": 755,
      "Ġprop": 756,
      "terior": 757,
      "Ġpreci": 758,
      "Ġinteres": 759,
      "Ġeuropea": 760,
      "Ġne": 761,
      "tific": 762,
      "Ġsr": 763,
      "Ġley": 764,
      "Ġade": 765,
      "Ġsegu": 766,
      "Ġjuridic": 767,
      "ific": 768,
      "yu": 769,
      "ito": 770,
      "tante": 771,
      "na": 772,
      "Ġ198": 773,
      "Ġcir": 774,
      "me": 775,
      "Ġresul": 776,
      "Ġmedidas": 777,
      "Ġsiguien": 778,
      "sa": 779,
      "Ġ21": 780,
      "aria": 781,
      "Ġderechos": 782,
      "Ġparticular": 783,
      "Ġdeclar": 784,
      "Ġdef": 785,
      "Ġpe": 786,
      "Ġarreg": 787,
      "Ġconform": 788,
      "Ġarreglo": 789,
      "olucion": 790,
      "Ġprote": 791,
      "Ġeje": 792,
      "Ġante": 793,
      "las": 794,
      "Ġ22": 795,
      "mis": 796,
      "Ġpresenta": 797,
      "Ġotros": 798,
      "Ġuti": 799,
      "ibu": 800,
      "tica": 801,
      "zon": 802,
      "Ġletra": 803,
      "almente": 804,
      "Ġefecto": 805,
      "Ġjurisdic": 806,
      "Ġfe": 807,
      "dicial": 808,
      "pi": 809,
      "Ġ30": 810,
      "dific": 811,
      "arios": 812,
      "Ġ23": 813,
      "Ġ\"": 814,
      "Ġexa": 815,
      "tente": 816,
      "Ġsolo": 817,
      "Ġimpug": 818,
      "reci": 819,
      "Ġver": 820,
      "Ġcondi": 821,
      "Ġpod": 822,
      "Ġestablec": 823,
      "Ġmedida": 824,
      "qui": 825,
      "Ġtratado": 826,
      "Ġpues": 827,
      "Ġcomer": 828,
      "Ġtambien": 829,
      "Ġactiv": 830,
      "Ġmodific": 831,
      "Ġ29": 832,
      "Ġayu": 833,
      "Ġprincipio": 834,
      "tamente": 835,
      "Ġinstancia": 836,
      "erv": 837,
      "Ġmarco": 838,
      "Ġ25": 839,
      "Ġdur": 840,
      "Ġimpugn": 841,
      "Ġpla": 842,
      "ciales": 843,
      "Ġr": 844,
      "Ġfuncion": 845,
      "Ġsenal": 846,
      "pen": 847,
      "Ġ26": 848,
      "Ġmercado": 849,
      "dades": 850,
      "liz": 851,
      "ivo": 852,
      "Ġejer": 853,
      "respon": 854,
      "Ġnorma": 855,
      "Ġgo": 856,
      "Ġexis": 857,
      "Ġcorrespon": 858,
      "iere": 859,
      "des": 860,
      "Ġpl": 861,
      "Ġpunto": 862,
      "ula": 863,
      "Ġgar": 864,
      "Ġotra": 865,
      "Ġantes": 866,
      "erencia": 867,
      "Ġpreju": 868,
      "Ġ24": 869,
      "Ġhecho": 870,
      "Ġlimi": 871,
      "Ġ28": 872,
      "Ġcee": 873,
      "Ġvir": 874,
      "Ġw": 875,
      "ve": 876,
      "Ġapartados": 877,
      "Ġsub": 878,
      "Ġcompetencia": 879,
      "gacion": 880,
      "ini": 881,
      "Ġsala": 882,
      "Ġecon": 883,
      "Ġeconom": 884,
      "um": 885,
      "clusion": 886,
      "Ġson": 887,
      "ana": 888,
      "bier": 889,
      "Ġindic": 890,
      "Ġvirtud": 891,
      "Ġrespon": 892,
      "Ġfran": 893,
      "Ġcitada": 894,
      "Ġsocie": 895,
      "Ġele": 896,
      "Ġrepres": 897,
      "ing": 898,
      "Ġorgano": 899,
      "tig": 900,
      "Ġsitu": 901,
      "Ġrepublic": 902,
      "Ġinfra": 903,
      "pru": 904,
      "Ġjurispru": 905,
      "Ġtiene": 906,
      "Ġ27": 907,
      "Ġgaranti": 908,
      "Ġsiste": 909,
      "Ġgra": 910,
      "ja": 911,
      "Ġya": 912,
      "tur": 913,
      "Ġanex": 914,
      "ulti": 915,
      "Ġrequis": 916,
      "duci": 917,
      "he": 918,
      "Ġrepublica": 919,
      "Ġimpues": 920,
      "Ġresolucion": 921,
      "oci": 922,
      "imen": 923,
      "Ġlib": 924,
      "Ġofici": 925,
      "Ġjurisprudencia": 926,
      "Ġapreci": 927,
      "Ġdicie": 928,
      "ible": 929,
      "Ġna": 930,
      "Ġforma": 931,
      "Ġdiciembre": 932,
      "Ġarticulos": 933,
      "Ġlegis": 934,
      "Ġof": 935,
      "Ġamb": 936,
      "Ġpermi": 937,
      "idos": 938,
      "Ġni": 939,
      "ino": 940,
      "Ġdif": 941,
      "Ġjurisdiccional": 942,
      "Ġprincipal": 943,
      "ts": 944,
      "Ġtrata": 945,
      "Ġfu": 946,
      "gra": 947,
      "Ġmotivo": 948,
      "adores": 949,
      "Ġsolicitud": 950,
      "Ġjun": 951,
      "Ġprimer": 952,
      "Ġ31": 953,
      "Ġprocede": 954,
      "Ġmismo": 955,
      "ble": 956,
      "dente": 957,
      "tali": 958,
      "Ġlu": 959,
      "Ġutiliz": 960,
      "Ġperio": 961,
      "Ġda": 962,
      "Ġregimen": 963,
      "Ġefectos": 964,
      "ibilidad": 965,
      "ria": 966,
      "Ġescri": 967,
      "Ġinclu": 968,
      "idas": 969,
      "Ġii": 970,
      "esion": 971,
      "ian": 972,
      "Ġlitig": 973,
      "il": 974,
      "Ġdisposicion": 975,
      "Ġpen": 976,
      "Ġaf": 977,
      "Ġcontro": 978,
      "taciones": 979,
      "tric": 980,
      "Ġadministra": 981,
      "Ġtitu": 982,
      "Ġanexo": 983,
      "Ġsep": 984,
      "Ġvease": 985,
      "Ġrazon": 986,
      "Ġsido": 987,
      "cun": 988,
      "Ġproteccion": 989,
      "Ġdocu": 990,
      "Ġnin": 991,
      "Ġdos": 992,
      "mar": 993,
      "Ġconsecu": 994,
      "Ġulti": 995,
      "Ġejecu": 996,
      "Ġpais": 997,
      "Ġcostas": 998,
      "Ġfunda": 999,
      "Ġotro": 1000,
      "tru": 1001,
      "Ġexig": 1002,
      "Ġnormas": 1003,
      "Ġinformacion": 1004,
      "itos": 1005,
      "Ġrelativa": 1006,
      "Ġmarca": 1007,
      "Ġgobier": 1008,
      "ye": 1009,
      "Ġbase": 1010,
      "Ġinde": 1011,
      "dia": 1012,
      "ento": 1013,
      "mientos": 1014,
      "emp": 1015,
      "Ġcontrol": 1016,
      "Ġqu": 1017,
      "Ġfinan": 1018,
      "amente": 1019,
      "Ġcondiciones": 1020,
      "Ġjulio": 1021,
      "Ġaleman": 1022,
      "Ġsegundo": 1023,
      "Ġcomunidad": 1024,
      "torio": 1025,
      "ceso": 1026,
      "quier": 1027,
      "tarse": 1028,
      "icio": 1029,
      "Ġsistema": 1030,
      "Ġcontrover": 1031,
      "Ġresi": 1032,
      "Ġningun": 1033,
      "Ġsea": 1034,
      "Ġsuper": 1035,
      "Ġpueden": 1036,
      "Ġincu": 1037,
      "terio": 1038,
      "Ġconten": 1039,
      "car": 1040,
      "Ġfal": 1041,
      "Ġestas": 1042,
      "zar": 1043,
      "Ġanterior": 1044,
      "Ġcomunidades": 1045,
      "Ġcualquier": 1046,
      "Ġademas": 1047,
      "dido": 1048,
      "Ġmateria": 1049,
      "can": 1050,
      "Ġhaber": 1051,
      "Ġdesp": 1052,
      "Ġjunio": 1053,
      "Ġvalor": 1054,
      "Ġdistin": 1055,
      "Ġproducto": 1056,
      "Ġcircun": 1057,
      "Ġba": 1058,
      "Ġcircuns": 1059,
      "Ġempresas": 1060,
      "Ġafec": 1061,
      "ina": 1062,
      "Ġop": 1063,
      "Ġlitigio": 1064,
      "Ġus": 1065,
      "Ġnue": 1066,
      "Ġremi": 1067,
      "Ġprejudicial": 1068,
      "Ġconclusion": 1069,
      "Ġdemas": 1070,
      "pone": 1071,
      "Ġgobierno": 1072,
      "Ġhaya": 1073,
      "Ġabog": 1074,
      "Ġmencion": 1075,
      "Ġconven": 1076,
      "Ġnacionales": 1077,
      "ric": 1078,
      "Ġrealiz": 1079,
      "ras": 1080,
      "Ġprevis": 1081,
      "Ġorig": 1082,
      "Ġoper": 1083,
      "Ġeuropeas": 1084,
      "Ġese": 1085,
      "tancias": 1086,
      "Ġorden": 1087,
      "Ġespeci": 1088,
      "Ġdurante": 1089,
      "Ġri": 1090,
      "Ġcada": 1091,
      "Ġplazo": 1092,
      "ticas": 1093,
      "Ġcre": 1094,
      "Ġempresa": 1095,
      "Ġautoridades": 1096,
      "Ġrefiere": 1097,
      "Ġimpugnada": 1098,
      "Ġdestin": 1099,
      "tribu": 1100,
      "Ġpueda": 1101,
      "ord": 1102,
      "fo": 1103,
      "tion": 1104,
      "gar": 1105,
      "Ġcri": 1106,
      "Ġhan": 1107,
      "Ġmarzo": 1108,
      "Ġfec": 1109,
      "Ġexcep": 1110,
      "Ġfis": 1111,
      "dera": 1112,
      "Ġrecon": 1113,
      "tencias": 1114,
      "Ġobligacion": 1115,
      "tad": 1116,
      "arias": 1117,
      "Ġaun": 1118,
      "siones": 1119,
      "Ġhabia": 1120,
      "Ġmotivos": 1121,
      "Ġinfraccion": 1122,
      "Ġigu": 1123,
      "Ġlle": 1124,
      "rob": 1125,
      "tida": 1126,
      "Ġdom": 1127,
      "Ġplante": 1128,
      "one": 1129,
      "ad": 1130,
      "Ġ40": 1131,
      "Ġnom": 1132,
      "Ġmodo": 1133,
      "puesta": 1134,
      "Ġvig": 1135,
      "Ġactu": 1136,
      "Ġsuces": 1137,
      "iendo": 1138,
      "rente": 1139,
      "Ġsepti": 1140,
      "Ġcontrato": 1141,
      "Ġsiguiente": 1142,
      "Ġpra": 1143,
      "Ġoctu": 1144,
      "Ġejerci": 1145,
      "Ġoctubre": 1146,
      "Ġperiodo": 1147,
      "Ġconte": 1148,
      "Ġunica": 1149,
      "Ġestos": 1150,
      "tadas": 1151,
      "Ġello": 1152,
      "Ġalgun": 1153,
      "ables": 1154,
      "xto": 1155,
      "cal": 1156,
      "Ġemb": 1157,
      "Ġfecha": 1158,
      "amiento": 1159,
      "Ġjue": 1160,
      "ril": 1161,
      "if": 1162,
      "Ġinstitu": 1163,
      "Ġdesesti": 1164,
      "Ġmayo": 1165,
      "Ġparticip": 1166,
      "Ġpes": 1167,
      "Ġ2003": 1168,
      "Ġesp": 1169,
      "untos": 1170,
      "Ġaleg": 1171,
      "ridad": 1172,
      "Ġrequisitos": 1173,
      "Ġer": 1174,
      "gen": 1175,
      "Ġpreten": 1176,
      "vision": 1177,
      "Ġ2001": 1178,
      "taria": 1179,
      "Ġsocial": 1180,
      "Ġprac": 1181,
      "Ġnov": 1182,
      "im": 1183,
      "Ġefectu": 1184,
      "rece": 1185,
      "Ġitali": 1186,
      "Ġreino": 1187,
      "Ġprue": 1188,
      "Ġtodo": 1189,
      "Ġdeben": 1190,
      "Ġsan": 1191,
      "Ġfinanci": 1192,
      "Ġinterpretacion": 1193,
      "dio": 1194,
      "ge": 1195,
      "Ġsituacion": 1196,
      "tura": 1197,
      "val": 1198,
      "Ġcumpli": 1199,
      "gua": 1200,
      "Ġventa": 1201,
      "alidad": 1202,
      "Ġobserv": 1203,
      "ton": 1204,
      "Ġ2004": 1205,
      "Ġterri": 1206,
      "Ġ2009": 1207,
      "mision": 1208,
      "Ġeuropeo": 1209,
      "Ġespecial": 1210,
      "Ġconce": 1211,
      "Ġauto": 1212,
      "Ġperju": 1213,
      "Ġapreciacion": 1214,
      "Ġcomunitario": 1215,
      "diente": 1216,
      "tir": 1217,
      "Ġespecific": 1218,
      "Ġregis": 1219,
      "Ġparra": 1220,
      "Ġpublico": 1221,
      "tales": 1222,
      "Ġnum": 1223,
      "Ġmu": 1224,
      "Ġnormativa": 1225,
      "ora": 1226,
      "duccion": 1227,
      "cen": 1228,
      "Ġtodos": 1229,
      "Ġgas": 1230,
      "Ġconsecuencia": 1231,
      "embre": 1232,
      "iembre": 1233,
      "Ġcapi": 1234,
      "Ġ*": 1235,
      "Ġnoviembre": 1236,
      "Ġtermin": 1237,
      "tario": 1238,
      "Ġ2006": 1239,
      "Ġtrabaj": 1240,
      "Ġambito": 1241,
      "lu": 1242,
      "cos": 1243,
      "Ġseptiembre": 1244,
      "ustr": 1245,
      "Ġayuda": 1246,
      "Ġafir": 1247,
      "Ġadu": 1248,
      "Ġbene": 1249,
      "Ġindi": 1250,
      "Ġenero": 1251,
      "Ġpersonas": 1252,
      "Ġ32": 1253,
      "Ġseguridad": 1254,
      "ome": 1255,
      "Ġimporte": 1256,
      "Ġsa": 1257,
      "Ġinvo": 1258,
      "Ġsup": 1259,
      "Ġ33": 1260,
      "Ġobten": 1261,
      "Ġestablece": 1262,
      "cul": 1263,
      "Ġtales": 1264,
      "Ġabril": 1265,
      "Ġdatos": 1266,
      "Ġvista": 1267,
      "Ġcomunic": 1268,
      "Ġmisma": 1269,
      "Ġejecucion": 1270,
      "Ġpas": 1271,
      "Ġparrafo": 1272,
      "Ġfue": 1273,
      "Ġdu": 1274,
      "Ġsociedad": 1275,
      "Ġdemandantes": 1276,
      "ulacion": 1277,
      "Ġenti": 1278,
      "Ġconcep": 1279,
      "Ġtrabajo": 1280,
      "Ġpeti": 1281,
      "Ġmin": 1282,
      "Ġ?": 1283,
      "Ġtercer": 1284,
      "Ġparlamento": 1285,
      "ale": 1286,
      "has": 1287,
      "Ġsig": 1288,
      "Ġ38": 1289,
      "Ġanal": 1290,
      "Ġlen": 1291,
      "Ġprof": 1292,
      "Ġservicio": 1293,
      "Ġsucesivo": 1294,
      "Ġregu": 1295,
      "cib": 1296,
      "Ġconformidad": 1297,
      "Ġdesde": 1298,
      "Ġelec": 1299,
      "Ġ90": 1300,
      "Ġintern": 1301,
      "Ġcab": 1302,
      "creto": 1303,
      "tantes": 1304,
      "rol": 1305,
      "Ġimpuesto": 1306,
      "Ġconden": 1307,
      "Ġ34": 1308,
      "Ġexamin": 1309,
      "Ġhay": 1310,
      "Ġfebre": 1311,
      "Ġfebrero": 1312,
      "Ġcircunstancias": 1313,
      "ctor": 1314,
      "Ġ36": 1315,
      "Ġjustific": 1316,
      "Ġmanera": 1317,
      "Ġesa": 1318,
      "Ġmenos": 1319,
      "Ġtipo": 1320,
      "Ġ35": 1321,
      "Ġsuje": 1322,
      "rende": 1323,
      "Ġembar": 1324,
      "Ġrespons": 1325,
      "Ġexpres": 1326,
      "Ġactividad": 1327,
      "Ġ197": 1328,
      "Ġtras": 1329,
      "Ġcomercial": 1330,
      "Ġ2002": 1331,
      "icas": 1332,
      "Ġdefini": 1333,
      "Ġ39": 1334,
      "Ġabogado": 1335,
      "Ġcuestiones": 1336,
      "Ġsegunda": 1337,
      "Ġ85": 1338,
      "Ġconsu": 1339,
      "Ġtener": 1340,
      "Ġsino": 1341,
      "omento": 1342,
      "Ġconforme": 1343,
      "hib": 1344,
      "Ġescrito": 1345,
      "anto": 1346,
      "Ġfab": 1347,
      "Ġpoli": 1348,
      "ano": 1349,
      "Ġbenefici": 1350,
      "Ġreferencia": 1351,
      "tivamente": 1352,
      "Ġtranspor": 1353,
      "ial": 1354,
      "Ġ2000": 1355,
      "Ġcomple": 1356,
      "sos": 1357,
      "Ġpeticion": 1358,
      "abilidad": 1359,
      "ies": 1360,
      "Ġtu": 1361,
      "lado": 1362,
      "Ġ2013": 1363,
      "Ġregla": 1364,
      "Ġesti": 1365,
      "Ġdesar": 1366,
      "Ġresulta": 1367,
      "Ġpresi": 1368,
      "Ġrelativo": 1369,
      "Ġotras": 1370,
      "Ġpago": 1371,
      "Ġdesarrol": 1372,
      "Ġcuanto": 1373,
      "Ġtodas": 1374,
      "Ġpartir": 1375,
      "tracion": 1376,
      "encias": 1377,
      "Ġtf": 1378,
      "Ġdiferen": 1379,
      "Ġestan": 1380,
      "Ġsentencias": 1381,
      "Ġcer": 1382,
      "Ġ37": 1383,
      "Ġoficial": 1384,
      "Ġprohib": 1385,
      "Ġembargo": 1386,
      "bra": 1387,
      "Ġrepresen": 1388,
      "Ġmomento": 1389,
      "cios": 1390,
      "Ġnatur": 1391,
      "tras": 1392,
      "Ġremitente": 1393,
      "aran": 1394,
      "Ġobligaciones": 1395,
      "Ġtfue": 1396,
      "Ġunicamente": 1397,
      "omo": 1398,
      "dida": 1399,
      "ite": 1400,
      "Ġ00": 1401,
      "Ġigual": 1402,
      "icos": 1403,
      "guiente": 1404,
      "Ġtec": 1405,
      "jos": 1406,
      "gos": 1407,
      "Ġterc": 1408,
      "Ġelementos": 1409,
      "Ġcen": 1410,
      "Ġ2014": 1411,
      "Ġ2011": 1412,
      "Ġconsiguiente": 1413,
      "ign": 1414,
      "Ġ1999": 1415,
      "Ġexistencia": 1416,
      "ĠÂ¿": 1417,
      "anse": 1418,
      "Ġfon": 1419,
      "Ġmi": 1420,
      "Ġfigu": 1421,
      "Ġcele": 1422,
      "Ġincumpli": 1423,
      "Ġdeber": 1424,
      "Ġmotiv": 1425,
      "lares": 1426,
      "Ġhub": 1427,
      "20": 1428,
      "culo": 1429,
      "asta": 1430,
      "Ġterritorio": 1431,
      "Ġdichas": 1432,
      "Ġconcepto": 1433,
      "Ġsiguientes": 1434,
      "Ġpersona": 1435,
      "emb": 1436,
      "Ġveanse": 1437,
      "ulta": 1438,
      "Ġvin": 1439,
      "Ġrecurri": 1440,
      "Ġ50": 1441,
      "Ġiden": 1442,
      "Ġultimo": 1443,
      "Ġcontin": 1444,
      "par": 1445,
      "Ġsecre": 1446,
      "Ġpu": 1447,
      "Ġ2008": 1448,
      "Ġ44": 1449,
      "Ġir": 1450,
      "yec": 1451,
      "Ġcier": 1452,
      "Ġdesprende": 1453,
      "hic": 1454,
      "Ġactividades": 1455,
      "ves": 1456,
      "Ġalcan": 1457,
      "tiene": 1458,
      "Ġthe": 1459,
      "Ġobstante": 1460,
      "Ġlengua": 1461,
      "Ġerr": 1462,
      "Ġconvenio": 1463,
      "Ġpero": 1464,
      "Ġconsiderando": 1465,
      "Ġmedio": 1466,
      "Ġfrances": 1467,
      "Ġrelativas": 1468,
      "Ġhasta": 1469,
      "Ġprofesion": 1470,
      "Ġalegaciones": 1471,
      "Ġpublica": 1472,
      "Ġcasacion": 1473,
      "Ġcol": 1474,
      "eron": 1475,
      "Ġestatu": 1476,
      "Ġbu": 1477,
      "enen": 1478,
      "Ġ41": 1479,
      "Ġfij": 1480,
      "Ġfacul": 1481,
      "Ġaplicable": 1482,
      "Ġsos": 1483,
      "Ġtrabajadores": 1484,
      "Ġentr": 1485,
      "Ġ2012": 1486,
      "Ġpaises": 1487,
      "Ġcalidad": 1488,
      "Ġemple": 1489,
      "Ġ93": 1490,
      "Ġ94": 1491,
      "Ġconclusiones": 1492,
      "Ġconstituye": 1493,
      "Ġ43": 1494,
      "Ġdomici": 1495,
      "Ġinc": 1496,
      "posicion": 1497,
      "uacion": 1498,
      "Ġdocumentos": 1499,
      "Ġbel": 1500,
      "Ġanos": 1501,
      "Ġejercicio": 1502,
      "Ġries": 1503,
      "Ġautoridad": 1504,
      "Ġpodra": 1505,
      "Ġfundamen": 1506,
      "Ġcan": 1507,
      "Ġvehic": 1508,
      "Ġmes": 1509,
      "Ġpon": 1510,
      "Ġobjetivo": 1511,
      "Ġexpor": 1512,
      "Ġjuridica": 1513,
      "Ġinv": 1514,
      "Ġpropor": 1515,
      "ger": 1516,
      "antes": 1517,
      "Ġera": 1518,
      "Ġnumero": 1519,
      "ficiente": 1520,
      "Ġ95": 1521,
      "tores": 1522,
      "Ġacceso": 1523,
      "Ġdado": 1524,
      "Ġee": 1525,
      "osicion": 1526,
      "Ġdentro": 1527,
      "Ġdiario": 1528,
      "Ġproyec": 1529,
      "Ġcanti": 1530,
      "Ġdichos": 1531,
      "Ġfabric": 1532,
      "Ġayudas": 1533,
      "Ġderi": 1534,
      "Ġposibilidad": 1535,
      "Ġautos": 1536,
      "ine": 1537,
      "Ġind": 1538,
      "Ġcaus": 1539,
      "Ġlibre": 1540,
      "Ġautoriz": 1541,
      "Ġ48": 1542,
      "uda": 1543,
      "Ġ92": 1544,
      "Ġmanif": 1545,
      "Ġnotific": 1546,
      "Ġanulacion": 1547,
      "Ġpertin": 1548,
      "Ġnecesario": 1549,
      "Ġ2007": 1550,
      "toria": 1551,
      "icion": 1552,
      "Ġjuridico": 1553,
      "Ġsra": 1554,
      "endo": 1555,
      "Ġcompren": 1556,
      "ide": 1557,
      "Ġlegislacion": 1558,
      "Ġperjuicio": 1559,
      "Ġmay": 1560,
      "ne": 1561,
      "ac": 1562,
      "Ġformula": 1563,
      "Ġacto": 1564,
      "Ġrefer": 1565,
      "ĠâĢľ": 1566,
      "Ġuso": 1567,
      "Ġapo": 1568,
      "Ġconj": 1569,
      "Ġanu": 1570,
      "Ġtransf": 1571,
      "iti": 1572,
      "Ġpresidente": 1573,
      "Ġcl": 1574,
      "quel": 1575,
      "ĠâĢĿ": 1576,
      "Ġconsidera": 1577,
      "Ġinterpretarse": 1578,
      "Ġplan": 1579,
      "Ġpresen": 1580,
      "Ġ2010": 1581,
      "Ġprecios": 1582,
      "ificacion": 1583,
      "Ġninguna": 1584,
      "dentes": 1585,
      "Ġequ": 1586,
      "dica": 1587,
      "Â°": 1588,
      "Ġsolicita": 1589,
      "ducir": 1590,
      "Ġ45": 1591,
      "Ġnombre": 1592,
      "Ġ42": 1593,
      "Ġrepresenta": 1594,
      "xi": 1595,
      "Ġ2015": 1596,
      "teg": 1597,
      "Ġaduan": 1598,
      "Ġart": 1599,
      "Ġdeterminar": 1600,
      "dir": 1601,
      "Ġmercan": 1602,
      "tis": 1603,
      "Ġ2005": 1604,
      "Ġgarantizar": 1605,
      "Ġhi": 1606,
      "Ġaquel": 1607,
      "Ġtiemp": 1608,
      "Ġinternacion": 1609,
      "Ġgu": 1610,
      "log": 1611,
      "cionales": 1612,
      "Ġalemania": 1613,
      "tico": 1614,
      "dan": 1615,
      "Ġdomicilio": 1616,
      "Ġing": 1617,
      "Ġcla": 1618,
      "Ġobservaciones": 1619,
      "Ġrestric": 1620,
      "Ġrespecta": 1621,
      "Ġprecio": 1622,
      "Ġcontrovertida": 1623,
      "dar": 1624,
      "Ġsector": 1625,
      "Ġmayor": 1626,
      "Ġtiempo": 1627,
      "Ġcircu": 1628,
      "Ġadministracion": 1629,
      "Ġana": 1630,
      "Ġban": 1631,
      "Ġano": 1632,
      "Ġautorizacion": 1633,
      "Ġestablecido": 1634,
      "Ġcontratos": 1635,
      "Ġ46": 1636,
      "dores": 1637,
      "tentes": 1638,
      "Ġinvesti": 1639,
      "Ġ49": 1640,
      "Ġhechos": 1641,
      "Ġprestacion": 1642,
      "Ġcoo": 1643,
      "Ġtoda": 1644,
      "Ġtecn": 1645,
      "Ġ2016": 1646,
      "Ġexpe": 1647,
      "Ġconsumi": 1648,
      "Ġestatuto": 1649,
      "Ġcomunitaria": 1650,
      "Ġagentes": 1651,
      "Ġgastos": 1652,
      "Ġ98": 1653,
      "iera": 1654,
      "mon": 1655,
      "Ġliber": 1656,
      "Ġdispuesto": 1657,
      "Ġprocedimientos": 1658,
      "Ġcamb": 1659,
      "Ġue": 1660,
      "Ġaccion": 1661,
      "Ġuno": 1662,
      "fa": 1663,
      "Ġch": 1664,
      "gado": 1665,
      "Ġdispon": 1666,
      "segu": 1667,
      "Ġtres": 1668,
      "Ġvi": 1669,
      "Ġdenom": 1670,
      "eros": 1671,
      "Ġrecurrente": 1672,
      "ich": 1673,
      "Ġexclu": 1674,
      "Ġpoder": 1675,
      "Ġposterior": 1676,
      "et": 1677,
      "Ġpuesto": 1678,
      "Ġadoptar": 1679,
      "teriores": 1680,
      "Ġposible": 1681,
      "Ġdemandada": 1682,
      "diciales": 1683,
      "Ġmanten": 1684,
      "Ġprueba": 1685,
      "Ġ84": 1686,
      "Ġcuar": 1687,
      "Ġeval": 1688,
      "ustria": 1689,
      "Ġniv": 1690,
      "Ġreconoci": 1691,
      "peracion": 1692,
      "Ġ87": 1693,
      "Ġregistro": 1694,
      "Ġalega": 1695,
      "minacion": 1696,
      "Ġgru": 1697,
      "vis": 1698,
      "iones": 1699,
      "Ġsiemp": 1700,
      "Ġsiempre": 1701,
      "leg": 1702,
      "Ġintereses": 1703,
      "Ġ47": 1704,
      "Ġfalta": 1705,
      "Ġvez": 1706,
      "Ġiva": 1707,
      "Ġminis": 1708,
      "Ġsuperior": 1709,
      "Ġexamen": 1710,
      "rig": 1711,
      "tran": 1712,
      "lica": 1713,
      "Ġorigen": 1714,
      "Ġ96": 1715,
      "Ġpron": 1716,
      "Ġ51": 1717,
      "Ġdebera": 1718,
      "Ġdecreto": 1719,
      "duce": 1720,
      "Ġsean": 1721,
      "Ġ71": 1722,
      "ena": 1723,
      "Ġrecib": 1724,
      "Ġren": 1725,
      "Ġrespuesta": 1726,
      "uncia": 1727,
      "Ġsome": 1728,
      "Ġrecursos": 1729,
      "Ġcuyo": 1730,
      "Ġdiscri": 1731,
      "Ġdecisiones": 1732,
      "mili": 1733,
      "Ġprogra": 1734,
      "Ġcomite": 1735,
      "Ġproduccion": 1736,
      "Ġtenor": 1737,
      "Ġtotal": 1738,
      "Ġrespe": 1739,
      "Ġreun": 1740,
      "Ġsera": 1741,
      "Ġjudicial": 1742,
      "ber": 1743,
      "terios": 1744,
      "Ġfiscal": 1745,
      "Ġcertific": 1746,
      "Ġapor": 1747,
      "Ġbo": 1748,
      "Ġcodi": 1749,
      "Ġdispone": 1750,
      "Ġeconomica": 1751,
      "andos": 1752,
      "Ġgran": 1753,
      "Ġfinal": 1754,
      "vencion": 1755,
      "mismo": 1756,
      "Ġtransporte": 1757,
      "Ġcontemp": 1758,
      "Ġresponsabilidad": 1759,
      "oral": 1760,
      "Ġ89": 1761,
      "Ġestu": 1762,
      "Ġasuntos": 1763,
      "Ġnego": 1764,
      "Ġasimismo": 1765,
      "Ġhayan": 1766,
      "Ġ2017": 1767,
      "Ġdesarrollo": 1768,
      "Ġampli": 1769,
      "macion": 1770,
      "Ġanti": 1771,
      "dientes": 1772,
      "mn": 1773,
      "Ġorigin": 1774,
      "Ġderiv": 1775,
      "Ġcriterios": 1776,
      "Ġevi": 1777,
      "Ġpropie": 1778,
      "Ġ'": 1779,
      "Ġmini": 1780,
      "Ġinver": 1781,
      "Ġaunque": 1782,
      "Ġpractica": 1783,
      "Ġelectr": 1784,
      "Ġlegisla": 1785,
      "Ġdese": 1786,
      "crip": 1787,
      "Ġvigor": 1788,
      "Ġmercancias": 1789,
      "Ġgestion": 1790,
      "Ġ97": 1791,
      "Ġsuficiente": 1792,
      "Ġles": 1793,
      "bles": 1794,
      "Ġpriv": 1795,
      "Ġhacer": 1796,
      "Ġ91": 1797,
      "Ġexen": 1798,
      "Ġ54": 1799,
      "vor": 1800,
      "Ġmanifies": 1801,
      "Ġobjetivos": 1802,
      "istencia": 1803,
      "Ġtrato": 1804,
      "tencion": 1805,
      "Ġorganis": 1806,
      "Ġprincipios": 1807,
      "Ġconsiderarse": 1808,
      "Ġconces": 1809,
      "pos": 1810,
      "Ġexclus": 1811,
      "cha": 1812,
      "Ġindepen": 1813,
      "laciones": 1814,
      "Ġunido": 1815,
      "Ġ01": 1816,
      "si": 1817,
      "Ä±": 1818,
      "Ġnota": 1819,
      "Ġcontrario": 1820,
      "Ġtrate": 1821,
      "Ġriesgo": 1822,
      "Ġcontenido": 1823,
      "Ġjuez": 1824,
      "Ġmotivacion": 1825,
      "Ġlado": 1826,
      "ticos": 1827,
      "cidad": 1828,
      "Ġclas": 1829,
      "Ġcodigo": 1830,
      "Ġsab": 1831,
      "Ġnaturale": 1832,
      "Ġnaturaleza": 1833,
      "Ġro": 1834,
      "Ġmon": 1835,
      "Ġpresentado": 1836,
      "Ġpersonal": 1837,
      "21": 1838,
      "ens": 1839,
      "Ġtribu": 1840,
      "Ġ1998": 1841,
      "Ġdespues": 1842,
      "Ġ88": 1843,
      "Ġsres": 1844,
      "Ġrecurrida": 1845,
      "Ġexcepcion": 1846,
      "Ġcompr": 1847,
      "Ġprevisto": 1848,
      "Ġ53": 1849,
      "tructu": 1850,
      "Ġcasos": 1851,
      "Ġ60": 1852,
      "cados": 1853,
      "Ġ56": 1854,
      "tegor": 1855,
      "Ġimpon": 1856,
      "Ġ80": 1857,
      "Ġprestaciones": 1858,
      "Ġinforme": 1859,
      "Ġdeclaracion": 1860,
      "Ġbe": 1861,
      "th": 1862,
      "aron": 1863,
      "Ġsex": 1864,
      "Ġfr": 1865,
      "Ġ81": 1866,
      "cili": 1867,
      "Ġhabida": 1868,
      "Ġcompetente": 1869,
      "lada": 1870,
      "Ġ2018": 1871,
      "vil": 1872,
      "Ġbienes": 1873,
      "Ġsociedades": 1874,
      "Ġ65": 1875,
      "Ġfor": 1876,
      "Ġdicta": 1877,
      "Ġ55": 1878,
      "Ġtienen": 1879,
      "Ġprimero": 1880,
      "Ġindemn": 1881,
      "Ġcategor": 1882,
      "Ġcorresponde": 1883,
      "Ġcuales": 1884,
      "Ġinici": 1885,
      "Ġvio": 1886,
      "ulo": 1887,
      "Ġnivel": 1888,
      "Ġinclus": 1889,
      "ner": 1890,
      "Ġoperaciones": 1891,
      "Ġ99": 1892,
      "Ġdemos": 1893,
      "Ġlux": 1894,
      "Ġvis": 1895,
      "Ġclaus": 1896,
      "Ġreco": 1897,
      "ud": 1898,
      "Ġadecu": 1899,
      "tual": 1900,
      "Ġada": 1901,
      "uso": 1902,
      "Ġerror": 1903,
      "rio": 1904,
      "Ġ59": 1905,
      "ban": 1906,
      "Ġ61": 1907,
      "erse": 1908,
      "Ġimpu": 1909,
      "Ġ52": 1910,
      "Ġversion": 1911,
      "Ġcredi": 1912,
      "bas": 1913,
      "Ġsenalar": 1914,
      "Ġsign": 1915,
      "Ġrecord": 1916,
      "Ġconcesion": 1917,
      "fica": 1918,
      "Ġhu": 1919,
      "Ġconsiderar": 1920,
      "Ġtrabaja": 1921,
      "Ġcompar": 1922,
      "Ġinterpuesto": 1923,
      "01": 1924,
      "Ġdene": 1925,
      "landes": 1926,
      "lados": 1927,
      "Ġproceso": 1928,
      "Ġ86": 1929,
      "Ġcontexto": 1930,
      "cho": 1931,
      "Ġcomprob": 1932,
      "Ġincumplimiento": 1933,
      "tros": 1934,
      "Ġluxemb": 1935,
      "Ġactos": 1936,
      "Ġinci": 1937,
      "Ġejemp": 1938,
      "Ġadap": 1939,
      "Ġduracion": 1940,
      "Ġpreciso": 1941,
      "Ġ000": 1942,
      "Ġopin": 1943,
      "Ġproto": 1944,
      "Ġprovision": 1945,
      "Ġllev": 1946,
      "Ġ73": 1947,
      "Ġdirig": 1948,
      "Ġcirculacion": 1949,
      "Ġfigura": 1950,
      "ores": 1951,
      "Ġadju": 1952,
      "Ġmulta": 1953,
      "Ġtitulo": 1954,
      "Ġdecir": 1955,
      "Ġlab": 1956,
      "Ġaj": 1957,
      "ers": 1958,
      "Ġconcre": 1959,
      "Ġcuya": 1960,
      "Ġexaminar": 1961,
      "Ġindivi": 1962,
      "Ġfeder": 1963,
      "Ġencu": 1964,
      "Ġdebido": 1965,
      "Ġadi": 1966,
      "Ġindividu": 1967,
      "Ġlista": 1968,
      "Ġtrabajador": 1969,
      "urgo": 1970,
      "Ġah": 1971,
      "Ġinvestigacion": 1972,
      "Ġz": 1973,
      "Ġpodran": 1974,
      "Ġpropia": 1975,
      "tribucion": 1976,
      "Ġcomunicacion": 1977,
      "Ġincluso": 1978,
      "Ġmun": 1979,
      "Ġequiv": 1980,
      "Ġdan": 1981,
      "Ġespana": 1982,
      "Ġcambio": 1983,
      "misibilidad": 1984,
      "Ġ58": 1985,
      "Ġfavor": 1986,
      "Ġ1997": 1987,
      "Ġresidencia": 1988,
      "Ġmarcas": 1989,
      "Ġsuspen": 1990,
      "Ġcontribu": 1991,
      "Ġentrada": 1992,
      "Ġaprob": 1993,
      "bi": 1994,
      "Ġcapitu": 1995,
      "imiento": 1996,
      "Ġexclusiv": 1997,
      "Ġpresentadas": 1998,
      "cla": 1999,
      "Ġven": 2000,
      "Ġestablecimiento": 2001,
      "Ġinternacional": 2002,
      "Ġadopcion": 2003,
      "Ġ+": 2004,
      "racion": 2005,
      "Ġge": 2006,
      "Ġcump": 2007,
      "Ġcorrec": 2008,
      "Ġ57": 2009,
      "Ġafirma": 2010,
      "Ġfamili": 2011,
      "Ġapro": 2012,
      "Ġ1996": 2013,
      "áĥ": 2014,
      "Ġacre": 2015,
      "Ġconta": 2016,
      "tio": 2017,
      "tun": 2018,
      "Ġ83": 2019,
      "Ġdeterminadas": 2020,
      "Ġ68": 2021,
      "Ġdeterminados": 2022,
      "Ġquin": 2023,
      "Ġpolitica": 2024,
      "Ġpuedan": 2025,
      "Ġ1995": 2026,
      "Ġapoyo": 2027,
      "Ġdemostr": 2028,
      "Ġconsidero": 2029,
      "Ġrequisito": 2030,
      "Ġregion": 2031,
      "Ġgrupo": 2032,
      "ibles": 2033,
      "Ġdenomin": 2034,
      "Ġ77": 2035,
      "Ġpermite": 2036,
      "Ġcooperacion": 2037,
      "ensa": 2038,
      "ladas": 2039,
      "Ġ75": 2040,
      "Ġconsideracion": 2041,
      "Ġ1994": 2042,
      "Ġcelebra": 2043,
      "Ġintegra": 2044,
      "Ġcumplimiento": 2045,
      "Ġpretensiones": 2046,
      "Ġaplicables": 2047,
      "Ġobli": 2048,
      "Ġinstru": 2049,
      "Ġva": 2050,
      "Ġopinion": 2051,
      "Ġconjunto": 2052,
      "Ġexencion": 2053,
      "Ġesen": 2054,
      "Ġpromo": 2055,
      "yen": 2056,
      "Ġfir": 2057,
      "Ġnecesaria": 2058,
      "iza": 2059,
      "Ġcomercio": 2060,
      "Ġali": 2061,
      "Ġfondo": 2062,
      "Ġdia": 2063,
      "Ġaplicar": 2064,
      "Ġsupra": 2065,
      "Ġbr": 2066,
      "Ġvincu": 2067,
      "rido": 2068,
      "Ġanteriores": 2069,
      "orta": 2070,
      "Ġargu": 2071,
      "rar": 2072,
      "Ġadministrativo": 2073,
      "Ġobtener": 2074,
      "Ġlegiti": 2075,
      "Ġproyecto": 2076,
      "Ġgenerales": 2077,
      "Ġequival": 2078,
      "Ġrazones": 2079,
      "Ġmaxi": 2080,
      "Ġpuntos": 2081,
      "Ġnecesarias": 2082,
      "uel": 2083,
      "Ġextra": 2084,
      "cripcion": 2085,
      "Ġdesign": 2086,
      "Ġ79": 2087,
      "ulos": 2088,
      "Ġcapitulo": 2089,
      "Ġcompa": 2090,
      "Ġtitular": 2091,
      "Ġfuera": 2092,
      "Ġpresentar": 2093,
      "Ġasoci": 2094,
      "gica": 2095,
      "Ġtercera": 2096,
      "Ġmeses": 2097,
      "Ġcapa": 2098,
      "Ġprotoco": 2099,
      "Ġvul": 2100,
      "Ġluz": 2101,
      "unci": 2102,
      "Ġimportacion": 2103,
      "Ġterminos": 2104,
      "Ġcitado": 2105,
      "Ġtemp": 2106,
      "Ġsaber": 2107,
      "Ġsupuesto": 2108,
      "Ġparticipacion": 2109,
      "Ġ03": 2110,
      "Ġeee": 2111,
      "Ġcondicion": 2112,
      "Ġencuen": 2113,
      "it": 2114,
      "Ġcantidad": 2115,
      "Ġprotocolo": 2116,
      "Ġacuerdos": 2117,
      "Ġ76": 2118,
      "Ġconsideraciones": 2119,
      "Ġella": 2120,
      "Ġconoci": 2121,
      "Ġdiferencia": 2122,
      "Ġinstitucion": 2123,
      "Ġbasado": 2124,
      "Ġfacili": 2125,
      "Ġ63": 2126,
      "Ġeuros": 2127,
      "Ġdocumento": 2128,
      "Ġfacultad": 2129,
      "Ġabs": 2130,
      "Ġsalud": 2131,
      "Ġnuevo": 2132,
      "Ġ64": 2133,
      "Ġ78": 2134,
      "Ġ70": 2135,
      "irse": 2136,
      "Ġhe": 2137,
      "Ġpag": 2138,
      "isis": 2139,
      "Ġ1993": 2140,
      "tidos": 2141,
      "Ġenten": 2142,
      "Ġcivil": 2143,
      "Ġestablecer": 2144,
      "Ġhubiera": 2145,
      "Ġproporcion": 2146,
      "Ġcarta": 2147,
      "Ġconfir": 2148,
      "Ġ69": 2149,
      "Ġindemnizacion": 2150,
      "Ġejemplo": 2151,
      "Ġprofesional": 2152,
      "lon": 2153,
      "Ġprincipales": 2154,
      "mentacion": 2155,
      "Ġdiferentes": 2156,
      "Ġobliga": 2157,
      "Ġsimi": 2158,
      "Ġevaluacion": 2159,
      "vas": 2160,
      "Ġrecono": 2161,
      "Ġvan": 2162,
      "Ġadmi": 2163,
      "Ġinterior": 2164,
      "cciones": 2165,
      "tel": 2166,
      "Ġposicion": 2167,
      "ke": 2168,
      "Ġcorrespondiente": 2169,
      "Ġentidad": 2170,
      "Ġacer": 2171,
      "Ġcondene": 2172,
      "Ġinad": 2173,
      "Ġeconomico": 2174,
      "Ġinfer": 2175,
      "Ġmaterias": 2176,
      "Ġcuo": 2177,
      "Ġrecu": 2178,
      "be": 2179,
      "eras": 2180,
      "Ġanalisis": 2181,
      "Ġluxemburgo": 2182,
      "Ġpruebas": 2183,
      "Ġexiste": 2184,
      "Ġexplo": 2185,
      "Ġtermino": 2186,
      "usion": 2187,
      "Ġrelativos": 2188,
      "Ġcabo": 2189,
      "Ġ62": 2190,
      "Ġinstituciones": 2191,
      "Ġalcance": 2192,
      "Ġiii": 2193,
      "iales": 2194,
      "Ġutilizacion": 2195,
      "Ġpodia": 2196,
      "Ġalegacion": 2197,
      "isticas": 2198,
      "Ġterceros": 2199,
      "Ġigualdad": 2200,
      "Ġentidades": 2201,
      "Ġpregun": 2202,
      "Ġ72": 2203,
      "didas": 2204,
      "mado": 2205,
      "Ġincumb": 2206,
      "Ġ2019": 2207,
      "Ġaplica": 2208,
      "Ġoa": 2209,
      "mpo": 2210,
      "osto": 2211,
      "Ġarmon": 2212,
      "Ġprevia": 2213,
      "Ġ1992": 2214,
      "Ġconclu": 2215,
      "Ġpodria": 2216,
      "Ġis": 2217,
      "Ġequi": 2218,
      "Ġand": 2219,
      "Ġpresta": 2220,
      "Ġmeto": 2221,
      "Ġzon": 2222,
      "Ġdar": 2223,
      "Ġfunciones": 2224,
      "Ġquien": 2225,
      "Ġpreve": 2226,
      "Ġagente": 2227,
      "Ġsostiene": 2228,
      "Ġorganizacion": 2229,
      "dora": 2230,
      "len": 2231,
      "Ġauton": 2232,
      "Ġ100": 2233,
      "Ġcabe": 2234,
      "Ġtele": 2235,
      "Ġestablecidos": 2236,
      "Ġdiscriminacion": 2237,
      "Ġhace": 2238,
      "Ġdias": 2239,
      "tidas": 2240,
      "Ġ67": 2241,
      "Ġcriterio": 2242,
      "Ġprecisa": 2243,
      "Ġvolu": 2244,
      "Ġ82": 2245,
      "Ġinterno": 2246,
      "Ġrepar": 2247,
      "Ġoposicion": 2248,
      "Ġpresu": 2249,
      "Ġvol": 2250,
      "Ġacep": 2251,
      "Ġintro": 2252,
      "tarias": 2253,
      "Ġlibertad": 2254,
      "Ġultima": 2255,
      "Ġho": 2256,
      "Ġsexta": 2257,
      "Ġvia": 2258,
      "fer": 2259,
      "Ġparcial": 2260,
      "mer": 2261,
      "ance": 2262,
      "che": 2263,
      "Ġambien": 2264,
      "Ġadqui": 2265,
      "iter": 2266,
      "ka": 2267,
      "Ġagosto": 2268,
      "Ġorganos": 2269,
      "Ġ02": 2270,
      "Ġprejudiciales": 2271,
      "mun": 2272,
      "bilidad": 2273,
      "Ġplanteada": 2274,
      "Ġasegu": 2275,
      "Ġrecordar": 2276,
      "Ġprevista": 2277,
      "ordin": 2278,
      "Ġjuicio": 2279,
      "Ġrecla": 2280,
      "Ġaudi": 2281,
      "Ġrepro": 2282,
      "Ġproces": 2283,
      "Ġaustria": 2284,
      "Ġtercero": 2285,
      "Ġ66": 2286,
      "Ġmedica": 2287,
      "Ġprohibicion": 2288,
      "Ġmode": 2289,
      "idez": 2290,
      "Ġabon": 2291,
      "Ġvolumen": 2292,
      "Ġmien": 2293,
      "Ġproductores": 2294,
      "Ġrepresentantes": 2295,
      "Ġidentific": 2296,
      "Ġpublicos": 2297,
      "Ġelab": 2298,
      "Ġesto": 2299,
      "Ġacum": 2300,
      "cado": 2301,
      "Ġoami": 2302,
      "Ġcono": 2303,
      "Ġatribu": 2304,
      "Ġvehiculos": 2305,
      "tarios": 2306,
      "omis": 2307,
      "Ġitalia": 2308,
      "ler": 2309,
      "camb": 2310,
      "Ġpartida": 2311,
      "Ġpropiedad": 2312,
      "Ġsignific": 2313,
      "Ġhuman": 2314,
      "Ġcomporta": 2315,
      "Ġsuminis": 2316,
      "Ġmodificacion": 2317,
      "Ġsustitu": 2318,
      "Ġfase": 2319,
      "Ġreiter": 2320,
      "Ġ196": 2321,
      "Ġx": 2322,
      "Ġsecretaria": 2323,
      "Ġalguna": 2324,
      "Ġlici": 2325,
      "Ġensa": 2326,
      "Ġcompati": 2327,
      "Ġestar": 2328,
      "Ġdev": 2329,
      "dra": 2330,
      "Ġfederal": 2331,
      "ieren": 2332,
      "Ġahora": 2333,
      "Ġmil": 2334,
      "Ġprece": 2335,
      "oma": 2336,
      "Ġsch": 2337,
      "Ġprevistas": 2338,
      "Ġet": 2339,
      "Ġoficina": 2340,
      "Ġsenala": 2341,
      "Ġconcur": 2342,
      "Ġpropias": 2343,
      "08": 2344,
      "cales": 2345,
      "Ġrequer": 2346,
      "Ġtes": 2347,
      "Ġfallo": 2348,
      "tral": 2349,
      "Ġelabor": 2350,
      "Ġnueva": 2351,
      "Ġunico": 2352,
      "Ġefectivamente": 2353,
      "Ġcalculo": 2354,
      "Ġvehiculo": 2355,
      "puestos": 2356,
      "ita": 2357,
      "Ġnu": 2358,
      "ira": 2359,
      "ment": 2360,
      "jas": 2361,
      "Ġreduccion": 2362,
      "Ġdon": 2363,
      "Ġfuncionarios": 2364,
      "Ġdefensa": 2365,
      "Ġtraves": 2366,
      "Ġportu": 2367,
      "Ġinteg": 2368,
      "Ġofer": 2369,
      "Ġperman": 2370,
      "Ġfinalidad": 2371,
      "Ġagric": 2372,
      "Ġ04": 2373,
      "Ġileg": 2374,
      "Ġdirectamente": 2375,
      "Ġpracticas": 2376,
      "Ġresidu": 2377,
      "Ġbajos": 2378,
      "Ġclara": 2379,
      "Ġae": 2380,
      "ular": 2381,
      "Ġmientras": 2382,
      "Ġcorrespondientes": 2383,
      "izar": 2384,
      "Ġhabian": 2385,
      "Ġintercamb": 2386,
      "Ġfuncionamiento": 2387,
      "Ġacredi": 2388,
      "Ġlic": 2389,
      "Ġdeclaro": 2390,
      "Ġcomercializacion": 2391,
      "Ġindica": 2392,
      "Ġdeberan": 2393,
      "erlandes": 2394,
      "Ġempleo": 2395,
      "Ġresponder": 2396,
      "puestas": 2397,
      "Ġesos": 2398,
      "Ġacog": 2399,
      "Ġhor": 2400,
      "Ġemision": 2401,
      "Ġocas": 2402,
      "idamente": 2403,
      "Ġbajo": 2404,
      "Ġestaba": 2405,
      "Ġmodificada": 2406,
      "Ġdem": 2407,
      "talidad": 2408,
      "icia": 2409,
      "Ġ&": 2410,
      "Ġexportacion": 2411,
      "Ġ_": 2412,
      "Ġ74": 2413,
      "Ġirre": 2414,
      "Ġteniendo": 2415,
      "Ġcli": 2416,
      "Ġincom": 2417,
      "Ġcomb": 2418,
      "Ġporque": 2419,
      "Ġener": 2420,
      "Ġincor": 2421,
      "Ġcompetentes": 2422,
      "Ġdictamen": 2423,
      "ck": 2424,
      "Ġinstal": 2425,
      "Ġjueces": 2426,
      "Ġsubsi": 2427,
      "Ġlec": 2428,
      "Ġincur": 2429,
      "Ġgrave": 2430,
      "Ġseguro": 2431,
      "Ġdeduce": 2432,
      "Ġdireccion": 2433,
      "mpoco": 2434,
      "Ġtampoco": 2435,
      "Ġanule": 2436,
      "Ġacciones": 2437,
      "Ġcapital": 2438,
      "Ġnecesidad": 2439,
      "Ġtotalidad": 2440,
      "tiz": 2441,
      "tane": 2442,
      "Ġinferior": 2443,
      "Ġextran": 2444,
      "Ġpercib": 2445,
      "Ġdirecta": 2446,
      "Ġparece": 2447,
      "Ġresol": 2448,
      "zca": 2449,
      "Ġcome": 2450,
      "Ġcur": 2451,
      "Ġcierto": 2452,
      "Ġingres": 2453,
      "erva": 2454,
      "Ġlan": 2455,
      "Ġbelgica": 2456,
      "Ġpenal": 2457,
      "Ġasociacion": 2458,
      "Ġopera": 2459,
      "lin": 2460,
      "eno": 2461,
      "Ġcuanti": 2462,
      "Ġpresentacion": 2463,
      "Ġexce": 2464,
      "Ġinterna": 2465,
      "gas": 2466,
      "cionalidad": 2467,
      "Ġceleb": 2468,
      "Ġfabricacion": 2469,
      "Ġfer": 2470,
      "gerich": 2471,
      "Ġ05": 2472,
      "Ġdiver": 2473,
      "Ġselec": 2474,
      "didos": 2475,
      "Ġdesestimar": 2476,
      "zos": 2477,
      "Ġvo": 2478,
      "Ġefica": 2479,
      "Ġsujeto": 2480,
      "Ġfundamentales": 2481,
      "Ġgrado": 2482,
      "Ġclausula": 2483,
      "Ġcin": 2484,
      "Ġcompens": 2485,
      "Ġexige": 2486,
      "Ġadjudic": 2487,
      "Ġur": 2488,
      "Ġaten": 2489,
      "Ġoperacion": 2490,
      "Ġfrancia": 2491,
      "Ġ07": 2492,
      "Ġpension": 2493,
      "gues": 2494,
      "Ġesas": 2495,
      "Ġestablecidas": 2496,
      "ctores": 2497,
      "Ġpropuesta": 2498,
      "Ġtenga": 2499,
      "Ġanim": 2500,
      "Ġcargo": 2501,
      "aban": 2502,
      "Ġsancion": 2503,
      "Ġreda": 2504,
      "Ġconsumidor": 2505,
      "don": 2506,
      "Ġconsta": 2507,
      "Ġneerlandes": 2508,
      "Ġfrente": 2509,
      "Ġellos": 2510,
      "Ġadoptado": 2511,
      "Ġcontinu": 2512,
      "ques": 2513,
      "Ġvulner": 2514,
      "Ġmercados": 2515,
      "Ġbar": 2516,
      "Ġseccion": 2517,
      "Ġpal": 2518,
      "rian": 2519,
      "iva": 2520,
      "Ġpropio": 2521,
      "istas": 2522,
      "Ġtratamiento": 2523,
      "dado": 2524,
      "Ġviolacion": 2525,
      "Ġcua": 2526,
      "Ġtexto": 2527,
      "Ġpudi": 2528,
      "Ġcontinuacion": 2529,
      "Ġsecretario": 2530,
      "Ġesencial": 2531,
      "sen": 2532,
      "ĠâĢĻ": 2533,
      "Ġmej": 2534,
      "ring": 2535,
      "Ġdeu": 2536,
      "Ġmedios": 2537,
      "Ġsuf": 2538,
      "Ġcuarto": 2539,
      "Ġru": 2540,
      "Ġespecialmente": 2541,
      "000": 2542,
      "Ġgarantia": 2543,
      "lie": 2544,
      "Ġaspec": 2545,
      "Ġcomerciales": 2546,
      "Ġ1991": 2547,
      "anol": 2548,
      "Ġdepen": 2549,
      "tara": 2550,
      "Ġadh": 2551,
      "andose": 2552,
      "Ġcostes": 2553,
      "Ġaz": 2554,
      "Ġimpuestos": 2555,
      "ultas": 2556,
      "Ġcredito": 2557,
      "zado": 2558,
      "Ġcompromis": 2559,
      "Ġespanol": 2560,
      "nos": 2561,
      "Ġbis": 2562,
      "ducido": 2563,
      "Ġintervencion": 2564,
      "ung": 2565,
      "Ġnotificacion": 2566,
      "Ġcalcu": 2567,
      "Ġelemento": 2568,
      "Ġresultado": 2569,
      "quiera": 2570,
      "Ġnega": 2571,
      "Ġcaracteristicas": 2572,
      "Ġsue": 2573,
      "Ġcontraria": 2574,
      "Ġdeclarar": 2575,
      "Ġexpresamente": 2576,
      "Ġcalific": 2577,
      "Ġconsiderado": 2578,
      "Ġ08": 2579,
      "vos": 2580,
      "Ġmuy": 2581,
      "fe": 2582,
      "Ġcul": 2583,
      "Ġasistencia": 2584,
      "Ġambiente": 2585,
      "guas": 2586,
      "Ġprograma": 2587,
      "Ġcompra": 2588,
      "rea": 2589,
      "Ġfra": 2590,
      "Ġmec": 2591,
      "Ġotor": 2592,
      "Ġdefin": 2593,
      "Ġpertinentes": 2594,
      "Ġlegal": 2595,
      "pu": 2596,
      "Ġindustr": 2597,
      "Ġestablecen": 2598,
      "Ġreiterada": 2599,
      "Ġdetal": 2600,
      "Ġcarga": 2601,
      "Ġtas": 2602,
      "vin": 2603,
      "Ġdeba": 2604,
      "Ġadqu": 2605,
      "Ġ09": 2606,
      "quen": 2607,
      "ieran": 2608,
      "Ġfuer": 2609,
      "Ġ1990": 2610,
      "Ġcomportamiento": 2611,
      "Ġtransform": 2612,
      "Ġdistintos": 2613,
      "Ġejercer": 2614,
      "Ġconfi": 2615,
      "Ġreconocimiento": 2616,
      "Ġciuda": 2617,
      "fi": 2618,
      "Ġprob": 2619,
      "Ġfueron": 2620,
      "mple": 2621,
      "Ġ104": 2622,
      "Ġcantidades": 2623,
      "media": 2624,
      "Ġelectron": 2625,
      "Ġevitar": 2626,
      "Ġlimite": 2627,
      "Ġ06": 2628,
      "Ġcumplir": 2629,
      "torios": 2630,
      "Ġinteresado": 2631,
      "Ġconserv": 2632,
      "Ġopone": 2633,
      "Ġconsumidores": 2634,
      "Ġtar": 2635,
      "Ġmaterial": 2636,
      "cimiento": 2637,
      "Ġpol": 2638,
      "ko": 2639,
      "Ġeven": 2640,
      "erente": 2641,
      "Ġproble": 2642,
      "lev": 2643,
      "Ġbrus": 2644,
      "Ġbasa": 2645,
      "Ġminimo": 2646,
      "Ġarance": 2647,
      "Ġhabria": 2648,
      "Ġon": 2649,
      "Ġconduc": 2650,
      "Ġmodifica": 2651,
      "Ġdefinicion": 2652,
      "Ġseran": 2653,
      "Ġmismas": 2654,
      "Ġestablecida": 2655,
      "Ġdeterminado": 2656,
      "tador": 2657,
      "Ġconcreto": 2658,
      "Ġasign": 2659,
      "Ġfondos": 2660,
      "Ġja": 2661,
      "Ġitaliana": 2662,
      "Ġpub": 2663,
      "Ġestructu": 2664,
      "ice": 2665,
      "tando": 2666,
      "Ġcausa": 2667,
      "Ġrealizar": 2668,
      "Ġreglamen": 2669,
      "Ġmargen": 2670,
      "Ġvar": 2671,
      "poner": 2672,
      "Ġmismos": 2673,
      "Ġ>": 2674,
      "lidad": 2675,
      "Ġsolu": 2676,
      "Ġuniv": 2677,
      "Ġ2020": 2678,
      "Ġdeclara": 2679,
      "Ġremision": 2680,
      "dicion": 2681,
      "Ġarmonizacion": 2682,
      "zas": 2683,
      "Ġapreciar": 2684,
      "Ġpertinente": 2685,
      "elas": 2686,
      "Ġcolec": 2687,
      "Ġitaliano": 2688,
      "Ġsubsidi": 2689,
      "Ġmecan": 2690,
      "Ġlegislador": 2691,
      "Ġmetodo": 2692,
      "Ġreca": 2693,
      "Ġliqu": 2694,
      "Ġcapacidad": 2695,
      "Ġimportaciones": 2696,
      "Ġom": 2697,
      "Ġinspec": 2698,
      "Ġrepresentada": 2699,
      "Ġdeterminada": 2700,
      "Ġsopor": 2701,
      "Ġcomunitarias": 2702,
      "Ġigualmente": 2703,
      "mping": 2704,
      "Ġexplotacion": 2705,
      "Ġfrancesa": 2706,
      "izo": 2707,
      "Ġreemb": 2708,
      "Ġsignifica": 2709,
      "Ġcategoria": 2710,
      "mina": 2711,
      "Ġreembol": 2712,
      "Ġdecla": 2713,
      "Ġadoptada": 2714,
      "Ġsubra": 2715,
      "Ġintegrado": 2716,
      "03": 2717,
      "Ġseria": 2718,
      "Ġpermis": 2719,
      "Ġsalvo": 2720,
      "Ġexpuesto": 2721,
      "jes": 2722,
      "recer": 2723,
      "ds": 2724,
      "Ġoperadores": 2725,
      "ĠÂ°": 2726,
      "Ġresolu": 2727,
      "tera": 2728,
      "Ġdeterminacion": 2729,
      "Ġadministrativa": 2730,
      "Ġsiendo": 2731,
      "Ġrepresentante": 2732,
      "Ġestudi": 2733,
      "Ġlegales": 2734,
      "Ġpronunci": 2735,
      "Ġresiduos": 2736,
      "Ġfamilia": 2737,
      "Ġiv": 2738,
      "Ġcuarta": 2739,
      "Ġorganismo": 2740,
      "Ġefectiva": 2741,
      "Ġimportancia": 2742,
      "Ġdeclare": 2743,
      "com": 2744,
      "enda": 2745,
      "Ġformacion": 2746,
      "Ġprecis": 2747,
      "icip": 2748,
      "Ġfo": 2749,
      "Ġmanifiesto": 2750,
      "tt": 2751,
      "pati": 2752,
      "Ġfines": 2753,
      "Ġfundamental": 2754,
      "izado": 2755,
      "rir": 2756,
      "ys": 2757,
      "Ġresolver": 2758,
      "portun": 2759,
      "Ġrelaciones": 2760,
      "Ġorganismos": 2761,
      "Ġvarios": 2762,
      "Ġajus": 2763,
      "Ġmenor": 2764,
      "Ġpermitir": 2765,
      "trices": 2766,
      "Ġerrone": 2767,
      "Ġadministrativas": 2768,
      "Ġsustan": 2769,
      "Ġdirectivas": 2770,
      "Ġconstituyen": 2771,
      "Ġemi": 2772,
      "Ġinmedia": 2773,
      "Ġmunicip": 2774,
      "mbh": 2775,
      "Ġconsiderandos": 2776,
      "Ġtex": 2777,
      "Ġabogados": 2778,
      "Ġsta": 2779,
      "Ġexclusivamente": 2780,
      "marse": 2781,
      "Ġadquis": 2782,
      "Ġacumula": 2783,
      "Ġcontiene": 2784,
      "Ġdestina": 2785,
      "Ġdemostrar": 2786,
      "lob": 2787,
      "Ġ1989": 2788,
      "Ġinfring": 2789,
      "Ġoportun": 2790,
      "ard": 2791,
      "Ġdebia": 2792,
      "igna": 2793,
      "Ġunivers": 2794,
      "gericht": 2795,
      "Ġcircunstancia": 2796,
      "Ġnegocios": 2797,
      "Ġregistr": 2798,
      "Ġparticulares": 2799,
      "Ġcertificado": 2800,
      "ancia": 2801,
      "Ġgmbh": 2802,
      "gular": 2803,
      "Ġline": 2804,
      "Ġocasion": 2805,
      "Ġconsecuencias": 2806,
      "recia": 2807,
      "Ġproteg": 2808,
      "Ġcompan": 2809,
      "Ġlimites": 2810,
      "ismo": 2811,
      "landa": 2812,
      "Ġdie": 2813,
      "Ġfinanciera": 2814,
      "Ġministerio": 2815,
      "Ġespeciales": 2816,
      "Ġenerg": 2817,
      "Ġaduanero": 2818,
      "Ġrazonable": 2819,
      "Ġequivalente": 2820,
      "Ġdeberia": 2821,
      "Ġ1988": 2822,
      "ulas": 2823,
      "Ġtenia": 2824,
      "Ġnor": 2825,
      "Ġsimilares": 2826,
      "ese": 2827,
      "Ġopon": 2828,
      "Ġpresentada": 2829,
      "Ġjurisdiccionales": 2830,
      "Ġdeclarado": 2831,
      "Ġirlanda": 2832,
      "Ġposteriormente": 2833,
      "07": 2834,
      "Ġresoluciones": 2835,
      "Ġagr": 2836,
      "Ġindirec": 2837,
      "Ġregula": 2838,
      "Ġpesca": 2839,
      "tira": 2840,
      "Ġhomo": 2841,
      "ipo": 2842,
      "Ġincompati": 2843,
      "Ġellas": 2844,
      "Ġactualmente": 2845,
      "rentes": 2846,
      "Ġjuridicas": 2847,
      "Ġcontrovertido": 2848,
      "Ġsujetos": 2849,
      "Ġensayo": 2850,
      "voca": 2851,
      "Ġmaximo": 2852,
      "tia": 2853,
      "Ġdistribucion": 2854,
      "pel": 2855,
      "Ġreglamentos": 2856,
      "Ġdomin": 2857,
      "Ġeran": 2858,
      "Ġsolicitudes": 2859,
      "Ġlaboral": 2860,
      "Ġvalidez": 2861,
      "ador": 2862,
      "Ġalguno": 2863,
      "Ġprove": 2864,
      "Ġconstru": 2865,
      "Ġimportante": 2866,
      "unta": 2867,
      "Ġmues": 2868,
      "Ġconcen": 2869,
      "cto": 2870,
      "Ġinadmisibilidad": 2871,
      "Ġsenalado": 2872,
      "Ġesten": 2873,
      "Ġ207": 2874,
      "gn": 2875,
      "Ġimplica": 2876,
      "Ġpregunta": 2877,
      "Ġcandida": 2878,
      "Ġliquida": 2879,
      "eca": 2880,
      "Ġingresos": 2881,
      "Ġbruselas": 2882,
      "ĠartÄ±": 2883,
      "Ġproporcionalidad": 2884,
      "Ġcuatro": 2885,
      "Ġglob": 2886,
      "Ġexper": 2887,
      "Ġdonde": 2888,
      "Ġfili": 2889,
      "Ġprevistos": 2890,
      "Ġincluidos": 2891,
      "land": 2892,
      "Ġenfer": 2893,
      "ron": 2894,
      "Ġpublicas": 2895,
      "Ġadoptadas": 2896,
      "derse": 2897,
      "02": 2898,
      "Ġhel": 2899,
      "Ġsituaciones": 2900,
      "ogra": 2901,
      "gada": 2902,
      "11": 2903,
      "Ġmoda": 2904,
      "tadores": 2905,
      "Ġinterp": 2906,
      "Ġobsta": 2907,
      "Ġbanco": 2908,
      "Ġmal": 2909,
      "Ġusu": 2910,
      "Ġmencionados": 2911,
      "inas": 2912,
      "Ġcinco": 2913,
      "Ġclar": 2914,
      "Ġoferta": 2915,
      "Ġperten": 2916,
      "tades": 2917,
      "ieron": 2918,
      "Ġconsis": 2919,
      "Ġcarre": 2920,
      "jero": 2921,
      "Ġadhesion": 2922,
      "Ġprovisional": 2923,
      "Ġconstitucion": 2924,
      "Ġam": 2925,
      "Ġcoordin": 2926,
      "Ġfinanciacion": 2927,
      "imon": 2928,
      "Ġlar": 2929,
      "Ġtengan": 2930,
      "Ġventas": 2931,
      "Ġcomplemen": 2932,
      "Ġingles": 2933,
      "Ġhal": 2934,
      "Ġtomar": 2935,
      "Ġmedic": 2936,
      "Ġcompetencias": 2937,
      "Ġred": 2938,
      "Ġconsumo": 2939,
      "Ġrealizacion": 2940,
      "04": 2941,
      "Ġvarias": 2942,
      "Ġanteriormente": 2943,
      "Ġsuficientemente": 2944,
      "Ġinex": 2945,
      "Ġsolicitante": 2946,
      "ls": 2947,
      "Ġdescri": 2948,
      "Ġindependencia": 2949,
      "Ġconocimiento": 2950,
      "Ġdesigna": 2951,
      "Ġocu": 2952,
      "Ġeli": 2953,
      "Ġacerca": 2954,
      "Ġcorre": 2955,
      "Ġformal": 2956,
      "Ġregular": 2957,
      "Ġincorpor": 2958,
      "arma": 2959,
      "Ġsistemas": 2960,
      "Ġpresento": 2961,
      "ivos": 2962,
      "Ġeuipo": 2963,
      "Ġbasada": 2964,
      "Ġmultas": 2965,
      "Ġabus": 2966,
      "Ġobras": 2967,
      "torias": 2968,
      "Ġdiscu": 2969,
      "Ġmencionado": 2970,
      "Ġentrega": 2971,
      "ag": 2972,
      "Ġpasivo": 2973,
      "cin": 2974,
      "Ġ101": 2975,
      "Ġbun": 2976,
      "Ġamp": 2977,
      "trimon": 2978,
      "Ġlegalidad": 2979,
      "Ġtransmision": 2980,
      "Ġpublici": 2981,
      "tividad": 2982,
      "Ġdirectrices": 2983,
      "estructu": 2984,
      "Ġhabi": 2985,
      "tional": 2986,
      "Ġexigencias": 2987,
      "Ġ107": 2988,
      "Ġcontractu": 2989,
      "fru": 2990,
      "dian": 2991,
      "Ġazu": 2992,
      "Ġclaramente": 2993,
      "Ġrecog": 2994,
      "Ġprodu": 2995,
      "99": 2996,
      "Ġdenegacion": 2997,
      "Ġcentro": 2998,
      "Ġactual": 2999,
      "Ġtenido": 3000,
      "Ġprogramas": 3001,
      "Ġponente": 3002,
      "Ġresponsable": 3003,
      "Ġatane": 3004,
      "Ġsur": 3005,
      "pan": 3006,
      "Ġinversion": 3007,
      "Ġadjudicacion": 3008,
      "Ġindependiente": 3009,
      "Ġpermiso": 3010,
      "Ġrespeto": 3011,
      "reas": 3012,
      "Ġtipos": 3013,
      "Ġpresentes": 3014,
      "Ġafecta": 3015,
      "Ġesencia": 3016,
      "Ġadmisibilidad": 3017,
      "Ġescritos": 3018,
      "Ġpose": 3019,
      "Ġexpediente": 3020,
      "05": 3021,
      "Ġalgunos": 3022,
      "Ġincre": 3023,
      "Ġtrami": 3024,
      "Ġfundamento": 3025,
      "Ġmejor": 3026,
      "Ġvida": 3027,
      "Ġproyectos": 3028,
      "Ġlegitima": 3029,
      "Ġsolucion": 3030,
      "dose": 3031,
      "Ġrev": 3032,
      "Ġsolicitar": 3033,
      "Ġindividual": 3034,
      "Ġelev": 3035,
      "yos": 3036,
      "Ġreunion": 3037,
      "Ġcuotas": 3038,
      "Ġnormal": 3039,
      "gi": 3040,
      "Ġdero": 3041,
      "Ġinicia": 3042,
      "Ġdevolucion": 3043,
      "Ġtuvo": 3044,
      "Ġjuridicos": 3045,
      "tienen": 3046,
      "Ġpersegu": 3047,
      "Ġkg": 3048,
      "Ġexten": 3049,
      "Ġsola": 3050,
      "Ġcoad": 3051,
      "ft": 3052,
      "Ġexplic": 3053,
      "vio": 3054,
      "Ġcoadyu": 3055,
      "Ġindustria": 3056,
      "Ġanimales": 3057,
      "Ġadquisicion": 3058,
      "minar": 3059,
      "Ġzona": 3060,
      "Ġmillon": 3061,
      "Ġrealidad": 3062,
      "Ġperiodos": 3063,
      "Ġsatis": 3064,
      "xim": 3065,
      "Ġmencionada": 3066,
      "mir": 3067,
      "Ġdeducir": 3068,
      "jeros": 3069,
      "Ġcoadyuv": 3070,
      "Ġcomprobar": 3071,
      "Ġenferme": 3072,
      "Ġadicional": 3073,
      "lla": 3074,
      "Ġcompensacion": 3075,
      "Ġdanos": 3076,
      "anza": 3077,
      "Ġabsolu": 3078,
      "Ġdefinitiva": 3079,
      "Ġprocedentes": 3080,
      "Ġfactu": 3081,
      "Ġdistintas": 3082,
      "Ġbundes": 3083,
      "Ġimpugnado": 3084,
      "Ġaplicarse": 3085,
      "Ġanalog": 3086,
      "Ġincumplido": 3087,
      "mada": 3088,
      "Ġqueda": 3089,
      "Ġletras": 3090,
      "Ġimpone": 3091,
      "Ġclasificacion": 3092,
      "mann": 3093,
      "Ġinfracciones": 3094,
      "omb": 3095,
      "Ġincumben": 3096,
      "Ġeconomicos": 3097,
      "Ġencar": 3098,
      "Ġespecifica": 3099,
      "Ġjustificar": 3100,
      "Ġtari": 3101,
      "Ġmantenimiento": 3102,
      "fico": 3103,
      "Ġdeposi": 3104,
      "Ġcalificacion": 3105,
      "Ġpretende": 3106,
      "ĠÐ": 3107,
      "Ġcondenar": 3108,
      "Ġdibu": 3109,
      "Ġirregular": 3110,
      "Ġsustancias": 3111,
      "Ġarch": 3112,
      "Ġimposicion": 3113,
      "ire": 3114,
      "Ġnuevos": 3115,
      "eran": 3116,
      "Ġalter": 3117,
      "Ġfrase": 3118,
      "Ġnacionalidad": 3119,
      "Ġexcepto": 3120,
      "Ġ1986": 3121,
      "Ġrespectivamente": 3122,
      "Ġprovee": 3123,
      "Ġaudiencia": 3124,
      "Ġseleccion": 3125,
      "au": 3126,
      "Ġpagar": 3127,
      "gs": 3128,
      "Ġbasta": 3129,
      "Ġdictada": 3130,
      "Ġverific": 3131,
      "Ġfuncionario": 3132,
      "onia": 3133,
      "Ġace": 3134,
      "Ġvolun": 3135,
      "Ġ112": 3136,
      "Ġenum": 3137,
      "Ġpropios": 3138,
      "Ġexcepciones": 3139,
      "Ġfiguran": 3140,
      "Ġaquellos": 3141,
      "Ġsupre": 3142,
      "Ġmillones": 3143,
      "Ġexclusion": 3144,
      "Ġtur": 3145,
      "Ġdisfru": 3146,
      "Ġportugues": 3147,
      "dencial": 3148,
      "Ġinvocar": 3149,
      "Ġdific": 3150,
      "Ġresultados": 3151,
      "Ġinflu": 3152,
      "Ġaduana": 3153,
      "oria": 3154,
      "bo": 3155,
      "lidades": 3156,
      "Ġ1987": 3157,
      "Ġ1985": 3158,
      "Ġdej": 3159,
      "Ġdeclaraciones": 3160,
      "rica": 3161,
      "Ġrestricciones": 3162,
      "Ġenergia": 3163,
      "Ġlt": 3164,
      "aro": 3165,
      "Ġrefieren": 3166,
      "Ġespecificas": 3167,
      "Ġreembolso": 3168,
      "Ġsupon": 3169,
      "Ġvalores": 3170,
      "Ġprofesionales": 3171,
      "Ġincluidas": 3172,
      "ercu": 3173,
      "Ġaspectos": 3174,
      "Ġsolicitado": 3175,
      "Ġcategorias": 3176,
      "gue": 3177,
      "Ġarbi": 3178,
      "Ġanadido": 3179,
      "dis": 3180,
      "Ġjuz": 3181,
      "Ġimplic": 3182,
      "Ġalcanzar": 3183,
      "resion": 3184,
      "Ġempresario": 3185,
      "via": 3186,
      "ianza": 3187,
      "Ġpodido": 3188,
      "Ġtemporal": 3189,
      "Ġcop": 3190,
      "Ġespa": 3191,
      "ĠartÄ±culo": 3192,
      "Ġadaptacion": 3193,
      "Ġedad": 3194,
      "Ġbeneficio": 3195,
      "rup": 3196,
      "Ġcour": 3197,
      "Ġsepar": 3198,
      "Ġprevio": 3199,
      "dro": 3200,
      "ral": 3201,
      "Ġcontroles": 3202,
      "Ġquinta": 3203,
      "Ġsociales": 3204,
      "gara": 3205,
      "Ġoc": 3206,
      "Ġber": 3207,
      "Ġalimen": 3208,
      "Ġponer": 3209,
      "Ġobligado": 3210,
      "Ġagricul": 3211,
      "Ġpronunciarse": 3212,
      "Ġlegislaciones": 3213,
      "Ġbasandose": 3214,
      "Ġsupe": 3215,
      "Ġlimita": 3216,
      "Ġadecuada": 3217,
      "Ġsanciones": 3218,
      "Ġliquidacion": 3219,
      "Ġefectivo": 3220,
      "Ġestima": 3221,
      "table": 3222,
      "Ġconfianza": 3223,
      "Ġpasa": 3224,
      "Ġrestriccion": 3225,
      "Ġnecesarios": 3226,
      "Ġbelga": 3227,
      "Ġsuperfici": 3228,
      "Ġdiferente": 3229,
      "Ġinten": 3230,
      "Ġacta": 3231,
      "Ġmantener": 3232,
      "Ġrecha": 3233,
      "Ġhomolo": 3234,
      "Ġsimple": 3235,
      "Ġth": 3236,
      "Ġventaja": 3237,
      "06": 3238,
      "Ġka": 3239,
      "Ġmodalidades": 3240,
      "Ġimpe": 3241,
      "Ġsuspension": 3242,
      "tic": 3243,
      "Ġdespa": 3244,
      "Ġdestino": 3245,
      "Ġadopto": 3246,
      "Ġga": 3247,
      "Ġexpresion": 3248,
      "urg": 3249,
      "Ġordenamiento": 3250,
      "Ð°": 3251,
      "Ġpermanente": 3252,
      "Ġmencionadas": 3253,
      "izada": 3254,
      "09": 3255,
      "Ġproceder": 3256,
      "Ġinicial": 3257,
      "ual": 3258,
      "Ġbre": 3259,
      "Ġos": 3260,
      "Ġlicencia": 3261,
      "ty": 3262,
      "Ġformulado": 3263,
      "Ġefectuar": 3264,
      "Ġaproxim": 3265,
      "Ġserie": 3266,
      "Ġreserv": 3267,
      "Ġnecesariamente": 3268,
      "Ġrelev": 3269,
      "Ġconcer": 3270,
      "Ġmedicamentos": 3271,
      "Ġcentral": 3272,
      "Ġpensiones": 3273,
      "Ġconceder": 3274,
      "orro": 3275,
      "Ġhelen": 3276,
      "icios": 3277,
      "Ġcuentas": 3278,
      "Ġlin": 3279,
      "ps": 3280,
      "Ġconv": 3281,
      "we": 3282,
      "Ġriesgos": 3283,
      "Ġrecurrentes": 3284,
      "Ġtend": 3285,
      "Ġnegativa": 3286,
      "Ġpie": 3287,
      "Ġinvoc": 3288,
      "Ġazucar": 3289,
      "Ġsenalo": 3290,
      "iform": 3291,
      "Ġdistribu": 3292,
      "teral": 3293,
      "Ġconstituir": 3294,
      "rencia": 3295,
      "Ġprivado": 3296,
      "Ġgeogra": 3297,
      "Ġdesta": 3298,
      "tz": 3299,
      "Ġtributaria": 3300,
      "Ġaguas": 3301,
      "Ġdecidio": 3302,
      "Ġdele": 3303,
      "Ġplazos": 3304,
      "Ġdemues": 3305,
      "Ġcitadas": 3306,
      "Ġglobal": 3307,
      "ki": 3308,
      "eracion": 3309,
      "Ġrepercu": 3310,
      "Ġ103": 3311,
      "Ġpp": 3312,
      "Ġsuministro": 3313,
      "Ġapa": 3314,
      "Ġencon": 3315,
      "rantes": 3316,
      "Ġsigno": 3317,
      "din": 3318,
      "Ġat": 3319,
      "Ġeconomicas": 3320,
      "Ġhomologacion": 3321,
      "Ġsolicito": 3322,
      "misible": 3323,
      "Ġmodelo": 3324,
      "Ġasis": 3325,
      "Ġinval": 3326,
      "Ġlocal": 3327,
      "Ġllevar": 3328,
      "ende": 3329,
      "Ġrestitu": 3330,
      "Ġjudiciales": 3331,
      "Ġredac": 3332,
      "Ġconsul": 3333,
      "Ġtransmi": 3334,
      "Ġcuantia": 3335,
      "Ġfiscales": 3336,
      "Ġautonom": 3337,
      "Ġher": 3338,
      "Ġcomprendido": 3339,
      "Ġcotiz": 3340,
      "Ġunidad": 3341,
      "Ġclasific": 3342,
      "Ġreclamacion": 3343,
      "Ġhipo": 3344,
      "Ġinternacionales": 3345,
      "Ġnos": 3346,
      "12": 3347,
      "Ġclase": 3348,
      "Ġasegura": 3349,
      "Ġvulneracion": 3350,
      "Ġcompeti": 3351,
      "Ġdirector": 3352,
      "Ġviv": 3353,
      "Ġdenuncia": 3354,
      "iene": 3355,
      "pas": 3356,
      "Ġsuple": 3357,
      "Ġcompon": 3358,
      "Ġcuota": 3359,
      "Ġpretension": 3360,
      "Ġoperador": 3361,
      "Ġobligada": 3362,
      "Ġconcretamente": 3363,
      "Ġev": 3364,
      "Ġcargos": 3365,
      "Ġ1408": 3366,
      "Ġdestinados": 3367,
      "Ġimpos": 3368,
      "tela": 3369,
      "Ġevalu": 3370,
      "zcan": 3371,
      "Ġje": 3372,
      "Ġeur": 3373,
      "Ġcien": 3374,
      "Ġpalab": 3375,
      "Ġmodificaciones": 3376,
      "Ġbeneficios": 3377,
      "ges": 3378,
      "Ġrecor": 3379,
      "oli": 3380,
      "Ġcombin": 3381,
      "bor": 3382,
      "Ġplie": 3383,
      "Ġestric": 3384,
      "Ġacumulados": 3385,
      "Ġgarantiz": 3386,
      "Ġsigue": 3387,
      "icola": 3388,
      "Ġtecnica": 3389,
      "Ġpublicacion": 3390,
      "Ġfre": 3391,
      "Ġfron": 3392,
      "Ġformuladas": 3393,
      "Ġbuena": 3394,
      "Ġuniform": 3395,
      "Ġreferido": 3396,
      "Ġreglas": 3397,
      "izaciones": 3398,
      "olas": 3399,
      "cepcion": 3400,
      "Ġ108": 3401,
      "Ġdio": 3402,
      "Ġcoordinacion": 3403,
      "Ġacces": 3404,
      "Ġrecom": 3405,
      "Ġprepar": 3406,
      "Ġorien": 3407,
      "Ġpelig": 3408,
      "centa": 3409,
      "Ġfacilitar": 3410,
      "Ġdenominacion": 3411,
      "rie": 3412,
      "Ġdeduccion": 3413,
      "Ġsubs": 3414,
      "Ġacom": 3415,
      "nolog": 3416,
      "Ġinstalaciones": 3417,
      "ins": 3418,
      "Ġnecesidades": 3419,
      "Ġporcenta": 3420,
      "Ġcuad": 3421,
      "Ġutilizar": 3422,
      "Ġpublicidad": 3423,
      "Ġpagina": 3424,
      "Ġanade": 3425,
      "Ġtransi": 3426,
      "Ġpesar": 3427,
      "Ġincluye": 3428,
      "Ġ102": 3429,
      "Ġleche": 3430,
      "Ġcurso": 3431,
      "Ġ1984": 3432,
      "Ġcartel": 3433,
      "Ġav": 3434,
      "tions": 3435,
      "Ġinterpuso": 3436,
      "Ġconocer": 3437,
      "Ġnuevas": 3438,
      "Ġregional": 3439,
      "Ġsanitari": 3440,
      "Ġreserva": 3441,
      "Ġenfermedad": 3442,
      "Ġregimenes": 3443,
      "Ġmera": 3444,
      "Ġaplicara": 3445,
      "yan": 3446,
      "Ġextre": 3447,
      "Ġmotor": 3448,
      "Ġdesemp": 3449,
      "Ġinvoca": 3450,
      "Ġcontrovertidas": 3451,
      "Ġreuniones": 3452,
      "Ġarren": 3453,
      "Ġexigencia": 3454,
      "Ġconsiste": 3455,
      "Ġinteresados": 3456,
      "Ġclientes": 3457,
      "iores": 3458,
      "Ġ1983": 3459,
      "Ġmodificado": 3460,
      "Ġinspeccion": 3461,
      "Ġtasa": 3462,
      "Ġseis": 3463,
      "Ġsustancia": 3464,
      "Ġencuentra": 3465,
      "Ġnegoci": 3466,
      "Ġtecnicas": 3467,
      "Ġtoma": 3468,
      "Ġantidu": 3469,
      "Ġtraduccion": 3470,
      "Ġnombra": 3471,
      "Ġsolicitada": 3472,
      "Ġantidumping": 3473,
      "Ġbus": 3474,
      "Ġnulidad": 3475,
      "ficientes": 3476,
      "Ġcontratacion": 3477,
      "Ġinm": 3478,
      "Ġlog": 3479,
      "Ġapara": 3480,
      "Ġmodelos": 3481,
      "hof": 3482,
      "Ġcelebrado": 3483,
      "Ġcontratantes": 3484,
      "Ġmixto": 3485,
      "Ġreferida": 3486,
      "Ġconflic": 3487,
      "fon": 3488,
      "Ġpeso": 3489,
      "Ġalgunas": 3490,
      "Ġpliego": 3491,
      "Ġinsu": 3492,
      "Ġutilizados": 3493,
      "Ġmateriales": 3494,
      "Ġclausulas": 3495,
      "Ġestructura": 3496,
      "Ġtribunales": 3497,
      "Ġhumanos": 3498,
      "Ġcarece": 3499,
      "Ġcamp": 3500,
      "Ġcontradic": 3501,
      "Ġpromocion": 3502,
      "Ġlicitacion": 3503,
      "Ġquienes": 3504,
      "Ġdivi": 3505,
      "nov": 3506,
      "Ġpermita": 3507,
      "Ġcru": 3508,
      "Ġcientific": 3509,
      "Ġ=": 3510,
      "Ġpersonales": 3511,
      "Ġpresun": 3512,
      "wal": 3513,
      "ude": 3514,
      "Ġproblema": 3515,
      "Ġindicado": 3516,
      "Ġinmue": 3517,
      "Ġrenta": 3518,
      "Ġplanteadas": 3519,
      "Ġdespacho": 3520,
      "Ġprovisionales": 3521,
      "Ġproteger": 3522,
      "Ġpreven": 3523,
      "ly": 3524,
      "Ġdistinto": 3525,
      "Ġefectuados": 3526,
      "Ġhaberse": 3527,
      "Ġpreli": 3528,
      "gres": 3529,
      "Ġconstitucional": 3530,
      "Ġatencion": 3531,
      "Ġrecopi": 3532,
      "Ġ2021": 3533,
      "Ġexposicion": 3534,
      "Ġltd": 3535,
      "Ġreci": 3536,
      "Ġfinancieros": 3537,
      "Ġsustancial": 3538,
      "Ġintercambios": 3539,
      "Ġindicacion": 3540,
      "ze": 3541,
      "Ġimponer": 3542,
      "Ġevidente": 3543,
      "viles": 3544,
      "Ġintencion": 3545,
      "Ġrevision": 3546,
      "Ġrealizadas": 3547,
      "doras": 3548,
      "Ġfarma": 3549,
      "Ġconstruccion": 3550,
      "pro": 3551,
      "Ġaprobacion": 3552,
      "Ġambos": 3553,
      "Ġinco": 3554,
      "Ġjubi": 3555,
      "Ġgarantias": 3556,
      "Ġtranspa": 3557,
      "Ġzonas": 3558,
      "ila": 3559,
      "Ġalma": 3560,
      "Ġdina": 3561,
      "Ġconservacion": 3562,
      "Ġwe": 3563,
      "ilan": 3564,
      "Ġdivision": 3565,
      "Ġautoma": 3566,
      "uer": 3567,
      "Ġeficacia": 3568,
      "Ġsubsidiario": 3569,
      "Ġpropon": 3570,
      "Ġsatisfa": 3571,
      "Ġremun": 3572,
      "Ġfru": 3573,
      "ms": 3574,
      "Ġexigir": 3575,
      "Ġcumple": 3576,
      "Ġindis": 3577,
      "Ġradio": 3578,
      "Ġfijacion": 3579,
      "Ġsh": 3580,
      "Ġanual": 3581,
      "ht": 3582,
      "Ġdoc": 3583,
      "Ġespecifico": 3584,
      "Ġraiz": 3585,
      "Ġpapel": 3586,
      "Ġfinanciero": 3587,
      "iente": 3588,
      "Ġconcentracion": 3589,
      "Ġcolo": 3590,
      "Ġguion": 3591,
      "Ġafectar": 3592,
      "Ġsoli": 3593,
      "Ġreglamentarias": 3594,
      "diendo": 3595,
      "titud": 3596,
      "ĠÃ": 3597,
      "Ġcubier": 3598,
      "Ġpagos": 3599,
      "Ġdirecto": 3600,
      "Ġdilig": 3601,
      "Ġneu": 3602,
      "Ġdestinadas": 3603,
      "Ġcorte": 3604,
      "Ġinterven": 3605,
      "Ġeleccion": 3606,
      "Ġimpuesta": 3607,
      "Ġlitigios": 3608,
      "sas": 3609,
      "Ġbri": 3610,
      "Ġcomunes": 3611,
      "13": 3612,
      "Ġmulti": 3613,
      "ip": 3614,
      "Ġko": 3615,
      "Ġencontr": 3616,
      "tec": 3617,
      "ura": 3618,
      "Ġapropi": 3619,
      "Ġcompromisos": 3620,
      "15": 3621,
      "Ġtendra": 3622,
      "Ġpatrimon": 3623,
      "Ġestimo": 3624,
      "dri": 3625,
      "Ġemisiones": 3626,
      "Ġaduaneras": 3627,
      "10": 3628,
      "Ġespacio": 3629,
      "Ġapli": 3630,
      "Ġciudadan": 3631,
      "Ġqui": 3632,
      "Ġmaqu": 3633,
      "Ġdestinada": 3634,
      "Ġinfun": 3635,
      "Ġadjudica": 3636,
      "Ġexistentes": 3637,
      "Ġ195": 3638,
      "Ġdenomina": 3639,
      "Ġcertificados": 3640,
      "Ġinvocados": 3641,
      "ks": 3642,
      "Ġnie": 3643,
      "Ġsosten": 3644,
      "Ġder": 3645,
      "Ġrecopilacion": 3646,
      "Ġinscri": 3647,
      "Ġtor": 3648,
      "Ġexcluir": 3649,
      "Ġlinea": 3650,
      "Ġdirigida": 3651,
      "Ġutilizadas": 3652,
      "icidad": 3653,
      "Ġtecnico": 3654,
      "Ġ115": 3655,
      "Ġderivados": 3656,
      "Ġsuce": 3657,
      "Ġfabricante": 3658,
      "Ġenuncia": 3659,
      "wa": 3660,
      "Ġcomunitarios": 3661,
      "Ġsupuestos": 3662,
      "Ġdespla": 3663,
      "turas": 3664,
      "Ġafectados": 3665,
      "Ġmodificar": 3666,
      "Ġcompatibilidad": 3667,
      "Ġambas": 3668,
      "Ġinexistencia": 3669,
      "Ġsenalarse": 3670,
      "Ġinformes": 3671,
      "Ġ106": 3672,
      "Ġtexti": 3673,
      "Ġdiferencias": 3674,
      "Ġprecisamente": 3675,
      "Ġina": 3676,
      "Ġincluir": 3677,
      "Ġoriginarios": 3678,
      "Ġintelec": 3679,
      "Ġseguros": 3680,
      "Ġhoras": 3681,
      "guir": 3682,
      "Ġpublicada": 3683,
      "Ġgrava": 3684,
      "Ġrealizado": 3685,
      "Ġdano": 3686,
      "Ġproductor": 3687,
      "Ġestudios": 3688,
      "Ġdificulta": 3689,
      "Ġlimitacion": 3690,
      "Ġrefle": 3691,
      "Ġinforma": 3692,
      "fas": 3693,
      "Ġasu": 3694,
      "Ġimputacion": 3695,
      "Ġpi": 3696,
      "Ġincluido": 3697,
      "Ġquinto": 3698,
      "Ġ119": 3699,
      "erto": 3700,
      "Ġargumento": 3701,
      "Ġhabiendo": 3702,
      "Ġconver": 3703,
      "Ġhacia": 3704,
      "up": 3705,
      "Ġescal": 3706,
      "Ġajena": 3707,
      "Ġalmacen": 3708,
      "Ġvii": 3709,
      "fin": 3710,
      "Ġdecidir": 3711,
      "Ġ177": 3712,
      "Ġeleg": 3713,
      "Ġrestr": 3714,
      "Ġagencia": 3715,
      "Ġmanifes": 3716,
      "Ġinstrumentos": 3717,
      "Ġconside": 3718,
      "Ġagua": 3719,
      "Ġformul": 3720,
      "Ġtutela": 3721,
      "Ġeslo": 3722,
      "Ġreform": 3723,
      "Ġcarb": 3724,
      "Ġintelectual": 3725,
      "Ġindeb": 3726,
      "Ġpodian": 3727,
      "Ġdudas": 3728,
      "Ġpresupuesto": 3729,
      "Ġinciso": 3730,
      "Ġagricola": 3731,
      "Ġeta": 3732,
      "guar": 3733,
      "Ġedi": 3734,
      "Ġconsoli": 3735,
      "Ġdoble": 3736,
      "Ġcoadyuvante": 3737,
      "Ġutilizado": 3738,
      "Ġincumbe": 3739,
      "Ġvisto": 3740,
      "29": 3741,
      "19": 3742,
      "Ġarrenda": 3743,
      "Ġsupedi": 3744,
      "Ġspa": 3745,
      "Ġanticip": 3746,
      "Ġfijado": 3747,
      "Ġcreditos": 3748,
      "Ġvac": 3749,
      "Ġduda": 3750,
      "Ġindicaciones": 3751,
      "Ġsimilar": 3752,
      "Ġreducir": 3753,
      "Ġoriginal": 3754,
      "uncio": 3755,
      "Ġantece": 3756,
      "Ġescritas": 3757,
      "Ġacogida": 3758,
      "Ġfactores": 3759,
      "Ġaus": 3760,
      "Ġamplia": 3761,
      "Ġnatural": 3762,
      "pens": 3763,
      "Ġdistintivo": 3764,
      "recen": 3765,
      "Ġsupremo": 3766,
      "cor": 3767,
      "Ġunos": 3768,
      "Ġpolonia": 3769,
      "Ġbru": 3770,
      "viera": 3771,
      "Ġacompan": 3772,
      "Ġpoten": 3773,
      "izados": 3774,
      "Ġapoy": 3775,
      "Ġobstacu": 3776,
      "Ġporcentaje": 3777,
      "Ð¸": 3778,
      "ting": 3779,
      "Ġ109": 3780,
      "Ġobra": 3781,
      "Ġaquellas": 3782,
      "Ġretribucion": 3783,
      "Ġpermiten": 3784,
      "Ġcoste": 3785,
      "ding": 3786,
      "Ġbeneficiario": 3787,
      "anas": 3788,
      "Ġconfer": 3789,
      "Ġsalva": 3790,
      "Ġsubray": 3791,
      "adamente": 3792,
      "ĠÎ": 3793,
      "Ġimponible": 3794,
      "capa": 3795,
      "Ġwa": 3796,
      "Ġdominante": 3797,
      "iado": 3798,
      "Ġdificultades": 3799,
      "Ġeti": 3800,
      "Ġinversiones": 3801,
      "Ġtecnolog": 3802,
      "Ġbio": 3803,
      "Ġconcedida": 3804,
      "orales": 3805,
      "Ġmutu": 3806,
      "ilancia": 3807,
      "Ġautonoma": 3808,
      "ares": 3809,
      "Ġjo": 3810,
      "Ġtransferencia": 3811,
      "Ġplantea": 3812,
      "Ġeduc": 3813,
      "Ġincurrio": 3814,
      "Ġbon": 3815,
      "ocia": 3816,
      "Ġterritor": 3817,
      "Ġconsulta": 3818,
      "jeres": 3819,
      "Ġestara": 3820,
      "Ġmujeres": 3821,
      "Ġcap": 3822,
      "Ġprecep": 3823,
      "Ġerro": 3824,
      "Ġces": 3825,
      "Ġidenti": 3826,
      "Ġresidentes": 3827,
      "Ġ<": 3828,
      "Ġconfidencial": 3829,
      "Ġinclusion": 3830,
      "Ġvigente": 3831,
      "ones": 3832,
      "Ġdictado": 3833,
      "Ġlla": 3834,
      "antil": 3835,
      "Ġcelebracion": 3836,
      "Ġ118": 3837,
      "Ġactivos": 3838,
      "Ġordin": 3839,
      "Ġprior": 3840,
      "Ġdiscre": 3841,
      "Ġcombusti": 3842,
      "Ġconcluir": 3843,
      "Ġfilial": 3844,
      "Ġpronuncia": 3845,
      "Ġdepar": 3846,
      "Ġaumento": 3847,
      "Ġinformaciones": 3848,
      "Ġcompatible": 3849,
      "Ġarancelar": 3850,
      "landia": 3851,
      "Ġincluida": 3852,
      "Ġrecuperacion": 3853,
      "Ġautomo": 3854,
      "Ġcreacion": 3855,
      "Ġjubilacion": 3856,
      "Ġhol": 3857,
      "Ġenton": 3858,
      "Ġreparto": 3859,
      "Ġnada": 3860,
      "Ġunas": 3861,
      "Ġproduci": 3862,
      "guen": 3863,
      "Ġlegislativo": 3864,
      "Ġaduanera": 3865,
      "Ġmanifiestamente": 3866,
      "Ġgravedad": 3867,
      "Ġ1982": 3868,
      "Ġfuerza": 3869,
      "gencia": 3870,
      "Ġentonces": 3871,
      "Ġconjun": 3872,
      "mentar": 3873,
      "iencia": 3874,
      "Ġamparo": 3875,
      "Ġrestring": 3876,
      "Ġdefine": 3877,
      "Ġlocales": 3878,
      "perar": 3879,
      "Ġrelacionados": 3880,
      "Ġcoh": 3881,
      "Ġdibujos": 3882,
      "Ġrecibida": 3883,
      "Ġadicionales": 3884,
      "Ġsufrido": 3885,
      "Ġrevis": 3886,
      "Ġpese": 3887,
      "marca": 3888,
      "zion": 3889,
      "Ġtesis": 3890,
      "Ġconvoca": 3891,
      "Ġdiscrimina": 3892,
      "Ġconex": 3893,
      "cle": 3894,
      "Ġagricolas": 3895,
      "Ġpudiera": 3896,
      "Ġexisten": 3897,
      "Ġexces": 3898,
      "Ġinterpretar": 3899,
      "col": 3900,
      "Ġmecanismo": 3901,
      "Ġcualquiera": 3902,
      "Ġresuel": 3903,
      "Ġhelenica": 3904,
      "Ġvigilancia": 3905,
      "Ġinicio": 3906,
      "Ġdiv": 3907,
      "Ġape": 3908,
      "Ġpref": 3909,
      "Ġfisicas": 3910,
      "Ġeducacion": 3911,
      "Ġlargo": 3912,
      "Ġgrav": 3913,
      "Ġparcialmente": 3914,
      "Ġcontes": 3915,
      "Ġfabrica": 3916,
      "Ġ125": 3917,
      "Ġmm": 3918,
      "Ġafectado": 3919,
      "Ġcomunicaciones": 3920,
      "Ġalterna": 3921,
      "Ġocur": 3922,
      "gal": 3923,
      "dados": 3924,
      "Ðµ": 3925,
      "Ġestatal": 3926,
      "Ġgro": 3927,
      "Ġdesestimarse": 3928,
      "Ġbuques": 3929,
      "Ġcapitales": 3930,
      "Ġsubvencion": 3931,
      "Ġpob": 3932,
      "Ġinternational": 3933,
      "Ġ1977": 3934,
      "Ġcola": 3935,
      "Ġmone": 3936,
      "Ġretira": 3937,
      "Ġimportes": 3938,
      "Ġesencialmente": 3939,
      "yn": 3940,
      "Ġhora": 3941,
      "Ġprorro": 3942,
      "voc": 3943,
      "Ġtelec": 3944,
      "Ġreconoce": 3945,
      "Ġsuspender": 3946,
      "Ġcomprome": 3947,
      "Ġneg": 3948,
      "Ġ123": 3949,
      "Ġaplicado": 3950,
      "Ġdesestimo": 3951,
      "dada": 3952,
      "Ġfisica": 3953,
      "Ġges": 3954,
      "Ġtratados": 3955,
      "Ġguar": 3956,
      "Ġalemana": 3957,
      "Ġelectricidad": 3958,
      "gados": 3959,
      "Ġargumentos": 3960,
      "Ġcomprendidos": 3961,
      "Ġperdida": 3962,
      "Ġ105": 3963,
      "Ġestaban": 3964,
      "Ġbor": 3965,
      "Ð¾": 3966,
      "Ġhizo": 3967,
      "Ġeconomia": 3968,
      "Ġpermiti": 3969,
      "Ġland": 3970,
      "Ġtelecom": 3971,
      "Ġconfusion": 3972,
      "Ġilegal": 3973,
      "esor": 3974,
      "Ġavis": 3975,
      "Ġtranscur": 3976,
      "Ġaparatos": 3977,
      "Ġplen": 3978,
      "Ġtraslado": 3979,
      "Ġexpresa": 3980,
      "timiento": 3981,
      "Ġerrores": 3982,
      "Ġobtenido": 3983,
      "Ġconsideradas": 3984,
      "Ġacor": 3985,
      "Ġsupone": 3986,
      "Ġuniforme": 3987,
      "erados": 3988,
      "Ġss": 3989,
      "Ġdivul": 3990,
      "Ġinvocado": 3991,
      "Ġsujeta": 3992,
      "Ġreconocer": 3993,
      "triz": 3994,
      "Ġesenciales": 3995,
      "Ġcontratante": 3996,
      "Ġrazonamiento": 3997,
      "Ġexac": 3998,
      "Ġvic": 3999,
      "dh": 4000,
      "Ġcomparacion": 4001,
      "Ġsuperficie": 4002,
      "Ġformulada": 4003,
      "Ġpresuncion": 4004,
      "Ġbul": 4005,
      "Ġmotivado": 4006,
      "para": 4007,
      "Ġexclusiva": 4008,
      "Ġtone": 4009,
      "tural": 4010,
      "Ġefectuadas": 4011,
      "Ġadministr": 4012,
      "Ġtitulado": 4013,
      "Ġanalogia": 4014,
      "Ġrepresentacion": 4015,
      "Ġseman": 4016,
      "Ġfijar": 4017,
      "Î¹": 4018,
      "Ġrendi": 4019,
      "Ġdispositiva": 4020,
      "mara": 4021,
      "Ġalco": 4022,
      "Ġ1980": 4023,
      "Ġoficio": 4024,
      "Ġhaci": 4025,
      "Ġhubieran": 4026,
      "Ġinicialmente": 4027,
      "Ġjustificada": 4028,
      "Ġcontemplados": 4029,
      "Ġminister": 4030,
      "Ġconducta": 4031,
      "st": 4032,
      "Ġconflicto": 4033,
      "Ġfinalmente": 4034,
      "madas": 4035,
      "Ġnumeros": 4036,
      "Ġvaloracion": 4037,
      "Ġfinancieras": 4038,
      "Ġciudada": 4039,
      "Ġdescripcion": 4040,
      "Ġcompromiso": 4041,
      "Ġproducido": 4042,
      "Ġcc": 4043,
      "Ġtenerse": 4044,
      "erencias": 4045,
      "Ġsometer": 4046,
      "Ġcarne": 4047,
      "Ġpalabras": 4048,
      "Ġrecomenda": 4049,
      "Ġpan": 4050,
      "Ġ267": 4051,
      "Ġjustificacion": 4052,
      "Ġcelebrada": 4053,
      "Ġcau": 4054,
      "Ġindice": 4055,
      "Ġplantear": 4056,
      "Ġextranjero": 4057,
      "Ġeuropa": 4058,
      "Ġfranco": 4059,
      "Ġrepresentado": 4060,
      "Ġsectores": 4061,
      "Ġrestrictivas": 4062,
      "Ġexcluye": 4063,
      "Ġ1981": 4064,
      "Ġexista": 4065,
      "Ġoponen": 4066,
      "erentes": 4067,
      "Ġexistente": 4068,
      "Ġadmitir": 4069,
      "Ġreparacion": 4070,
      "Ġcalcular": 4071,
      "Ġtitulares": 4072,
      "Ġbal": 4073,
      "Ġanexos": 4074,
      "Ġespecificos": 4075,
      "Ġerronea": 4076,
      "Ġautorizado": 4077,
      "Ġincompatible": 4078,
      "Ġide": 4079,
      "Ġverificar": 4080,
      "Ġvari": 4081,
      "ph": 4082,
      "Ġmayoria": 4083,
      "Ġdemostrado": 4084,
      "Ġterren": 4085,
      "Ġalta": 4086,
      "Ġarti": 4087,
      "Ġcompues": 4088,
      "Ġentender": 4089,
      "Ġprocesal": 4090,
      "Ġdescar": 4091,
      "Ġalla": 4092,
      "oga": 4093,
      "Ġcumplen": 4094,
      "Ġrea": 4095,
      "Ġalegan": 4096,
      "Ġindustrial": 4097,
      "Ġbce": 4098,
      "Ġilegalidad": 4099,
      "Ġpreviamente": 4100,
      "Ġcentros": 4101,
      "Ġorganizaciones": 4102,
      "Ġpertene": 4103,
      "Ġpodrian": 4104,
      "ff": 4105,
      "Ġprima": 4106,
      "Ġconcurso": 4107,
      "Ġdeuda": 4108,
      "Ġpreliminar": 4109,
      "Ġperjuicios": 4110,
      "Ġbeneficiarios": 4111,
      "rue": 4112,
      "Ġllegar": 4113,
      "Ġaere": 4114,
      "Ġrespetar": 4115,
      "Ġrecuer": 4116,
      "Ġ113": 4117,
      "Ġafirmacion": 4118,
      "Ġinmediatamente": 4119,
      "Ġespecies": 4120,
      "Ġpresencia": 4121,
      "Ġproduce": 4122,
      "Ġcontencios": 4123,
      "Ġproducir": 4124,
      "Ġprescripcion": 4125,
      "18": 4126,
      "Ġdestinatario": 4127,
      "Ġenvas": 4128,
      "Ġdistinta": 4129,
      "Ġche": 4130,
      "Ġgrupos": 4131,
      "osa": 4132,
      "Ġconsen": 4133,
      "Ġeficaz": 4134,
      "Ġeventual": 4135,
      "Ġdinamarca": 4136,
      "bs": 4137,
      "Ġcontractual": 4138,
      "Ġlimitar": 4139,
      "Ġidentidad": 4140,
      "medi": 4141,
      "Ġ1979": 4142,
      "zan": 4143,
      "Ġnotas": 4144,
      "Ġino": 4145,
      "Ġ117": 4146,
      "Ġdiez": 4147,
      "Ġimpedir": 4148,
      "Ġou": 4149,
      "Ġsuecia": 4150,
      "Ġdepor": 4151,
      "Ġidentificacion": 4152,
      "Ġafectadas": 4153,
      "ridos": 4154,
      "plic": 4155,
      "Ġest": 4156,
      "Ġexceda": 4157,
      "Ġeventu": 4158,
      "Ġformas": 4159,
      "0000": 4160,
      "Ġsupri": 4161,
      "Ġsusci": 4162,
      "Ġpuesta": 4163,
      "Ġefectuado": 4164,
      "Ġconfiere": 4165,
      "ni": 4166,
      "Ġcliente": 4167,
      "Ġarancel": 4168,
      "Ġcesion": 4169,
      "Ġmariti": 4170,
      "ienda": 4171,
      "mano": 4172,
      "Ġcontempladas": 4173,
      "Ġoral": 4174,
      "Ġinsta": 4175,
      "Ġbuen": 4176,
      "Ġciudadanos": 4177,
      "Ġtransformacion": 4178,
      "Ġrealizada": 4179,
      "cil": 4180,
      "Ġfacultades": 4181,
      "Ġprohibe": 4182,
      "Ġinstalacion": 4183,
      "Ġdesv": 4184,
      "Ġaquella": 4185,
      "imi": 4186,
      "Ġdescu": 4187,
      "25": 4188,
      "Ġutil": 4189,
      "Ġexpir": 4190,
      "Ġposi": 4191,
      "tidores": 4192,
      "Ġacce": 4193,
      "Ġelaboracion": 4194,
      "Ġprovin": 4195,
      "sar": 4196,
      "23": 4197,
      "Ġdesestima": 4198,
      "Ġaqui": 4199,
      "Ġasignacion": 4200,
      "Ġcha": 4201,
      "Ġrenov": 4202,
      "Ġdifici": 4203,
      "Ġasocia": 4204,
      "Ġadj": 4205,
      "Ġinh": 4206,
      "Ġrelacionadas": 4207,
      "Ġacertada": 4208,
      "Ġ234": 4209,
      "Ġnaturales": 4210,
      "Ġmision": 4211,
      "Ġpone": 4212,
      "Ġcompleto": 4213,
      "cido": 4214,
      "Ġul": 4215,
      "Ġincon": 4216,
      "Ġseguir": 4217,
      "berg": 4218,
      "Ġaero": 4219,
      "Ġ114": 4220,
      "Ġfactura": 4221,
      "Ġfamiliar": 4222,
      "Ġtitulos": 4223,
      "Ġmatriz": 4224,
      "Ġilici": 4225,
      "Ġperdidas": 4226,
      "Ġdecis": 4227,
      "Ġhung": 4228,
      "Ġexpedicion": 4229,
      "Ġusuarios": 4230,
      "Ġevolucion": 4231,
      "Ġpertinencia": 4232,
      "ivas": 4233,
      "Ġinvalidez": 4234,
      "dre": 4235,
      "Ġexcl": 4236,
      "Ġcif": 4237,
      "Ġempleados": 4238,
      "cra": 4239,
      "Ġnormalmente": 4240,
      "Ġregulacion": 4241,
      "Ġtransparencia": 4242,
      "Ġalcoho": 4243,
      "ech": 4244,
      "Ġcompleta": 4245,
      "Ġobservar": 4246,
      "Ġdestinado": 4247,
      "mt": 4248,
      "Ġreconocido": 4249,
      "Ġacon": 4250,
      "Ġpena": 4251,
      "bili": 4252,
      "Ġfavorable": 4253,
      "Ġgrie": 4254,
      "mes": 4255,
      "Ġsede": 4256,
      "ed": 4257,
      "ientes": 4258,
      "Ġtransito": 4259,
      "Ġgrecia": 4260,
      "Ġit": 4261,
      "Ġindividuales": 4262,
      "ker": 4263,
      "Ġcuadro": 4264,
      "Ġrequiere": 4265,
      "Î±": 4266,
      "Ġunidos": 4267,
      "ther": 4268,
      "Ġ169": 4269,
      "jan": 4270,
      "Ġconjuntamente": 4271,
      "Ġinfraestructu": 4272,
      "zamiento": 4273,
      "gadas": 4274,
      "Ġcoleg": 4275,
      "amb": 4276,
      "Ġig": 4277,
      "bro": 4278,
      "Ġceca": 4279,
      "Ġcontenida": 4280,
      "Ġfutu": 4281,
      "Ġintercambio": 4282,
      "Ġretro": 4283,
      "Ġine": 4284,
      "Ġcontrovertidos": 4285,
      "Ġsujetas": 4286,
      "Ġindicar": 4287,
      "Ġimpac": 4288,
      "Ġabier": 4289,
      "Ġcandidatos": 4290,
      "Ġmedicamento": 4291,
      "Ġfac": 4292,
      "Ġactuacion": 4293,
      "Ġaper": 4294,
      "Ġdilu": 4295,
      "til": 4296,
      "Ġreferente": 4297,
      "Ġcontencioso": 4298,
      "Ġretras": 4299,
      "Ġrue": 4300,
      "deracion": 4301,
      "Ġaplican": 4302,
      "Ġestra": 4303,
      "Ġjor": 4304,
      "Ġinscripcion": 4305,
      "Ġ116": 4306,
      "Ġmedia": 4307,
      "Ġpode": 4308,
      "Ġlegalmente": 4309,
      "Ġgobiernos": 4310,
      "Ġdecide": 4311,
      "Ġparticipar": 4312,
      "Ġamen": 4313,
      "Ġ129": 4314,
      "Ġconvocatoria": 4315,
      "tren": 4316,
      "Ġdebian": 4317,
      "Ġtransportes": 4318,
      "Ġsuficientes": 4319,
      "Ġdebidamente": 4320,
      "Ġcopia": 4321,
      "Ġgal": 4322,
      "Ġaproximacion": 4323,
      "Ġlleva": 4324,
      "Ġquim": 4325,
      "ceu": 4326,
      "Ġhon": 4327,
      "Ġacertadamente": 4328,
      "Ġsignos": 4329,
      "Ġsir": 4330,
      "Ġmez": 4331,
      "Ġdespro": 4332,
      "Ġleyes": 4333,
      "Ġcompetidores": 4334,
      "Ġdiscip": 4335,
      "Ġinternet": 4336,
      "Ġetique": 4337,
      "Ġapen": 4338,
      "17": 4339,
      "Ġdeparta": 4340,
      "Ġestudio": 4341,
      "Ġrequerimiento": 4342,
      "Ġrecurrir": 4343,
      "Ġ134": 4344,
      "Ġsuiza": 4345,
      "Ġpoliticas": 4346,
      "Ġtarifas": 4347,
      "Ġdemandado": 4348,
      "Ġpatente": 4349,
      "Ġecu": 4350,
      "Ġjunta": 4351,
      "Ġredaccion": 4352,
      "Ġasegurar": 4353,
      "Ġprincipalmente": 4354,
      "quia": 4355,
      "teras": 4356,
      "Ġadecuado": 4357,
      "Ġcelebrados": 4358,
      "Ġcorreccion": 4359,
      "Ġcomprende": 4360,
      "Ġcondena": 4361,
      "Ġsolamente": 4362,
      "Ġdificil": 4363,
      "tom": 4364,
      "Ġafectada": 4365,
      "dice": 4366,
      "ambien": 4367,
      "Ġtaba": 4368,
      "Ġcargara": 4369,
      "Ġventajas": 4370,
      "22": 4371,
      "Ġderiva": 4372,
      "Ġderivadas": 4373,
      "nes": 4374,
      "imo": 4375,
      "Ġapelacion": 4376,
      "Ġmedico": 4377,
      "Ġfib": 4378,
      "ticamente": 4379,
      "Ġtrafico": 4380,
      "partida": 4381,
      "Ġfrance": 4382,
      "Ġprestamo": 4383,
      "Ġposibles": 4384,
      "Ġconsideran": 4385,
      "Ġindico": 4386,
      "Ġcargar": 4387,
      "Ġutili": 4388,
      "cientes": 4389,
      "Ġplanes": 4390,
      "tte": 4391,
      "Ġdeuts": 4392,
      "taran": 4393,
      "itario": 4394,
      "Ġdesa": 4395,
      "Ġproblemas": 4396,
      "Ġcomprendida": 4397,
      "Ġpromov": 4398,
      "Ġintroduccion": 4399,
      "Ġza": 4400,
      "Ġresidente": 4401,
      "tri": 4402,
      "Ġenvi": 4403,
      "ĠÃ°": 4404,
      "Ġmig": 4405,
      "Ġrecauda": 4406,
      "Ġcommun": 4407,
      "Ġefectuada": 4408,
      "Ġexter": 4409,
      "mando": 4410,
      "Ġcontribucion": 4411,
      "Ġconsidere": 4412,
      "Ġfavo": 4413,
      "Ġafirmar": 4414,
      "pres": 4415,
      "Ġretribu": 4416,
      "Ġ189": 4417,
      "Ġalimenti": 4418,
      "Ġmanda": 4419,
      "Ġgravamen": 4420,
      "Ġobserva": 4421,
      "Ġauten": 4422,
      "Ġedu": 4423,
      "Ġdeven": 4424,
      "Ġnorte": 4425,
      "Ġremuneracion": 4426,
      "Ġsil": 4427,
      "ose": 4428,
      "Ġ173": 4429,
      "Ġclaro": 4430,
      "Ġencuentran": 4431,
      "ÑĤ": 4432,
      "Ġconcedido": 4433,
      "ania": 4434,
      "wer": 4435,
      "Ġconvenios": 4436,
      "Ġanuales": 4437,
      "Ġvinculo": 4438,
      "Ġmatric": 4439,
      "Ġacree": 4440,
      "Ġsim": 4441,
      "Ġredes": 4442,
      "Ġultimos": 4443,
      "bres": 4444,
      "Ġocup": 4445,
      "Ġexpuestas": 4446,
      "Ġdefinitivo": 4447,
      "Ġrecordarse": 4448,
      "Ġvino": 4449,
      "Ġacus": 4450,
      "Ġdividen": 4451,
      "capacidad": 4452,
      "Ġmercantil": 4453,
      "Ġpartidas": 4454,
      "Ġministro": 4455,
      "Ġimpuestas": 4456,
      "Ġportuguesa": 4457,
      "Ġoidas": 4458,
      "Ġresultante": 4459,
      "Ġexterior": 4460,
      "Ġplena": 4461,
      "for": 4462,
      "Ġacci": 4463,
      "Ġconvencion": 4464,
      "Ġlimitado": 4465,
      "Ġdiversas": 4466,
      "Ġcolabor": 4467,
      "daria": 4468,
      "Ġ145": 4469,
      "Ġsie": 4470,
      "Ġdepende": 4471,
      "Ġanular": 4472,
      "Ġelevado": 4473,
      "hl": 4474,
      "Ġsens": 4475,
      "Ġperjudic": 4476,
      "Ġestatales": 4477,
      "Ġ178": 4478,
      "Ġdipu": 4479,
      "tativa": 4480,
      "Ġhubies": 4481,
      "Ġgraves": 4482,
      "Ġmetodos": 4483,
      "tuvo": 4484,
      "Ġprepara": 4485,
      "Ġresu": 4486,
      "inci": 4487,
      "Ġjuzgado": 4488,
      "Ġadministrativos": 4489,
      "Ġed": 4490,
      "Ġbeb": 4491,
      "Ġmaquinas": 4492,
      "igue": 4493,
      "Ġestrateg": 4494,
      "Ġ110": 4495,
      "Ġmedioambien": 4496,
      "Ġimportantes": 4497,
      "erra": 4498,
      "Ġil": 4499,
      "Ġadministrador": 4500,
      "Ġciudadano": 4501,
      "maciones": 4502,
      "Ġapertura": 4503,
      "Ġfres": 4504,
      "Ġexplica": 4505,
      "Ġflu": 4506,
      "Ġmuestra": 4507,
      "Ġvoluntad": 4508,
      "Ġmero": 4509,
      "Ġaprobado": 4510,
      "Ġfundamentos": 4511,
      "Ġnues": 4512,
      "Ġrecibir": 4513,
      "Ġtecnicos": 4514,
      "Ġcourt": 4515,
      "Ġjunto": 4516,
      "Ġobtencion": 4517,
      "Ġparticipantes": 4518,
      "viacion": 4519,
      "Ġfirma": 4520,
      "Ġtelefon": 4521,
      "Ġ126": 4522,
      "tungs": 4523,
      "Ġcub": 4524,
      "Ġcris": 4525,
      "Ġgras": 4526,
      "Î¿": 4527,
      "Ġconsistente": 4528,
      "Ġargumentacion": 4529,
      "Ġpresentados": 4530,
      "Ġcorpor": 4531,
      "iedad": 4532,
      "gaciones": 4533,
      "Ġreestructu": 4534,
      "Ġferro": 4535,
      "Ġsuma": 4536,
      "Ġ136": 4537,
      "Ġconcreta": 4538,
      "Ġaplicaran": 4539,
      "Ġcitados": 4540,
      "logia": 4541,
      "Ġcuyos": 4542,
      "Ġtextiles": 4543,
      "Ġmol": 4544,
      "Ġ138": 4545,
      "Ġprogres": 4546,
      "yendo": 4547,
      "Ġdisponer": 4548,
      "Ġconoce": 4549,
      "Ġportugal": 4550,
      "Ġabsoluto": 4551,
      "Ġblan": 4552,
      "Ġfinales": 4553,
      "Ġcorrecta": 4554,
      "tab": 4555,
      "Ġjustifica": 4556,
      "Ġlon": 4557,
      "Ġciertas": 4558,
      "Ġelectronico": 4559,
      "Ġcarretera": 4560,
      "Ġsometida": 4561,
      "itarios": 4562,
      "Ġdeudor": 4563,
      "Ġobligatoria": 4564,
      "ted": 4565,
      "24": 4566,
      "ites": 4567,
      "Ġfactor": 4568,
      "Ġindividualmente": 4569,
      "Ġalegado": 4570,
      "Ġsalvaguar": 4571,
      "oso": 4572,
      "Ġprotegida": 4573,
      "Ġhungria": 4574,
      "tshof": 4575,
      "14": 4576,
      "Ġenvio": 4577,
      "Ġexperiencia": 4578,
      "cab": 4579,
      "Ġimpide": 4580,
      "Ġpier": 4581,
      "Ġ263": 4582,
      "Ġvacaciones": 4583,
      "Ġcometido": 4584,
      "Ġinfluencia": 4585,
      "Ġproveedor": 4586,
      "Ġsol": 4587,
      "Ġhabita": 4588,
      "Ġperseguido": 4589,
      "Ġpermitan": 4590,
      "Ġdefec": 4591,
      "Ġdistincion": 4592,
      "Ġmaxima": 4593,
      "Ġretirada": 4594,
      "zada": 4595,
      "Ġactuar": 4596,
      "Ġimposible": 4597,
      "Ġadquirido": 4598,
      "Ġamena": 4599,
      "Ġpreguntas": 4600,
      "Ġequili": 4601,
      "Ġexportador": 4602,
      "Ġincremento": 4603,
      "Ġhabitual": 4604,
      "Ġros": 4605,
      "Ġlibertades": 4606,
      "Ġlicencias": 4607,
      "Ġinadmisible": 4608,
      "Ġpatrimonio": 4609,
      "Ġprivada": 4610,
      "Ġpun": 4611,
      "Ġ1978": 4612,
      "Ġfarmaceu": 4613,
      "Ġhig": 4614,
      "ece": 4615,
      "tonia": 4616,
      "Ġentenderse": 4617,
      "Ġconsiderara": 4618,
      "Ġdiversos": 4619,
      "Ġtre": 4620,
      "Ġnun": 4621,
      "Ġutilizarse": 4622,
      "Ġofertas": 4623,
      "Ġetc": 4624,
      "Ġremite": 4625,
      "Ġimpacto": 4626,
      "Ġpesqu": 4627,
      "Ġcolus": 4628,
      "Ġdemora": 4629,
      "Ġhijos": 4630,
      "Ġdocumentacion": 4631,
      "anola": 4632,
      "Ġima": 4633,
      "Ġliteral": 4634,
      "comun": 4635,
      "Ġalu": 4636,
      "Ġ135": 4637,
      "Ġchi": 4638,
      "Ġpropongo": 4639,
      "Ġ137": 4640,
      "Ġamplio": 4641,
      "Ġomision": 4642,
      "Ġpropuestas": 4643,
      "Ġespanola": 4644,
      "vieron": 4645,
      "33": 4646,
      "Ġcarbon": 4647,
      "Ð½": 4648,
      "Ġseme": 4649,
      "Ġmic": 4650,
      "Ġcontribuy": 4651,
      "Ġfrecu": 4652,
      "agra": 4653,
      "Ġactuaciones": 4654,
      "all": 4655,
      "Ġlig": 4656,
      "est": 4657,
      "Ġfija": 4658,
      "Ġdividendos": 4659,
      "pl": 4660,
      "Ġobligatorio": 4661,
      "Ġpublicado": 4662,
      "Ġparticipaciones": 4663,
      "Ġresulte": 4664,
      "Ġtabaco": 4665,
      "Ġsupervision": 4666,
      "Ġensen": 4667,
      "Ġinterponer": 4668,
      "Ġobtenidos": 4669,
      "Ġsupuesta": 4670,
      "ÑĢ": 4671,
      "Ġciertos": 4672,
      "Ġdetalles": 4673,
      "Ġafili": 4674,
      "Ġeng": 4675,
      "Ġ388": 4676,
      "Ġconcedidas": 4677,
      "Ġvicti": 4678,
      "Ġconsagra": 4679,
      "haus": 4680,
      "Ġconsentimiento": 4681,
      "Ġminima": 4682,
      "Ġsp": 4683,
      "Ġacogerse": 4684,
      "Ġhidro": 4685,
      "anos": 4686,
      "Ġagricultura": 4687,
      "Ġ300": 4688,
      "Ġbuque": 4689,
      "Ġdesestime": 4690,
      "Ġmono": 4691,
      "militud": 4692,
      "Ġhos": 4693,
      "Ġmili": 4694,
      "Ġcumplan": 4695,
      "Ġsuscri": 4696,
      "Ġobrantes": 4697,
      "Ġnc": 4698,
      "Ġpendiente": 4699,
      "etz": 4700,
      "Ġposibilidades": 4701,
      "Ġobligados": 4702,
      "Ġcontestacion": 4703,
      "Ġmercancia": 4704,
      "Ġdesignacion": 4705,
      "Ġsupresion": 4706,
      "dero": 4707,
      "olv": 4708,
      "Ġverdad": 4709,
      "16": 4710,
      "minu": 4711,
      "Ġaspecto": 4712,
      "sal": 4713,
      "Ġjurisdiccion": 4714,
      "Ġxi": 4715,
      "tista": 4716,
      "Ġtelecomun": 4717,
      "Ġund": 4718,
      "Ġger": 4719,
      "Ġvuln": 4720,
      "Ġtradi": 4721,
      "Ġcontrariamente": 4722,
      "Ġfinlandia": 4723,
      "uncie": 4724,
      "Ġcomponentes": 4725,
      "Ġproveedores": 4726,
      "son": 4727,
      "Ġdumping": 4728,
      "tesis": 4729,
      "Ġretencion": 4730,
      "Ġtoneladas": 4731,
      "Ġ139": 4732,
      "Ġaclar": 4733,
      "Ġprocesales": 4734,
      "Ġdecidido": 4735,
      "Ġep": 4736,
      "Ġregistrada": 4737,
      "Ġdanes": 4738,
      "Ġpudo": 4739,
      "Ġ124": 4740,
      "Ġrecogida": 4741,
      "Ġintra": 4742,
      "Ġdisminu": 4743,
      "fique": 4744,
      "Ġanuncio": 4745,
      "Ġejecutivo": 4746,
      "Ġsometido": 4747,
      "Ġfuente": 4748,
      "zz": 4749,
      "Ġtendran": 4750,
      "Ġrepercusiones": 4751,
      "Ġ127": 4752,
      "Ġcorrectamente": 4753,
      "Ġconsiderada": 4754,
      "Ġtrabajos": 4755,
      "dial": 4756,
      "Ġrestitucion": 4757,
      "Ġsuplemen": 4758,
      "Ġvue": 4759,
      "Ġrecuerda": 4760,
      "Ġdenominado": 4761,
      "ficiencia": 4762,
      "Ġbanc": 4763,
      "Ġdesempen": 4764,
      "Ġinstrumento": 4765,
      "Ġestaran": 4766,
      "tana": 4767,
      "Ġconstar": 4768,
      "Ġ120": 4769,
      "Ġpotencial": 4770,
      "Ġmus": 4771,
      "Ġhis": 4772,
      "Ġestimar": 4773,
      "sel": 4774,
      "Ġtelevision": 4775,
      "yug": 4776,
      "Ġmanifiesta": 4777,
      "Ġcorri": 4778,
      "Ġjuego": 4779,
      "pn": 4780,
      "Ġcontenidas": 4781,
      "Ġhomb": 4782,
      "Ġprevencion": 4783,
      "Ġrecip": 4784,
      "Ġalimentos": 4785,
      "Ġalli": 4786,
      "Ġacceder": 4787,
      "Ġdespropor": 4788,
      "Ġantecedentes": 4789,
      "Ġ1049": 4790,
      "Ġconfirma": 4791,
      "Ġpoderes": 4792,
      "deci": 4793,
      "Ġtelecomunic": 4794,
      "Ġaportar": 4795,
      "brio": 4796,
      "Ġdispositivo": 4797,
      "Ġcrea": 4798,
      "Ġcoop": 4799,
      "Ġaves": 4800,
      "Ġcompanias": 4801,
      "Ġreestructuracion": 4802,
      "Ġcolectivo": 4803,
      "Ġprestamos": 4804,
      "Ġdimen": 4805,
      "Ġanula": 4806,
      "Ġfraude": 4807,
      "Ġconyug": 4808,
      "Ġsimplemente": 4809,
      "Ġcomprobacion": 4810,
      "Ġcomposicion": 4811,
      "Ġpasivos": 4812,
      "Ġordenacion": 4813,
      "Ġ111": 4814,
      "Ġpromovido": 4815,
      "Ġimpar": 4816,
      "Ġsimilitud": 4817,
      "Ġforman": 4818,
      "Ġmos": 4819,
      "dedor": 4820,
      "Ġpriva": 4821,
      "Ġbasarse": 4822,
      "Ġcomprendidas": 4823,
      "Ġdesproporcion": 4824,
      "Ġpoblacion": 4825,
      "Ġpercepcion": 4826,
      "Ġtotalmente": 4827,
      "ak": 4828,
      "Ġredactado": 4829,
      "Ġconsiderable": 4830,
      "Ġretroac": 4831,
      "Ġensayos": 4832,
      "Ġph": 4833,
      "Ġejerce": 4834,
      "Ġarrendamiento": 4835,
      "Ġ143": 4836,
      "Ġinstituto": 4837,
      "dujo": 4838,
      "Ġdisu": 4839,
      "Ġdespido": 4840,
      "Ġsemej": 4841,
      "at": 4842,
      "Ġutilic": 4843,
      "Ġcompu": 4844,
      "Ġlimitada": 4845,
      "Ġfur": 4846,
      "Ġanterioridad": 4847,
      "eles": 4848,
      "Ġpromover": 4849,
      "Ġcontemplada": 4850,
      "Ġfabricantes": 4851,
      "Ġeco": 4852,
      "chaft": 4853,
      "Ġextin": 4854,
      "Ġair": 4855,
      "Ġsupues": 4856,
      "Ġplenamente": 4857,
      "orias": 4858,
      "Ġvinos": 4859,
      "Ġdada": 4860,
      "ducciones": 4861,
      "Ġentendera": 4862,
      "Ġextremo": 4863,
      "inos": 4864,
      "Ġsupuestamente": 4865,
      "waltungs": 4866,
      "Ġrealiza": 4867,
      "Ġapreciarse": 4868,
      "Ġcompensa": 4869,
      "Ġub": 4870,
      "Ġartifici": 4871,
      "ctos": 4872,
      "Ġcomen": 4873,
      "Ġestrec": 4874,
      "contra": 4875,
      "Ġexi": 4876,
      "ste": 4877,
      "accion": 4878,
      "izadas": 4879,
      "Ġalto": 4880,
      "Ġtardar": 4881,
      "Ġ133": 4882,
      "Ġpagado": 4883,
      "Ġmenciona": 4884,
      "Ġindebidamente": 4885,
      "Ġesf": 4886,
      "Ġprocedencia": 4887,
      "var": 4888,
      "Ġseguido": 4889,
      "ronter": 4890,
      "Ġpren": 4891,
      "Ġintermedi": 4892,
      "Ġaban": 4893,
      "Ġaereo": 4894,
      "Ġocta": 4895,
      "Ġbebidas": 4896,
      "Ġdiri": 4897,
      "int": 4898,
      "Ġsucede": 4899,
      "Ġ194": 4900,
      "su": 4901,
      "Ġapendice": 4902,
      "Ġfle": 4903,
      "Ġdefen": 4904,
      "Ġrecibido": 4905,
      "Ġnucle": 4906,
      "Ġcorreo": 4907,
      "Ġespecificamente": 4908,
      "Ġtransfronter": 4909,
      "Ġdivulgacion": 4910,
      "Ġaprue": 4911,
      "Ġhombres": 4912,
      "eria": 4913,
      "tres": 4914,
      "Ġbv": 4915,
      "Ġexisti": 4916,
      "Ġresponsables": 4917,
      "sk": 4918,
      "Ġ122": 4919,
      "Ġanimal": 4920,
      "Ġq": 4921,
      "Ġpronuncie": 4922,
      "Ġprecision": 4923,
      "Ġgeografica": 4924,
      "ertos": 4925,
      "Ġdefinir": 4926,
      "Ġ1976": 4927,
      "Ġantigu": 4928,
      "Ġaplique": 4929,
      "ivamente": 4930,
      "Ġurban": 4931,
      "Ġcontractuales": 4932,
      "Ġcotizaciones": 4933,
      "Ġenv": 4934,
      "Ġconting": 4935,
      "aste": 4936,
      "Ġtenian": 4937,
      "van": 4938,
      "Ġpeligro": 4939,
      "Ġexistia": 4940,
      "Ġanalizar": 4941,
      "Ġpleno": 4942,
      "Ġlenguas": 4943,
      "Ġprescri": 4944,
      "Ġderivado": 4945,
      "Ġturis": 4946,
      "Ġlingu": 4947,
      "Ġexistir": 4948,
      "illa": 4949,
      "Ġausencia": 4950,
      "Ġpuestos": 4951,
      "ismos": 4952,
      "Ġ500": 4953,
      "Ġvege": 4954,
      "39": 4955,
      "Ġformular": 4956,
      "Ġfalse": 4957,
      "Ġincurrido": 4958,
      "Ġprivados": 4959,
      "Ġcrear": 4960,
      "Ġvistas": 4961,
      "Ġabuso": 4962,
      "Ġrespuestas": 4963,
      "venciones": 4964,
      "Ġautonomia": 4965,
      "Ġcheca": 4966,
      "Ġunidades": 4967,
      "Ġextraordin": 4968,
      "Ġestablecimientos": 4969,
      "Ġdirigido": 4970,
      "Ġpostura": 4971,
      "Ġcombustible": 4972,
      "mental": 4973,
      "Ġclases": 4974,
      "Ġumb": 4975,
      "id": 4976,
      "Ġescrita": 4977,
      "Ġequipos": 4978,
      "Ġ230": 4979,
      "Ġeliminacion": 4980,
      "Ġmag": 4981,
      "Ġreduci": 4982,
      "Ġciertamente": 4983,
      "tive": 4984,
      "Ġautorizaciones": 4985,
      "Ġposee": 4986,
      "Ġcosa": 4987,
      "Ġescala": 4988,
      "Ġdetermina": 4989,
      "Ġasociaciones": 4990,
      "Ġexcepcional": 4991,
      "Ġproporcionar": 4992,
      "hr": 4993,
      "Ġreforma": 4994,
      "Ġtri": 4995,
      "Ġ226": 4996,
      "Ġsexto": 4997,
      "Ġciu": 4998,
      "Ġdisciplin": 4999,
      "Ġindirectamente": 5000,
      "Ġaca": 5001,
      "Ġexpiracion": 5002,
      "Ġmedicos": 5003,
      "Ġmex": 5004,
      "Ġ149": 5005,
      "its": 5006,
      "Ġposterioridad": 5007,
      "Ġactiva": 5008,
      "Ġ176": 5009,
      "yas": 5010,
      "Ġterritorial": 5011,
      "Ġautoriza": 5012,
      "taron": 5013,
      "Ġincidencia": 5014,
      "Ġtue": 5015,
      "Ġdop": 5016,
      "Ġdenegar": 5017,
      "Ġimpres": 5018,
      "Ġsalida": 5019,
      "nas": 5020,
      "Ġconcede": 5021,
      "Ġincorrec": 5022,
      "Ġnunca": 5023,
      "Ġsuponiendo": 5024,
      "Ġvivienda": 5025,
      "Ġincidente": 5026,
      "Ġposteriores": 5027,
      "ken": 5028,
      "Ġlimitaciones": 5029,
      "Ġact": 5030,
      "ciente": 5031,
      "ines": 5032,
      "Ġvigencia": 5033,
      "entos": 5034,
      "Ġsostienen": 5035,
      "Ġcumplido": 5036,
      "Ñģ": 5037,
      "Ġautorizados": 5038,
      "Ġentiende": 5039,
      "Ġcontienen": 5040,
      "Ġinteresadas": 5041,
      "Ġfundamentalmente": 5042,
      "Ġparis": 5043,
      "Ġentregas": 5044,
      "Ġespecie": 5045,
      "Ġambitos": 5046,
      "Ġ148": 5047,
      "Ġcober": 5048,
      "Ġtasas": 5049,
      "Ġcontemplado": 5050,
      "Ġrefor": 5051,
      "oni": 5052,
      "Ġcoe": 5053,
      "sidad": 5054,
      "Ġpola": 5055,
      "Ġregulan": 5056,
      "Ġcoinci": 5057,
      "Ġdeterminante": 5058,
      "Ġarchivo": 5059,
      "Ġperfec": 5060,
      "Ġreplica": 5061,
      "Ġdetencion": 5062,
      "Ġpresion": 5063,
      "Ġdesna": 5064,
      "ity": 5065,
      "gb": 5066,
      "Ġcontrolar": 5067,
      "Ġiniciativa": 5068,
      "ez": 5069,
      "Ġveter": 5070,
      "Ġamer": 5071,
      "ben": 5072,
      "Ġafirmativa": 5073,
      "Ġadmision": 5074,
      "Ġgr": 5075,
      "Ġste": 5076,
      "Ġfirmado": 5077,
      "Ġofreci": 5078,
      "Ġverificacion": 5079,
      "Ġcertificacion": 5080,
      "Ġidentificar": 5081,
      "Ġoportunidad": 5082,
      "Ġproposi": 5083,
      "Ġtelecomunicaciones": 5084,
      "ala": 5085,
      "Ġnorue": 5086,
      "27": 5087,
      "Ġconci": 5088,
      "taba": 5089,
      "ea": 5090,
      "Ġfuturo": 5091,
      "Ġdesestimacion": 5092,
      "ments": 5093,
      "cher": 5094,
      "Ġdemuestra": 5095,
      "orio": 5096,
      "Ġmor": 5097,
      "dif": 5098,
      "Ġsubraya": 5099,
      "Ġpenales": 5100,
      "Ġiniciar": 5101,
      "Ġvigentes": 5102,
      "Ġderoga": 5103,
      "Ġprestar": 5104,
      "Ġfundada": 5105,
      "tie": 5106,
      "trados": 5107,
      "Ġprecisar": 5108,
      "pol": 5109,
      "Ġpresupues": 5110,
      "Ġinmuebles": 5111,
      "Ġalegar": 5112,
      "Ġlucha": 5113,
      "Ġalber": 5114,
      "Ġconsiderados": 5115,
      "Ġccp": 5116,
      "Ġutiliza": 5117,
      "Ġdenominativa": 5118,
      "Ġplas": 5119,
      "Ġcapaci": 5120,
      "Ġversiones": 5121,
      "Ġdemo": 5122,
      "Ġmunicipal": 5123,
      "rante": 5124,
      "Ġdin": 5125,
      "Ġindirecta": 5126,
      "izon": 5127,
      "Ġniega": 5128,
      "Ġocasiones": 5129,
      "Ġgratu": 5130,
      "Ġ150": 5131,
      "Ġunidas": 5132,
      "Ġveterin": 5133,
      "dique": 5134,
      "Ġhaga": 5135,
      "Ġdelimi": 5136,
      "Ġ156": 5137,
      "Ġcere": 5138,
      "Ġprocesos": 5139,
      "Ġaprecia": 5140,
      "zione": 5141,
      "Ġ175": 5142,
      "Ġjefe": 5143,
      "Ġintracomun": 5144,
      "Ġfuentes": 5145,
      "ii": 5146,
      "Ġaeropu": 5147,
      "Ġ121": 5148,
      "Ġ130": 5149,
      "Ġfiliales": 5150,
      "Ġinsolv": 5151,
      "Ġsesion": 5152,
      "Ġacero": 5153,
      "Ä±a": 5154,
      "iel": 5155,
      "Ġirregularidades": 5156,
      "udo": 5157,
      "Ġvelar": 5158,
      "sor": 5159,
      "Ġensenanza": 5160,
      "Ġay": 5161,
      "itaria": 5162,
      "Ġ132": 5163,
      "Ġgan": 5164,
      "Ġpeligros": 5165,
      "Ġcentr": 5166,
      "Ġrecaudacion": 5167,
      "Ġinfundado": 5168,
      "Ġarts": 5169,
      "Ġevaluar": 5170,
      "Ġprocedente": 5171,
      "Ġplatan": 5172,
      "Ġextranjeros": 5173,
      "Ġretraso": 5174,
      "rado": 5175,
      "Ġsiquiera": 5176,
      "Ġreve": 5177,
      "dario": 5178,
      "una": 5179,
      "Ġcompania": 5180,
      "Ġtej": 5181,
      "Ġhar": 5182,
      "Ġcoopera": 5183,
      "Ġpesc": 5184,
      "Ġ128": 5185,
      "ep": 5186,
      "Ġalzado": 5187,
      "Ġalmacenamiento": 5188,
      "Ġdedic": 5189,
      "Ġdeposito": 5190,
      "Ġvon": 5191,
      "Ġconceptos": 5192,
      "dria": 5193,
      "Ġasilo": 5194,
      "Ġrub": 5195,
      "Ġtodavia": 5196,
      "Ġdisponibles": 5197,
      "Ġhorizon": 5198,
      "Ġintegracion": 5199,
      "lea": 5200,
      "lante": 5201,
      "Ġjus": 5202,
      "Ġasimi": 5203,
      "Ġdelito": 5204,
      "Ġautomoviles": 5205,
      "Ġabar": 5206,
      "ation": 5207,
      "Ġactivo": 5208,
      "Ġpersigue": 5209,
      "Ġprestados": 5210,
      "Ġdomicili": 5211,
      "Ġpoco": 5212,
      "ell": 5213,
      "Ġrecepcion": 5214,
      "dez": 5215,
      "Ġmucho": 5216,
      "ficio": 5217,
      "Ġacreditado": 5218,
      "cte": 5219,
      "Ġobjetiva": 5220,
      "Ġcomunicar": 5221,
      "arial": 5222,
      "Ġfamiliares": 5223,
      "Ġcobertura": 5224,
      "Ġby": 5225,
      "Ġeduca": 5226,
      "Ġdesarrollar": 5227,
      "Ġconcretas": 5228,
      "Ġinformar": 5229,
      "Ġagre": 5230,
      "Ġeslova": 5231,
      "Ġsalario": 5232,
      "ÏĦ": 5233,
      "Ġinmueble": 5234,
      "logico": 5235,
      "Ġadmisible": 5236,
      "Ġnomen": 5237,
      "Ġproceda": 5238,
      "Ġmecanismos": 5239,
      "Ġdiligencia": 5240,
      "Ġsuperiores": 5241,
      "Ġclave": 5242,
      "lico": 5243,
      "Ġinj": 5244,
      "Ġacab": 5245,
      "Ġenvases": 5246,
      "Ġcomien": 5247,
      "icamente": 5248,
      "Ġ208": 5249,
      "Ġpop": 5250,
      "Ġtrataba": 5251,
      "Ġesc": 5252,
      "Ġreglamentacion": 5253,
      "endose": 5254,
      "Ġnomencla": 5255,
      "Ġeuropean": 5256,
      "Ġ141": 5257,
      "Ġrealmente": 5258,
      "Ġ1975": 5259,
      "Ġuniversal": 5260,
      "bir": 5261,
      "Ġimportados": 5262,
      "Ġacumulacion": 5263,
      "Ġindispens": 5264,
      "Ġ158": 5265,
      "Ġindependientemente": 5266,
      "erta": 5267,
      "Ġbaso": 5268,
      "Ġnaciones": 5269,
      "torno": 5270,
      "Ġaustriaco": 5271,
      "Ġlitu": 5272,
      "Ġáĥ": 5273,
      "Ġexhaus": 5274,
      "Ġdeban": 5275,
      "Ġruman": 5276,
      "Ġoficiales": 5277,
      "Ġcierta": 5278,
      "Ġpudieran": 5279,
      "Ġconexion": 5280,
      "sch": 5281,
      "Ġsocios": 5282,
      "Ġhabitats": 5283,
      "Ġaux": 5284,
      "Ġsitio": 5285,
      "dres": 5286,
      "Ġcosas": 5287,
      "Ġautorizar": 5288,
      "Ġdistancia": 5289,
      "Ġmartin": 5290,
      "Ġofrecer": 5291,
      "Ġsuministr": 5292,
      "Ġapreciaciones": 5293,
      "und": 5294,
      "Ġgarantiza": 5295,
      "Ġequipo": 5296,
      "Ġsenor": 5297,
      "tirse": 5298,
      "Ġfinancia": 5299,
      "Ġdirigidas": 5300,
      "Ġreproduccion": 5301,
      "Ġpaso": 5302,
      "Ġtributacion": 5303,
      "Ġprobable": 5304,
      "Ġlis": 5305,
      "Ġroma": 5306,
      "Ġbaja": 5307,
      "Ġimpugnar": 5308,
      "Ġdisponia": 5309,
      "Ġexenta": 5310,
      "Ġgrandes": 5311,
      "lis": 5312,
      "ws": 5313,
      "oro": 5314,
      "Ġcomunicado": 5315,
      "Ġniveles": 5316,
      "Ġveces": 5317,
      "Ġ155": 5318,
      "Ġib": 5319,
      "Ġidenticos": 5320,
      "Ġ157": 5321,
      "drid": 5322,
      "ĠÕ": 5323,
      "the": 5324,
      "Ġexcepcionales": 5325,
      "Ġsexo": 5326,
      "Ġinvi": 5327,
      "Ġfoto": 5328,
      "Ġregiones": 5329,
      "Ġinsuficiente": 5330,
      "Ġtransfer": 5331,
      "Ġproba": 5332,
      "Ġ204": 5333,
      "Ġadecuadas": 5334,
      "Ġimper": 5335,
      "Ġcondenada": 5336,
      "Ġsubvenciones": 5337,
      "Ġimputa": 5338,
      "dira": 5339,
      "Ġhubiese": 5340,
      "Ġ187": 5341,
      "Ġcese": 5342,
      "Ġerroneamente": 5343,
      "Ġdepartamento": 5344,
      "Ġvein": 5345,
      "bank": 5346,
      "Ġdisponen": 5347,
      "iro": 5348,
      "Ġpros": 5349,
      "Ġcampana": 5350,
      "Ġenfo": 5351,
      "Ġcomprador": 5352,
      "Ġarchiv": 5353,
      "ple": 5354,
      "Ġkon": 5355,
      "iciones": 5356,
      "Ġsimul": 5357,
      "Ġorientacion": 5358,
      "Ġmanu": 5359,
      "Ġreba": 5360,
      "Ġbol": 5361,
      "Ġdesviacion": 5362,
      "Ġhumano": 5363,
      "Ġnegociaciones": 5364,
      "Ġdescon": 5365,
      "Ġdefinido": 5366,
      "Ġexportaciones": 5367,
      "Ġimportador": 5368,
      "Ġpequen": 5369,
      "Ġconge": 5370,
      "Ġquedar": 5371,
      "Ġmejora": 5372,
      "Ġimpera": 5373,
      "Ġobstaculo": 5374,
      "Ġabandon": 5375,
      "Ġacp": 5376,
      "Ġcolaboracion": 5377,
      "Ġhumana": 5378,
      "Ġterreno": 5379,
      "Ġalgo": 5380,
      "Ġposesion": 5381,
      "uris": 5382,
      "Ġreproch": 5383,
      "Ġacreditar": 5384,
      "Ġlistas": 5385,
      "Ġaplicabilidad": 5386,
      "Ġcontaminacion": 5387,
      "tant": 5388,
      "Ġprohibir": 5389,
      "Ġexpone": 5390,
      "Ġafpn": 5391,
      "Ġinstrucciones": 5392,
      "Ġ131": 5393,
      "Ġestip": 5394,
      "Ġnomenclatura": 5395,
      "Ġholding": 5396,
      "Ġhom": 5397,
      "Ġtareas": 5398,
      "Ġconstituia": 5399,
      "Ġinterposicion": 5400,
      "tistas": 5401,
      "Ġexclusivo": 5402,
      "clo": 5403,
      "Ġnombramiento": 5404,
      "Ġrealizados": 5405,
      "Ġ184": 5406,
      "Ġintroduci": 5407,
      "Ġasesor": 5408,
      "Ġmadrid": 5409,
      "Ġasamb": 5410,
      "Ġanadir": 5411,
      "uni": 5412,
      "Ġhijo": 5413,
      "Ġquedan": 5414,
      "Ġlugares": 5415,
      "Ġconviene": 5416,
      "Ġtextos": 5417,
      "Ġoriginarias": 5418,
      "Ġusuario": 5419,
      "Ġinsolvencia": 5420,
      "Ġestatutos": 5421,
      "Ġtransaccion": 5422,
      "Ġpura": 5423,
      "Ġdestinatarios": 5424,
      "dem": 5425,
      "Ġconocimientos": 5426,
      "ut": 5427,
      "Ġfas": 5428,
      "form": 5429,
      "Ġfibras": 5430,
      "Ġenerge": 5431,
      "Ġrelevante": 5432,
      "Ġequilibrio": 5433,
      "Ġhonor": 5434,
      "jera": 5435,
      "ona": 5436,
      "iados": 5437,
      "Ġqued": 5438,
      "Ġvincul": 5439,
      "Ġ147": 5440,
      "Ġprec": 5441,
      "Ġblo": 5442,
      "Ġexpul": 5443,
      "Ġprever": 5444,
      "Ġefectuarse": 5445,
      "Ġresto": 5446,
      "Ġabonar": 5447,
      "ciacion": 5448,
      "Ġsimultane": 5449,
      "Ġafectan": 5450,
      "dieron": 5451,
      "Ġtarje": 5452,
      "Ġcontenidos": 5453,
      "Ġempleado": 5454,
      "Ġparticularmente": 5455,
      "Ġprobar": 5456,
      "yer": 5457,
      "Ġhabili": 5458,
      "rez": 5459,
      "Ġoli": 5460,
      "Ġhalla": 5461,
      "Ġestablezca": 5462,
      "Ġnormativo": 5463,
      "31": 5464,
      "hn": 5465,
      "Ġcalificarse": 5466,
      "Ġhacerlo": 5467,
      "lia": 5468,
      "Ġimagen": 5469,
      "ij": 5470,
      "Ġexplici": 5471,
      "Ġalqui": 5472,
      "Ġak": 5473,
      "vocar": 5474,
      "Ġcm": 5475,
      "Ġresponda": 5476,
      "Ġadaptar": 5477,
      "istica": 5478,
      "Ġmejorar": 5479,
      "Ġlograr": 5480,
      "Ġradiodif": 5481,
      "terales": 5482,
      "Ġresultan": 5483,
      "rarse": 5484,
      "Ġaire": 5485,
      "Ġcomparables": 5486,
      "Ġprimas": 5487,
      "Ġperspec": 5488,
      "Ġelectric": 5489,
      "Ġciudad": 5490,
      "Ġnoruega": 5491,
      "Ġenumerados": 5492,
      "Ġais": 5493,
      "tora": 5494,
      "Ġimposi": 5495,
      "Ġsecun": 5496,
      "Ġexpedido": 5497,
      "Ġrealizarse": 5498,
      "tativo": 5499,
      "garia": 5500,
      "Ġjustificado": 5501,
      "Ġmunicipio": 5502,
      "Ġampliacion": 5503,
      "Ġcontempla": 5504,
      "Ġhipote": 5505,
      "Ġaportacion": 5506,
      "Ġdesemple": 5507,
      "Ġcotizacion": 5508,
      "Ġjuegos": 5509,
      "Ġmenores": 5510,
      "Ġplano": 5511,
      "logica": 5512,
      "Î½": 5513,
      "Ġpercibir": 5514,
      "Ġrendimientos": 5515,
      "Ġinmo": 5516,
      "Ġmantiene": 5517,
      "Ġdesvir": 5518,
      "od": 5519,
      "Ġ$": 5520,
      "Ġterritorios": 5521,
      "Ġmovi": 5522,
      "Ġcanon": 5523,
      "Ġposteriori": 5524,
      "Ġindependientes": 5525,
      "entar": 5526,
      "hts": 5527,
      "28": 5528,
      "del": 5529,
      "Ġinformado": 5530,
      "Ġpasajeros": 5531,
      "Ġejecutar": 5532,
      "Ġmeta": 5533,
      "Ġbank": 5534,
      "Ġequivalentes": 5535,
      "Ġquedado": 5536,
      "Ġrespectivos": 5537,
      "Ġseno": 5538,
      "Ġpolicia": 5539,
      "Ġrespectivas": 5540,
      "tible": 5541,
      "Ġwil": 5542,
      "Ġdoctr": 5543,
      "Ġsras": 5544,
      "Ġdefici": 5545,
      "Ġderivada": 5546,
      "tina": 5547,
      "Ġnotificada": 5548,
      "Ġfom": 5549,
      "Ġcolor": 5550,
      "Ġbases": 5551,
      "Ġhacerse": 5552,
      "Ġminimos": 5553,
      "mil": 5554,
      "Ġvalida": 5555,
      "Ġconjunta": 5556,
      "Ġhospi": 5557,
      "eck": 5558,
      "Ġresultar": 5559,
      "Ġcausas": 5560,
      "Ġtributario": 5561,
      "Ġviaje": 5562,
      "Ġsk": 5563,
      "Ġofrece": 5564,
      "Ġadministradora": 5565,
      "Ġsustitucion": 5566,
      "Ġvias": 5567,
      "Ġ215": 5568,
      "Ġdesvirtu": 5569,
      "mission": 5570,
      "Ġmundial": 5571,
      "Ġbos": 5572,
      "Ġcontrovers": 5573,
      "Ġreales": 5574,
      "Ġneder": 5575,
      "Ġexigidos": 5576,
      "Ġcarrera": 5577,
      "Ġ144": 5578,
      "Ġ1968": 5579,
      "mic": 5580,
      "Ġpetro": 5581,
      "Ġreciente": 5582,
      "Ġdiscrecional": 5583,
      "Ġfijo": 5584,
      "Ġreducido": 5585,
      "Ġalimenticios": 5586,
      "Ġcubiertos": 5587,
      "Ġenter": 5588,
      "mber": 5589,
      "Ġ190": 5590,
      "Ġ166": 5591,
      "Ġcorresponden": 5592,
      "Ġprimeros": 5593,
      "Ġcomparable": 5594,
      "Ġexpon": 5595,
      "Ġinvestigaciones": 5596,
      "Ġ168": 5597,
      "Ġparecer": 5598,
      "Ġbancos": 5599,
      "Ġincen": 5600,
      "Ġlibremente": 5601,
      "Ġef": 5602,
      "Ġbeneficiarse": 5603,
      "Ġtempera": 5604,
      "Ġfirme": 5605,
      "Ġalimentacion": 5606,
      "Ġaceite": 5607,
      "Ġcargas": 5608,
      "Ġtendria": 5609,
      "alo": 5610,
      "orios": 5611,
      "Ġcomerci": 5612,
      "Ġadver": 5613,
      "Ġ146": 5614,
      "Ġadministraciones": 5615,
      "Ġirregularidad": 5616,
      "Ġotorga": 5617,
      "Ġdelitos": 5618,
      "ster": 5619,
      "Ġ1971": 5620,
      "idores": 5621,
      "Ġcuyas": 5622,
      "Ġobjetivamente": 5623,
      "Ġejercitar": 5624,
      "Ġinteresada": 5625,
      "Ġrefug": 5626,
      "Ġdesignados": 5627,
      "han": 5628,
      "Ġbasados": 5629,
      "Ġprorroga": 5630,
      "Ġcreo": 5631,
      "ux": 5632,
      "Ġautorizada": 5633,
      "Ġextension": 5634,
      "Ġbreve": 5635,
      "ficas": 5636,
      "Ġbritan": 5637,
      "Ġindicios": 5638,
      "Ġrazonablemente": 5639,
      "Ġaeron": 5640,
      "Ġsometidos": 5641,
      "Ġdiluci": 5642,
      "Ġuniversidad": 5643,
      "Ġlimitarse": 5644,
      "Ġarea": 5645,
      "Ġrelie": 5646,
      "ecer": 5647,
      "Ġagra": 5648,
      "Ġfrutas": 5649,
      "Ġresponde": 5650,
      "ise": 5651,
      "Ġfil": 5652,
      "Ġpueb": 5653,
      "Ġplatanos": 5654,
      "Ġtempor": 5655,
      "Ġjose": 5656,
      "Ġconsultas": 5657,
      "Ġdistor": 5658,
      "Ġminor": 5659,
      "Ġeura": 5660,
      "Ġ140": 5661,
      "Ġmoral": 5662,
      "Ġadelante": 5663,
      "break": 5664,
      "Ġfijados": 5665,
      "Ġpropietario": 5666,
      "mentales": 5667,
      "Ġraad": 5668,
      "Ġcontribuir": 5669,
      "acciones": 5670,
      "deros": 5671,
      "Ġdemocra": 5672,
      "Ġaceptar": 5673,
      "Ġ258": 5674,
      "Ġarbitr": 5675,
      "Ġvinculante": 5676,
      "Ġgroup": 5677,
      "Ġbila": 5678,
      "Ġocho": 5679,
      "Ġhun": 5680,
      "Ġwi": 5681,
      "ural": 5682,
      "Ġfirmas": 5683,
      "Ġconduccion": 5684,
      "Ġcobro": 5685,
      "Ġefectividad": 5686,
      "Ġnave": 5687,
      "gesetz": 5688,
      "dico": 5689,
      "Ġcion": 5690,
      "Ġaportado": 5691,
      "Ġreprocha": 5692,
      "Ġenfoque": 5693,
      "Ġ167": 5694,
      "Ġben": 5695,
      "Ġexpuestos": 5696,
      "Ġlaborales": 5697,
      "Ġurgencia": 5698,
      "nan": 5699,
      "Ġayunta": 5700,
      "Ġimpugnadas": 5701,
      "Ġseguimiento": 5702,
      "Ġcereales": 5703,
      "Ġconsolidar": 5704,
      "Ġconcili": 5705,
      "Ġproposito": 5706,
      "Ġhacen": 5707,
      "Ġimplici": 5708,
      "Ġradiodifusion": 5709,
      "ror": 5710,
      "Ġdenie": 5711,
      "Ġcircular": 5712,
      "dorf": 5713,
      "ires": 5714,
      "Ġoido": 5715,
      "Ġmonopo": 5716,
      "icen": 5717,
      "Ġcubrir": 5718,
      "Ġbra": 5719,
      "Ġrap": 5720,
      "Ġparale": 5721,
      "Ġsubrayado": 5722,
      "Ġconcluyo": 5723,
      "Ġcance": 5724,
      "Ġrelieve": 5725,
      "Ġaceptacion": 5726,
      "Ġatribucion": 5727,
      "Ġdeberian": 5728,
      "Ġasso": 5729,
      "Ġtransitorio": 5730,
      "Ġenumer": 5731,
      "Ġcambios": 5732,
      "Ġconcretos": 5733,
      "Ġnumer": 5734,
      "ane": 5735,
      "Ġ205": 5736,
      "Ġformulados": 5737,
      "Ġmandato": 5738,
      "Ġnational": 5739,
      "Ġeuratom": 5740,
      "Ġ245": 5741,
      "35": 5742,
      "Ġprecepto": 5743,
      "Ġpiezas": 5744,
      "Ġsuplemento": 5745,
      "lor": 5746,
      "Ġdefinitivamente": 5747,
      "Ġadoptarse": 5748,
      "Ġfinanz": 5749,
      "Ġvinculadas": 5750,
      "Ġasamblea": 5751,
      "Ġdoce": 5752,
      "Ġdesnatural": 5753,
      "Ġsimpli": 5754,
      "Ġrevoc": 5755,
      "Ġplanteo": 5756,
      "Ġrepe": 5757,
      "Ġesco": 5758,
      "Ġexento": 5759,
      "Ġjuridique": 5760,
      "Ġdecimo": 5761,
      "elc": 5762,
      "Ġcifras": 5763,
      "Ġocurre": 5764,
      "Ġ209": 5765,
      "Ġvelo": 5766,
      "Ġresumen": 5767,
      "usieron": 5768,
      "Ġ142": 5769,
      "Ġaccionistas": 5770,
      "Ġcontacto": 5771,
      "Ġ154": 5772,
      "Ġseparado": 5773,
      "Ġrein": 5774,
      "Ġpresentaron": 5775,
      "Ġauditoria": 5776,
      "Ġverse": 5777,
      "Ġinternos": 5778,
      "anz": 5779,
      "Ġmatrimon": 5780,
      "dam": 5781,
      "Ġfeoga": 5782,
      "Ġadopte": 5783,
      "Ġsar": 5784,
      "Ġhacienda": 5785,
      "ik": 5786,
      "ind": 5787,
      "Ġtech": 5788,
      "urs": 5789,
      "Ġciclo": 5790,
      "Ġreferidas": 5791,
      "Ġneerlandesa": 5792,
      "Ġetiquetado": 5793,
      "bur": 5794,
      "inal": 5795,
      "Ġdisponga": 5796,
      "tativas": 5797,
      "Ġdipl": 5798,
      "Ġlineas": 5799,
      "Ġdibujo": 5800,
      "Ġesca": 5801,
      "Ġcrisis": 5802,
      "rales": 5803,
      "Ġafirmo": 5804,
      "cro": 5805,
      "Ġdeja": 5806,
      "Ġemis": 5807,
      "fos": 5808,
      "cina": 5809,
      "Ġcamara": 5810,
      "Ġalego": 5811,
      "Ġestablecio": 5812,
      "Ġvinculados": 5813,
      "Ġfic": 5814,
      "Ġeliminar": 5815,
      "Ġabaste": 5816,
      "Ġcruz": 5817,
      "Ġincluyen": 5818,
      "Ġaplico": 5819,
      "Ġestrecha": 5820,
      "Ġreferia": 5821,
      "Ġdisponible": 5822,
      "Ġbulgaria": 5823,
      "Ġfueran": 5824,
      "Ġdesea": 5825,
      "Ġcolectiva": 5826,
      "Ġ239": 5827,
      "Ġdiscute": 5828,
      "Ġrecipro": 5829,
      "Ġajuste": 5830,
      "Ġmem": 5831,
      "Ġaa": 5832,
      "Ġusos": 5833,
      "ot": 5834,
      "Ġcelebrar": 5835,
      "Ġesfuer": 5836,
      "Ġfacultada": 5837,
      "tter": 5838,
      "tosan": 5839,
      "Ġcorresponda": 5840,
      "Ġ337": 5841,
      "Ġllego": 5842,
      "Ġrepu": 5843,
      "Ġ1972": 5844,
      "Ġimportant": 5845,
      "Ġsustituir": 5846,
      "Ġtamano": 5847,
      "Ġ217": 5848,
      "Ġ220": 5849,
      "Ġgases": 5850,
      "Ġidentica": 5851,
      "Ġdetallada": 5852,
      "bos": 5853,
      "Ġutilizada": 5854,
      "Ġidentico": 5855,
      "Ġsum": 5856,
      "Ġmenoscab": 5857,
      "zacion": 5858,
      "Ġuk": 5859,
      "Ġaduanas": 5860,
      "Ġaumentar": 5861,
      "Ġexaminarse": 5862,
      "Ġinformo": 5863,
      "Ġprivi": 5864,
      "ungs": 5865,
      "Ġprecedentes": 5866,
      "Ġ165": 5867,
      "Ġfronteras": 5868,
      "65": 5869,
      "zarse": 5870,
      "Ġversa": 5871,
      "Îµ": 5872,
      "garse": 5873,
      "Ġprevision": 5874,
      "Ġlogica": 5875,
      "Ġrumania": 5876,
      "Ġfitosan": 5877,
      "Ġaportaciones": 5878,
      "Ġcumpla": 5879,
      "Ġdoctrina": 5880,
      "Ġ180": 5881,
      "Ġhistor": 5882,
      "Ġplanteado": 5883,
      "Ġjur": 5884,
      "Ġcontengan": 5885,
      "Ġ152": 5886,
      "Ġ188": 5887,
      "Ġsoportado": 5888,
      "Ġrealice": 5889,
      "Ġtramite": 5890,
      "Ġpresentan": 5891,
      "Ġsituado": 5892,
      "Ġmedioambiental": 5893,
      "Ġarchivar": 5894,
      "Ġnormales": 5895,
      "Ġadoptara": 5896,
      "Ġcasi": 5897,
      "Ġreferirse": 5898,
      "Ġprestador": 5899,
      "Ġmadera": 5900,
      "Ġexenciones": 5901,
      "Ġpeticiones": 5902,
      "Ġjan": 5903,
      "gio": 5904,
      "Ġ174": 5905,
      "Ġsuelo": 5906,
      "Ġfraccion": 5907,
      "Ġentrar": 5908,
      "Ġcualific": 5909,
      "Ġlabora": 5910,
      "Ġrestringir": 5911,
      "Ġverwaltungs": 5912,
      "Ġordena": 5913,
      "Ġencargado": 5914,
      "Ġprivileg": 5915,
      "Ġauxili": 5916,
      "37": 5917,
      "Ġtramitacion": 5918,
      "Ġconseguir": 5919,
      "Ġdejar": 5920,
      "Ġentro": 5921,
      "Ġorales": 5922,
      "Ġsimplific": 5923,
      "ats": 5924,
      "Ġbasadas": 5925,
      "let": 5926,
      "Ġclaridad": 5927,
      "Ġmeramente": 5928,
      "piri": 5929,
      "ches": 5930,
      "Ġterror": 5931,
      "Ġformulario": 5932,
      "Ġsanitaria": 5933,
      "Ġatribuye": 5934,
      "Ġsucur": 5935,
      "Ġpopular": 5936,
      "Ġdelib": 5937,
      "Ġopcion": 5938,
      "Ġchina": 5939,
      "Ġdisuas": 5940,
      "Ġcontrarias": 5941,
      "Ġcuer": 5942,
      "ique": 5943,
      "Ġiran": 5944,
      "Ġaprueba": 5945,
      "Ġmasa": 5946,
      "Ġassocia": 5947,
      "Ġninguno": 5948,
      "Ġsuscep": 5949,
      "Ġrectific": 5950,
      "Ġadquiri": 5951,
      "Ġvene": 5952,
      "Ġconyuge": 5953,
      "30": 5954,
      "ices": 5955,
      "lizas": 5956,
      "Ġjapon": 5957,
      "Ġinfraestructura": 5958,
      "Ġfacil": 5959,
      "tizacion": 5960,
      "Ġhabrian": 5961,
      "Ġabusiva": 5962,
      "Ġferrovi": 5963,
      "Ġ250": 5964,
      "iria": 5965,
      "Ġpublicara": 5966,
      "Ġconfigu": 5967,
      "Ġaelc": 5968,
      "Ġdinero": 5969,
      "lamen": 5970,
      "Ð²": 5971,
      "Ġestancia": 5972,
      "Ġobstaculos": 5973,
      "san": 5974,
      "fia": 5975,
      "Ġoportuno": 5976,
      "Ġsrl": 5977,
      "Ġlectura": 5978,
      "Ġcoadyuvantes": 5979,
      "Ġ185": 5980,
      "Ġsocio": 5981,
      "stein": 5982,
      "Ġagrup": 5983,
      "Ġparticipado": 5984,
      "Ġadquirir": 5985,
      "Ġtomarse": 5986,
      "sto": 5987,
      "Ġexpulsion": 5988,
      "Ġ218": 5989,
      "Ġadmite": 5990,
      "Ġascen": 5991,
      "Ġfigurativa": 5992,
      "op": 5993,
      "Ġnegociacion": 5994,
      "Ġderivan": 5995,
      "Ġlegitimo": 5996,
      "Ġencuentre": 5997,
      "Ġrestituciones": 5998,
      "uta": 5999,
      "Ġexamino": 6000,
      "Ġnotificado": 6001,
      "ses": 6002,
      "Ġinfringido": 6003,
      "chen": 6004,
      "Ġejercido": 6005,
      "plica": 6006,
      "Ġpec": 6007,
      "Ġconfirmo": 6008,
      "Ġelectronicas": 6009,
      "26": 6010,
      "Ġcausado": 6011,
      "Ġ160": 6012,
      "Ġ228": 6013,
      "Ġfores": 6014,
      "Ġcomplementaria": 6015,
      "Ġformulo": 6016,
      "Ġintegridad": 6017,
      "Ġ1974": 6018,
      "Ġtemperatura": 6019,
      "Ġaduce": 6020,
      "Ġrequerido": 6021,
      "Ġjorn": 6022,
      "Ġadolec": 6023,
      "Ġdesempleo": 6024,
      "lle": 6025,
      "Ġexteriores": 6026,
      "Ġneto": 6027,
      "Ġinaplic": 6028,
      "Ġapliquen": 6029,
      "Ġrob": 6030,
      "Ġmaria": 6031,
      "Ġaplicando": 6032,
      "Ġfamilias": 6033,
      "Ġdeducirse": 6034,
      "Ġgriego": 6035,
      "Ġran": 6036,
      "lizacion": 6037,
      "Ġaceites": 6038,
      "Ġviajes": 6039,
      "dt": 6040,
      "Ġ400": 6041,
      "Ġwith": 6042,
      "Ġ151": 6043,
      "Ġinstruccion": 6044,
      "Ġinterpretado": 6045,
      "Ġconstitucionales": 6046,
      "pal": 6047,
      "Ġfundado": 6048,
      "Ġducado": 6049,
      "Ġautorizadas": 6050,
      "Ġampliada": 6051,
      "91": 6052,
      "Ġcolomb": 6053,
      "Ġdispositivos": 6054,
      "Ġpasado": 6055,
      "Ġcontar": 6056,
      "Ġign": 6057,
      "Ġalegando": 6058,
      "gerichtshof": 6059,
      "cao": 6060,
      "Ġiso": 6061,
      "Ġaconte": 6062,
      "Ġreferidos": 6063,
      "Ġago": 6064,
      "90": 6065,
      "Ġaproximadamente": 6066,
      "Ġ171": 6067,
      "Ġprivadas": 6068,
      "Ġesloven": 6069,
      "ĠÂ±": 6070,
      "Ġirlandes": 6071,
      "Ġultimas": 6072,
      "Ġcro": 6073,
      "Ġ335": 6074,
      "chos": 6075,
      "Ġpatentes": 6076,
      "Ġimposibilidad": 6077,
      "Ġbro": 6078,
      "Ġcita": 6079,
      "Ġpropiedades": 6080,
      "Ġvalorar": 6081,
      "dena": 6082,
      "Ġcometio": 6083,
      "dran": 6084,
      "Ġvoto": 6085,
      "Ġunila": 6086,
      "Ġadeuda": 6087,
      "Ġindustriales": 6088,
      "Ġinmediata": 6089,
      "Ġmatricula": 6090,
      "Ġconstituida": 6091,
      "Ġregionales": 6092,
      "leo": 6093,
      "Ġcorrob": 6094,
      "misibles": 6095,
      "Ġsiete": 6096,
      "Ġllevado": 6097,
      "Ġcedh": 6098,
      "Ġobservancia": 6099,
      "Ġimputaciones": 6100,
      "Ġsemejante": 6101,
      "Ġfases": 6102,
      "rump": 6103,
      "Ġsolicitan": 6104,
      "Ġps": 6105,
      "Ġtarifa": 6106,
      "Ġcerv": 6107,
      "45": 6108,
      "Ġsubsidiaria": 6109,
      "Ġbil": 6110,
      "Ġdeclarada": 6111,
      "Ġregulado": 6112,
      "Ġdr": 6113,
      "Ġdeclararse": 6114,
      "Ġ261": 6115,
      "Ġexaminado": 6116,
      "Ġdeterminarse": 6117,
      "Ġresultantes": 6118,
      "vieran": 6119,
      "Ïģ": 6120,
      "Ġperseguidos": 6121,
      "Ġcel": 6122,
      "Ġdesignado": 6123,
      "Ġpropone": 6124,
      "Ġ236": 6125,
      "Ġdistr": 6126,
      "elles": 6127,
      "uela": 6128,
      "Ġparame": 6129,
      "Ġminer": 6130,
      "Ġomc": 6131,
      "df": 6132,
      "diera": 6133,
      "Ġextranjer": 6134,
      "Ġbruto": 6135,
      "Ġinmun": 6136,
      "Ġbretana": 6137,
      "nidad": 6138,
      "Ġsignificado": 6139,
      "Ġhigh": 6140,
      "Ġrenovacion": 6141,
      "Ġpotes": 6142,
      "Ġdescrip": 6143,
      "Ġarancelaria": 6144,
      "Ġconductor": 6145,
      "Ġocupa": 6146,
      "cacion": 6147,
      "Ġantiguo": 6148,
      "Ġtribunale": 6149,
      "Ġsys": 6150,
      "Ġ153": 6151,
      "sores": 6152,
      "Ġtransacciones": 6153,
      "Ġexigida": 6154,
      "Ġregistrado": 6155,
      "Ġcontinua": 6156,
      "Ġconsejero": 6157,
      "Ġtomo": 6158,
      "Ġoneros": 6159,
      "Ġdeduci": 6160,
      "Ġ249": 6161,
      "Ġpuramente": 6162,
      "Ġhubiere": 6163,
      "Ġviii": 6164,
      "Ġincompatibilidad": 6165,
      "jar": 6166,
      "Ġcolectivos": 6167,
      "Ġhog": 6168,
      "Ġhipotesis": 6169,
      "Ġweb": 6170,
      "Ġdelegacion": 6171,
      "inta": 6172,
      "Ġasien": 6173,
      "ÃŁ": 6174,
      "Ġaerona": 6175,
      "Ġdefecto": 6176,
      "Ġtuviera": 6177,
      "Ġorganiza": 6178,
      "Ġdestacar": 6179,
      "Ġcommission": 6180,
      "Ġeventuales": 6181,
      "ement": 6182,
      "taje": 6183,
      "Ġpare": 6184,
      "Ġcontradiccion": 6185,
      "Ġperspectiva": 6186,
      "Ġdesignar": 6187,
      "Ġrecomendacion": 6188,
      "Ġcolegio": 6189,
      "Ġturquia": 6190,
      "Ġhamb": 6191,
      "queo": 6192,
      "Ġtranscurrido": 6193,
      "iar": 6194,
      "Ġem": 6195,
      "Ġrenuncia": 6196,
      "Ġliqui": 6197,
      "Ġsubpartida": 6198,
      "Ġhoy": 6199,
      "Ġobstaculiz": 6200,
      "Ġpreserv": 6201,
      "Ġapel": 6202,
      "izan": 6203,
      "Ġmutuo": 6204,
      "ÏĤ": 6205,
      "Ġaccidente": 6206,
      "mark": 6207,
      "Ġcualesquiera": 6208,
      "Ġconcentr": 6209,
      "Ġ253": 6210,
      "Ġintroducir": 6211,
      "Ġcampo": 6212,
      "Ġmodifican": 6213,
      "Ġcontabilidad": 6214,
      "Ġcorrespondencia": 6215,
      "Ġstato": 6216,
      "Ġ600": 6217,
      "Ġentrara": 6218,
      "55": 6219,
      "Ġformulacion": 6220,
      "Ġ186": 6221,
      "Ġelector": 6222,
      "Ġprimeras": 6223,
      "Ġww": 6224,
      "Ġpage": 6225,
      "Ġques": 6226,
      "Ġprecedente": 6227,
      "lique": 6228,
      "Ġinternas": 6229,
      "Ġnv": 6230,
      "Ġayuntamiento": 6231,
      "Ġexplicaciones": 6232,
      "Ġcorriente": 6233,
      "Ġ164": 6234,
      "Ġexaccion": 6235,
      "Ġvegetales": 6236,
      "cidos": 6237,
      "Ġcoeficiente": 6238,
      "bel": 6239,
      "Ġfrancesas": 6240,
      "Ġhara": 6241,
      "Ġminimas": 6242,
      "Ġdevol": 6243,
      "Ġabsoluta": 6244,
      "ortalizas": 6245,
      "Ġdigi": 6246,
      "Ġatenu": 6247,
      "ere": 6248,
      "Ġoponerse": 6249,
      "Ġservir": 6250,
      "Ġreconocio": 6251,
      "Ġcompatibles": 6252,
      "Ġsustancialmente": 6253,
      "Ġadecuados": 6254,
      "Ġzu": 6255,
      "Ġfacturas": 6256,
      "Ã¸": 6257,
      "Ġproducts": 6258,
      "Ġoriginario": 6259,
      "Ġambiental": 6260,
      "Ġasumi": 6261,
      "Ġreconocidos": 6262,
      "Ġpreparacion": 6263,
      "Ġelegir": 6264,
      "Ġcomportamientos": 6265,
      "Ġnon": 6266,
      "Ġrelevancia": 6267,
      "aj": 6268,
      "tue": 6269,
      "Ġvelocidad": 6270,
      "Ġumbral": 6271,
      "Ġpour": 6272,
      "Ġimpugna": 6273,
      "Ġabsten": 6274,
      "Ġconfirmar": 6275,
      "Ġrecomendaciones": 6276,
      "Ġhortalizas": 6277,
      "uro": 6278,
      "Ġempleador": 6279,
      "Ġdetec": 6280,
      "Ġimpresion": 6281,
      "ducen": 6282,
      "Ġordinario": 6283,
      "Ġequivalencia": 6284,
      "Ġkir": 6285,
      "ling": 6286,
      "Ġincompatibles": 6287,
      "Ġsalvaguardia": 6288,
      "Ġcompara": 6289,
      "chas": 6290,
      "Ġhtt": 6291,
      "Ġmetal": 6292,
      "ordar": 6293,
      "Ġid": 6294,
      "Ġ221": 6295,
      "fs": 6296,
      "Ġ193": 6297,
      "Ġdespren": 6298,
      "Ġsujecion": 6299,
      "Ġprevenir": 6300,
      "Ġimparcial": 6301,
      "Ġ161": 6302,
      "Ġeventualmente": 6303,
      "Ġinjusti": 6304,
      "lara": 6305,
      "41": 6306,
      "ctual": 6307,
      "Ġ298": 6308,
      "Ġmante": 6309,
      "Ġaviso": 6310,
      "Ġkm": 6311,
      "Ġyo": 6312,
      "Ġsobrepas": 6313,
      "Ġregistros": 6314,
      "Ġcaute": 6315,
      "Ġinvocada": 6316,
      "Ġschen": 6317,
      "Ġrig": 6318,
      "Ġproduzca": 6319,
      "Ġtier": 6320,
      "Ġabusivo": 6321,
      "Ġboe": 6322,
      "Ġdebida": 6323,
      "Ġratific": 6324,
      "Ġnegocia": 6325,
      "Ġ286": 6326,
      "Ġcassa": 6327,
      "Ġadicion": 6328,
      "bol": 6329,
      "Ġlue": 6330,
      "Ġexactitud": 6331,
      "Ġsuel": 6332,
      "Ġitalianas": 6333,
      "Ġlimito": 6334,
      "omas": 6335,
      "Ġestadis": 6336,
      "Ġantig": 6337,
      "Ġexigido": 6338,
      "Ġcomplementario": 6339,
      "Ġelu": 6340,
      "Ġfues": 6341,
      "terran": 6342,
      "Ġsolicitantes": 6343,
      "Ġpotencia": 6344,
      "Ġsometidas": 6345,
      "Ġincremen": 6346,
      "Ġtomado": 6347,
      "Ġsinte": 6348,
      "rios": 6349,
      "Ġlacte": 6350,
      "Ġvinculado": 6351,
      "Ġadoptados": 6352,
      "Ġpagebreak": 6353,
      "teria": 6354,
      "larse": 6355,
      "Ġdenominada": 6356,
      "Ġsolidaria": 6357,
      "Ġtema": 6358,
      "Ġ213": 6359,
      "quilla": 6360,
      "Ġrom": 6361,
      "Ġnormativas": 6362,
      "Ġconstituido": 6363,
      "alizacion": 6364,
      "garo": 6365,
      "Ġadopta": 6366,
      "Ġdiligencias": 6367,
      "Ġvas": 6368,
      "Ġminu": 6369,
      "Ġsusten": 6370,
      "Ġvinculada": 6371,
      "Ġsignificativa": 6372,
      "Ġconsecucion": 6373,
      "Ġcaduci": 6374,
      "ligencia": 6375,
      "Ġmedicion": 6376,
      "erte": 6377,
      "Ġ225": 6378,
      "Ġdro": 6379,
      "Ġemer": 6380,
      "Ġ659": 6381,
      "Ġespiri": 6382,
      "Ġrefi": 6383,
      "Ġstate": 6384,
      "igu": 6385,
      "rupcion": 6386,
      "Ġenumeradas": 6387,
      "Ġreferentes": 6388,
      "Ġdescan": 6389,
      "Ġtomando": 6390,
      "Ġutilicen": 6391,
      "Ġcaducidad": 6392,
      "Õ¡": 6393,
      "Ġwo": 6394,
      "Ġmotores": 6395,
      "Ġadquiridos": 6396,
      "wn": 6397,
      "Ġutilizando": 6398,
      "Ġ159": 6399,
      "em": 6400,
      "Ġatenerse": 6401,
      "Ġmesa": 6402,
      "Ġpierda": 6403,
      "Ġhabra": 6404,
      "Ġsolicitor": 6405,
      "Ġtrim": 6406,
      "Ġluego": 6407,
      "Ġspe": 6408,
      "Ġindispensable": 6409,
      "ocu": 6410,
      "Ġdistinguir": 6411,
      "Ġvalidamente": 6412,
      "xx": 6413,
      "culos": 6414,
      "clas": 6415,
      "Ġdescanso": 6416,
      "ecen": 6417,
      "Ġvalido": 6418,
      "Ġ211": 6419,
      "Ġretir": 6420,
      "Ġcierre": 6421,
      "Ġvendedor": 6422,
      "Ġhabitu": 6423,
      "Ġnoven": 6424,
      "Ġexistan": 6425,
      "Ġpaga": 6426,
      "Ġconsor": 6427,
      "Ġelectrica": 6428,
      "cordan": 6429,
      "Ġ179": 6430,
      "Ġacreedores": 6431,
      "Ġlituania": 6432,
      "pp": 6433,
      "Ġiniciado": 6434,
      "Ġdefiniciones": 6435,
      "Ġaereas": 6436,
      "Ġdesplazamiento": 6437,
      "Ġconstitutivo": 6438,
      "Ġindican": 6439,
      "Ġfusion": 6440,
      "Ġanul": 6441,
      "Ġciviles": 6442,
      "Ġtab": 6443,
      "Ġepo": 6444,
      "Ġdetermine": 6445,
      "Ġpracti": 6446,
      "uez": 6447,
      "Ġ163": 6448,
      "Ġconstituya": 6449,
      "Ġantigue": 6450,
      "Ġmitad": 6451,
      "Ġintegramente": 6452,
      "Ġdemandadas": 6453,
      "Ġestabilidad": 6454,
      "Ġpatr": 6455,
      "Ġseparacion": 6456,
      "Ġtreinta": 6457,
      "Ġautonomo": 6458,
      "Ġpuerto": 6459,
      "Ġvuelo": 6460,
      "Ġcomenta": 6461,
      "Ġinferiores": 6462,
      "Ġcalen": 6463,
      "Ġarri": 6464,
      "Ġatra": 6465,
      "Ġllegado": 6466,
      "Ġdeutsche": 6467,
      "Ġgenera": 6468,
      "Ġfederacion": 6469,
      "Ġtratar": 6470,
      "Ġextracontra": 6471,
      "Ġestrictamente": 6472,
      "Ġefectua": 6473,
      "Ġincapacidad": 6474,
      "Ġtuvieron": 6475,
      "Ġexpertos": 6476,
      "Ġaccesorios": 6477,
      "Ġnombres": 6478,
      "Ġ0000": 6479,
      "Ġrealizo": 6480,
      "Ġfrecuencia": 6481,
      "ret": 6482,
      "Ġcomplementarias": 6483,
      "Ġcontingente": 6484,
      "Ġfol": 6485,
      "Ġlandes": 6486,
      "cada": 6487,
      "Ġrestrictiva": 6488,
      "Ġtesti": 6489,
      "85": 6490,
      "Ġencom": 6491,
      "Ġdefinidos": 6492,
      "Ġamor": 6493,
      "Ġsoporte": 6494,
      "Ġsatisfacer": 6495,
      "Ġbasan": 6496,
      "Ġwal": 6497,
      "bar": 6498,
      "Ġindicados": 6499,
      "Ġreservas": 6500,
      "Ġcarton": 6501,
      "Ġrequerida": 6502,
      "Ġdisfrutar": 6503,
      "Ġconseil": 6504,
      "Ġ206": 6505,
      "Ġabusivas": 6506,
      "Ġpertenecientes": 6507,
      "Ġleal": 6508,
      "Ġdesemb": 6509,
      "Ġapropiadas": 6510,
      "Ġenca": 6511,
      "Ġaprov": 6512,
      "Ġalcohol": 6513,
      "dadas": 6514,
      "Ġdominio": 6515,
      "Ġ182": 6516,
      "Ġseptimo": 6517,
      "Ġim": 6518,
      "Ġespecificaciones": 6519,
      "Ġproporcional": 6520,
      "Ġvictima": 6521,
      "Ġciento": 6522,
      "Ġlicitadores": 6523,
      "Ġrendimiento": 6524,
      "Ġprolon": 6525,
      "Ġdiscapacidad": 6526,
      "Ġ296": 6527,
      "unciar": 6528,
      "Ġrequi": 6529,
      "Ġrespondio": 6530,
      "ells": 6531,
      "Ġimportadores": 6532,
      "Ġ219": 6533,
      "77": 6534,
      "burg": 6535,
      "Ġ170": 6536,
      "Ġ203": 6537,
      "Ġinjustific": 6538,
      "Ġku": 6539,
      "Ġ235": 6540,
      "Ġinfraestructuras": 6541,
      "Ġubic": 6542,
      "Ġlicitador": 6543,
      "Ġdesle": 6544,
      "Ġlesion": 6545,
      "Ġafirman": 6546,
      "pr": 6547,
      "Ġsospec": 6548,
      "Ġinstitucional": 6549,
      "Ġrecurrido": 6550,
      "Ġhilados": 6551,
      "Ġautomaticamente": 6552,
      "áĥĲ": 6553,
      "Ġcoherente": 6554,
      "Ġdimension": 6555,
      "Ġlaw": 6556,
      "Ġcalificar": 6557,
      "Ġpertur": 6558,
      "Ġdeterior": 6559,
      "Ġindefin": 6560,
      "Ġafecte": 6561,
      "Ġola": 6562,
      "Ġcontrapartida": 6563,
      "duzca": 6564,
      "Ġrus": 6565,
      "Ġcomunico": 6566,
      "Ġconcedio": 6567,
      "Ġsuprimir": 6568,
      "Ġarro": 6569,
      "Ġabstra": 6570,
      "Ġacadem": 6571,
      "Ġutilizan": 6572,
      "Î·": 6573,
      "Ġclub": 6574,
      "Ġsuponer": 6575,
      "Ġmuestras": 6576,
      "Ġjornada": 6577,
      "Ġdistrito": 6578,
      "Ġcreci": 6579,
      "Ġempresarios": 6580,
      "iu": 6581,
      "Ġmayores": 6582,
      "Ġdifusion": 6583,
      "Ġbur": 6584,
      "Ġgon": 6585,
      "Ġobjeciones": 6586,
      "Ġdificul": 6587,
      "Ġ202": 6588,
      "licas": 6589,
      "tamiento": 6590,
      "Ġmano": 6591,
      "dental": 6592,
      "Ġpermitido": 6593,
      "unda": 6594,
      "Ġmoneda": 6595,
      "Ġpolaco": 6596,
      "Ġcusto": 6597,
      "Ġ1973": 6598,
      "Ġ172": 6599,
      "Ġtransitorias": 6600,
      "erar": 6601,
      "Ġelectronica": 6602,
      "Ġprom": 6603,
      "ÅĤ": 6604,
      "Ġconcier": 6605,
      "Ġ299": 6606,
      "Ġtransportista": 6607,
      "Ġsecu": 6608,
      "Ġcombinacion": 6609,
      "Ġrod": 6610,
      "Ġcomponente": 6611,
      "Ġcorreg": 6612,
      "Ġespiritu": 6613,
      "64": 6614,
      "erci": 6615,
      "dencias": 6616,
      "Ġaumen": 6617,
      "Ġcommunity": 6618,
      "Ġdeterminara": 6619,
      "Ġconfe": 6620,
      "Ġdesfa": 6621,
      "71": 6622,
      "Ġsad": 6623,
      "ink": 6624,
      "Ġimpugnacion": 6625,
      "tralidad": 6626,
      "Ġ288": 6627,
      "Ġprioridad": 6628,
      "Ġdenominaciones": 6629,
      "Ġencuentren": 6630,
      "osas": 6631,
      "Ġmaternidad": 6632,
      "Ġmonopolio": 6633,
      "Ġejercen": 6634,
      "gne": 6635,
      "bu": 6636,
      "Ġtransposicion": 6637,
      "Ġconstante": 6638,
      "Ġasistido": 6639,
      "hat": 6640,
      "Ġactua": 6641,
      "Ġexti": 6642,
      "Ġdecre": 6643,
      "Ġarbitral": 6644,
      "Ġimpuso": 6645,
      "logicos": 6646,
      "Ġcalculado": 6647,
      "Ġpreocu": 6648,
      "ill": 6649,
      "Ġextincion": 6650,
      "Ġasegurado": 6651,
      "Ġescape": 6652,
      "ert": 6653,
      "Ġ265": 6654,
      "Ġdelegado": 6655,
      "Ġcontribuyente": 6656,
      "wo": 6657,
      "Ġinspecciones": 6658,
      "Ġinformara": 6659,
      "Ġdepositos": 6660,
      "Ġdescen": 6661,
      "Ġintervin": 6662,
      "Ġidea": 6663,
      "Ġdevuel": 6664,
      "Ġsecreto": 6665,
      "Ġdemandas": 6666,
      "chet": 6667,
      "Ġrural": 6668,
      "Ġpalabra": 6669,
      "Ġrevocacion": 6670,
      "Ġtrasla": 6671,
      "chi": 6672,
      "Ġejerza": 6673,
      "Ġpresentarse": 6674,
      "Ġextracontractual": 6675,
      "Ġcontrapres": 6676,
      "Ġseguida": 6677,
      "tish": 6678,
      "Ġartic": 6679,
      "Ġflex": 6680,
      "Ġdebate": 6681,
      "ische": 6682,
      "Ġdiseno": 6683,
      "Ġorganica": 6684,
      "Ġcombinada": 6685,
      "tivacion": 6686,
      "pc": 6687,
      "Ġenju": 6688,
      "Ġpresentara": 6689,
      "br": 6690,
      "Ð»": 6691,
      "Ġec": 6692,
      "Ġautores": 6693,
      "Ġthis": 6694,
      "Ġllevo": 6695,
      "Ġconducir": 6696,
      "Ġmuestre": 6697,
      "Ġconfidencialidad": 6698,
      "61": 6699,
      "fiquen": 6700,
      "use": 6701,
      "Ġmujer": 6702,
      "Ġcompensar": 6703,
      "Ġpropuesto": 6704,
      "Ġbancaria": 6705,
      "Ġcontroversia": 6706,
      "mu": 6707,
      "echa": 6708,
      "Ġimponen": 6709,
      "Ġadmitio": 6710,
      "Ġpotestad": 6711,
      "Ġdg": 6712,
      "Ġabono": 6713,
      "Ġfavorecer": 6714,
      "Ġneutralidad": 6715,
      "Ġpien": 6716,
      "Ġenf": 6717,
      "Ġsel": 6718,
      "Ġlabor": 6719,
      "Ġcaja": 6720,
      "Ġ278": 6721,
      "Ġtecnologia": 6722,
      "Ġgarcia": 6723,
      "Ġprodujo": 6724,
      "Ġflo": 6725,
      "00000": 6726,
      "Ġdiputados": 6727,
      "Ġgeneralmente": 6728,
      "Ġ181": 6729,
      "Ġ183": 6730,
      "vier": 6731,
      "Ġacreedor": 6732,
      "factu": 6733,
      "Ġvid": 6734,
      "Ġreferencias": 6735,
      "Ġapre": 6736,
      "Ġembara": 6737,
      "Ġrelig": 6738,
      "Ġindo": 6739,
      "Ġdestru": 6740,
      "parte": 6741,
      "Ġtejidos": 6742,
      "Ġfalle": 6743,
      "Ġpreceptos": 6744,
      "Ġvien": 6745,
      "Ġsobres": 6746,
      "Ġbole": 6747,
      "Ġoctava": 6748,
      "Ġalemanas": 6749,
      "ley": 6750,
      "Ġexamina": 6751,
      "idan": 6752,
      "Ġcritica": 6753,
      "Ġvinculos": 6754,
      "Ġpremis": 6755,
      "Ġagricultores": 6756,
      "Ġdenego": 6757,
      "Ġadoptaran": 6758,
      "Ġcontinuar": 6759,
      "Ġquince": 6760,
      "Ġintervenciones": 6761,
      "Ġconcluido": 6762,
      "Ġmonte": 6763,
      "Ġelaborado": 6764,
      "Ġsn": 6765,
      "Ġ191": 6766,
      "Ġcompletamente": 6767,
      "zados": 6768,
      "Ġcientificos": 6769,
      "Ġreconsi": 6770,
      "Ġreconocida": 6771,
      "Ġproxi": 6772,
      "Ġpost": 6773,
      "Ġprotegidas": 6774,
      "Ġepoca": 6775,
      "Ġecha": 6776,
      "Ġfomentar": 6777,
      "Ġentran": 6778,
      "Ġshall": 6779,
      "Ġ295": 6780,
      "eco": 6781,
      "Ġrecoge": 6782,
      "Ġluxembur": 6783,
      "Ġmexico": 6784,
      "Ġschengen": 6785,
      "Ġpueblo": 6786,
      "Ġcausados": 6787,
      "Ġletonia": 6788,
      "Ġarticle": 6789,
      "Ġmilitar": 6790,
      "Ïħ": 6791,
      "Ġenmien": 6792,
      "Ġuc": 6793,
      "Ġpreferen": 6794,
      "Ġsubrayar": 6795,
      "Ġespera": 6796,
      "Ġ233": 6797,
      "Ġrechazo": 6798,
      "abel": 6799,
      "Ġ260": 6800,
      "Ġdescrito": 6801,
      "Ġadjudicador": 6802,
      "Ġordenar": 6803,
      "Ġpuso": 6804,
      "enos": 6805,
      "Ġhomolog": 6806,
      "Ġox": 6807,
      "Ġprensa": 6808,
      "Ġdisminucion": 6809,
      "Ġ247": 6810,
      "Ġperiodic": 6811,
      "Ġincluyendo": 6812,
      "Ġmotivada": 6813,
      "Ġcomisiones": 6814,
      "Ġinfringe": 6815,
      "Ġsas": 6816,
      "tandose": 6817,
      "Ġbelgas": 6818,
      "Ġrepub": 6819,
      "Ġescas": 6820,
      "Ġdestaca": 6821,
      "Ġparrafos": 6822,
      "deria": 6823,
      "Ġbou": 6824,
      "Ġobjetivas": 6825,
      "Ġlegislativa": 6826,
      "Ġptu": 6827,
      "Ġsignificativo": 6828,
      "Ġlinguisticas": 6829,
      "itarias": 6830,
      "Ġasumir": 6831,
      "geno": 6832,
      "Ġdeliber": 6833,
      "Ġconsideraran": 6834,
      "Ġinfringio": 6835,
      "Ġfinanzgericht": 6836,
      "Ġaportados": 6837,
      "Ġpreparados": 6838,
      "Ġcomplemento": 6839,
      "Ġconcurren": 6840,
      "Ġeuropeos": 6841,
      "Ġexcluidos": 6842,
      "Ġantiguedad": 6843,
      "Ġamenaza": 6844,
      "Ġfen": 6845,
      "Ġrespetando": 6846,
      "ervo": 6847,
      "Ġadolece": 6848,
      "Ġsemanas": 6849,
      "Ġnacimiento": 6850,
      "cy": 6851,
      "hm": 6852,
      "Ġvacun": 6853,
      "Ġcoherencia": 6854,
      "Õ¸": 6855,
      "Ġestudiantes": 6856,
      "Ġ020": 6857,
      "Ġalo": 6858,
      "Ġjuridicamente": 6859,
      "Ġluxemburgues": 6860,
      "Ġeman": 6861,
      "Ġdirectos": 6862,
      "Ġadjunto": 6863,
      "gre": 6864,
      "Ġcultural": 6865,
      "leno": 6866,
      "Ġafirmaciones": 6867,
      "Ġulterior": 6868,
      "Ġincorporarse": 6869,
      "Ġmanufactu": 6870,
      "ture": 6871,
      "Ġabierto": 6872,
      "Ġlongi": 6873,
      "Ġinfluir": 6874,
      "izarse": 6875,
      "Ġ216": 6876,
      "Ġcontraprestacion": 6877,
      "Ġabor": 6878,
      "Ġcongres": 6879,
      "ny": 6880,
      "Ġst": 6881,
      "Ġestrategia": 6882,
      "jez": 6883,
      "Ġcerve": 6884,
      "Ġhaciendo": 6885,
      "Ġlongitud": 6886,
      "Ġcolu": 6887,
      "Ġpresenten": 6888,
      "Ġtelevis": 6889,
      "Ġetat": 6890,
      "Ġprovincia": 6891,
      "Ġfrescos": 6892,
      "Ġagreement": 6893,
      "Ġqua": 6894,
      "Ġproponer": 6895,
      "Ġ1001": 6896,
      "Ġfl": 6897,
      "Ġ293": 6898,
      "Ġtubos": 6899,
      "Ġindole": 6900,
      "Ġdefinen": 6901,
      "Ġ414": 6902,
      "Ġvender": 6903,
      "Ġ442": 6904,
      "Ġapropiado": 6905,
      "Ġconstatacion": 6906,
      "Ġtributos": 6907,
      "Ġconfirmada": 6908,
      "Ġvejez": 6909,
      "Ġparal": 6910,
      "esa": 6911,
      "Ġexportadores": 6912,
      "Ġhospital": 6913,
      "Ġsensible": 6914,
      "Ġprohibida": 6915,
      "Ġimpugnados": 6916,
      "Ġdarse": 6917,
      "áĥĶ": 6918,
      "ĠâĢ¢": 6919,
      "Ġplata": 6920,
      "Ġmio": 6921,
      "Ġverti": 6922,
      "Ġrigen": 6923,
      "Ġmunicipios": 6924,
      "Ġinmobili": 6925,
      "Ġpac": 6926,
      "Ġalcanzado": 6927,
      "Ġformalmente": 6928,
      "Ġdemasiado": 6929,
      "Ġparlamen": 6930,
      "dura": 6931,
      "Ġpide": 6932,
      "Ġtratarse": 6933,
      "Ġtierras": 6934,
      "Ġaplicados": 6935,
      "Ġcoerci": 6936,
      "Ġafecten": 6937,
      "Ġcausalidad": 6938,
      "Ġfinlandes": 6939,
      "Ġrecuperar": 6940,
      "Ġbritish": 6941,
      "Ġvulnera": 6942,
      "Ġincorrecta": 6943,
      "cimientos": 6944,
      "Ġlucro": 6945,
      "Ġexceso": 6946,
      "Ġinmediato": 6947,
      "ore": 6948,
      "colar": 6949,
      "Ġelectronicos": 6950,
      "Ġrelacionada": 6951,
      "Ġpresiden": 6952,
      "Ġefectue": 6953,
      "Ġdiscriminatorio": 6954,
      "Ġirrelev": 6955,
      "Ġfijan": 6956,
      "Ġ425": 6957,
      "Ġtemporales": 6958,
      "Ġdevolver": 6959,
      "Ġpolitico": 6960,
      "ix": 6961,
      "ivencia": 6962,
      "Ġinherentes": 6963,
      "Ġsubje": 6964,
      "Ġlou": 6965,
      "Ġfomento": 6966,
      "Ġother": 6967,
      "Ġintervenir": 6968,
      "Ġcolusorias": 6969,
      "Ġdub": 6970,
      "Ġsacri": 6971,
      "uri": 6972,
      "Ġestricta": 6973,
      "esen": 6974,
      "Ġsider": 6975,
      "Ġfedera": 6976,
      "Ġdispens": 6977,
      "igra": 6978,
      "49": 6979,
      "Ġcreado": 6980,
      "Ġnotificaciones": 6981,
      "Ġfrontera": 6982,
      "Ġinfundada": 6983,
      "Ġquedara": 6984,
      "Ġcata": 6985,
      "Ġeslovaca": 6986,
      "Ġestablecia": 6987,
      "gnos": 6988,
      "Ġcontener": 6989,
      "Ġatendiendo": 6990,
      "Ġcontenga": 6991,
      "Ġquie": 6992,
      "Ġarbitra": 6993,
      "Ġprovincial": 6994,
      "Ġaeropuerto": 6995,
      "Ġolaf": 6996,
      "Ġoficinas": 6997,
      "Ġgeor": 6998,
      "ellschaft": 6999,
      "Ġcarlos": 7000,
      "Ġrelevantes": 7001,
      "Ġterrenos": 7002,
      "uf": 7003,
      "Ġ210": 7004,
      "Ġrentas": 7005,
      "ters": 7006,
      "Ġanoni": 7007,
      "Ġcometida": 7008,
      "Ġala": 7009,
      "Ġix": 7010,
      "Ġigp": 7011,
      "Ġalquiler": 7012,
      "Ġobligadas": 7013,
      "Ġ162": 7014,
      "Ġreside": 7015,
      "Ġfechas": 7016,
      "Ġimperios": 7017,
      "Ġol": 7018,
      "Ġmaritimo": 7019,
      "trico": 7020,
      "tment": 7021,
      "Ġestime": 7022,
      "Ġaplicada": 7023,
      "Ġsituados": 7024,
      "ive": 7025,
      "Ġ305": 7026,
      "Ġninos": 7027,
      "Ġpreocup": 7028,
      "Ġtributo": 7029,
      "Ġexigen": 7030,
      "Ġingreso": 7031,
      "Ġcanones": 7032,
      "tieron": 7033,
      "Ġareas": 7034,
      "Ġreag": 7035,
      "Ġdesestimado": 7036,
      "Ġcompany": 7037,
      "Ġrodrig": 7038,
      "cente": 7039,
      "Ġvoor": 7040,
      "Ġsimultaneamente": 7041,
      "Ġseptima": 7042,
      "Ġagencias": 7043,
      "esta": 7044,
      "Ġadaptado": 7045,
      "Ġetapa": 7046,
      "Ġestonia": 7047,
      "Ġimpi": 7048,
      "Ġbordo": 7049,
      "Ġvinculan": 7050,
      "Ġarbe": 7051,
      "Ġgracias": 7052,
      "Ġdeniega": 7053,
      "Ġutilidad": 7054,
      "Ġmantequilla": 7055,
      "nel": 7056,
      "Ġextranjera": 7057,
      "Ġtrimes": 7058,
      "Ġtelefonica": 7059,
      "Ġatribuir": 7060,
      "Ġrodriguez": 7061,
      "73": 7062,
      "Ġforzos": 7063,
      "ry": 7064,
      "mica": 7065,
      "Ġdieron": 7066,
      "Ġconsign": 7067,
      "Ġobjetos": 7068,
      "Ġcompuesto": 7069,
      "ll": 7070,
      "Ġidenticas": 7071,
      "Ġ270": 7072,
      "Ġwww": 7073,
      "Ġdato": 7074,
      "Ġinequ": 7075,
      "Ġboletin": 7076,
      "Ġtierra": 7077,
      "Ġespanolas": 7078,
      "iten": 7079,
      "Ġsor": 7080,
      "Ġmatrimonio": 7081,
      "Ġvenez": 7082,
      "Ġ343": 7083,
      "Ġpercibe": 7084,
      "Ġexcluido": 7085,
      "idem": 7086,
      "Ġenunciados": 7087,
      "ky": 7088,
      "ant": 7089,
      "Ġmoder": 7090,
      "Ġads": 7091,
      "Ġinversor": 7092,
      "Ġsistematica": 7093,
      "Ġ1612": 7094,
      "Ġlegitimacion": 7095,
      "Ġrevesti": 7096,
      "Ġrecep": 7097,
      "Ġhttp": 7098,
      "Ġrestantes": 7099,
      "Ġremitio": 7100,
      "Ġpresupuestos": 7101,
      "Ġviol": 7102,
      "ate": 7103,
      "Ġtro": 7104,
      "Ġpresidentes": 7105,
      "Ġbarris": 7106,
      "Ġigles": 7107,
      "Ġibidem": 7108,
      "Ġconcederse": 7109,
      "Ġcandidato": 7110,
      "hu": 7111,
      "Ġempresarial": 7112,
      "Ġprotocol": 7113,
      "finanz": 7114,
      "Ġextranjeras": 7115,
      "Ġdeten": 7116,
      "Ġestablecerse": 7117,
      "Ġ268": 7118,
      "Ġfren": 7119,
      "Ġcommer": 7120,
      "Ġdispen": 7121,
      "Ġcorrobor": 7122,
      "mical": 7123,
      "Ġdice": 7124,
      "Ġilicito": 7125,
      "rique": 7126,
      "Ġreen": 7127,
      "Ġ279": 7128,
      "Ġcentre": 7129,
      "Ġrechazar": 7130,
      "43": 7131,
      "Ġnet": 7132,
      "Ġconformes": 7133,
      "Ġdefens": 7134,
      "Ġretribuciones": 7135,
      "Ġilegales": 7136,
      "Ġaerea": 7137,
      "Ġampar": 7138,
      "Ġlegitimamente": 7139,
      "Ġcarecen": 7140,
      "Ġasociados": 7141,
      "Ġinequivo": 7142,
      "Ġgonz": 7143,
      "Ġmala": 7144,
      "Ġcapturas": 7145,
      "Ġcho": 7146,
      "Ġdictar": 7147,
      "Ġprocu": 7148,
      "Ġvuel": 7149,
      "Ġmix": 7150,
      "Ġ222": 7151,
      "Ġministerial": 7152,
      "cis": 7153,
      "Ġ212": 7154,
      "Ġrecibio": 7155,
      "Ġ271": 7156,
      "Ġurb": 7157,
      "Ġcadena": 7158,
      "Ġreclamar": 7159,
      "Ġdella": 7160,
      "vers": 7161,
      "Ġcomprue": 7162,
      "Ġappel": 7163,
      "jeron": 7164,
      "Ġelimin": 7165,
      "Ġhen": 7166,
      "Ġrige": 7167,
      "hi": 7168,
      "Ġaudio": 7169,
      "Ġreguladora": 7170,
      "Ġlacteos": 7171,
      "Ġrealizara": 7172,
      "Ġlarga": 7173,
      "Ġcolombia": 7174,
      "Ġ256": 7175,
      "Ġadjudicadora": 7176,
      "ariales": 7177,
      "omez": 7178,
      "Ġconcertada": 7179,
      "Ġsubsec": 7180,
      "Ġimpro": 7181,
      "rer": 7182,
      "Ġcomprender": 7183,
      "sis": 7184,
      "Ġeso": 7185,
      "Ġmodu": 7186,
      "Ġplanteamiento": 7187,
      "Ġapoyada": 7188,
      "Ġparametros": 7189,
      "cz": 7190,
      "roga": 7191,
      "Ġestimado": 7192,
      "Ġpolvo": 7193,
      "Ġrecordado": 7194,
      "Ġsubordin": 7195,
      "Ġcientifica": 7196,
      "Ġfundamentar": 7197,
      "Ġpecuni": 7198,
      "Ġgul": 7199,
      "Ġmul": 7200,
      "Ġescolar": 7201,
      "dicho": 7202,
      "Ġsuperficies": 7203,
      "cencia": 7204,
      "Ġsiguen": 7205,
      "Ġinterv": 7206,
      "rezca": 7207,
      "Ġkirch": 7208,
      "iran": 7209,
      "Ġdeudas": 7210,
      "Ġreducciones": 7211,
      "Ġamerica": 7212,
      "tonio": 7213,
      "heim": 7214,
      "alez": 7215,
      "Ġdura": 7216,
      "Ġproporcionada": 7217,
      "Ġconcesiones": 7218,
      "Ġreten": 7219,
      "Ġ214": 7220,
      "Ġ1970": 7221,
      "Ïĥ": 7222,
      "Ġgenerar": 7223,
      "Ġreven": 7224,
      "mpor": 7225,
      "Ġcontrarios": 7226,
      "Ġpermitia": 7227,
      "Ġgomez": 7228,
      "Ġexacciones": 7229,
      "Ġmur": 7230,
      "Ġesper": 7231,
      "Ġestuviera": 7232,
      "Ġpagadas": 7233,
      "Ġelaborar": 7234,
      "Ġelectoral": 7235,
      "Ġcuestiona": 7236,
      "Ġjustificadas": 7237,
      "Ġimporta": 7238,
      "Ġintegrante": 7239,
      "Ġautomatica": 7240,
      "Ġdesventa": 7241,
      "Ġexponer": 7242,
      "Ġds": 7243,
      "Ġdans": 7244,
      "Ġreclamaciones": 7245,
      "Ġ238": 7246,
      "Ġsuprema": 7247,
      "Ġsanitarios": 7248,
      "Ġconstatar": 7249,
      "Ġsupervis": 7250,
      "Ġnuestro": 7251,
      "Ġexentas": 7252,
      "Ġcalendario": 7253,
      "Ġresulten": 7254,
      "Ġbi": 7255,
      "Ġasesoramiento": 7256,
      "Ġcontinuidad": 7257,
      "Ġfavorables": 7258,
      "Ġpequenas": 7259,
      "Ġrechts": 7260,
      "peu": 7261,
      "Ġ192": 7262,
      "Ġdistribuidores": 7263,
      "Ġtributarias": 7264,
      "Ġsubsan": 7265,
      "ibili": 7266,
      "Ġvie": 7267,
      "red": 7268,
      "Ġmostr": 7269,
      "tibles": 7270,
      "Ġafectacion": 7271,
      "Ġvita": 7272,
      "Ġacondicion": 7273,
      "Ġsti": 7274,
      "istico": 7275,
      "Ġesperar": 7276,
      "Ġcapacidades": 7277,
      "Ġcode": 7278,
      "47": 7279,
      "Ġhici": 7280,
      "Ġcelebro": 7281,
      "Ġprotegido": 7282,
      "Ġjean": 7283,
      "Ġmuestreo": 7284,
      "Ġreso": 7285,
      "yeron": 7286,
      "olla": 7287,
      "Ġempe": 7288,
      "Ġmensa": 7289,
      "Ġeslovenia": 7290,
      "Ġestablezcan": 7291,
      "Ġotorgar": 7292,
      "Ġsuplementaria": 7293,
      "Ġreforzar": 7294,
      "Ġcanje": 7295,
      "Ġmarcha": 7296,
      "Ġcontribuyentes": 7297,
      "Ġproducirse": 7298,
      "Ġ318": 7299,
      "Ġsug": 7300,
      "tidu": 7301,
      "Ġnuclear": 7302,
      "Ġresponsabilidades": 7303,
      "Ġcientifico": 7304,
      "Ġquiebra": 7305,
      "Ġdemuestre": 7306,
      "Ġprofun": 7307,
      "Ġvaya": 7308,
      "69": 7309,
      "Ġlimp": 7310,
      "Ġcr": 7311,
      "Ġtarjeta": 7312,
      "Ġdadas": 7313,
      "Ġhipotec": 7314,
      "Ġ319": 7315,
      "Ġblanco": 7316,
      "Ġalternativa": 7317,
      "Ġaptitud": 7318,
      "char": 7319,
      "Ġpremisa": 7320,
      "Ġjar": 7321,
      "ward": 7322,
      "Ġprotegidos": 7323,
      "Ġnueve": 7324,
      "Ġcontamin": 7325,
      "Ġprestado": 7326,
      "ct": 7327,
      "Ġimpositivo": 7328,
      "Ġnavegacion": 7329,
      "ku": 7330,
      "Ġpequ": 7331,
      "Ġinstan": 7332,
      "Ġconsideraba": 7333,
      "iendose": 7334,
      "Ġabastecimiento": 7335,
      "Ġsindic": 7336,
      "Ġdiploma": 7337,
      "Ġinglesa": 7338,
      "Ġenjuicia": 7339,
      "Ġsociete": 7340,
      "ings": 7341,
      "Ġamster": 7342,
      "Ġcentrales": 7343,
      "Ġazar": 7344,
      "Ġoneroso": 7345,
      "renta": 7346,
      "Ġcelebr": 7347,
      "Ġviene": 7348,
      "uber": 7349,
      "iga": 7350,
      "Ġtransformados": 7351,
      "Ġcd": 7352,
      "Ġvide": 7353,
      "Ġnove": 7354,
      "Ġjustice": 7355,
      "Ġparen": 7356,
      "Ġinexac": 7357,
      "Ġconsagrado": 7358,
      "lop": 7359,
      "ek": 7360,
      "Ġabonados": 7361,
      "Ġpis": 7362,
      "Ġpt": 7363,
      "Ġocupacion": 7364,
      "Ġprivar": 7365,
      "Ġinnov": 7366,
      "Ġeludir": 7367,
      "Ġtarde": 7368,
      "Ġnegligencia": 7369,
      "Ġabonadas": 7370,
      "Ġpsico": 7371,
      "eamiento": 7372,
      "Ġemitido": 7373,
      "Ġestipula": 7374,
      "Ġfuese": 7375,
      "Ġpru": 7376,
      "Ġvicio": 7377,
      "Ġvice": 7378,
      "Ð´": 7379,
      "Ġhorizontal": 7380,
      "ĠÂ§": 7381,
      "Ġcuestionar": 7382,
      "Ġamsterdam": 7383,
      "itz": 7384,
      "Ġassociation": 7385,
      "Ġsenalados": 7386,
      "Ġdescuentos": 7387,
      "am": 7388,
      "ima": 7389,
      "idor": 7390,
      "kis": 7391,
      "Ġsectorial": 7392,
      "Ġsustanciales": 7393,
      "Ġregulada": 7394,
      "Ġcuerpo": 7395,
      "Ġdeutsch": 7396,
      "guros": 7397,
      "Ġ255": 7398,
      "Ġagen": 7399,
      "lemen": 7400,
      "Ġadquirente": 7401,
      "Ġ395": 7402,
      "Ġpic": 7403,
      "Ġpuertos": 7404,
      "Ġtradicionales": 7405,
      "Ġcolusoria": 7406,
      "Ġabonado": 7407,
      "Õ¥": 7408,
      "Ġexistencias": 7409,
      "Ġ6199": 7410,
      "Ġejercicios": 7411,
      "Ġpreparaciones": 7412,
      "Ġbusque": 7413,
      "Ġcs": 7414,
      "Ġjoven": 7415,
      "Ġinherente": 7416,
      "tativos": 7417,
      "omer": 7418,
      "Ġgarantizado": 7419,
      "Ġconveniente": 7420,
      "Ġ303": 7421,
      "Ġmagn": 7422,
      "ser": 7423,
      "recht": 7424,
      "Ġdeterioro": 7425,
      "Ġgonzalez": 7426,
      "Ġgol": 7427,
      "Ġcontenia": 7428,
      "Ġtip": 7429,
      "Ġpercibidos": 7430,
      "89": 7431,
      "Ġase": 7432,
      "Ġconfirmado": 7433,
      "Ġtera": 7434,
      "Ġproducen": 7435,
      "Ġ347": 7436,
      "Ġdefinidas": 7437,
      "Ġsumario": 7438,
      "Ġignor": 7439,
      "Ġpermisos": 7440,
      "Ġedicion": 7441,
      "kouris": 7442,
      "Ġ223": 7443,
      "Ġtos": 7444,
      "Ġnotificar": 7445,
      "Ġdesarrolla": 7446,
      "Ġsuministros": 7447,
      "Ġresistencia": 7448,
      "Ġsober": 7449,
      "Ġreex": 7450,
      "Ġinser": 7451,
      "Ġfrau": 7452,
      "posiciones": 7453,
      "Ġbenef": 7454,
      "Ġvictimas": 7455,
      "Ġcorrecto": 7456,
      "gel": 7457,
      "Ġkar": 7458,
      "Ġgrasas": 7459,
      "Ġequivo": 7460,
      "Ġbrux": 7461,
      "Ġrelacionado": 7462,
      "Ġretorno": 7463,
      "Ġ883": 7464,
      "Ã¦": 7465,
      "Ġpreval": 7466,
      "fp": 7467,
      "Ġtrabajadora": 7468,
      "terrane": 7469,
      "Ġfuere": 7470,
      "Ġrebas": 7471,
      "millas": 7472,
      "tilla": 7473,
      "Ġjustifican": 7474,
      "ure": 7475,
      "decision": 7476,
      "Ġprobado": 7477,
      "Ġprecisas": 7478,
      "Ġguarda": 7479,
      "Ġtension": 7480,
      "Ġcompuestos": 7481,
      "Ġcultura": 7482,
      "Ġpin": 7483,
      "Ġdomesti": 7484,
      "Ġconcluye": 7485,
      "Ġconferencia": 7486,
      "Ġ283": 7487,
      "Ġrealicen": 7488,
      "mados": 7489,
      "Ġsuperar": 7490,
      "Ġfronter": 7491,
      "Ġequipa": 7492,
      "áĥĺ": 7493,
      "Ġobservacion": 7494,
      "Ġrespal": 7495,
      "Ġteor": 7496,
      "Ġ227": 7497,
      "Ġanulo": 7498,
      "Ġidone": 7499,
      "Ġ259": 7500,
      "Ġwag": 7501,
      "Ġrazonables": 7502,
      "Ġcondon": 7503,
      "Ġemitir": 7504,
      "Ġ241": 7505,
      "Ġobservarse": 7506,
      "Ġgeografico": 7507,
      "Ġarriba": 7508,
      "Ġdiagnos": 7509,
      "Ġsostener": 7510,
      "Ġ800": 7511,
      "Ġformalidades": 7512,
      "ders": 7513,
      "Ġdirige": 7514,
      "Ġfar": 7515,
      "Ġchar": 7516,
      "Ġlibro": 7517,
      "Ġmuchos": 7518,
      "Ġ229": 7519,
      "mol": 7520,
      "Ġarmas": 7521,
      "Ġnot": 7522,
      "Ġtrabajar": 7523,
      "mio": 7524,
      "darse": 7525,
      "Ġexpira": 7526,
      "Ġservices": 7527,
      "Ġcopias": 7528,
      "tiendo": 7529,
      "Ġsoluciones": 7530,
      "Ġcontribuciones": 7531,
      "Ġplantas": 7532,
      "Ġcomprobaciones": 7533,
      "Ġconcierne": 7534,
      "Ġcongreso": 7535,
      "Ðº": 7536,
      "toras": 7537,
      "fal": 7538,
      "Ġherra": 7539,
      "Ġresidir": 7540,
      "Ġparticulas": 7541,
      "Ġgober": 7542,
      "Ġgasto": 7543,
      "Ġexcesivamente": 7544,
      "Ġordenes": 7545,
      "Ġdisponibilidad": 7546,
      "Ġcandidatura": 7547,
      "Ġsilves": 7548,
      "Ġvolver": 7549,
      "Ġobligar": 7550,
      "Ġthat": 7551,
      "Ġobtenida": 7552,
      "Ġfranca": 7553,
      "fil": 7554,
      "esimo": 7555,
      "denciales": 7556,
      "Ġsyste": 7557,
      "Ġcn": 7558,
      "Ġchemical": 7559,
      "Ġindicio": 7560,
      "Ġdeutschland": 7561,
      "Ġconstituian": 7562,
      "hab": 7563,
      "Îº": 7564,
      "Ġinversores": 7565,
      "Ġende": 7566,
      "decu": 7567,
      "Ġjaco": 7568,
      "Ġacabado": 7569,
      "Ġparental": 7570,
      "83": 7571,
      "logicas": 7572,
      "Ġjerar": 7573,
      "ingen": 7574,
      "Ġeconomicamente": 7575,
      "Ġtax": 7576,
      "Ġ257": 7577,
      "Ġpersonalidad": 7578,
      "Ġ243": 7579,
      "Ġanimo": 7580,
      "Ġchipre": 7581,
      "Ġterrorismo": 7582,
      "Ġaras": 7583,
      "izas": 7584,
      "Ġpractic": 7585,
      "Ġpronunciada": 7586,
      "Ġentab": 7587,
      "Ġdigital": 7588,
      "ester": 7589,
      "Ġanticipada": 7590,
      "Ġdimensiones": 7591,
      "Ġcomerciante": 7592,
      "Ġsigu": 7593,
      "turales": 7594,
      "Ġexpuesta": 7595,
      "Ġ224": 7596,
      "tti": 7597,
      "teli": 7598,
      "Ġarbitraje": 7599,
      "Ġea": 7600,
      "Ġbeneficia": 7601,
      "Ġscho": 7602,
      "Ġestricto": 7603,
      "Ġexhaustiva": 7604,
      "Ġsecretar": 7605,
      "Ġberlin": 7606,
      "Ġinvocadas": 7607,
      "Ġdilucide": 7608,
      "Ġresuelva": 7609,
      "Ġare": 7610,
      "Ġemisor": 7611,
      "ieza": 7612,
      "Ġdiscrimin": 7613,
      "Ġjann": 7614,
      "Ġcontable": 7615,
      "Ġ1969": 7616,
      "Ġinadecu": 7617,
      "Ġcerveza": 7618,
      "ld": 7619,
      "izos": 7620,
      "Ġpertenece": 7621,
      "Ġmovimientos": 7622,
      "Ġestacion": 7623,
      "Ġhaup": 7624,
      "Ġseg": 7625,
      "Ġinternamiento": 7626,
      "Ġvidrio": 7627,
      "Ġaeronaves": 7628,
      "Ġwor": 7629,
      "Ġnegarse": 7630,
      "Ġengan": 7631,
      "ÏĢ": 7632,
      "Ġcuen": 7633,
      "Ġadecuadamente": 7634,
      "Ġprecisado": 7635,
      "Ġdesnaturalizacion": 7636,
      "Ġdejado": 7637,
      "motivacion": 7638,
      "Ġdesestimadas": 7639,
      "Ġexpedir": 7640,
      "Ġbgb": 7641,
      "Ġbeneficiaria": 7642,
      "Ġconcertacion": 7643,
      "Ġsemillas": 7644,
      "Ġperturb": 7645,
      "Ġenrique": 7646,
      "Ġdisen": 7647,
      "cc": 7648,
      "Ġsalas": 7649,
      "Ġnegar": 7650,
      "Ġartificiales": 7651,
      "Ġdispensa": 7652,
      "Ġsometerse": 7653,
      "Ġincer": 7654,
      "Ġimportadas": 7655,
      "Ġecus": 7656,
      "Ġfax": 7657,
      "Ġpartido": 7658,
      "carbur": 7659,
      "Ġproducida": 7660,
      "maba": 7661,
      "ecas": 7662,
      "Ġvulnero": 7663,
      "Ġapla": 7664,
      "Ġdesigu": 7665,
      "Ġconsig": 7666,
      "Ġmov": 7667,
      "anwal": 7668,
      "Ġestaria": 7669,
      "Ġcomienzo": 7670,
      "Ġdeficiencias": 7671,
      "Ġapues": 7672,
      "brar": 7673,
      "tino": 7674,
      "Ġquo": 7675,
      "Ġtranscurso": 7676,
      "mans": 7677,
      "Ġ340": 7678,
      "Ġgarantice": 7679,
      "Ġplus": 7680,
      "Ġreviste": 7681,
      "Ġpotenciales": 7682,
      "Ġplanificacion": 7683,
      "Ġtoler": 7684,
      "pia": 7685,
      "Ġlibros": 7686,
      "Ġconciliacion": 7687,
      "Ġincertidu": 7688,
      "Ġpropietarios": 7689,
      "Ġintr": 7690,
      "63": 7691,
      "Ġases": 7692,
      "Ġadmitirse": 7693,
      "Ġrealizan": 7694,
      "Ġfarmaceuticos": 7695,
      "Ġconfieren": 7696,
      "Ġsemana": 7697,
      "Ġagro": 7698,
      "ago": 7699,
      "Ġrio": 7700,
      "Ġconceb": 7701,
      "Ġucran": 7702,
      "Ġsenalan": 7703,
      "fen": 7704,
      "Ġrespectivo": 7705,
      "Ġincomple": 7706,
      "Ġotorgadas": 7707,
      "Ġparticipo": 7708,
      "Ġjuzgada": 7709,
      "Ġobstaculizar": 7710,
      "Ġwest": 7711,
      "Ġselectiva": 7712,
      "Ġpercibido": 7713,
      "Ġbundesver": 7714,
      "Ġconversion": 7715,
      "Ġexcesiva": 7716,
      "partes": 7717,
      "Ġstan": 7718,
      "Ġdesempeno": 7719,
      "Ġurg": 7720,
      "Ġcosta": 7721,
      "Ġantigua": 7722,
      "Ġestando": 7723,
      "Ġbov": 7724,
      "Ġfinanciar": 7725,
      "Ġ520": 7726,
      "Ġ297": 7727,
      "Ġguia": 7728,
      "Ġbayer": 7729,
      "Ġajusta": 7730,
      "87": 7731,
      "Ġampliar": 7732,
      "Ġpresunta": 7733,
      "Ġmutua": 7734,
      "Ġherramien": 7735,
      "Ġfuerzas": 7736,
      "Ġdiscriminatoria": 7737,
      "Ġbundesfinanz": 7738,
      "zen": 7739,
      "carburos": 7740,
      "Ġprestadores": 7741,
      "Ġ302": 7742,
      "Ġperfectamente": 7743,
      "Ġterminacion": 7744,
      "Ġvuelos": 7745,
      "Ġexpuso": 7746,
      "Ġvisado": 7747,
      "Ġwin": 7748,
      "Ġ275": 7749,
      "Ġquimicos": 7750,
      "Ġparticipa": 7751,
      "Ġwagner": 7752,
      "rada": 7753,
      "Ġahorro": 7754,
      "her": 7755,
      "Ġgenero": 7756,
      "Ġtun": 7757,
      "Ġgene": 7758,
      "Ġviajeros": 7759,
      "cker": 7760,
      "Ġmezclas": 7761,
      "Ġsufri": 7762,
      "Ġincorporacion": 7763,
      "Ġly": 7764,
      "Ġprocedera": 7765,
      "Ġcontactos": 7766,
      "Ġbarrister": 7767,
      "Ġcit": 7768,
      "Ġrefin": 7769,
      "Ġlie": 7770,
      "Ġdemuestran": 7771,
      "Ġvayan": 7772,
      "fur": 7773,
      "tif": 7774,
      "Ġgre": 7775,
      "Ġadmitido": 7776,
      "Ġdictadas": 7777,
      "Ġmens": 7778,
      "Ġefectuo": 7779,
      "Ġchris": 7780,
      "Ġdetalle": 7781,
      "Ġsto": 7782,
      "Ġinn": 7783,
      "Ġinstancias": 7784,
      "nia": 7785,
      "cripciones": 7786,
      "Ġindique": 7787,
      "kom": 7788,
      "Ġconec": 7789,
      "Ġcosme": 7790,
      "Ġsalarios": 7791,
      "Ġincoar": 7792,
      "Ġmc": 7793,
      "Ġconsultivo": 7794,
      "Ġretroactivo": 7795,
      "Ġoptar": 7796,
      "Ġargen": 7797,
      "Ġ244": 7798,
      "mbo": 7799,
      "ficios": 7800,
      "Ġdesfavor": 7801,
      "Ġsg": 7802,
      "Ġllega": 7803,
      "Ġmadre": 7804,
      "Ġemergencia": 7805,
      "yl": 7806,
      "Ġefectuara": 7807,
      "Ġcompetitiva": 7808,
      "Ġdicto": 7809,
      "Ġ232": 7810,
      "Ġ308": 7811,
      "Ġobtenidas": 7812,
      "Ġminerales": 7813,
      "Ġquede": 7814,
      "Ġiba": 7815,
      "Ġcancelacion": 7816,
      "Ġvicios": 7817,
      "Ġmundo": 7818,
      "Ġlucion": 7819,
      "lp": 7820,
      "Ġprohibiciones": 7821,
      "Ġhagan": 7822,
      "Ġpretenden": 7823,
      "Ġgarantizada": 7824,
      "Ġdelic": 7825,
      "Ġdelle": 7826,
      "Ġ266": 7827,
      "Ġlegitimos": 7828,
      "ollamt": 7829,
      "Ġcy": 7830,
      "Ġmezcla": 7831,
      "Ġepigra": 7832,
      "Ġsolicite": 7833,
      "Ġcajas": 7834,
      "Ġ280": 7835,
      "Ġdecisiva": 7836,
      "pir": 7837,
      "Ġses": 7838,
      "Ġfalsear": 7839,
      "Ġvencimiento": 7840,
      "jeria": 7841,
      "Ġvalorizacion": 7842,
      "uti": 7843,
      "Ġconcordan": 7844,
      "Ġturismo": 7845,
      "Ġsentenciadecision": 7846,
      "Ġcostasparte": 7847,
      "Ġenfermedades": 7848,
      "Ġdiscon": 7849,
      "Ġprofes": 7850,
      "Ġ285": 7851,
      "Ġsueco": 7852,
      "Ġconfederacion": 7853,
      "Ġdisfrute": 7854,
      "Ġdesis": 7855,
      "Ġexpedidos": 7856,
      "Ġaparece": 7857,
      "ova": 7858,
      "Ġbasaba": 7859,
      "Ġpelic": 7860,
      "Ġponen": 7861,
      "Ġsostenible": 7862,
      "Ġremo": 7863,
      "minares": 7864,
      "Ġconceda": 7865,
      "Ġmaximos": 7866,
      "Ġlimitan": 7867,
      "Ġbei": 7868,
      "Ġvisual": 7869,
      "Ġprision": 7870,
      "Ġsuprimi": 7871,
      "Ġrecar": 7872,
      "Ġnederland": 7873,
      "dr": 7874,
      "Ġdesestimados": 7875,
      "Ġmetro": 7876,
      "Ġconstitutivos": 7877,
      "Ġobservo": 7878,
      "Ġincoacion": 7879,
      "Ġapropiada": 7880,
      "Ġoctavo": 7881,
      "Ġracion": 7882,
      "Ġmediacion": 7883,
      "Ġdesproporcionada": 7884,
      "propi": 7885,
      "Ġautonomas": 7886,
      "Ġneuma": 7887,
      "Ġdas": 7888,
      "Ġanadio": 7889,
      "Ġequipar": 7890,
      "gin": 7891,
      "Ġingen": 7892,
      "lona": 7893,
      "chap": 7894,
      "Ġbusqueda": 7895,
      "Ġpreliminares": 7896,
      "idado": 7897,
      "osos": 7898,
      "Ġfijadas": 7899,
      "Ġaceler": 7900,
      "Ġprofesor": 7901,
      "Ġponderacion": 7902,
      "Ġdirectas": 7903,
      "Ġempla": 7904,
      "Ġip": 7905,
      "Ġparagra": 7906,
      "Ġordene": 7907,
      "Ġhelenico": 7908,
      "Ġsirve": 7909,
      "Ġproporcionado": 7910,
      "Ġkra": 7911,
      "Ġsatisfactor": 7912,
      "Ġestad": 7913,
      "Ġministros": 7914,
      "Ġnombramientos": 7915,
      "Ġdisciplinario": 7916,
      "Ġeficiencia": 7917,
      "die": 7918,
      "Ġimplan": 7919,
      "Ġadopten": 7920,
      "Ġ282": 7921,
      "Ġsustra": 7922,
      "Ġdra": 7923,
      "Ġ269": 7924,
      "Ġadaptaciones": 7925,
      "Ġplataform": 7926,
      "Ġrecht": 7927,
      "Ġcomercializar": 7928,
      "Ġexcluirse": 7929,
      "Ġsobrese": 7930,
      "Ġreagrup": 7931,
      "Ġkirchberg": 7932,
      "Ġcondonacion": 7933,
      "Ġbruxelles": 7934,
      "Ġconservar": 7935,
      "Ġconlle": 7936,
      "Ġbasica": 7937,
      "Ġcompetidor": 7938,
      "Ġdublin": 7939,
      "Ġpretendia": 7940,
      "Ġfundamentacion": 7941,
      "stitu": 7942,
      "Ġmatriculacion": 7943,
      "Ġdependencia": 7944,
      "Ġprocur": 7945,
      "Ġtarea": 7946,
      "Ġze": 7947,
      "Ġlleve": 7948,
      "Ġlegislativas": 7949,
      "Ġfacilmente": 7950,
      "mal": 7951,
      "Ġnumeral": 7952,
      "ari": 7953,
      "fre": 7954,
      "Ġinterrump": 7955,
      "Ġaplicadas": 7956,
      "Ġconferir": 7957,
      "Ġflujo": 7958,
      "Ġmedioambientales": 7959,
      "Ġbundesfinanzhof": 7960,
      "Ġsurg": 7961,
      "Ġrango": 7962,
      "51": 7963,
      "orra": 7964,
      "Ġke": 7965,
      "Ġkre": 7966,
      "Ġpadres": 7967,
      "Ġabogada": 7968,
      "Ġterritoriales": 7969,
      "Ġpagados": 7970,
      "Ġneerlandesas": 7971,
      "Ġtransitoria": 7972,
      "Ġimponga": 7973,
      "Ġequip": 7974,
      "Ġmunicipales": 7975,
      "Ġquater": 7976,
      "Ġentra": 7977,
      "Ġmalta": 7978,
      "Ġescalon": 7979,
      "Ġmeritos": 7980,
      "Ġcompletar": 7981,
      "Ġrecogidas": 7982,
      "Ġhidrocarburos": 7983,
      "Ġperjudicar": 7984,
      "ction": 7985,
      "Ġexentos": 7986,
      "Ġregularidad": 7987,
      "44": 7988,
      "Ġalum": 7989,
      "Ġ413": 7990,
      "Ġmagis": 7991,
      "Ġestimacion": 7992,
      "fr": 7993,
      "Ġforal": 7994,
      "Ġalemanes": 7995,
      "Ġcrecimiento": 7996,
      "Ġanaloga": 7997,
      "Ġtradicional": 7998,
      "Ġsyn": 7999,
      "Ġutilice": 8000,
      "Ġgratuita": 8001,
      "Ġdespi": 8002,
      "Ġ289": 8003,
      "Ġterres": 8004,
      "Ġoportunidades": 8005,
      "Ġavvoca": 8006,
      "Ġestructuras": 8007,
      "Ġdenunci": 8008,
      "Ġacompanada": 8009,
      "Î»": 8010,
      "erido": 8011,
      "Ġenci": 8012,
      "Ġ273": 8013,
      "Ġalegados": 8014,
      "Ġcomputo": 8015,
      "Ġenjuiciamiento": 8016,
      "Ġnuestra": 8017,
      "Ġempren": 8018,
      "Ġcomprobado": 8019,
      "erts": 8020,
      "ussel": 8021,
      "vel": 8022,
      "Ġpermanentes": 8023,
      "Ġcatal": 8024,
      "Ġelectricos": 8025,
      "iendas": 8026,
      "Ġresta": 8027,
      "Ġparticularidades": 8028,
      "Ġequivale": 8029,
      "Ġ251": 8030,
      "Ġmensual": 8031,
      "pes": 8032,
      "isso": 8033,
      "Ġencontraba": 8034,
      "Ġembala": 8035,
      "ilizacion": 8036,
      "Ġresuelto": 8037,
      "Ġhungaro": 8038,
      "Ġatender": 8039,
      "Ġluis": 8040,
      "Ġdescribe": 8041,
      "Ġnumerosas": 8042,
      "Ġindicepartes": 8043,
      "Ġhauptz": 8044,
      "Ġunan": 8045,
      "Ġcorrespondia": 8046,
      "Ġconsultar": 8047,
      "Ġpensar": 8048,
      "Ġvariedad": 8049,
      "Ġaprobada": 8050,
      "Ġrecuper": 8051,
      "67": 8052,
      "icana": 8053,
      "Ġ307": 8054,
      "Ġriguros": 8055,
      "Ġalternativas": 8056,
      "Ġimproce": 8057,
      "Ġstu": 8058,
      "teza": 8059,
      "Ġbran": 8060,
      "Ġsustituido": 8061,
      "Ġintegral": 8062,
      "Ġestadisticas": 8063,
      "Ġincompe": 8064,
      "Ġgrass": 8065,
      "Ġapuestas": 8066,
      "Ġcumplirse": 8067,
      "Ġsom": 8068,
      "Ġtestimon": 8069,
      "Ġrefiera": 8070,
      "metro": 8071,
      "Ġhauptzollamt": 8072,
      "Ġordenador": 8073,
      "Ġrefugiado": 8074,
      "Ġsituada": 8075,
      "Ġfinalizacion": 8076,
      "Ġdirigio": 8077,
      "Ġprobabilidad": 8078,
      "Ġnic": 8079,
      "lik": 8080,
      "Ġjustificarse": 8081,
      "Ġpreservar": 8082,
      "Ġindicepartesmotivacion": 8083,
      "Ġconstituyan": 8084,
      "Ġfijada": 8085,
      "Ġexcluida": 8086,
      "Ġhier": 8087,
      "Ġaprobar": 8088,
      "Ġsiguiendo": 8089,
      "Ġsupedita": 8090,
      "Ġimputable": 8091,
      "Ġexpresado": 8092,
      "Ġfacultado": 8093,
      "Ġalme": 8094,
      "Ġimportado": 8095,
      "Ġcaracteriza": 8096,
      "Ġfabricados": 8097,
      "toriedad": 8098,
      "Ġ384": 8099,
      "Ġdistorsion": 8100,
      "Ġobjecion": 8101,
      "Ġfactico": 8102,
      "Ġgulmann": 8103,
      "Ġfianza": 8104,
      "Ġ1962": 8105,
      "Ġacontecimientos": 8106,
      "Ġnumerosos": 8107,
      "Ñı": 8108,
      "Ġruiz": 8109,
      "Ġgatt": 8110,
      "Ġprocedia": 8111,
      "Ġtransferencias": 8112,
      "wy": 8113,
      "Ġconcertadas": 8114,
      "Ġtedh": 8115,
      "nandez": 8116,
      "Ġaprobo": 8117,
      "tian": 8118,
      "Ġimpul": 8119,
      "Ġ240": 8120,
      "Ġmotivar": 8121,
      "Ġcargaran": 8122,
      "Ġcaza": 8123,
      "Ġfacilitada": 8124,
      "Ġrefleja": 8125,
      "Ġinterrupcion": 8126,
      "2018": 8127,
      "Ġexperimen": 8128,
      "Ġ304": 8129,
      "Ġdesarrollado": 8130,
      "Ġhoge": 8131,
      "Ġvera": 8132,
      "Ġrecogido": 8133,
      "Ġabierta": 8134,
      "bserv": 8135,
      "Ġasal": 8136,
      "Ġclin": 8137,
      "Ġsubsidio": 8138,
      "Ġprobatorio": 8139,
      "Ġedificio": 8140,
      "Ġcauda": 8141,
      "inten": 8142,
      "Ġ665": 8143,
      "Ġregularizacion": 8144,
      "Ġrepercusion": 8145,
      "Ġinequivoca": 8146,
      "Ġequitativa": 8147,
      "Ġmue": 8148,
      "Ġfotogra": 8149,
      "Ġmodi": 8150,
      "Ġdefensor": 8151,
      "Ġrecogidos": 8152,
      "Ġconcentraciones": 8153,
      "Ġwh": 8154,
      "Ġencontrar": 8155,
      "Ġvoluntaria": 8156,
      "Ġirrelevante": 8157,
      "eg": 8158,
      "zara": 8159,
      "Ġreconsideracion": 8160,
      "Ġ262": 8161,
      "Ġbasico": 8162,
      "Ġsaldo": 8163,
      "Ġagrav": 8164,
      "Ġarmonizado": 8165,
      "Ġexigible": 8166,
      "Ġresultaba": 8167,
      "lina": 8168,
      "Ġfuncional": 8169,
      "Ġexplicacion": 8170,
      "Ġaparte": 8171,
      "Ġantecede": 8172,
      "Ġasiento": 8173,
      "Ġdesigual": 8174,
      "gencias": 8175,
      "locu": 8176,
      "Ġcasa": 8177,
      "reich": 8178,
      "Ġ277": 8179,
      "Ġequidad": 8180,
      "Ġexclusivos": 8181,
      "Ġvende": 8182,
      "Ġextraccion": 8183,
      "Ġrecordo": 8184,
      "Ġarancelario": 8185,
      "Ġexigidas": 8186,
      "zadas": 8187,
      "Ġhojas": 8188,
      "Ġ252": 8189,
      "lux": 8190,
      "Ġsolicitaba": 8191,
      "carse": 8192,
      "ska": 8193,
      "Ġestuvo": 8194,
      "Ġculturales": 8195,
      "Ġedward": 8196,
      "vera": 8197,
      "mmer": 8198,
      "Ġtv": 8199,
      "tadt": 8200,
      "Ġ231": 8201,
      "ardo": 8202,
      "Ġ294": 8203,
      "Ġalumin": 8204,
      "Ġ281": 8205,
      "Ġrespetado": 8206,
      "iras": 8207,
      "Ġ254": 8208,
      "Ġreti": 8209,
      "Ġdm": 8210,
      "Ġinterlocu": 8211,
      "Ġintensidad": 8212,
      "Ġhere": 8213,
      "Ġislandia": 8214,
      "Ġavan": 8215,
      "Ġiz": 8216,
      "Ġsul": 8217,
      "Ġinteriores": 8218,
      "Ġorganizar": 8219,
      "Ġcerteza": 8220,
      "Ġtren": 8221,
      "tionale": 8222,
      "Ġproducidos": 8223,
      "Ġaeropuertos": 8224,
      "Ġaceptado": 8225,
      "Ġimplicadas": 8226,
      "teralmente": 8227,
      "Ġincondi": 8228,
      "Ġmodifico": 8229,
      "Ġinvocan": 8230,
      "Ġcamar": 8231,
      "Ġejecutiva": 8232,
      "Ġconsiderablemente": 8233,
      "Ġindicadas": 8234,
      "Ġpronunciado": 8235,
      "elec": 8236,
      "Ġestablecera": 8237,
      "Ġrecau": 8238,
      "Ġconflictos": 8239,
      "Ġestandar": 8240,
      "Ġalimentaria": 8241,
      "Ġdefinida": 8242,
      "Ġsuscrito": 8243,
      "Ġestructurales": 8244,
      "Ġparalelo": 8245,
      "Ġ721": 8246,
      "Ġpostales": 8247,
      "Ġcubierto": 8248,
      "Ġhabitualmente": 8249,
      "Ġsoportar": 8250,
      "mna": 8251,
      "Ġ325": 8252,
      "Ġ900": 8253,
      "tano": 8254,
      "Ġaudiovis": 8255,
      "Ġparecen": 8256,
      "Ġsolidar": 8257,
      "Ġakzo": 8258,
      "Ġepigrafe": 8259,
      "Ġnegocio": 8260,
      "Ġcigar": 8261,
      "Ġultra": 8262,
      "Ġexija": 8263,
      "venta": 8264,
      "Ġmark": 8265,
      "Ġartes": 8266,
      "Ġ301": 8267,
      "Ġcanal": 8268,
      "Ġserian": 8269,
      "Ġ246": 8270,
      "Ġlumin": 8271,
      "Ġposiciones": 8272,
      "Ġextiende": 8273,
      "Ġcifra": 8274,
      "Ġmax": 8275,
      "Ġmicro": 8276,
      "Ġafiliacion": 8277,
      "Ġalgodon": 8278,
      "Ġbilaterales": 8279,
      "Ġbg": 8280,
      "Ġfitosanitarios": 8281,
      "Ġformato": 8282,
      "Ġrelativamente": 8283,
      "ienen": 8284,
      "midad": 8285,
      "Ġcanada": 8286,
      "Ġincertidumbre": 8287,
      "Ġaccionista": 8288,
      "Ġshell": 8289,
      "Ġcaracteristica": 8290,
      "Ġgeograficas": 8291,
      "Ġguber": 8292,
      "Ġapoyar": 8293,
      "Ġmanip": 8294,
      "Ġsubya": 8295,
      "Ġgradu": 8296,
      "Ġ360": 8297,
      "Ġacepta": 8298,
      "Ġafirmado": 8299,
      "Ġacordado": 8300,
      "organ": 8301,
      "Ġcautelares": 8302,
      "Ġguberna": 8303,
      "Ġdenega": 8304,
      "lando": 8305,
      "Ġdictamenes": 8306,
      "Ġreflej": 8307,
      "tm": 8308,
      "Ġaparato": 8309,
      "Ġsupeditada": 8310,
      "Ġretirar": 8311,
      "Ġvinculantes": 8312,
      "Ġ404": 8313,
      "ĠartÄ±culos": 8314,
      "Ġregres": 8315,
      "Ġelegido": 8316,
      "Ġinnovacion": 8317,
      "Ġpracticamente": 8318,
      "fina": 8319,
      "mig": 8320,
      "Ġ331": 8321,
      "Ġdeterminan": 8322,
      "Ġgrab": 8323,
      "Ġ391": 8324,
      "Ġpaci": 8325,
      "Ġindemnizaciones": 8326,
      "Ġinfractor": 8327,
      "Ġevidentemente": 8328,
      "Ġpedir": 8329,
      "Ġsilvestres": 8330,
      "Ġrefun": 8331,
      "Ġhecha": 8332,
      "Ġbhm": 8333,
      "Ġguerra": 8334,
      "Ġsatisfec": 8335,
      "Ġpaz": 8336,
      "Ġ857": 8337,
      "Ġiniciativas": 8338,
      "Ġprevisible": 8339,
      "Ġisla": 8340,
      "dul": 8341,
      "Ġordinaria": 8342,
      "Ġrechtsanwal": 8343,
      "Ġ264": 8344,
      "anzas": 8345,
      "Ġleon": 8346,
      "Ġ317": 8347,
      "Ġbedro": 8348,
      "Ġpendientes": 8349,
      "Ġcodific": 8350,
      "Ġplaza": 8351,
      "Ġbedroom": 8352,
      "Ġpermane": 8353,
      "Ġtransfronterizo": 8354,
      "Ġjovenes": 8355,
      "ficos": 8356,
      "Ġcaracterizada": 8357,
      "centes": 8358,
      "sible": 8359,
      "Ġprovi": 8360,
      "Ġconsideren": 8361,
      "Ġantonio": 8362,
      "Ġcomunicara": 8363,
      "hus": 8364,
      "Ġtecnologias": 8365,
      "áĥĲáĥ": 8366,
      "Ġsucursal": 8367,
      "Ġpreferencial": 8368,
      "Ġcompradores": 8369,
      "port": 8370,
      "Ġpresumir": 8371,
      "cera": 8372,
      "Ġinobserv": 8373,
      "cini": 8374,
      "Ġinsuficiencia": 8375,
      "Ġsuperv": 8376,
      "Ġpronuncio": 8377,
      "Ġvacante": 8378,
      "Ġcontinuada": 8379,
      "Ġmodalidad": 8380,
      "59": 8381,
      "aje": 8382,
      "Ġnord": 8383,
      "Ġprovo": 8384,
      "Ġremuner": 8385,
      "Ġseguidamente": 8386,
      "Ġluces": 8387,
      "Ġobligatorios": 8388,
      "Ġmejo": 8389,
      "tore": 8390,
      "Ġpuisso": 8391,
      "Ġ1967": 8392,
      "Ġaci": 8393,
      "Ġexaminada": 8394,
      "Ġpresidenta": 8395,
      "uncias": 8396,
      "Ġaduaneros": 8397,
      "Ġ314": 8398,
      "Ġturco": 8399,
      "Ġespec": 8400,
      "Ġconvin": 8401,
      "Ġdecisivo": 8402,
      "Ġingre": 8403,
      "Ġincluya": 8404,
      "Ġadapta": 8405,
      "Ġmencionan": 8406,
      "Ġordeno": 8407,
      "echten": 8408,
      "Ġ!": 8409,
      "lag": 8410,
      "Ġvisi": 8411,
      "recido": 8412,
      "Ġ237": 8413,
      "Ġ584": 8414,
      "200": 8415,
      "Ġ720": 8416,
      "Ġsaneamiento": 8417,
      "Ġduplica": 8418,
      "Ġaccidentes": 8419,
      "logo": 8420,
      "Ġintroducido": 8421,
      "Ġpertenecen": 8422,
      "Ġhonorarios": 8423,
      "Ġnoti": 8424,
      "Ġalcoholicas": 8425,
      "Ġponder": 8426,
      "Õ¡Õ": 8427,
      "sales": 8428,
      "cken": 8429,
      "Ġdara": 8430,
      "Ġislas": 8431,
      "Ġsolidariamente": 8432,
      "Ġviolencia": 8433,
      "Ġaval": 8434,
      "Ġ284": 8435,
      "Ġllevan": 8436,
      "Ġmodos": 8437,
      "Ġdussel": 8438,
      "Ġelectrico": 8439,
      "usta": 8440,
      "Ġ336": 8441,
      "Ġpostal": 8442,
      "Ġexpedientes": 8443,
      "Ġvolumenes": 8444,
      "Ġliberalizacion": 8445,
      "Ġcroa": 8446,
      "Ġindustrias": 8447,
      "Ġatribuciones": 8448,
      "Ġdebajo": 8449,
      "Ġfide": 8450,
      "Ġadscri": 8451,
      "Ġpenas": 8452,
      "Ġbarce": 8453,
      "Ġenla": 8454,
      "Ġtransmitido": 8455,
      "Ġdeducciones": 8456,
      "Ġcomentarios": 8457,
      "Ġalcal": 8458,
      "iano": 8459,
      "Ġabarca": 8460,
      "Ġquis": 8461,
      "Ġinoper": 8462,
      "Ġdificultad": 8463,
      "Ġjusto": 8464,
      "Ġmel": 8465,
      "Ġcicl": 8466,
      "Ġproporcionadas": 8467,
      "Ġexplotaciones": 8468,
      "Ġbastante": 8469,
      "Ġici": 8470,
      "Ġllevara": 8471,
      "Ġsusceptibles": 8472,
      "Ġpuissochet": 8473,
      "Õ«": 8474,
      "Ġencen": 8475,
      "Ġdesempenar": 8476,
      "Ġintercambi": 8477,
      "Ġaclarar": 8478,
      "Ġesfuerzos": 8479,
      "Ġ700": 8480,
      "jamiento": 8481,
      "Ġactas": 8482,
      "Ġpala": 8483,
      "Ġelaborados": 8484,
      "Ġdisuasorio": 8485,
      "Ġdec": 8486,
      "Ġcomercializados": 8487,
      "Ġperu": 8488,
      "Ġ620": 8489,
      "Ġmensu": 8490,
      "Ġpoliticos": 8491,
      "Ġxx": 8492,
      "Ġparr": 8493,
      "istente": 8494,
      "Ġliechten": 8495,
      "Ġreembols": 8496,
      "Ġinobservancia": 8497,
      "Ġcompras": 8498,
      "Ġtransformaciones": 8499,
      "Ġpetroleo": 8500,
      "Ġacompanado": 8501,
      "Ġsateli": 8502,
      "Ġejemplos": 8503,
      "Ġabsor": 8504,
      "arados": 8505,
      "Ġmanual": 8506,
      "Ġ355": 8507,
      "Ġacido": 8508,
      "Ġcomba": 8509,
      "Ġ313": 8510,
      "Ġsinteticas": 8511,
      "Ġanun": 8512,
      "Ġjustifique": 8513,
      "Ġ338": 8514,
      "zzi": 8515,
      "togra": 8516,
      "Ġbalance": 8517,
      "Ġbundesgerichtshof": 8518,
      "Ġexito": 8519,
      "Ġcodigos": 8520,
      "Ġcompensatorios": 8521,
      "hal": 8522,
      "Ġ311": 8523,
      "Ġpronunciamiento": 8524,
      "licos": 8525,
      "Ġinterpusieron": 8526,
      "Ġanuncios": 8527,
      "cucion": 8528,
      "tero": 8529,
      "Ġveterinarios": 8530,
      "Ġsolicitados": 8531,
      "Ġup": 8532,
      "Ġaporta": 8533,
      "Ġapelli": 8534,
      "Ġresiduales": 8535,
      "Ġobtuvo": 8536,
      "Ġmuchas": 8537,
      "Ġmemor": 8538,
      "gadores": 8539,
      "Ġnegativo": 8540,
      "Ġgana": 8541,
      "Ġcausar": 8542,
      "Ġhemos": 8543,
      "Ġiglesias": 8544,
      "Ġdebiendo": 8545,
      "Ġarroz": 8546,
      "Ġdistingue": 8547,
      "Ġhamburg": 8548,
      "Ġvideo": 8549,
      "bio": 8550,
      "Ġnominal": 8551,
      "Ġ309": 8552,
      "Ġentregar": 8553,
      "Ġcam": 8554,
      "ĠjurÄ±": 8555,
      "fes": 8556,
      "Ġindicada": 8557,
      "Ġrubrica": 8558,
      "Ġliechtenstein": 8559,
      "Ġprohibido": 8560,
      "Ġrefuer": 8561,
      "abellon": 8562,
      "Ġpedido": 8563,
      "Ġrepresentan": 8564,
      "Ġpabellon": 8565,
      "Ġtraslada": 8566,
      "Ġinclusive": 8567,
      "Ġalmeida": 8568,
      "rek": 8569,
      "Ġindirectos": 8570,
      "Ġdescarga": 8571,
      "Ġtrimestre": 8572,
      "Ġprocura": 8573,
      "Ġpequenos": 8574,
      "Ġdistorsiones": 8575,
      "rezcan": 8576,
      "Ġmuerte": 8577,
      "ute": 8578,
      "cidas": 8579,
      "Ġcana": 8580,
      "ordina": 8581,
      "Ġbasicos": 8582,
      "Ġ316": 8583,
      "Ġponga": 8584,
      "ded": 8585,
      "talizacion": 8586,
      "Ġpreveia": 8587,
      "Ġtemas": 8588,
      "Ġprecisiones": 8589,
      "zio": 8590,
      "gru": 8591,
      "Ġprobablemente": 8592,
      "Ġincl": 8593,
      "Ġpantal": 8594,
      "Ġbarcelona": 8595,
      "Ġelevada": 8596,
      "Ġterapeu": 8597,
      "Ġ350": 8598,
      "Ġaparente": 8599,
      "Ġdiagnostico": 8600,
      "Ġdesti": 8601,
      "Ġsuperinten": 8602,
      "trado": 8603,
      "abe": 8604,
      "Ġperfeccion": 8605,
      "illo": 8606,
      "Ġoperativo": 8607,
      "Ġmultip": 8608,
      "Ġcapitulos": 8609,
      "Ġbenelux": 8610,
      "Ġconsorcio": 8611,
      "mbres": 8612,
      "Ġangu": 8613,
      "Ġclima": 8614,
      "Ġaereos": 8615,
      "Ġdeclaradas": 8616,
      "Ġdusseldorf": 8617,
      "Ġ291": 8618,
      "medio": 8619,
      "Ġaportadas": 8620,
      "Ġpoblaciones": 8621,
      "Ġia": 8622,
      "Ġsustituye": 8623,
      "sec": 8624,
      "Ġprogen": 8625,
      "Ġpresidencia": 8626,
      "fel": 8627,
      "Ġrean": 8628,
      "Ïī": 8629,
      "Ġedificios": 8630,
      "Ġpy": 8631,
      "Ġenunciado": 8632,
      "Ġnederlan": 8633,
      "Ġconstituidas": 8634,
      "Ġlena": 8635,
      "Ġverdadera": 8636,
      "Ġ374": 8637,
      "Ġindefinido": 8638,
      "itin": 8639,
      "Ġrol": 8640,
      "Ġki": 8641,
      "Ġkor": 8642,
      "Ġbilateral": 8643,
      "Ġinti": 8644,
      "Ġauth": 8645,
      "ader": 8646,
      "mino": 8647,
      "Ġradic": 8648,
      "Ġactualidad": 8649,
      "Ġobservado": 8650,
      "Ġtox": 8651,
      "tablec": 8652,
      "vista": 8653,
      "Ġmonto": 8654,
      "Ġcolumna": 8655,
      "Ġencargada": 8656,
      "Ġindicando": 8657,
      "Ġverb": 8658,
      "Ġvarie": 8659,
      "itud": 8660,
      "Ġfundadamente": 8661,
      "Ġaver": 8662,
      "Ġvulnerado": 8663,
      "Ġsolidaridad": 8664,
      "Ġabre": 8665,
      "guirse": 8666,
      "Ġcomis": 8667,
      "Ġhombre": 8668,
      "uales": 8669,
      "Ġmilan": 8670,
      "Ġdeclarados": 8671,
      "Ġinvocarse": 8672,
      "Ġphili": 8673,
      "Ġ248": 8674,
      "Ġpeligrosos": 8675,
      "rera": 8676,
      "Ġremitir": 8677,
      "Ġ328": 8678,
      "Ġreconocen": 8679,
      "Ġprescrito": 8680,
      "Ġinmunidad": 8681,
      "Ġanalogos": 8682,
      "Ã°": 8683,
      "Ġjacobs": 8684,
      "ivin": 8685,
      "Ġoliva": 8686,
      "Ġparce": 8687,
      "Ġchile": 8688,
      "Ġinterpuestos": 8689,
      "Ġfundacion": 8690,
      "Ġasegurarse": 8691,
      "Ġpuntual": 8692,
      "ejo": 8693,
      "Ġcorto": 8694,
      "Ġsy": 8695,
      "Ġdor": 8696,
      "Ġ1907": 8697,
      "Ġmencionar": 8698,
      "Ġviviendas": 8699,
      "Ġparalela": 8700,
      "ciar": 8701,
      "rillos": 8702,
      "hen": 8703,
      "Ġvinculacion": 8704,
      "Ġotorgada": 8705,
      "Ġsion": 8706,
      "art": 8707,
      "Ġenviado": 8708,
      "Ġreguladas": 8709,
      "Ġ376": 8710,
      "Ġ379": 8711,
      "Ġdocente": 8712,
      "Ġredon": 8713,
      "Ġ409": 8714,
      "Ġadjun": 8715,
      "Ġvacuno": 8716,
      "king": 8717,
      "Ġmaritima": 8718,
      "Ġtrava": 8719,
      "Ġfrom": 8720,
      "Ġnitro": 8721,
      "tariamente": 8722,
      "Ġ315": 8723,
      "Ġautonomos": 8724,
      "Ġexplicitamente": 8725,
      "itor": 8726,
      "Ġreivin": 8727,
      "Ġexplicar": 8728,
      "ministra": 8729,
      "Ġresuelve": 8730,
      "Ġsesiones": 8731,
      "Ġry": 8732,
      "Ġ242": 8733,
      "Ġintroducidas": 8734,
      "kas": 8735,
      "Ġsimp": 8736,
      "Ġcorrecciones": 8737,
      "Ġdete": 8738,
      "Ġcomenzar": 8739,
      "emos": 8740,
      "Ġcongelacion": 8741,
[...]
