{
  "version": "1.0",
  "truncation": null,
  "padding": null,
  "added_tokens": [
    {
      "id": 0,
      "content": "<pad>",
      "single_word": false,
      "lstrip": false,
      "rstrip": false,
      "normalized": false,
      "special": true
    },
    {
      "id": 1,
      "content": "<s>",
      "single_word": false,
      "lstrip": false,
      "rstrip": false,
      "normalized": false,
      "special": true
    },
    {
      "id": 2,
      "content": "</s>",
      "single_word": false,
      "lstrip": false,
      "rstrip": false,
      "normalized": false,
      "special": true
    },
    {
      "id": 3,
      "content": "<unk>",
      "single_word": false,
      "lstrip": false,
      "rstrip": false,
      "normalized": false,
      "special": true
    },
    {
      "id": 4,
      "content": "<mask>",
      "single_word": false,
      "lstrip": false,
      "rstrip": false,
      "normalized": false,
      "special": true
    }
  ],
  "normalizer": {
    "type": "Sequence",
    "normalizers": [
      {
        "type": "NFKD"
      },
      {
        "type": "BertNormalizer",
        "clean_text": true,
        "handle_chinese_chars": true,
        "strip_accents": null,
        "lowercase": true
      }
    ]
  },
  "pre_tokenizer": {
    "type": "Sequence",
    "pretokenizers": [
      {
        "type": "BertPreTokenizer"
      },
      {
        "type": "ByteLevel",
        "add_prefix_space": true,
        "trim_offsets": true,
        "use_regex": true
      }
    ]
  },
  "post_processor": {
    "type": "RobertaProcessing",
    "sep": [
      "</s>",
      2
    ],
    "cls": [
      "<s>",
      1
    ],
    "trim_offsets": true,
    "add_prefix_space": true
  },
  "decoder": {
    "type": "ByteLevel",
    "add_prefix_space": true,
    "trim_offsets": true,
    "use_regex": true
  },
  "model": {
    "type": "BPE",
    "dropout": null,
    "unk_token": "<unk>",
    "continuing_subword_prefix": null,
    "end_of_word_suffix": null,
    "fuse_unk": false,
    "vocab": {
      "<pad>": 0,
      "<s>": 1,
      "</s>": 2,
      "<unk>": 3,
      "<mask>": 4,
      "!": 5,
      "\"": 6,
      "#": 7,
      "$": 8,
      "%": 9,
      "&": 10,
      "'": 11,
      "(": 12,
      ")": 13,
      "*": 14,
      "+": 15,
      ",": 16,
      "-": 17,
      ".": 18,
      "/": 19,
      "0": 20,
      "1": 21,
      "2": 22,
      "3": 23,
      "4": 24,
      "5": 25,
      "6": 26,
      "7": 27,
      "8": 28,
      "9": 29,
      ":": 30,
      ";": 31,
      "<": 32,
      "=": 33,
      ">": 34,
      "?": 35,
      "@": 36,
      "[": 37,
      "\\": 38,
      "]": 39,
      "^": 40,
      "_": 41,
      "`": 42,
      "a": 43,
      "b": 44,
      "c": 45,
      "d": 46,
      "e": 47,
      "f": 48,
      "g": 49,
      "h": 50,
      "i": 51,
      "j": 52,
      "k": 53,
      "l": 54,
      "m": 55,
      "n": 56,
      "o": 57,
      "p": 58,
      "q": 59,
      "r": 60,
      "s": 61,
      "t": 62,
      "u": 63,
      "v": 64,
      "w": 65,
      "x": 66,
      "y": 67,
      "z": 68,
      "{": 69,
      "|": 70,
      "}": 71,
      "~": 72,
      "¡": 73,
      "¢": 74,
      "£": 75,
      "¤": 76,
      "¥": 77,
      "¦": 78,
      "§": 79,
      "¨": 80,
      "©": 81,
      "ª": 82,
      "«": 83,
      "¬": 84,
      "®": 85,
      "¯": 86,
      "°": 87,
      "±": 88,
      "²": 89,
      "³": 90,
      "´": 91,
      "µ": 92,
      "¶": 93,
      "·": 94,
      "¸": 95,
      "¹": 96,
      "º": 97,
      "»": 98,
      "¼": 99,
      "½": 100,
      "¾": 101,
      "¿": 102,
      "Â": 103,
      "Ã": 104,
      "Ä": 105,
      "Å": 106,
      "Æ": 107,
      "É": 108,
      "Ê": 109,
      "Ë": 110,
      "Î": 111,
      "Ï": 112,
      "Ð": 113,
      "Ñ": 114,
      "Ò": 115,
      "Ó": 116,
      "Õ": 117,
      "Ö": 118,
      "×": 119,
      "Ø": 120,
      "Ù": 121,
      "Ú": 122,
      "ß": 123,
      "à": 124,
      "á": 125,
      "â": 126,
      "ã": 127,
      "ä": 128,
      "å": 129,
      "æ": 130,
      "ç": 131,
      "è": 132,
      "é": 133,
      "ê": 134,
      "ï": 135,
      "ð": 136,
      "Ġ": 137,
      "Ģ": 138,
      "ģ": 139,
      "Ĥ": 140,
      "ĥ": 141,
      "Ħ": 142,
      "ħ": 143,
      "Ĩ": 144,
      "ĩ": 145,
      "Ī": 146,
      "ī": 147,
      "Ĭ": 148,
      "ĭ": 149,
      "Į": 150,
      "į": 151,
      "İ": 152,
      "ı": 153,
      "Ĳ": 154,
      "ĳ": 155,
      "Ĵ": 156,
      "ĵ": 157,
      "Ķ": 158,
      "ķ": 159,
      "ĸ": 160,
      "Ĺ": 161,
      "ĺ": 162,
      "Ļ": 163,
      "ļ": 164,
      "Ľ": 165,
      "ľ": 166,
      "Ŀ": 167,
      "ŀ": 168,
      "Ł": 169,
      "ł": 170,
      "Ń": 171,
      "Ġd": 172,
      "Ġa": 173,
      "es": 174,
      "Ġp": 175,
      "co": 176,
      "Ġde": 177,
      "os": 178,
      "Ġ,": 179,
      "Ġe": 180,
      "nt": 181,
      "ca": 182,
      "re": 183,
      "Ġ.": 184,
      "ra": 185,
      "Ġco": 186,
      "Ġo": 187,
      "Ġs": 188,
      "Ġn": 189,
      "ri": 190,
      "ta": 191,
      "me": 192,
      "ti": 193,
      "da": 194,
      "is": 195,
      "ro": 196,
      "qu": 197,
      "do": 198,
      "ci": 199,
      "cao": 200,
      "te": 201,
      "as": 202,
      "in": 203,
      "Ġre": 204,
      "to": 205,
      "Ġqu": 206,
      "Ġdo": 207,
      "ma": 208,
      "Ġse": 209,
      "Ġ1": 210,
      "nte": 211,
      "or": 212,
      "de": 213,
      "la": 214,
      "al": 215,
      "Ġcom": 216,
      "Ġf": 217,
      "Ġda": 218,
      "Ġ2": 219,
      "ao": 220,
      "Ġu": 221,
      "res": 222,
      "Ġque": 223,
      "li": 224,
      "Ġ-": 225,
      "Ġpa": 226,
      "ve": 227,
      "ment": 228,
      "Ġcon": 229,
      "Ġ)": 230,
      "Ġes": 231,
      "Ġem": 232,
      "ce": 233,
      "Ġpro": 234,
      "Ġi": 235,
      "di": 236,
      "Ġno": 237,
      "pe": 238,
      "un": 239,
      "Ġin": 240,
      "Ġ(": 241,
      "Ġas": 242,
      "dos": 243,
      "le": 244,
      "Ġpe": 245,
      "Ġ/": 246,
      "Ġt": 247,
      "tiv": 248,
      "gu": 249,
      "on": 250,
      "mento": 251,
      "rti": 252,
      "Ġou": 253,
      "go": 254,
      "Ġme": 255,
      "Ġc": 256,
      "Ġm": 257,
      "tu": 258,
      "ida": 259,
      "coes": 260,
      "Ġca": 261,
      "so": 262,
      "nci": 263,
      "Ġb": 264,
      "Ġte": 265,
      "Ġ3": 266,
      "ga": 267,
      "Ġ20": 268,
      "lo": 269,
      "Ġdi": 270,
      "Ġos": 271,
      "ĠÂ": 272,
      "Ġex": 273,
      "Ġsu": 274,
      "Ġj": 275,
      "Ġpara": 276,
      "fe": 277,
      "Ġcons": 278,
      "das": 279,
      "fi": 280,
      "vi": 281,
      "Ġna": 282,
      "Ġesta": 283,
      "Ġma": 284,
      "Ġ0": 285,
      "Ġarti": 286,
      "ge": 287,
      "Ġap": 288,
      "Ġ|": 289,
      "acao": 290,
      "mb": 291,
      "us": 292,
      "Ġdes": 293,
      "Ġâ": 294,
      "Ġpor": 295,
      "cor": 296,
      "Ġnao": 297,
      "ni": 298,
      "tos": 299,
      "ĠâĢ": 300,
      "Ġartigo": 301,
      "Ġdos": 302,
      "cu": 303,
      "Ġ:": 304,
      "Ġum": 305,
      "an": 306,
      "mp": 307,
      "Ġdas": 308,
      "mente": 309,
      "du": 310,
      "er": 311,
      "nta": 312,
      "Ġuma": 313,
      "ncia": 314,
      "ho": 315,
      "ntes": 316,
      "Ġ4": 317,
      "Ġres": 318,
      "sao": 319,
      "Ġpo": 320,
      "ha": 321,
      "ria": 322,
      "Ġ5": 323,
      "Ġl": 324,
      "ces": 325,
      "Ġpre": 326,
      "Ġao": 327,
      "ran": 328,
      "ros": 329,
      "Ġv": 330,
      "lica": 331,
      "Ġser": 332,
      "Ġso": 333,
      "Ġdire": 334,
      "sa": 335,
      "pos": 336,
      "ito": 337,
      "rio": 338,
      "tiva": 339,
      "Ġ9": 340,
      "Ġce": 341,
      "idade": 342,
      "ar": 343,
      "ne": 344,
      "Ġeu": 345,
      "mi": 346,
      "rese": 347,
      "issao": 348,
      "gula": 349,
      "Ġ19": 350,
      "cion": 351,
      "Ġcont": 352,
      "des": 353,
      "Ġinte": 354,
      "fica": 355,
      "Ġ8": 356,
      "Ġregula": 357,
      "ais": 358,
      "Ġdis": 359,
      "Ġ200": 360,
      "va": 361,
      "gi": 362,
      "Ġcomissao": 363,
      "Ġrela": 364,
      "Ġdec": 365,
      "Ġau": 366,
      "na": 367,
      "Ġob": 368,
      "Ġ6": 369,
      "se": 370,
      "min": 371,
      "tra": 372,
      "Ġter": 373,
      "Ġto": 374,
      "no": 375,
      "Ġpar": 376,
      "Ġ7": 377,
      "cos": 378,
      "Ġ;": 379,
      "for": 380,
      "Ġcomun": 381,
      "Ġeuro": 382,
      "si": 383,
      "mo": 384,
      "Ġacor": 385,
      "rib": 386,
      "dade": 387,
      "Ġimp": 388,
      "el": 389,
      "gra": 390,
      "Ġdeve": 391,
      "ita": 392,
      "Ġal": 393,
      "za": 394,
      "ĠÂ°": 395,
      "Ġmo": 396,
      "he": 397,
      "lu": 398,
      "Ġpri": 399,
      "Ġeurope": 400,
      "Ġregulamento": 401,
      "Ġprodu": 402,
      "Ġfa": 403,
      "ia": 404,
      "ul": 405,
      "Ġne": 406,
      "mentos": 407,
      "pa": 408,
      "Ġfor": 409,
      "Ġdecis": 410,
      "ide": 411,
      "titu": 412,
      "Ġmemb": 413,
      "Ġve": 414,
      "Ġaplica": 415,
      "Ġtra": 416,
      "vo": 417,
      "Ġent": 418,
      "Ġrefe": 419,
      "vel": 420,
      "rca": 421,
      "Ġ201": 422,
      "ru": 423,
      "racao": 424,
      "Ġ10": 425,
      "Ġli": 426,
      "Ġpode": 427,
      "je": 428,
      "nto": 429,
      "Ġta": 430,
      "io": 431,
      "Ġg": 432,
      "Ġle": 433,
      "cesso": 434,
      "icao": 435,
      "Ġuni": 436,
      "en": 437,
      "Ġmedi": 438,
      "bre": 439,
      "Ġfun": 440,
      "cial": 441,
      "Ġins": 442,
      "tica": 443,
      "Ġsegu": 444,
      "Ġcomo": 445,
      "Ġsi": 446,
      "ira": 447,
      "tes": 448,
      "tori": 449,
      "ub": 450,
      "Ġen": 451,
      "Ġdecisao": 452,
      "Ġqual": 453,
      "Ġpelo": 454,
      "Ġtrib": 455,
      "Ġac": 456,
      "Ġinter": 457,
      "Ġnos": 458,
      "corre": 459,
      "rias": 460,
      "Ġju": 461,
      "Ġvi": 462,
      "ĠÂ»": 463,
      "ĠÂ«": 464,
      "Ġan": 465,
      "por": 466,
      "zacao": 467,
      "ter": 468,
      "Ġfi": 469,
      "nti": 470,
      "Ġpos": 471,
      "Ġconsel": 472,
      "Ġefe": 473,
      "Ġtribun": 474,
      "tivo": 475,
      "Ġconselho": 476,
      "iro": 477,
      "ĠâĢĲ": 478,
      "em": 479,
      "Ġfo": 480,
      "Ġtribunal": 481,
      "vis": 482,
      "iste": 483,
      "ili": 484,
      "Ġprese": 485,
      "tado": 486,
      "tas": 487,
      "Ġprocesso": 488,
      "Ġtran": 489,
      "Ġconside": 490,
      "Ġ199": 491,
      "que": 492,
      "Ġad": 493,
      "Ġ%": 494,
      "Ġaos": 495,
      "Ġpela": 496,
      "Ġfin": 497,
      "Ġcontra": 498,
      "cto": 499,
      "Ġpresente": 500,
      "ndo": 501,
      "itos": 502,
      "Ġdispos": 503,
      "Ġautori": 504,
      "Ġsobre": 505,
      "Ġrespe": 506,
      "cional": 507,
      "be": 508,
      "mos": 509,
      "00": 510,
      "Ġpes": 511,
      "Ġge": 512,
      "Ġtrans": 513,
      "Ġrep": 514,
      "Ġreferi": 515,
      "Ġespe": 516,
      "Ġqua": 517,
      "Ġab": 518,
      "Ġor": 519,
      "idades": 520,
      "Ġnu": 521,
      "Ġacordo": 522,
      "ĠâĢĶ": 523,
      "Ġmembros": 524,
      "Ġsub": 525,
      "Ġout": 526,
      "ja": 527,
      "clu": 528,
      "forma": 529,
      "ris": 530,
      "Ġestados": 531,
      "po": 532,
      "Ġci": 533,
      "rios": 534,
      "Ġla": 535,
      "Ġsua": 536,
      "Ġentre": 537,
      "ral": 538,
      "ju": 539,
      "Ġservi": 540,
      "icoes": 541,
      "resenta": 542,
      "cia": 543,
      "Ġuti": 544,
      "Ġ12": 545,
      "Ġh": 546,
      "Ġuniao": 547,
      "Ġ]": 548,
      "Ġ[": 549,
      "ver": 550,
      "Ġmes": 551,
      "Ġdirec": 552,
      "Ġ11": 553,
      "tacao": 554,
      "ĠâĢĵ": 555,
      "ublica": 556,
      "las": 557,
      "pen": 558,
      "mas": 559,
      "ves": 560,
      "ali": 561,
      "veis": 562,
      "Ġutili": 563,
      "Ġestado": 564,
      "Ġper": 565,
      "Ġdu": 566,
      "ase": 567,
      "bili": 568,
      "ram": 569,
      "Ġobje": 570,
      "Ġparti": 571,
      "cur": 572,
      "ir": 573,
      "Ġsa": 574,
      "pres": 575,
      "pon": 576,
      "tivos": 577,
      "Ġrecorre": 578,
      "lacao": 579,
      "Ġeuropeia": 580,
      "Ġale": 581,
      "Ġpres": 582,
      "dica": 583,
      "tura": 584,
      "dades": 585,
      "Ġele": 586,
      "Ġar": 587,
      "ada": 588,
      "los": 589,
      "Ġmerca": 590,
      "Ġmate": 591,
      "zo": 592,
      "Ġdireito": 593,
      "tivas": 594,
      "Ġpedi": 595,
      "ccao": 596,
      "Ġsao": 597,
      "nha": 598,
      "gem": 599,
      "gis": 600,
      "rior": 601,
      "Ġcu": 602,
      "xo": 603,
      "Ġprinci": 604,
      "cas": 605,
      "Ġparte": 606,
      "usa": 607,
      "tar": 608,
      "Ġprodutos": 609,
      "Ġinforma": 610,
      "Ġprincip": 611,
      "ina": 612,
      "Ġcaso": 613,
      "Ġti": 614,
      "Ġneces": 615,
      "Ġconta": 616,
      "Ġbase": 617,
      "esta": 618,
      "Ġprime": 619,
      "Ġacorda": 620,
      "Ġcomp": 621,
      "bele": 622,
      "Ġmercado": 623,
      "cie": 624,
      "rem": 625,
      "rar": 626,
      "ch": 627,
      "Ġestabele": 628,
      "Ġjus": 629,
      "sos": 630,
      "Ġseu": 631,
      "ine": 632,
      "quer": 633,
      "Ġfe": 634,
      "gos": 635,
      "mbro": 636,
      "gun": 637,
      "Ġ\"": 638,
      "Ġimpor": 639,
      "Ġ15": 640,
      "Ġ13": 641,
      "Ġrecur": 642,
      "Ġane": 643,
      "Ġdirectiva": 644,
      "Ġamb": 645,
      "Ġconfor": 646,
      "Ġ_": 647,
      "Ġrelativa": 648,
      "Ġfunda": 649,
      "Ġpropos": 650,
      "Ġjo": 651,
      "gacao": 652,
      "Ġprevis": 653,
      "Ġmedidas": 654,
      "Ġeste": 655,
      "Ġpartes": 656,
      "cio": 657,
      "Ġempres": 658,
      "dores": 659,
      "Ġsegun": 660,
      "ando": 661,
      "Ġrecorrente": 662,
      "Ġha": 663,
      "Ġval": 664,
      "Ġk": 665,
      "Ġservicos": 666,
      "Ġnas": 667,
      "Ġaplicacao": 668,
      "Ġlu": 669,
      "Ġexe": 670,
      "Ġmais": 671,
      "Ġado": 672,
      "Ġforma": 673,
      "bal": 674,
      "Ġespeci": 675,
      "Ġpra": 676,
      "Ġcausa": 677,
      "Ġalte": 678,
      "Ġmembro": 679,
      "fere": 680,
      "Ġ14": 681,
      "Ġcar": 682,
      "Ġsegui": 683,
      "Ġanexo": 684,
      "bri": 685,
      "Ġtermos": 686,
      "Ġra": 687,
      "Ġcondi": 688,
      "ncias": 689,
      "ncao": 690,
      "Ġqualquer": 691,
      "dor": 692,
      "Ġcome": 693,
      "Ġseja": 694,
      "estao": 695,
      "Ġregi": 696,
      "ze": 697,
      "mina": 698,
      "Ġcomunidade": 699,
      "rada": 700,
      "bilidade": 701,
      "idas": 702,
      "Ġoutros": 703,
      "Ġfoi": 704,
      "Ġacordao": 705,
      "cionais": 706,
      "Ġpedido": 707,
      "Ġori": 708,
      "Ġcor": 709,
      "Ġoutra": 710,
      "cer": 711,
      "Ġ17": 712,
      "Ġpesso": 713,
      "nda": 714,
      "ulta": 715,
      "tion": 716,
      "Ġapresenta": 717,
      "Ġdevem": 718,
      "Ġnecessa": 719,
      "Ġexce": 720,
      "qui": 721,
      "tri": 722,
      "Ġcomunita": 723,
      "Ġ16": 724,
      "Ġnome": 725,
      "Ġis": 726,
      "Ġproduto": 727,
      "Ġproce": 728,
      "Ġdeter": 729,
      "Ġdisposicoes": 730,
      "Ġgeral": 731,
      "Ġ00": 732,
      "Ġinclu": 733,
      "midade": 734,
      "lar": 735,
      "rao": 736,
      "xa": 737,
      "Ġcompe": 738,
      "Ġbe": 739,
      "Ġcee": 740,
      "Ġobri": 741,
      "pre": 742,
      "racoes": 743,
      "ribu": 744,
      "cri": 745,
      "Ġtrabal": 746,
      "ciona": 747,
      "tru": 748,
      "Ġpais": 749,
      "Ġorga": 750,
      "Ġinstitu": 751,
      "ica": 752,
      "ur": 753,
      "Ġga": 754,
      "ane": 755,
      "Ġ18": 756,
      "ficacao": 757,
      "Ġ30": 758,
      "Ġconformidade": 759,
      "nos": 760,
      "Ġdef": 761,
      "Ġrecurso": 762,
      "der": 763,
      "Ġope": 764,
      "Ġexecu": 765,
      "Ġutiliza": 766,
      "Ġsegundo": 767,
      "Ġcompete": 768,
      "iros": 769,
      "20": 770,
      "torio": 771,
      "Ġnor": 772,
      "almente": 773,
      "istra": 774,
      "lh": 775,
      "pes": 776,
      "sta": 777,
      "Ġcontro": 778,
      "gna": 779,
      "Ġw": 780,
      "Ġfinan": 781,
      "Ġ21": 782,
      "ista": 783,
      "ras": 784,
      "ministra": 785,
      "Ġjustica": 786,
      "Ġii": 787,
      "Ġcondicoes": 788,
      "Ġcomer": 789,
      "tro": 790,
      "Ġadministra": 791,
      "Ġrefere": 792,
      "Ġperio": 793,
      "Ġaline": 794,
      "Ġconce": 795,
      "Ġr": 796,
      "Ġsiste": 797,
      "Ġ29": 798,
      "Ġeuropeu": 799,
      "Ġrepublica": 800,
      "Ġmar": 801,
      "ns": 802,
      "Ġtem": 803,
      "gar": 804,
      "ite": 805,
      "Ġconstitu": 806,
      "Ġproposta": 807,
      "Ġimporta": 808,
      "ias": 809,
      "Ġnes": 810,
      "Ġeco": 811,
      "Ġfabri": 812,
      "Ġ'": 813,
      "nomi": 814,
      "Ġnacional": 815,
      "Ġ90": 816,
      "car": 817,
      "tua": 818,
      "Ġ31": 819,
      "Ġsus": 820,
      "Ġvalor": 821,
      "Ġue": 822,
      "Ġtendo": 823,
      "Ġprote": 824,
      "Ġni": 825,
      "bo": 826,
      "ido": 827,
      "Ġdespes": 828,
      "Ġlegis": 829,
      "Ġfinance": 830,
      "Ġcap": 831,
      "ranca": 832,
      "Ġ25": 833,
      "Ġesse": 834,
      "Ġconse": 835,
      "Ġ198": 836,
      "dia": 837,
      "Ġambito": 838,
      "Ġpreju": 839,
      "Ġass": 840,
      "Ġestabeleci": 841,
      "Ġjuris": 842,
      "Ġlimi": 843,
      "rado": 844,
      "vesti": 845,
      "Ġinsta": 846,
      "Ġdespesas": 847,
      "tal": 848,
      "Ġsupe": 849,
      "Ġlo": 850,
      "Ġeconomi": 851,
      "indo": 852,
      "Ġcri": 853,
      "Ġpublica": 854,
      "Ġrespeito": 855,
      "cl": 856,
      "Ġdireitos": 857,
      "tor": 858,
      "dro": 859,
      "Ġ23": 860,
      "Ġresulta": 861,
      "Ġsem": 862,
      "Ġtitu": 863,
      "Ġ22": 864,
      "Ġalinea": 865,
      "Ġdecla": 866,
      "Ġprop": 867,
      "Ġpodem": 868,
      "Ġmonta": 869,
      "Ġterce": 870,
      "Ġseus": 871,
      "Ġconte": 872,
      "Ġinformacoes": 873,
      "Ġmateria": 874,
      "Ġquando": 875,
      "Ġro": 876,
      "Ġprimeira": 877,
      "Ġmesmo": 878,
      "Ġindica": 879,
      "xi": 880,
      "Ġtratado": 881,
      "Ġquanto": 882,
      "Ġdesti": 883,
      "um": 884,
      "Ġdefin": 885,
      "Ġsuas": 886,
      "Ġperiodo": 887,
      "lamento": 888,
      "Ġexecucao": 889,
      "Ġ?": 890,
      "il": 891,
      "Ġrespeita": 892,
      "Ġadop": 893,
      "Ġoutras": 894,
      "gado": 895,
      "Ġjuri": 896,
      "Ġpas": 897,
      "ses": 898,
      "Ġreco": 899,
      "via": 900,
      "nde": 901,
      "sas": 902,
      "Ġprogra": 903,
      "Ġvo": 904,
      "Ġate": 905,
      "Ġreferido": 906,
      "Ġoutro": 907,
      "rante": 908,
      "ticas": 909,
      "rando": 910,
      "Ġ28": 911,
      "ber": 912,
      "Ġbem": 913,
      "Ġav": 914,
      "Ġinvesti": 915,
      "Ġace": 916,
      "Ġautoridades": 917,
      "Ġage": 918,
      "Ġanu": 919,
      "Ġigu": 920,
      "vol": 921,
      "Ġdesen": 922,
      "Ġja": 923,
      "ubli": 924,
      "Ġartigos": 925,
      "Ġ24": 926,
      "Ġdiretiva": 927,
      "Ġva": 928,
      "Ġprocedi": 929,
      "ba": 930,
      "Ġregra": 931,
      "ino": 932,
      "Ġabri": 933,
      "Ġmedida": 934,
      "Ġ26": 935,
      "mentacao": 936,
      "Ġmarca": 937,
      "erva": 938,
      "Ġcomunidades": 939,
      "Ġrepresenta": 940,
      "ente": 941,
      "Ġtec": 942,
      "Ġini": 943,
      "Ġapre": 944,
      "Ġeuropeias": 945,
      "Ġdocu": 946,
      "Ġjul": 947,
      "Ġho": 948,
      "Ġmin": 949,
      "Ġ27": 950,
      "Ġinteres": 951,
      "Ġdata": 952,
      "Ġasse": 953,
      "Ġrespon": 954,
      "Ġefec": 955,
      "duz": 956,
      "Ġrelativo": 957,
      "Ġtodos": 958,
      "ciacao": 959,
      "ios": 960,
      "clus": 961,
      "Ġpubli": 962,
      "Ġag": 963,
      "Ġdados": 964,
      "Ġdesi": 965,
      "mon": 966,
      "Ġsistema": 967,
      "Ġgra": 968,
      "Ġpermi": 969,
      "Ġinf": 970,
      "vencao": 971,
      "Ġtranspor": 972,
      "Ġpoli": 973,
      "Ġofi": 974,
      "Ġexer": 975,
      "Ġefeito": 976,
      "Ġcir": 977,
      "Ġthe": 978,
      "ing": 979,
      "Ġtal": 980,
      "tamento": 981,
      "Ġquestao": 982,
      "Ġpelos": 983,
      "Ġsido": 984,
      "Ġobriga": 985,
      "Ġgo": 986,
      "Ġul": 987,
      "ts": 988,
      "Ġseguinte": 989,
      "Ġ*": 990,
      "Ġcole": 991,
      "Ġtodas": 992,
      "Ġnume": 993,
      "Ġdeze": 994,
      "rie": 995,
      "Ġfacto": 996,
      "Ġefeitos": 997,
      "Ġreali": 998,
      "Ġcada": 999,
      "Ġdezembro": 1000,
      "Ġcomunica": 1001,
      "ndi": 1002,
      "adamente": 1003,
      "dencia": 1004,
      "Ġmas": 1005,
      "Ġgara": 1006,
      "Ġof": 1007,
      "Ġempresas": 1008,
      "ciais": 1009,
      "Ġimpos": 1010,
      "Ġrecor": 1011,
      "Ġpossi": 1012,
      "Ġexiste": 1013,
      "menta": 1014,
      "Ġdestina": 1015,
      "cre": 1016,
      "nal": 1017,
      "idos": 1018,
      "cip": 1019,
      "qua": 1020,
      "Ġlei": 1021,
      "Ġprazo": 1022,
      "Ġparlamento": 1023,
      "Ġtenha": 1024,
      "issi": 1025,
      "ficie": 1026,
      "Ġtoma": 1027,
      "soes": 1028,
      "Ġmaterias": 1029,
      "Ġexpor": 1030,
      "Ġespecifica": 1031,
      "Ġposicao": 1032,
      "Ġpaises": 1033,
      "gor": 1034,
      "Ġver": 1035,
      "lha": 1036,
      "Ġnomeadamente": 1037,
      "Ġconclu": 1038,
      "Ġlin": 1039,
      "10": 1040,
      "Ġprimeiro": 1041,
      "Ġobjec": 1042,
      "Ġinde": 1043,
      "tada": 1044,
      "Ġconsiderando": 1045,
      "Ġregis": 1046,
      "quis": 1047,
      "Ġvis": 1048,
      "Ġquadro": 1049,
      "Ġpartir": 1050,
      "Ġatra": 1051,
      "Ġapro": 1052,
      "nis": 1053,
      "Ġfabrica": 1054,
      "Ġapos": 1055,
      "Ġdifere": 1056,
      "Ġapen": 1057,
      "Ġmodo": 1058,
      "Ġ40": 1059,
      "Ġind": 1060,
      "Ġquais": 1061,
      "ust": 1062,
      "Ġsocie": 1063,
      "Ġespecial": 1064,
      "ntro": 1065,
      "Ġmontante": 1066,
      "Ġseguranca": 1067,
      "Â°": 1068,
      "mbem": 1069,
      "Ġponto": 1070,
      "ona": 1071,
      "ak": 1072,
      "Ġdetermina": 1073,
      "Ġinterna": 1074,
      "Ġexi": 1075,
      "vimento": 1076,
      "lan": 1077,
      "Ġnivel": 1078,
      "Ġpaga": 1079,
      "Ġdesenvol": 1080,
      "Ġbene": 1081,
      "Ġba": 1082,
      "tifica": 1083,
      "Ġcoo": 1084,
      "Ġaco": 1085,
      "Ġregras": 1086,
      "mpri": 1087,
      "ducao": 1088,
      "oes": 1089,
      "Ġseccao": 1090,
      "rac": 1091,
      "Ġlhe": 1092,
      "Ġrece": 1093,
      "les": 1094,
      "Ġapo": 1095,
      "Ġnum": 1096,
      "Ġvio": 1097,
      "Ġvigor": 1098,
      "rados": 1099,
      "gnada": 1100,
      "cimento": 1101,
      "gia": 1102,
      "Ġinterpre": 1103,
      "Ġnacionais": 1104,
      "iras": 1105,
      "Ġexa": 1106,
      "Ġcoope": 1107,
      "Ġimpu": 1108,
      "Ġsuperior": 1109,
      "tribu": 1110,
      "Ġregime": 1111,
      "fo": 1112,
      "Ġbenefi": 1113,
      "aneiro": 1114,
      "Ġpla": 1115,
      "nia": 1116,
      "dente": 1117,
      "Ġz": 1118,
      "tados": 1119,
      "Ġelementos": 1120,
      "Ġaplicavel": 1121,
      "Ġpelas": 1122,
      "vio": 1123,
      "Ġide": 1124,
      "Ġnuma": 1125,
      "break": 1126,
      "Ġutilizacao": 1127,
      "Ġforne": 1128,
      "Ġalem": 1129,
      "Ġcomite": 1130,
      "rido": 1131,
      "Ġtitulo": 1132,
      "Ġempresa": 1133,
      "Ġnumero": 1134,
      "Ġjun": 1135,
      "Ġante": 1136,
      "anha": 1137,
      "Ġessa": 1138,
      "mes": 1139,
      "fa": 1140,
      "Ġdurante": 1141,
      "Ġavali": 1142,
      "Ġassi": 1143,
      "Ġfis": 1144,
      "tacoes": 1145,
      "Ġfim": 1146,
      "tali": 1147,
      "tadas": 1148,
      "Ġexp": 1149,
      "ntido": 1150,
      "Ġactiv": 1151,
      "Ġpage": 1152,
      "Ġobs": 1153,
      "Ġbo": 1154,
      "Ġoficial": 1155,
      "Ġorgani": 1156,
      "Ġveri": 1157,
      "Ġequi": 1158,
      "Ġincluindo": 1159,
      "Ġterri": 1160,
      "cal": 1161,
      "Ġpagebreak": 1162,
      "Ġindi": 1163,
      "Ġulti": 1164,
      "Ġpesca": 1165,
      "entes": 1166,
      "ustria": 1167,
      "Ġassim": 1168,
      "Ġprincipio": 1169,
      "cidade": 1170,
      "Ġreferida": 1171,
      "Ġfunciona": 1172,
      "Ġdisso": 1173,
      "tamente": 1174,
      "Ġproje": 1175,
      "Ġadu": 1176,
      "ula": 1177,
      "Ġris": 1178,
      "Ġresponsa": 1179,
      "Ġrelativas": 1180,
      "Ġsup": 1181,
      "Ġcontrolo": 1182,
      "Ġ2009": 1183,
      "Ġaux": 1184,
      "Ġassegu": 1185,
      "Ġtambem": 1186,
      "Ġano": 1187,
      "gua": 1188,
      "Ġtecni": 1189,
      "Ġatraves": 1190,
      "Ġrelacao": 1191,
      "toco": 1192,
      "Ġjunho": 1193,
      "Ġforam": 1194,
      "uma": 1195,
      "Ġade": 1196,
      "Ġpreco": 1197,
      "Ġacesso": 1198,
      "Ġanal": 1199,
      "ctos": 1200,
      "Ġcomum": 1201,
      "Ġsera": 1202,
      "Ġcomple": 1203,
      "21": 1204,
      "pcao": 1205,
      "Ġdeci": 1206,
      "vas": 1207,
      "Ġfinal": 1208,
      "ntacao": 1209,
      "Ġ85": 1210,
      "Ġconju": 1211,
      "Ġjurisdi": 1212,
      "Ġsentido": 1213,
      "nca": 1214,
      "Ġcal": 1215,
      "Ġ38": 1216,
      "Ġ39": 1217,
      "Ġmaio": 1218,
      "Ġtrabalho": 1219,
      "Ġlegislacao": 1220,
      "itu": 1221,
      "rro": 1222,
      "Ġlado": 1223,
      "Ġsuje": 1224,
      "Ġjor": 1225,
      "Ġautoridade": 1226,
      "Ġmu": 1227,
      "Ġcontribu": 1228,
      "Ġjulho": 1229,
      "Ġvez": 1230,
      "Ġprograma": 1231,
      "Ġabran": 1232,
      "Ġprotoco": 1233,
      "Ġgestao": 1234,
      "Ġgover": 1235,
      "Ġlugar": 1236,
      "Ġun": 1237,
      "Ġcontin": 1238,
      "cios": 1239,
      "Ġapenas": 1240,
      "Ġ50": 1241,
      "zar": 1242,
      "Ġdetermin": 1243,
      "Ġinstancia": 1244,
      "Ġanos": 1245,
      "Ġpessoas": 1246,
      "Ġcer": 1247,
      "den": 1248,
      "Ġ2006": 1249,
      "Ġqualidade": 1250,
      "Ġproces": 1251,
      "Ġx": 1252,
      "Ġparagra": 1253,
      "Ġalema": 1254,
      "Ġ2001": 1255,
      "Ġavaliacao": 1256,
      "Ġconsu": 1257,
      "Ġseguintes": 1258,
      "Ġclas": 1259,
      "Ġ2003": 1260,
      "Ġpt": 1261,
      "veni": 1262,
      "Ġcooperacao": 1263,
      "Ġantes": 1264,
      "30": 1265,
      "Ġnecessario": 1266,
      "Ġmenos": 1267,
      "mpo": 1268,
      "Ġasso": 1269,
      "Ġconsta": 1270,
      "mun": 1271,
      "Ġopera": 1272,
      "Ġproducao": 1273,
      "Ġali": 1274,
      "Ġcumpri": 1275,
      "idente": 1276,
      "Ġargu": 1277,
      "Ġentrada": 1278,
      "Ġprincipal": 1279,
      "Ġauxili": 1280,
      "Ġorig": 1281,
      "emb": 1282,
      "bro": 1283,
      "Ġidenti": 1284,
      "Ġtotal": 1285,
      "Ġprocedimento": 1286,
      "Ġreino": 1287,
      "Ġ35": 1288,
      "Ġrequis": 1289,
      "Ġcus": 1290,
      "Ġsob": 1291,
      "Ġ2002": 1292,
      "Ġ000": 1293,
      "tis": 1294,
      "Ġautoriza": 1295,
      "Ġ2004": 1296,
      "Ġcolec": 1297,
      "Ġtrabalha": 1298,
      "Ġjornal": 1299,
      "Ġdesta": 1300,
      "Ġrelativamente": 1301,
      "tico": 1302,
      "Ġmarco": 1303,
      "Ġsitu": 1304,
      "Ġfundamento": 1305,
      "cul": 1306,
      "rma": 1307,
      "inte": 1308,
      "Ġae": 1309,
      "Ġjaneiro": 1310,
      "ue": 1311,
      "Ġsejam": 1312,
      "rais": 1313,
      "Ġagri": 1314,
      "Ġprotocolo": 1315,
      "Ġprecos": 1316,
      "cun": 1317,
      "posicao": 1318,
      "Ġcerti": 1319,
      "xto": 1320,
      "onal": 1321,
      "cula": 1322,
      "ude": 1323,
      "Ġparagrafo": 1324,
      "encia": 1325,
      "Ġadvo": 1326,
      "Ġorigem": 1327,
      "gal": 1328,
      "Ġdomin": 1329,
      "Ġconcorre": 1330,
      "Ġobjecto": 1331,
      "Ġadi": 1332,
      "Ġservico": 1333,
      "Ġcarac": 1334,
      "Ġinstru": 1335,
      "Ġconfi": 1336,
      "Ġdesenvolvimento": 1337,
      "esto": 1338,
      "culo": 1339,
      "Ġ2013": 1340,
      "Ġcomunitario": 1341,
      "nhe": 1342,
      "Ġjuridica": 1343,
      "Ġprejudi": 1344,
      "40": 1345,
      "gao": 1346,
      "su": 1347,
      "Ġauto": 1348,
      "ix": 1349,
      "Ġvei": 1350,
      "feri": 1351,
      "Ġexerci": 1352,
      "Ġ2000": 1353,
      "Ġreque": 1354,
      "che": 1355,
      "val": 1356,
      "Ġalega": 1357,
      "vacao": 1358,
      "Ġconsegu": 1359,
      "Ġaplicaveis": 1360,
      "Ġigualmente": 1361,
      "Ġseguir": 1362,
      "Ġrec": 1363,
      "Ġ32": 1364,
      "Ġcapitu": 1365,
      "Ġtempo": 1366,
      "Ġterritorio": 1367,
      "vos": 1368,
      "Ġoutu": 1369,
      "Ġanterior": 1370,
      "Ġoutubro": 1371,
      "Ġorgao": 1372,
      "Ġdisposicao": 1373,
      "resentacao": 1374,
      "Ġnatu": 1375,
      "Ġcodi": 1376,
      "tir": 1377,
      "Ġprof": 1378,
      "lici": 1379,
      "Ġtratamento": 1380,
      "Ġnem": 1381,
      "Ġsituacao": 1382,
      "Ġesp": 1383,
      "Ġcorre": 1384,
      "Ġ33": 1385,
      "Ġprevisto": 1386,
      "respon": 1387,
      "Ġdesde": 1388,
      "Ġneste": 1389,
      "Ġpreve": 1390,
      "ncial": 1391,
      "ntos": 1392,
      "clusao": 1393,
      "Ġanalis": 1394,
      "Ġ2008": 1395,
      "Ġ1999": 1396,
      "Ġcomercial": 1397,
      "Ġcorrespon": 1398,
      "Ġnove": 1399,
      "posto": 1400,
      "Ġreferencia": 1401,
      "Ġpagamento": 1402,
      "Ġconsidera": 1403,
      "Ġcompa": 1404,
      "Ġfina": 1405,
      "Ġsete": 1406,
      "nh": 1407,
      "Ġsocial": 1408,
      "rou": 1409,
      "Ġdiz": 1410,
      "stancias": 1411,
      "Ġcla": 1412,
      "turas": 1413,
      "Ġpresidente": 1414,
      "voca": 1415,
      "Ġestabelece": 1416,
      "tivamente": 1417,
      "Ġserao": 1418,
      "Ġfran": 1419,
      "Ġorganis": 1420,
      "Ġfixa": 1421,
      "Ġobserva": 1422,
      "mentar": 1423,
      "Ġet": 1424,
      "lucao": 1425,
      "Ġ84": 1426,
      "Ġindustria": 1427,
      "Ġdeste": 1428,
      "Ġpassa": 1429,
      "Ġ36": 1430,
      "Ġlegisla": 1431,
      "Ġconvencao": 1432,
      "Ġpublico": 1433,
      "tario": 1434,
      "Ġjurisdicional": 1435,
      "vida": 1436,
      "Ġtinha": 1437,
      "Ġconseguinte": 1438,
      "Ġcomunitaria": 1439,
      "Ġ37": 1440,
      "Ġapoio": 1441,
      "Ġgaranti": 1442,
      "Ġquant": 1443,
      "enta": 1444,
      "Ġdisposto": 1445,
      "ol": 1446,
      "poe": 1447,
      "Ġ2011": 1448,
      "Ġban": 1449,
      "ntu": 1450,
      "Ġreferidos": 1451,
      "Ġautorizacao": 1452,
      "Ġapreciacao": 1453,
      "Ġreconhe": 1454,
      "Ġviolacao": 1455,
      "Ġcapitulo": 1456,
      "Ġgoverno": 1457,
      "Ġdesse": 1458,
      "Ġisen": 1459,
      "Ġsin": 1460,
      "it": 1461,
      "Ġprova": 1462,
      "Ġru": 1463,
      "Ġ34": 1464,
      "cis": 1465,
      "Ġ95": 1466,
      "Ġnorma": 1467,
      "Ġambi": 1468,
      "Ġnego": 1469,
      "Ġaduane": 1470,
      "Ġ92": 1471,
      "Ġain": 1472,
      "Ġcre": 1473,
      "Ġdocumentos": 1474,
      "Ġtransporte": 1475,
      "Ġcrite": 1476,
      "Ġdia": 1477,
      "Ġativ": 1478,
      "Ġnovembro": 1479,
      "Ġrequisitos": 1480,
      "Ġvin": 1481,
      "nce": 1482,
      "Ġpare": 1483,
      "Ġterceiro": 1484,
      "Ġand": 1485,
      "Ġorigina": 1486,
      "Ġnormas": 1487,
      "pru": 1488,
      "Ġ+": 1489,
      "Ġorca": 1490,
      "11": 1491,
      "Ġintegra": 1492,
      "Ġaudi": 1493,
      "Ġassegurar": 1494,
      "Ġanti": 1495,
      "Ġjurispru": 1496,
      "Ġainda": 1497,
      "Ġcontrato": 1498,
      "Ġverifica": 1499,
      "Ġabril": 1500,
      "Ġobrigacoes": 1501,
      "Ġsetembro": 1502,
      "Ġparticip": 1503,
      "reza": 1504,
      "ctor": 1505,
      "Ġreun": 1506,
      "Ġcompro": 1507,
      "Ġgru": 1508,
      "logi": 1509,
      "Ġempre": 1510,
      "Ġitali": 1511,
      "Ġlista": 1512,
      "Ġ2007": 1513,
      "ticos": 1514,
      "hos": 1515,
      "Ġrecursos": 1516,
      "Ġ2014": 1517,
      "Ġ93": 1518,
      "Ġmercadorias": 1519,
      "Ġcertifica": 1520,
      "Ġintro": 1521,
      "Ġafe": 1522,
      "Ġani": 1523,
      "Ġsal": 1524,
      "Ġir": 1525,
      "Ġproteccao": 1526,
      "Ġabrigo": 1527,
      "Ġprejui": 1528,
      "Ġprevistas": 1529,
      "Ġjurisprudencia": 1530,
      "Ġsociedade": 1531,
      "Ġee": 1532,
      "Ġch": 1533,
      "nu": 1534,
      "Ġ2015": 1535,
      "90": 1536,
      "istencia": 1537,
      "vere": 1538,
      "Ġinformacao": 1539,
      "Ġdois": 1540,
      "Ġfinancia": 1541,
      "Ġrespec": 1542,
      "tido": 1543,
      "Ġfaz": 1544,
      "Ġ01": 1545,
      "Ġ197": 1546,
      "Ġreferidas": 1547,
      "Ġ91": 1548,
      "Ġatribu": 1549,
      "Ġqui": 1550,
      "Ġisencao": 1551,
      "Ġ99": 1552,
      "Ġclassi": 1553,
      "Ġ100": 1554,
      "Ġaci": 1555,
      "Ġhi": 1556,
      "taria": 1557,
      "Ġ87": 1558,
      "mpanha": 1559,
      "Ġmesma": 1560,
      "rida": 1561,
      "Ġpossa": 1562,
      "Ġcur": 1563,
      "Ġcomunicacao": 1564,
      "Ġdecisoes": 1565,
      "vado": 1566,
      "viso": 1567,
      "Ġvista": 1568,
      "Ġ43": 1569,
      "Ġ94": 1570,
      "Ġessas": 1571,
      "Ġesco": 1572,
      "Ġcarta": 1573,
      "Ġbru": 1574,
      "Ġcircun": 1575,
      "Ġener": 1576,
      "quencia": 1577,
      "gados": 1578,
      "Ġ2012": 1579,
      "Ġrisco": 1580,
      "dem": 1581,
      "udo": 1582,
      "Ġsecre": 1583,
      "Ġestas": 1584,
      "Ġoperacoes": 1585,
      "tais": 1586,
      "Ġela": 1587,
      "Ġ96": 1588,
      "Ġfundamentos": 1589,
      "cont": 1590,
      "Ġfevere": 1591,
      "toria": 1592,
      "Ġfevereiro": 1593,
      "Ġutilizadas": 1594,
      "Ġtipo": 1595,
      "Ġfal": 1596,
      "Ġnecessarias": 1597,
      "var": 1598,
      "Ġregisto": 1599,
      "Ġvolu": 1600,
      "Ġprepa": 1601,
      "Ġdecidi": 1602,
      "cili": 1603,
      "Ġsubs": 1604,
      "tin": 1605,
      "Ġreda": 1606,
      "rito": 1607,
      "tual": 1608,
      "dar": 1609,
      "Ġdeclaracao": 1610,
      "Ġanima": 1611,
      "Ġconcorrencia": 1612,
      "Ġrecorrentes": 1613,
      "Ġdessa": 1614,
      "fico": 1615,
      "mpre": 1616,
      "Ġdispon": 1617,
      "culos": 1618,
      "Ġpoder": 1619,
      "visao": 1620,
      "Ġpessoa": 1621,
      "Ġaccao": 1622,
      "Ġcolo": 1623,
      "Ġquesto": 1624,
      "Ġconcedi": 1625,
      "minacao": 1626,
      "Ġnecess": 1627,
      "vido": 1628,
      "Ġ2010": 1629,
      "Ġestes": 1630,
      "Ġobrigacao": 1631,
      "Ġexpres": 1632,
      "Ġprejudicial": 1633,
      "Ġrealiza": 1634,
      "itas": 1635,
      "Ġterceiros": 1636,
      "Ġjuridi": 1637,
      "Ġpedidos": 1638,
      "Ġexercicio": 1639,
      "Ġimpugnada": 1640,
      "gens": 1641,
      "Ġrestri": 1642,
      "Ġcomercio": 1643,
      "Ġquestoes": 1644,
      "Ġ55": 1645,
      "Ġtres": 1646,
      "missi": 1647,
      "Ġlingua": 1648,
      "Ġnatureza": 1649,
      "Ġprejuizo": 1650,
      "Ġactividades": 1651,
      "Ġigual": 1652,
      "Ġmil": 1653,
      "Ġadequa": 1654,
      "Ġ44": 1655,
      "rente": 1656,
      "Ġ2005": 1657,
      "Ġeve": 1658,
      "Ġestao": 1659,
      "Ġinfra": 1660,
      "Ġdominio": 1661,
      "Ġrelatorio": 1662,
      "Ġ45": 1663,
      "Ġcodigo": 1664,
      "Ġpropor": 1665,
      "Ġ48": 1666,
      "Ġcate": 1667,
      "Ġforca": 1668,
      "Ġestatu": 1669,
      "Ġmi": 1670,
      "esa": 1671,
      "lho": 1672,
      "bora": 1673,
      "Ġhe": 1674,
      "Ġimposto": 1675,
      "Ġconhe": 1676,
      "Ġalteracao": 1677,
      "Ġfinanceira": 1678,
      "Ġmini": 1679,
      "tivel": 1680,
      "Ġpromo": 1681,
      "Ġche": 1682,
      "Ġinterno": 1683,
      "Ġmis": 1684,
      "Ġ80": 1685,
      "Ġ42": 1686,
      "Ġdecorre": 1687,
      "Ġiii": 1688,
      "Ġcapa": 1689,
      "lin": 1690,
      "ficiente": 1691,
      "Ġ41": 1692,
      "Ġ60": 1693,
      "cipa": 1694,
      "Ġcontratos": 1695,
      "Ġcatego": 1696,
      "ciar": 1697,
      "Ġcircu": 1698,
      "Ġagentes": 1699,
      "Ġmaxi": 1700,
      "Ġrazo": 1701,
      "Ġlice": 1702,
      "Ġ98": 1703,
      "Ġest": 1704,
      "tificacao": 1705,
      "Ġcontinu": 1706,
      "Ġliv": 1707,
      "tores": 1708,
      "gn": 1709,
      "Ġente": 1710,
      "Ġcasos": 1711,
      "Ġeconomica": 1712,
      "dio": 1713,
      "Ġobjectivo": 1714,
      "dentes": 1715,
      "tida": 1716,
      "Ġprofissi": 1717,
      "ib": 1718,
      "cho": 1719,
      "Ġesti": 1720,
      "Ġcompetentes": 1721,
      "Ġacordos": 1722,
      "Ġrelativos": 1723,
      "Ġprocessos": 1724,
      "Ġtenham": 1725,
      "Ġsolici": 1726,
      "Ġesses": 1727,
      "mis": 1728,
      "Ġdisposi": 1729,
      "clusi": 1730,
      "Ġnenh": 1731,
      "Ġparticipacao": 1732,
      "Ġdisponi": 1733,
      "Ġconstitui": 1734,
      "Ġcredi": 1735,
      "izacao": 1736,
      "Ġcent": 1737,
      "Ġinternacional": 1738,
      "Ġinteressa": 1739,
      "Ġincu": 1740,
      "Ġimportacoes": 1741,
      "tencao": 1742,
      "Ġ49": 1743,
      "radas": 1744,
      "Ġsaude": 1745,
      "Ġimpa": 1746,
      "Ġmeto": 1747,
      "cha": 1748,
      "Ġpolitica": 1749,
      "Ġ88": 1750,
      "Ġbeneficia": 1751,
      "torios": 1752,
      "Ġfabrico": 1753,
      "Ġada": 1754,
      "Ġequipa": 1755,
      "gni": 1756,
      "Ġprotecao": 1757,
      "Ġdema": 1758,
      "Ġ46": 1759,
      "mentares": 1760,
      "Ġsegunda": 1761,
      "Ġhar": 1762,
      "Ġcustos": 1763,
      "Ġcama": 1764,
      "posta": 1765,
      "Ġagrico": 1766,
      "Ġefectua": 1767,
      "nun": 1768,
      "Ġcria": 1769,
      "Ġsusce": 1770,
      "gio": 1771,
      "Ġimportacao": 1772,
      "iz": 1773,
      "Ġeventu": 1774,
      "Ġ97": 1775,
      "Ġinvestigacao": 1776,
      "Ġapresentado": 1777,
      "Ġ02": 1778,
      "Ġmun": 1779,
      "Ġacres": 1780,
      "Ġpossivel": 1781,
      "Ġfer": 1782,
      "Ġfix": 1783,
      "Ġmedia": 1784,
      "Ġtoda": 1785,
      "Ġprevista": 1786,
      "Ġadap": 1787,
      "mons": 1788,
      "Ġprodutores": 1789,
      "Ġinvoca": 1790,
      "gencia": 1791,
      "Ġdiferentes": 1792,
      "Ġcha": 1793,
      "Ġ>": 1794,
      "Ġtor": 1795,
      "Ġcapita": 1796,
      "Ġexcep": 1797,
      "Ġreside": 1798,
      "Ġalteracoes": 1799,
      "th": 1800,
      "Ġdemons": 1801,
      "Ġgarantir": 1802,
      "Ġestru": 1803,
      "Ġadministracao": 1804,
      "Ġconforme": 1805,
      "Ġliti": 1806,
      "Ġinterpretacao": 1807,
      "Ġfuncionamento": 1808,
      "Ġ89": 1809,
      "centa": 1810,
      "Ġadvogado": 1811,
      "Ġprocedimentos": 1812,
      "mpe": 1813,
      "Ġexistencia": 1814,
      "Ġtrabalhadores": 1815,
      "Ġcriterios": 1816,
      "Ġtele": 1817,
      "dena": 1818,
      "Ġreen": 1819,
      "ten": 1820,
      "Ġ2016": 1821,
      "Ġresi": 1822,
      "Ġtais": 1823,
      "ck": 1824,
      "Ġrefor": 1825,
      "gir": 1826,
      "Ġera": 1827,
      "tem": 1828,
      "elas": 1829,
      "tou": 1830,
      "jo": 1831,
      "Ġanulacao": 1832,
      "Ġfuncao": 1833,
      "Ġalemanha": 1834,
      "Ġafi": 1835,
      "Ġcolect": 1836,
      "Ġseme": 1837,
      "Ġ70": 1838,
      "Ġacompanha": 1839,
      "Ġtaxa": 1840,
      "Ġinteresse": 1841,
      "tidos": 1842,
      "Ġreenvio": 1843,
      "Ġcomb": 1844,
      "Ä±": 1845,
      "Ġbel": 1846,
      "Ġconsul": 1847,
      "gas": 1848,
      "Ġpratica": 1849,
      "Ġcele": 1850,
      "Ġregulamentacao": 1851,
      "Ġemi": 1852,
      "Ġinfe": 1853,
      "Ġjustifica": 1854,
      "Ġprestacao": 1855,
      "Ġcompetente": 1856,
      "Ġ51": 1857,
      "Ġdescri": 1858,
      "Ġexplo": 1859,
      "Ġindepen": 1860,
      "Ġ&": 1861,
      "Ġporta": 1862,
      "lizacao": 1863,
      "Ġassina": 1864,
      "Ġargumentos": 1865,
      "Ġexportacao": 1866,
      "Ġsuper": 1867,
      "Ġsuste": 1868,
      "Ġtransforma": 1869,
      "Ġobjeto": 1870,
      "Ġpen": 1871,
      "Ġmode": 1872,
      "Ġconsumi": 1873,
      "Ġsaida": 1874,
      "Ġproviso": 1875,
      "Ġnotifica": 1876,
      "Ġmante": 1877,
      "Ġmeses": 1878,
      "Ġparticipa": 1879,
      "Ġfrances": 1880,
      "tador": 1881,
      "Ġestatuto": 1882,
      "Ġdesignada": 1883,
      "cacao": 1884,
      "Ġinstituicoes": 1885,
      "Ġorganizacao": 1886,
      "Ġaplicar": 1887,
      "rtine": 1888,
      "tiveis": 1889,
      "Ġharmon": 1890,
      "000": 1891,
      "riedade": 1892,
      "one": 1893,
      "Ġsubstitu": 1894,
      "Ġinque": 1895,
      "Ġsubme": 1896,
      "Ġanalise": 1897,
      "Ġfisca": 1898,
      "ana": 1899,
      "ores": 1900,
      "mula": 1901,
      "ens": 1902,
      "Ġ52": 1903,
      "Ġsimp": 1904,
      "ou": 1905,
      "men": 1906,
      "Ġles": 1907,
      "Ġultimo": 1908,
      "Ġtermo": 1909,
      "Ġenqua": 1910,
      "Ġ2017": 1911,
      "Ġ1998": 1912,
      "Ġreserva": 1913,
      "Ġgrupo": 1914,
      "mping": 1915,
      "Ġpi": 1916,
      "Ġsistemas": 1917,
      "Ġeuros": 1918,
      "Ġgu": 1919,
      "Ġsempre": 1920,
      "Ġ75": 1921,
      "ad": 1922,
      "Ġpertine": 1923,
      "Ġvia": 1924,
      "Ġduas": 1925,
      "Ġfinanceiro": 1926,
      "pu": 1927,
      "ronte": 1928,
      "Ġprincipios": 1929,
      "Ġinicia": 1930,
      "ferencia": 1931,
      "Ġ59": 1932,
      "Ġunido": 1933,
      "are": 1934,
      "Ġapresentacao": 1935,
      "Ġprecis": 1936,
      "Ġlivre": 1937,
      "Ġveiculos": 1938,
      "Ġgran": 1939,
      "Ġfede": 1940,
      "gnifica": 1941,
      "Ġinci": 1942,
      "Ġobjectivos": 1943,
      "Ġ56": 1944,
      "Ġart": 1945,
      "Ġsustenta": 1946,
      "vios": 1947,
      "tadores": 1948,
      "Ġencont": 1949,
      "Ġ07": 1950,
      "Ġsan": 1951,
      "Ġimpacto": 1952,
      "Ġconjunto": 1953,
      "Ġcircunstancias": 1954,
      "Ġ47": 1955,
      "Ġtf": 1956,
      "Ġmilho": 1957,
      "Ġsector": 1958,
      "Ġceleb": 1959,
      "Ġresidu": 1960,
      "cular": 1961,
      "Ġinferior": 1962,
      "terior": 1963,
      "parti": 1964,
      "pro": 1965,
      "Ġescri": 1966,
      "Ġassociacao": 1967,
      "Ġreduz": 1968,
      "Ġpossibilidade": 1969,
      "Ġprogramas": 1970,
      "Ġrelaciona": 1971,
      "Ġpessoal": 1972,
      "curso": 1973,
      "Ġy": 1974,
      "cidos": 1975,
      "Ġprincipais": 1976,
      "Ġportu": 1977,
      "Ġsignifica": 1978,
      "Ġhuma": 1979,
      "Ġ72": 1980,
      "mental": 1981,
      "Ġparecer": 1982,
      "Ġproib": 1983,
      "Ġcaracte": 1984,
      "Ġ2018": 1985,
      "stancia": 1986,
      "guas": 1987,
      "Ġ05": 1988,
      "Ġexemp": 1989,
      "Ġnovo": 1990,
      "Ġ08": 1991,
      "Ġinstituicao": 1992,
      "Ġaccoes": 1993,
      "ĠâĢ¢": 1994,
      "ano": 1995,
      "Ġfinanciamento": 1996,
      "Ġconsideracao": 1997,
      "mentais": 1998,
      "Ġlon": 1999,
      "Ġpau": 2000,
      "ĠÐ": 2001,
      "Ġefica": 2002,
      "Ġestabelecimento": 2003,
      "Ġsupra": 2004,
      "ven": 2005,
      "Ġop": 2006,
      "Ġtfue": 2007,
      "Ġgarant": 2008,
      "Ġer": 2009,
      "Ġexclu": 2010,
      "Ġexclusi": 2011,
      "Ġconso": 2012,
      "iza": 2013,
      "Ġ65": 2014,
      "Ġambiente": 2015,
      "rin": 2016,
      "Ġentidade": 2017,
      "Ġ86": 2018,
      "Ġvolume": 2019,
      "Ġadju": 2020,
      "Ġdesigna": 2021,
      "Ġ=": 2022,
      "Ġassistencia": 2023,
      "Ġ71": 2024,
      "Ġsuspen": 2025,
      "Ġcoi": 2026,
      "Ġlocal": 2027,
      "Ġdemanda": 2028,
      "Ġdemonstra": 2029,
      "Ġinvestimento": 2030,
      "Ġ1995": 2031,
      "Ġlux": 2032,
      "media": 2033,
      "Ġaere": 2034,
      "Ġindivi": 2035,
      "pc": 2036,
      "Ġeur": 2037,
      "Ġnavios": 2038,
      "Ġindividu": 2039,
      "Ġref": 2040,
      "Ġresposta": 2041,
      "Ġformacao": 2042,
      "Ġobservacoes": 2043,
      "ke": 2044,
      "Ġ54": 2045,
      "Ġsendo": 2046,
      "Ġreducao": 2047,
      "Ġtro": 2048,
      "Ġsupor": 2049,
      "Ġconces": 2050,
      "vil": 2051,
      "Ġcumprimento": 2052,
      "Ġbrux": 2053,
      "anca": 2054,
      "Ġgas": 2055,
      "Ġaju": 2056,
      "Ġ1992": 2057,
      "gada": 2058,
      "Ġdiscri": 2059,
      "missao": 2060,
      "Ġtex": 2061,
      "Ġestu": 2062,
      "Ġacepcao": 2063,
      "leva": 2064,
      "Ġorganiza": 2065,
      "tam": 2066,
      "Ġjudi": 2067,
      "ficos": 2068,
      "Ġmomento": 2069,
      "Ġanimais": 2070,
      "Ġtri": 2071,
      "Ġconsiderar": 2072,
      "lia": 2073,
      "Ġcontexto": 2074,
      "Ġdias": 2075,
      "Ġcomerciais": 2076,
      "áĥ": 2077,
      "Ġ53": 2078,
      "Ġmani": 2079,
      "Ġutilizados": 2080,
      "Ġquar": 2081,
      "Ġcuja": 2082,
      "Ġ77": 2083,
      "Ġexpe": 2084,
      "Ġatividades": 2085,
      "Ġ1996": 2086,
      "Ġcompetencia": 2087,
      "gida": 2088,
      "Ġacu": 2089,
      "Ġtomar": 2090,
      "urgo": 2091,
      "Ġkg": 2092,
      "Ġperi": 2093,
      "Ġevi": 2094,
      "lida": 2095,
      "Ġequival": 2096,
      "Ġredaccao": 2097,
      "Ġaltera": 2098,
      "Ġdespa": 2099,
      "pi": 2100,
      "Ġfigu": 2101,
      "Ġresultados": 2102,
      "Ġluxemb": 2103,
      "Ġ1997": 2104,
      "Ġare": 2105,
      "gidos": 2106,
      "Ġpeso": 2107,
      "Ġon": 2108,
      "Ġassocia": 2109,
      "Ġ58": 2110,
      "Ġrealizacao": 2111,
      "Ġ68": 2112,
      "Ġconseque": 2113,
      "Ġmul": 2114,
      "Ġplano": 2115,
      "Ġeee": 2116,
      "Ġglo": 2117,
      "Ġexame": 2118,
      "ex": 2119,
      "Ġmeca": 2120,
      "Ġ1994": 2121,
      "Ġcamara": 2122,
      "ndida": 2123,
      "Ġrepresentantes": 2124,
      "Ġexceto": 2125,
      "Ġ57": 2126,
      "Ġproduz": 2127,
      "Ġdeterminar": 2128,
      "troni": 2129,
      "Ġtribu": 2130,
      "Ġentidades": 2131,
      "riamente": 2132,
      "tros": 2133,
      "Ġdocumento": 2134,
      "Ġdiver": 2135,
      "Ġdevido": 2136,
      "Ġjuiz": 2137,
      "Ġparce": 2138,
      "vam": 2139,
      "Ġ73": 2140,
      "Ġ03": 2141,
      "Ġgerais": 2142,
      "Ġunica": 2143,
      "Ġquali": 2144,
      "Ġrecorrido": 2145,
      "Ġvenda": 2146,
      "Ġportanto": 2147,
      "Ġauxilio": 2148,
      "Ġprevistos": 2149,
      "rial": 2150,
      "Ġinquerito": 2151,
      "onais": 2152,
      "Ġmanu": 2153,
      "nas": 2154,
      "Ġorganismos": 2155,
      "Ġcontrata": 2156,
      "Ġensa": 2157,
      "Ġmelho": 2158,
      "Ġ81": 2159,
      "Ġrevo": 2160,
      "Ġdefini": 2161,
      "mane": 2162,
      "Ġbruxelas": 2163,
      "reen": 2164,
      "tions": 2165,
      "Ġelec": 2166,
      "Ġsociedades": 2167,
      "gne": 2168,
      "Ġresponsabilidade": 2169,
      "Ġiv": 2170,
      "ladas": 2171,
      "vidas": 2172,
      "Ġsuficiente": 2173,
      "inas": 2174,
      "gido": 2175,
      "Ġnesse": 2176,
      "ĠâĢĻ": 2177,
      "Ġdesignadamente": 2178,
      "Ġdar": 2179,
      "Ġcirculacao": 2180,
      "lhos": 2181,
      "Ġeconomico": 2182,
      "ĠâĢľ": 2183,
      "ĠâĢĿ": 2184,
      "Ġespecificas": 2185,
      "Ġconclusoes": 2186,
      "ble": 2187,
      "Ġimpe": 2188,
      "am": 2189,
      "Ġextra": 2190,
      "Ġ83": 2191,
      "Ġcoor": 2192,
      "Ġmilhoes": 2193,
      "Ġauxilios": 2194,
      "Ġconclui": 2195,
      "Ġpermane": 2196,
      "Ġnova": 2197,
      "nciona": 2198,
      "Ġluz": 2199,
      "Ð°": 2200,
      "Ġato": 2201,
      "Ġexige": 2202,
      "Ġrecorrida": 2203,
      "Ġquer": 2204,
      "Ġquo": 2205,
      "Ġinicio": 2206,
      "Ġconden": 2207,
      "Ġ76": 2208,
      "Ġrecu": 2209,
      "nea": 2210,
      "Ġbas": 2211,
      "Ġdeu": 2212,
      "Ġ61": 2213,
      "Ġadjudica": 2214,
      "Ġdesses": 2215,
      "Ġdespacho": 2216,
      "ĠÎ": 2217,
      "Ġestra": 2218,
      "Ġlimite": 2219,
      "ung": 2220,
      "Ġapresentar": 2221,
      "Ġfundos": 2222,
      "Ġfra": 2223,
      "Ġconcessao": 2224,
      "tidas": 2225,
      "Ġdevera": 2226,
      "Ġactividade": 2227,
      "ono": 2228,
      "Ġalca": 2229,
      "Ġsemelha": 2230,
      "Ġiva": 2231,
      "Ġdeno": 2232,
      "Ġades": 2233,
      "Ġdele": 2234,
      "Ġsitua": 2235,
      "Ġcol": 2236,
      "Ġsatis": 2237,
      "verti": 2238,
      "Ġdistribu": 2239,
      "Ġafec": 2240,
      "Ġreleva": 2241,
      "Ġultima": 2242,
      "ka": 2243,
      "Ġtecno": 2244,
      "Ġmai": 2245,
      "Ġfuncoes": 2246,
      "iao": 2247,
      "Ġcivil": 2248,
      "Ġconsumo": 2249,
      "Ġfabricacao": 2250,
      "ntemente": 2251,
      "Ġsta": 2252,
      "Ġcli": 2253,
      "Ġcaracter": 2254,
      "Ġcapacidade": 2255,
      "Ġimplica": 2256,
      "ixa": 2257,
      "Ġcompreen": 2258,
      "Ġcalculo": 2259,
      "Ġreso": 2260,
      "minar": 2261,
      "Ġaf": 2262,
      "venientes": 2263,
      "Ġunico": 2264,
      "teis": 2265,
      "Ġ79": 2266,
      "Ġbens": 2267,
      "Ġ1993": 2268,
      "Ġlitigio": 2269,
      "riam": 2270,
      "Ġenergia": 2271,
      "reto": 2272,
      "Ġcompen": 2273,
      "Ġgene": 2274,
      "Ġpermitir": 2275,
      "Ġat": 2276,
      "Ġsubsi": 2277,
      "Ġdada": 2278,
      "Ġespanha": 2279,
      "Ġpropostas": 2280,
      "Ġcontes": 2281,
      "mer": 2282,
      "Ġfalta": 2283,
      "Ġbi": 2284,
      "Ġnotificacao": 2285,
      "Ġobjetivo": 2286,
      "Ġresul": 2287,
      "Ġcas": 2288,
      "Ġ62": 2289,
      "Ġordem": 2290,
      "Ġduracao": 2291,
      "Ġdumping": 2292,
      "Ġapare": 2293,
      "bi": 2294,
      "vados": 2295,
      "Ġcredito": 2296,
      "Ġfundo": 2297,
      "Ġinicial": 2298,
      "Ġresiduos": 2299,
      "Ġinterposto": 2300,
      "Ġinstrumentos": 2301,
      "ncas": 2302,
      "Ġdado": 2303,
      "per": 2304,
      "gres": 2305,
      "Ġri": 2306,
      "Ġ2020": 2307,
      "ntal": 2308,
      "Ġenta": 2309,
      "Ġcie": 2310,
      "gidas": 2311,
      "hes": 2312,
      "Ġsaber": 2313,
      "Ġenquanto": 2314,
      "ger": 2315,
      "Ġpros": 2316,
      "Ġexcepto": 2317,
      "gen": 2318,
      "Ġcertificado": 2319,
      "Ġadesao": 2320,
      "Ġpreen": 2321,
      "Ġentanto": 2322,
      "Ġobter": 2323,
      "Ġafirma": 2324,
      "01": 2325,
      "Ġencar": 2326,
      "Ġloca": 2327,
      "Ġ78": 2328,
      "02": 2329,
      "Ġexemplo": 2330,
      "Ġidentifica": 2331,
      "Ġpu": 2332,
      "Ġelabo": 2333,
      "Ġadqui": 2334,
      "Ġfundamentacao": 2335,
      "Ġfinanceiros": 2336,
      "Ġfiscal": 2337,
      "Ġarma": 2338,
      "Ġderro": 2339,
      "Ġ67": 2340,
      "Ġconclusao": 2341,
      "Ġparticular": 2342,
      "Ġluxemburgo": 2343,
      "cea": 2344,
      "Ġmanif": 2345,
      "Ġ64": 2346,
      "Ġacto": 2347,
      "Ġfornece": 2348,
      "Ġquaisquer": 2349,
      "Ġpontos": 2350,
      "Ġinstitui": 2351,
      "embol": 2352,
      "Ġefectu": 2353,
      "Ġestar": 2354,
      "Ġ63": 2355,
      "Ġcompromis": 2356,
      "xas": 2357,
      "pel": 2358,
      "Ġjuridico": 2359,
      "Ġ66": 2360,
      "Ġintroduz": 2361,
      "Ġora": 2362,
      "Ġcompor": 2363,
      "Ġprofissional": 2364,
      "Ġcandida": 2365,
      "zi": 2366,
      "Ġfu": 2367,
      "Ġsuscep": 2368,
      "Ġmotivos": 2369,
      "Ġmari": 2370,
      "Ġacima": 2371,
      "veniente": 2372,
      "Ġaumento": 2373,
      "cla": 2374,
      "Ġministe": 2375,
      "Ġoperadores": 2376,
      "Ġposicoes": 2377,
      "Ġsequencia": 2378,
      "Ġ2019": 2379,
      "nd": 2380,
      "zao": 2381,
      "Ġfase": 2382,
      "Ġresidencia": 2383,
      "Ġmarcas": 2384,
      "Ġzona": 2385,
      "Ġrede": 2386,
      "Ġnecessidade": 2387,
      "Ġ69": 2388,
      "Ġtexto": 2389,
      "Ġces": 2390,
      "Ġsuple": 2391,
      "tre": 2392,
      "Ġerro": 2393,
      "Ġmeio": 2394,
      "cou": 2395,
      "Ġacrescenta": 2396,
      "Ġ1991": 2397,
      "Ġ09": 2398,
      "Ġreembol": 2399,
      "Ġinspe": 2400,
      "Ġpublicos": 2401,
      "Ġembora": 2402,
      "Ġ06": 2403,
      "ntou": 2404,
      "lhas": 2405,
      "gica": 2406,
      "Ġseguida": 2407,
      "Ġconsulta": 2408,
      "Ġ04": 2409,
      "Ġcob": 2410,
      "Ġacordaos": 2411,
      "ume": 2412,
      "menda": 2413,
      "Ġlegal": 2414,
      "Ġveiculo": 2415,
      "lidades": 2416,
      "Ġfederal": 2417,
      "cus": 2418,
      "mu": 2419,
      "dada": 2420,
      "Ġimedia": 2421,
      "Ġdesign": 2422,
      "lec": 2423,
      "Ġconcent": 2424,
      "ado": 2425,
      "Î¹": 2426,
      "Ġ82": 2427,
      "Ġexceda": 2428,
      "Ġliber": 2429,
      "Ġagencia": 2430,
      "segu": 2431,
      "Ġai": 2432,
      "Ġtransito": 2433,
      "Ġnota": 2434,
      "cle": 2435,
      "Ġmecanis": 2436,
      "Ġespa": 2437,
      "Ġdessas": 2438,
      "Ġtecnicas": 2439,
      "Ġprestacoes": 2440,
      "Ġagente": 2441,
      "Ġprojecto": 2442,
      "Ġsede": 2443,
      "Ġinco": 2444,
      "Ġmetodo": 2445,
      "Ġacao": 2446,
      "Ġ^": 2447,
      "Ġsali": 2448,
      "Ġnenhuma": 2449,
      "Ġtone": 2450,
      "Ġcul": 2451,
      "Ġadopcao": 2452,
      "Ġnovos": 2453,
      "Ġmm": 2454,
      "Ġmediante": 2455,
      "Ġlimites": 2456,
      "Ġnou": 2457,
      "Ġaudiencia": 2458,
      "Ġexclusiva": 2459,
      "tt": 2460,
      "vada": 2461,
      "Ġrazao": 2462,
      "ls": 2463,
      "Ġdeterminadas": 2464,
      "Ġrubri": 2465,
      "Ġmaior": 2466,
      "Ġmedica": 2467,
      "Ġinstala": 2468,
      "Ġcontroverti": 2469,
      "Ġaguas": 2470,
      "range": 2471,
      "Ġresponsavel": 2472,
      "Ġexploracao": 2473,
      "Ġfacili": 2474,
      "Ġconcre": 2475,
      "Ġrazoes": 2476,
      "Ġfami": 2477,
      "Ġtodavia": 2478,
      "Ġestabelecidas": 2479,
      "Ð¸": 2480,
      "Ġresolucao": 2481,
      "riori": 2482,
      "Ġven": 2483,
      "Ġmaximo": 2484,
      "tarios": 2485,
      "Ġvalores": 2486,
      "Ġgarantia": 2487,
      "Ġcontribuicao": 2488,
      "Ġespeciais": 2489,
      "Ġtanto": 2490,
      "Ġcategoria": 2491,
      "cido": 2492,
      "Ġcoe": 2493,
      "Î±": 2494,
      "Ġ202": 2495,
      "Ġaqu": 2496,
      "Ġpraticas": 2497,
      "pas": 2498,
      "Ġpossam": 2499,
      "Ġglobal": 2500,
      "Ġriscos": 2501,
      "ty": 2502,
      "Ġcienti": 2503,
      "Ġdisti": 2504,
      "Ġbor": 2505,
      "Ġtecnica": 2506,
      "cra": 2507,
      "ados": 2508,
      "landes": 2509,
      "Ġcaracteris": 2510,
      "Ġrepresentacao": 2511,
      "sacao": 2512,
      "nizacao": 2513,
      "Ġinternacionais": 2514,
      "Ġaber": 2515,
      "Ġrea": 2516,
      "Ġindependente": 2517,
      "Ġmeios": 2518,
      "Ġmen": 2519,
      "Ġexter": 2520,
      "Ġrecusa": 2521,
      "Ġemissao": 2522,
      "Ġcomunitarias": 2523,
      "Ġcujo": 2524,
      "Ġdecreto": 2525,
      "Ġreal": 2526,
      "Ġrequerente": 2527,
      "ntas": 2528,
      "dido": 2529,
      "Ġfib": 2530,
      "Ġindem": 2531,
      "Ġnormal": 2532,
      "Î¿": 2533,
      "Ġestrutura": 2534,
      "Ġclassifica": 2535,
      "Ġsim": 2536,
      "Ġesteja": 2537,
      "Ġrendi": 2538,
      "Ġdispositivo": 2539,
      "Ġcurso": 2540,
      "Ġ1990": 2541,
      "Ġtransferencia": 2542,
      "Ġbio": 2543,
      "Ġfactos": 2544,
      "Ġconsiderado": 2545,
      "Ġmodi": 2546,
      "Ġdispoe": 2547,
      "Ġtaxas": 2548,
      "Ġentra": 2549,
      "nciais": 2550,
      "Ġdefinicao": 2551,
      "Ġtes": 2552,
      "Ġcontar": 2553,
      "Ġaprese": 2554,
      "Ġteor": 2555,
      "Ġdeterminados": 2556,
      "cado": 2557,
      "Ġpassi": 2558,
      "Ġple": 2559,
      "Ġemprego": 2560,
      "ixos": 2561,
      "Ġsemelhantes": 2562,
      "Ġformula": 2563,
      "Ġorganismo": 2564,
      "ĠÂ§": 2565,
      "Ġlhes": 2566,
      "xos": 2567,
      "Ġconfirma": 2568,
      "Ġfre": 2569,
      "Ġestabelecido": 2570,
      "Ġgeo": 2571,
      "Ġverificar": 2572,
      "Ġactu": 2573,
      "Ġintervencao": 2574,
      "Ġcin": 2575,
      "par": 2576,
      "Ġcontrario": 2577,
      "Ġconf": 2578,
      "lares": 2579,
      "vencoes": 2580,
      "Ġorienta": 2581,
      "Ġinfraccao": 2582,
      "rica": 2583,
      "Ġorcamento": 2584,
      "Ġcontudo": 2585,
      "Ġoperacao": 2586,
      "Ġpote": 2587,
      "Ġ196": 2588,
      "Ġacecao": 2589,
      "Ġcriacao": 2590,
      "Ġnavio": 2591,
      "Ġ74": 2592,
      "Ġhomo": 2593,
      "Ġestrange": 2594,
      "Ġcapital": 2595,
      "Ġfronte": 2596,
      "cro": 2597,
      "Ġcontinge": 2598,
      "Ġagricul": 2599,
      "Ġaceita": 2600,
      "Ġassu": 2601,
      "Ġconstru": 2602,
      "Ġatu": 2603,
      "Ġcusto": 2604,
      "ds": 2605,
      "riza": 2606,
      "Ġestabelecidos": 2607,
      "Ġsex": 2608,
      "Ġsimples": 2609,
      "Ġtodo": 2610,
      "lon": 2611,
      "Ġsatisfa": 2612,
      "Ġexclusao": 2613,
      "Ġposterior": 2614,
      "Ġparcial": 2615,
      "Ġfuncionarios": 2616,
      "jus": 2617,
      "ques": 2618,
      "Ġatos": 2619,
      "vul": 2620,
      "nes": 2621,
      "Ġpublicacao": 2622,
      "Ġserem": 2623,
      "Ġmercados": 2624,
      "Ġadministrativas": 2625,
      "Ġinteresses": 2626,
      "Ġame": 2627,
      "Ġregional": 2628,
      "ys": 2629,
      "Ġagricolas": 2630,
      "Ġmenciona": 2631,
      "Ġproceder": 2632,
      "Ġapresentada": 2633,
      "Ġpropriedade": 2634,
      "99": 2635,
      "Ġsubstancias": 2636,
      "Ġ<": 2637,
      "Ġalterado": 2638,
      "Ġpropria": 2639,
      "Ġfranca": 2640,
      "Ġoriginarios": 2641,
      "Ġapresentadas": 2642,
      "usao": 2643,
      "Ġefetua": 2644,
      "Ġvan": 2645,
      "08": 2646,
      "Ġestabelecer": 2647,
      "12": 2648,
      "gosto": 2649,
      "ges": 2650,
      "Ġprocu": 2651,
      "Ġaduaneira": 2652,
      "Ġobjetivos": 2653,
      "03": 2654,
      "Ġconsolida": 2655,
      "Ġdefesa": 2656,
      "Ġdel": 2657,
      "Ġcondenar": 2658,
      "Ġapresentados": 2659,
      "Ġaspe": 2660,
      "05": 2661,
      "Ġuso": 2662,
      "liza": 2663,
      "Ġalgu": 2664,
      "Ġagosto": 2665,
      "Ġiniciativa": 2666,
      "Ġfazer": 2667,
      "Ġdeterminado": 2668,
      "tima": 2669,
      "Ġdomi": 2670,
      "Ġsubstancia": 2671,
      "Ð¾": 2672,
      "rencia": 2673,
      "Ġpapel": 2674,
      "Ġih": 2675,
      "sem": 2676,
      "Ġbar": 2677,
      "Ġdiri": 2678,
      "Ġmaqu": 2679,
      "Ġlt": 2680,
      "Ġadministrativa": 2681,
      "Ġinscri": 2682,
      "Ġpodia": 2683,
      "Ġrecomenda": 2684,
      "Ġtar": 2685,
      "Ġcertas": 2686,
      "Ðµ": 2687,
      "onas": 2688,
      "late": 2689,
      "Ġprovenientes": 2690,
      "Ġmontantes": 2691,
      "Ġdina": 2692,
      "Ġproporcional": 2693,
      "istas": 2694,
      "Ġeli": 2695,
      "Ġped": 2696,
      "04": 2697,
      "Ġtiver": 2698,
      "cta": 2699,
      "Ġcontas": 2700,
      "Ġdecidir": 2701,
      "Ġprevia": 2702,
      "Ġanual": 2703,
      "Ġreti": 2704,
      "Ġajuda": 2705,
      "Ġreve": 2706,
      "Ġcm": 2707,
      "Ġvendas": 2708,
      "Ġfru": 2709,
      "cam": 2710,
      "Ġdesem": 2711,
      "Ġaero": 2712,
      "Ġadoptar": 2713,
      "Ġmoda": 2714,
      "issoes": 2715,
      "Ġcara": 2716,
      "Ġrepresentante": 2717,
      "Ġclassificacao": 2718,
      "Ġdesempen": 2719,
      "Ġferro": 2720,
      "Ġtrata": 2721,
      "Ġur": 2722,
      "Ġcaracteristicas": 2723,
      "Ġsecretario": 2724,
      "Ġfeito": 2725,
      "tional": 2726,
      "Ġconceito": 2727,
      "Ġseria": 2728,
      "Ġpertinentes": 2729,
      "Ġreno": 2730,
      "logia": 2731,
      "Ġestrate": 2732,
      "uncia": 2733,
      "Ġminimo": 2734,
      "ervacao": 2735,
      "Ġcontrolos": 2736,
      "mune": 2737,
      "Ġatividade": 2738,
      "Ġcondena": 2739,
      "Ġdestes": 2740,
      "Ġ1988": 2741,
      "Ġpermite": 2742,
      "Ġile": 2743,
      "Ġfins": 2744,
      "Ġsujeitos": 2745,
      "Ġcondicao": 2746,
      "Ġsecretaria": 2747,
      "port": 2748,
      "Ġproprios": 2749,
      "Ġinterpretado": 2750,
      "Ġgre": 2751,
      "hi": 2752,
      "Ġadequ": 2753,
      "Ġcertos": 2754,
      "lada": 2755,
      "Ġitalia": 2756,
      "Ġdeterminacao": 2757,
      "landia": 2758,
      "Ġnovas": 2759,
      "Ġespecificos": 2760,
      "Ġinterca": 2761,
      "Ġentende": 2762,
      "gue": 2763,
      "Ġutilizado": 2764,
      "Ġfinanceiras": 2765,
      "mar": 2766,
      "Ġprece": 2767,
      "Ġtecnologi": 2768,
      "Ġreuniao": 2769,
      "ceu": 2770,
      "Ġihmi": 2771,
      "Ġcoima": 2772,
      "Ġirre": 2773,
      "Ġaustria": 2774,
      "bilidades": 2775,
      "Ġconcurso": 2776,
      "Ġevitar": 2777,
      "Ġmanutencao": 2778,
      "mpa": 2779,
      "Ġino": 2780,
      "Ġpoliticas": 2781,
      "Ġit": 2782,
      "Ġsexta": 2783,
      "Ġqualifica": 2784,
      "has": 2785,
      "ĠâĪ": 2786,
      "au": 2787,
      "land": 2788,
      "Ġfibras": 2789,
      "Ġeslo": 2790,
      "Ġlicenca": 2791,
      "Ġcomuns": 2792,
      "Ġlegi": 2793,
      "postos": 2794,
      "13": 2795,
      "ko": 2796,
      "Ġescolh": 2797,
      "Ġcidada": 2798,
      "Ġidentificacao": 2799,
      "Ġiso": 2800,
      "Ġtitular": 2801,
      "Ġdepo": 2802,
      "Ġole": 2803,
      "Ġdestinados": 2804,
      "Ġing": 2805,
      "Ġquantidades": 2806,
      "Ġbaixos": 2807,
      "Ġmuito": 2808,
      "Ġprovimento": 2809,
      "Ġdestinadas": 2810,
      "Ġesca": 2811,
      "Ġconteudo": 2812,
      "Ġconstante": 2813,
      "Ġelemento": 2814,
      "ioes": 2815,
      "Ġnecessidades": 2816,
      "Ġigualdade": 2817,
      "Ġremune": 2818,
      "Ġharmonizacao": 2819,
      "landa": 2820,
      "Ġaparelhos": 2821,
      "Ġabrangidos": 2822,
      "Ġfora": 2823,
      "Ġsetor": 2824,
      "zes": 2825,
      "Ġaus": 2826,
      "Ġfigura": 2827,
      "Ġpers": 2828,
      "mou": 2829,
      "Ġpreench": 2830,
      "Ġdivul": 2831,
      "Ġdeli": 2832,
      "Ġsof": 2833,
      "Ġnecessarios": 2834,
      "Ġedu": 2835,
      "Ġgeogra": 2836,
      "Ġsujeito": 2837,
      "Ġinstalacoes": 2838,
      "man": 2839,
      "Ġdete": 2840,
      "Ġinstituto": 2841,
      "Ġ1989": 2842,
      "Ġacucar": 2843,
      "Ġhomolo": 2844,
      "Ġtempora": 2845,
      "Ġbu": 2846,
      "et": 2847,
      "Ġdifi": 2848,
      "Ġquantidade": 2849,
      "Ġcinco": 2850,
      "Ġirlanda": 2851,
      "ixo": 2852,
      "Ġtransportes": 2853,
      "lidade": 2854,
      "Ġmisto": 2855,
      "Ġprojectos": 2856,
      "Ġcompetencias": 2857,
      "Ġfos": 2858,
      "Ġterceira": 2859,
      "Ġeuropa": 2860,
      "Ġefectuadas": 2861,
      "19": 2862,
      "ceaao": 2863,
      "plo": 2864,
      "gacoes": 2865,
      "Ġcoorden": 2866,
      "Ġmaterial": 2867,
      "Ġtransmi": 2868,
      "Ġmodelo": 2869,
      "Ġanular": 2870,
      "macao": 2871,
      "Ġtoneladas": 2872,
      "lagem": 2873,
      "Ġaquis": 2874,
      "Ġmanda": 2875,
      "Ġvii": 2876,
      "zos": 2877,
      "Ġpodera": 2878,
      "Ġsp": 2879,
      "Ġevo": 2880,
      "Ġcomunitarios": 2881,
      "Ġclaus": 2882,
      "Ġconsumidores": 2883,
      "Ġtomada": 2884,
      "15": 2885,
      "Ġdotacoes": 2886,
      "Ġadmi": 2887,
      "Ġseguro": 2888,
      "Ġpriori": 2889,
      "Ġequ": 2890,
      "Ġexpressa": 2891,
      "Ġemba": 2892,
      "Ġcalcula": 2893,
      "Ġfixado": 2894,
      "fer": 2895,
      "Ġprete": 2896,
      "Ġpublicas": 2897,
      "Ġnegocios": 2898,
      "Ġadministrativo": 2899,
      "Ġmuni": 2900,
      "cessi": 2901,
      "Ġaprovacao": 2902,
      "07": 2903,
      "Ġel": 2904,
      "Ġpagamentos": 2905,
      "Ġproprias": 2906,
      "Ġexistentes": 2907,
      "Ġeletroni": 2908,
      "Ġth": 2909,
      "Ġtu": 2910,
      "Ġdepois": 2911,
      "Ġestatis": 2912,
      "Ġalar": 2913,
      "Ġzonas": 2914,
      "Ġregulamentos": 2915,
      "Ġimpostos": 2916,
      "Ġensaio": 2917,
      "Ġcabe": 2918,
      "Ġgrande": 2919,
      "lado": 2920,
      "cidas": 2921,
      "vem": 2922,
      "Ġredes": 2923,
      "Ġcomposto": 2924,
      "Ġdesignacao": 2925,
      "Ġatin": 2926,
      "Ð½": 2927,
      "guar": 2928,
      "Ġonde": 2929,
      "06": 2930,
      "Ġleite": 2931,
      "Ġvisa": 2932,
      "rato": 2933,
      "Ġ2021": 2934,
      "Ġfundamentais": 2935,
      "pula": 2936,
      "Ġimportante": 2937,
      "Ġprocessu": 2938,
      "tel": 2939,
      "Ġorganizacoes": 2940,
      "we": 2941,
      "Ġclara": 2942,
      "Ġconsiderou": 2943,
      "Ġrazoa": 2944,
      "Ġaduaneiras": 2945,
      "Ġdestas": 2946,
      "Ġcompon": 2947,
      "Ġperante": 2948,
      "Ġadequado": 2949,
      "Ġsur": 2950,
      "Ġbelgica": 2951,
      "Ġfiscalizacao": 2952,
      "Ġreconhecimento": 2953,
      "ervar": 2954,
      "Ġfavo": 2955,
      "Ġunidade": 2956,
      "Ġcentral": 2957,
      "ms": 2958,
      "Ġdepen": 2959,
      "ridade": 2960,
      "Ġhab": 2961,
      "Ġdimen": 2962,
      "Ġenuncia": 2963,
      "Ġmulti": 2964,
      "Ġobsta": 2965,
      "Ġreparti": 2966,
      "Ġsalienta": 2967,
      "gadas": 2968,
      "tente": 2969,
      "Ġequivalente": 2970,
      "Ġindemnizacao": 2971,
      "Ġdescricao": 2972,
      "nuncia": 2973,
      "Ġmelh": 2974,
      "Ġaval": 2975,
      "Ġmanter": 2976,
      "Ġcpc": 2977,
      "Ġintroducao": 2978,
      "Ġrecupe": 2979,
      "Ġespecifico": 2980,
      "nsi": 2981,
      "Ġreunioes": 2982,
      "Ġapreco": 2983,
      "Ġtotali": 2984,
      "Ġdomicili": 2985,
      "Ġquimi": 2986,
      "Ġproble": 2987,
      "Ġcontratantes": 2988,
      "cida": 2989,
      "iu": 2990,
      "Ġimpro": 2991,
      "Ġdiferente": 2992,
      "Ġpois": 2993,
      "Ġlongo": 2994,
      "Ġenume": 2995,
      "Ġdevida": 2996,
      "Ġtipos": 2997,
      "Ġdepos": 2998,
      "Ġorcamental": 2999,
      "Ġquatro": 3000,
      "Ġdigne": 3001,
      "Ġespaco": 3002,
      "Ġoposicao": 3003,
      "comun": 3004,
      "Ġreceb": 3005,
      "Ġsingula": 3006,
      "Ġsubsidia": 3007,
      "Ġincumpri": 3008,
      "cht": 3009,
      "Ġprossegu": 3010,
      "sar": 3011,
      "Ġpedindo": 3012,
      "Ġnegocia": 3013,
      "Ġalemao": 3014,
      "ridos": 3015,
      "Ġministerio": 3016,
      "Ġalineas": 3017,
      "Ġnecessaria": 3018,
      "Ġdistribuicao": 3019,
      "tonia": 3020,
      "Ġdeverao": 3021,
      "Ġinstrumento": 3022,
      "Ġunidades": 3023,
      "Ġincluir": 3024,
      "ual": 3025,
      "Ġcomercializacao": 3026,
      "ly": 3027,
      "Ġdentro": 3028,
      "estru": 3029,
      "Ġconcer": 3030,
      "Ġcategorias": 3031,
      "gues": 3032,
      "Ġtexteis": 3033,
      "ins": 3034,
      "rizacao": 3035,
      "Ġverificacao": 3036,
      "Ġvarios": 3037,
      "ustri": 3038,
      "Ġmunicip": 3039,
      "Ġconsiste": 3040,
      "Ġcombus": 3041,
      "timo": 3042,
      "Ġef": 3043,
      "Ġagua": 3044,
      "Ġadequadas": 3045,
      "ficientes": 3046,
      "Ġutilizar": 3047,
      "ico": 3048,
      "Ġbra": 3049,
      "lou": 3050,
      "Ġresultado": 3051,
      "Ġtur": 3052,
      "ramento": 3053,
      "Ġreje": 3054,
      "Ġdemandante": 3055,
      "Ġexis": 3056,
      "Ġconsiderada": 3057,
      "Ġmodalidades": 3058,
      "Ġobras": 3059,
      "Ġaduaneiro": 3060,
      "Ġcoordenacao": 3061,
      "Ġedi": 3062,
      "Ġcontem": 3063,
      "Ġproprio": 3064,
      "Ġdemo": 3065,
      "Ġvida": 3066,
      "Ġestima": 3067,
      "Ġsepa": 3068,
      "Ġorientacoes": 3069,
      "Ġavalia": 3070,
      "Ġacoes": 3071,
      "Ġoriginarias": 3072,
      "Ġpromocao": 3073,
      "nham": 3074,
      "Ġbanco": 3075,
      "Ġcondu": 3076,
      "dina": 3077,
      "cimentos": 3078,
      "tives": 3079,
      "Ġeram": 3080,
      "Ġminis": 3081,
      "Ġalterada": 3082,
      "Ġenvol": 3083,
      "Ġtotalidade": 3084,
      "rina": 3085,
      "Ġaplicada": 3086,
      "Ġprogres": 3087,
      "Ġdiscriminacao": 3088,
      "Ġrecordar": 3089,
      "29": 3090,
      "Ġrap": 3091,
      "Ġincumprimento": 3092,
      "fas": 3093,
      "dir": 3094,
      "Ġanexos": 3095,
      "Ġabor": 3096,
      "Ġessencial": 3097,
      "Ġimportancia": 3098,
      "Ġvir": 3099,
      "Ġindire": 3100,
      "ed": 3101,
      "Ġconhecimento": 3102,
      "Ġsele": 3103,
      "Ġconsequencia": 3104,
      "Ġdeciso": 3105,
      "ctores": 3106,
      "Ġgrau": 3107,
      "Ġvanta": 3108,
      "Ġcoloca": 3109,
      "Ġactos": 3110,
      "Ġ220": 3111,
      "Ġmesmas": 3112,
      "Ġcarater": 3113,
      "Ġadmissi": 3114,
      "Ġliqu": 3115,
      "chen": 3116,
      "vor": 3117,
      "Ġdirectamente": 3118,
      "Ġagricola": 3119,
      "Ġaque": 3120,
      "Ġmade": 3121,
      "Ġcorrespondente": 3122,
      "Ġamos": 3123,
      "vin": 3124,
      "Ġcomportamento": 3125,
      "ÑĢ": 3126,
      "Ġmodifica": 3127,
      "ÑĤ": 3128,
      "Ġadotar": 3129,
      "Ġprorro": 3130,
      "Ġconsequentemente": 3131,
      "18": 3132,
      "Ġresta": 3133,
      "Ġajus": 3134,
      "Ġultra": 3135,
      "Ġamostra": 3136,
      "Ġforem": 3137,
      "Ġadvogados": 3138,
      "Ġcertificados": 3139,
      "Ġisto": 3140,
      "Ġrepresentada": 3141,
      "Ġrespeitantes": 3142,
      "Ġradio": 3143,
      "Ġmaquinas": 3144,
      "Ġpenal": 3145,
      "Ġsujeita": 3146,
      "Ġseguros": 3147,
      "Ġindustri": 3148,
      "imento": 3149,
      "Ġinad": 3150,
      "Ġincor": 3151,
      "Ġindicacao": 3152,
      "Ġportugal": 3153,
      "Ġversao": 3154,
      "ps": 3155,
      "Ġexclusivamente": 3156,
      "Ġexposicao": 3157,
      "Ġ1987": 3158,
      "Ġemissoes": 3159,
      "Ġadoptadas": 3160,
      "Ġ104": 3161,
      "ficiencia": 3162,
      "ner": 3163,
      "Ġpermiti": 3164,
      "Ġ500": 3165,
      "Ġrelacoes": 3166,
      "Ġvisto": 3167,
      "Ġdever": 3168,
      "Ġdisponiveis": 3169,
      "bar": 3170,
      "Ġaquisicao": 3171,
      "Ġtransformacao": 3172,
      "Ġexplica": 3173,
      "Ġinteressadas": 3174,
      "mbio": 3175,
      "Ġnestas": 3176,
      "Ġmon": 3177,
      "Ġinclui": 3178,
      "Ġconsumidor": 3179,
      "Ġliberdade": 3180,
      "Ġadocao": 3181,
      "Ġnc": 3182,
      "ie": 3183,
      "Ġespecies": 3184,
      "Ġsch": 3185,
      "geri": 3186,
      "Ġnenhum": 3187,
      "tividade": 3188,
      "Ġinfracao": 3189,
      "Ġcf": 3190,
      "vers": 3191,
      "Ġder": 3192,
      "Ġdoen": 3193,
      "Ġamp": 3194,
      "ĠÃ": 3195,
      "Ġexigencias": 3196,
      "ĠâĪĴ": 3197,
      "Ġpromover": 3198,
      "ÏĦ": 3199,
      "dora": 3200,
      "Ġsue": 3201,
      "nder": 3202,
      "Ġinterior": 3203,
      "Ġeletri": 3204,
      "Ġlicencas": 3205,
      "Ġproibicao": 3206,
      "Ġcarne": 3207,
      "Ġreforma": 3208,
      "Ġimpo": 3209,
      "Ġdecorrentes": 3210,
      "Ġoperador": 3211,
      "Ġacrescentado": 3212,
      "Ġcober": 3213,
      "Ġexercer": 3214,
      "randos": 3215,
      "jos": 3216,
      "Ġ030": 3217,
      "Ġdevia": 3218,
      "mbh": 3219,
      "Ġreceitas": 3220,
      "Ġeurato": 3221,
      "Ġeuratom": 3222,
      "Ġquarto": 3223,
      "ion": 3224,
      "exa": 3225,
      "Ġliqui": 3226,
      "Ġrelacionadas": 3227,
      "Ġcompensacao": 3228,
      "Ġinadmissi": 3229,
      "Ġprescri": 3230,
      "Ġproporcionalidade": 3231,
      "Ġmos": 3232,
      "Ġregioes": 3233,
      "Ġdomicilio": 3234,
      "Ġconsideracoes": 3235,
      "Ġgeografica": 3236,
      "Ġcola": 3237,
      "Ġconduz": 3238,
      "nio": 3239,
      "Ġregiao": 3240,
      "Ġvinhos": 3241,
      "Ġgmbh": 3242,
      "Ġq": 3243,
      "Ġefetu": 3244,
      "Ġrubrica": 3245,
      "Ġtinham": 3246,
      "Ġalco": 3247,
      "Ġsublin": 3248,
      "Ġconsiderados": 3249,
      "Ġmateriais": 3250,
      "Ġpoderes": 3251,
      "Ġsul": 3252,
      "Ġencargos": 3253,
      "bilizacao": 3254,
      "Ġsubse": 3255,
      "Ġvarias": 3256,
      "Ġelegi": 3257,
      "14": 3258,
      "Ġargumento": 3259,
      "Ġprofissionais": 3260,
      "Ġfacul": 3261,
      "Ġevolucao": 3262,
      "Ġko": 3263,
      "arma": 3264,
      "Ġprovas": 3265,
      "zer": 3266,
      "ire": 3267,
      "gh": 3268,
      "Ġdigi": 3269,
      "ry": 3270,
      "Ġanteriores": 3271,
      "Ġtranspa": 3272,
      "Ġsuica": 3273,
      "cil": 3274,
      "Ġexcepcao": 3275,
      "Ġfixacao": 3276,
      "Ġince": 3277,
      "Ġessenciais": 3278,
      "Ġconsiderandos": 3279,
      "Ġregulamentares": 3280,
      "Ġmesmos": 3281,
      "Ġpassage": 3282,
      "Ġdominios": 3283,
      "09": 3284,
      "ferido": 3285,
      "Ġeconomia": 3286,
      "Ġrevesti": 3287,
      "Ġfamilia": 3288,
      "Ġimo": 3289,
      "portun": 3290,
      "Ġdestinado": 3291,
      "Ġadequada": 3292,
      "Ġfios": 3293,
      "nica": 3294,
      "Ġterem": 3295,
      "Ġconcedida": 3296,
      "Ġorgaos": 3297,
      "Ġderrogacao": 3298,
      "Ġconstituem": 3299,
      "Ġsociais": 3300,
      "Ġeventual": 3301,
      "Ġinse": 3302,
      "Ġregimes": 3303,
      "Ġeconomicos": 3304,
      "Ġesfor": 3305,
      "Ġimediatamente": 3306,
      "gios": 3307,
      "Ġfl": 3308,
      "Ġreembolso": 3309,
      "Ġmetodos": 3310,
      "ting": 3311,
      "clo": 3312,
      "Ġteria": 3313,
      "Ġflu": 3314,
      "Ġcos": 3315,
      "Ġfili": 3316,
      "Ġexportador": 3317,
      "amento": 3318,
      "Ġsh": 3319,
      "verem": 3320,
      "Ġvincula": 3321,
      "Ġcontinua": 3322,
      "Ġimpugna": 3323,
      "Ġformas": 3324,
      "Ġconsolidado": 3325,
      "Ġingles": 3326,
      "Ġmodelos": 3327,
      "Ġxi": 3328,
      "ravel": 3329,
      "Ġacolh": 3330,
      "Ġespecie": 3331,
      "Ġens": 3332,
      "Ġcompromissos": 3333,
      "Ġprever": 3334,
      "Ġmargem": 3335,
      "Ġcompan": 3336,
      "Ġequipamento": 3337,
      "Ġprocede": 3338,
      "aliza": 3339,
      "partida": 3340,
      "Ġeti": 3341,
      "Ġnesta": 3342,
      "Ġbeneficio": 3343,
      "Ġrelatorios": 3344,
      "Ġltd": 3345,
      "Ġplena": 3346,
      "Ġplu": 3347,
      "Ġdese": 3348,
      "Ġconstantes": 3349,
      "Ġisso": 3350,
      "gre": 3351,
      "Ġaquando": 3352,
      "Ġescolhido": 3353,
      "tara": 3354,
      "Ġtomadas": 3355,
      "Ġfeita": 3356,
      "Ġrevisao": 3357,
      "Ġabrange": 3358,
      "Î½": 3359,
      "Ġdecisoria": 3360,
      "Ġtrabalhador": 3361,
      "Ġsalvo": 3362,
      "Ġresponder": 3363,
      "Ġproferi": 3364,
      "turais": 3365,
      "dao": 3366,
      "23": 3367,
      "Ġconstituicao": 3368,
      "Ġaproxi": 3369,
      "Ġprojeto": 3370,
      "plica": 3371,
      "Ġconcluir": 3372,
      "Ġtari": 3373,
      "Ġ300": 3374,
      "Ġcommun": 3375,
      "Ġoportun": 3376,
      "Ġsec": 3377,
      "Ġ107": 3378,
      "tte": 3379,
      "16": 3380,
      "Ġvalidade": 3381,
      "Ġsuspensao": 3382,
      "Ġrelacionados": 3383,
      "Ġfr": 3384,
      "Ġlocais": 3385,
      "Ġirregula": 3386,
      "Ġrestricoes": 3387,
      "Ġredacao": 3388,
      "Ġsancoes": 3389,
      "Ġitaliana": 3390,
      "Ġhidro": 3391,
      "Ġcompra": 3392,
      "Ġmotor": 3393,
      "Ġsusci": 3394,
      "Ġderi": 3395,
      "Ġocorre": 3396,
      "Ġaborda": 3397,
      "Ġespan": 3398,
      "pia": 3399,
      "Ġautoma": 3400,
      "vidos": 3401,
      "Ġhor": 3402,
      "Ġconstrucao": 3403,
      "Ġlegislativas": 3404,
      "Ġimproce": 3405,
      "Ġlinha": 3406,
      "Ġcro": 3407,
      "Ġhipo": 3408,
      "Ġbul": 3409,
      "Ġexcede": 3410,
      "Ġacusa": 3411,
      "Ġcontrapartida": 3412,
      "Ġefectivamente": 3413,
      "ft": 3414,
      "Ġjuros": 3415,
      "Ġrepro": 3416,
      "Ġestabelecida": 3417,
      "cem": 3418,
      "Ġsituacoes": 3419,
      "Ġ207": 3420,
      "Ġnega": 3421,
      "Ġdeclaracoes": 3422,
      "oni": 3423,
      "Ġelectri": 3424,
      "Ġautorizacoes": 3425,
      "inada": 3426,
      "guns": 3427,
      "Ġlar": 3428,
      "Ġjuizes": 3429,
      "quia": 3430,
      "Ġinvestimentos": 3431,
      "Ġfabricante": 3432,
      "Ġfica": 3433,
      "erlandes": 3434,
      "Ġdeterminada": 3435,
      "Ġeficacia": 3436,
      "Ġjudicial": 3437,
      "Ġconservacao": 3438,
      "rian": 3439,
      "Ġmecanismo": 3440,
      "Ġilegal": 3441,
      "Ġunicamente": 3442,
      "Ġwa": 3443,
      "Ġeficaz": 3444,
      "Ġface": 3445,
      "torias": 3446,
      "Ġcontrovertida": 3447,
      "Ġadicionais": 3448,
      "Ġagricultura": 3449,
      "Îµ": 3450,
      "Ġtransmissao": 3451,
      "Ġtributacao": 3452,
      "Ġ!": 3453,
      "Ġgi": 3454,
      "ticao": 3455,
      "ct": 3456,
      "Ġfrancesa": 3457,
      "Ġfres": 3458,
      "teu": 3459,
      "timos": 3460,
      "terna": 3461,
      "Ġmedicamentos": 3462,
      "Ġfavor": 3463,
      "Ġconcedido": 3464,
      "Ġespanho": 3465,
      "Ġrazoavel": 3466,
      "Ġnessa": 3467,
      "Ġanalo": 3468,
      "Ġapresentou": 3469,
      "gou": 3470,
      "Ġeta": 3471,
      "Ġfornecimento": 3472,
      "gamento": 3473,
      "Ġ1986": 3474,
      "Ġsupervisao": 3475,
      "ki": 3476,
      "Ġdecidiu": 3477,
      "cs": 3478,
      "Ġalimentos": 3479,
      "Ġdeclarar": 3480,
      "Ġbeneficiar": 3481,
      "lados": 3482,
      "Ġdenominacao": 3483,
      "Ġacompanhamento": 3484,
      "Ġrealizar": 3485,
      "tude": 3486,
      "dere": 3487,
      "25": 3488,
      "nar": 3489,
      "Ġconsultas": 3490,
      "Ġtroca": 3491,
      "Ġconge": 3492,
      "Ġunifor": 3493,
      "Ġtecnico": 3494,
      "marca": 3495,
      "Ġetc": 3496,
      "Ġprecisa": 3497,
      "Ġexperie": 3498,
      "Ġseis": 3499,
      "Ġgrupos": 3500,
      "Ġprodutor": 3501,
      "Ġindependentemente": 3502,
      "minu": 3503,
      "Ġperiodos": 3504,
      "Ġnorte": 3505,
      "Ġactual": 3506,
      "Ġrepa": 3507,
      "Ġmol": 3508,
      "Ġ020": 3509,
      "Ġarea": 3510,
      "torial": 3511,
      "Ġprejudiciais": 3512,
      "Ġka": 3513,
      "Ġdificul": 3514,
      "Ġmelhorar": 3515,
      "ntra": 3516,
      "Ġplanos": 3517,
      "Ġfacilitar": 3518,
      "Ġelevado": 3519,
      "Ġdiminu": 3520,
      "Ġincorpo": 3521,
      "har": 3522,
      "24": 3523,
      "Ġjunto": 3524,
      "Ġfornecer": 3525,
      "Ġdispositivos": 3526,
      "Ġil": 3527,
      "Ġdemonstrar": 3528,
      "tive": 3529,
      "Ġtrabalhos": 3530,
      "Ġcriterio": 3531,
      "Ġalguns": 3532,
      "Ġpour": 3533,
      "Ġquotas": 3534,
      "laria": 3535,
      "Ġvol": 3536,
      "Ġautono": 3537,
      "Ġfac": 3538,
      "zena": 3539,
      "Ġboa": 3540,
      "Ġquarta": 3541,
      "til": 3542,
      "Ġeconomicas": 3543,
      "Ġpassageiros": 3544,
      "Ġprejudica": 3545,
      "Ġaplicado": 3546,
      "Ġlegislacoes": 3547,
      "Ġcolocacao": 3548,
      "rentes": 3549,
      "ncialmente": 3550,
      "vadas": 3551,
      "Ġvenci": 3552,
      "Ġpremi": 3553,
      "Ñģ": 3554,
      "Ġpopu": 3555,
      "Ġmelhor": 3556,
      "Ġassinatura": 3557,
      "Ġsimulta": 3558,
      "Ġig": 3559,
      "Ġaduaneiros": 3560,
      "Ġeventuais": 3561,
      "dri": 3562,
      "Ġpon": 3563,
      "Ġaba": 3564,
      "Ġwit": 3565,
      "Ġarbi": 3566,
      "Ġanimal": 3567,
      "Ġdesignado": 3568,
      "Ġxx": 3569,
      "rimento": 3570,
      "Ġimple": 3571,
      "ers": 3572,
      "Ġjuridicos": 3573,
      "Ġtera": 3574,
      "Ġpessoais": 3575,
      "una": 3576,
      "menti": 3577,
      "Ġautos": 3578,
      "Ġteve": 3579,
      "Ġpagar": 3580,
      "Ġabrangidas": 3581,
      "lico": 3582,
      "Ġmadeira": 3583,
      "Ġencontra": 3584,
      "Ġhumanos": 3585,
      "Ġintercambio": 3586,
      "Ġensino": 3587,
      "Ġrevis": 3588,
      "ĠâĢĺ": 3589,
      "Ġmeta": 3590,
      "Ġniveis": 3591,
      "Ġrelator": 3592,
      "Ġautorizado": 3593,
      "mentado": 3594,
      "Ġbran": 3595,
      "Ġtorna": 3596,
      "Ġtransf": 3597,
      "Ġinvo": 3598,
      "Ġmal": 3599,
      "Ġprazos": 3600,
      "Ġindicado": 3601,
      "Ïģ": 3602,
      "Ġtardar": 3603,
      "Ġsuficientemente": 3604,
      "Ġarmazena": 3605,
      "Ġpeix": 3606,
      "Ġregular": 3607,
      "Ġofere": 3608,
      "Ġrelevantes": 3609,
      "Ġconsideradas": 3610,
      "Ġcobranca": 3611,
      "Ġsusceptivel": 3612,
      "Ġalterna": 3613,
      "Ġneerlandes": 3614,
      "Ġecus": 3615,
      "Ġfronteiras": 3616,
      "Ġhomologacao": 3617,
      "pera": 3618,
      "Ġbulga": 3619,
      "Ġreme": 3620,
      "Ġutil": 3621,
      "Ġliquida": 3622,
      "Ġcarga": 3623,
      "Ġrestitu": 3624,
      "Ġindividual": 3625,
      "ted": 3626,
      "Ġexpressao": 3627,
      "Ġpercenta": 3628,
      "Ġ1983": 3629,
      "Ġtraves": 3630,
      "Ġconex": 3631,
      "Ġalterar": 3632,
      "Ġprocura": 3633,
      "poem": 3634,
      "Ġreexa": 3635,
      "Ġnegociacoes": 3636,
      "Ġgor": 3637,
      "Ġpronun": 3638,
      "Ġpermanente": 3639,
      "Ġcentro": 3640,
      "Ġprovisorio": 3641,
      "Ġtransi": 3642,
      "17": 3643,
      "Ġdirectivas": 3644,
      "Ġutilizadores": 3645,
      "Ġescrito": 3646,
      "Ġaplicadas": 3647,
      "rir": 3648,
      "lio": 3649,
      "Ġdeclara": 3650,
      "Ġdefe": 3651,
      "Ġtecidos": 3652,
      "Ġparceria": 3653,
      "Ġcidadaos": 3654,
      "Ġ112": 3655,
      "Ġsimpli": 3656,
      "Ġexten": 3657,
      "Ġcerca": 3658,
      "Ġdivulgacao": 3659,
      "Ġtransfronte": 3660,
      "Ġmanifesta": 3661,
      "Ġ520": 3662,
      "Ġconsequencias": 3663,
      "biliza": 3664,
      "Ġopoe": 3665,
      "ments": 3666,
      "Ġreparticao": 3667,
      "Ġrome": 3668,
      "Ġcere": 3669,
      "Ġatribuicao": 3670,
      "Ġpossu": 3671,
      "Ġdinamarca": 3672,
      "Ġaplicam": 3673,
      "Ġreduzir": 3674,
      "Ġcaus": 3675,
      "Ġsolucao": 3676,
      "Ġrecuperacao": 3677,
      "ler": 3678,
      "Ġequipamentos": 3679,
      "ipo": 3680,
      "Ġincenti": 3681,
      "Ġassis": 3682,
      "Ġcorrespondentes": 3683,
      "Ġremuneracao": 3684,
      "Ġnacionalidade": 3685,
      "Ġnorue": 3686,
      "wa": 3687,
      "esar": 3688,
      "Ġplurian": 3689,
      "Ġrecla": 3690,
      "Ġperitos": 3691,
      "tiza": 3692,
      "Ġsinte": 3693,
      "Ġdenuncia": 3694,
      "Ġparticipantes": 3695,
      "Ġ103": 3696,
      "Ġeuipo": 3697,
      "Ġhu": 3698,
      "Ġrealizadas": 3699,
      "Ġresultantes": 3700,
      "Ġbaseia": 3701,
      "Ġsujeitas": 3702,
      "Ġadoptou": 3703,
      "quen": 3704,
      "22": 3705,
      "Ġimpoe": 3706,
      "Ġrecip": 3707,
      "tavel": 3708,
      "Ġsusceptiveis": 3709,
      "Ġconferi": 3710,
      "Ġdelibe": 3711,
      "Ġadjudicacao": 3712,
      "Ġpossibilidades": 3713,
      "Ġresponsaveis": 3714,
      "Ġcance": 3715,
      "Ġfiscais": 3716,
      "Ġdenomina": 3717,
      "Ġpoderia": 3718,
      "pensa": 3719,
      "Ġenerge": 3720,
      "Ġcou": 3721,
      "dial": 3722,
      "Ġcapturas": 3723,
      "Ġexaminar": 3724,
      "Ġentrega": 3725,
      "Ġpm": 3726,
      "Ġapendi": 3727,
      "Ġclausula": 3728,
      "Ġadicional": 3729,
      "Ġdans": 3730,
      "Ġdesempenho": 3731,
      "ntamente": 3732,
      "Ġincumbem": 3733,
      "Ġcres": 3734,
      "Ġmedio": 3735,
      "Ġgt": 3736,
      "Ġembar": 3737,
      "Ġgarantias": 3738,
      "Ġaca": 3739,
      "Ġwe": 3740,
      "Ġdefinidos": 3741,
      "Ġefectuada": 3742,
      "Ġprovisoria": 3743,
      "ban": 3744,
      "postas": 3745,
      "rus": 3746,
      "Ġpolon": 3747,
      "Ġapesar": 3748,
      "Ġartifi": 3749,
      "Ġperte": 3750,
      "Ġespecialmente": 3751,
      "Ġausencia": 3752,
      "Ġserie": 3753,
      "Ġpeticao": 3754,
      "Ġdiferenca": 3755,
      "Ġclaramente": 3756,
      "ental": 3757,
      "Ġpolonia": 3758,
      "Ġdimensao": 3759,
      "Ġatende": 3760,
      "Ġindicacoes": 3761,
      "Ġestejam": 3762,
      "Ġcomunicacoes": 3763,
      "Ġcandidatos": 3764,
      "Ġestruturas": 3765,
      "Ġestava": 3766,
      "Ġrequisito": 3767,
      "Ġconceder": 3768,
      "Ġposi": 3769,
      "Ġcontenham": 3770,
      "Ġtub": 3771,
      "Ġefetuadas": 3772,
      "Ġbre": 3773,
      "Ġapreciar": 3774,
      "Ġpensao": 3775,
      "Ġ1985": 3776,
      "Ġaa": 3777,
      "Ġrespectivas": 3778,
      "Ġindicar": 3779,
      "Ġsimi": 3780,
      "Ġwith": 3781,
      "Ġdiplo": 3782,
      "Ġrejeita": 3783,
      "Ġharmoniza": 3784,
      "comunica": 3785,
      "Ġrendimento": 3786,
      "Ġcontratante": 3787,
      "Ġitaliano": 3788,
      "Ġdecurso": 3789,
      "dis": 3790,
      "Ġst": 3791,
      "Ġaumentar": 3792,
      "Ġnumeros": 3793,
      "Ġcomprome": 3794,
      "Ġtecnicos": 3795,
      "Ġapoia": 3796,
      "Ġcana": 3797,
      "Ġendere": 3798,
      "Ġconfe": 3799,
      "33": 3800,
      "Ġsalva": 3801,
      "Ġclientes": 3802,
      "alo": 3803,
      "jas": 3804,
      "Ġindicados": 3805,
      "Ġdesco": 3806,
      "Ġutilizada": 3807,
      "Ġber": 3808,
      "Ġfinalidade": 3809,
      "Ġdesa": 3810,
      "Ġultrapas": 3811,
      "Ġautomo": 3812,
      "tibilidade": 3813,
      "Ġcontribuicoes": 3814,
      "Ġofer": 3815,
      "Ġarbitra": 3816,
      "Ġpag": 3817,
      "Ġbasta": 3818,
      "Ġine": 3819,
      "Ġ040": 3820,
      "alizacao": 3821,
      "Ġhome": 3822,
      "mir": 3823,
      "Ġdefinido": 3824,
      "Ġhori": 3825,
      "Ġinsu": 3826,
      "Ġbeneficiarios": 3827,
      "Ġpou": 3828,
      "Ġdeduz": 3829,
      "Ġmaioria": 3830,
      "Ġcomponentes": 3831,
      "Ġalimenti": 3832,
      "Ġsimultanea": 3833,
      "Ġobservar": 3834,
      "Ġincidencia": 3835,
      "raveis": 3836,
      "Ġmutua": 3837,
      "Ġexportadores": 3838,
      "ring": 3839,
      "Ġviola": 3840,
      "Ġpreparacoes": 3841,
      "Ġam": 3842,
      "Ġreforcar": 3843,
      "Ġalcance": 3844,
      "Ġoleos": 3845,
      "gais": 3846,
      "rs": 3847,
      "Ġchi": 3848,
      "Ġsuperficie": 3849,
      "Ġprevencao": 3850,
      "Ġnatural": 3851,
      "Ġsinal": 3852,
      "Ġexportacoes": 3853,
      "Ġby": 3854,
      "quem": 3855,
      "ren": 3856,
      "Ġcompromisso": 3857,
      "Ġcontingente": 3858,
      "ther": 3859,
      "Ġimpres": 3860,
      "ferencias": 3861,
      "Ġpresenca": 3862,
      "sou": 3863,
      "Ġvege": 3864,
      "Ġpopula": 3865,
      "Ġrodo": 3866,
      "Ġeventualmente": 3867,
      "Ġproprie": 3868,
      "ticolas": 3869,
      "Ġpreparacao": 3870,
      "cidades": 3871,
      "gericht": 3872,
      "Ġbrasi": 3873,
      "Ġobtidos": 3874,
      "Ġvaria": 3875,
      "adas": 3876,
      "Ġavi": 3877,
      "Ġcircunstancia": 3878,
      "Ġhorizo": 3879,
      "Ġabertura": 3880,
      "Ġclasse": 3881,
      "Ġhele": 3882,
      "Ġune": 3883,
      "Ġdeixa": 3884,
      "Ġelaboracao": 3885,
      "Ġinflu": 3886,
      "Ġobrigatorio": 3887,
      "Ġcumprir": 3888,
      "Ġescala": 3889,
      "Ġcoimas": 3890,
      "Ġcondenada": 3891,
      "Ġtransportado": 3892,
      "Ġtransa": 3893,
      "Ġexpressamente": 3894,
      "Ġatendendo": 3895,
      "ks": 3896,
      "Ġrotu": 3897,
      "Ġincompa": 3898,
      "guesa": 3899,
      "Ġautor": 3900,
      "Ġestudos": 3901,
      "Ġsensi": 3902,
      "Ġcampanha": 3903,
      "Ġconstituir": 3904,
      "Ġrelevante": 3905,
      "Ġsubsta": 3906,
      "Ġjusti": 3907,
      "Ġpolu": 3908,
      "Ġ108": 3909,
      "Ġdestino": 3910,
      "Ġnaturais": 3911,
      "Ġorigin": 3912,
      "Ġresultante": 3913,
      "Ġ620": 3914,
      "0000": 3915,
      "damente": 3916,
      "Ġfarma": 3917,
      "Ġtives": 3918,
      "Ġpassivo": 3919,
      "ĠÃ°": 3920,
      "Ġindustrial": 3921,
      "Ġpretende": 3922,
      "vidade": 3923,
      "Ġapoi": 3924,
      "Ġpertinente": 3925,
      "Ġcumpriu": 3926,
      "Ġdevidamente": 3927,
      "Ġinex": 3928,
      "tarias": 3929,
      "ĠÂ·": 3930,
      "mica": 3931,
      "Ġcapitais": 3932,
      "lis": 3933,
      "Ġverdade": 3934,
      "nou": 3935,
      "Ġpublicado": 3936,
      "ding": 3937,
      "Ġ101": 3938,
      "Ġrespeitante": 3939,
      "Ġsupri": 3940,
      "Ġcriar": 3941,
      "Ġvete": 3942,
      "ares": 3943,
      "Ġcomplementar": 3944,
      "Ġfuncionario": 3945,
      "Ġfle": 3946,
      "oso": 3947,
      "Ġcarb": 3948,
      "Ġlegalidade": 3949,
      "Ġom": 3950,
      "Ġeducacao": 3951,
      "Ġcru": 3952,
      "Ġeslova": 3953,
      "Ġbordo": 3954,
      "Ġquota": 3955,
      "Î¿Ï": 3956,
      "Ġtelecomunica": 3957,
      "Ġapendice": 3958,
      "Ġman": 3959,
      "Ġquinta": 3960,
      "Ġdeveria": 3961,
      "Ġdanos": 3962,
      "con": 3963,
      "ĠÕ": 3964,
      "dencial": 3965,
      "Ġsingulares": 3966,
      "Ġoficiais": 3967,
      "Ġdivisao": 3968,
      "Ġcargo": 3969,
      "Ġexigir": 3970,
      "Ġsustentavel": 3971,
      "Ġprivado": 3972,
      "Ġpoderao": 3973,
      "Ġtr": 3974,
      "Ġsuecia": 3975,
      "Ġhorticolas": 3976,
      "Ġencer": 3977,
      "Ġinstalacao": 3978,
      "Ġpl": 3979,
      "Ġefectuar": 3980,
      "Ġconfianca": 3981,
      "Ġelectroni": 3982,
      "ccoes": 3983,
      "mulacao": 3984,
      "Ġescolha": 3985,
      "Ġrodovia": 3986,
      "Ġproposito": 3987,
      "Ġfutu": 3988,
      "Ġligacao": 3989,
      "Ġgrave": 3990,
      "Ġtabe": 3991,
      "Ġimprocedente": 3992,
      "Ġdefinidas": 3993,
      "cau": 3994,
      "tando": 3995,
      "Ġinstituido": 3996,
      "Ġcasa": 3997,
      "Ġcerto": 3998,
      "int": 3999,
      "iri": 4000,
      "mentes": 4001,
      "Ġincluidos": 4002,
      "Ġautorizados": 4003,
      "Ġaspectos": 4004,
      "rd": 4005,
      "Ġtravessao": 4006,
      "Ġnucle": 4007,
      "Ġplurianual": 4008,
      "Ġconveniente": 4009,
      "Ġleva": 4010,
      "Ġcheca": 4011,
      "Ġpescas": 4012,
      "Ġerrada": 4013,
      "Ġaprecia": 4014,
      "Ġvalida": 4015,
      "Ġtabela": 4016,
      "Ġmotivo": 4017,
      "Î·": 4018,
      "Ġcompanh": 4019,
      "Ġtransposicao": 4020,
      "Ġprojetos": 4021,
      "Ġrespectivos": 4022,
      "Ġconcentracao": 4023,
      "gura": 4024,
      "cionada": 4025,
      "Ġparece": 4026,
      "Ġrevoga": 4027,
      "Ġdiscrimina": 4028,
      "Ġpercentagem": 4029,
      "39": 4030,
      "vou": 4031,
      "Ġaprovado": 4032,
      "Ġdefinitiva": 4033,
      "Ġbanca": 4034,
      "Ġindeferi": 4035,
      "ton": 4036,
      "Ġmine": 4037,
      "Ġfixados": 4038,
      "Ġsk": 4039,
      "Ġ721": 4040,
      "Ġintegracao": 4041,
      "Ġalgumas": 4042,
      "Ġemer": 4043,
      "Ġbilate": 4044,
      "Ġpequen": 4045,
      "aste": 4046,
      "Ġaviso": 4047,
      "Ġporque": 4048,
      "Ġmutu": 4049,
      "Ġmundial": 4050,
      "issa": 4051,
      "meno": 4052,
      "Ġestrategia": 4053,
      "mission": 4054,
      "Ġproblemas": 4055,
      "mbo": 4056,
      "Ġdeclarou": 4057,
      "Ġtre": 4058,
      "raccoes": 4059,
      "Ġintelec": 4060,
      "Ġexperiencia": 4061,
      "Ġmono": 4062,
      "Ġtrocas": 4063,
      "Ġabordagem": 4064,
      "Ġsectores": 4065,
      "Ġea": 4066,
      "Ġincumb": 4067,
      "Ġjustificar": 4068,
      "Ġanteriormente": 4069,
      "Ġquantita": 4070,
      "Ġexistente": 4071,
      "Ġcomparacao": 4072,
      "tamentos": 4073,
      "Ġponde": 4074,
      "Ġcereais": 4075,
      "Ġsimultaneamente": 4076,
      "tio": 4077,
      "turacao": 4078,
      "Ġhung": 4079,
      "Ġcorresponde": 4080,
      "Ġmecanismos": 4081,
      "Ġfrutas": 4082,
      "Ġtelecomunicacoes": 4083,
      "guarda": 4084,
      "Ġexcl": 4085,
      "Ġnave": 4086,
      "trimon": 4087,
      "Ġfosse": 4088,
      "ut": 4089,
      "Ġher": 4090,
      "Ġ540": 4091,
      "Ġdemocra": 4092,
      "Ġdeducao": 4093,
      "Ġreexame": 4094,
      "Ġbun": 4095,
      "didos": 4096,
      "Ġhungria": 4097,
      "Ġliquido": 4098,
      "Ġindustriais": 4099,
      "Ġinteressado": 4100,
      "ard": 4101,
      "anas": 4102,
      "Ġsalientar": 4103,
      "Ġintelectual": 4104,
      "Ġbeb": 4105,
      "Ġconsa": 4106,
      "ntar": 4107,
      "nc": 4108,
      "ante": 4109,
      "Ġrapida": 4110,
      "Ġtransformados": 4111,
      "Ġjudicia": 4112,
      "Ġpago": 4113,
      "bil": 4114,
      "Ġ109": 4115,
      "sen": 4116,
      "ites": 4117,
      "Ġalgo": 4118,
      "Ġ102": 4119,
      "Ġinterveniente": 4120,
      "Ġtecnologias": 4121,
      "rtigo": 4122,
      "Ġdesenhos": 4123,
      "Ġmor": 4124,
      "net": 4125,
      "Ġcour": 4126,
      "cionados": 4127,
      "Ġunivers": 4128,
      "Ġsol": 4129,
      "gila": 4130,
      "Ġanuais": 4131,
      "Ġinfluencia": 4132,
      "Ġjulgado": 4133,
      "Ġveterina": 4134,
      "Ġinterme": 4135,
      "Ġsementes": 4136,
      "Ġbulgaria": 4137,
      "Ġchama": 4138,
      "ration": 4139,
      "berg": 4140,
      "Ġcelebracao": 4141,
      "Ġapoiar": 4142,
      "Ġconver": 4143,
      "Ġformal": 4144,
      "Ġ125": 4145,
      "Ġdirecta": 4146,
      "Ġacer": 4147,
      "Ġassa": 4148,
      "Ġrecolha": 4149,
      "usi": 4150,
      "Ġacusacoes": 4151,
      "Ġbeneficiario": 4152,
      "cionar": 4153,
      "Ġ720": 4154,
      "Ġpautal": 4155,
      "Ġalu": 4156,
      "Ġoriginario": 4157,
      "Ġmaxima": 4158,
      "tia": 4159,
      "Ġaereo": 4160,
      "Ġaerona": 4161,
      "Ġcarre": 4162,
      "Ġprima": 4163,
      "Ġagre": 4164,
      "cte": 4165,
      "Ġvistos": 4166,
      "culares": 4167,
      "Ġidade": 4168,
      "inos": 4169,
      "Ġpetro": 4170,
      "Ġnegado": 4171,
      "Ġautorizada": 4172,
      "Ġensaios": 4173,
      "Ġsuficientes": 4174,
      "ticamente": 4175,
      "ham": 4176,
      "ande": 4177,
      "sia": 4178,
      "Ġprestadores": 4179,
      "Ġcancelamento": 4180,
      "Ġlas": 4181,
      "28": 4182,
      "ines": 4183,
      "fia": 4184,
      "Ġalimentacao": 4185,
      "Ġ106": 4186,
      "27": 4187,
      "Ġexceder": 4188,
      "Ð²": 4189,
      "Ġlimitar": 4190,
      "Ġ195": 4191,
      "Ġio": 4192,
      "Ġintegral": 4193,
      "Ġcau": 4194,
      "Ġze": 4195,
      "Ġhipotes": 4196,
      "Ġromenia": 4197,
      "Ġnoutro": 4198,
      "urg": 4199,
      "Ġsala": 4200,
      "Ġapu": 4201,
      "tur": 4202,
      "Ġinscricao": 4203,
      "Ġbal": 4204,
      "Ġconsagra": 4205,
      "ulas": 4206,
      "Ġpertence": 4207,
      "leno": 4208,
      "Ġrespeitar": 4209,
      "Ġdiretamente": 4210,
      "Ġhoras": 4211,
      "ii": 4212,
      "Ġcontribuir": 4213,
      "Ġdoenca": 4214,
      "bilia": 4215,
      "Ġses": 4216,
      "gilancia": 4217,
      "Ġdaqui": 4218,
      "Ġhabili": 4219,
      "Ġexpostos": 4220,
      "Ġambiental": 4221,
      "Ġtransparencia": 4222,
      "minal": 4223,
      "Ġhora": 4224,
      "Ġfro": 4225,
      "Ġcolet": 4226,
      "Ġcientifica": 4227,
      "Ġacolhimento": 4228,
      "Ġferrovia": 4229,
      "Ġpala": 4230,
      "Ġvertente": 4231,
      "Ġpautais": 4232,
      "31": 4233,
      "cente": 4234,
      "Ġinteressados": 4235,
      "Ġabs": 4236,
      "Ġreparacao": 4237,
      "Ġtratados": 4238,
      "Ġadministrativos": 4239,
      "Ġprocessual": 4240,
      "Ġestre": 4241,
      "Ġreforco": 4242,
      "Ġdificuldades": 4243,
      "Ġimportantes": 4244,
      "Ġnomen": 4245,
      "Ġmane": 4246,
      "Ġadaptado": 4247,
      "ction": 4248,
      "Ġdireccao": 4249,
      "Ġadoptada": 4250,
      "Ġ115": 4251,
      "Ġperigos": 4252,
      "Ġ123": 4253,
      "Ġadia": 4254,
      "Ġges": 4255,
      "Ġmigra": 4256,
      "Ġcolabo": 4257,
      "Ġ118": 4258,
      "Ġregionais": 4259,
      "Ġemitido": 4260,
      "Ġresidente": 4261,
      "Ġassalaria": 4262,
      "Ġalegacoes": 4263,
      "Ġtare": 4264,
      "Ġchina": 4265,
      "Ġmer": 4266,
      "eles": 4267,
      "ridades": 4268,
      "Ġfixar": 4269,
      "Ġnoruega": 4270,
      "Ġassinado": 4271,
      "use": 4272,
      "Ġnomencla": 4273,
      "pria": 4274,
      "ungs": 4275,
      "Ġsubvencoes": 4276,
      "Ġprestar": 4277,
      "oa": 4278,
      "Ġavis": 4279,
      "Ġadaptacao": 4280,
      "Ġpropoe": 4281,
      "Ġdg": 4282,
      "Ġtraducao": 4283,
      "cher": 4284,
      "Ġquad": 4285,
      "Ġbundes": 4286,
      "Ġbaseado": 4287,
      "Ġsuplementares": 4288,
      "Ġfontes": 4289,
      "Ġparticipar": 4290,
      "Ġaproximacao": 4291,
      "Ġdop": 4292,
      "Ġoferta": 4293,
      "Ġposteriormente": 4294,
      "Ġeliminacao": 4295,
      "Ġcontesta": 4296,
      "Ġtaba": 4297,
      "im": 4298,
      "Ġdista": 4299,
      "ilib": 4300,
      "Ġdie": 4301,
      "Ġdiversas": 4302,
      "Ġplas": 4303,
      "Ġmae": 4304,
      "Ġdevendo": 4305,
      "Ġ105": 4306,
      "Ġdecide": 4307,
      "Ġendereco": 4308,
      "ctamente": 4309,
      "Ġsuma": 4310,
      "Ġcompeti": 4311,
      "Ġexcecao": 4312,
      "Ġafas": 4313,
      "Ġrealizada": 4314,
      "Ġjuridicas": 4315,
      "ncion": 4316,
      "Ġprotegida": 4317,
      "ridas": 4318,
      "Ġantiga": 4319,
      "Ġmoe": 4320,
      "Ġreg": 4321,
      "Ġlegitima": 4322,
      "Ġconserva": 4323,
      "ilo": 4324,
      "Ġbri": 4325,
      "tras": 4326,
      "Ġinvocados": 4327,
      "st": 4328,
      "Ġves": 4329,
      "Ġfonte": 4330,
      "Ġquem": 4331,
      "Ġluta": 4332,
      "Ġestatisticas": 4333,
      "Ġavaliar": 4334,
      "Ġespecializa": 4335,
      "dicao": 4336,
      "Ġdeslo": 4337,
      "fu": 4338,
      "gy": 4339,
      "Ġdiversos": 4340,
      "Ġproxi": 4341,
      "Ġportuguesa": 4342,
      "gentes": 4343,
      "Ġatingir": 4344,
      "Ġ150": 4345,
      "mido": 4346,
      "Ġdespro": 4347,
      "Ġlitigios": 4348,
      "entacao": 4349,
      "Ġinformar": 4350,
      "Ġindividuais": 4351,
      "Ġcab": 4352,
      "Ġza": 4353,
      "mitacao": 4354,
      "Ġinti": 4355,
      "fun": 4356,
      "Ġopin": 4357,
      "Ġanun": 4358,
      "26": 4359,
      "Ġcartas": 4360,
      "Ġcompensa": 4361,
      "Ġefectiva": 4362,
      "Ġcontendo": 4363,
      "85": 4364,
      "Ġexamina": 4365,
      "Ġrendimentos": 4366,
      "Ġenvia": 4367,
      "Ġrespectivamente": 4368,
      "Ġpublicada": 4369,
      "Ð»": 4370,
      "Ġinfraestru": 4371,
      "Ġacido": 4372,
      "Ġmelhoria": 4373,
      "Ġ600": 4374,
      "Ġtac": 4375,
      "Ġpormeno": 4376,
      "Ġdepar": 4377,
      "Ġmassa": 4378,
      "Ġunidos": 4379,
      "ficou": 4380,
      "Ġapli": 4381,
      "Ġsubstituicao": 4382,
      "Ġcabo": 4383,
      "Ġmonito": 4384,
      "Ġdespe": 4385,
      "Ġhabita": 4386,
      "Ġnational": 4387,
      "Ġsr": 4388,
      "Ġcelebrado": 4389,
      "Ġrus": 4390,
      "Ġinexistencia": 4391,
      "Ġina": 4392,
      "Ġgases": 4393,
      "bu": 4394,
      "Ġtransferi": 4395,
      "Ġtrafe": 4396,
      "Ġobtido": 4397,
      "Ġexerce": 4398,
      "Ġadequados": 4399,
      "Ġenumerados": 4400,
      "Ġvelo": 4401,
      "Ġestabelecimentos": 4402,
      "Ġpende": 4403,
      "Ġsolicitar": 4404,
      "Ġcreditos": 4405,
      "Ġland": 4406,
      "Ġalgodao": 4407,
      "Ġlan": 4408,
      "Ġterritorios": 4409,
      "Ġnomenclatura": 4410,
      "Ġ113": 4411,
      "Ġcommission": 4412,
      "Ġlitua": 4413,
      "Ġqualificacao": 4414,
      "Ġsuperiores": 4415,
      "Ġexterior": 4416,
      "Ġlimitada": 4417,
      "Ġpormenoriza": 4418,
      "Ġinternational": 4419,
      "Ġtransicao": 4420,
      "Ġschen": 4421,
      "Ġdeix": 4422,
      "Ġten": 4423,
      "Ġacp": 4424,
      "Ġcoordena": 4425,
      "Ġconcedidos": 4426,
      "clare": 4427,
      "Ġrestricao": 4428,
      "Ġabaste": 4429,
      "Ġestrangeiros": 4430,
      "Ġ120": 4431,
      "Ġfinais": 4432,
      "Ġmanifesto": 4433,
      "Ġtrafego": 4434,
      "Ġvigilancia": 4435,
      "Ġconfidencial": 4436,
      "Ġporto": 4437,
      "Ġenvi": 4438,
      "Ġtitulos": 4439,
      "Ġinvocar": 4440,
      "metros": 4441,
      "Ġspa": 4442,
      "iramente": 4443,
      "Ġnegociacao": 4444,
      "uncao": 4445,
      "pt": 4446,
      "Ġlimitado": 4447,
      "leo": 4448,
      "Ġ119": 4449,
      "Ġperspe": 4450,
      "Ġlituania": 4451,
      "nts": 4452,
      "Ġesclare": 4453,
      "Ġimpugnado": 4454,
      "Ġoperacional": 4455,
      "mann": 4456,
      "Ġ110": 4457,
      "lucoes": 4458,
      "Ġoperacionais": 4459,
      "Ġpublicidade": 4460,
      "Ġmerito": 4461,
      "Ġderivados": 4462,
      "Ġparcialmente": 4463,
      "Ġpensoes": 4464,
      "Ġdivida": 4465,
      "ntada": 4466,
      "Ġestonia": 4467,
      "Ġdirector": 4468,
      "Ġarre": 4469,
      "Ġsani": 4470,
      "Ġconsoante": 4471,
      "Ġpartilha": 4472,
      "Ġrecomendacoes": 4473,
      "Ġpermitem": 4474,
      "Ġhumana": 4475,
      "Ġnotas": 4476,
      "Ġconhecimentos": 4477,
      "cros": 4478,
      "Ġcc": 4479,
      "Ġamea": 4480,
      "Ġtornar": 4481,
      "Ġcartel": 4482,
      "Ĥ¬": 4483,
      "Ġuniforme": 4484,
      "ons": 4485,
      "Ġros": 4486,
      "Ġeslove": 4487,
      "Ġtido": 4488,
      "Ġjurisdicao": 4489,
      "wal": 4490,
      "Ġpatrimon": 4491,
      "Ġlogo": 4492,
      "Ġcertificacao": 4493,
      "Ġnomina": 4494,
      "rismo": 4495,
      "Ġlegislativo": 4496,
      "Ġativos": 4497,
      "Ïĥ": 4498,
      "Ġpreli": 4499,
      "Ġlibe": 4500,
      "Ġdivi": 4501,
      "Ġguar": 4502,
      "cias": 4503,
      "Ġcomunicar": 4504,
      "Ġdefinitivo": 4505,
      "Ġexigencia": 4506,
      "Ġdai": 4507,
      "zas": 4508,
      "Ġgrecia": 4509,
      "Ġpeixes": 4510,
      "Ġauditoria": 4511,
      "Ġargumentacao": 4512,
      "Ġestudo": 4513,
      "Ġsinais": 4514,
      "osa": 4515,
      "Ġcomplemento": 4516,
      "rer": 4517,
      "Ġacus": 4518,
      "terra": 4519,
      "Ġelegiveis": 4520,
      "Ġliquidacao": 4521,
      "Ġemprega": 4522,
      "Ġorcamentais": 4523,
      "Ġalegacao": 4524,
      "Ġhtt": 4525,
      "deu": 4526,
      "Ġsuplementar": 4527,
      "Ġeuropeus": 4528,
      "tanea": 4529,
      "fin": 4530,
      "Ġdestinada": 4531,
      "Ġcursos": 4532,
      "Ġesforcos": 4533,
      "Ġclassificadas": 4534,
      "Ġgener": 4535,
      "Ġschengen": 4536,
      "Ġrecebe": 4537,
      "vencia": 4538,
      "Ġassociados": 4539,
      "Ġimpossi": 4540,
      "Ġcompatibilidade": 4541,
      "Ġtradi": 4542,
      "Ġprestador": 4543,
      "Ġobtencao": 4544,
      "Ġpavi": 4545,
      "Ġconceb": 4546,
      "Ġpermita": 4547,
      "Ġespecificacoes": 4548,
      "lagens": 4549,
      "Ġmicro": 4550,
      "ph": 4551,
      "Ġproteger": 4552,
      "Ġindis": 4553,
      "Ġinvocado": 4554,
      "Ġprocessuais": 4555,
      "Ġconfli": 4556,
      "Ġ1984": 4557,
      "Ġvezes": 4558,
      "Ġflor": 4559,
      "Ġbg": 4560,
      "Ġinclusao": 4561,
      "Ġident": 4562,
      "Ġcombustivel": 4563,
      "Ġaeropor": 4564,
      "Ġultimos": 4565,
      "Ġconcluiu": 4566,
      "its": 4567,
      "Ġsolida": 4568,
      "Ġquinto": 4569,
      "Ġpresentes": 4570,
      "Ġ388": 4571,
      "Ġrequerido": 4572,
      "lla": 4573,
      "ÏĢ": 4574,
      "Ġdefinir": 4575,
      "Ġcontingentes": 4576,
      "Ġamerica": 4577,
      "Ġletonia": 4578,
      "Ġrecepcao": 4579,
      "Ġceca": 4580,
      "Ġorde": 4581,
      "pressao": 4582,
      "Ġregistada": 4583,
      "Ġarticle": 4584,
      "Ġfamili": 4585,
      "Ġcale": 4586,
      "Ġcoerencia": 4587,
      "Ġenquad": 4588,
      "Ġenco": 4589,
      "Ġexecutivo": 4590,
      "Ġgeneros": 4591,
      "Ġgab": 4592,
      "fre": 4593,
      "Ġpagina": 4594,
      "Ġsubor": 4595,
      "Ġfia": 4596,
      "nico": 4597,
      "Ġdireta": 4598,
      "Ġsubmetido": 4599,
      "Ġsinteticas": 4600,
      "Ġfornecedor": 4601,
      "Ġartificiais": 4602,
      "Ġlinguas": 4603,
      "Ġ136": 4604,
      "Ġvirtude": 4605,
      "Ġdiscip": 4606,
      "Ġadmissibilidade": 4607,
      "Ġimposicao": 4608,
      "Ġima": 4609,
      "Ġinstau": 4610,
      "Ġdiploma": 4611,
      "Ġcopia": 4612,
      "Ġincluidas": 4613,
      "urs": 4614,
      "Ġ400": 4615,
      "Ġestrategi": 4616,
      "ll": 4617,
      "Ġrespectiva": 4618,
      "Ġunidas": 4619,
      "Ġparticulares": 4620,
      "Ġmaneira": 4621,
      "Ġmili": 4622,
      "Ġaves": 4623,
      "vens": 4624,
      "Ġresidentes": 4625,
      "Ġcomplementares": 4626,
      "Ġdesenvolver": 4627,
      "Ġimpedir": 4628,
      "tiu": 4629,
      "Ġmistura": 4630,
      "Ġsubvencao": 4631,
      "ng": 4632,
      "lhao": 4633,
      "Ġrecus": 4634,
      "Ġlimita": 4635,
      "bra": 4636,
      "Ġnacoes": 4637,
      "Ġbruto": 4638,
      "sol": 4639,
      "Ġbebidas": 4640,
      "Ġdisponivel": 4641,
      "Ġembalagens": 4642,
      "Ġordena": 4643,
      "isa": 4644,
      "Ġcontraria": 4645,
      "Ġdistinti": 4646,
      "Ġ177": 4647,
      "Ġsolicita": 4648,
      "Ġcompreendido": 4649,
      "Ġec": 4650,
      "Ġelas": 4651,
      "Ġoca": 4652,
      "logica": 4653,
      "Ġareas": 4654,
      "Ġcartao": 4655,
      "Ġrepresentado": 4656,
      "Ġdiferencas": 4657,
      "tural": 4658,
      "Ġperda": 4659,
      "Ġlimitacao": 4660,
      "Ġcodigos": 4661,
      "Ġcometeu": 4662,
      "ixas": 4663,
      "Ġcalculado": 4664,
      "Ġlos": 4665,
      "Ġadoptado": 4666,
      "Ġpermitam": 4667,
      "Ġcapacidades": 4668,
      "Ġarte": 4669,
      "uro": 4670,
      "rige": 4671,
      "chi": 4672,
      "sal": 4673,
      "Ġpergu": 4674,
      "Ġrestritivas": 4675,
      "Ġeficiencia": 4676,
      "Ġ117": 4677,
      "rantes": 4678,
      "Ġcrescimento": 4679,
      "din": 4680,
      "Ġconcedidas": 4681,
      "Ġ}": 4682,
      "Ġpreten": 4683,
      "Ġparceiros": 4684,
      "Ġmensa": 4685,
      "lle": 4686,
      "Ġvali": 4687,
      "Ġvinho": 4688,
      "Ġagra": 4689,
      "eil": 4690,
      "Ġcoma": 4691,
      "Ġsubseque": 4692,
      "Ġorientacao": 4693,
      "Ġ1977": 4694,
      "Ġregulamentar": 4695,
      "Ġactualmente": 4696,
      "Ġhis": 4697,
      "Ġinovacao": 4698,
      "Ġjustificacao": 4699,
      "iram": 4700,
      "Ġentender": 4701,
      "Ġdez": 4702,
      "Ġdistancia": 4703,
      "Ġhelenica": 4704,
      "Ġ1408": 4705,
      "Ġmuda": 4706,
      "Ġidentificar": 4707,
      "Ġrecolh": 4708,
      "chts": 4709,
      "Ġespecificamente": 4710,
      "Ġindependentes": 4711,
      "Ġtivesse": 4712,
      "Ġreestru": 4713,
      "Ġobrigatoria": 4714,
      "Ġgrandes": 4715,
      "Ġdisp": 4716,
      "Ġconjugacao": 4717,
      "Ġfundamental": 4718,
      "Ġidentidade": 4719,
      "oo": 4720,
      "Ġalcan": 4721,
      "artigo": 4722,
      "ture": 4723,
      "Ġtiverem": 4724,
      "Ġlabora": 4725,
      "Ġperdas": 4726,
      "Ġrealizado": 4727,
      "Ġfazem": 4728,
      "Ġpena": 4729,
      "Ġcuida": 4730,
      "Ġfinlandia": 4731,
      "Ġpodendo": 4732,
      "Ġinspeccao": 4733,
      "Ġassegura": 4734,
      "Ġconcreto": 4735,
      "dt": 4736,
      "ff": 4737,
      "fusao": 4738,
      "Ġclima": 4739,
      "tuais": 4740,
      "Ġgraves": 4741,
      "Ġindicadores": 4742,
      "Ġatual": 4743,
      "Ġemergencia": 4744,
      "Ġvantagem": 4745,
      "Ġtecnologia": 4746,
      "visi": 4747,
      "Ġfloresta": 4748,
      "Ġrealizados": 4749,
      "Ġmutuo": 4750,
      "ĠâĤ¬": 4751,
      "91": 4752,
      "Ġminima": 4753,
      "Ġlie": 4754,
      "Ġlegislador": 4755,
      "Ġdocumentacao": 4756,
      "cisao": 4757,
      "ac": 4758,
      "Ġnotificado": 4759,
      "Ġtabaco": 4760,
      "Ġhabitu": 4761,
      "entais": 4762,
      "Ġtribunais": 4763,
      "mentada": 4764,
      "cada": 4765,
      "Ġentendi": 4766,
      "Ġ610": 4767,
      "Ġefetuada": 4768,
      "Ġalcoo": 4769,
      "Ġintencao": 4770,
      "Ġsuspender": 4771,
      "Ġefectuados": 4772,
      "Ġaerea": 4773,
      "Ġocasi": 4774,
      "Ġpal": 4775,
      "Ġretro": 4776,
      "Ġtelef": 4777,
      "Ġreferir": 4778,
      "ua": 4779,
      "Ġfur": 4780,
      "Ġaqui": 4781,
      "Ġpotencial": 4782,
      "Ġpressu": 4783,
      "Ġdestinatario": 4784,
      "Ġnormalmente": 4785,
      "41": 4786,
      "Ġrecorrer": 4787,
      "Ġdepende": 4788,
      "Ġrecueil": 4789,
      "Ġcomissa": 4790,
      "Ġbancos": 4791,
      "Ġtitulares": 4792,
      "Ġpalav": 4793,
      "Ġecu": 4794,
      "Ġdomina": 4795,
      "ligencia": 4796,
      "Ġinicialmente": 4797,
      "Ġassente": 4798,
      "tein": 4799,
      "Ġcelebrados": 4800,
      "Ġouvidas": 4801,
      "35": 4802,
      "zou": 4803,
      "Ġmemo": 4804,
      "Ġrecomendacao": 4805,
      "Ġaceitacao": 4806,
      "dumping": 4807,
      "Ġadopta": 4808,
      "Ġcontrariamente": 4809,
      "Ġusa": 4810,
      "Õ¡": 4811,
      "lva": 4812,
      "Ġclo": 4813,
      "Ġsema": 4814,
      "Ġvias": 4815,
      "didas": 4816,
      "cionado": 4817,
      "Ġfilial": 4818,
      "Ġcomposicao": 4819,
      "Ġinadmissivel": 4820,
      "Ġfixadas": 4821,
      "Ġnada": 4822,
      "Ġregulamenta": 4823,
      "Ġ145": 4824,
      "Ġcroa": 4825,
      "Ġmetais": 4826,
      "Ġalcancar": 4827,
      "Ġcorpo": 4828,
      "Ġinternet": 4829,
      "Ġrespectivo": 4830,
      "Ġmalha": 4831,
      "Ġentao": 4832,
      "Ġambientais": 4833,
      "Ġantidumping": 4834,
      "Ġcolectanea": 4835,
      "Ġ130": 4836,
      "Ġincorre": 4837,
      "Ġpreside": 4838,
      "Ġ126": 4839,
      "Ġdescar": 4840,
      "Ġvelocidade": 4841,
      "Ġflo": 4842,
      "wer": 4843,
      "Ġise": 4844,
      "Ġ138": 4845,
      "Ġtarefas": 4846,
      "Ġvegetais": 4847,
      "Ġilici": 4848,
      "Ġreceber": 4849,
      "gente": 4850,
      "Ġbr": 4851,
      "Ġ234": 4852,
      "Îº": 4853,
      "Ġflexi": 4854,
      "yn": 4855,
      "Ġconcorrentes": 4856,
      "Ġavaliacoes": 4857,
      "Ġconvida": 4858,
      "Ġconhecer": 4859,
      "Ġmandato": 4860,
      "cupa": 4861,
      "Ġprovisorias": 4862,
      "Ġfavoravel": 4863,
      "bs": 4864,
      "Ġequilib": 4865,
      "lina": 4866,
      "Ġcontinuar": 4867,
      "Ġanalisar": 4868,
      "ficar": 4869,
      "Ġfiguram": 4870,
      "tie": 4871,
      "Ġespanhol": 4872,
      "Ġreembolsa": 4873,
      "Ġautorizar": 4874,
      "Ġproferido": 4875,
      "com": 4876,
      "siva": 4877,
      "niza": 4878,
      "Ġextensao": 4879,
      "bor": 4880,
      "Ġcn": 4881,
      "Ġestiver": 4882,
      "Ġresol": 4883,
      "Ġques": 4884,
      "Ġobstante": 4885,
      "Ġ114": 4886,
      "Ġviii": 4887,
      "Ġhipotese": 4888,
      "tizacao": 4889,
      "Ġexcluir": 4890,
      "Ġia": 4891,
      "Ġrequerida": 4892,
      "Ġefectuado": 4893,
      "Ġpressao": 4894,
      "Ġbasear": 4895,
      "Ġsuscetivel": 4896,
      "Ġape": 4897,
      "Ġ630": 4898,
      "ity": 4899,
      "Ġpagos": 4900,
      "Ġquanti": 4901,
      "Ġtech": 4902,
      "ritos": 4903,
      "Ġlimitacoes": 4904,
      "dios": 4905,
      "Ġdirecto": 4906,
      "Ġlegais": 4907,
      "Ġinfraccoes": 4908,
      "Ġprefere": 4909,
      "Ġapropria": 4910,
      "Ġthis": 4911,
      "togra": 4912,
      "pla": 4913,
      "Ġgravidade": 4914,
      "Ġfixada": 4915,
      "Ġobrigada": 4916,
      "Ġmencionados": 4917,
      "Ġalta": 4918,
      "Ð´": 4919,
      "Ġbeneficios": 4920,
      "Ġrecorda": 4921,
      "Ġviagem": 4922,
      "Ġconve": 4923,
      "Ġinclusi": 4924,
      "Ġemprestimos": 4925,
      "Ġnecessariamente": 4926,
      "Ġeslovaca": 4927,
      "Ġ134": 4928,
      "Ġalimenticios": 4929,
      "Ġeletronico": 4930,
      "Ġautomoveis": 4931,
      "Ġviolou": 4932,
      "Ġ250": 4933,
      "Ġprorrogacao": 4934,
      "Ġsatisfazer": 4935,
      "Ġ320": 4936,
      "Ġprestados": 4937,
      "Ġdeposita": 4938,
      "gs": 4939,
      "Ġparale": 4940,
      "Ġencarre": 4941,
      "Ġconvi": 4942,
      "Ġ847": 4943,
      "posicoes": 4944,
      "cts": 4945,
      "Ġcientificos": 4946,
      "ux": 4947,
      "Ġpecas": 4948,
      "Ġfraude": 4949,
      "Ġgal": 4950,
      "Ġcomba": 4951,
      "Ġcliente": 4952,
      "Ġrespostas": 4953,
      "Ġ1982": 4954,
      "Ġencontram": 4955,
      "Ġtramitacao": 4956,
      "zem": 4957,
      "ervas": 4958,
      "Ġacervo": 4959,
      "50": 4960,
      "velmente": 4961,
      "Ġdefine": 4962,
      "Ġcan": 4963,
      "solu": 4964,
      "Ġpassivos": 4965,
      "Ġintra": 4966,
      "Ġcalenda": 4967,
      "mble": 4968,
      "Ġcombina": 4969,
      "Ġabrangido": 4970,
      "galmente": 4971,
      "istao": 4972,
      "ancas": 4973,
      "Ġsente": 4974,
      "Ġretirada": 4975,
      "Ġforo": 4976,
      "Ġagencias": 4977,
      "Ġspe": 4978,
      "Ġ169": 4979,
      "Ġobtidas": 4980,
      "ken": 4981,
      "Ġeles": 4982,
      "Ġomc": 4983,
      "Ġmunicipal": 4984,
      "Ġeslovenia": 4985,
      "este": 4986,
      "Ġopiniao": 4987,
      "iam": 4988,
      "Ġdefinida": 4989,
      "tens": 4990,
      "Ġcompativel": 4991,
      "Ġbol": 4992,
      "Ġaereas": 4993,
      "dida": 4994,
      "Ġbelga": 4995,
      "ic": 4996,
      "Ġje": 4997,
      "Ġregistos": 4998,
      "Ðº": 4999,
      "Ġapa": 5000,
      "Ġconstam": 5001,
      "osas": 5002,
      "Ġrefle": 5003,
      "Ġmissao": 5004,
      "hof": 5005,
      "metro": 5006,
      "Ġcontacto": 5007,
      "Ġlinhas": 5008,
      "ess": 5009,
      "fique": 5010,
      "Ġabastecimento": 5011,
      "Ġpequenas": 5012,
      "Ġproferiu": 5013,
      "Ġexistem": 5014,
      "tidao": 5015,
      "Ġed": 5016,
      "Ġessencialmente": 5017,
      "inel": 5018,
      "Ġopcao": 5019,
      "Ġtende": 5020,
      "Ġacessorios": 5021,
      "Ġeuropean": 5022,
      "Ġuteis": 5023,
      "heres": 5024,
      "Ġmt": 5025,
      "Ġepi": 5026,
      "Ġcujos": 5027,
      "Â¬": 5028,
      "inacao": 5029,
      "Ġvolunta": 5030,
      "Ġprofere": 5031,
      "Ġrecipro": 5032,
      "Ġespecificar": 5033,
      "Ġredu": 5034,
      "Ġfas": 5035,
      "Ġreconhece": 5036,
      "Ġportugues": 5037,
      "cina": 5038,
      "Ġimportadores": 5039,
      "Ġbov": 5040,
      "Ġincluem": 5041,
      "Ġreclamacao": 5042,
      "Ġfrance": 5043,
      "Ġcoluna": 5044,
      "32": 5045,
      "Ġequita": 5046,
      "Ġprincipalmente": 5047,
      "Ġatribuidas": 5048,
      "Ġhumano": 5049,
      "Ġsancao": 5050,
      "Ġdistintivo": 5051,
      "Ġcompleta": 5052,
      "Ġeletricidade": 5053,
      "gie": 5054,
      "Ġestrangeiro": 5055,
      "Ġcombinada": 5056,
      "uri": 5057,
      "Ġtermin": 5058,
      "Ġoriginal": 5059,
      "Ġsubmeter": 5060,
      "Ġperspec": 5061,
      "Ġefta": 5062,
      "Ġredi": 5063,
      "Ġfarmaceu": 5064,
      "Ġblo": 5065,
      "Ġdefinicoes": 5066,
      "Ġsemi": 5067,
      "Ġdesignados": 5068,
      "Ġjurisdicionais": 5069,
      "Ġfuturo": 5070,
      "redi": 5071,
      "Ġfactores": 5072,
      "unha": 5073,
      "Ġregres": 5074,
      "dra": 5075,
      "Ġjulgar": 5076,
      "Ġaereos": 5077,
      "Ġajudas": 5078,
      "Ġplenamente": 5079,
      "Ġrotulagem": 5080,
      "Ġnavegacao": 5081,
      "lement": 5082,
      "Ġgros": 5083,
      "Ġreestruturacao": 5084,
      "Ġoa": 5085,
      "Ġproposto": 5086,
      "Ġaltura": 5087,
      "Ġ1980": 5088,
      "zando": 5089,
      "Ġestri": 5090,
      "culas": 5091,
      "ich": 5092,
      "Ġreta": 5093,
      "Ġmotores": 5094,
      "Ġfornecedores": 5095,
      "Ġhos": 5096,
      "Ġadotadas": 5097,
      "Ġpreparados": 5098,
      "Ġ218": 5099,
      "Ġgabine": 5100,
      "Ġambas": 5101,
      "Ġabusi": 5102,
      "Ġpauta": 5103,
      "Ġcomercializa": 5104,
      "ÏĤ": 5105,
      "Ġdesemb": 5106,
      "Ġasilo": 5107,
      "Ġdispor": 5108,
      "Ġincumbe": 5109,
      "Ġterre": 5110,
      "Ġexigida": 5111,
      "Ġautorizadas": 5112,
      "pp": 5113,
      "mber": 5114,
      "Ġmonte": 5115,
      "Ġdiretor": 5116,
      "Ġenvio": 5117,
      "Ġestreita": 5118,
      "Ġgar": 5119,
      "cionamento": 5120,
      "Ġdigital": 5121,
      "Ġajustamento": 5122,
      "Ġefetiva": 5123,
      "Ġconstituido": 5124,
      "Ġaut": 5125,
      "nstitu": 5126,
      "vao": 5127,
      "dam": 5128,
      "Ġsuportara": 5129,
      "centes": 5130,
      "Ġconstituida": 5131,
      "Ġfornecidos": 5132,
      "ss": 5133,
      "Ġ116": 5134,
      "Ġpartida": 5135,
      "Ġconjunta": 5136,
      "und": 5137,
      "ties": 5138,
      "Ġadjudicante": 5139,
      "Ġestavam": 5140,
      "Ġaviacao": 5141,
      "Ġpainel": 5142,
      "Ġministro": 5143,
      "inha": 5144,
      "Ġsublinha": 5145,
      "duras": 5146,
      "36": 5147,
      "tenti": 5148,
      "Ġmanifestamente": 5149,
      "Ġabsolu": 5150,
      "Ġadicao": 5151,
      "all": 5152,
      "ries": 5153,
      "Ġformalidades": 5154,
      "icos": 5155,
      "Ġestatais": 5156,
      "Î»": 5157,
      "Ġconfere": 5158,
      "Ġsemelh": 5159,
      "Ġrevogacao": 5160,
      "timas": 5161,
      "Ġdominante": 5162,
      "Ġcamp": 5163,
      "Ġprioridades": 5164,
      "Ġhou": 5165,
      "Ġefetivamente": 5166,
      "Ġacessi": 5167,
      "Ġcade": 5168,
      "Ġrubricas": 5169,
      "Ġconter": 5170,
      "Õ¸": 5171,
      "Ġrestrin": 5172,
      "Ġpavilhao": 5173,
      "Ġucra": 5174,
      "Ġvantagens": 5175,
      "ise": 5176,
      "fos": 5177,
      "Ġjudiciais": 5178,
      "doras": 5179,
      "Ġdestinatarios": 5180,
      "Ġintroduzidas": 5181,
      "Ġmulheres": 5182,
      "Ġcobertura": 5183,
      "Ïī": 5184,
      "Ġimplementacao": 5185,
      "Ġmedicos": 5186,
      "Ġerros": 5187,
      "ling": 5188,
      "Ġexterna": 5189,
      "Ġsubsidiario": 5190,
      "Ġactivos": 5191,
      "Ġmedico": 5192,
      "Ġocor": 5193,
      "Ġarbitragem": 5194,
      "Ġbro": 5195,
      "Ġalcool": 5196,
      "Ġfrase": 5197,
      "versi": 5198,
      "Ġcomprimento": 5199,
      "zione": 5200,
      "Ġspp": 5201,
      "Ġtempera": 5202,
      "Ġturquia": 5203,
      "midos": 5204,
      "Ġtransferencias": 5205,
      "Ġbilaterais": 5206,
      "Ġ267": 5207,
      "idez": 5208,
      "Ġrespetivas": 5209,
      "Ġintroduzir": 5210,
      "biliarios": 5211,
      "Ġsumario": 5212,
      "Ġbaseada": 5213,
      "Ġfornecidas": 5214,
      "Ġmone": 5215,
      "rmou": 5216,
      "Ġatencao": 5217,
      "ny": 5218,
      "Ġembalagem": 5219,
      "vir": 5220,
      "Ġrespetivos": 5221,
      "Ġarqui": 5222,
      "Ġrealidade": 5223,
      "Ġelevada": 5224,
      "Ġ129": 5225,
      "cionadas": 5226,
      "34": 5227,
      "Ġkon": 5228,
      "Ġpopular": 5229,
      "Ġconvem": 5230,
      "Ġsar": 5231,
      "Ġdano": 5232,
      "Ġpreviamente": 5233,
      "Ġobra": 5234,
      "Ġcoes": 5235,
      "Ġvidro": 5236,
      "Ġexcessi": 5237,
      "Ġinteiramente": 5238,
      "aao": 5239,
      "Ġexista": 5240,
      "Ġformulario": 5241,
      "Ġimportados": 5242,
      "Ġmatri": 5243,
      "Ġneu": 5244,
      "Ġaro": 5245,
      "Ġrestituicao": 5246,
      "Ġfavore": 5247,
      "Ġproba": 5248,
      "Ġconfusao": 5249,
      "Ġilhas": 5250,
      "Ġequivalentes": 5251,
      "Ġexternas": 5252,
      "Ġoo": 5253,
      "Ġaconte": 5254,
      "Ġaplicados": 5255,
      "Ġsignificativa": 5256,
      "Ġdesembar": 5257,
      "iga": 5258,
      "Ġintentada": 5259,
      "Ġinternos": 5260,
      "Ġcadu": 5261,
      "Ġhave": 5262,
      "ario": 5263,
      "Ġcientifico": 5264,
      "Ġtransfronteiras": 5265,
      "Ġwil": 5266,
      "Ġdemocratica": 5267,
      "Ġinval": 5268,
      "Ġrenovacao": 5269,
      "Ġnoutros": 5270,
      "Ġ149": 5271,
      "Ġ700": 5272,
      "Ġalimentar": 5273,
      "Ġteste": 5274,
      "Ġpoluicao": 5275,
      "itou": 5276,
      "Ġoc": 5277,
      "talho": 5278,
      "Ġvas": 5279,
      "Ġporem": 5280,
      "Ġintitu": 5281,
      "Ġ189": 5282,
      "Ġconvencoes": 5283,
      "Ġmenor": 5284,
      "Ġ135": 5285,
      "Ġindicadas": 5286,
      "Ġespecificados": 5287,
      "Ġinstrucoes": 5288,
      "Ġbom": 5289,
      "Ġsubsidio": 5290,
      "Ġplantas": 5291,
      "Ġestabilidade": 5292,
      "Ġdespedi": 5293,
      "Ġexistir": 5294,
      "Ġ178": 5295,
      "Ġalegam": 5296,
      "Ġemitidos": 5297,
      "Ġalcanca": 5298,
      "Ġplata": 5299,
      "Ġmisturas": 5300,
      "Ġbrasil": 5301,
      "Ġpreliminar": 5302,
      "Ġmencao": 5303,
      "Ġpopulacao": 5304,
      "Ġpeque": 5305,
      "Ġgro": 5306,
      "Ġcalendario": 5307,
      "Ġmoeda": 5308,
      "Ġpropon": 5309,
      "Ġaceitar": 5310,
      "Ġretalho": 5311,
      "Ġ$": 5312,
      "Ġcanada": 5313,
      "Ġautenti": 5314,
      "Ġdou": 5315,
      "Ġund": 5316,
      "ires": 5317,
      "Ġciclo": 5318,
      "Ġreferencias": 5319,
      "Ġvendi": 5320,
      "Ġdomes": 5321,
      "Ġdetencao": 5322,
      "Ġsingular": 5323,
      "Ġtemporaria": 5324,
      "37": 5325,
      "Ġanuncio": 5326,
      "Ġprivados": 5327,
      "Ġirregularidades": 5328,
      "Ġ148": 5329,
      "Ġ124": 5330,
      "Ġcompleto": 5331,
      "Ġsecretariado": 5332,
      "Ġprecede": 5333,
      "Ġsucur": 5334,
      "rupa": 5335,
      "Ġcaracteriza": 5336,
      "Ġdesper": 5337,
      "Ġcroacia": 5338,
      "ji": 5339,
      "Ġrural": 5340,
      "Ġpede": 5341,
      "Ġindice": 5342,
      "Ġemitida": 5343,
      "Ġdistin": 5344,
      "Ġintrodu": 5345,
      "Ġother": 5346,
      "Ġreto": 5347,
      "Ġcontabil": 5348,
      "Ġic": 5349,
      "Ġfil": 5350,
      "fice": 5351,
      "Ġterro": 5352,
      "Ġhon": 5353,
      "Ġadotou": 5354,
      "Ġmencionadas": 5355,
      "Ġvalo": 5356,
      "Ġcondenacao": 5357,
      "Ġmencion": 5358,
      "Ġligados": 5359,
      "jam": 5360,
      "Ġindust": 5361,
      "Ġdelegacao": 5362,
      "Ġfreque": 5363,
      "Ġlistas": 5364,
      "Ġdispensa": 5365,
      "Ġreferem": 5366,
      "Ġsuporte": 5367,
      "Ġnulidade": 5368,
      "mme": 5369,
      "fs": 5370,
      "Ġaditado": 5371,
      "Ġcriado": 5372,
      "Ġ~": 5373,
      "Ġpotencia": 5374,
      "Ġ\\": 5375,
      "fici": 5376,
      "Ġescritorio": 5377,
      "Ġcy": 5378,
      "Ġclausulas": 5379,
      "Ġproblema": 5380,
      "Ġave": 5381,
      "Ġinadmissibilidade": 5382,
      "Ġimpre": 5383,
      "Ġpertur": 5384,
      "200": 5385,
      "Ġacaba": 5386,
      "tz": 5387,
      "Ġassuntos": 5388,
      "Ġresto": 5389,
      "Ġsignificativo": 5390,
      "Ġ010": 5391,
      "Ġantece": 5392,
      "Ġaquele": 5393,
      "Ġassociacoes": 5394,
      "Ġintermedio": 5395,
      "Ġcomissaao": 5396,
      "Ġpme": 5397,
      "Ġcoopera": 5398,
      "Ġpriva": 5399,
      "Ġtratar": 5400,
      "Ġjan": 5401,
      "chaft": 5402,
      "Ġconducao": 5403,
      "Ġassemble": 5404,
      "Ġabrangida": 5405,
      "Ġpremio": 5406,
      "the": 5407,
      "Ġus": 5408,
      "Ġ176": 5409,
      "Ġcuidados": 5410,
      "Ġcomponente": 5411,
      "Ġsuscetiveis": 5412,
      "Ġquadros": 5413,
      "Ġperce": 5414,
      "Ġstate": 5415,
      "pn": 5416,
      "Ġimportador": 5417,
      "Ġcerta": 5418,
      "Ġinternas": 5419,
      "Ġabaixo": 5420,
      "Ġiniciativas": 5421,
      "tina": 5422,
      "Ġedifi": 5423,
      "Î¼": 5424,
      "Ġdelegados": 5425,
      "Ġsemelhanca": 5426,
      "Ġselec": 5427,
      "Ġconsidere": 5428,
      "Ġchave": 5429,
      "Ġcolaboracao": 5430,
      "Ġreduzida": 5431,
      "Ġilegalidade": 5432,
      "Ġrefrige": 5433,
      "ntando": 5434,
      "Ġtun": 5435,
      "inu": 5436,
      "Ġtoca": 5437,
      "Ġsalvaguarda": 5438,
      "Ġben": 5439,
      "Ġ137": 5440,
      "Ġbalan": 5441,
      "Ġcaptura": 5442,
      "Ġrenova": 5443,
      "Ġsofrido": 5444,
      "Ġuk": 5445,
      "nicos": 5446,
      "Ġste": 5447,
      "Ġmedicamento": 5448,
      "Ġdevedor": 5449,
      "tuario": 5450,
      "Ġcompostos": 5451,
      "Ġcobri": 5452,
      "Ġhorizontal": 5453,
      "Ġgrou": 5454,
      "Ġparticularmente": 5455,
      "ya": 5456,
      "veram": 5457,
      "Ġdecima": 5458,
      "Ġrecusar": 5459,
      "Ġjudiciaria": 5460,
      "Ġexposto": 5461,
      "Ġcorreio": 5462,
      "Ġ127": 5463,
      "Ġcosta": 5464,
      "Ġnew": 5465,
      "Ġsubco": 5466,
      "Ġlanca": 5467,
      "Ġcontribui": 5468,
      "Ġalgum": 5469,
      "Ġexigido": 5470,
      "Ġgabinete": 5471,
      "Ġfeitas": 5472,
      "Ġhol": 5473,
      "Ġvende": 5474,
      "Ġtextos": 5475,
      "rane": 5476,
      "Ġreproducao": 5477,
      "tentes": 5478,
      "Ġant": 5479,
      "Ġcump": 5480,
      "Ġbis": 5481,
      "Ġ111": 5482,
      "45": 5483,
      "Ġemite": 5484,
      "Ġquestion": 5485,
      "Ġtha": 5486,
      "Ġcorte": 5487,
      "Ġferra": 5488,
      "Ġpatro": 5489,
      "Ġfactura": 5490,
      "Ġligadas": 5491,
      "gosla": 5492,
      "ij": 5493,
      "Ġlargura": 5494,
      "Ġcaixa": 5495,
      "Ġfrutos": 5496,
      "Ġprivada": 5497,
      "Ġsoli": 5498,
      "id": 5499,
      "Ġdesperdi": 5500,
      "Ġrapidamente": 5501,
      "Ġcontratual": 5502,
      "Ġlucros": 5503,
      "Ġseguidamente": 5504,
      "Ġrestantes": 5505,
      "Ġcujas": 5506,
      "Ġatenu": 5507,
      "Ġ128": 5508,
      "Ġvolumes": 5509,
      "logicos": 5510,
      "Ġsitio": 5511,
      "Ġexplici": 5512,
      "Ġresu": 5513,
      "Ġtotalmente": 5514,
      "Ġcessacao": 5515,
      "Ġsubsidiariedade": 5516,
      "lhe": 5517,
      "ku": 5518,
      "Ġficha": 5519,
      "pol": 5520,
      "Ġconcede": 5521,
      "Ġhan": 5522,
      "toes": 5523,
      "Ġhistori": 5524,
      "Ġconsultivo": 5525,
      "Ġcolectiva": 5526,
      "Ġnet": 5527,
      "Ġdialo": 5528,
      "endo": 5529,
      "Ġobrigado": 5530,
      "Ġchipre": 5531,
      "vile": 5532,
      "Ġcoerente": 5533,
      "Ġimportant": 5534,
      "Ġreduzido": 5535,
      "Ġdeposito": 5536,
      "Ġpasso": 5537,
      "Ġcombustiveis": 5538,
      "Ġintervenientes": 5539,
      "contra": 5540,
      "Ġgeneral": 5541,
      "Ġak": 5542,
      "Ġfolhas": 5543,
      "Ð¸Ñ": 5544,
      "Ġescrita": 5545,
      "Ġdeuts": 5546,
      "Ġadmissivel": 5547,
      "Ġcriancas": 5548,
      "Ġpresuncao": 5549,
      "Ġefetuar": 5550,
      "Ġcelu": 5551,
      "Ġislandia": 5552,
      "Ġconformes": 5553,
      "Ġposto": 5554,
      "Ġsys": 5555,
      "Ġair": 5556,
      "irao": 5557,
      "Õ¥": 5558,
      "Ġ139": 5559,
      "Ġsemelhante": 5560,
      "Ġposte": 5561,
      "Ġproduzidos": 5562,
      "Ġdivis": 5563,
      "Ġrevela": 5564,
      "continu": 5565,
      "Ġampla": 5566,
      "Ġadotada": 5567,
      "Ġsupre": 5568,
      "Ġfundamentado": 5569,
      "fina": 5570,
      "Ġparis": 5571,
      "Ġww": 5572,
      "42": 5573,
      "Ġ156": 5574,
      "Ġdiminuicao": 5575,
      "Ġinqueritos": 5576,
      "Ġapresente": 5577,
      "53": 5578,
      "Ġ1979": 5579,
      "Ġtao": 5580,
      "Ġtai": 5581,
      "Ġdoencas": 5582,
      "Ġcao": 5583,
      "Ġnun": 5584,
      "Ġestimado": 5585,
      "tora": 5586,
      "xido": 5587,
      "Ġgenera": 5588,
      "Ġadmissao": 5589,
      "Ġinstrucao": 5590,
      "Ġmantem": 5591,
      "Ġsupressao": 5592,
      "Ġassenta": 5593,
      "Ġdesperdicios": 5594,
      "Ã¸": 5595,
      "Ġdro": 5596,
      "Ġprove": 5597,
      "Ġduvidas": 5598,
      "Ġminerais": 5599,
      "est": 5600,
      "Ġbeneficiam": 5601,
      "Ġfaculdade": 5602,
      "Ġconexos": 5603,
      "ose": 5604,
      "Ġconseil": 5605,
      "Ġtubos": 5606,
      "Ġreferentes": 5607,
      "Ġpergunta": 5608,
      "ure": 5609,
      "Ġjuridique": 5610,
      "Ġinterpretados": 5611,
      "Ġsor": 5612,
      "Ġ133": 5613,
      "Ġfio": 5614,
      "Ġnomeacao": 5615,
      "Ġili": 5616,
      "Ġsolucoes": 5617,
      "walt": 5618,
      "pita": 5619,
      "Ġnormais": 5620,
      "Ġprepara": 5621,
      "Ġneg": 5622,
      "Ġdemais": 5623,
      "Ġproduzir": 5624,
      "Ġdizem": 5625,
      "Ġfez": 5626,
      "Ġhavia": 5627,
      "Ġprovar": 5628,
      "Ġquei": 5629,
      "Ġestruturais": 5630,
      "Ġinfor": 5631,
      "Ġcompu": 5632,
      "Ġbaixo": 5633,
      "Ġ730": 5634,
      "tao": 5635,
      "47": 5636,
      "Ġsimplesmente": 5637,
      "Ġucrania": 5638,
      "Ġgratu": 5639,
      "Ġpetroleo": 5640,
      "Ġpatrimonio": 5641,
      "Ġsimilares": 5642,
      "Ġprocessa": 5643,
      "ance": 5644,
      "Ġexigi": 5645,
      "Ġaceite": 5646,
      "Ġderrogacoes": 5647,
      "Ġafectar": 5648,
      "Ġrn": 5649,
      "Ġ121": 5650,
      "Ġnecessi": 5651,
      "at": 5652,
      "Ġmedicao": 5653,
      "cados": 5654,
      "Ġbce": 5655,
      "Ġ1981": 5656,
      "Ġcore": 5657,
      "Ġpreo": 5658,
      "Ġglob": 5659,
      "Ġacusacao": 5660,
      "ramente": 5661,
      "nse": 5662,
      "Ġmoder": 5663,
      "Ġultrapassa": 5664,
      "49": 5665,
      "Ïħ": 5666,
      "Ġefectivo": 5667,
      "Ġexclui": 5668,
      "Ġ2022": 5669,
      "Ġdeclarado": 5670,
      "Ġtransportadoras": 5671,
      "sch": 5672,
      "Ġsubmetidas": 5673,
      "Ġintervencoes": 5674,
      "Ġrefu": 5675,
      "Ġcurto": 5676,
      "Ġautonoma": 5677,
      "Ġespes": 5678,
      "Ġdisponibiliza": 5679,
      "Ġdescontinu": 5680,
      "Ġix": 5681,
      "Ġprescricao": 5682,
      "Ġmobiliarios": 5683,
      "Ġjugosla": 5684,
      "Ġafrica": 5685,
      "Ġdeixar": 5686,
      "minada": 5687,
      "Ġ180": 5688,
      "Ġcorrespondencia": 5689,
      "Ġquimica": 5690,
      "Ġfronteira": 5691,
      "Ġadministrador": 5692,
      "ld": 5693,
      "Ġdelegado": 5694,
      "Ġcompreende": 5695,
      "Ġlis": 5696,
      "Ġadministracoes": 5697,
      "Ġcultura": 5698,
      "Ġtransitorias": 5699,
      "Ġincidente": 5700,
      "roe": 5701,
      "Ġdirecao": 5702,
      "Ġinfracoes": 5703,
      "cessoes": 5704,
      "Ġoportunidade": 5705,
      "Ġcontabilidade": 5706,
      "Ġcobre": 5707,
      "Ġreservas": 5708,
      "Ġvon": 5709,
      "lamentos": 5710,
      "Ġfixo": 5711,
      "Ġimpostas": 5712,
      "Ġprovi": 5713,
      "cucao": 5714,
      "Ġvigencia": 5715,
      "Ġpne": 5716,
      "minados": 5717,
      "Ġindicada": 5718,
      "Ġremes": 5719,
      "Ġact": 5720,
      "59": 5721,
      "Ġcommunau": 5722,
      "corda": 5723,
      "Ġmarro": 5724,
      "ntimento": 5725,
      "Ġarmazenagem": 5726,
      "Ġdesvio": 5727,
      "Ġdistor": 5728,
      "cunda": 5729,
      "Ġrussia": 5730,
      "Ġaroma": 5731,
      "Ġalto": 5732,
      "rico": 5733,
      "Ġnesses": 5734,
      "Ġnuclear": 5735,
      "nciamento": 5736,
      "Ġconduta": 5737,
      "Ġconsideram": 5738,
      "Ġ140": 5739,
      "Ġsetores": 5740,
      "Ġáĥ": 5741,
      "Ġ122": 5742,
      "Ġgarante": 5743,
      "Ġantecipa": 5744,
      "Ġsubposicao": 5745,
      "Ġpassagem": 5746,
      "Ġlegislativa": 5747,
      "Ġinsol": 5748,
      "Ġminimos": 5749,
      "Ġmuta": 5750,
      "Ġimoveis": 5751,
      "Ġalimentares": 5752,
      "mia": 5753,
      "Ġmora": 5754,
      "xx": 5755,
      "Ġvarie": 5756,
      "Ġacele": 5757,
      "icas": 5758,
      "rur": 5759,
      "zam": 5760,
      "Ġinterpretada": 5761,
      "Ġconferencia": 5762,
      "Ġcompanhia": 5763,
      "Ġcentrais": 5764,
      "Ġtemperatura": 5765,
      "Ġtomado": 5766,
      "Ġconfede": 5767,
      "Ġprogramacao": 5768,
      "Ġcontratuais": 5769,
      "Ġminimas": 5770,
      "lop": 5771,
      "Ġadquirido": 5772,
      "Ġincis": 5773,
      "Ġcentros": 5774,
      "Ġcommunity": 5775,
      "tera": 5776,
      "Ġfacil": 5777,
      "Ġpronunciar": 5778,
      "Ġexecutar": 5779,
      "Ġdeba": 5780,
      "Ġroma": 5781,
      "minio": 5782,
      "Ġassembleia": 5783,
      "Ġreconhecido": 5784,
      "Ġindispensa": 5785,
      "Ġinferiores": 5786,
      "Ġcandidatura": 5787,
      "Ġpodiam": 5788,
      "lencia": 5789,
      "Ġgeor": 5790,
      "ws": 5791,
      "Ġrecru": 5792,
      "ere": 5793,
      "58": 5794,
      "Ġinvestidores": 5795,
      "Ġelaborar": 5796,
      "Ġreci": 5797,
      "Ġty": 5798,
      "Ġeng": 5799,
      "Ġpun": 5800,
      "Ġespecificadas": 5801,
      "Ġdespor": 5802,
      "Ġregistados": 5803,
      "Ġoral": 5804,
      "Ġsecunda": 5805,
      "ĠÂ¬": 5806,
      "Ġindividualmente": 5807,
      "cacoes": 5808,
      "Ġnocao": 5809,
      "Ġluga": 5810,
      "Ġpecun": 5811,
      "Ġrequerimento": 5812,
      "Ġclasses": 5813,
      "Ġcompara": 5814,
      "len": 5815,
      "Ġ157": 5816,
      "Ġcl": 5817,
      "creve": 5818,
      "Ġprecedentes": 5819,
      "Ġperiodica": 5820,
      "Ġescritas": 5821,
      "Ġlegalmente": 5822,
      "Ġlimiar": 5823,
      "Ġnotificada": 5824,
      "Ġchefe": 5825,
      "Ġsentenca": 5826,
      "Ġconstituidos": 5827,
      "Ġ208": 5828,
      "Ġintermedia": 5829,
      "Ġdimensoes": 5830,
      "Ġpecunia": 5831,
      "Ġvoto": 5832,
      "Ġpalavras": 5833,
      "Ġsuce": 5834,
      "nacao": 5835,
      "Ġcoletiva": 5836,
      "Ġalf": 5837,
      "Ġdirigido": 5838,
      "Ġmant": 5839,
      "Ġdiscus": 5840,
      "Ġcarvao": 5841,
      "nn": 5842,
      "Ġutilizador": 5843,
      "Ġfrescas": 5844,
      "Ġ230": 5845,
      "Ġanualmente": 5846,
      "Ġprovin": 5847,
      "Ġpopulacionais": 5848,
      "Ġentrar": 5849,
      "gene": 5850,
      "Ġigp": 5851,
      "Ġkm": 5852,
      "Ġbud": 5853,
      "Ġcorrente": 5854,
      "tagem": 5855,
      "Ġatraso": 5856,
      "Ġcritica": 5857,
      "Ġopoem": 5858,
      "aa": 5859,
      "Ġacompanhado": 5860,
      "metri": 5861,
      "Ġsoma": 5862,
      "Ġarro": 5863,
      "Ġambos": 5864,
      "Ġdesenho": 5865,
      "chas": 5866,
      "Ġdinamar": 5867,
      "tta": 5868,
      "taveis": 5869,
      "Ġpatente": 5870,
      "Ġsalie": 5871,
      "Ġresponsabilidades": 5872,
      "Ġexcluindo": 5873,
      "Ġalargada": 5874,
      "Ġprevisi": 5875,
      "Ġdialogo": 5876,
      "cy": 5877,
      "Ġlingu": 5878,
      "Ġlucro": 5879,
      "Ġconcluido": 5880,
      "Ġseriam": 5881,
      "Ġvestuario": 5882,
      "racha": 5883,
      "Ġfrequencia": 5884,
      "Ġnominativa": 5885,
      "ee": 5886,
      "Ġagir": 5887,
      "Ġacresce": 5888,
      "Ġaprovada": 5889,
      "Ġregistado": 5890,
      "siona": 5891,
      "Ġanalogia": 5892,
      "Ġquimicos": 5893,
      "Ġnele": 5894,
      "Ġdesignar": 5895,
      "Ġprofissao": 5896,
      "Ġsuportar": 5897,
      "carb": 5898,
      "Ġincompativel": 5899,
      "Ġaze": 5900,
      "Ġalegada": 5901,
      "logico": 5902,
      "tindo": 5903,
      "Ġrpc": 5904,
      "Ġenunciados": 5905,
      "Ġcomprova": 5906,
      "Ġexigidas": 5907,
      "Ġconsis": 5908,
      "Ġ800": 5909,
      "Ġ226": 5910,
      "tencia": 5911,
      "Ġfinancas": 5912,
      "Ġvoo": 5913,
      "ell": 5914,
      "Ġindeferimento": 5915,
      "Ġ131": 5916,
      "Ġrecebido": 5917,
      "Ġexterno": 5918,
      "Ġborracha": 5919,
      "Ġconflito": 5920,
      "Ġ900": 5921,
      "Ġretencao": 5922,
      "Ġpostos": 5923,
      "Ġ168": 5924,
      "comunita": 5925,
      "Ġpartici": 5926,
      "Ġmodu": 5927,
      "cÄ±": 5928,
      "Ġlocalizacao": 5929,
      "Ġdecorrente": 5930,
      "Ġexpresso": 5931,
      "Ġdigitais": 5932,
      "Ġconsentimento": 5933,
      "Ġdocument": 5934,
      "Ġcolectivas": 5935,
      "Ġbv": 5936,
      "Ġmonitorizacao": 5937,
      "Ġrio": 5938,
      "Ġregularmente": 5939,
      "Ġsubstancial": 5940,
      "Ġreais": 5941,
      "Ġrei": 5942,
      "Ġprogressiva": 5943,
      "Ġposse": 5944,
      "Ġprevi": 5945,
      "44": 5946,
      "Ġadaptacoes": 5947,
      "Ġ{": 5948,
      "mentas": 5949,
      "enne": 5950,
      "Ġdissu": 5951,
      "Ġpedida": 5952,
      "Ġbus": 5953,
      "Ġportos": 5954,
      "Ġfinalmente": 5955,
      "Ġwww": 5956,
      "Ġ141": 5957,
      "Ġgoverna": 5958,
      "Ġterao": 5959,
      "Ġprejuizos": 5960,
      "Ġdescontinuas": 5961,
      "Ġfabricantes": 5962,
      "Ġqualificada": 5963,
      "fis": 5964,
      "Ġmencionado": 5965,
      "Ġ155": 5966,
      "Ġsimilar": 5967,
      "Ġalias": 5968,
      "Ġ173": 5969,
      "Ġpareceres": 5970,
      "Ġnotificar": 5971,
      "Ġcrise": 5972,
      "Ġordenou": 5973,
      "Ġdaque": 5974,
      "Ġenumeradas": 5975,
      "Ġempregador": 5976,
      "1000": 5977,
      "Ġie": 5978,
      "Ġpreferencial": 5979,
      "Ġvie": 5980,
      "Ġpedir": 5981,
      "Ġmanteiga": 5982,
      "Ġnfi": 5983,
      "sura": 5984,
      "Ġhomem": 5985,
      "Ġconjuntamente": 5986,
      "alte": 5987,
      "Ġinterpos": 5988,
      "Ġinformado": 5989,
      "Ġconversao": 5990,
      "Ġaspetos": 5991,
      "80": 5992,
      "ancia": 5993,
      "Ġgovernos": 5994,
      "Ġim": 5995,
      "Ġcobrir": 5996,
      "Ġprescricoes": 5997,
      "Ġconcessoes": 5998,
      "Ġseleccao": 5999,
      "tec": 6000,
      "cultura": 6001,
      "ron": 6002,
      "mite": 6003,
      "Ġpouco": 6004,
      "Ġclin": 6005,
      "Ġmento": 6006,
      "Ġpost": 6007,
      "Ġleis": 6008,
      "ĠÎµ": 6009,
      "55": 6010,
      "Ġinclusive": 6011,
      "Ġnexo": 6012,
      "ben": 6013,
      "hl": 6014,
      "Ġseparada": 6015,
      "Ġpagas": 6016,
      "rador": 6017,
      "Ġreper": 6018,
      "ky": 6019,
      "pao": 6020,
      "Ġindevida": 6021,
      "Ġcomuni": 6022,
      "ĠÂ±": 6023,
      "Ġinspecao": 6024,
      "Ġvencida": 6025,
      "Ġ1049": 6026,
      "Ġrepe": 6027,
      "Ġregresso": 6028,
      "Ġmunicipio": 6029,
      "Ġenergetica": 6030,
      "Ġmaximos": 6031,
      "Ġcompanhias": 6032,
      "Ġtarifas": 6033,
      "Ġprogressos": 6034,
      "sel": 6035,
      "Ġenquadramento": 6036,
      "Ġintegrado": 6037,
      "Ġ132": 6038,
      "Ġdistincao": 6039,
      "Ġconstitucional": 6040,
      "Ġguarda": 6041,
      "Ġpotenciais": 6042,
      "Ġconduzir": 6043,
      "Ġtelevisao": 6044,
      "Ġpr": 6045,
      "Ġpoderiam": 6046,
      "Ġlugares": 6047,
      "Ġanne": 6048,
      "Ġ160": 6049,
      "Ġintracomunita": 6050,
      "Ġopcoes": 6051,
      "Ġmobilidade": 6052,
      "Ġrecipi": 6053,
      "Ġmoveis": 6054,
      "Ġaeronaves": 6055,
      "df": 6056,
      "Ġ1978": 6057,
      "Ġinterro": 6058,
      "Ġinfraestruturas": 6059,
      "Ġwor": 6060,
      "lus": 6061,
      "Ġaper": 6062,
      "Ġcoletivas": 6063,
      "Ġpeda": 6064,
      "Ġcapitulos": 6065,
      "Ġespessura": 6066,
      "Ġmudanca": 6067,
      "Ġira": 6068,
      "Ġestiverem": 6069,
      "Ġpreveem": 6070,
      "Ġeliminar": 6071,
      "dc": 6072,
      "Ġbaixa": 6073,
      "100": 6074,
      "Ġalegou": 6075,
      "Ġestatal": 6076,
      "Ġgradu": 6077,
      "Ġcumula": 6078,
      "Ġracio": 6079,
      "Ġquimicas": 6080,
      "tudo": 6081,
      "Ġprioridade": 6082,
      "pli": 6083,
      "Ġnunca": 6084,
      "Ġdescrito": 6085,
      "Ġliquidos": 6086,
      "Ġequilibrio": 6087,
      "Ġlacte": 6088,
      "Ġ1975": 6089,
      "Ġlv": 6090,
      "Ġaprovados": 6091,
      "Ġ146": 6092,
      "Ġcampo": 6093,
      "Ġ167": 6094,
      "Ġaprova": 6095,
      "Ġconcur": 6096,
      "Ġtemporario": 6097,
      "Ġurgencia": 6098,
      "Ġadianta": 6099,
      "Ġ205": 6100,
      "Ġcoz": 6101,
      "Ġ182": 6102,
      "eu": 6103,
      "Ġabu": 6104,
      "Ġprivile": 6105,
      "Ġfrescos": 6106,
      "Ġdesempre": 6107,
      "Ġproi": 6108,
      "Ġara": 6109,
      "Ġrequerentes": 6110,
      "Ġdela": 6111,
      "Ġapresentaram": 6112,
      "cadas": 6113,
      "Ġpublic": 6114,
      "Ġtransportadora": 6115,
      "Ġpic": 6116,
      "Ġsubmetida": 6117,
      "bas": 6118,
      "Ġassalariados": 6119,
      "Ġthat": 6120,
      "teira": 6121,
      "Ġentrou": 6122,
      "Ġordina": 6123,
      "Ġcarbono": 6124,
      "Ġexti": 6125,
      "Ġreconhecer": 6126,
      "Ġatribuido": 6127,
      "Ġfiliais": 6128,
      "Ġverde": 6129,
      "Ġregem": 6130,
      "xe": 6131,
      "ches": 6132,
      "vent": 6133,
      "Ġnoutras": 6134,
      "Ġmauri": 6135,
      "Ġ175": 6136,
      "Ġcontradi": 6137,
      "Ġhttp": 6138,
      "Ġdeficiencia": 6139,
      "vimentos": 6140,
      "Ġmostra": 6141,
      "Ġsubstituida": 6142,
      "43": 6143,
      "Ġjogos": 6144,
      "Ġassociadas": 6145,
      "Ġpaci": 6146,
      "Ġbranco": 6147,
      "Ġconveni": 6148,
      "Ġartes": 6149,
      "Ġcumpre": 6150,
      "Ġcorri": 6151,
      "Ġaberto": 6152,
      "Ġnot": 6153,
      "Ġmalta": 6154,
      "Ġqualificacoes": 6155,
      "Ġcrime": 6156,
      "Ġbei": 6157,
      "Ġagrupa": 6158,
      "Î¹Î±": 6159,
      "Ġ611": 6160,
      "Ġ190": 6161,
      "Ġsimplificacao": 6162,
      "licas": 6163,
      "Ġatribuida": 6164,
      "Ġpendente": 6165,
      "Ġterritorial": 6166,
      "Ġindicou": 6167,
      "rupcao": 6168,
      "nhos": 6169,
      "Ġden": 6170,
      "Ġcompetitividade": 6171,
      "genio": 6172,
      "fra": 6173,
      "ura": 6174,
      "ement": 6175,
      "Ġfases": 6176,
      "Ġencerramento": 6177,
      "Ġcader": 6178,
      "trou": 6179,
      "Ġemitir": 6180,
      "Ġ147": 6181,
      "Ġcriminal": 6182,
      "Ġfisica": 6183,
      "Ġph": 6184,
      "lassi": 6185,
      "anos": 6186,
      "Ġdemandada": 6187,
      "Ġmesa": 6188,
      "Ġptu": 6189,
      "Ġmatricula": 6190,
      "Ġala": 6191,
      "hou": 6192,
      "Ġ263": 6193,
      "Ġdupla": 6194,
      "Ġ440": 6195,
      "Ġpp": 6196,
      "Ġartefa": 6197,
      "Ġligado": 6198,
      "Ġrespetivamente": 6199,
      "uti": 6200,
      "Ġmultilate": 6201,
      "Ġvariedades": 6202,
      "Ġcandidato": 6203,
      "Ġrepubli": 6204,
      "Ġsig": 6205,
      "Ġ170": 6206,
      "Ġchines": 6207,
      "Ġ340": 6208,
      "Ġsubstituido": 6209,
      "Ġvul": 6210,
      "Ġcourt": 6211,
      "Ġintegralmente": 6212,
      "Ġdespropor": 6213,
      "Ġmace": 6214,
      "Ġutilizando": 6215,
      "Ġbranque": 6216,
      "Ġsubstituir": 6217,
      "tine": 6218,
      "Ġcarnes": 6219,
      "Ġshall": 6220,
      "Ġmercadoria": 6221,
      "mico": 6222,
      "Ġesforco": 6223,
      "Ġintegrante": 6224,
      "Ġcadeia": 6225,
      "pto": 6226,
      "Ġaumenta": 6227,
      "wn": 6228,
      "Ġdiario": 6229,
      "bel": 6230,
      "Ġexistencias": 6231,
      "Ġamostras": 6232,
      "Ġterras": 6233,
      "Ġrue": 6234,
      "Ġrigor": 6235,
      "Ġcop": 6236,
      "Ġ143": 6237,
      "teli": 6238,
      "Ġacondi": 6239,
      "Ġindia": 6240,
      "decisao": 6241,
      "Ġoleo": 6242,
      "crever": 6243,
      "Ġrein": 6244,
      "Ġ166": 6245,
      "fp": 6246,
      "Ġparticipacoes": 6247,
      "Ġds": 6248,
      "yl": 6249,
      "Ġarge": 6250,
      "Ã¦": 6251,
      "Ġdeles": 6252,
      "Ġindustrias": 6253,
      "Ñĥ": 6254,
      "Ġnl": 6255,
      "Ġcacau": 6256,
      "Ġvencimento": 6257,
      "Ġpreenche": 6258,
      "Ġepigra": 6259,
      "Ġinteg": 6260,
      "Ġpesc": 6261,
      "Ġhospita": 6262,
      "Ġdificil": 6263,
      "Ġcomplementa": 6264,
      "Ġ1976": 6265,
      "Ġemprestimo": 6266,
      "Ġradiodi": 6267,
      "Ġremete": 6268,
      "Ġliberdades": 6269,
      "Ġtotais": 6270,
      "Ġharmonizado": 6271,
      "Ġcontrovertido": 6272,
      "trizes": 6273,
      "Ġuniversal": 6274,
      "gora": 6275,
      "Ġ410": 6276,
      "Ġinsolvencia": 6277,
      "gin": 6278,
      "Ġgrao": 6279,
      "Ġhl": 6280,
      "Ġverificacoes": 6281,
      "Ġgeograficas": 6282,
      "Ġquilo": 6283,
      "Ġcircular": 6284,
      "Ġprimeiros": 6285,
      "Ġcidadao": 6286,
      "Ġelabora": 6287,
      "Ġ209": 6288,
      "Õ«": 6289,
      "Ġconfederacao": 6290,
      "Ġjustificada": 6291,
      "Ġeficazes": 6292,
      "Ġpreferencia": 6293,
      "Ġalegado": 6294,
      "denciais": 6295,
      "terrane": 6296,
      "Ġcontabilis": 6297,
      "38": 6298,
      "Ġrepor": 6299,
      "Ġaluminio": 6300,
      "Ġ940": 6301,
      "Ġpola": 6302,
      "Ġ142": 6303,
      "Ġacompanhada": 6304,
      "Ġnomes": 6305,
      "ker": 6306,
      "Ġ185": 6307,
      "Ġbreta": 6308,
      "ĠÐ¿": 6309,
      "Ġidenticos": 6310,
      "Ġfotogra": 6311,
      "Õ¡Õ": 6312,
      "Ġintero": 6313,
      "Ġcorreccao": 6314,
      "Î³": 6315,
      "Ġ158": 6316,
      "Ġjovens": 6317,
      "Ġvonta": 6318,
      "Ġgordas": 6319,
      "Ġimun": 6320,
      "Ġlibera": 6321,
      "Ġdiretivas": 6322,
      "Ġmelhores": 6323,
      "Ġmanifes": 6324,
      "Ġpolitico": 6325,
      "Ġresultar": 6326,
      "Ġformato": 6327,
      "Ġbases": 6328,
      "Ġpreencher": 6329,
      "Ġcz": 6330,
      "Ġnessas": 6331,
      "Ġtrq": 6332,
      "Ġcoa": 6333,
      "sais": 6334,
      "Ġcod": 6335,
      "Ġsessao": 6336,
      "Ġobte": 6337,
      "Ġvide": 6338,
      "ale": 6339,
      "Ġquase": 6340,
      "Ġneder": 6341,
      "cles": 6342,
      "Ġproducts": 6343,
      "Ġpays": 6344,
      "Ġdestinam": 6345,
      "Ġarmazenamento": 6346,
      "Ġepigrafe": 6347,
      "Ġgesto": 6348,
      "Ġencontrar": 6349,
      "oga": 6350,
      "Ġartefactos": 6351,
      "Ġoli": 6352,
      "Ġke": 6353,
      "mular": 6354,
      "Ġmg": 6355,
      "Ġposteriori": 6356,
      "Ġresistencia": 6357,
      "giu": 6358,
      "Ġlevar": 6359,
      "Ġcris": 6360,
      "Ġfossem": 6361,
      "vinos": 6362,
      "Ġhomens": 6363,
      "Î¿Ïħ": 6364,
      "ĠÎ±": 6365,
      "Ġretoma": 6366,
      "Ġerradamente": 6367,
      "Ġleitura": 6368,
      "Ġmolda": 6369,
      "Ġnr": 6370,
      "Ġpru": 6371,
      "Ġ187": 6372,
      "Ġeletronica": 6373,
      "Ġpediu": 6374,
      "Ġsucessi": 6375,
      "Ġwal": 6376,
      "carre": 6377,
      "Ġinalte": 6378,
      "Ġdevelop": 6379,
      "Ġconfidencialidade": 6380,
      "Ġsobretudo": 6381,
      "69": 6382,
      "pri": 6383,
      "Ġadver": 6384,
      "ÐµÐ½": 6385,
      "Ġsuscitado": 6386,
      "Ġobstaculos": 6387,
      "Ġelectricidade": 6388,
      "Ġvivos": 6389,
      "Ġ184": 6390,
      "Ġoportunidades": 6391,
      "osos": 6392,
      "57": 6393,
      "Ġpastas": 6394,
      "nsidade": 6395,
      "Ġentendimento": 6396,
      "Ġsegurado": 6397,
      "Ġsuspe": 6398,
      "ĠÏĦ": 6399,
      "Ġseguimento": 6400,
      "Ġferramentas": 6401,
      "Ġacordam": 6402,
      "Ġ228": 6403,
      "ware": 6404,
      "Ġuniversi": 6405,
      "Ġjuntamente": 6406,
      "ficado": 6407,
      "Ġnaao": 6408,
      "Ġadjudicantes": 6409,
      "Ġcomunicadas": 6410,
      "etz": 6411,
      "Ġnp": 6412,
      "Ġretirar": 6413,
      "Ġ621": 6414,
      "oaes": 6415,
      "Ġrececao": 6416,
      "rancia": 6417,
      "lizada": 6418,
      "Ġaqueles": 6419,
      "Ġmaritima": 6420,
      "Ġsetorial": 6421,
      "Ġclari": 6422,
      "Ġdistribui": 6423,
      "Ġprecisamente": 6424,
      "Ġdemandantes": 6425,
      "Ġrenovado": 6426,
      "Ġinsuficiente": 6427,
      "minado": 6428,
      "Ġesgo": 6429,
      "Ġcontrolar": 6430,
      "Ġresumo": 6431,
      "Ġhabitual": 6432,
      "Ġinciso": 6433,
      "Ġdeviam": 6434,
      "teza": 6435,
      "Ġdistingu": 6436,
      "Ġcasas": 6437,
      "Ä±n": 6438,
      "Ġuna": 6439,
      "Ġola": 6440,
      "Ġcolabora": 6441,
      "Ġmarcacao": 6442,
      "Ġexaus": 6443,
      "Ġocupa": 6444,
      "Ġreproduz": 6445,
      "Ġpsi": 6446,
      "Ġcp": 6447,
      "Ġpudes": 6448,
      "Ġpilo": 6449,
      "Ġtradicionais": 6450,
      "Ġlocacao": 6451,
      "Ġevas": 6452,
      "Ġlinguis": 6453,
      "Ġjapao": 6454,
      "48": 6455,
      "Ġreducoes": 6456,
      "Ġsomente": 6457,
      "Ġfamiliar": 6458,
      "ters": 6459,
      "Ġflores": 6460,
      "Ġpenais": 6461,
      "unda": 6462,
      "Ġside": 6463,
      "68": 6464,
      "nie": 6465,
      "Ġfinanciadas": 6466,
      "Ġbos": 6467,
      "Ġestuda": 6468,
      "Ġcondutor": 6469,
      "Ġpreenchidas": 6470,
      "Ġdeb": 6471,
      "Ġaparelho": 6472,
      "els": 6473,
      "chtshof": 6474,
      "Ġsexto": 6475,
      "Ġinteropera": 6476,
      "Ġsalientou": 6477,
      "ang": 6478,
      "Ġcontestacao": 6479,
      "Ġdossi": 6480,
      "Ġindependencia": 6481,
      "Ġnegativa": 6482,
      "une": 6483,
      "Ġdiferencia": 6484,
      "Ġportaria": 6485,
      "Ġtarifa": 6486,
      "line": 6487,
      "Ġsis": 6488,
      "Ġlou": 6489,
      "Ġdirigida": 6490,
      "Ġproveniente": 6491,
      "bilizar": 6492,
      "Ġesma": 6493,
      "Ġprejudicar": 6494,
      "sion": 6495,
      "Ġdan": 6496,
      "Ġanulada": 6497,
      "Ġep": 6498,
      "Ġsupremo": 6499,
      "Ġmedias": 6500,
      "Ġmodificados": 6501,
      "Ġ1968": 6502,
      "Ġpoderem": 6503,
      "Ġ165": 6504,
      "cc": 6505,
      "Ġprecisao": 6506,
      "Ġcentra": 6507,
      "ĠâĹ": 6508,
      "Ġabuso": 6509,
      "Ġconstatar": 6510,
      "Ġreflec": 6511,
      "Ġinca": 6512,
      "Ġativa": 6513,
      "Ġemitidas": 6514,
      "Ġcolocados": 6515,
      "Ġsateli": 6516,
      "Ġfusao": 6517,
      "Ġcorrespondem": 6518,
      "Ġtou": 6519,
      "Ġ152": 6520,
      "Ġatribuir": 6521,
      "Ġbaseou": 6522,
      "Ġ640": 6523,
      "Ġgama": 6524,
      "Ġ151": 6525,
      "Ġcolhe": 6526,
      "Ġavanca": 6527,
      "parte": 6528,
      "nz": 6529,
      "Ġpolicia": 6530,
      "Ġgr": 6531,
      "Ġincide": 6532,
      "Ġdeterminante": 6533,
      "Ġcoreia": 6534,
      "Ġcongelados": 6535,
      "Î¹Îº": 6536,
      "flu": 6537,
      "Ġentregas": 6538,
      "Ġdeliberando": 6539,
      "Ġcho": 6540,
      "Ġ330": 6541,
      "pulacao": 6542,
      "mio": 6543,
      "tim": 6544,
      "Ġidentificados": 6545,
      "Ġagricultores": 6546,
      "Ġexames": 6547,
      "Ġsignificativamente": 6548,
      "venir": 6549,
      "Ġmaquina": 6550,
      "Ġdesfa": 6551,
      "vie": 6552,
      "Ð·": 6553,
      "Ġneutra": 6554,
      "ĠlÄ±n": 6555,
      "cide": 6556,
      "nhas": 6557,
      "Ġmista": 6558,
      "Ġ217": 6559,
      "Ġcabos": 6560,
      "Ġadaptar": 6561,
      "Ġcombinacao": 6562,
      "Ġrespetiva": 6563,
      "Ġ245": 6564,
      "Ġimpressao": 6565,
      "Ġbovino": 6566,
      "lanti": 6567,
      "poli": 6568,
      "Ġforte": 6569,
      "Ġdefende": 6570,
      "Ġproprietario": 6571,
      "Ġvale": 6572,
      "Ġmaritimo": 6573,
      "Ġedificios": 6574,
      "ÅĤ": 6575,
      "Ġprolon": 6576,
      "cionistas": 6577,
      "Ġ0207": 6578,
      "Ġcommer": 6579,
      "Ġnon": 6580,
      "Ġobservancia": 6581,
      "Ġdiag": 6582,
      "Ġdepartamento": 6583,
      "Ġvisam": 6584,
      "Ġdispoem": 6585,
      "Ġbretanha": 6586,
      "Ġtomou": 6587,
      "Ġreconhecida": 6588,
      "Ġconcebidos": 6589,
      "Ġobser": 6590,
      "Ġimpede": 6591,
      "Ġprocedeu": 6592,
      "chos": 6593,
      "Ġvontade": 6594,
      "Ġmodificacao": 6595,
      "Ġsuplemento": 6596,
      "Ġarroz": 6597,
      "ntais": 6598,
      "Ġmarrocos": 6599,
      "Ġcr": 6600,
      "amente": 6601,
      "Ġresponde": 6602,
      "Ġdesignadas": 6603,
      "Ġalo": 6604,
      "Ġfamiliares": 6605,
      "Ġcari": 6606,
      "ĠlÄ±ngua": 6607,
      "Ġrenovaveis": 6608,
      "Ġcomando": 6609,
      "Ġpremios": 6610,
      "Ġtrigo": 6611,
      "Ġcolocar": 6612,
      "hr": 6613,
      "Ġpassou": 6614,
      "Ġremo": 6615,
      "Ġ239": 6616,
      "Ġson": 6617,
      "Ġ144": 6618,
      "donia": 6619,
      "Ġtoxi": 6620,
      "Ġmont": 6621,
      "dre": 6622,
      "pacao": 6623,
      "Ġprospe": 6624,
      "Ġprosseguir": 6625,
      "Ġpir": 6626,
      "Ġdisponibilidade": 6627,
      "Ġcorrectamente": 6628,
      "Ġclu": 6629,
      "Ġfeg": 6630,
      "tria": 6631,
      "Ġdecisaao": 6632,
      "Ġexpedicao": 6633,
      "pou": 6634,
      "tran": 6635,
      "Ġacuca": 6636,
      "Ġterra": 6637,
      "Ġrebo": 6638,
      "quistao": 6639,
      "Ġchegar": 6640,
      "Ġfaculta": 6641,
      "Ġacta": 6642,
      "Ġenunciadas": 6643,
      "Ġmutuamente": 6644,
      "Ġincluido": 6645,
      "Ġverificou": 6646,
      "Ġatribuicoes": 6647,
      "Ġrodoviario": 6648,
      "Ġgenero": 6649,
      "Ġaprovadas": 6650,
      "tti": 6651,
      "Ġanticon": 6652,
      "Ġisencoes": 6653,
      "waltungs": 6654,
      "her": 6655,
      "ĠÑģ": 6656,
      "Ġameaca": 6657,
      "Ġoita": 6658,
      "Ġfeoga": 6659,
      "Ġfile": 6660,
      "ear": 6661,
      "Ġgatt": 6662,
      "Ġdisciplin": 6663,
      "Ġvisados": 6664,
      "Ġresolver": 6665,
      "llo": 6666,
      "Ġsocio": 6667,
      "Ġreglement": 6668,
      "Ġatualiza": 6669,
      "Ġapresentam": 6670,
      "Ġselecao": 6671,
      "46": 6672,
      "Ġvistas": 6673,
      "Ġsublinhar": 6674,
      "Ġconfirmar": 6675,
      "Ġradiodifusao": 6676,
      "Ġconcursos": 6677,
      "Ġforfe": 6678,
      "Ġ188": 6679,
      "heiro": 6680,
      "Ġproporcao": 6681,
      "Ġcompativeis": 6682,
      "Ġnestes": 6683,
      "Ġreembolsaveis": 6684,
      "zin": 6685,
      "Ġaprofun": 6686,
      "Ġapplica": 6687,
      "Ġaceites": 6688,
      "onetos": 6689,
      "ght": 6690,
      "Ġcali": 6691,
      "Ġ468": 6692,
      "Ġperigosas": 6693,
      "Ġusos": 6694,
      "ĠâĮ": 6695,
      "Ġassinaturas": 6696,
      "Ġlici": 6697,
      "vale": 6698,
      "Ġexisti": 6699,
      "Ġ521": 6700,
      "Ġapensos": 6701,
      "Ġinves": 6702,
      "Ġmetal": 6703,
      "Ġpeixe": 6704,
      "Ġfatores": 6705,
      "Ġfuncional": 6706,
      "Ġaquela": 6707,
      "aux": 6708,
      "Ġpresta": 6709,
      "Ġdeva": 6710,
      "Ġcalcado": 6711,
      "Ġwo": 6712,
      "Ġeua": 6713,
      "Ġtrava": 6714,
      "Ġtrimes": 6715,
      "Ġlige": 6716,
      "riais": 6717,
      "lizados": 6718,
      "isso": 6719,
      "Ġsindica": 6720,
      "Ġparametros": 6721,
      "Ġatualmente": 6722,
      "cz": 6723,
      "Ġ590": 6724,
      "Ġreclama": 6725,
      "Ġrodri": 6726,
      "gro": 6727,
      "Ġsolo": 6728,
      "Ġvalido": 6729,
      "Ġressegu": 6730,
      "Ġperigo": 6731,
      "iva": 6732,
      "ntese": 6733,
      "Ġ1972": 6734,
      "Ġempreen": 6735,
      "Ġsais": 6736,
      "Ġdeveriam": 6737,
      "Ġoficio": 6738,
      "Ġenca": 6739,
      "imo": 6740,
      "Ġprocessamento": 6741,
      "Ġdecor": 6742,
      "Ġflorestal": 6743,
      "Ġimposta": 6744,
      "Ġfabricados": 6745,
      "ĠâĹ»": 6746,
      "Ġestatutos": 6747,
      "Ġprevio": 6748,
      "Ġdeclarada": 6749,
      "Ġolaf": 6750,
      "tat": 6751,
      "lizado": 6752,
      "Ġread": 6753,
      "gencias": 6754,
      "Ġilimi": 6755,
      "Ġquin": 6756,
      "Ġprevenir": 6757,
      "Ġmus": 6758,
      "ceoaes": 6759,
      "Ġaz": 6760,
      "Ġoito": 6761,
      "Ġsecu": 6762,
      "Ġanticoncorre": 6763,
      "Ġdecidido": 6764,
      "Ġtole": 6765,
      "Ġadministradora": 6766,
      "Ġgroup": 6767,
      "Ġregistadas": 6768,
      "Ġadquiridos": 6769,
      "Ġ204": 6770,
      "Ġgorduras": 6771,
      "Ġarticula": 6772,
      "elles": 6773,
      "Ġadota": 6774,
      "Ġservices": 6775,
      "Ġisenta": 6776,
      "Ġimpossivel": 6777,
      "Ġteriam": 6778,
      "Ġsou": 6779,
      "79": 6780,
      "Ġsubmetidos": 6781,
      "Ġterres": 6782,
      "Ġsaldo": 6783,
      "65": 6784,
      "Ġadotado": 6785,
      "bano": 6786,
      "Ġcultural": 6787,
      "Ġfari": 6788,
      "Ġseg": 6789,
      "nicas": 6790,
      "Ġreprese": 6791,
      "Ġ171": 6792,
      "Ġcoeficiente": 6793,
      "nstitucional": 6794,
      "ficados": 6795,
      "Ġeduca": 6796,
      "Ġmontagem": 6797,
      "Ġacidente": 6798,
      "Ġestancia": 6799,
      "Ġcrianca": 6800,
      "Ġafecta": 6801,
      "Ġampli": 6802,
      "Ġdemora": 6803,
      "Ġautomaticamente": 6804,
      "Ġ1971": 6805,
      "Ġproibe": 6806,
      "Ġimi": 6807,
      "Ġferroviario": 6808,
      "Ġdissuas": 6809,
      "Ġinjus": 6810,
      "Ġenge": 6811,
      "Ġcs": 6812,
      "Ġdotacao": 6813,
      "Ġnotificados": 6814,
      "Ġaudio": 6815,
      "Ġgeralmente": 6816,
      "Ġexercem": 6817,
      "Ġmetodologia": 6818,
      "Ġpronuncie": 6819,
      "Ġcount": 6820,
      "Ġafirmacao": 6821,
      "Ġlacteos": 6822,
      "Ġ210": 6823,
      "Ġmacedonia": 6824,
      "Ġuvas": 6825,
      "Ġonus": 6826,
      "Ġactuais": 6827,
      "Ġcoesao": 6828,
      "Ġbil": 6829,
      "Ġ354": 6830,
      "Ġsas": 6831,
      "Ġprimas": 6832,
      "Ġrespetivo": 6833,
      "Ġweb": 6834,
      "Ġsubordina": 6835,
      "Ġjose": 6836,
      "Ġconsi": 6837,
      "vamente": 6838,
      "Ġiniciar": 6839,
      "Ġfigurativa": 6840,
      "60": 6841,
      "gam": 6842,
      "Ġprosseguido": 6843,
      "Ġseparacao": 6844,
      "Ġmetade": 6845,
      "ossa": 6846,
      "Ġint": 6847,
      "Ġlabo": 6848,
      "Ġdk": 6849,
      "Ġestatistica": 6850,
      "iss": 6851,
      "Ġconsagrado": 6852,
      "Ġ215": 6853,
      "Ġcomunicado": 6854,
      "bos": 6855,
      "Ġestabilizacao": 6856,
      "Ġaproxima": 6857,
      "Ġentradas": 6858,
      "Ġespecificado": 6859,
      "Ġcaducidade": 6860,
      "ede": 6861,
      "Ġobrigados": 6862,
      "chtens": 6863,
      "Ġdividen": 6864,
      "Ġates": 6865,
      "Ġpossiveis": 6866,
      "Ġsubja": 6867,
      "Ġquantia": 6868,
      "Ġholding": 6869,
      "Ġligacoes": 6870,
      "Ġacompanhar": 6871,
      "ciou": 6872,
      "Ġplataforma": 6873,
      "Ġdio": 6874,
      "Ġprovoca": 6875,
      "Ġcontenci": 6876,
      "Ġintegrados": 6877,
      "landesa": 6878,
      "Ġducado": 6879,
      "Ġalguma": 6880,
      "Ġrecebidas": 6881,
      "isse": 6882,
      "Ġafirmativa": 6883,
      "Ġindevidamente": 6884,
      "dh": 6885,
      "Ġrelacionada": 6886,
      "Ġestipula": 6887,
      "ini": 6888,
      "Ġama": 6889,
      "Ġfrau": 6890,
      "Ġ840": 6891,
      "Ġdividendos": 6892,
      "Ġnoti": 6893,
      "Ġabo": 6894,
      "toriais": 6895,
      "ĠÂ©": 6896,
      "Ġisra": 6897,
      "Ġexercida": 6898,
      "Ġestavel": 6899,
      "Ġurban": 6900,
      "88": 6901,
      "Ġintercalar": 6902,
      "tus": 6903,
      "Ġfecha": 6904,
      "Ġindicativo": 6905,
      "Ġclassificados": 6906,
      "Ġdelas": 6907,
      "Ġsolicitou": 6908,
      "Ġcomites": 6909,
      "Ġsubal": 6910,
      "Ġhaja": 6911,
      "Ġelegibilidade": 6912,
      "Ġevasao": 6913,
      "Ġmao": 6914,
      "Ġdevidos": 6915,
      "Ġmente": 6916,
      "Ġocasiao": 6917,
      "chtenstein": 6918,
      "Ġdoze": 6919,
      "Ġdeduzir": 6920,
      "Ġvisi": 6921,
      "nomia": 6922,
      "Ġdesafi": 6923,
      "Ġminu": 6924,
      "cti": 6925,
      "Ġinfraestrutura": 6926,
      "Ġpaulo": 6927,
      "Ġverti": 6928,
      "Ġaipn": 6929,
      "iado": 6930,
      "Ġactiva": 6931,
      "Ġgestor": 6932,
      "Ġoficios": 6933,
      "Ġdisciplina": 6934,
      "Ġatum": 6935,
      "Ġsintese": 6936,
      "Ġviagens": 6937,
      "Ġreconhecidos": 6938,
      "Ġcalcular": 6939,
      "Ġcomparaveis": 6940,
      "tela": 6941,
      "tano": 6942,
      "Ġ510": 6943,
      "Ġcomportamentos": 6944,
      "Ġconexas": 6945,
      "rity": 6946,
      "ning": 6947,
      "Ġtome": 6948,
      "Ġabranger": 6949,
      "Ġconsultar": 6950,
      "Ġreferente": 6951,
      "Ġcorrecao": 6952,
      "Ġinteroperabilidade": 6953,
      "onia": 6954,
      "Ġextraor": 6955,
      "Ġassumir": 6956,
      "Ġimovel": 6957,
      "Ġtiveram": 6958,
      "Ġtestes": 6959,
      "Ġocorrencia": 6960,
      "Ð³": 6961,
      "titude": 6962,
      "Ġliechtenstein": 6963,
      "Ġeleito": 6964,
      "Ġcata": 6965,
      "Ġdemonstrado": 6966,
      "Ġpeias": 6967,
      "Ġefetivo": 6968,
      "Ġrestituicoes": 6969,
      "Ġassistida": 6970,
      "Ġete": 6971,
      "wo": 6972,
      "ent": 6973,
      "para": 6974,
      "Ġcondenado": 6975,
      "Ġlemb": 6976,
      "Ġintitulado": 6977,
      "Ġsubaline": 6978,
      "Ġalegadamente": 6979,
      "Ġtese": 6980,
      "ser": 6981,
      "Ġ161": 6982,
      "Ġinformou": 6983,
      "Ġestufa": 6984,
      "Ġmarke": 6985,
      "Ġ337": 6986,
      "Ġconvoca": 6987,
      "Ġexcepcionais": 6988,
      "lco": 6989,
      "Ġterrorismo": 6990,
      "Ġhun": 6991,
      "let": 6992,
      "Ġnotificacoes": 6993,
      "Ġirregularidade": 6994,
      "Ġflexibilidade": 6995,
      "Ġestando": 6996,
      "Ġajustamentos": 6997,
      "dados": 6998,
      "Ġexploracoes": 6999,
      "Ġimpera": 7000,
      "Ġeixo": 7001,
      "alidade": 7002,
      "Ġalba": 7003,
      "Ġvar": 7004,
      "Ġ253": 7005,
      "ntion": 7006,
      "Ġtransbor": 7007,
      "Ġrecipientes": 7008,
      "Ġpaco": 7009,
      "Ġcontidas": 7010,
      "Ġtransfronteiri": 7011,
      "Ġrestringir": 7012,
      "ficies": 7013,
      "Ġproibir": 7014,
      "Ġinvalidez": 7015,
      "Ġembarcacoes": 7016,
      "Ġservice": 7017,
      "Ġplanea": 7018,
      "Ġfito": 7019,
      "han": 7020,
      "Ġdespesa": 7021,
      "Ġvoor": 7022,
      "Ġ2204": 7023,
      "Ġrecon": 7024,
      "Ġbrasile": 7025,
      "vina": 7026,
      "Ġcircuito": 7027,
      "Ġdepu": 7028,
      "Ġefetuado": 7029,
      "Ġpublicacoes": 7030,
      "logicas": 7031,
      "Ġconcretamente": 7032,
      "nung": 7033,
      "reu": 7034,
      "Ġpertencentes": 7035,
      "Ġverificado": 7036,
      "izar": 7037,
      "Ġaditivos": 7038,
      "Ġmaritimos": 7039,
      "Ġtensao": 7040,
      "farma": 7041,
      "Ġema": 7042,
      "Ġempregados": 7043,
      "Ġtransaccoes": 7044,
      "Ġquantitativos": 7045,
      "Ġdra": 7046,
      "Ġdesemprego": 7047,
      "Ġsont": 7048,
      "Ġrefugia": 7049,
      "Ġata": 7050,
      "Ġorden": 7051,
      "Ġmencionada": 7052,
      "Ġchu": 7053,
      "Ġagora": 7054,
      "Ġsuperficies": 7055,
      "Ġcorrecta": 7056,
      "Ġcrus": 7057,
      "Ġaqua": 7058,
      "Ġextraordina": 7059,
      "dico": 7060,
      "carbonetos": 7061,
      "fera": 7062,
      "Ġadvogada": 7063,
      "Ġ820": 7064,
      "Ġprocedente": 7065,
      "rela": 7066,
      "Ġ530": 7067,
      "Ġ159": 7068,
      "Ġatomica": 7069,
      "Ġalternativa": 7070,
      "dy": 7071,
      "Ġava": 7072,
      "gias": 7073,
      "heim": 7074,
      "Ġcontactos": 7075,
      "Ġnive": 7076,
      "Ġassin": 7077,
      "Ġcolocadas": 7078,
      "Ġsto": 7079,
      "Ġcometido": 7080,
      "ice": 7081,
      "Ġnegar": 7082,
      "Ġautomatica": 7083,
      "Ġcv": 7084,
      "Ġevidente": 7085,
      "Ġencargo": 7086,
      "Ġadquirida": 7087,
      "Ġproferida": 7088,
      "Ġelaborado": 7089,
      "ÑĢÐ°": 7090,
      "Ġarmas": 7091,
      "Ġproibida": 7092,
      "Ġrazoavelmente": 7093,
      "ĠÐ½": 7094,
      "Ġconcertadas": 7095,
      "Ġbananas": 7096,
      "Ġrevista": 7097,
      "Ġamostragem": 7098,
      "Ġafigura": 7099,
      "Ġprofess": 7100,
      "Ġenga": 7101,
      "Ġdenominacoes": 7102,
      "Ġbank": 7103,
      "Ġadquirir": 7104,
      "burg": 7105,
      "Ġferias": 7106,
      "Ġagreement": 7107,
      "Ġaperfe": 7108,
      "Ġzz": 7109,
      "Ġaplicacoes": 7110,
      "Ġeficiente": 7111,
      "Ġsexo": 7112,
      "Ġ153": 7113,
      "Ġcalculada": 7114,
      "Ġwhe": 7115,
      "Ġatlanti": 7116,
      "Ġcombate": 7117,
      "Ġidentica": 7118,
      "ĠÎ¼": 7119,
      "Ġzu": 7120,
      "Ġteo": 7121,
      "Ġaprendi": 7122,
      "2000": 7123,
      "Ġsolicitada": 7124,
      "Ġcomunicados": 7125,
      "Ġigno": 7126,
      "Ġencontrem": 7127,
      "cupacao": 7128,
      "fied": 7129,
      "Ġacredi": 7130,
      "Ġelevados": 7131,
      "ĠÎº": 7132,
      "Ġpeles": 7133,
      "Ġ213": 7134,
      "Ġcera": 7135,
      "Ġprotocolos": 7136,
      "ivo": 7137,
      "Ġlongi": 7138,
      "Ġpequena": 7139,
      "Ġpasta": 7140,
      "Ġvom": 7141,
      "Ġdesfavo": 7142,
      "mida": 7143,
      "Ġaccor": 7144,
      "Ġveterinario": 7145,
      "tif": 7146,
      "Ġalvo": 7147,
      "Ġrecrutamento": 7148,
      "Ġrepresentam": 7149,
      "Ġsalario": 7150,
      "Ġsigna": 7151,
      "Ġchemi": 7152,
      "Ġimpla": 7153,
      "Ġmoral": 7154,
      "oro": 7155,
      "Ġpleno": 7156,
      "Ġfrente": 7157,
      "Ġregulacao": 7158,
      "Ġlonga": 7159,
      "Ġfactor": 7160,
      "Ġcontinuacao": 7161,
      "minas": 7162,
      "Ġmiude": 7163,
      "Ġrevestidos": 7164,
      "Ġone": 7165,
      "Ġaperfeico": 7166,
      "jamento": 7167,
      "Ġsubsequente": 7168,
      "Ġcomprador": 7169,
      "nho": 7170,
      "Ġdemonstrou": 7171,
      "Ġfilhos": 7172,
      "Ġng": 7173,
      "Ġestrada": 7174,
      "ÏīÎ½": 7175,
      "Ġkir": 7176,
      "Ġrev": 7177,
      "mple": 7178,
      "Ġglobais": 7179,
      "Ġdetal": 7180,
      "Ġhr": 7181,
      "Ġintrodutoria": 7182,
      "Ġ225": 7183,
      "Ġeg": 7184,
      "Ġdiligencia": 7185,
      "tres": 7186,
      "66": 7187,
      "Ġtransmitir": 7188,
      "Ġacucares": 7189,
      "Ġsatisfe": 7190,
      "Ġsy": 7191,
      "Ġsrl": 7192,
      "Ġutilizacoes": 7193,
      "visiona": 7194,
      "Ġmiudezas": 7195,
      "Ġbilateral": 7196,
      "Ġelectro": 7197,
      "Ġexercido": 7198,
      "Ġrefina": 7199,
      "Ġamplo": 7200,
      "Ġeletricos": 7201,
      "Ġpesquis": 7202,
      "Ġperspectiva": 7203,
      "Ġ299": 7204,
      "Ġdatas": 7205,
      "cinio": 7206,
      "Ġciem": 7207,
      "Ġchar": 7208,
      "Ġtema": 7209,
      "Ġaudicao": 7210,
      "Ġsolicitado": 7211,
      "Ġazo": 7212,
      "Ġjulgamento": 7213,
      "Ġcommunaute": 7214,
      "áĥĲ": 7215,
      "don": 7216,
      "Ġreformas": 7217,
      "eco": 7218,
      "Ġderroga": 7219,
      "Ġconjuntos": 7220,
      "pio": 7221,
      "Ġunion": 7222,
      "gan": 7223,
      "Ġprivadas": 7224,
      "Ġobservador": 7225,
      "red": 7226,
      "Ġsatelite": 7227,
      "Ġfrom": 7228,
      "77": 7229,
      "Ġincentivar": 7230,
      "nter": 7231,
      "Ġidenticas": 7232,
      "Ġtonelada": 7233,
      "Ġsituado": 7234,
      "Ġjugoslava": 7235,
      "bank": 7236,
      "Ġpacifico": 7237,
      "Ġacarre": 7238,
      "Ġplastico": 7239,
      "Ġaromatiza": 7240,
      "ĠÏĢ": 7241,
      "Ġdom": 7242,
      "Ġcircuitos": 7243,
      "Ġcarreira": 7244,
      "Ġ154": 7245,
      "Ġslo": 7246,
      "Ġjulgada": 7247,
      "Ġsil": 7248,
      "Ġsuporta": 7249,
      "Ġregulamentacoes": 7250,
      "grafia": 7251,
      "Ġinvestiga": 7252,
      "Ġdefinitivamente": 7253,
      "Ġmens": 7254,
      "Ġ162": 7255,
      "Ġclaro": 7256,
      "vision": 7257,
      "Ġilu": 7258,
      "Ġabando": 7259,
      "ures": 7260,
      "Ġmaria": 7261,
      "Ġrevestindo": 7262,
      "riu": 7263,
      "Ġconfidenciais": 7264,
      "Ġespecializados": 7265,
      "Ġestarem": 7266,
      "Ġ179": 7267,
      "Ġxvi": 7268,
      "Ġrecebeu": 7269,
      "Ġfel": 7270,
      "Ġinver": 7271,
      "Ġespi": 7272,
      "Ġinstitucional": 7273,
      "ntam": 7274,
      "Ġimediata": 7275,
      "dura": 7276,
      "Ġexcluidos": 7277,
      "Ġepo": 7278,
      "Ġomissao": 7279,
      "Ġprestado": 7280,
      "Ġku": 7281,
      "Ġ174": 7282,
      "Ġaspecto": 7283,
      "Ġhttps": 7284,
      "Ġalargamento": 7285,
      "yer": 7286,
      "Ġfon": 7287,
      "Ġ181": 7288,
      "Ġcelebrar": 7289,
      "Ġ2023": 7290,
      "Ġpoe": 7291,
      "ntado": 7292,
      "tm": 7293,
      "Ġindo": 7294,
      "Ġpis": 7295,
      "Ġ211": 7296,
      "king": 7297,
      "ders": 7298,
      "Ġmel": 7299,
      "Ġsignificativas": 7300,
      "ag": 7301,
      "Ġdiametro": 7302,
      "Ġatribuidos": 7303,
      "Ġpassado": 7304,
      "Ġmanual": 7305,
      "Ġ172": 7306,
      "Ġmilitar": 7307,
      "Ġirao": 7308,
      "Ġduvida": 7309,
      "mbi": 7310,
      "Ġguine": 7311,
      "Ġdestru": 7312,
      "Ġcontratacao": 7313,
      "Ġadapta": 7314,
      "Ġcentre": 7315,
      "dorf": 7316,
      "Ġcafe": 7317,
      "Ġprotegidas": 7318,
      "Ġfalse": 7319,
      "Ġcooperar": 7320,
      "Ġren": 7321,
      "Ġveterinarios": 7322,
      "Ġvai": 7323,
      "Ġdepositos": 7324,
      "Ġinteiro": 7325,
      "Ġtos": 7326,
      "Ġvariedade": 7327,
      "Ġrazoaveis": 7328,
      "Ġceu": 7329,
      "Ġestimativa": 7330,
      "Ġfluxos": 7331,
      "Ġboas": 7332,
      "Ġadotados": 7333,
      "Ġespecifi": 7334,
      "Ġalargar": 7335,
      "Ġauxiliares": 7336,
      "Ġdesempenha": 7337,
      "Ġusados": 7338,
      "Ġultimas": 7339,
      "Ġcometida": 7340,
      "Ġbata": 7341,
      "prop": 7342,
      "Ġinc": 7343,
      "Ġfuma": 7344,
      "64": 7345,
      "Ġinvocada": 7346,
      "Ġdin": 7347,
      "mino": 7348,
      "Ġmulta": 7349,
      "Ġcontinuam": 7350,
      "Ġtransna": 7351,
      "wan": 7352,
      "Ġpropriedades": 7353,
      "Ġ192": 7354,
      "Ġasce": 7355,
      "Ġrecebidos": 7356,
      "Ġ163": 7357,
      "Ġbastante": 7358,
      "Ġleia": 7359,
      "Ġpossui": 7360,
      "Ġconservados": 7361,
      "Ġrestabele": 7362,
      "Ġfutura": 7363,
      "Ġcartoes": 7364,
      "Ġidentificadas": 7365,
      "Ġtraduz": 7366,
      "Ġcolocada": 7367,
      "Ġcomenta": 7368,
      "Ġmigracao": 7369,
      "Ġcorrentes": 7370,
      "asse": 7371,
      "Ġvisita": 7372,
      "Ġexcepcional": 7373,
      "Ġrestante": 7374,
      "ntores": 7375,
      "Ġ221": 7376,
      "Ġreli": 7377,
      "Ġduplo": 7378,
      "Ġfinanciar": 7379,
      "Ġactivo": 7380,
      "Ġcolocado": 7381,
      "Ġtecnologico": 7382,
      "Ġ222": 7383,
      "Ð¼": 7384,
      "Ġreferiu": 7385,
      "Ġ270": 7386,
      "Ġmacro": 7387,
      "Ġrodas": 7388,
      "61": 7389,
      "Ġintegridade": 7390,
      "Ġacidentes": 7391,
      "Ġtransitorio": 7392,
      "Ġuniformes": 7393,
      "Ġindispensavel": 7394,
      "Ġhigh": 7395,
      "Ġcoun": 7396,
      "Ġaprendiza": 7397,
      "Ġetique": 7398,
      "Ġpc": 7399,
      "Ġexigidos": 7400,
      "vali": 7401,
      "mm": 7402,
      "tment": 7403,
      "farmaceu": 7404,
      "Ġconcili": 7405,
      "Ġisrael": 7406,
      "Ġsea": 7407,
      "gesimo": 7408,
      "Ġturismo": 7409,
      "gement": 7410,
      "sivo": 7411,
      "Ð½Ð°": 7412,
      "Ġif": 7413,
      "nel": 7414,
      "Ġculturas": 7415,
      "Ġeletronicas": 7416,
      "Ġ235": 7417,
      "Ġ347": 7418,
      "Ġministros": 7419,
      "Ġaquecimento": 7420,
      "Ġpermanencia": 7421,
      "Ġqueijos": 7422,
      "Ġpb": 7423,
      "Ġ414": 7424,
      "Ġautho": 7425,
      "Ġmultiplica": 7426,
      "Ġespanhola": 7427,
      "Ġbomb": 7428,
      "gicos": 7429,
      "Ġinspeccoes": 7430,
      "Ġ261": 7431,
      "Ġ164": 7432,
      "Ġproduzido": 7433,
      "Ġinterval": 7434,
      "gt": 7435,
      "Ġactualiza": 7436,
      "Ġnm": 7437,
      "Ġcns": 7438,
      "Ġfederacao": 7439,
      "Ġficam": 7440,
      "uais": 7441,
      "Ġproposi": 7442,
      "Ġml": 7443,
      "Ġabate": 7444,
      "Ġaeroporto": 7445,
      "Ġaplicou": 7446,
      "67": 7447,
      "Ġpsico": 7448,
      "Ġ249": 7449,
      "Ġautonomia": 7450,
      "Ġpropa": 7451,
      "Ġras": 7452,
      "Ġsolicitor": 7453,
      "Ġfazendo": 7454,
      "ulos": 7455,
      "Ġpormen": 7456,
      "Ġpresu": 7457,
      "Ġmetro": 7458,
      "boa": 7459,
      "Ġcessao": 7460,
      "Ġbon": 7461,
      "Ġtestemun": 7462,
      "Ġfitos": 7463,
      "Ġcerve": 7464,
      "Ġaprovar": 7465,
      "Ġnv": 7466,
      "Ġdeseja": 7467,
      "Ġobservacao": 7468,
      "Ġfacilmente": 7469,
      "Ġwhi": 7470,
      "mark": 7471,
      "lizar": 7472,
      "Ġefetuados": 7473,
      "Ġinserir": 7474,
      "Ġ350": 7475,
      "Ġcausado": 7476,
      "gramas": 7477,
      "Ġsubstitui": 7478,
      "Ġregulares": 7479,
      "Ġgross": 7480,
      "Ġequivalencia": 7481,
      "Ġvideo": 7482,
      "Ġextre": 7483,
      "Ġmarin": 7484,
      "Ġdesce": 7485,
      "Ġsaint": 7486,
      "Ġdescritas": 7487,
      "Ġdecimo": 7488,
      "Ġdies": 7489,
      "Ġespirito": 7490,
      "Ġfatura": 7491,
      "Ġeffe": 7492,
      "Ġdispunha": 7493,
      "Ġmax": 7494,
      "Ġadoptados": 7495,
      "wi": 7496,
      "Ġenergy": 7497,
      "Ġpatronal": 7498,
      "Ġbh": 7499,
      "Ġpoliticos": 7500,
      "Ġnascimento": 7501,
      "Ġaberta": 7502,
      "Ġsolidariedade": 7503,
      "Ġinvestigacoes": 7504,
      "51": 7505,
      "Ġextincao": 7506,
      "Ġog": 7507,
      "Ġsubsidios": 7508,
      "Ġconferidos": 7509,
      "Õ¥Õ": 7510,
      "Ġ219": 7511,
      "Ġsatisfaz": 7512,
      "Ġ302": 7513,
      "Ġdescarga": 7514,
      "Ġimagem": 7515,
      "Ġtan": 7516,
      "Ġcontribuinte": 7517,
      "Ġalternativas": 7518,
      "Ð¸Ñı": 7519,
      "Ġ247": 7520,
      "Ġhau": 7521,
      "Ġms": 7522,
      "Ġestabelecem": 7523,
      "Ġimpar": 7524,
      "Ġbur": 7525,
      "fes": 7526,
      "Ġ194": 7527,
      "Î¿ÏĤ": 7528,
      "Ġsiderur": 7529,
      "Ġhipote": 7530,
      "Ġparticipam": 7531,
      "89": 7532,
      "mt": 7533,
      "Ġcompletar": 7534,
      "Ġhidrocarbonetos": 7535,
      "Ġclareza": 7536,
      "Ġprovavel": 7537,
      "Ġ1001": 7538,
      "Ġbancaria": 7539,
      "Ġrequer": 7540,
      "Ġletra": 7541,
      "ntor": 7542,
      "Ġassiste": 7543,
      "Ġpermitira": 7544,
      "Ġassociado": 7545,
      "Ġconstituidas": 7546,
      "Ġsetimo": 7547,
      "Ġretroac": 7548,
      "ladores": 7549,
      "Ġ1973": 7550,
      "Ġexclusivo": 7551,
      "Ġhabitats": 7552,
      "Ġfamilias": 7553,
      "Ġsubsetor": 7554,
      "Ġcompany": 7555,
      "lizadas": 7556,
      "Ġpropostos": 7557,
      "Ġpretenda": 7558,
      "Ġestrangeiras": 7559,
      "Ġindicando": 7560,
      "Ġtributaria": 7561,
      "Ġdisponibilizacao": 7562,
      "Ġcruz": 7563,
      "propi": 7564,
      "Ġposteriores": 7565,
      "Ġdevidas": 7566,
      "tilo": 7567,
      "mal": 7568,
      "Ġinteressada": 7569,
      "Ġjuro": 7570,
      "Ġ335": 7571,
      "Ġhunga": 7572,
      "Ġdesna": 7573,
      "Ġfitofarmaceu": 7574,
      "tc": 7575,
      "Ġ206": 7576,
      "Ġtunis": 7577,
      "peu": 7578,
      "dire": 7579,
      "Ġcare": 7580,
      "Ġtecido": 7581,
      "Ġcontinuidade": 7582,
      "Ġcriada": 7583,
      "Ġprovide": 7584,
      "ley": 7585,
      "Ġsl": 7586,
      "Ġligada": 7587,
      "od": 7588,
      "Ġreplica": 7589,
      "dres": 7590,
      "ficiencias": 7591,
      "Ġsom": 7592,
      "economi": 7593,
      "71": 7594,
      "tr": 7595,
      "Ġconcorda": 7596,
      "Ġpertinencia": 7597,
      "Ġunder": 7598,
      "Ġ288": 7599,
      "Ġsco": 7600,
      "lao": 7601,
      "Ġcomercia": 7602,
      "Ġpart": 7603,
      "Ġtorne": 7604,
      "Ġconsultoria": 7605,
      "Ġmoldavia": 7606,
      "Ġafectacao": 7607,
      "Ġfornecimentos": 7608,
      "Ġdeterio": 7609,
      "Ġliberalizacao": 7610,
      "Ġdiagnos": 7611,
      "Ġoxi": 7612,
      "Ġexternos": 7613,
      "Ġsg": 7614,
      "Ġacerca": 7615,
      "áĥĶ": 7616,
      "Ġperturba": 7617,
      "Ġdifusao": 7618,
      "Ġservir": 7619,
      "Ġdemonstracao": 7620,
      "Ġhidrogenio": 7621,
      "Ġversoes": 7622,
      "Ġlisboa": 7623,
      "ÑĬ": 7624,
      "camento": 7625,
      "Ġaeroportos": 7626,
      "Ġadmitir": 7627,
      "Ġcolheita": 7628,
      "56": 7629,
      "by": 7630,
      "Ġfundamenta": 7631,
      "Ġexperi": 7632,
      "Ġâĸ": 7633,
      "Ġdiscriciona": 7634,
      "Ġaprendizagem": 7635,
      "Ġsodio": 7636,
      "Ġconsideravel": 7637,
      "Ġbaga": 7638,
      "Ġdiplomas": 7639,
      "Ġimediato": 7640,
      "Ġconferir": 7641,
      "Ġsenh": 7642,
      "Ġauditorias": 7643,
      "Ġccp": 7644,
      "Ġsaca": 7645,
      "Ġmemorando": 7646,
      "zz": 7647,
      "Ġpequenos": 7648,
      "Ġproporcionar": 7649,
      "Ġdetalha": 7650,
      "Ġnegligencia": 7651,
      "Ġeuropol": 7652,
      "Ġdemandado": 7653,
      "Ġescape": 7654,
      "Ġimpli": 7655,
      "Ġdespedimento": 7656,
      "mizar": 7657,
      "Ġmultip": 7658,
      "Ġoportuno": 7659,
      "Ġsystem": 7660,
      "Ġsho": 7661,
      "Ġ260": 7662,
      "Ġrou": 7663,
      "Ġconfirmou": 7664,
      "Ġjorda": 7665,
      "Ġinformara": 7666,
      "Ġtomados": 7667,
      "Ġ191": 7668,
      "Ġcouncil": 7669,
      "Ġafetar": 7670,
      "Ġmarti": 7671,
      "Ġprecisar": 7672,
      "Ġinjustifica": 7673,
      "Ġ240": 7674,
      "Ġintegrada": 7675,
      "Ġlote": 7676,
      "chan": 7677,
      "Ġilegais": 7678,
      "Ġindirectamente": 7679,
      "Ġazeite": 7680,
      "Ġcausados": 7681,
      "Ġaprove": 7682,
      "Ġfinanci": 7683,
      "Ġparagrafos": 7684,
      "Ġ193": 7685,
      "Ġseccoes": 7686,
      "Ġjuridicamente": 7687,
      "Ġenvolvidas": 7688,
      "Ġaguar": 7689,
      "Ġprogramme": 7690,
      "Ġsucursais": 7691,
      "Ġanexa": 7692,
      "Ġdenominado": 7693,
      "Ġfea": 7694,
      "Ġ212": 7695,
      "Ġtecnologica": 7696,
      "Ġincapa": 7697,
      "Ġcontrole": 7698,
      "Ġ186": 7699,
      "Ġcontenha": 7700,
      "Ġmanti": 7701,
      "Ġeurostat": 7702,
      "Ġsemanas": 7703,
      "Ġfilho": 7704,
      "Ġselva": 7705,
      "Ġanali": 7706,
      "Ġzo": 7707,
      "facao": 7708,
      "Ġoi": 7709,
      "Ġvice": 7710,
      "Ġprovo": 7711,
      "Ġcilin": 7712,
      "Ġbaseados": 7713,
      "Ġcomparavel": 7714,
      "Ġinfrin": 7715,
      "Ġconsultor": 7716,
      "Ġsobe": 7717,
      "Ġdc": 7718,
      "Ġinteri": 7719,
      "Ġpatentes": 7720,
      "Ġestrategias": 7721,
      "Ġdito": 7722,
      "Ġmana": 7723,
      "Ġdecision": 7724,
      "Ġfavoraveis": 7725,
      "Ġclimaticas": 7726,
      "Ġcaixas": 7727,
      "ĠÐ¸": 7728,
      "Ġeuropeenne": 7729,
      "Ġedulco": 7730,
      "Ġmandado": 7731,
      "Ġrevogado": 7732,
      "Ġtechno": 7733,
      "Ġsegre": 7734,
      "Ġindireta": 7735,
      "Ġinserido": 7736,
      "Ġregulation": 7737,
      "Ġconcepcao": 7738,
      "Ġkw": 7739,
      "Ġrenta": 7740,
      "Ġterreno": 7741,
      "Ġconcorrencial": 7742,
      "Ġassistido": 7743,
      "Ġpermitido": 7744,
      "Ġabsor": 7745,
      "Ġouvido": 7746,
      "Ġindicios": 7747,
      "Ġgovernacao": 7748,
      "Ġreconheceu": 7749,
      "Ġsegue": 7750,
      "gesetz": 7751,
      "Ġdecimais": 7752,
      "Ġcis": 7753,
      "Ġ268": 7754,
      "Ġarvo": 7755,
      "Ġ848": 7756,
      "Ġmundo": 7757,
      "Ġdireto": 7758,
      "Ġconfigu": 7759,
      "Ġ183": 7760,
      "Ġluzes": 7761,
      "Ġvalorizacao": 7762,
      "Ġdr": 7763,
      "Ġ2208": 7764,
      "Ġcivis": 7765,
      "ÑģÑĤ": 7766,
      "son": 7767,
      "Ġalfande": 7768,
      "reira": 7769,
      "Ġdemas": 7770,
      "Ġtermina": 7771,
      "Ġatmos": 7772,
      "Ġnucleares": 7773,
      "Ġseparadamente": 7774,
      "Ġmontene": 7775,
      "Ġsubalinea": 7776,
      "tter": 7777,
      "nais": 7778,
      "dou": 7779,
      "Ġcoli": 7780,
      "Ġvendidos": 7781,
      "Ġtitula": 7782,
      "Ġapresentara": 7783,
      "Ġfato": 7784,
      "Ġcolectavel": 7785,
      "Ġanalises": 7786,
      "Ġacumulacao": 7787,
      "Ġdiscu": 7788,
      "Ġlegitimo": 7789,
      "Ġcriados": 7790,
      "Ġsensiveis": 7791,
      "Ġgarantida": 7792,
      "Ġcasca": 7793,
      "Ġdocumentbreak": 7794,
      "Ġduplica": 7795,
      "Ġidentico": 7796,
      "Ġmovimentos": 7797,
      "Ġjapon": 7798,
      "Ġconvite": 7799,
      "Ġnormalizacao": 7800,
      "Ġtidos": 7801,
      "Ġremessa": 7802,
      "Ġpad": 7803,
      "Ġintensi": 7804,
      "Ġespiri": 7805,
      "Ġpuder": 7806,
      "Ġcessa": 7807,
      "Ġresultam": 7808,
      "Ġexac": 7809,
      "Ġjean": 7810,
      "Ġprecios": 7811,
      "Ġrevelou": 7812,
      "Ġappli": 7813,
      "Ġmargens": 7814,
      "partes": 7815,
      "gico": 7816,
      "Ġdesenvolvidas": 7817,
      "trem": 7818,
      "Ġ5208": 7819,
      "ferir": 7820,
      "Ġcumpridos": 7821,
      "Ġdesafios": 7822,
      "vando": 7823,
      "Ġ236": 7824,
      "Ġarrenda": 7825,
      "Ġdisciplinar": 7826,
      "Ġtaric": 7827,
      "Ġnominal": 7828,
      "Ġprecau": 7829,
      "Ġxa": 7830,
      "Ġcle": 7831,
      "Ġfiacao": 7832,
      "Ġpiloto": 7833,
      "Ġdelegacoes": 7834,
      "Ġobtida": 7835,
      "Ġimportado": 7836,
      "Ġetat": 7837,
      "Ġalinha": 7838,
      "Ġdadas": 7839,
      "pendi": 7840,
      "Ġsalvaguar": 7841,
      "Ġfla": 7842,
      "Ġatribui": 7843,
      "Ġtetra": 7844,
      "Ġangu": 7845,
      "Ġpublicados": 7846,
      "Ġpersonal": 7847,
      "Ġassegurada": 7848,
      "Ġapuramento": 7849,
      "nant": 7850,
      "Ġmediterra": 7851,
      "Ġrodoviarios": 7852,
      "Ġchamado": 7853,
      "Ġremuneracoes": 7854,
      "Ġwhich": 7855,
      "Ġfaze": 7856,
      "Ġconcluidos": 7857,
      "Ġexamin": 7858,
      "quel": 7859,
      "Ġmodificacoes": 7860,
      "Ġapoiada": 7861,
      "Ġaumentos": 7862,
      "Ġincer": 7863,
      "Ġplaneamento": 7864,
      "Ġup": 7865,
      "Ġagro": 7866,
      "Ġraad": 7867,
      "Ġperson": 7868,
      "Ġaconse": 7869,
      "Ġconsor": 7870,
      "sani": 7871,
      "Ġsimbo": 7872,
      "jar": 7873,
      "Ġmay": 7874,
      "clos": 7875,
      "fc": 7876,
      "Ġcomparti": 7877,
      "Ġ259": 7878,
      "Ġpreparadas": 7879,
      "ÖĢ": 7880,
      "Ġline": 7881,
      "Ġneerlandesa": 7882,
      "Ġprosse": 7883,
      "Ġrejeitado": 7884,
      "Ġcapitao": 7885,
      "Ġafectados": 7886,
      "Ġraciocinio": 7887,
      "nados": 7888,
      "gracao": 7889,
      "Ġcode": 7890,
      "Ġcompromete": 7891,
      "Ġacordado": 7892,
      "Ġfundamentada": 7893,
      "Ġassinada": 7894,
      "Ġwi": 7895,
      "Ġhamb": 7896,
      "Ġfinanz": 7897,
      "Ġmensagem": 7898,
      "Ġsangue": 7899,
      "Ġexcelencia": 7900,
      "Ġaeronave": 7901,
      "900": 7902,
      "anhas": 7903,
      "chet": 7904,
      "Ġinformation": 7905,
      "Ġcalculados": 7906,
      "Ġ511": 7907,
      "Ġtomarao": 7908,
      "Ġpente": 7909,
      "Ġtratamentos": 7910,
      "gnes": 7911,
      "enda": 7912,
      "Ġposta": 7913,
      "tante": 7914,
      "Ġ280": 7915,
      "Ġcobrados": 7916,
      "Ġculturais": 7917,
      "Ġconjugado": 7918,
      "Ġ420": 7919,
      "Ġoperam": 7920,
      "Ġtemporarios": 7921,
      "Ġfiche": 7922,
      "Ġfolha": 7923,
      "Ġip": 7924,
      "Ġviet": 7925,
      "Ġfilamentos": 7926,
      "Ġfuturos": 7927,
      "Ġdizer": 7928,
      "Ġacumula": 7929,
      "Ġjur": 7930,
      "Ġexercidas": 7931,
      "Ġ233": 7932,
      "Ġimparcial": 7933,
      "Ġindeferiu": 7934,
      "Ġdd": 7935,
      "Ġescola": 7936,
      "Ġsie": 7937,
      "Ġirregular": 7938,
      "Ġ442": 7939,
      "Ġsuprimido": 7940,
      "Ġsc": 7941,
      "Ġ203": 7942,
      "Ġhigie": 7943,
      "Ġreite": 7944,
      "life": 7945,
      "Ġmontenegro": 7946,
      "Ġedicao": 7947,
      "Ġordenamento": 7948,
      "Ġinalterado": 7949,
      "Ġdci": 7950,
      "Ġmobilizacao": 7951,
      "Ġempreita": 7952,
      "Ġnle": 7953,
      "Ġcausalidade": 7954,
      "lome": 7955,
      "Ġprogresso": 7956,
      "Ġtivessem": 7957,
      "Ġincentivo": 7958,
      "Ġvoos": 7959,
      "Ġpresidentes": 7960,
      "ye": 7961,
      "Ġlivro": 7962,
      "Ġdedu": 7963,
      "Ġmenores": 7964,
      "Ġdesempenhar": 7965,
      "lor": 7966,
      "Ġaconselha": 7967,
      "Ġpdf": 7968,
      "Ġracional": 7969,
      "rensa": 7970,
      "Ġimportadas": 7971,
      "Ġ251": 7972,
      "Ġocide": 7973,
      "onica": 7974,
      "Ġaudiovis": 7975,
      "Ġhaver": 7976,
      "Ġlevanta": 7977,
      "Ġprobabilidade": 7978,
      "Ġespiritu": 7979,
      "Ġsubstancialmente": 7980,
      "wor": 7981,
      "kel": 7982,
      "Ġparticipante": 7983,
      "Ġinve": 7984,
      "Ġpol": 7985,
      "Ġ496": 7986,
      "radores": 7987,
      "Ġmencoes": 7988,
      "Ġlaboratorio": 7989,
      "Ġimprensa": 7990,
      "Ġbeterra": 7991,
      "Ġfemin": 7992,
      "bl": 7993,
      "Ġconstituia": 7994,
      "Ġdade": 7995,
      "Ġimpossibilidade": 7996,
      "Ġindicador": 7997,
      "Ġsau": 7998,
      "Ġnela": 7999,
      "Ġcb": 8000,
      "Ġproximo": 8001,
      "Ġhet": 8002,
      "Ġedulcorantes": 8003,
      "Ġpreventi": 8004,
      "Ġdescritos": 8005,
      "Ġcopias": 8006,
      "ĠÐ½Ð°": 8007,
      "pte": 8008,
      "Ġgeorgia": 8009,
      "rea": 8010,
      "ĠdomicÄ±": 8011,
      "Ġvietna": 8012,
      "Ġilimitada": 8013,
      "lam": 8014,
      "Ġdistri": 8015,
      "Ġtribunale": 8016,
      "fac": 8017,
      "Ġviabilidade": 8018,
      "bru": 8019,
      "Ġeletronicos": 8020,
      "Ġusu": 8021,
      "Ġafirmou": 8022,
      "Ġns": 8023,
      "Ġvence": 8024,
      "Ġarmador": 8025,
      "Ġconselhoo": 8026,
      "Ġreunidas": 8027,
      "blis": 8028,
      "Ġentregue": 8029,
      "Ġ318": 8030,
      "Ġfaca": 8031,
      "Ġrecicla": 8032,
      "Ġdaquele": 8033,
      "Ġgrone": 8034,
      "Ġentrado": 8035,
      "Ġstato": 8036,
      "Ġcatalo": 8037,
      "Ġpostais": 8038,
      "Ġempregado": 8039,
      "Ġreceita": 8040,
      "Ġtidas": 8041,
      "Ġdespedimentos": 8042,
      "Ġmodos": 8043,
      "Ġligas": 8044,
      "Ġconcerne": 8045,
      "Ġenviou": 8046,
      "Ġont": 8047,
      "Ġpneuma": 8048,
      "Ġvulne": 8049,
      "Ġcampanhas": 8050,
      "Ġ659": 8051,
      "Ġfundamentar": 8052,
      "Ġexperiencias": 8053,
      "Ġ216": 8054,
      "Ġoner": 8055,
      "Ġsubscri": 8056,
      "Ġsenhor": 8057,
      "Ġaplicabilidade": 8058,
      "Ġ290": 8059,
      "Ġproduzida": 8060,
      "Ġisentos": 8061,
      "Ġsucursal": 8062,
      "Ġadiante": 8063,
      "Ġapreciada": 8064,
      "Ġ296": 8065,
      "Ġcontestar": 8066,
      "Ġdinamarques": 8067,
      "Ġdif": 8068,
      "ficas": 8069,
      "Ġ305": 8070,
      "Ġsociete": 8071,
      "Ġuniversidade": 8072,
      "ĠdomicÄ±lio": 8073,
      "produ": 8074,
      "Ġunilate": 8075,
      "Ġbarris": 8076,
      "Ġcaderno": 8077,
      "vs": 8078,
      "Ġacessiveis": 8079,
      "Ġconcertacao": 8080,
      "Ġfornecido": 8081,
      "Ġinterpretar": 8082,
      "Ġnegativo": 8083,
      "Ġ256": 8084,
      "Ġfree": 8085,
      "Ġbranqueamento": 8086,
      "Ġlaminados": 8087,
      "Ġ1970": 8088,
      "Ġpermitindo": 8089,
      "Ġarticles": 8090,
      "Ġprevale": 8091,
      "Ġ444": 8092,
      "Ġ1000": 8093,
      "Ġautres": 8094,
      "Ġtutela": 8095,
      "9000": 8096,
      "Ġestudantes": 8097,
      "tic": 8098,
      "Ġinteriores": 8099,
      "Ġovos": 8100,
      "fil": 8101,
      "Ġterrenos": 8102,
      "Ġadoptara": 8103,
      "Ġilicito": 8104,
      "Ġ257": 8105,
      "Ġvotos": 8106,
      "Ġfornecida": 8107,
      "Ġ232": 8108,
      "Ġrepercus": 8109,
      "orga": 8110,
      "Ġrejeitar": 8111,
      "Ġbovinos": 8112,
      "Ġconjuge": 8113,
      "Ġcontida": 8114,
      "Ġvero": 8115,
      "Ġ297": 8116,
      "Ġconvenci": 8117,
      "lem": 8118,
      "Ġrevogada": 8119,
      "Ġincompativeis": 8120,
      "erra": 8121,
      "Ġempresarial": 8122,
      "Ġacessorias": 8123,
      "Ġxii": 8124,
      "van": 8125,
      "Ġlimpe": 8126,
      "Ġcens": 8127,
      "Ġpoluentes": 8128,
      "Ġchamada": 8129,
      "Ġgrego": 8130,
      "Ġenvolvidos": 8131,
      "Ġocorrer": 8132,
      "Ġtrabalhar": 8133,
      "Ġmensagens": 8134,
      "Ġfitossani": 8135,
      "Ġqueixa": 8136,
      "Ġpuramente": 8137,
      "Ġcomprovativos": 8138,
      "Ġestatisticos": 8139,
      "Ġhonra": 8140,
      "Ġresiduais": 8141,
      "ulso": 8142,
      "Ġreduzidos": 8143,
      "Ġprossecucao": 8144,
      "Ġantigo": 8145,
      "Ġparticipou": 8146,
      "sidade": 8147,
      "Ġadquirente": 8148,
      "Ġtue": 8149,
      "Ġvotacao": 8150,
      "ĠÐ´": 8151,
      "Ġexpedi": 8152,
      "Ġreciproca": 8153,
      "Ġpudesse": 8154,
      "Ġcausar": 8155,
      "Ġ6204": 8156,
      "Ġatlantico": 8157,
      "Ġseda": 8158,
      "Ġcone": 8159,
      "Ġregularidade": 8160,
      "Ġconceitos": 8161,
      "Ġinvestidor": 8162,
      "Ġtype": 8163,
      "Ġobede": 8164,
      "Ġtexti": 8165,
      "Ġministerial": 8166,
      "Ġexportados": 8167,
      "Ġjusticea": 8168,
      "Ġmultilaterais": 8169,
      "Ġoeste": 8170,
      "Ġpreparar": 8171,
      "Ġverwaltungs": 8172,
      "Ġhouver": 8173,
      "Ġcapoe": 8174,
      "Ġacrescentar": 8175,
      "Ġfarmaceuticos": 8176,
      "Ġproduits": 8177,
      "Ġseca": 8178,
      "fen": 8179,
      "Ġmuitas": 8180,
      "Ġtocante": 8181,
      "licose": 8182,
      "Ġlarga": 8183,
      "Ġcodificacao": 8184,
      "Ġlimpeza": 8185,
      "vid": 8186,
      "Ġembarque": 8187,
      "Ġ7208": 8188,
      "Ġsoft": 8189,
      "Ġcapoeira": 8190,
      "Ġrolos": 8191,
      "Ġpressupoe": 8192,
      "Ġetre": 8193,
      "pado": 8194,
      "Ġqualificado": 8195,
      "Ġrevisto": 8196,
      "Ġtransacao": 8197,
      "gnacao": 8198,
      "Ġutilizam": 8199,
      "Ġpraticados": 8200,
      "Ġwill": 8201,
      "Ġtransacoes": 8202,
      "Ġwest": 8203,
      "Ġinpu": 8204,
      "Ġ308": 8205,
      "Ġcongelamento": 8206,
      "Ġestritamente": 8207,
      "Ġpacote": 8208,
      "Ġmissoes": 8209,
      "xida": 8210,
      "Ġestada": 8211,
      "meros": 8212,
      "alth": 8213,
      "Ġbaca": 8214,
      "Ġfedera": 8215,
      "Ġordenar": 8216,
      "ats": 8217,
      "Ġimpedi": 8218,
      "Ġ229": 8219,
      "Ġunani": 8220,
      "bia": 8221,
      "Ġinstancias": 8222,
      "Ġnq": 8223,
      "Ġsecas": 8224,
      "mbu": 8225,
      "Ġartificial": 8226,
      "Ġprorrogado": 8227,
      "ulsao": 8228,
      "Ġcomes": 8229,
      "Ġcomunicada": 8230,
      "bes": 8231,
      "Ġpha": 8232,
      "ÑĨ": 8233,
      "Ġlivremente": 8234,
      "Ġfinanciados": 8235,
      "Ġpeli": 8236,
      "Ġsobrevi": 8237,
      "áĥĺ": 8238,
      "tern": 8239,
      "Ġrege": 8240,
      "onancia": 8241,
      "Ġflorestas": 8242,
      "Ġincluida": 8243,
      "Ġportua": 8244,
      "Ġsubcomite": 8245,
      "Ġponderacao": 8246,
      "Ġhas": 8247,
      "Ġsituados": 8248,
      "Ġ258": 8249,
      "Ġtechni": 8250,
      "ward": 8251,
      "Ġmetil": 8252,
      "ĠâĢ²": 8253,
      "Ġadequacao": 8254,
      "Ġulterior": 8255,
      "Ġ1974": 8256,
      "Ġtransmitidos": 8257,
      "Ġpossuir": 8258,
      "Ġtudo": 8259,
      "Ġarran": 8260,
      "Ġoffice": 8261,
      "ntario": 8262,
      "Ġcontrovertidas": 8263,
      "Ġexplicacao": 8264,
      "Ġvertical": 8265,
      "Ġreadmissao": 8266,
      "Ġcrimes": 8267,
      "Ġ5407": 8268,
      "Ġratificacao": 8269,
      "Ġpedacos": 8270,
      "Ġdilu": 8271,
      "Ġrecep": 8272,
      "Ġconhecido": 8273,
      "Ġiss": 8274,
      "Ġautores": 8275,
      "Ġdirectos": 8276,
      "Ġcurta": 8277,
      "Ġenviada": 8278,
      "Ġirreleva": 8279,
      "Ġcontencioso": 8280,
      "Ġindones": 8281,
      "Ġ227": 8282,
      "Ġ450": 8283,
      "Ġfri": 8284,
      "Ġcompreendidos": 8285,
      "Ġnutri": 8286,
      "Ġultrapassar": 8287,
      "Ġire": 8288,
      "Ġpormenorizada": 8289,
      "Ð±": 8290,
      "Ġsilva": 8291,
      "Ġ384": 8292,
      "Ġpermanece": 8293,
      "Ġleal": 8294,
      "cker": 8295,
      "Ġmetali": 8296,
      "Ġrever": 8297,
      "Ġpossibili": 8298,
      "mbre": 8299,
      "ndido": 8300,
      "Ġ278": 8301,
      "Ġperspectivas": 8302,
      "Ġexigem": 8303,
      "Ġ319": 8304,
      "Ġiniciado": 8305,
      "Ġarras": 8306,
      "Ġprimeiras": 8307,
      "Ġperigosos": 8308,
      "phe": 8309,
      "Ġimplicar": 8310,
      "Ġalme": 8311,
      "Ġtratando": 8312,
      "Ġseguido": 8313,
      "Ġprocedu": 8314,
      "Ġhouve": 8315,
      "Ġps": 8316,
      "Ġ241": 8317,
      "Ġcomporta": 8318,
      "Ġalcoolico": 8319,
      "Ġasseguram": 8320,
      "Ġimplementa": 8321,
      "Ġparticulas": 8322,
      "Ġjustificam": 8323,
      "Ġindemniza": 8324,
      "Ġformuladas": 8325,
      "Ġalimenticias": 8326,
      "zen": 8327,
      "Ġconcentration": 8328,
      "Ġamor": 8329,
      "Ġcomeca": 8330,
      "Ġinglesa": 8331,
      "Ġpude": 8332,
      "Ġanalisa": 8333,
      "Ġpodido": 8334,
      "Ġcidade": 8335,
      "Ġaquicultura": 8336,
      "fiquem": 8337,
      "Ġmorte": 8338,
      "Ġpopulacoes": 8339,
      "mbia": 8340,
      "ÃŁ": 8341,
      "Ġjai": 8342,
      "Ġtesou": 8343,
      "Ġmaritimas": 8344,
      "Ġexplicacoes": 8345,
      "Ġrejeicao": 8346,
      "Ġmit": 8347,
      "Ġtt": 8348,
      "Ġdecre": 8349,
      "Ġrefi": 8350,
      "Ġfed": 8351,
      "onato": 8352,
      "Ġpesquisa": 8353,
      "Ġbacalha": 8354,
      "Ġapresentarem": 8355,
      "Ġtomara": 8356,
      "Ġ2025": 8357,
      "Ġ279": 8358,
      "Ġpreenchidos": 8359,
      "Ġlicenciamento": 8360,
      "hire": 8361,
      "Ġartis": 8362,
      "Ġprecedente": 8363,
      "Ġexistia": 8364,
      "missoes": 8365,
      "Ġretalh": 8366,
      "Ġdesembarque": 8367,
      "ntil": 8368,
      "Ġagrava": 8369,
      "Ġconfirmada": 8370,
      "Ġtradicional": 8371,
      "tan": 8372,
      "Ġindirecta": 8373,
      "Ġreca": 8374,
      "Ġexistam": 8375,
      "Ġconstitucionais": 8376,
      "Ġaperfeicoamento": 8377,
      "gola": 8378,
      "Ġprestadas": 8379,
      "Ġinterli": 8380,
      "turados": 8381,
      "Ġcarlos": 8382,
      "Ġautomovel": 8383,
      "Ġconexao": 8384,
      "licos": 8385,
      "Ġconselhos": 8386,
      "get": 8387,
      "Ġsignificativos": 8388,
      "drid": 8389,
      "Ġinerentes": 8390,
      "Ġconstar": 8391,
      "Ġdenun": 8392,
      "Ġ343": 8393,
      "Õ¸Õ": 8394,
      "Ġlandes": 8395,
      "Ġchemical": 8396,
      "Ġpadrao": 8397,
      "Ġviolado": 8398,
      "Ġsolu": 8399,
      "Ġproibido": 8400,
      "Ġelectricos": 8401,
      "Ġgri": 8402,
      "Ġaustra": 8403,
      "rup": 8404,
      "Ġconcentrados": 8405,
      "Ġabusiva": 8406,
      "Ġarchi": 8407,
      "Ġenviron": 8408,
      "Ġrepresentar": 8409,
      "Ġimposicoes": 8410,
      "Ġ295": 8411,
      "Ġpero": 8412,
      "tex": 8413,
      "Ġquente": 8414,
      "Ġcitado": 8415,
      "Ġbalanco": 8416,
      "Ġharmonizadas": 8417,
      "Ġelectronica": 8418,
      "mc": 8419,
      "Ġviolacoes": 8420,
      "Ġmodernizacao": 8421,
      "ĠÐ¾": 8422,
      "Ġkirch": 8423,
      "Ġindeter": 8424,
      "Ġ328": 8425,
      "Ġverificada": 8426,
      "Ġdeclaradas": 8427,
      "Ġdistintas": 8428,
      "nharia": 8429,
      "Ġnitra": 8430,
      "Ġtiras": 8431,
      "Ġenergetico": 8432,
      "Ġconflitos": 8433,
      "Ġitine": 8434,
      "Ġhy": 8435,
      "alizar": 8436,
      "Ġfronteiri": 8437,
      "Ġ0304": 8438,
      "Ġoferecer": 8439,
      "Ġsituada": 8440,
      "Ġcamaras": 8441,
      "propileno": 8442,
      "Ġrevelar": 8443,
      "Ġdistorcoes": 8444,
      "lli": 8445,
      "Ġ1702": 8446,
      "Ġhomologado": 8447,
      "Ġcombater": 8448,
      "Ġxxi": 8449,
      "Ġreforca": 8450,
      "Ġdetec": 8451,
      "Ġpronuncia": 8452,
      "Ġmet": 8453,
      "Ġmarinho": 8454,
      "Ġoste": 8455,
      "Ġficar": 8456,
      "ells": 8457,
      "onora": 8458,
      "ficada": 8459,
      "ming": 8460,
      "Ġestadu": 8461,
      "Ġrecusou": 8462,
      "Ġanulado": 8463,
      "Ġdurado": 8464,
      "Ġarme": 8465,
      "Ġengenharia": 8466,
      "Ġflorestais": 8467,
      "regula": 8468,
      "Ġproponente": 8469,
      "Ġdistinguir": 8470,
      "Ġrecusado": 8471,
      "Ġapreen": 8472,
      "Ġpreservacao": 8473,
      "Ġ090": 8474,
      "Ġbaseadas": 8475,
      "Ġomi": 8476,
      "tantes": 8477,
      "fim": 8478,
      "Ġconfirmacao": 8479,
      "Ġcorro": 8480,
      "sio": 8481,
      "Ġconcorrente": 8482,
      "Ġfern": 8483,
      "Ġturis": 8484,
      "fal": 8485,
      "Ġextracontra": 8486,
      "Ġcomestiveis": 8487,
      "dal": 8488,
      "dies": 8489,
      "Ġestrangeira": 8490,
      "Ġincorporado": 8491,
      "Ġpreocupa": 8492,
      "Ġsoftware": 8493,
      "Ġcorantes": 8494,
      "rinos": 8495,
      "Ġdesca": 8496,
      "rizar": 8497,
      "Ġdili": 8498,
      "Ġapresentem": 8499,
      "dadas": 8500,
      "aria": 8501,
      "lato": 8502,
      "Ġrequerer": 8503,
      "anexo": 8504,
      "Ġfrancesas": 8505,
      "ple": 8506,
      "Ġconsonancia": 8507,
      "Ġservia": 8508,
      "Ġperfis": 8509,
      "Ġcompensar": 8510,
      "Ġescalao": 8511,
      "Ð¿": 8512,
      "cade": 8513,
      "taram": 8514,
      "Ġcientificas": 8515,
      "Ġsustentam": 8516,
      "Ġactua": 8517,
      "Ġ269": 8518,
      "teur": 8519,
      "Ġexplos": 8520,
      "Ġcabeca": 8521,
      "Ġ289": 8522,
      "Ġwei": 8523,
      "Ġxxx": 8524,
      "Ġdemasiado": 8525,
      "nil": 8526,
      "Ġvene": 8527,
      "Ġpolipropileno": 8528,
      "Ġbruta": 8529,
      "Ġvendedor": 8530,
      "Ġcarca": 8531,
      "Ġpreciso": 8532,
      "Ġcento": 8533,
      "Ġsemana": 8534,
      "agem": 8535,
      "Ġdeutsch": 8536,
      "Ġcruza": 8537,
      "Ġpatrimoni": 8538,
      "ek": 8539,
      "Ġquantias": 8540,
      "Ġeconomias": 8541,
      "Ġexpressos": 8542,
      "sores": 8543,
      "tira": 8544,
      "Ġmy": 8545,
      "Ġregistar": 8546,
      "Ġdirectrizes": 8547,
      "Ġinstitucionais": 8548,
      "ceos": 8549,
      "Ġestimativas": 8550,
      "Ġtunisia": 8551,
      "Ġparalelo": 8552,
      "Ġexpan": 8553,
      "cencia": 8554,
      "Ġfuturas": 8555,
      "Ġcrimin": 8556,
      "Ġcontemp": 8557,
      "Ġmadrid": 8558,
      "Ġinscritos": 8559,
      "Ġtransparente": 8560,
      "Ġcarteira": 8561,
      "Ġconformement": 8562,
      "Ġprosseguidos": 8563,
      "Ġplus": 8564,
      "Ġlim": 8565,
      "Ġ`": 8566,
      "Ġmuitos": 8567,
      "Ġspeci": 8568,
      "Ġfeno": 8569,
      "Ġ252": 8570,
      "Ġquestionario": 8571,
      "Ġtaci": 8572,
      "mendas": 8573,
      "rose": 8574,
      "ÑĤÐµ": 8575,
      "Ġafastar": 8576,
      "Ġdeslocacao": 8577,
      "Ġnederland": 8578,
      "ind": 8579,
      "Ġ238": 8580,
      "Ġnotar": 8581,
      "Ġ255": 8582,
      "Ġnotacao": 8583,
      "Ġplacas": 8584,
      "rol": 8585,
      "Ġparties": 8586,
      "Ġdistintos": 8587,
      "Ġelectronico": 8588,
      "Ġprevisao": 8589,
      "trina": 8590,
      "Ġdesenvolvidos": 8591,
      "Ġcores": 8592,
      "Ġ321": 8593,
      "Ġhabitacao": 8594,
      "tios": 8595,
      "Ġpassapor": 8596,
      "Ġapplication": 8597,
      "Ġprocurar": 8598,
      "timidade": 8599,
      "Ġiniciais": 8600,
      "Ġ271": 8601,
      "Ġsubsequentes": 8602,
      "rme": 8603,
      "Ġaesa": 8604,
      "Ġsimplificar": 8605,
      "Ġepoca": 8606,
      "Ġlimiares": 8607,
      "Ġ285": 8608,
      "Ġprefe": 8609,
      "Ġsubord": 8610,
      "Ġauditor": 8611,
      "Ġacordaram": 8612,
      "Ġassumidos": 8613,
      "Ġfax": 8614,
      "lt": 8615,
      "Ġhorizonte": 8616,
      "Ġalojamento": 8617,
      "Ġigni": 8618,
      "Ġvari": 8619,
      "Ġconferido": 8620,
      "Ġpublicar": 8621,
      "Ġpermanentes": 8622,
      "Ġboni": 8623,
      "Ġextractos": 8624,
      "Ġstra": 8625,
      "Ġcamin": 8626,
      "Ġdor": 8627,
      "Ġgracas": 8628,
      "Ġeslovaquia": 8629,
      "Ġâī": 8630,
      "Ġhabilitada": 8631,
      "Ġ2024": 8632,
      "tizacoes": 8633,
      "Ġbeterraba": 8634,
      "Ġexpostas": 8635,
      "Ġdiversidade": 8636,
      "Ġ317": 8637,
      "Ġami": 8638,
      "Ġ282": 8639,
      "Ġtransmitidas": 8640,
      "Ġstu": 8641,
      "Ġnio": 8642,
      "enes": 8643,
      "Ġcumprido": 8644,
      "js": 8645,
      "Ġcomissoes": 8646,
      "Ġ710": 8647,
      "Ġsubcontra": 8648,
      "Ġnegou": 8649,
      "Ġpreocupacao": 8650,
      "Ġbou": 8651,
      "br": 8652,
      "guem": 8653,
      "Ġelegivel": 8654,
      "Ġsubz": 8655,
      "Ð²Ð°": 8656,
      "Ġonu": 8657,
      "micos": 8658,
      "Ġvapor": 8659,
      "ãĥ": 8660,
      "vera": 8661,
      "Ġinformados": 8662,
      "Ġpostal": 8663,
      "Ġjustificado": 8664,
      "00000": 8665,
      "rat": 8666,
      "Ġpescar": 8667,
      "Ġreconhecidas": 8668,
      "Ġemitiu": 8669,
      "Ġbacalhau": 8670,
      "Ġpreservar": 8671,
      "Ġestrutural": 8672,
      "Ġautonomos": 8673,
      "Ġjudiciario": 8674,
      "Ġdiagnostico": 8675,
      "Ġpequeno": 8676,
      "Ġmaurita": 8677,
      "rance": 8678,
      "Ġassociada": 8679,
      "lador": 8680,
      "Ġdeficiencias": 8681,
      "Ġintensidade": 8682,
      "cci": 8683,
      "Ġconstatacao": 8684,
      "Ġjann": 8685,
      "Ġintroduzidos": 8686,
      "ivos": 8687,
      "lich": 8688,
      "Ġdetem": 8689,
      "Ġacade": 8690,
      "cka": 8691,
      "Ġatuais": 8692,
      "Ġxiii": 8693,
      "Ġcambio": 8694,
      "Ġappro": 8695,
      "Ġapropriado": 8696,
      "Ġobjectos": 8697,
      "Ġautonomo": 8698,
      "Ġcondicional": 8699,
      "Ġsti": 8700,
      "Ġgon": 8701,
      "Ġequitativo": 8702,
      "Ġpormenorizadas": 8703,
      "Ġdeco": 8704,
      "rique": 8705,
      "uld": 8706,
      "Ġ404": 8707,
      "Ġrelacionado": 8708,
      "udos": 8709,
      "Ġrespondeu": 8710,
      "von": 8711,
      "Ġvizin": 8712,
      "Ġfraccoes": 8713,
      "Ġremeter": 8714,
      "dus": 8715,
      "fato": 8716,
      "Ġfavorecer": 8717,
      "dez": 8718,
      "chus": 8719,
      "pira": 8720,
      "Ġtratadas": 8721,
      "Ġ275": 8722,
      "ouris": 8723,
      "Ġorganicos": 8724,
      "Ġvegetal": 8725,
      "Ġsublinhou": 8726,
      "Ġrenuncia": 8727,
      "Ġtenciona": 8728,
      "tto": 8729,
      "usos": 8730,
      "Ġcontrarias": 8731,
      "Ġtransferidos": 8732,
      "Ġgarantido": 8733,
      "ciando": 8734,
      "Ġajudar": 8735,
      "Ġgul": 8736,
      "Ġdeutschland": 8737,
      "Ġbate": 8738,
      "Ġcaute": 8739,
      "Ġinscrito": 8740,
      "visionamento": 8741,
      "Ġassunto": 8742,
      "Ġtemp": 8743,
      "Ġtransport": 8744,
      "Ġforcas": 8745,
      "Ġexcedam": 8746,
      "Ġdelimi": 8747,
      "Ġfixos": 8748,
      "Ġpenas": 8749,
      "Ġ325": 8750,
      "gner": 8751,
      "Ġ395": 8752,
      "Ġvinte": 8753,
      "Ġadmitindo": 8754,
      "Ġ223": 8755,
      "Ġcomentarios": 8756,
      "Ġsanitaria": 8757,
      "Ġsw": 8758,
      "Ġtripulacao": 8759,
      "Ġextraccao": 8760,
      "Ġmilita": 8761,
      "Ġpositiva": 8762,
      "Ġformular": 8763,
      "Ġparcela": 8764,
      "Ġcaca": 8765,
      "Ġlor": 8766,
      "Ġfundacao": 8767,
      "Ġsuportes": 8768,
      "Ġprecisas": 8769,
      "Ġlimited": 8770,
      "Ġ301": 8771,
      "Ġkra": 8772,
      "Ġaction": 8773,
      "tish": 8774,
      "ixou": 8775,
      "Ġtrate": 8776,
      "Ġacabamento": 8777,
      "Ġobrigadas": 8778,
      "Ġ349": 8779,
      "Ġalcancados": 8780,
      "Ġingredi": 8781,
      "Ġchegada": 8782,
      "Ġassociation": 8783,
      "87": 8784,
      "Ġderam": 8785,
      "Ġvitimas": 8786,
      "Ġesto": 8787,
      "Ġdeveres": 8788,
      "Ġjustice": 8789,
      "Ġassinar": 8790,
      "Ġnavega": 8791,
      "Ġmonetaria": 8792,
      "Ġsiner": 8793,
      "Ġaprovou": 8794,
      "Ġdevo": 8795,
      "Ġinformada": 8796,
      "cientes": 8797,
      "sor": 8798,
      "Ġdime": 8799,
      "Ġformularios": 8800,
      "fon": 8801,
      "Ġalun": 8802,
      "Ġalteradas": 8803,
      "Ġespera": 8804,
[...]
