{
  "version": "1.0",
  "truncation": null,
  "padding": null,
  "added_tokens": [
    {
      "id": 0,
      "content": "<pad>",
      "single_word": false,
      "lstrip": false,
      "rstrip": false,
      "normalized": false,
      "special": true
    },
    {
      "id": 1,
      "content": "<s>",
      "single_word": false,
      "lstrip": false,
      "rstrip": false,
      "normalized": false,
      "special": true
    },
    {
      "id": 2,
      "content": "</s>",
      "single_word": false,
      "lstrip": false,
      "rstrip": false,
      "normalized": false,
      "special": true
    },
    {
      "id": 3,
      "content": "<unk>",
      "single_word": false,
      "lstrip": false,
      "rstrip": false,
      "normalized": false,
      "special": true
    },
    {
      "id": 4,
      "content": "<mask>",
      "single_word": false,
      "lstrip": false,
      "rstrip": false,
      "normalized": false,
      "special": true
    }
  ],
  "normalizer": {
    "type": "Sequence",
    "normalizers": [
      {
        "type": "NFKD"
      },
      {
        "type": "BertNormalizer",
        "clean_text": true,
        "handle_chinese_chars": true,
        "strip_accents": null,
        "lowercase": true
      }
    ]
  },
  "pre_tokenizer": {
    "type": "Sequence",
    "pretokenizers": [
      {
        "type": "BertPreTokenizer"
      },
      {
        "type": "ByteLevel",
        "add_prefix_space": true,
        "trim_offsets": true,
        "use_regex": true
      }
    ]
  },
  "post_processor": {
    "type": "RobertaProcessing",
    "sep": [
      "</s>",
      2
    ],
    "cls": [
      "<s>",
      1
    ],
    "trim_offsets": true,
    "add_prefix_space": true
  },
  "decoder": {
    "type": "ByteLevel",
    "add_prefix_space": true,
    "trim_offsets": true,
    "use_regex": true
  },
  "model": {
    "type": "BPE",
    "dropout": null,
    "unk_token": "<unk>",
    "continuing_subword_prefix": null,
    "end_of_word_suffix": null,
    "fuse_unk": false,
    "vocab": {
      "<pad>": 0,
      "<s>": 1,
      "</s>": 2,
      "<unk>": 3,
      "<mask>": 4,
      "!": 5,
      "\"": 6,
      "#": 7,
      "$": 8,
      "%": 9,
      "&": 10,
      "'": 11,
      "(": 12,
      ")": 13,
      "*": 14,
      "+": 15,
      ",": 16,
      "-": 17,
      ".": 18,
      "/": 19,
      "0": 20,
      "1": 21,
      "2": 22,
      "3": 23,
      "4": 24,
      "5": 25,
      "6": 26,
      "7": 27,
      "8": 28,
      "9": 29,
      ":": 30,
      ";": 31,
      "<": 32,
      "=": 33,
      ">": 34,
      "?": 35,
      "@": 36,
      "[": 37,
      "\\": 38,
      "]": 39,
      "^": 40,
      "_": 41,
      "`": 42,
      "a": 43,
      "b": 44,
      "c": 45,
      "d": 46,
      "e": 47,
      "f": 48,
      "g": 49,
      "h": 50,
      "i": 51,
      "j": 52,
      "k": 53,
      "l": 54,
      "m": 55,
      "n": 56,
      "o": 57,
      "p": 58,
      "q": 59,
      "r": 60,
      "s": 61,
      "t": 62,
      "u": 63,
      "v": 64,
      "w": 65,
      "x": 66,
      "y": 67,
      "z": 68,
      "{": 69,
      "|": 70,
      "}": 71,
      "~": 72,
      "¡": 73,
      "¢": 74,
      "£": 75,
      "¤": 76,
      "¥": 77,
      "¦": 78,
      "§": 79,
      "¨": 80,
      "©": 81,
      "ª": 82,
      "«": 83,
      "¬": 84,
      "®": 85,
      "¯": 86,
      "°": 87,
      "±": 88,
      "²": 89,
      "³": 90,
      "´": 91,
      "µ": 92,
      "¶": 93,
      "·": 94,
      "¸": 95,
      "¹": 96,
      "º": 97,
      "»": 98,
      "¼": 99,
      "½": 100,
      "¾": 101,
      "¿": 102,
      "Â": 103,
      "Ã": 104,
      "Ä": 105,
      "Å": 106,
      "Æ": 107,
      "Ç": 108,
      "É": 109,
      "Ê": 110,
      "Ë": 111,
      "Î": 112,
      "Ï": 113,
      "Ð": 114,
      "Ñ": 115,
      "Ò": 116,
      "Ó": 117,
      "Õ": 118,
      "Ö": 119,
      "Ø": 120,
      "Ù": 121,
      "Ú": 122,
      "Û": 123,
      "ß": 124,
      "à": 125,
      "á": 126,
      "â": 127,
      "ã": 128,
      "ä": 129,
      "å": 130,
      "æ": 131,
      "ç": 132,
      "è": 133,
      "é": 134,
      "ï": 135,
      "ð": 136,
      "Ġ": 137,
      "Ģ": 138,
      "ģ": 139,
      "Ĥ": 140,
      "ĥ": 141,
      "Ħ": 142,
      "ħ": 143,
      "Ĩ": 144,
      "ĩ": 145,
      "Ī": 146,
      "ī": 147,
      "Ĭ": 148,
      "ĭ": 149,
      "Į": 150,
      "į": 151,
      "İ": 152,
      "ı": 153,
      "Ĳ": 154,
      "ĳ": 155,
      "Ĵ": 156,
      "ĵ": 157,
      "Ķ": 158,
      "ķ": 159,
      "ĸ": 160,
      "Ĺ": 161,
      "ĺ": 162,
      "Ļ": 163,
      "ļ": 164,
      "Ľ": 165,
      "ľ": 166,
      "Ŀ": 167,
      "ŀ": 168,
      "Ł": 169,
      "ł": 170,
      "Ń": 171,
      "Ġa": 172,
      "re": 173,
      "in": 174,
      "Ġc": 175,
      "Ġd": 176,
      "Ġs": 177,
      "at": 178,
      "Ġp": 179,
      "ri": 180,
      "Ġde": 181,
      "Ġin": 182,
      "ul": 183,
      "te": 184,
      "Ġ,": 185,
      "ti": 186,
      "le": 187,
      "ta": 188,
      "li": 189,
      "ra": 190,
      "Ġ.": 191,
      "en": 192,
      "or": 193,
      "Ġn": 194,
      "un": 195,
      "are": 196,
      "on": 197,
      "Ġm": 198,
      "Ġe": 199,
      "ca": 200,
      "la": 201,
      "Ġ)": 202,
      "Ġse": 203,
      "Ġ2": 204,
      "ate": 205,
      "Ġ1": 206,
      "Ġ(": 207,
      "ci": 208,
      "Ġf": 209,
      "Ġsi": 210,
      "ce": 211,
      "ui": 212,
      "Ġre": 213,
      "an": 214,
      "Ġnu": 215,
      "ati": 216,
      "Ġâ": 217,
      "Ġca": 218,
      "ĠâĢ": 219,
      "Ġap": 220,
      "Ġcon": 221,
      "Ġal": 222,
      "ro": 223,
      "ent": 224,
      "Ġo": 225,
      "Ġapli": 226,
      "Ġi": 227,
      "Ġt": 228,
      "Ġsa": 229,
      "si": 230,
      "lor": 231,
      "st": 232,
      "om": 233,
      "ar": 234,
      "Ġla": 235,
      "Ġaplica": 236,
      "Ġdin": 237,
      "Ġ-": 238,
      "ru": 239,
      "de": 240,
      "ur": 241,
      "ului": 242,
      "di": 243,
      "er": 244,
      "cti": 245,
      "Ġun": 246,
      "uri": 247,
      "00": 248,
      "ste": 249,
      "ata": 250,
      "Ġcu": 251,
      "Ġ_": 252,
      "ve": 253,
      "Ġar": 254,
      "Ġpre": 255,
      "Ġ/": 256,
      "za": 257,
      "ol": 258,
      "Ġcare": 259,
      "Ġ3": 260,
      "pe": 261,
      "rea": 262,
      "Ġpro": 263,
      "rii": 264,
      "ei": 265,
      "bi": 266,
      "Ġcom": 267,
      "va": 268,
      "Ġce": 269,
      "tate": 270,
      "Ġace": 271,
      "ct": 272,
      "zi": 273,
      "Ġb": 274,
      "vi": 275,
      "mb": 276,
      "fi": 277,
      "se": 278,
      "mi": 279,
      "Ġ0": 280,
      "Ġex": 281,
      "area": 282,
      "Ġpe": 283,
      "entru": 284,
      "Ġpentru": 285,
      "Ġdi": 286,
      "Ġ5": 287,
      "tic": 288,
      "Ġg": 289,
      "du": 290,
      "Ġfi": 291,
      "fe": 292,
      "Ġ:": 293,
      "al": 294,
      "Ġ4": 295,
      "Ġpri": 296,
      "am": 297,
      "sc": 298,
      "Ġne": 299,
      "ara": 300,
      "rin": 301,
      "Ġan": 302,
      "tati": 303,
      "sta": 304,
      "Ġma": 305,
      "Ġartic": 306,
      "ĠâĢĵ": 307,
      "ine": 308,
      "Ġsau": 309,
      "me": 310,
      "lu": 311,
      "ter": 312,
      "Ġ20": 313,
      "ut": 314,
      "Ġim": 315,
      "Ġreg": 316,
      "Ġarticol": 317,
      "tii": 318,
      "une": 319,
      "Ġsu": 320,
      "Ġmo": 321,
      "cat": 322,
      "Ġint": 323,
      "uni": 324,
      "sp": 325,
      "ran": 326,
      "Ġpo": 327,
      "ori": 328,
      "Ġcont": 329,
      "Ġ200": 330,
      "Ġsta": 331,
      "tele": 332,
      "Ġr": 333,
      "Ġ9": 334,
      "Ġ6": 335,
      "Ġj": 336,
      "men": 337,
      "Ġprin": 338,
      "Ġli": 339,
      "Ġme": 340,
      "Ġso": 341,
      "sti": 342,
      "ma": 343,
      "Ġh": 344,
      "Ġregul": 345,
      "Ġ7": 346,
      "Ġeste": 347,
      "ament": 348,
      "Ġpar": 349,
      "Ġl": 350,
      "Ġ8": 351,
      "Ġarticolul": 352,
      "aza": 353,
      "Ġ201": 354,
      "ing": 355,
      "Ġ|": 356,
      "Ġregulament": 357,
      "Ġtre": 358,
      "ord": 359,
      "urs": 360,
      "cu": 361,
      "Ġcre": 362,
      "pt": 363,
      "atul": 364,
      "enti": 365,
      "gi": 366,
      "ini": 367,
      "Ġu": 368,
      "liz": 369,
      "uie": 370,
      "ch": 371,
      "Ġspe": 372,
      "ale": 373,
      "for": 374,
      "Ġri": 375,
      "Ġinter": 376,
      "Ġcomi": 377,
      "Ġimp": 378,
      "rb": 379,
      "Ġco": 380,
      "sa": 381,
      "Ġte": 382,
      "ĠâĢĲ": 383,
      "Ġaf": 384,
      "ura": 385,
      "dit": 386,
      "cie": 387,
      "atii": 388,
      "vin": 389,
      "Ġspeci": 390,
      "bli": 391,
      "Ġconsi": 392,
      "Ġcomisi": 393,
      "Ġrisc": 394,
      "Ġtreb": 395,
      "Ġfa": 396,
      "rie": 397,
      "oare": 398,
      "Ġtran": 399,
      "Ġcredit": 400,
      "Ġle": 401,
      "Ġ;": 402,
      "da": 403,
      "Ġaline": 404,
      "Ġst": 405,
      "Ġeu": 406,
      "enta": 407,
      "Ġv": 408,
      "Ġexp": 409,
      "Ġuni": 410,
      "Ġdo": 411,
      "Ġnr": 412,
      "care": 413,
      "Ġve": 414,
      "ĠâĢĿ": 415,
      "ze": 416,
      "ort": 417,
      "Ġpun": 418,
      "ramb": 419,
      "ĠâĢŀ": 420,
      "Ġur": 421,
      "ramburs": 422,
      "ctul": 423,
      "Ġprivin": 424,
      "Ġafara": 425,
      "oan": 426,
      "Ġprez": 427,
      "inan": 428,
      "Ġac": 429,
      "Ġinc": 430,
      "Ġprodu": 431,
      "Ġintre": 432,
      "Ġ10": 433,
      "rambursare": 434,
      "Ġalineatul": 435,
      "Ġacest": 436,
      "Ġnerambursare": 437,
      "ota": 438,
      "Ġsocie": 439,
      "Ġstarii": 440,
      "ene": 441,
      "ala": 442,
      "Ġper": 443,
      "Ġmai": 444,
      "ĠâĢĶ": 445,
      "bili": 446,
      "Ġcontra": 447,
      "ea": 448,
      "Ġregulamentul": 449,
      "Ġdire": 450,
      "Ġmi": 451,
      "rile": 452,
      "Ġad": 453,
      "man": 454,
      "Ġav": 455,
      "Ġva": 456,
      "Ġsocietati": 457,
      "Ġdecat": 458,
      "Ġalte": 459,
      "nta": 460,
      "Ġtrebuie": 461,
      "Ġ19": 462,
      "ie": 463,
      "asta": 464,
      "Ġprivind": 465,
      "Ġ00": 466,
      "Ġmemb": 467,
      "urile": 468,
      "ating": 469,
      "Ġaceste": 470,
      "Ġrating": 471,
      "Ġab": 472,
      "Ġau": 473,
      "zul": 474,
      "unt": 475,
      "spe": 476,
      "tatea": 477,
      "tie": 478,
      "pa": 479,
      "Ġaceasta": 480,
      "Ġdre": 481,
      "Ġdrept": 482,
      "Ġrec": 483,
      "âĶ": 484,
      "Ġeuro": 485,
      "Ġacti": 486,
      "Ġfo": 487,
      "oane": 488,
      "tu": 489,
      "Ġunei": 490,
      "Ġaut": 491,
      "Ġale": 492,
      "Ġra": 493,
      "Ġpu": 494,
      "Ġall": 495,
      "tare": 496,
      "ozi": 497,
      "Ġdeci": 498,
      "bile": 499,
      "pi": 500,
      "rarea": 501,
      "lo": 502,
      "ni": 503,
      "âĶĢ": 504,
      "Ġfinan": 505,
      "Ġta": 506,
      "and": 507,
      "par": 508,
      "ment": 509,
      "ne": 510,
      "Ġsunt": 511,
      "aliz": 512,
      "nte": 513,
      "Ġhota": 514,
      "âĶĢâĶĢ": 515,
      "min": 516,
      "Ġimm": 517,
      "Ġ12": 518,
      "Ġproce": 519,
      "fel": 520,
      "urilor": 521,
      "mul": 522,
      "Ġdecizi": 523,
      "Ġdisp": 524,
      "Ġpunctul": 525,
      "Ġdirecti": 526,
      "Ġ11": 527,
      "ation": 528,
      "Ġmas": 529,
      "Ġti": 530,
      "mite": 531,
      "Ġsub": 532,
      "ple": 533,
      "Ġast": 534,
      "Ġfie": 535,
      "Ġvede": 536,
      "Ġastfel": 537,
      "fic": 538,
      "ctii": 539,
      "Ġ[": 540,
      "Ġfost": 541,
      "Ġ]": 542,
      "Ġcau": 543,
      "fici": 544,
      "unii": 545,
      "Ġuri": 546,
      "Ġvi": 547,
      "Ġto": 548,
      "tul": 549,
      "Ġautori": 550,
      "chi": 551,
      "Ġno": 552,
      "ge": 553,
      "Ġurm": 554,
      "Ġconfor": 555,
      "Ġcomisia": 556,
      "Ġ%": 557,
      "prin": 558,
      "Ġda": 559,
      "mp": 560,
      "Ġconside": 561,
      "Ġtri": 562,
      "eni": 563,
      "Ġni": 564,
      "ordarea": 565,
      "tri": 566,
      "Ġch": 567,
      "Ġeur": 568,
      "tea": 569,
      "sul": 570,
      "cul": 571,
      "Ġuti": 572,
      "mei": 573,
      "Ġci": 574,
      "Ġori": 575,
      "ga": 576,
      "ator": 577,
      "pre": 578,
      "ex": 579,
      "ua": 580,
      "Ġrespe": 581,
      "Ġmenti": 582,
      "el": 583,
      "Ġabordarea": 584,
      "Ġmili": 585,
      "Ġai": 586,
      "Ġ50": 587,
      "Ġunui": 588,
      "Ġk": 589,
      "Ġmar": 590,
      "rare": 591,
      "Ġlu": 592,
      "ile": 593,
      "Ġirb": 594,
      "Ġefe": 595,
      "Ġexpune": 596,
      "Ġinte": 597,
      "10": 598,
      "ia": 599,
      "Ġprezent": 600,
      "Ġfor": 601,
      "tarea": 602,
      "Ġop": 603,
      "Ġmention": 604,
      "Ġ13": 605,
      "co": 606,
      "tia": 607,
      "Ġmod": 608,
      "Ġtranza": 609,
      "Ġmilioane": 610,
      "Ġarticolului": 611,
      "inta": 612,
      "Ġpreva": 613,
      "Ġstat": 614,
      "Ġdispozi": 615,
      "rul": 616,
      "Ġcauza": 617,
      "Ġuniunii": 618,
      "su": 619,
      "Ġexpuneri": 620,
      "Ġtranzactii": 621,
      "Ġconsili": 622,
      "Ġcomuni": 623,
      "Ġdaca": 624,
      "oa": 625,
      "Ġincom": 626,
      "plete": 627,
      "tion": 628,
      "cte": 629,
      "Ġhotararea": 630,
      "ute": 631,
      "ente": 632,
      "Ġdirectiva": 633,
      "Ġju": 634,
      "Ġbaza": 635,
      "Ġcazul": 636,
      "Ġcontrapar": 637,
      "rilor": 638,
      "tatii": 639,
      "Ġcat": 640,
      "Ġat": 641,
      "alizate": 642,
      "rat": 643,
      "Ġpoate": 644,
      "Ġdu": 645,
      "Ġcontrapartii": 646,
      "Ġincomplete": 647,
      "Ġprevaz": 648,
      "Ġobli": 649,
      "Ġele": 650,
      "dele": 651,
      "Ġobi": 652,
      "Ġpers": 653,
      "ina": 654,
      "Ġaltele": 655,
      "form": 656,
      "Ġparti": 657,
      "feri": 658,
      "Ġutiliz": 659,
      "Ġstabili": 660,
      "prinde": 661,
      "atia": 662,
      "pu": 663,
      "Ġ15": 664,
      "ces": 665,
      "Ġpubli": 666,
      "Ġprinci": 667,
      "Ġinterne": 668,
      "Ġcad": 669,
      "oc": 670,
      "Ġstate": 671,
      "gu": 672,
      "Ġinca": 673,
      "Ġanex": 674,
      "Ġoblig": 675,
      "Ġ=": 676,
      "Ġconformi": 677,
      "Ġcere": 678,
      "Ġcondi": 679,
      "Ġ14": 680,
      "atie": 681,
      "ani": 682,
      "Ġobie": 683,
      "Ġfinanta": 684,
      "as": 685,
      "Ġspecializate": 686,
      "Ġmoti": 687,
      "Ġcur": 688,
      "Ġacord": 689,
      "Ġser": 690,
      "Ġinform": 691,
      "cum": 692,
      "Ġavan": 693,
      "Ġproduse": 694,
      "inte": 695,
      "Ġintreprinde": 696,
      "fica": 697,
      "Ġrespecti": 698,
      "Ġconformitate": 699,
      "cii": 700,
      "tiile": 701,
      "Ġor": 702,
      "Ġter": 703,
      "sata": 704,
      "gra": 705,
      "oni": 706,
      "ana": 707,
      "Ġservi": 708,
      "Ġii": 709,
      "Ġindi": 710,
      "Ġ16": 711,
      "Ġmodele": 712,
      "Ġcum": 713,
      "Ġ<": 714,
      "Ġcontin": 715,
      "Ġcer": 716,
      "Ġsen": 717,
      "20": 718,
      "mbrie": 719,
      "Ġpi": 720,
      "hi": 721,
      "orii": 722,
      "Ġjuri": 723,
      "Ġparte": 724,
      "Ġfun": 725,
      "bil": 726,
      "Ġcor": 727,
      "cep": 728,
      "Ġinsta": 729,
      "Ġprivi": 730,
      "ctu": 731,
      "unea": 732,
      "Ġanexa": 733,
      "Ġcatre": 734,
      "Ġ17": 735,
      "Ġtoate": 736,
      "Ġrecla": 737,
      "Ġjo": 738,
      "lici": 739,
      "Ġcadrul": 740,
      "Ġmembre": 741,
      "tre": 742,
      "Ġasi": 743,
      "Ġmodi": 744,
      "Ġmembru": 745,
      "xi": 746,
      "Ġcomisiei": 747,
      "clu": 748,
      "stit": 749,
      "mente": 750,
      "Ġprecum": 751,
      "ba": 752,
      "Ġpl": 753,
      "Ġeurope": 754,
      "Ġleg": 755,
      "Ġreclaman": 756,
      "spun": 757,
      "duce": 758,
      "Ġprive": 759,
      "Ġprivire": 760,
      "Ġfinantarile": 761,
      "teri": 762,
      "Ġavansata": 763,
      "Ġairb": 764,
      "Ġ18": 765,
      "Ġ30": 766,
      "Ġnation": 767,
      "Ġinclu": 768,
      "erci": 769,
      "Ġsup": 770,
      "Ġro": 771,
      "Ġceea": 772,
      "Ġprop": 773,
      "carea": 774,
      "Ġdom": 775,
      "ren": 776,
      "tor": 777,
      "Ġconsiliului": 778,
      "Ġanu": 779,
      "il": 780,
      "ctie": 781,
      "Ġaplicare": 782,
      "Ġag": 783,
      "dura": 784,
      "Ġ29": 785,
      "cata": 786,
      "Ġlite": 787,
      "Ġes": 788,
      "ona": 789,
      "atori": 790,
      "Ġdupa": 791,
      "atiile": 792,
      "atura": 793,
      "str": 794,
      "lan": 795,
      "Ġtemei": 796,
      "Ġprocedura": 797,
      "Ġeurop": 798,
      "Ġpriveste": 799,
      "Ġperi": 800,
      "Ġ21": 801,
      "atoare": 802,
      "Ġcele": 803,
      "Ġct": 804,
      "Ġnor": 805,
      "âĶĢâĶĢâĶĢâĶĢ": 806,
      "op": 807,
      "lul": 808,
      "Ġcar": 809,
      "Ġ199": 810,
      "Ġeuropene": 811,
      "Ġneces": 812,
      "Ġcorp": 813,
      "Ġgene": 814,
      "tin": 815,
      "Ġue": 816,
      "Ġsolici": 817,
      "Ġcompe": 818,
      "Ġ25": 819,
      "Ġcomp": 820,
      "stri": 821,
      "Ġob": 822,
      "Ġtemeiul": 823,
      "to": 824,
      "na": 825,
      "bun": 826,
      "Ġrap": 827,
      "Ġprote": 828,
      "he": 829,
      "Ġ28": 830,
      "Ġtribun": 831,
      "con": 832,
      "olo": 833,
      "tat": 834,
      "um": 835,
      "Ġsp": 836,
      "Ġorg": 837,
      "so": 838,
      "Ġcompete": 839,
      "Ġdata": 840,
      "alul": 841,
      "Ġinde": 842,
      "Ġ23": 843,
      "Ġurmare": 844,
      "Ġ90": 845,
      "Ġlitera": 846,
      "uit": 847,
      "Ġ22": 848,
      "tatile": 849,
      "Ġexi": 850,
      "Ġ31": 851,
      "Ġsiste": 852,
      "Ġnici": 853,
      "one": 854,
      "Ġdate": 855,
      "bila": 856,
      "Ġgenera": 857,
      "Ġcaz": 858,
      "Ġmate": 859,
      "Ġunor": 860,
      "Ġprevazute": 861,
      "mini": 862,
      "Ġpot": 863,
      "Ġpa": 864,
      "ver": 865,
      "Ġcla": 866,
      "Ġfapt": 867,
      "ora": 868,
      "Ġactivi": 869,
      "tail": 870,
      "Ġretail": 871,
      "Ġspecial": 872,
      "Ġ26": 873,
      "fer": 874,
      "mec": 875,
      "Ġvedere": 876,
      "Ġdecizia": 877,
      "Ġoper": 878,
      "Ġz": 879,
      "Ġstatele": 880,
      "Ġperioa": 881,
      "Ġ24": 882,
      "Ġsmec": 883,
      "pl": 884,
      "Ġintr": 885,
      "Ġx": 886,
      "Ġani": 887,
      "Ġen": 888,
      "tului": 889,
      "Ġcel": 890,
      "stin": 891,
      "Ġprezentul": 892,
      "Ġmedi": 893,
      "Ġadmini": 894,
      "Ġtrans": 895,
      "ciare": 896,
      "Ġase": 897,
      "Ġw": 898,
      "Ġdec": 899,
      "Ġ+": 900,
      "Ġrezul": 901,
      "Ġvedea": 902,
      "Ġlegi": 903,
      "stru": 904,
      "stitu": 905,
      "mele": 906,
      "ĠÂ": 907,
      "Ġincal": 908,
      "Ġgara": 909,
      "Ġintreprinderi": 910,
      "ctele": 911,
      "vit": 912,
      "Ġorgani": 913,
      "atiei": 914,
      "Ġsitu": 915,
      "uta": 916,
      "tei": 917,
      "Ġ27": 918,
      "Ġefectu": 919,
      "Ġasemen": 920,
      "Ġasemenea": 921,
      "Ġul": 922,
      "Ġaj": 923,
      "Ġata": 924,
      "Ġden": 925,
      "ali": 926,
      "gura": 927,
      "Ġprezenta": 928,
      "Ġbun": 929,
      "Ġsensul": 930,
      "Ġmotiv": 931,
      "be": 932,
      "Ġavand": 933,
      "siv": 934,
      "Ġofici": 935,
      "fu": 936,
      "Ġpotri": 937,
      "Ġna": 938,
      "nd": 939,
      "Ġproced": 940,
      "Ġcore": 941,
      "Ġpotrivit": 942,
      "Ġcri": 943,
      "Ġfara": 944,
      "cta": 945,
      "Ġdintre": 946,
      "Ġdoua": 947,
      "Ġmul": 948,
      "mar": 949,
      "denti": 950,
      "vede": 951,
      "prez": 952,
      "Ġfur": 953,
      "Ġfe": 954,
      "ron": 955,
      "Ġcali": 956,
      "Ġdreptul": 957,
      "Ġmentionate": 958,
      "Ġdef": 959,
      "Ġcontro": 960,
      "Ġreferi": 961,
      "Ġluc": 962,
      "orul": 963,
      "Ġtransp": 964,
      "mita": 965,
      "eaza": 966,
      "Ġpune": 967,
      "pul": 968,
      "cate": 969,
      "Ġcara": 970,
      "atiilor": 971,
      "Ġreprez": 972,
      "sup": 973,
      "Ġservicii": 974,
      "Ġregi": 975,
      "denta": 976,
      "Ġtermen": 977,
      "olu": 978,
      "po": 979,
      "Ġ2009": 980,
      "Ġacestea": 981,
      "Ġnive": 982,
      "Ġexe": 983,
      "Ġmasura": 984,
      "tata": 985,
      "Ġtrebui": 986,
      "toare": 987,
      "Ġprincipi": 988,
      "Ġ010": 989,
      "Ġprevede": 990,
      "Ġeuropean": 991,
      "40": 992,
      "Ġorice": 993,
      "Ġprincip": 994,
      "Ġfurni": 995,
      "Ġcand": 996,
      "mului": 997,
      "30": 998,
      "Ġare": 999,
      "Ġeva": 1000,
      "Ġadop": 1001,
      "Ġintro": 1002,
      "Ġasigura": 1003,
      "ficare": 1004,
      "Ġadministr": 1005,
      "Ġjude": 1006,
      "res": 1007,
      "Ġinterpre": 1008,
      "ole": 1009,
      "ficat": 1010,
      "Ġurma": 1011,
      "Ġraport": 1012,
      "Ġsco": 1013,
      "vo": 1014,
      "ere": 1015,
      "tori": 1016,
      "Ġ2006": 1017,
      "Ġimport": 1018,
      "ele": 1019,
      "Ġresp": 1020,
      "Ġimpo": 1021,
      "zate": 1022,
      "omi": 1023,
      "ind": 1024,
      "Ġinstitu": 1025,
      "Ġtrimite": 1026,
      "tatilor": 1027,
      "Ġlor": 1028,
      "21": 1029,
      "Ġsale": 1030,
      "Ġlo": 1031,
      "Ġraspun": 1032,
      "ctia": 1033,
      "tar": 1034,
      "Ġeli": 1035,
      "unci": 1036,
      "Ġ0106": 1037,
      "Ġmini": 1038,
      "rand": 1039,
      "publi": 1040,
      "Ġgaran": 1041,
      "Ġina": 1042,
      "mai": 1043,
      "Ġcal": 1044,
      "che": 1045,
      "Ġdenu": 1046,
      "fice": 1047,
      "Ġatunci": 1048,
      "Ġpersoane": 1049,
      "Ġ2008": 1050,
      "Ġ40": 1051,
      "Ġconclu": 1052,
      "Ġjuridi": 1053,
      "Ġvalo": 1054,
      "limen": 1055,
      "Ġacestui": 1056,
      "Ġconst": 1057,
      "Ġevalu": 1058,
      "Ġconcluzi": 1059,
      "Ġcapi": 1060,
      "Ġpiata": 1061,
      "Ġinstanta": 1062,
      "veni": 1063,
      "Ġechi": 1064,
      "Ġput": 1065,
      "tiilor": 1066,
      "Ġanul": 1067,
      "Ġba": 1068,
      "Ġliti": 1069,
      "Ġ2013": 1070,
      "pte": 1071,
      "ilea": 1072,
      "ative": 1073,
      "Ġdefini": 1074,
      "Ġcod": 1075,
      "Ġ\"": 1076,
      "atorul": 1077,
      "Ġsolicita": 1078,
      "una": 1079,
      "Ġ>": 1080,
      "Ġcomerci": 1081,
      "Ġpara": 1082,
      "Ġmari": 1083,
      "Ġexcep": 1084,
      "Ġparla": 1085,
      "Ġlitigi": 1086,
      "Ġge": 1087,
      "sca": 1088,
      "mentele": 1089,
      "mentului": 1090,
      "Ġecon": 1091,
      "Ġpartea": 1092,
      "supra": 1093,
      "Ġbi": 1094,
      "Ġintru": 1095,
      "Ġformul": 1096,
      "Ġdomeni": 1097,
      "elt": 1098,
      "male": 1099,
      "ction": 1100,
      "Ġintrucat": 1101,
      "50": 1102,
      "86": 1103,
      "Ġfaptul": 1104,
      "Ġposi": 1105,
      "Ġnumai": 1106,
      "zare": 1107,
      "Ġfirb": 1108,
      "Ġcontinu": 1109,
      "Ġobiecti": 1110,
      "Ġchelt": 1111,
      "ser": 1112,
      "Ġregle": 1113,
      "stitui": 1114,
      "Ġasupra": 1115,
      "ilor": 1116,
      "Ġalta": 1117,
      "regi": 1118,
      "Ġ2007": 1119,
      "Ġ100": 1120,
      "Ġcurtii": 1121,
      "ond": 1122,
      "Ġdesc": 1123,
      "Ġvan": 1124,
      "Ġdocu": 1125,
      "ntei": 1126,
      "Ġsc": 1127,
      "Ġtimp": 1128,
      "uieli": 1129,
      "urii": 1130,
      "Ġ01": 1131,
      "Ġchi": 1132,
      "Ġcheltuieli": 1133,
      "Ġ39": 1134,
      "Ġmateri": 1135,
      "Ġsan": 1136,
      "Ġanteri": 1137,
      "Ġdece": 1138,
      "tali": 1139,
      "Ġesan": 1140,
      "Ġajut": 1141,
      "Ġapre": 1142,
      "Ġindepl": 1143,
      "Ġrez": 1144,
      "van": 1145,
      "Ġinregi": 1146,
      "Ġcr": 1147,
      "Ġrepubli": 1148,
      "Ġperioada": 1149,
      "mn": 1150,
      "Ġdecla": 1151,
      "alului": 1152,
      "Ġarticole": 1153,
      "bilitatea": 1154,
      "Ġ32": 1155,
      "Ġtrimitere": 1156,
      "tra": 1157,
      "Ġ2004": 1158,
      "Ġpozi": 1159,
      "orta": 1160,
      "nt": 1161,
      "Ġgra": 1162,
      "Ġinclusiv": 1163,
      "ativ": 1164,
      "ope": 1165,
      "telor": 1166,
      "Ġeconomi": 1167,
      "triva": 1168,
      "Ġ2014": 1169,
      "Ġmotive": 1170,
      "Ġpunctele": 1171,
      "melor": 1172,
      "Ġreferitoare": 1173,
      "Ġ2011": 1174,
      "Ġdecembrie": 1175,
      "Ġbene": 1176,
      "Ġrespectiv": 1177,
      "bu": 1178,
      "Ġexam": 1179,
      "Ġacestei": 1180,
      "Ġsec": 1181,
      "reaza": 1182,
      "Ġru": 1183,
      "Ġtransport": 1184,
      "medi": 1185,
      "Ġesantion": 1186,
      "Ġfiecare": 1187,
      "Ġnoti": 1188,
      "Ġjusti": 1189,
      "Ġinformatii": 1190,
      "Ġnumar": 1191,
      "rate": 1192,
      "Ġade": 1193,
      "Ġrand": 1194,
      "misi": 1195,
      "Ġzi": 1196,
      "Ġurmatoare": 1197,
      "Ġidenti": 1198,
      "Ġoficial": 1199,
      "ficarea": 1200,
      "Ġtax": 1201,
      "Ġapro": 1202,
      "Ġera": 1203,
      "Ġdeciziei": 1204,
      "bri": 1205,
      "zat": 1206,
      "Ġnationale": 1207,
      "Ġcurtea": 1208,
      "rata": 1209,
      "Ġsus": 1210,
      "Ġobiectul": 1211,
      "Ġord": 1212,
      "Ġdeter": 1213,
      "Ġgeneral": 1214,
      "Ġdes": 1215,
      "11": 1216,
      "sec": 1217,
      "Ġ33": 1218,
      "Ġpla": 1219,
      "Ġintern": 1220,
      "Ġputea": 1221,
      "Ġdisc": 1222,
      "Ġ2003": 1223,
      "Ġ35": 1224,
      "Ġintemei": 1225,
      "Ġvaloarea": 1226,
      "ja": 1227,
      "tine": 1228,
      "Ġdirective": 1229,
      "ficate": 1230,
      "Ġcc": 1231,
      "Ġconte": 1232,
      "sl": 1233,
      "asca": 1234,
      "lie": 1235,
      "Ġexclu": 1236,
      "urn": 1237,
      "terii": 1238,
      "zarea": 1239,
      "Ġteh": 1240,
      "Ġ34": 1241,
      "us": 1242,
      "Ġconditiile": 1243,
      "Ġproducat": 1244,
      "Ġtip": 1245,
      "Ġ000": 1246,
      "Ġfata": 1247,
      "spru": 1248,
      "Ġnecesar": 1249,
      "Ġ36": 1250,
      "Ġafe": 1251,
      "Ġorig": 1252,
      "Ġjurispru": 1253,
      "Ġpersoan": 1254,
      "Ġ38": 1255,
      "Ġ2012": 1256,
      "Ġ02": 1257,
      "Ġface": 1258,
      "mit": 1259,
      "Ġprivinta": 1260,
      "90": 1261,
      "Ġplata": 1262,
      "Ġcee": 1263,
      "Ġdestin": 1264,
      "Ġnatura": 1265,
      "Ġimpotriva": 1266,
      "Ġgre": 1267,
      "Ġince": 1268,
      "Ġ*": 1269,
      "Ġfond": 1270,
      "Ġcontinuare": 1271,
      "Ġval": 1272,
      "Ġbenefici": 1273,
      "Ġga": 1274,
      "Ġexerci": 1275,
      "mentul": 1276,
      "Ġregulamentului": 1277,
      "Ġcan": 1278,
      "mba": 1279,
      "Ġcorespun": 1280,
      "hicul": 1281,
      "Ġtari": 1282,
      "venti": 1283,
      "os": 1284,
      "Ġmasuri": 1285,
      "Ġgu": 1286,
      "racti": 1287,
      "Ġputin": 1288,
      "Ġkg": 1289,
      "Ġpie": 1290,
      "Ġreclamanta": 1291,
      "Ġdep": 1292,
      "Ġconsec": 1293,
      "intele": 1294,
      "Ġdirect": 1295,
      "ĠÎ": 1296,
      "Ġacestora": 1297,
      "Ġexport": 1298,
      "Ġexiste": 1299,
      "Ġrespective": 1300,
      "Ġservici": 1301,
      "Ġindu": 1302,
      "Ġinve": 1303,
      "Ġacesta": 1304,
      "rarii": 1305,
      "cure": 1306,
      "Ġof": 1307,
      "atorii": 1308,
      "Ġsubsta": 1309,
      "Ġprimul": 1310,
      "Ġcompetenta": 1311,
      "Ġelect": 1312,
      "Ġlegisl": 1313,
      "Ġdreptului": 1314,
      "ber": 1315,
      "Ġprodus": 1316,
      "Ġconsu": 1317,
      "Ġcriterii": 1318,
      "tiei": 1319,
      "cter": 1320,
      "Ġschi": 1321,
      "zeaza": 1322,
      "mina": 1323,
      "Ġfran": 1324,
      "cip": 1325,
      "Ġcaracter": 1326,
      "Ġpana": 1327,
      "Ġparlamentului": 1328,
      "fir": 1329,
      "tr": 1330,
      "dere": 1331,
      "Ġtrat": 1332,
      "Ġenti": 1333,
      "Ġprima": 1334,
      "Ġcerere": 1335,
      "Ġteri": 1336,
      "tiv": 1337,
      "Ġ37": 1338,
      "Ġtota": 1339,
      "uno": 1340,
      "Ġcame": 1341,
      "Ġpoli": 1342,
      "Ġ2010": 1343,
      "94": 1344,
      "ten": 1345,
      "Ġpreci": 1346,
      "unile": 1347,
      "Ġbu": 1348,
      "Ġrele": 1349,
      "80": 1350,
      "Ġstabile": 1351,
      "sed": 1352,
      "limin": 1353,
      "000": 1354,
      "Ġrep": 1355,
      "Ġtit": 1356,
      "Ġprelimin": 1357,
      "unie": 1358,
      "Ġmaxi": 1359,
      "Ġiunie": 1360,
      "nul": 1361,
      "Ġalt": 1362,
      "Ġiul": 1363,
      "udi": 1364,
      "Ġplu": 1365,
      "âĶĢâĶĢâĶĢâĶĢâĶĢâĶĢâĶĢâĶĢ": 1366,
      "Ġcalcul": 1367,
      "Ġcererea": 1368,
      "Ġ41": 1369,
      "Ġconsidera": 1370,
      "Ġtex": 1371,
      "tarii": 1372,
      "Ġdomeniul": 1373,
      "Ġ84": 1374,
      "Ġiulie": 1375,
      "Ġrezulta": 1376,
      "Ġrelevan": 1377,
      "Ġintrodu": 1378,
      "Ġ2016": 1379,
      "Ġada": 1380,
      "Ġcontrol": 1381,
      "Ġ05": 1382,
      "Ġ2015": 1383,
      "Ġaplicarea": 1384,
      "Ġnivel": 1385,
      "meaza": 1386,
      "Ġ60": 1387,
      "Ġmun": 1388,
      "ama": 1389,
      "Ġpublice": 1390,
      "Ġcir": 1391,
      "Ġfinanciare": 1392,
      "Ġmodifica": 1393,
      "Ġcea": 1394,
      "Ġdoilea": 1395,
      "Ġnef": 1396,
      "mo": 1397,
      "Ġgru": 1398,
      "serv": 1399,
      "Ġcate": 1400,
      "Ġtribunalul": 1401,
      "gaj": 1402,
      "Ġ2001": 1403,
      "Ġtribunalului": 1404,
      "Ġveri": 1405,
      "ursul": 1406,
      "Ġmentionat": 1407,
      "Ġsupra": 1408,
      "Ġ85": 1409,
      "Ġteritori": 1410,
      "omb": 1411,
      "Ġstatul": 1412,
      "ctului": 1413,
      "Ġinregist": 1414,
      "Ġ0086": 1415,
      "Ġvig": 1416,
      "Ġbunuri": 1417,
      "Ġ54": 1418,
      "Ġger": 1419,
      "loc": 1420,
      "fera": 1421,
      "Ġpron": 1422,
      "Ġsust": 1423,
      "Ġpret": 1424,
      "Ġpen": 1425,
      "graf": 1426,
      "Ġvehicul": 1427,
      "Ġvigoare": 1428,
      "Ġacestor": 1429,
      "Ġ43": 1430,
      "Ġcent": 1431,
      "Ġcerti": 1432,
      "Ġjurn": 1433,
      "Ġ44": 1434,
      "Ġ42": 1435,
      "Ġimo": 1436,
      "Ġ45": 1437,
      "Ġinternation": 1438,
      "Ġiar": 1439,
      "Ġreglemen": 1440,
      "Ġexista": 1441,
      "Ġtehni": 1442,
      "Ġpunere": 1443,
      "Ġaprecie": 1444,
      "Ġsect": 1445,
      "Ġ99": 1446,
      "tal": 1447,
      "oi": 1448,
      "ologi": 1449,
      "Ġinstru": 1450,
      "Ġconditii": 1451,
      "Ġloc": 1452,
      "Ġoct": 1453,
      "Ġ2017": 1454,
      "pote": 1455,
      "Ġangaj": 1456,
      "Ġurmatoarele": 1457,
      "Ġautoritatile": 1458,
      "Ġdecizie": 1459,
      "fue": 1460,
      "Ġdese": 1461,
      "Ġeuropeana": 1462,
      "Ġtfue": 1463,
      "Ġparagraf": 1464,
      "Ġplus": 1465,
      "Ġcomisie": 1466,
      "viz": 1467,
      "Ġ2002": 1468,
      "Ġfac": 1469,
      "tara": 1470,
      "Ġargu": 1471,
      "Ġmeto": 1472,
      "Ġipote": 1473,
      "ombrie": 1474,
      "Ġconsecinta": 1475,
      "Ġoctombrie": 1476,
      "cuti": 1477,
      "Ġcomple": 1478,
      "Ġpat": 1479,
      "Ġban": 1480,
      "Ġguver": 1481,
      "stituie": 1482,
      "Ġ2005": 1483,
      "entei": 1484,
      "Ġcuprin": 1485,
      "Ġconc": 1486,
      "Î±": 1487,
      "Ġver": 1488,
      "eze": 1489,
      "mat": 1490,
      "Ġjurnalul": 1491,
      "Ġexceptia": 1492,
      "Ġgerman": 1493,
      "Ġinainte": 1494,
      "cv": 1495,
      "orilor": 1496,
      "Ġschimb": 1497,
      "Ġmartie": 1498,
      "limentare": 1499,
      "Ġdez": 1500,
      "derea": 1501,
      "Ġtra": 1502,
      "ban": 1503,
      "Ġfin": 1504,
      "Ġintra": 1505,
      "Ġmentionata": 1506,
      "Ġrepublica": 1507,
      "Ġisi": 1508,
      "Ġlc": 1509,
      "Ġdispozitiile": 1510,
      "Ġelemente": 1511,
      "Ġanumite": 1512,
      "Ġcompetente": 1513,
      "Ġpersoana": 1514,
      "Ġconform": 1515,
      "Ġini": 1516,
      "Ġaspe": 1517,
      "Ġdispozitii": 1518,
      "Ġ80": 1519,
      "70": 1520,
      "Ġ52": 1521,
      "Ġfiind": 1522,
      "Ġconsiderare": 1523,
      "Ġcost": 1524,
      "Ġforma": 1525,
      "Ġmare": 1526,
      "mer": 1527,
      "Ġmasurile": 1528,
      "carii": 1529,
      "Ġacesteia": 1530,
      "Ġ2018": 1531,
      "Ġagri": 1532,
      "Ġindustri": 1533,
      "Ġintermedi": 1534,
      "Ġsustine": 1535,
      "elor": 1536,
      "Ġautoritatea": 1537,
      "Ġimpre": 1538,
      "Ġian": 1539,
      "Ġdiferi": 1540,
      "Ġ91": 1541,
      "ris": 1542,
      "Ġdar": 1543,
      "Ġprogra": 1544,
      "60": 1545,
      "uarie": 1546,
      "Ġianuarie": 1547,
      "orului": 1548,
      "tol": 1549,
      "Ġfabri": 1550,
      "Ġnefinan": 1551,
      "Ġcateg": 1552,
      "Ġconsideren": 1553,
      "Ġrecurs": 1554,
      "Ġconsiliul": 1555,
      "chei": 1556,
      "Ġreprezenta": 1557,
      "Ġcontinut": 1558,
      "Ġinvesti": 1559,
      "Ġsens": 1560,
      "Ġscuti": 1561,
      "Ġnoie": 1562,
      "Ġnoiembrie": 1563,
      "Ġinchei": 1564,
      "Ġsar": 1565,
      "mis": 1566,
      "oara": 1567,
      "Ġnefinanciare": 1568,
      "Î¿": 1569,
      "Ġ49": 1570,
      "Ġanimale": 1571,
      "Ġjurisprudenta": 1572,
      "Ġ70": 1573,
      "Ġgarantate": 1574,
      "ativa": 1575,
      "Ġchiar": 1576,
      "urata": 1577,
      "Ġpesc": 1578,
      "Ġexecu": 1579,
      "Ġatacata": 1580,
      "Ġ46": 1581,
      "Ġsepte": 1582,
      "Ġanterior": 1583,
      "atat": 1584,
      "Ġave": 1585,
      "mum": 1586,
      "Ġcitata": 1587,
      "cesi": 1588,
      "Ġlip": 1589,
      "Ġstabilite": 1590,
      "Ġmom": 1591,
      "Ġcorespunz": 1592,
      "Ġlimba": 1593,
      "Ġ51": 1594,
      "ghe": 1595,
      "Ġ55": 1596,
      "ria": 1597,
      "fa": 1598,
      "Ġproduselor": 1599,
      "Ġmunca": 1600,
      "Ġseptembrie": 1601,
      "Ġ48": 1602,
      "Ġapri": 1603,
      "do": 1604,
      "Ġprodusele": 1605,
      "Ġcalitate": 1606,
      "Ġae": 1607,
      "Ġcapitol": 1608,
      "Ġ53": 1609,
      "Ġbe": 1610,
      "Ġaprilie": 1611,
      "Ġplati": 1612,
      "rog": 1613,
      "Ġ95": 1614,
      "Ġjudecata": 1615,
      "Ġpublic": 1616,
      "Ġmoment": 1617,
      "Ġproie": 1618,
      "th": 1619,
      "Ġoperati": 1620,
      "Ġincad": 1621,
      "Ġ96": 1622,
      "Ġvederea": 1623,
      "Ġachi": 1624,
      "ndar": 1625,
      "Ġnecesare": 1626,
      "Ġsecuri": 1627,
      "rale": 1628,
      "amna": 1629,
      "arsi": 1630,
      "Ġil": 1631,
      "Ġprincipal": 1632,
      "ficata": 1633,
      "Ġdirectivei": 1634,
      "Ġstatelor": 1635,
      "Ġurmeaza": 1636,
      "Ġperson": 1637,
      "Ġnumarul": 1638,
      "atului": 1639,
      "Ġobserv": 1640,
      "Ġart": 1641,
      "Ġcelor": 1642,
      "stra": 1643,
      "Ġplan": 1644,
      "Ġprevazuta": 1645,
      "tica": 1646,
      "Ġinf": 1647,
      "ble": 1648,
      "Ġam": 1649,
      "Ġpartile": 1650,
      "Ġsoci": 1651,
      "Ġ47": 1652,
      "Ġexamin": 1653,
      "Ġindeplini": 1654,
      "zata": 1655,
      "lare": 1656,
      "Ġvor": 1657,
      "ducere": 1658,
      "Ġconta": 1659,
      "Ġdepa": 1660,
      "Ġagenti": 1661,
      "Ġinformatiile": 1662,
      "Ġconstituie": 1663,
      "vol": 1664,
      "22": 1665,
      "Ġpracti": 1666,
      "Ġiii": 1667,
      "Ġparticip": 1668,
      "Ġsca": 1669,
      "Ġintele": 1670,
      "Ġcuan": 1671,
      "Ġulteri": 1672,
      "Ġmateriale": 1673,
      "bru": 1674,
      "Ġsimi": 1675,
      "Ġatri": 1676,
      "Ġdiscu": 1677,
      "Ġpermite": 1678,
      "ha": 1679,
      "Ġstatului": 1680,
      "sion": 1681,
      "Ġfisca": 1682,
      "Ġorganis": 1683,
      "Ġstandar": 1684,
      "fas": 1685,
      "Ġuniune": 1686,
      "Ġutilizate": 1687,
      "Ġsecti": 1688,
      "Ġcriteriile": 1689,
      "Ġapar": 1690,
      "zarii": 1691,
      "Ġvol": 1692,
      "Ġconsum": 1693,
      "ĠÂ»": 1694,
      "Ġinloc": 1695,
      "Ġlegea": 1696,
      "Ġprocedurii": 1697,
      "Ġavea": 1698,
      "Ġrefer": 1699,
      "Ġsufici": 1700,
      "Ġbru": 1701,
      "Ġimobile": 1702,
      "31": 1703,
      "Ġiniti": 1704,
      "Ġcomite": 1705,
      "ari": 1706,
      "unosc": 1707,
      "ĠÂ«": 1708,
      "Ġbo": 1709,
      "atele": 1710,
      "Ġscopul": 1711,
      "Ġdesfas": 1712,
      "Ġefectuate": 1713,
      "Ġ2019": 1714,
      "ctiv": 1715,
      "Ġfunction": 1716,
      "bor": 1717,
      "bilitate": 1718,
      "mplu": 1719,
      "Ġprotectia": 1720,
      "Î¹": 1721,
      "Ġ59": 1722,
      "Ġ2000": 1723,
      "Ġimpozi": 1724,
      "Ġ?": 1725,
      "Ġavi": 1726,
      "ctarea": 1727,
      "Ġinteres": 1728,
      "Ġ61": 1729,
      "Ġres": 1730,
      "Ġintreb": 1731,
      "Ġener": 1732,
      "Ġ92": 1733,
      "Ġcuantu": 1734,
      "lal": 1735,
      "Ġado": 1736,
      "Ġnational": 1737,
      "Ġsarc": 1738,
      "Ġamin": 1739,
      "Ġ57": 1740,
      "Ġactive": 1741,
      "Ġy": 1742,
      "Ġadopt": 1743,
      "Ġinse": 1744,
      "dei": 1745,
      "Ġasa": 1746,
      "Ġnivelul": 1747,
      "cile": 1748,
      "Ġlegatura": 1749,
      "Ġdem": 1750,
      "Ġ56": 1751,
      "Ġ93": 1752,
      "Ġutilizarea": 1753,
      "Ġneg": 1754,
      "Ġev": 1755,
      "Ġimpune": 1756,
      "Ġprotectie": 1757,
      "Ġ0094": 1758,
      "Ġsolu": 1759,
      "Ġdezvol": 1760,
      "Ġprelu": 1761,
      "Ġlitigiu": 1762,
      "Ġacela": 1763,
      "Ġfinanci": 1764,
      "Ġrespectiva": 1765,
      "Ġhi": 1766,
      "Ġpronun": 1767,
      "unilor": 1768,
      "Ġdiscutie": 1769,
      "Ġacestuia": 1770,
      "Ġcanti": 1771,
      "Ġating": 1772,
      "rei": 1773,
      "Ġdesp": 1774,
      "Ġmarf": 1775,
      "Ġintreba": 1776,
      "Ġamen": 1777,
      "Ġprezentate": 1778,
      "ace": 1779,
      "Ġspecifice": 1780,
      "Ġfebru": 1781,
      "anta": 1782,
      "arie": 1783,
      "entele": 1784,
      "Ġ65": 1785,
      "rele": 1786,
      "Ġfebruarie": 1787,
      "Ġus": 1788,
      "Ġcareia": 1789,
      "Ġdetermin": 1790,
      "tari": 1791,
      "Ġorigine": 1792,
      "Ġcapa": 1793,
      "mni": 1794,
      "Ġlista": 1795,
      "Ġtut": 1796,
      "Ġaceea": 1797,
      "judi": 1798,
      "Ġlimi": 1799,
      "Ġnationala": 1800,
      "Ġcontri": 1801,
      "gali": 1802,
      "Ġthe": 1803,
      "Ġacces": 1804,
      "Ġintere": 1805,
      "dent": 1806,
      "Ġcamera": 1807,
      "Ġrezi": 1808,
      "Ġteritoriul": 1809,
      "sele": 1810,
      "Ġ71": 1811,
      "Ġ87": 1812,
      "til": 1813,
      "Ġscop": 1814,
      "Ġmarca": 1815,
      "Ġachizi": 1816,
      "Ġmult": 1817,
      "je": 1818,
      "Ġdeclar": 1819,
      "Ġarticolele": 1820,
      "Ġseama": 1821,
      "Ġobligatia": 1822,
      "mal": 1823,
      "Ġza": 1824,
      "sk": 1825,
      "Ġgesti": 1826,
      "ven": 1827,
      "Ġevi": 1828,
      "cia": 1829,
      "Ġ94": 1830,
      "Ġcursul": 1831,
      "Ġprezentului": 1832,
      "Ġ58": 1833,
      "Ġanche": 1834,
      "Ġsemn": 1835,
      "Ġobiectiv": 1836,
      "ung": 1837,
      "atate": 1838,
      "Ġacordul": 1839,
      "Ġtrei": 1840,
      "Ġdoar": 1841,
      "atorilor": 1842,
      "Ġstabilire": 1843,
      "Ġcodul": 1844,
      "arii": 1845,
      "ctelor": 1846,
      "Ġ98": 1847,
      "leg": 1848,
      "ctiva": 1849,
      "Ġnicio": 1850,
      "Ġdenumi": 1851,
      "Ġcerintele": 1852,
      "Ġdrepturilor": 1853,
      "ctiei": 1854,
      "Ġprejudi": 1855,
      "erea": 1856,
      "peri": 1857,
      "arul": 1858,
      "Ġelementele": 1859,
      "Ġsituatia": 1860,
      "Ġinvo": 1861,
      "Ġ75": 1862,
      "atorului": 1863,
      "Ġimporta": 1864,
      "Ġacelasi": 1865,
      "bui": 1866,
      "Ġintermediul": 1867,
      "car": 1868,
      "pen": 1869,
      "dam": 1870,
      "ĠâĶ": 1871,
      "Ġitali": 1872,
      "Ġrestri": 1873,
      "Ġefect": 1874,
      "Ġfunctie": 1875,
      "Ġsistem": 1876,
      "99": 1877,
      "Ġproprie": 1878,
      "lini": 1879,
      "Ġtrata": 1880,
      "Ġproprii": 1881,
      "Ġconsta": 1882,
      "Ġconcure": 1883,
      "Ġutili": 1884,
      "Ġatat": 1885,
      "Ġprofe": 1886,
      "Ġspeta": 1887,
      "Ġadau": 1888,
      "Ġadre": 1889,
      "Ġaltii": 1890,
      "Ġrezer": 1891,
      "Ġ64": 1892,
      "Ġurmatorul": 1893,
      "Ġdesi": 1894,
      "Ġcerinte": 1895,
      "Ġcaracte": 1896,
      "Ġcarui": 1897,
      "nti": 1898,
      "Ġfolo": 1899,
      "Ġactiunea": 1900,
      "Ġsmer": 1901,
      "bo": 1902,
      "Ġlucru": 1903,
      "Ġgrup": 1904,
      "Ġrealiz": 1905,
      "Ġ08": 1906,
      "Ġspeciala": 1907,
      "Ġipoteci": 1908,
      "ctive": 1909,
      "Ġincer": 1910,
      "Ġlt": 1911,
      "tive": 1912,
      "Ġdurata": 1913,
      "dica": 1914,
      "rij": 1915,
      "Ġmedica": 1916,
      "Ġreferinta": 1917,
      "Ġcole": 1918,
      "dro": 1919,
      "Ġie": 1920,
      "Ġactiune": 1921,
      "Ġ1999": 1922,
      "ducerea": 1923,
      "Ġacope": 1924,
      "Ġ62": 1925,
      "Ġ73": 1926,
      "Ġ63": 1927,
      "Ġadecv": 1928,
      "Ġ88": 1929,
      "Ġobtin": 1930,
      "Ġinstitutii": 1931,
      "Ġpresed": 1932,
      "Ġvii": 1933,
      "Ġdoban": 1934,
      "Ġurile": 1935,
      "Ġport": 1936,
      "Ġtara": 1937,
      "Ġautoriz": 1938,
      "Ġgreu": 1939,
      "Ġjuridice": 1940,
      "Ġ09": 1941,
      "rente": 1942,
      "Ġsectorul": 1943,
      "ranta": 1944,
      "Ġinstitui": 1945,
      "tice": 1946,
      "Ġmaterie": 1947,
      "vine": 1948,
      "cili": 1949,
      "Ġ81": 1950,
      "Ġsigu": 1951,
      "uror": 1952,
      "Ġaso": 1953,
      "Ġpreluc": 1954,
      "Ġadopta": 1955,
      "Ġexemplu": 1956,
      "Ġconventi": 1957,
      "Ġprevazut": 1958,
      "Ġstatut": 1959,
      "Ġmodificare": 1960,
      "rari": 1961,
      "feren": 1962,
      "der": 1963,
      "Ġinv": 1964,
      "Ġobiective": 1965,
      "Ġcapaci": 1966,
      "Ġeq": 1967,
      "Ġ72": 1968,
      "Ġordon": 1969,
      "Ġmulte": 1970,
      "Ġ74": 1971,
      "bel": 1972,
      "use": 1973,
      "Ġintemeiat": 1974,
      "Ġpescuit": 1975,
      "Ġdatelor": 1976,
      "Ġ97": 1977,
      "Ġpier": 1978,
      "Ġroman": 1979,
      "aliza": 1980,
      "Ġincep": 1981,
      "Ġpeste": 1982,
      "Ġprest": 1983,
      "inand": 1984,
      "Ġstabilit": 1985,
      "cl": 1986,
      "Ġdomnul": 1987,
      "Ġclasi": 1988,
      "Ġaplicabile": 1989,
      "Ġcoope": 1990,
      "Ġincalcarea": 1991,
      "Ġrefu": 1992,
      "ĠâĶĤ": 1993,
      "les": 1994,
      "Ġel": 1995,
      "Ġaceeasi": 1996,
      "Ġtva": 1997,
      "zo": 1998,
      "Ġofer": 1999,
      "Ġexistenta": 2000,
      "mping": 2001,
      "Ġechip": 2002,
      "amente": 2003,
      "Ġsistemul": 2004,
      "puse": 2005,
      "Ġindivi": 2006,
      "Ġimpli": 2007,
      "Ġom": 2008,
      "Ġfact": 2009,
      "Ġeligi": 2010,
      "Ġtuturor": 2011,
      "Ġmon": 2012,
      "Ġand": 2013,
      "Ġjudecat": 2014,
      "Ġcapitolul": 2015,
      "ue": 2016,
      "Ġluni": 2017,
      "Ġcaracteri": 2018,
      "ocat": 2019,
      "Ġregatul": 2020,
      "Ġsti": 2021,
      "Ġdepase": 2022,
      "Ġcomb": 2023,
      "Ġ67": 2024,
      "Ġveni": 2025,
      "Ġproble": 2026,
      "Ġ2020": 2027,
      "Ġcircul": 2028,
      "Ġia": 2029,
      "Ġterte": 2030,
      "Ġedi": 2031,
      "cole": 2032,
      "Ġ66": 2033,
      "ck": 2034,
      "Ġanti": 2035,
      "vizi": 2036,
      "Ġinsa": 2037,
      "Ġorganiz": 2038,
      "Ġatacate": 2039,
      "ts": 2040,
      "Ġnume": 2041,
      "Ġame": 2042,
      "Ġpreliminara": 2043,
      "Ġtemp": 2044,
      "tro": 2045,
      "Ġindepline": 2046,
      "Ġman": 2047,
      "12": 2048,
      "Ġ68": 2049,
      "Ġdatele": 2050,
      "Ġ78": 2051,
      "Ġindividu": 2052,
      "Ġscutire": 2053,
      "Ġpublica": 2054,
      "Ġreie": 2055,
      "zei": 2056,
      "Ġdintr": 2057,
      "Ġafir": 2058,
      "Ġrein": 2059,
      "Ġnota": 2060,
      "Ġrecu": 2061,
      "Ġliber": 2062,
      "Ġdemon": 2063,
      "Ġproba": 2064,
      "Ġdispozitie": 2065,
      "Ġposibilitatea": 2066,
      "lalte": 2067,
      "tit": 2068,
      "ens": 2069,
      "Ġsectiunea": 2070,
      "uity": 2071,
      "Ġelectri": 2072,
      "Ġconsiderat": 2073,
      "93": 2074,
      "Ġulti": 2075,
      "zice": 2076,
      "Ġlipsa": 2077,
      "Ġincat": 2078,
      "sm": 2079,
      "sol": 2080,
      "Ġavocat": 2081,
      "Ġequity": 2082,
      "Ġgenerale": 2083,
      "unoa": 2084,
      "Ġlimita": 2085,
      "Ġq": 2086,
      "Ġacce": 2087,
      "Ġexplo": 2088,
      "Ġnormele": 2089,
      "Ġprincipiul": 2090,
      "Ġact": 2091,
      "Ġtitlu": 2092,
      "Ġproceduri": 2093,
      "turi": 2094,
      "Ġmoni": 2095,
      "Ġrezultate": 2096,
      "oase": 2097,
      "Ġ06": 2098,
      "Ġenergi": 2099,
      "Ġrelevante": 2100,
      "Ġero": 2101,
      "Ġprejudici": 2102,
      "Ġ83": 2103,
      "Ġcheltuielilor": 2104,
      "Ġlini": 2105,
      "Ġhotarare": 2106,
      "Ġpozitia": 2107,
      "tusi": 2108,
      "inare": 2109,
      "Ġtotusi": 2110,
      "Ġniciun": 2111,
      "Ġ89": 2112,
      "Ġrespon": 2113,
      "Ġresping": 2114,
      "Ġprofi": 2115,
      "Ġ76": 2116,
      "Ġraspuns": 2117,
      "dar": 2118,
      "Ġsf": 2119,
      "Ġ77": 2120,
      "Ġdeja": 2121,
      "Ġnave": 2122,
      "Ġment": 2123,
      "late": 2124,
      "Ġcul": 2125,
      "Ġ69": 2126,
      "Ġpartilor": 2127,
      "13": 2128,
      "reze": 2129,
      "Ġtransfer": 2130,
      "dente": 2131,
      "Ġ07": 2132,
      "Ġ79": 2133,
      "Ġcin": 2134,
      "Ġdisponi": 2135,
      "Ġprodusului": 2136,
      "Ġcomunitare": 2137,
      "lui": 2138,
      "Ġreiese": 2139,
      "Ġrespin": 2140,
      "mnific": 2141,
      "Ġconsul": 2142,
      "Ġsuplimentare": 2143,
      "Ġcomerciale": 2144,
      "Ġaltor": 2145,
      "roni": 2146,
      "ctate": 2147,
      "selor": 2148,
      "lea": 2149,
      "Ġlibe": 2150,
      "pus": 2151,
      "Ġcategori": 2152,
      "Ġmaj": 2153,
      "Ġfr": 2154,
      "Ġmasurilor": 2155,
      "Ġresponsa": 2156,
      "Ġzile": 2157,
      "Ġlucrat": 2158,
      "Ġvar": 2159,
      "Ġcomune": 2160,
      "urg": 2161,
      "Ġstru": 2162,
      "Ġsuprave": 2163,
      "Ġ198": 2164,
      "Ġindepen": 2165,
      "Ġimprej": 2166,
      "15": 2167,
      "vale": 2168,
      "Ġintrebare": 2169,
      "Ġdispozitiilor": 2170,
      "Ġpropune": 2171,
      "Ġ'": 2172,
      "Ġinseamna": 2173,
      "Ġtext": 2174,
      "Î½": 2175,
      "Ġgermania": 2176,
      "Ġmomentul": 2177,
      "Ġsupraveghe": 2178,
      "Ġlegate": 2179,
      "Ġnormelor": 2180,
      "Ġconditia": 2181,
      "orti": 2182,
      "Ġsl": 2183,
      "Ġimprejura": 2184,
      "Ïģ": 2185,
      "Ġcontract": 2186,
      "ÏĦ": 2187,
      "Ġsemnific": 2188,
      "Ġcapital": 2189,
      "ctura": 2190,
      "Ġcontex": 2191,
      "Ġcreste": 2192,
      "mala": 2193,
      "lat": 2194,
      "Ġunit": 2195,
      "of": 2196,
      "spen": 2197,
      "Ġalineatele": 2198,
      "Ġconsiderentul": 2199,
      "onare": 2200,
      "Ġprintre": 2201,
      "Ġincadrare": 2202,
      "torul": 2203,
      "Ġtele": 2204,
      "Ġcheltuielile": 2205,
      "Ġobligatori": 2206,
      "Ġanume": 2207,
      "Ġrapor": 2208,
      "Ġon": 2209,
      "mise": 2210,
      "Ġprincipala": 2211,
      "Ġadoptat": 2212,
      "pta": 2213,
      "Ġsiguranta": 2214,
      "Ġactivitati": 2215,
      "Ġdeschi": 2216,
      "Ġcopi": 2217,
      "Ġtehnice": 2218,
      "Ġcarb": 2219,
      "Ġreprezinta": 2220,
      "Ġfuncti": 2221,
      "Ġind": 2222,
      "Ġaprob": 2223,
      "Ġunite": 2224,
      "Ġconcluziile": 2225,
      "Ġeditie": 2226,
      "Ġ86": 2227,
      "Ġanaliza": 2228,
      "Ġsustin": 2229,
      "Ġarata": 2230,
      "Ġali": 2231,
      "Ġdestinate": 2232,
      "Ġaratat": 2233,
      "Ġpriv": 2234,
      "Ġamb": 2235,
      "Ġcli": 2236,
      "Ġpropor": 2237,
      "Ġemisi": 2238,
      "Ġscri": 2239,
      "Ġajutor": 2240,
      "Ġconfir": 2241,
      "Ġstabilirea": 2242,
      "Ġsprij": 2243,
      "Ġbel": 2244,
      "Ġopini": 2245,
      "Ġproductie": 2246,
      "et": 2247,
      "rim": 2248,
      "Ġmodul": 2249,
      "Ġ03": 2250,
      "Ġha": 2251,
      "Ġsublini": 2252,
      "Ġmodificat": 2253,
      "Ġ101": 2254,
      "Ġevaluare": 2255,
      "Ġatingere": 2256,
      "ss": 2257,
      "unoaste": 2258,
      "Ġjuridic": 2259,
      "Ġpute": 2260,
      "rop": 2261,
      "Ġ82": 2262,
      "Ġdenumita": 2263,
      "Ġcorespunzatoare": 2264,
      "Ġpietei": 2265,
      "Ġpersoanelor": 2266,
      "Ġinformatiilor": 2267,
      "Ġdecizii": 2268,
      "Ġeligibile": 2269,
      "Ġvalori": 2270,
      "Ġdistri": 2271,
      "Ġlic": 2272,
      "Ġnecesara": 2273,
      "Ġtreilea": 2274,
      "den": 2275,
      "ĠÐ": 2276,
      "Ġpreliminare": 2277,
      "erate": 2278,
      "Ġmort": 2279,
      "Ġfrance": 2280,
      "stenta": 2281,
      "Ġconcent": 2282,
      "Ġcaracteristi": 2283,
      "Ġea": 2284,
      "Ġ0000": 2285,
      "sia": 2286,
      "Ġnoi": 2287,
      "cani": 2288,
      "Ġmotivele": 2289,
      "Ġserviciilor": 2290,
      "Ġsimilare": 2291,
      "Ġacoperi": 2292,
      "Ġmij": 2293,
      "ntelor": 2294,
      "Ġiv": 2295,
      "Ġinlocuie": 2296,
      "Ġserviciile": 2297,
      "Ġtratatul": 2298,
      "Ġextra": 2299,
      "Ġanumi": 2300,
      "Ġpretul": 2301,
      "Ġaer": 2302,
      "entu": 2303,
      "Ġlitigiul": 2304,
      "14": 2305,
      "Ġmaximum": 2306,
      "Ġadministrative": 2307,
      "Ġpunct": 2308,
      "Ġpunerea": 2309,
      "Ġrea": 2310,
      "Ġcompon": 2311,
      "Ġfundam": 2312,
      "Ġcomunitatii": 2313,
      "rala": 2314,
      "Ġcererii": 2315,
      "ane": 2316,
      "Ġactiuni": 2317,
      "gur": 2318,
      "Ġzona": 2319,
      "Ġsing": 2320,
      "ntele": 2321,
      "Ġprezinta": 2322,
      "Ġlimite": 2323,
      "Ġavut": 2324,
      "fere": 2325,
      "Ġauto": 2326,
      "Ġconstitui": 2327,
      "lid": 2328,
      "Ġeg": 2329,
      "Ġnere": 2330,
      "rs": 2331,
      "pusa": 2332,
      "Ġpol": 2333,
      "Ġspecific": 2334,
      "Ġstabileste": 2335,
      "Ġeta": 2336,
      "Ġobtine": 2337,
      "Ġcertificat": 2338,
      "Ġfinantarilor": 2339,
      "Ġtitul": 2340,
      "Ġtabel": 2341,
      "Ġcadru": 2342,
      "Ġgreutate": 2343,
      "Ġobiect": 2344,
      "Ġnecesi": 2345,
      "Ġsistemului": 2346,
      "Îµ": 2347,
      "Ġ04": 2348,
      "Ġfundamenta": 2349,
      "Ġdespre": 2350,
      "Ġdescrie": 2351,
      "stare": 2352,
      "Ġanularea": 2353,
      "go": 2354,
      "Ġslsc": 2355,
      "Ġaci": 2356,
      "Ġasoci": 2357,
      "Ġprotej": 2358,
      "Ġclau": 2359,
      "Ġvaloare": 2360,
      "Ġrespecta": 2361,
      "Ġreclamantei": 2362,
      "Ġsfarsi": 2363,
      "arului": 2364,
      "xe": 2365,
      "ocate": 2366,
      "Ġelectroni": 2367,
      "Ġsuspen": 2368,
      "Ġridi": 2369,
      "23": 2370,
      "Ġcomunitar": 2371,
      "Ġ2021": 2372,
      "Ġguvernul": 2373,
      "Ġnumele": 2374,
      "Ġdispozitiv": 2375,
      "Ġfru": 2376,
      "ot": 2377,
      "Ġvolu": 2378,
      "Ġcol": 2379,
      "Ġprezentei": 2380,
      "mentelor": 2381,
      "Ġactivitate": 2382,
      "inde": 2383,
      "Ġutilizare": 2384,
      "noi": 2385,
      "Ġincalca": 2386,
      "24": 2387,
      "Ġfami": 2388,
      "Ġsuficient": 2389,
      "Ġfolosi": 2390,
      "esti": 2391,
      "Ġajutoare": 2392,
      "scri": 2393,
      "Ġsee": 2394,
      "Ġstabileasca": 2395,
      "Ġcomun": 2396,
      "Ġjuridica": 2397,
      "Ġdetali": 2398,
      "Ġordonanta": 2399,
      "Ġtratament": 2400,
      "Ġlocul": 2401,
      "Ġdetin": 2402,
      "Ġanaliz": 2403,
      "0000": 2404,
      "Ġcaro": 2405,
      "Ġgo": 2406,
      "Ġsanatate": 2407,
      "Ġdocument": 2408,
      "tilor": 2409,
      "ral": 2410,
      "var": 2411,
      "Ġalin": 2412,
      "Ġarm": 2413,
      "Ġechivale": 2414,
      "Ġmm": 2415,
      "Ïħ": 2416,
      "Ġimb": 2417,
      "Ġpasa": 2418,
      "Ġcaracterul": 2419,
      "Ġaspect": 2420,
      "Ġinclude": 2421,
      "Ġanumitor": 2422,
      "Ġconce": 2423,
      "Ġrefera": 2424,
      "Ġautoritatilor": 2425,
      "Ġinstantei": 2426,
      "Ġloca": 2427,
      "Ġjos": 2428,
      "ogra": 2429,
      "dul": 2430,
      "cilor": 2431,
      "Ġagricole": 2432,
      "Ġpor": 2433,
      "Ġperioadei": 2434,
      "ore": 2435,
      "Ġatribui": 2436,
      "Ġet": 2437,
      "ĠâĢĻ": 2438,
      "Ġapreciere": 2439,
      "Ġsarcina": 2440,
      "ctare": 2441,
      "Ġjudi": 2442,
      "gerea": 2443,
      "Ġaduce": 2444,
      "Ġinten": 2445,
      "Ð°": 2446,
      "34": 2447,
      "Ġnorme": 2448,
      "Ġprofesion": 2449,
      "Ġtarif": 2450,
      "Ġeconomice": 2451,
      "zari": 2452,
      "Ġinci": 2453,
      "Ġproviz": 2454,
      "Ġexploat": 2455,
      "zii": 2456,
      "siunea": 2457,
      "Ġreinnoi": 2458,
      "Ġuna": 2459,
      "rogare": 2460,
      "Ġcentrale": 2461,
      "san": 2462,
      "stat": 2463,
      "Ġlan": 2464,
      "Ġaeri": 2465,
      "Ġdiferite": 2466,
      "Ġtermenul": 2467,
      "zeze": 2468,
      "Ġinterpretarea": 2469,
      "alele": 2470,
      "Ġcondu": 2471,
      "Ġcaror": 2472,
      "16": 2473,
      "arare": 2474,
      "Ġinternational": 2475,
      "Ġcontine": 2476,
      "Ġmu": 2477,
      "Ġdrepturile": 2478,
      "Ġmediu": 2479,
      "Ġconstata": 2480,
      "Ġprintr": 2481,
      "Ġformulata": 2482,
      "geri": 2483,
      "Ġautoritatii": 2484,
      "Ġcaruia": 2485,
      "Ġevaluarea": 2486,
      "Ġ110": 2487,
      "Ġesenta": 2488,
      "Ġexclusiv": 2489,
      "Ġinstal": 2490,
      "Ġbelgi": 2491,
      "Ġmin": 2492,
      "Ġstati": 2493,
      "Ġcivi": 2494,
      "Ġaferente": 2495,
      "Ġoricare": 2496,
      "Ġalimentare": 2497,
      "Ġreprezent": 2498,
      "Ġasadar": 2499,
      "Ġentitati": 2500,
      "Ġguvern": 2501,
      "33": 2502,
      "19": 2503,
      "Ġeventu": 2504,
      "Ġinlocuieste": 2505,
      "elles": 2506,
      "Ġsecuritate": 2507,
      "Ġif": 2508,
      "Ġomolo": 2509,
      "Ġsala": 2510,
      "Ġincalcare": 2511,
      "Ġlegislatia": 2512,
      "Ġtarile": 2513,
      "au": 2514,
      "Ġconstru": 2515,
      "Ġrel": 2516,
      "ungi": 2517,
      "25": 2518,
      "Ġfinanciar": 2519,
      "Ġsk": 2520,
      "Ġsituatie": 2521,
      "Ġdos": 2522,
      "ap": 2523,
      "taj": 2524,
      "Ġ197": 2525,
      "Ġconstat": 2526,
      "teaza": 2527,
      "Ġtotal": 2528,
      "Ġmetoda": 2529,
      "Ïĥ": 2530,
      "Ġmecani": 2531,
      "Ġcontribu": 2532,
      "Ġsedi": 2533,
      "Ġrecunosc": 2534,
      "com": 2535,
      "ania": 2536,
      "Ġ&": 2537,
      "Ġcarora": 2538,
      "Ġstabilita": 2539,
      "Ġsol": 2540,
      "Ġsal": 2541,
      "Ġdepozi": 2542,
      "Ġit": 2543,
      "Ġulterior": 2544,
      "Ġrespectarea": 2545,
      "zele": 2546,
      "Ġinregistrare": 2547,
      "tale": 2548,
      "gere": 2549,
      "Ġstra": 2550,
      "arte": 2551,
      "Ġzone": 2552,
      "Ġvin": 2553,
      "Ġinspe": 2554,
      "Ġsur": 2555,
      "Ġafla": 2556,
      "lic": 2557,
      "gul": 2558,
      "Ġmijlo": 2559,
      "Ġoa": 2560,
      "Ġprece": 2561,
      "Ġamintit": 2562,
      "Ġcelei": 2563,
      "Ġdeleg": 2564,
      "Ġbrux": 2565,
      "Ġerau": 2566,
      "ster": 2567,
      "Ġsuma": 2568,
      "17": 2569,
      "Ġcomuna": 2570,
      "Ġfurniz": 2571,
      "Ġcontracta": 2572,
      "Ġindicat": 2573,
      "Ġinterpretat": 2574,
      "Ġbruxelles": 2575,
      "Ġproces": 2576,
      "Ġminimum": 2577,
      "sie": 2578,
      "Ġcomitetului": 2579,
      "Ġobligatoriu": 2580,
      "Ġcompens": 2581,
      "Ġopinia": 2582,
      "Ġprincipiu": 2583,
      "Ġrecunoaste": 2584,
      "Ġadoptate": 2585,
      "Ġreglementare": 2586,
      "Ġdetermina": 2587,
      "Ġsancti": 2588,
      "samb": 2589,
      "gen": 2590,
      "Ġadi": 2591,
      "Ġtipul": 2592,
      "Ġfigu": 2593,
      "tel": 2594,
      "Ġcomunitara": 2595,
      "Ġinteg": 2596,
      "Ġlibera": 2597,
      "tura": 2598,
      "Ġindica": 2599,
      "Ġvamale": 2600,
      "Ġgro": 2601,
      "âĶĢâĶĢâĶĢâĶĢâĶĢâĶĢâĶĢâĶĢâĶĢâĶĢâĶĢâĶĢâĶĢâĶĢâĶĢâĶĢ": 2602,
      "Ġnet": 2603,
      "Ġacorda": 2604,
      "Ġtinand": 2605,
      "Ġltd": 2606,
      "Ġfurnizate": 2607,
      "Ġtr": 2608,
      "Ġcontrolul": 2609,
      "Ġresur": 2610,
      "genta": 2611,
      "Ġcale": 2612,
      "Ġtranzi": 2613,
      "Ġfaca": 2614,
      "ante": 2615,
      "Ġsav": 2616,
      "Ġproportion": 2617,
      "Ġcelui": 2618,
      "Ġextin": 2619,
      "Ġsed": 2620,
      "Ġcelelalte": 2621,
      "Ġdove": 2622,
      "Ġsolution": 2623,
      "Ġactivitatea": 2624,
      "tile": 2625,
      "18": 2626,
      "Ġmic": 2627,
      "Ġfacili": 2628,
      "Ġemite": 2629,
      "landa": 2630,
      "har": 2631,
      "Ġbuge": 2632,
      "29": 2633,
      "Ġdemonst": 2634,
      "ome": 2635,
      "Ġnou": 2636,
      "Ġ104": 2637,
      "atice": 2638,
      "Ġadu": 2639,
      "tud": 2640,
      "Ġinregistr": 2641,
      "Ġactu": 2642,
      "Ġtimpul": 2643,
      "Ĥ¬": 2644,
      "aturi": 2645,
      "Ġlege": 2646,
      "Ġsase": 2647,
      "rum": 2648,
      "ĠâĤ¬": 2649,
      "Ġcuantumul": 2650,
      "Ġgen": 2651,
      "Ġvala": 2652,
      "Ġpersoanele": 2653,
      "Ġprodusul": 2654,
      "Ġpersonal": 2655,
      "dice": 2656,
      "Ġdistin": 2657,
      "Ġmode": 2658,
      "Ġansamb": 2659,
      "Ġsavarsi": 2660,
      "Ġsocietatii": 2661,
      "Ġutilizeaza": 2662,
      "tan": 2663,
      "gn": 2664,
      "bilitatii": 2665,
      "Ġgaz": 2666,
      "Ġcombin": 2667,
      "parate": 2668,
      "Ġsuc": 2669,
      "Ġrx": 2670,
      "litate": 2671,
      "Ð¸": 2672,
      "Ġredu": 2673,
      "Ġinternationale": 2674,
      "Ġposibil": 2675,
      "Ġnc": 2676,
      "Ġactivitatile": 2677,
      "Ġec": 2678,
      "Ġhotararii": 2679,
      "gust": 2680,
      "Ġ040": 2681,
      "od": 2682,
      "Ġcif": 2683,
      "onat": 2684,
      "Ġverifica": 2685,
      "Ġsele": 2686,
      "Ġvamal": 2687,
      "Ġaccesul": 2688,
      "Ġcategorii": 2689,
      "Ġancheta": 2690,
      "Ġinta": 2691,
      "derii": 2692,
      "Ġadaug": 2693,
      "Ġstudi": 2694,
      "ty": 2695,
      "Ġref": 2696,
      "es": 2697,
      "Ġcorespunzator": 2698,
      "Ġeconomic": 2699,
      "Ġtaxa": 2700,
      "Ġurmari": 2701,
      "Ġprincipiului": 2702,
      "Ġabu": 2703,
      "Ġretra": 2704,
      "Ġcap": 2705,
      "Ġconcurenta": 2706,
      "Ġexpi": 2707,
      "Ġmarcii": 2708,
      "Ġconsider": 2709,
      "oneaza": 2710,
      "Ġutilizata": 2711,
      "Ġmentine": 2712,
      "Ġdrepturi": 2713,
      "lar": 2714,
      "ocol": 2715,
      "Ġcirculatie": 2716,
      "Ġtine": 2717,
      "Î·": 2718,
      "Ġinchi": 2719,
      "Ġpoliti": 2720,
      "Ġtreia": 2721,
      "ortate": 2722,
      "Ġdesemn": 2723,
      "Ġluate": 2724,
      "Ġadevar": 2725,
      "Ġproblema": 2726,
      "las": 2727,
      "Ġraportul": 2728,
      "Ġfigureaza": 2729,
      "Ġefectiv": 2730,
      "cea": 2731,
      "sch": 2732,
      "Ġpoata": 2733,
      "Ġgb": 2734,
      "Ġadoptarea": 2735,
      "Ġcreditului": 2736,
      "ii": 2737,
      "Ġcas": 2738,
      "Ġform": 2739,
      "Ġcereri": 2740,
      "Ġchimi": 2741,
      "data": 2742,
      "Ġrepro": 2743,
      "ose": 2744,
      "gare": 2745,
      "Ġaugust": 2746,
      "Ġben": 2747,
      "zia": 2748,
      "urate": 2749,
      "Ġnoa": 2750,
      "Ġsolicitat": 2751,
      "Ġscris": 2752,
      "Ġir": 2753,
      "lului": 2754,
      "Ġincepand": 2755,
      "rom": 2756,
      "Ġnecon": 2757,
      "Ġproc": 2758,
      "Ġprime": 2759,
      "Ġafirm": 2760,
      "Ġsuperi": 2761,
      "Ġconsiderate": 2762,
      "Ġinvoca": 2763,
      "Ġrepublicii": 2764,
      "Ġavizul": 2765,
      "Ġrecure": 2766,
      "Ġsesi": 2767,
      "Ġasigu": 2768,
      "Ġjustitie": 2769,
      "Ġrezerva": 2770,
      "carui": 2771,
      "Ġapa": 2772,
      "Ġaiba": 2773,
      "Ġflu": 2774,
      "Ġfunctiona": 2775,
      "Ġproduce": 2776,
      "Ġactiunii": 2777,
      "Ġspeciale": 2778,
      "Ġprot": 2779,
      "Ġunul": 2780,
      "venit": 2781,
      "Ġdat": 2782,
      "ke": 2783,
      "Ġcategoria": 2784,
      "Ġprezentat": 2785,
      "Ġcontinutul": 2786,
      "Ġadminist": 2787,
      "Ġeroare": 2788,
      "Ġlichi": 2789,
      "Ġasigurare": 2790,
      "Ġfacut": 2791,
      "Ġobligatiilor": 2792,
      "Ġrem": 2793,
      "Ġindic": 2794,
      "Ġrest": 2795,
      "oli": 2796,
      "Ġvizate": 2797,
      "Ġvenit": 2798,
      "Ġora": 2799,
      "Ġnom": 2800,
      "Ġdel": 2801,
      "ticul": 2802,
      "Ġtabelul": 2803,
      "gati": 2804,
      "Ġfra": 2805,
      "Ġameste": 2806,
      "Ġfundamentale": 2807,
      "Ġtotala": 2808,
      "Ġsprijin": 2809,
      "ÏĢ": 2810,
      "Ġcarta": 2811,
      "Ġcomer": 2812,
      "Ġpromo": 2813,
      "Ġprotocol": 2814,
      "ft": 2815,
      "zol": 2816,
      "Ġtur": 2817,
      "Ġcomporta": 2818,
      "Ġgenerala": 2819,
      "Ġderi": 2820,
      "alo": 2821,
      "pro": 2822,
      "Ġcetat": 2823,
      "Ġifrs": 2824,
      "Ġpra": 2825,
      "Ġdenumirea": 2826,
      "Ġliv": 2827,
      "Ġefici": 2828,
      "Ġuniunea": 2829,
      "Ġsch": 2830,
      "Ġconfi": 2831,
      "Ġconstitu": 2832,
      "Ġtransmite": 2833,
      "Ġinstituire": 2834,
      "dare": 2835,
      "Ġriscul": 2836,
      "Ġdispune": 2837,
      "Ġsubstanta": 2838,
      "Ġarmoni": 2839,
      "Ġaface": 2840,
      "Ġcurte": 2841,
      "Ġtest": 2842,
      "Ġpresup": 2843,
      "Ġspre": 2844,
      "Ġhar": 2845,
      "onarea": 2846,
      "onia": 2847,
      "Ġregion": 2848,
      "Ġcosturile": 2849,
      "Ġsuplimen": 2850,
      "Ðµ": 2851,
      "Ġmasini": 2852,
      "Ġsocietate": 2853,
      "Ġperman": 2854,
      "Ġaplicarii": 2855,
      "Ġsolicitan": 2856,
      "pc": 2857,
      "Ġcuprinde": 2858,
      "gh": 2859,
      "Ġprocedurile": 2860,
      "Ġdepaseste": 2861,
      "Ð¾": 2862,
      "Ġ130": 2863,
      "Ġconstatat": 2864,
      "Ġdezvoltare": 2865,
      "Ġasistenta": 2866,
      "Ġacid": 2867,
      "Ġabs": 2868,
      "ki": 2869,
      "Ġadmisi": 2870,
      "Ġresorti": 2871,
      "Ġregim": 2872,
      "Ġuman": 2873,
      "Ġportu": 2874,
      "Ġfunctionarea": 2875,
      "Ġfamili": 2876,
      "oarece": 2877,
      "Ġpreturile": 2878,
      "Ġcontractului": 2879,
      "Ġdeoarece": 2880,
      "Ġmijloace": 2881,
      "Ġela": 2882,
      "Ġstatutul": 2883,
      "Ġsarcini": 2884,
      "Ġintrebari": 2885,
      "Ġobligatiile": 2886,
      "Ġrecupe": 2887,
      "Ġaccep": 2888,
      "land": 2889,
      "Ġuz": 2890,
      "Ġconsiderata": 2891,
      "siune": 2892,
      "Ġresortisan": 2893,
      "Ġcamerei": 2894,
      "Ġtar": 2895,
      "Ġimpa": 2896,
      "rent": 2897,
      "Ġdebi": 2898,
      "ÏĤ": 2899,
      "Ġutilizat": 2900,
      "Ġpopul": 2901,
      "Ġesenti": 2902,
      "38": 2903,
      "Ġpresedinte": 2904,
      "Ġfib": 2905,
      "Ġefectueaza": 2906,
      "Ġpermita": 2907,
      "Ġaprecierea": 2908,
      "Ġconventia": 2909,
      "Ġdisponibile": 2910,
      "Ġpreturilor": 2911,
      "bal": 2912,
      "Ġmotivul": 2913,
      "26": 2914,
      "Ġdispozitia": 2915,
      "Ġputere": 2916,
      "Ġrespins": 2917,
      "Ġcompar": 2918,
      "Ġ1998": 2919,
      "Ġenergie": 2920,
      "Ġadresa": 2921,
      "cin": 2922,
      "Ġfix": 2923,
      "Ġaju": 2924,
      "Ġhidro": 2925,
      "Ġimporturile": 2926,
      "Ġinterpretare": 2927,
      "Ġsimp": 2928,
      "Ġobservatii": 2929,
      "Ġapreci": 2930,
      "inti": 2931,
      "Ġanterioare": 2932,
      "Ġpozitie": 2933,
      "Ġinti": 2934,
      "Ġserviciu": 2935,
      "Ġnoua": 2936,
      "Ġasigure": 2937,
      "Ġcomercializ": 2938,
      "Ġinvestitii": 2939,
      "tionale": 2940,
      "Ġobtinute": 2941,
      "Ġacte": 2942,
      "Ġarticolelor": 2943,
      "Ġinterna": 2944,
      "Ġcomunitatilor": 2945,
      "Ġfer": 2946,
      "Ġderiv": 2947,
      "Ġnl": 2948,
      "Ġfizice": 2949,
      "anda": 2950,
      "Ġeconomica": 2951,
      "Ġsupraveghere": 2952,
      "Ġas": 2953,
      "Ġrelevanta": 2954,
      "Ġatac": 2955,
      "Ġmonitori": 2956,
      "Ġresed": 2957,
      "Ġinstrumente": 2958,
      "Ġdepune": 2959,
      "dumping": 2960,
      "Ġantidumping": 2961,
      "Ġacesti": 2962,
      "Ġhotara": 2963,
      "Ġpt": 2964,
      "Ġslo": 2965,
      "Ġincluse": 2966,
      "Ġtribunal": 2967,
      "Ġsalari": 2968,
      "Ġintreprindere": 2969,
      "Ġpost": 2970,
      "zie": 2971,
      "lande": 2972,
      "Ġitalia": 2973,
      "Ġspani": 2974,
      "zelor": 2975,
      "Ġclar": 2976,
      "Ġtu": 2977,
      "Ġsche": 2978,
      "Ġulei": 2979,
      "carb": 2980,
      "Ġinteresate": 2981,
      "Ġair": 2982,
      "Ġaltfel": 2983,
      "Ġpreala": 2984,
      "Ġinsc": 2985,
      "Ġacordat": 2986,
      "Ġrecom": 2987,
      "Ġmarfurilor": 2988,
      "Ġultima": 2989,
      "ant": 2990,
      "Ġimpie": 2991,
      "Ġfiscale": 2992,
      "Ġacordate": 2993,
      "Ġreex": 2994,
      "Ġmaterial": 2995,
      "Ġreinnoibile": 2996,
      "Ġmulti": 2997,
      "Ġelement": 2998,
      "Ġhotarari": 2999,
      "Ġparticul": 3000,
      "Ġglo": 3001,
      "Ġgaranta": 3002,
      "Ġenum": 3003,
      "Ġmodificata": 3004,
      "35": 3005,
      "Ġcomitetul": 3006,
      "sii": 3007,
      "ka": 3008,
      "Ġoapi": 3009,
      "Ġcircum": 3010,
      "cipa": 3011,
      "Ġhe": 3012,
      "Ġbar": 3013,
      "Ġimpoza": 3014,
      "Ġimporturilor": 3015,
      "Ġaplicabila": 3016,
      "Ġnea": 3017,
      "Ġdocumentele": 3018,
      "Ġnaste": 3019,
      "Ġsubstante": 3020,
      "Ġcompati": 3021,
      "02": 3022,
      "Ġurgenta": 3023,
      "Ġfinal": 3024,
      "Ġfili": 3025,
      "Ġore": 3026,
      "Ġobligarea": 3027,
      "Ġordine": 3028,
      "Ġadres": 3029,
      "Ġavantaj": 3030,
      "Ġopozi": 3031,
      "Ġaplicabil": 3032,
      "ararea": 3033,
      "Ġdocumente": 3034,
      "Ġimplica": 3035,
      "Ġvanzare": 3036,
      "Ġaplice": 3037,
      "Ġesti": 3038,
      "Ġlegii": 3039,
      "39": 3040,
      "Ġdetine": 3041,
      "Ġimportanta": 3042,
      "Ġjustifica": 3043,
      "Ġexercitarea": 3044,
      "Ġpractica": 3045,
      "Ġpregati": 3046,
      "diu": 3047,
      "37": 3048,
      "Ġelibe": 3049,
      "Ġpersoanei": 3050,
      "Ġdenumit": 3051,
      "Ġacordarea": 3052,
      "Ġgr": 3053,
      "Ġputut": 3054,
      "Ġurmareste": 3055,
      "Ġsociale": 3056,
      "Ġintrebarile": 3057,
      "misa": 3058,
      "up": 3059,
      "Ġunic": 3060,
      "Ġstoc": 3061,
      "Ġsocietatea": 3062,
      "Ġregimul": 3063,
      "01": 3064,
      "minte": 3065,
      "Ġpublicarii": 3066,
      "Ġconditiilor": 3067,
      "Ġcomunicarea": 3068,
      "ju": 3069,
      "sit": 3070,
      "Ġparlamentul": 3071,
      "Ġ220": 3072,
      "osebi": 3073,
      "Ġfre": 3074,
      "Ġdumping": 3075,
      "ko": 3076,
      "ll": 3077,
      "Ġhu": 3078,
      "Ġsustinerea": 3079,
      "dmisi": 3080,
      "Ġcoord": 3081,
      "Ġalimen": 3082,
      "27": 3083,
      "Ġreprezentanti": 3084,
      "Ġexercita": 3085,
      "Ġpronunt": 3086,
      "Ġpretin": 3087,
      "Ġefectuata": 3088,
      "busti": 3089,
      "Ġcriteri": 3090,
      "Ġing": 3091,
      "Ġrepar": 3092,
      "Ġinvocate": 3093,
      "Ġoperator": 3094,
      "Ġze": 3095,
      "Ġmediului": 3096,
      "Ġxi": 3097,
      "Ġcontesta": 3098,
      "tern": 3099,
      "Ġfel": 3100,
      "Ġinfor": 3101,
      "Ġcredi": 3102,
      "Ġmarci": 3103,
      "Ġcn": 3104,
      "Ġliterele": 3105,
      "54": 3106,
      "col": 3107,
      "Ġintroduce": 3108,
      "Ġrezidu": 3109,
      "Ġoferta": 3110,
      "ding": 3111,
      "Ġcontextul": 3112,
      "Ġoperatiuni": 3113,
      "Ġsupuse": 3114,
      "Ġfron": 3115,
      "Ġope": 3116,
      "Ġgeogra": 3117,
      "Ġaplicate": 3118,
      "ato": 3119,
      "Ġproductia": 3120,
      "ctat": 3121,
      "Ġautom": 3122,
      "Ġcauzei": 3123,
      "tiere": 3124,
      "Ġinadmisi": 3125,
      "Ġnotiunea": 3126,
      "Ġrata": 3127,
      "uita": 3128,
      "Ġprezentarea": 3129,
      "Ġagent": 3130,
      "28": 3131,
      "Ġstandard": 3132,
      "Ġrestitui": 3133,
      "Ġului": 3134,
      "Ġintai": 3135,
      "Ġscur": 3136,
      "Ġcertificate": 3137,
      "no": 3138,
      "Ġmasa": 3139,
      "Ġintreprinderilor": 3140,
      "Ġunde": 3141,
      "Ġmaxima": 3142,
      "Ġdimen": 3143,
      "Ġreglement": 3144,
      "Ġresedinta": 3145,
      "Ġafaceri": 3146,
      "tenti": 3147,
      "Ġajutorul": 3148,
      "Ġincidenta": 3149,
      "Ġocu": 3150,
      "Ġmoda": 3151,
      "pie": 3152,
      "time": 3153,
      "Ġaustri": 3154,
      "Ġtaxei": 3155,
      "Ġdoamna": 3156,
      "Ġple": 3157,
      "Ġreexam": 3158,
      "Ġvalorii": 3159,
      "Ġrezona": 3160,
      "Ġaerona": 3161,
      "Ġagricul": 3162,
      "Ġtaxe": 3163,
      "Ġprobe": 3164,
      "Ð½": 3165,
      "Ġoca": 3166,
      "tt": 3167,
      "Ġanulare": 3168,
      "36": 3169,
      "alitate": 3170,
      "Ġlegu": 3171,
      "Ġproducatori": 3172,
      "Ġargumentele": 3173,
      "stice": 3174,
      "Ġcuno": 3175,
      "Ġpresedintele": 3176,
      "fata": 3177,
      "Ġadauga": 3178,
      "Ġ107": 3179,
      "Ġcerce": 3180,
      "des": 3181,
      "Ġintrodusa": 3182,
      "gle": 3183,
      "Ġfranta": 3184,
      "Ġobservatiile": 3185,
      "Ġspati": 3186,
      "ĠÂ°": 3187,
      "Ġlegislatiei": 3188,
      "Ġprimi": 3189,
      "nologi": 3190,
      "delor": 3191,
      "Ġinfra": 3192,
      "Ġacci": 3193,
      "Ġmotor": 3194,
      "Ġobiectivul": 3195,
      "Ġimpreuna": 3196,
      "Ġidentificare": 3197,
      "Ġlumina": 3198,
      "Ġoferi": 3199,
      "Ġconcluzii": 3200,
      "ferent": 3201,
      "entelor": 3202,
      "Ġinstitutiile": 3203,
      "Ġcurs": 3204,
      "Ġinal": 3205,
      "51": 3206,
      "Ġvo": 3207,
      "Ġinterventi": 3208,
      "Ġ080": 3209,
      "Ġelimin": 3210,
      "Ġradi": 3211,
      "Ġechipamente": 3212,
      "Ġfructe": 3213,
      "Ġfinanciara": 3214,
      "Ġfoarte": 3215,
      "Ġreviz": 3216,
      "Ġcontinua": 3217,
      "Ġenumerate": 3218,
      "Ġconstate": 3219,
      "Ġth": 3220,
      "Ġdeosebi": 3221,
      "Ġreuni": 3222,
      "mne": 3223,
      "Ġimedi": 3224,
      "Ġincre": 3225,
      "val": 3226,
      "line": 3227,
      "Ġorienta": 3228,
      "Ġmodificarea": 3229,
      "Ġbr": 3230,
      "Ġzz": 3231,
      "sdi": 3232,
      "Ġdesfasura": 3233,
      "Ġcota": 3234,
      "Ġrevine": 3235,
      "Ġintar": 3236,
      "rica": 3237,
      "Ġconting": 3238,
      "Ġcomunitate": 3239,
      "Ġinvocat": 3240,
      "Ġraman": 3241,
      "Ġexistente": 3242,
      "Ġindiferent": 3243,
      "Ġsediul": 3244,
      "Ġintitul": 3245,
      "Ġ020": 3246,
      "Ġis": 3247,
      "Ġcombusti": 3248,
      "Ġproducatorii": 3249,
      "Ġpierde": 3250,
      "Ġsfarsit": 3251,
      "Ġconsiderentele": 3252,
      "Ġplas": 3253,
      "Ġeui": 3254,
      "Ġcerinta": 3255,
      "Ġteren": 3256,
      "Ġutilizarii": 3257,
      "Ġinso": 3258,
      "Ġvarsta": 3259,
      "Ġefecte": 3260,
      "Ġcinci": 3261,
      "Ġvanza": 3262,
      "Ġreduce": 3263,
      "cle": 3264,
      "Ġmica": 3265,
      "forman": 3266,
      "Î»": 3267,
      "Ġdestinat": 3268,
      "Ġeuipo": 3269,
      "oxi": 3270,
      "44": 3271,
      "Ġindustria": 3272,
      "Ġdefinite": 3273,
      "Ġaustria": 3274,
      "Ġconso": 3275,
      "Ġprofit": 3276,
      "ÅĤ": 3277,
      "58": 3278,
      "Ġaparate": 3279,
      "Ġaman": 3280,
      "galitatii": 3281,
      "Ġest": 3282,
      "Ġusc": 3283,
      "Ġobligatii": 3284,
      "Ġopune": 3285,
      "Ġintoc": 3286,
      "Ġintretine": 3287,
      "Ġramburs": 3288,
      "Ġactivitatilor": 3289,
      "Ġtarilor": 3290,
      "Ġmand": 3291,
      "Ġko": 3292,
      "scul": 3293,
      "Ġteza": 3294,
      "Ġ207": 3295,
      "Ġcei": 3296,
      "Ġdispozitive": 3297,
      "ho": 3298,
      "Ġcy": 3299,
      "Ġcuprins": 3300,
      "Ġconstructii": 3301,
      "Ġsituatii": 3302,
      "Ġcircumsta": 3303,
      "Ġdiver": 3304,
      "Ġintrare": 3305,
      "Ġapele": 3306,
      "Ġfonduri": 3307,
      "Ġcalitatea": 3308,
      "Ġmarfuri": 3309,
      "Ġacu": 3310,
      "amentul": 3311,
      "Ġindustriei": 3312,
      "Ġrestrictii": 3313,
      "tudine": 3314,
      "Ġactivitatii": 3315,
      "Ġmodificarile": 3316,
      "Ġpare": 3317,
      "Ġjudici": 3318,
      "Ġrezultat": 3319,
      "Ġjurisdi": 3320,
      "tiche": 3321,
      "Ġcazuri": 3322,
      "Ġadecvate": 3323,
      "Ġbg": 3324,
      "Ġdiscri": 3325,
      "Ġtempora": 3326,
      "Ġdescri": 3327,
      "46": 3328,
      "we": 3329,
      "Ġ112": 3330,
      "Ġâī": 3331,
      "Ġincheiat": 3332,
      "Ġdesfasoara": 3333,
      "sn": 3334,
      "Ġbuna": 3335,
      "Ġmodificari": 3336,
      "Ġnotifica": 3337,
      "Ġreferitor": 3338,
      "Ġordin": 3339,
      "95": 3340,
      "Ġstructura": 3341,
      "Ġdeseuri": 3342,
      "08": 3343,
      "07": 3344,
      "Ġnoastra": 3345,
      "Ġanimalelor": 3346,
      "Ġsul": 3347,
      "wi": 3348,
      "litatea": 3349,
      "Ġcapacitatea": 3350,
      "Ġlar": 3351,
      "Ġulterioare": 3352,
      "Ġpolitica": 3353,
      "cht": 3354,
      "Ġexaminarea": 3355,
      "Ġzahar": 3356,
      "Ġacelea": 3357,
      "Ġcro": 3358,
      "Ġcoro": 3359,
      "Ġanului": 3360,
      "tiva": 3361,
      "Ġreclamantul": 3362,
      "Ġpatrul": 3363,
      "ase": 3364,
      "Ġformulate": 3365,
      "Ġsedere": 3366,
      "Ġcontrar": 3367,
      "Ġinsu": 3368,
      "ger": 3369,
      "stre": 3370,
      "Ġprecizeaza": 3371,
      "Ġargument": 3372,
      "Ġexamina": 3373,
      "nii": 3374,
      "amentele": 3375,
      "Ġactiv": 3376,
      "Ġcapt": 3377,
      "Ġexecutarea": 3378,
      "ciu": 3379,
      "Ġ196": 3380,
      "Ġnec": 3381,
      "Ġintreprinderile": 3382,
      "Ġretele": 3383,
      "Ġdk": 3384,
      "Îº": 3385,
      "Ġdatori": 3386,
      "sh": 3387,
      "Ġretin": 3388,
      "Ġinteri": 3389,
      "Ġpresta": 3390,
      "Ġimprum": 3391,
      "Ġlucr": 3392,
      "Ġchesti": 3393,
      "Ġarti": 3394,
      "Ġei": 3395,
      "Ġvizeaza": 3396,
      "Ġdispozitivul": 3397,
      "Ġpatrulea": 3398,
      "Ġachizition": 3399,
      "Ġgestionare": 3400,
      "Ġbio": 3401,
      "47": 3402,
      "ly": 3403,
      "Ġauton": 3404,
      "Ġstiinti": 3405,
      "Ġ030": 3406,
      "Ġ5493": 3407,
      "Ġspecifica": 3408,
      "Ġproprietate": 3409,
      "lin": 3410,
      "Ġdator": 3411,
      "Ġconcurentei": 3412,
      "Ġsuprafata": 3413,
      "ÑĢ": 3414,
      "Ġintegra": 3415,
      "Ġfunctii": 3416,
      "Ġdifere": 3417,
      "56": 3418,
      "Ġbiro": 3419,
      "Ġasigurarea": 3420,
      "Ġindeplinite": 3421,
      "Ġefectuat": 3422,
      "Ġcomerciala": 3423,
      "Ġapen": 3424,
      "Ġvalorile": 3425,
      "Ġamestec": 3426,
      "ineze": 3427,
      "Ġindire": 3428,
      "tional": 3429,
      "Ġforfe": 3430,
      "cteaza": 3431,
      "Ġorgan": 3432,
      "stituit": 3433,
      "Ġbeneficia": 3434,
      "Ġautoritate": 3435,
      "Ġ108": 3436,
      "Ġcerintelor": 3437,
      "Ġapendice": 3438,
      "Ġactele": 3439,
      "uite": 3440,
      "alitatii": 3441,
      "Ġhran": 3442,
      "oana": 3443,
      "Ġtone": 3444,
      "Ġtitlul": 3445,
      "parat": 3446,
      "Ġclor": 3447,
      "Ġefectele": 3448,
      "venite": 3449,
      "Ġriscurilor": 3450,
      "Ġgarantii": 3451,
      "uti": 3452,
      "Ġcetateni": 3453,
      "torii": 3454,
      "Ġinceput": 3455,
      "Ġimpu": 3456,
      "Ġmone": 3457,
      "Ġtehnologi": 3458,
      "Ġpon": 3459,
      "Ġindice": 3460,
      "Ġcazului": 3461,
      "uli": 3462,
      "Ġstare": 3463,
      "Ġ1994": 3464,
      "Ġcontrib": 3465,
      "Ġfede": 3466,
      "mbh": 3467,
      "Ġvorba": 3468,
      "ctuala": 3469,
      "Ġintrarea": 3470,
      "Î¼": 3471,
      "Ġtemper": 3472,
      "Â°": 3473,
      "Ġformulat": 3474,
      "Ġ549300": 3475,
      "Ġotel": 3476,
      "Ġprincipiile": 3477,
      "Ġinterdi": 3478,
      "dentei": 3479,
      "mea": 3480,
      "Ġperforman": 3481,
      "Ġlui": 3482,
      "oriu": 3483,
      "Ġgmbh": 3484,
      "45": 3485,
      "Ġsecre": 3486,
      "Ġbeneficiaza": 3487,
      "Ġprocedurilor": 3488,
      "Ġfapte": 3489,
      "Ġprogram": 3490,
      "Ġparticipa": 3491,
      "Ġnorma": 3492,
      "Ġee": 3493,
      "agu": 3494,
      "98": 3495,
      "Ġdeciziile": 3496,
      "Ġconf": 3497,
      "Ġimprumut": 3498,
      "Ġstatu": 3499,
      "Ġexprim": 3500,
      "Ġpur": 3501,
      "mic": 3502,
      "Ġfaptului": 3503,
      "Ġfiscala": 3504,
      "Ġacordului": 3505,
      "Ġprincipale": 3506,
      "Ġconcre": 3507,
      "Ġmt": 3508,
      "Ġfar": 3509,
      "Ġrespinge": 3510,
      "ji": 3511,
      "Ġetiche": 3512,
      "Ġsociala": 3513,
      "Ġprel": 3514,
      "Ġcz": 3515,
      "roga": 3516,
      "Ġvehiculului": 3517,
      "Ġvolumul": 3518,
      "Ġcontracte": 3519,
      "Ġaceleasi": 3520,
      "wa": 3521,
      "Ġfiscal": 3522,
      "Ġdecre": 3523,
      "mativ": 3524,
      "Ġadoptata": 3525,
      "Ġintreprinderii": 3526,
      "Ġinterzice": 3527,
      "Ġactelor": 3528,
      "Ġincalcarii": 3529,
      "Ġconforme": 3530,
      "ursa": 3531,
      "zand": 3532,
      "Ġintrodus": 3533,
      "ologice": 3534,
      "Ġintroducerea": 3535,
      "Ġoricarei": 3536,
      "Ġexecutare": 3537,
      "57": 3538,
      "Ġcarei": 3539,
      "Ġpatru": 3540,
      "Ġconfidenti": 3541,
      "Ġoperation": 3542,
      "Ġactul": 3543,
      "Ġ102": 3544,
      "04": 3545,
      "Ġinfrastru": 3546,
      "Ġclasa": 3547,
      "Ġmanu": 3548,
      "pozi": 3549,
      "Ġspania": 3550,
      "Ġ106": 3551,
      "Ġmag": 3552,
      "Ġcooperare": 3553,
      "Ġ103": 3554,
      "Ġluna": 3555,
      "Ġaerian": 3556,
      "Ġunitati": 3557,
      "Ġaudit": 3558,
      "curen": 3559,
      "Ġparc": 3560,
      "strul": 3561,
      "Ġprotectiei": 3562,
      "Ġ1996": 3563,
      "Ġagen": 3564,
      "Ġdespagu": 3565,
      "Ġpreveni": 3566,
      "Ġluat": 3567,
      "entul": 3568,
      "Ġguvernului": 3569,
      "Ġmembrii": 3570,
      "Ïī": 3571,
      "luri": 3572,
      "Ġcontest": 3573,
      "lica": 3574,
      "vare": 3575,
      "Ġcunost": 3576,
      "Ġindividual": 3577,
      "seaza": 3578,
      "citate": 3579,
      "Ġindeplineste": 3580,
      "Ġtipuri": 3581,
      "Ġye": 3582,
      "Ġalti": 3583,
      "tina": 3584,
      "Ġpertin": 3585,
      "Ġ!": 3586,
      "Ġscaz": 3587,
      "Ġanimala": 3588,
      "ano": 3589,
      "Ġsubsi": 3590,
      "Ġcererile": 3591,
      "Ġconex": 3592,
      "Ġgrasi": 3593,
      "Ġpetro": 3594,
      "Ġapel": 3595,
      "Ġachizitii": 3596,
      "sat": 3597,
      "Ġraspunda": 3598,
      "per": 3599,
      "Ġaplicat": 3600,
      "Ġdespagubi": 3601,
      "Ġobiectivele": 3602,
      "Ġdelegat": 3603,
      "Ġ300": 3604,
      "Ġdoi": 3605,
      "41": 3606,
      "Ġinflu": 3607,
      "Ġvolum": 3608,
      "Ġfranceza": 3609,
      "Ġcontractul": 3610,
      "Ġetapa": 3611,
      "Ġabord": 3612,
      "Ġscopuri": 3613,
      "Ġafi": 3614,
      "voarea": 3615,
      "Ġsedinta": 3616,
      "Ġbul": 3617,
      "Ġ1997": 3618,
      "Ġsg": 3619,
      "Ġinteresul": 3620,
      "Ġaten": 3621,
      "Ġobligatiei": 3622,
      "mine": 3623,
      "Ġcarne": 3624,
      "Ġlegiui": 3625,
      "Ġrealizate": 3626,
      "Ġfibre": 3627,
      "Ġsocial": 3628,
      "Ġpublicata": 3629,
      "Ġsubsol": 3630,
      "Ġoriginare": 3631,
      "Ġaparare": 3632,
      "Ġmici": 3633,
      "Ġhr": 3634,
      "Ġreda": 3635,
      "Ġconcentr": 3636,
      "garea": 3637,
      "Ġreducerea": 3638,
      "05": 3639,
      "mpi": 3640,
      "fon": 3641,
      "xa": 3642,
      "Ġincercare": 3643,
      "Ġcazurile": 3644,
      "Ġreale": 3645,
      "Ġsue": 3646,
      "Ġexa": 3647,
      "Ġreclamantele": 3648,
      "Ġcompleta": 3649,
      "Ġpresupune": 3650,
      "ang": 3651,
      "Ġinterveni": 3652,
      "Ġaudi": 3653,
      "Ġelectronice": 3654,
      "Ġpast": 3655,
      "Ġrezultatele": 3656,
      "catii": 3657,
      "55": 3658,
      "Ġpermis": 3659,
      "Ġnevo": 3660,
      "Ġcontractelor": 3661,
      "Ġabrogare": 3662,
      "Ġexpres": 3663,
      "Ġorigin": 3664,
      "intei": 3665,
      "32": 3666,
      "Ġintrebarea": 3667,
      "atic": 3668,
      "gie": 3669,
      "Ġministe": 3670,
      "Ġintelege": 3671,
      "Ġtransportul": 3672,
      "Ġvehicule": 3673,
      "Ġpreparate": 3674,
      "Ġfavoarea": 3675,
      "Ġelectrice": 3676,
      "Ġiso": 3677,
      "Ġcoloana": 3678,
      "Ġcontractante": 3679,
      "vada": 3680,
      "Ġeliber": 3681,
      "Ġanterioara": 3682,
      "Ġlv": 3683,
      "zon": 3684,
      "Ġindividuale": 3685,
      "Ġreparti": 3686,
      "Ġdiferenta": 3687,
      "sei": 3688,
      "Ġconserv": 3689,
      "Ġsisteme": 3690,
      "Ġreglementarea": 3691,
      "Ġnego": 3692,
      "Ġevolu": 3693,
      "Ġias": 3694,
      "Ġacestia": 3695,
      "88": 3696,
      "Ġtin": 3697,
      "62": 3698,
      "Ġalco": 3699,
      "Ġcorobor": 3700,
      "Ġutiliza": 3701,
      "urat": 3702,
      "Ġromania": 3703,
      "Ġrealizarea": 3704,
      "ctata": 3705,
      "atica": 3706,
      "Ġ120": 3707,
      "Ġconferi": 3708,
      "Ġinitial": 3709,
      "Ġaflate": 3710,
      "ĠÎ±": 3711,
      "91": 3712,
      "77": 3713,
      "Ġ105": 3714,
      "Ġmama": 3715,
      "Ġefectua": 3716,
      "Ġmodali": 3717,
      "Ġdeterminata": 3718,
      "Ġgi": 3719,
      "Ġrefle": 3720,
      "Ġeron": 3721,
      "Ġcoe": 3722,
      "xemb": 3723,
      "ficul": 3724,
      "Ġren": 3725,
      "Ġinternationala": 3726,
      "din": 3727,
      "Ġpotenti": 3728,
      "Ġate": 3729,
      "Ġ1995": 3730,
      "Ġho": 3731,
      "que": 3732,
      "zilor": 3733,
      "ctivi": 3734,
      "Ġvite": 3735,
      "Ġluxemb": 3736,
      "Ġmonitorul": 3737,
      "cati": 3738,
      "Ġsanat": 3739,
      "Ġmetil": 3740,
      "Ġperioade": 3741,
      "Ġprezinte": 3742,
      "Ġrubri": 3743,
      "Ġwi": 3744,
      "Ġaltern": 3745,
      "Ġcunosc": 3746,
      "Ġinstructi": 3747,
      "alelor": 3748,
      "Ġfav": 3749,
      "Ġmer": 3750,
      "Ġfunctionare": 3751,
      "Ġtehnica": 3752,
      "uire": 3753,
      "Ġcaracteristicile": 3754,
      "Ġfurnizarea": 3755,
      "Ġadministrativa": 3756,
      "ÑĤ": 3757,
      "biliz": 3758,
      "Ġacele": 3759,
      "Ġmecanis": 3760,
      "Ġsustinut": 3761,
      "Ġmarja": 3762,
      "Ġcab": 3763,
      "lia": 3764,
      "Ġinternet": 3765,
      "Ġintitulat": 3766,
      "Ġ500": 3767,
      "mica": 3768,
      "cut": 3769,
      "Ġconduce": 3770,
      "ph": 3771,
      "Ġsocietatile": 3772,
      "Ġapendicele": 3773,
      "Ġcomunica": 3774,
      "Ġcompara": 3775,
      "Ġnavi": 3776,
      "Ġimportant": 3777,
      "Ġtrebuit": 3778,
      "Ġindustriale": 3779,
      "terin": 3780,
      "Ġproa": 3781,
      "43": 3782,
      "forma": 3783,
      "Ġnaturale": 3784,
      "Ġvari": 3785,
      "Ġyear": 3786,
      "zica": 3787,
      "Ġautorizate": 3788,
      "yl": 3789,
      "Ġsolicitate": 3790,
      "Ġfero": 3791,
      "Ġconstatarea": 3792,
      "Ġzonele": 3793,
      "Ġcontext": 3794,
      "Ġanual": 3795,
      "Ġadecvat": 3796,
      "soarea": 3797,
      "Ġlucratorilor": 3798,
      "ther": 3799,
      "Ġromani": 3800,
      "Ġajun": 3801,
      "Ġsuport": 3802,
      "Ġfiecarui": 3803,
      "Ġstri": 3804,
      "Ġbri": 3805,
      "Ġdovada": 3806,
      "garia": 3807,
      "Ġcm": 3808,
      "Ġprovin": 3809,
      "Ġsai": 3810,
      "Ġfrecv": 3811,
      "Ġja": 3812,
      "atilor": 3813,
      "Ġsasea": 3814,
      "Ġparticiparea": 3815,
      "oasa": 3816,
      "Ġefectiva": 3817,
      "Ġamenzii": 3818,
      "Ġpriori": 3819,
      "Ġmine": 3820,
      "66": 3821,
      "Ġincalcari": 3822,
      "encl": 3823,
      "Ġopti": 3824,
      "Ġexcl": 3825,
      "Ñģ": 3826,
      "Ġanumit": 3827,
      "Ġbra": 3828,
      "Ġzbor": 3829,
      "Ġef": 3830,
      "Ġpropriile": 3831,
      "Ġdirecte": 3832,
      "Ġmg": 3833,
      "Ġinregistrate": 3834,
      "Ġderogare": 3835,
      "sci": 3836,
      "Î¿Ïħ": 3837,
      "Ġsubliniat": 3838,
      "Ġnomencl": 3839,
      "ĠÎ¼": 3840,
      "Ġanalo": 3841,
      "Ġreducere": 3842,
      "Ġpronunte": 3843,
      "Ġautorizare": 3844,
      "Ġexter": 3845,
      "Ġfil": 3846,
      "Ġtratat": 3847,
      "Ġpunctului": 3848,
      "Ġexpe": 3849,
      "Ġdirecta": 3850,
      "Ġfurnizeaza": 3851,
      "Ġcantitati": 3852,
      "Ġclari": 3853,
      "ag": 3854,
      "Ġintemeiaza": 3855,
      "Ġprelungi": 3856,
      "Ġbre": 3857,
      "Ġnord": 3858,
      "Ġcuantum": 3859,
      "Ġdane": 3860,
      "ventii": 3861,
      "Ġinregistrarea": 3862,
      "Ġinfracti": 3863,
      "Ġimpar": 3864,
      "Ġcorespunde": 3865,
      "Ġobisn": 3866,
      "Ġentitate": 3867,
      "Ġretea": 3868,
      "Ġdiferen": 3869,
      "Ġconcluzie": 3870,
      "Ġadresate": 3871,
      "oneze": 3872,
      "Ġimbun": 3873,
      "Ġtermenului": 3874,
      "Ġrecurenta": 3875,
      "Ġatribu": 3876,
      "Ġelectrica": 3877,
      "Ġprocesul": 3878,
      "Ġproducator": 3879,
      "sen": 3880,
      "Ġmaterialelor": 3881,
      "rane": 3882,
      "Ġcandi": 3883,
      "Ġactiunile": 3884,
      "Ġjp": 3885,
      "Ġlemn": 3886,
      "ctuale": 3887,
      "Ġdan": 3888,
      "Ġanunt": 3889,
      "Ġpropri": 3890,
      "Ġcresterea": 3891,
      "Ġsituatiei": 3892,
      "Ġobtinut": 3893,
      "inii": 3894,
      "Ġfabricare": 3895,
      "Ġcondition": 3896,
      "uner": 3897,
      "Ġdescrierea": 3898,
      "Ġintarzi": 3899,
      "varea": 3900,
      "Ġtextul": 3901,
      "Ġincepe": 3902,
      "darea": 3903,
      "Ġfinantare": 3904,
      "Ġreclamantului": 3905,
      "lidi": 3906,
      "Ġ1992": 3907,
      "Ġplate": 3908,
      "67": 3909,
      "Ġaplicata": 3910,
      "usese": 3911,
      "Ġmicro": 3912,
      "Ġprovizorii": 3913,
      "Ġrolul": 3914,
      "Ġsingur": 3915,
      "Ġcarbon": 3916,
      "Ġreprezentant": 3917,
      "ben": 3918,
      "orp": 3919,
      "Ġsocietatilor": 3920,
      "Ġobligata": 3921,
      "Ġsanatatii": 3922,
      "Ġscrisoarea": 3923,
      "Ġprimului": 3924,
      "Ġ125": 3925,
      "Ġconfirm": 3926,
      "Ġargumente": 3927,
      "ds": 3928,
      "Ġdepl": 3929,
      "Ġanchetei": 3930,
      "49": 3931,
      "Ġpronunta": 3932,
      "erti": 3933,
      "Ġgrad": 3934,
      "Ġsinte": 3935,
      "Ġvre": 3936,
      "Ġraspunsul": 3937,
      "Ġrezolu": 3938,
      "Ġstatisti": 3939,
      "Ġimediat": 3940,
      "Ġimpuse": 3941,
      "82": 3942,
      "Ġtaxelor": 3943,
      "Ġinstitutiilor": 3944,
      "Ġlapte": 3945,
      "rar": 3946,
      "Ġfabricarea": 3947,
      "Ġexce": 3948,
      "Ġprejudiciu": 3949,
      "Ġkr": 3950,
      "siuni": 3951,
      "Ġcontractele": 3952,
      "cepti": 3953,
      "rani": 3954,
      "Ġridicat": 3955,
      "Ġpermit": 3956,
      "Ġeveni": 3957,
      "Ġtranspare": 3958,
      "Ġambala": 3959,
      "Ġstic": 3960,
      "tim": 3961,
      "Ġamp": 3962,
      "Ġoperatorul": 3963,
      "Ġconsolid": 3964,
      "Ġobligatie": 3965,
      "Ġpretului": 3966,
      "Ġveterin": 3967,
      "Ġaeronave": 3968,
      "Ġdezvoltarea": 3969,
      "Ġche": 3970,
      "Ġcantitatea": 3971,
      "Ġlegume": 3972,
      "Ġunele": 3973,
      "oma": 3974,
      "Ġocazia": 3975,
      "Ġsecuritatii": 3976,
      "Ġprimei": 3977,
      "tite": 3978,
      "Ġproducatorilor": 3979,
      "Ġajutorului": 3980,
      "Ġfabrica": 3981,
      "Ġmana": 3982,
      "Ġtextile": 3983,
      "Ġaproxi": 3984,
      "Ġexaminare": 3985,
      "ler": 3986,
      "Ġdecide": 3987,
      "Ġaviz": 3988,
      "Ġmani": 3989,
      "Ġplatite": 3990,
      "Ġ1993": 3991,
      "Ġefectuarea": 3992,
      "Ġcomercializare": 3993,
      "Ġadministratii": 3994,
      "Ġautoritati": 3995,
      "Ġpatra": 3996,
      "Ġavocatului": 3997,
      "Ġlimitele": 3998,
      "85": 3999,
      "ton": 4000,
      "Ġexpri": 4001,
      "Ġbelgia": 4002,
      "Ġindust": 4003,
      "Ġcandid": 4004,
      "Ġocup": 4005,
      "Ġliste": 4006,
      "ps": 4007,
      "Ġlungi": 4008,
      "Ġsud": 4009,
      "Ġansamblul": 4010,
      "Ġconsideram": 4011,
      "Ġgrupului": 4012,
      "Ġ115": 4013,
      "atati": 4014,
      "Ġcomunicare": 4015,
      "Ġremuner": 4016,
      "Ġuniver": 4017,
      "Ġcosturilor": 4018,
      "Ġraspunde": 4019,
      "Ġtina": 4020,
      "Ġaspecte": 4021,
      "Ġadmite": 4022,
      "Ġspi": 4023,
      "Ġbce": 4024,
      "Ġcomercial": 4025,
      "Ġrestrictive": 4026,
      "Ġaflat": 4027,
      "Ġindependent": 4028,
      "Ġintrea": 4029,
      "ĠâĢ²": 4030,
      "Ġwe": 4031,
      "Ġcomplete": 4032,
      "Ġcontrolului": 4033,
      "Ġsfarsitul": 4034,
      "Ġversiunea": 4035,
      "Ġ150": 4036,
      "Ġfondul": 4037,
      "Ġincheierea": 4038,
      "Ġmentioneaza": 4039,
      "Ġexclude": 4040,
      "ros": 4041,
      "Ġsistemele": 4042,
      "Ġmix": 4043,
      "Ġpas": 4044,
      "Ġnecesitatea": 4045,
      "Ġconcep": 4046,
      "Ġconducere": 4047,
      "Ġdeclaratia": 4048,
      "Ġhol": 4049,
      "Ġoperatorii": 4050,
      "Ġmaxim": 4051,
      "Ġhk": 4052,
      "cipro": 4053,
      "Ġstrate": 4054,
      "Ġincar": 4055,
      "cion": 4056,
      "Ġanexei": 4057,
      "vehicul": 4058,
      "Ġactivelor": 4059,
      "atoarea": 4060,
      "Ġserviciul": 4061,
      "Ġrecipro": 4062,
      "Ġorganism": 4063,
      "Ġrespectivul": 4064,
      "Ġsursa": 4065,
      "cra": 4066,
      "Ġaloc": 4067,
      "Ġlung": 4068,
      "Ġidentificarea": 4069,
      "Ġsuscepti": 4070,
      "Ġabuzi": 4071,
      "Ġdatorii": 4072,
      "Ġpr": 4073,
      "Ġregatului": 4074,
      "Ġtehnic": 4075,
      "Ġriscului": 4076,
      "42": 4077,
      "uirea": 4078,
      "Ġdiv": 4079,
      "Ġvaria": 4080,
      "Ġdistribu": 4081,
      "Ġcuantumului": 4082,
      "Ġefica": 4083,
      "Ġsuferi": 4084,
      "Ġindeplinirea": 4085,
      "Ġoxi": 4086,
      "Ġintemeiata": 4087,
      "gy": 4088,
      "Ġunitate": 4089,
      "orie": 4090,
      "Ġiesi": 4091,
      "Ġautovehicul": 4092,
      "Ġsubsidi": 4093,
      "ski": 4094,
      "Ġoficiale": 4095,
      "ed": 4096,
      "und": 4097,
      "rului": 4098,
      "Ġcivila": 4099,
      "Ġnepubli": 4100,
      "Ġstatuat": 4101,
      "Ġprogramului": 4102,
      "Ġrapo": 4103,
      "Ġmal": 4104,
      "97": 4105,
      "Ġder": 4106,
      "Ġserviciului": 4107,
      "Ġanumita": 4108,
      "Ġdeterminarea": 4109,
      "Ġprotejate": 4110,
      "Ġrelevant": 4111,
      "48": 4112,
      "Ġintreprinderea": 4113,
      "Ġdeclaratie": 4114,
      "Ġcrestere": 4115,
      "Ġdomi": 4116,
      "Ġregimului": 4117,
      "ys": 4118,
      "tita": 4119,
      "Ġhy": 4120,
      "Ġexportatori": 4121,
      "Ġromaniei": 4122,
      "Ġsingura": 4123,
      "Ġfusese": 4124,
      "Ġexpre": 4125,
      "Ġconsidere": 4126,
      "Ġdetinute": 4127,
      "Ġorganizarea": 4128,
      "amentelor": 4129,
      "Ġcuprinse": 4130,
      "Ġdiscrimin": 4131,
      "Ġparata": 4132,
      "Ġindeplinesc": 4133,
      "relor": 4134,
      "ziu": 4135,
      "Ġpropunerea": 4136,
      "Ġreglementari": 4137,
      "Ġasigurari": 4138,
      "Ġprelucrarea": 4139,
      "Ġsuve": 4140,
      "Ġinterventie": 4141,
      "Ġjurisprudentei": 4142,
      "Ġimpiedica": 4143,
      "dia": 4144,
      "Ġalineatului": 4145,
      "Ġelementelor": 4146,
      "Ġdomicili": 4147,
      "Ġaerop": 4148,
      "Ġexperi": 4149,
      "Ġautorizat": 4150,
      "Ġobliga": 4151,
      "vina": 4152,
      "Ġtemperatura": 4153,
      "Ġimbunatati": 4154,
      "Ġvizi": 4155,
      "Ġconver": 4156,
      "Ġchimice": 4157,
      "Ġkm": 4158,
      "Ġreferire": 4159,
      "jul": 4160,
      "Ġdeciziilor": 4161,
      "Ġtot": 4162,
      "Ġfondurilor": 4163,
      "Ġconsiliu": 4164,
      "Ġjurisdiction": 4165,
      "ficarii": 4166,
      "nic": 4167,
      "Ġadministrativ": 4168,
      "Ġintregi": 4169,
      "Ġraporteaza": 4170,
      "Ġadap": 4171,
      "Ġ2022": 4172,
      "Ġsavarsit": 4173,
      "Ġactiva": 4174,
      "Ġminim": 4175,
      "sche": 4176,
      "Ġsemnificativ": 4177,
      "atis": 4178,
      "Ġep": 4179,
      "dita": 4180,
      "Ġcpa": 4181,
      "Ġintrarii": 4182,
      "Ġoperatiunile": 4183,
      "erii": 4184,
      "Ġsolicitantul": 4185,
      "galitatea": 4186,
      "Ġdificul": 4187,
      "Ġmotivare": 4188,
      "Ġraspunderea": 4189,
      "Ġimprejurari": 4190,
      "Ġprofesionale": 4191,
      "Ġmem": 4192,
      "Ġrestran": 4193,
      "Ġfolosite": 4194,
      "Ġgaze": 4195,
      "Ġtarifare": 4196,
      "Ġpuse": 4197,
      "Ġlegale": 4198,
      "Ġclasificarea": 4199,
      "aturii": 4200,
      "Ġegalitatii": 4201,
      "Ġsuficiente": 4202,
      "Ġhrana": 4203,
      "Ð²": 4204,
      "Ġdub": 4205,
      "Ġengle": 4206,
      "Ġminime": 4207,
      "Ġdedu": 4208,
      "96": 4209,
      "Ġbanci": 4210,
      "Ġinscrie": 4211,
      "Ġutil": 4212,
      "qu": 4213,
      "Ġprimit": 4214,
      "Ġintreaga": 4215,
      "Ġaeroport": 4216,
      "Ġopozitie": 4217,
      "Ġtoti": 4218,
      "sive": 4219,
      "Ġinstitutia": 4220,
      "onate": 4221,
      "Ġreglemente": 4222,
      "Ġrepe": 4223,
      "Ġdeclarat": 4224,
      "ĠÎ´": 4225,
      "71": 4226,
      "rr": 4227,
      "Ġ138": 4228,
      "Ġbord": 4229,
      "Ġdista": 4230,
      "Ġprofesionala": 4231,
      "Ġacordata": 4232,
      "Ġipoteza": 4233,
      "Ġchina": 4234,
      "Ġcuprinsul": 4235,
      "lib": 4236,
      "onarii": 4237,
      "Ġdomeniu": 4238,
      "Ġ118": 4239,
      "Ġasigur": 4240,
      "plini": 4241,
      "Ġneinde": 4242,
      "Ġcresc": 4243,
      "Ġproiect": 4244,
      "Ġgestionarea": 4245,
      "Ġajusta": 4246,
      "Ġargumentul": 4247,
      "Ð»": 4248,
      "tatie": 4249,
      "ena": 4250,
      "Ġinvi": 4251,
      "Ġinitiala": 4252,
      "Ġsuperior": 4253,
      "Ġmuni": 4254,
      "Ġterta": 4255,
      "Ġagentia": 4256,
      "orde": 4257,
      "Ġlegal": 4258,
      "Ġconcedi": 4259,
      "Ġverificare": 4260,
      "200": 4261,
      "Ġurmatoarea": 4262,
      "Ġexplic": 4263,
      "Ġinterpretate": 4264,
      "Ġcasti": 4265,
      "Ġneindeplini": 4266,
      "seze": 4267,
      "Ġdepus": 4268,
      "Ġomologare": 4269,
      "Ġjudiciara": 4270,
      "Ġoc": 4271,
      "Ġrezonabil": 4272,
      "Ġmentinerea": 4273,
      "Ġinain": 4274,
      "ls": 4275,
      "Ġrespectivele": 4276,
      "Ġlanga": 4277,
      "Ġesentiale": 4278,
      "Ġreclamant": 4279,
      "Ġperspe": 4280,
      "Ġcomponente": 4281,
      "cs": 4282,
      "Ġconsumul": 4283,
      "Ġtes": 4284,
      "Ġcifra": 4285,
      "Ġconsumatorilor": 4286,
      "Ġviata": 4287,
      "Ġcauzele": 4288,
      "Ġcomplet": 4289,
      "Ġmembrilor": 4290,
      "Ġirlanda": 4291,
      "Ġdivi": 4292,
      "Ġsin": 4293,
      "Ġtransform": 4294,
      "Ġaproximativ": 4295,
      "Ġprezum": 4296,
      "tru": 4297,
      "Ġsmo": 4298,
      "Ġinterzi": 4299,
      "Ġprivat": 4300,
      "Ġofera": 4301,
      "03": 4302,
      "Ġstabilesc": 4303,
      "nului": 4304,
      "Ġomi": 4305,
      "Ġproductiei": 4306,
      "sco": 4307,
      "ctor": 4308,
      "licit": 4309,
      "Ġdocumentul": 4310,
      "Ġconforma": 4311,
      "Ġsulf": 4312,
      "hid": 4313,
      "68": 4314,
      "Ġjudiciare": 4315,
      "Ġforme": 4316,
      "Ġefectueze": 4317,
      "Ġprotocolul": 4318,
      "Ġcombustibil": 4319,
      "Ġimpozitare": 4320,
      "Ġindependenta": 4321,
      "65": 4322,
      "Ġpartial": 4323,
      "Ġste": 4324,
      "Ġcomunitatea": 4325,
      "Ġpuncte": 4326,
      "Ġgermana": 4327,
      "ad": 4328,
      "Ġintention": 4329,
      "Ġabsenta": 4330,
      "Ġpublicului": 4331,
      "Ġtratate": 4332,
      "Ġpreceda": 4333,
      "Ġavoc": 4334,
      "Ġsh": 4335,
      "Ġtert": 4336,
      "Ġrecunoasterea": 4337,
      "Ġinclud": 4338,
      "Ġsimilar": 4339,
      "Ġ109": 4340,
      "Ġprejudiciului": 4341,
      "Ġprecizat": 4342,
      "Ġcuvin": 4343,
      "mentare": 4344,
      "Ġincu": 4345,
      "curenti": 4346,
      "Ġrandul": 4347,
      "Ġparcursul": 4348,
      "Ġadopte": 4349,
      "gre": 4350,
      "sate": 4351,
      "Ġplatit": 4352,
      "ptele": 4353,
      "odi": 4354,
      "Ġrul": 4355,
      "cipi": 4356,
      "citatea": 4357,
      "Ġ070": 4358,
      "Ġfarma": 4359,
      "Ġnormal": 4360,
      "pati": 4361,
      "Ġcuprinsa": 4362,
      "Ġgh": 4363,
      "100": 4364,
      "990": 4365,
      "Ġadaugata": 4366,
      "Ġemis": 4367,
      "Ġpartene": 4368,
      "Ġclauza": 4369,
      "Ġincalcat": 4370,
      "Ġlici": 4371,
      "Ġcamp": 4372,
      "Ġintroduse": 4373,
      "Ġdepaseasca": 4374,
      "06": 4375,
      "Ġitaliana": 4376,
      "Ġlua": 4377,
      "ciere": 4378,
      "Ġtitularul": 4379,
      "Ġmarfurile": 4380,
      "teze": 4381,
      "Ġful": 4382,
      "Ġverificarea": 4383,
      "Ġgrupul": 4384,
      "Ġvanzarea": 4385,
      "Ġatrib": 4386,
      "mas": 4387,
      "Ġeficienta": 4388,
      "Ġpietelor": 4389,
      "Ġpreturi": 4390,
      "Ġgarante": 4391,
      "Ġpersonalului": 4392,
      "Ġ127": 4393,
      "Ġelabo": 4394,
      "Ġinstantelor": 4395,
      "sse": 4396,
      "Ġengleza": 4397,
      "Ġrate": 4398,
      "Ġsupre": 4399,
      "Ġ136": 4400,
      "Ġemise": 4401,
      "tivi": 4402,
      "tz": 4403,
      "Ġluarea": 4404,
      "Ġnedi": 4405,
      "Ġprim": 4406,
      "Ġadecvata": 4407,
      "orare": 4408,
      "ola": 4409,
      "Ġintarziere": 4410,
      "comuni": 4411,
      "Ġposibila": 4412,
      "Ġsoli": 4413,
      "Ġfu": 4414,
      "Ġdepasi": 4415,
      "Ġdeterminat": 4416,
      "Ġinformeaza": 4417,
      "92": 4418,
      "mna": 4419,
      "guri": 4420,
      "Ġincheiate": 4421,
      "Ġridica": 4422,
      "Ġrespecte": 4423,
      "Ġsuficienta": 4424,
      "Ġliniuta": 4425,
      "Ġnepublicata": 4426,
      "Ġcumul": 4427,
      "Ġimple": 4428,
      "Ġstruct": 4429,
      "Ġgener": 4430,
      "Ġpensii": 4431,
      "Ġinstantele": 4432,
      "Ġaproba": 4433,
      "Ġsy": 4434,
      "Ġresponsabil": 4435,
      "Ġspecii": 4436,
      "âĶ¼": 4437,
      "darii": 4438,
      "Ġinstitutie": 4439,
      "Ġcalcularea": 4440,
      "stan": 4441,
      "Ġsine": 4442,
      "Ġobiectivelor": 4443,
      "Ġfacu": 4444,
      "Ġmajori": 4445,
      "Ġcrr": 4446,
      "Ġileg": 4447,
      "Ġrubrica": 4448,
      "dea": 4449,
      "Ġintemeiate": 4450,
      "Ġelve": 4451,
      "coni": 4452,
      "Ġoficiul": 4453,
      "Ġfunctia": 4454,
      "Ġnumi": 4455,
      "Ġber": 4456,
      "ov": 4457,
      "Ġprele": 4458,
      "Ġcata": 4459,
      "Ġsuplimentara": 4460,
      "Ġprovizoriu": 4461,
      "Ġsistemelor": 4462,
      "Ġartifici": 4463,
      "len": 4464,
      "Ġchine": 4465,
      "Ġconditie": 4466,
      "Ġadresata": 4467,
      "Ġinvestit": 4468,
      "Ġdestinatie": 4469,
      "Ġentitatile": 4470,
      "Ġlicenta": 4471,
      "Ġfina": 4472,
      "Ġtransmise": 4473,
      "Ġrespingerea": 4474,
      "52": 4475,
      "Ġexamineze": 4476,
      "Ġcunostinta": 4477,
      "Ġderivate": 4478,
      "Ġprogramul": 4479,
      "ff": 4480,
      "Ġlegiuitorul": 4481,
      "Ġefectul": 4482,
      "Ġexerciti": 4483,
      "Ġbilan": 4484,
      "Ġsapta": 4485,
      "Ġâī¤": 4486,
      "org": 4487,
      "rant": 4488,
      "Ġrapi": 4489,
      "Ġcelul": 4490,
      "siva": 4491,
      "Ġafecteaza": 4492,
      "Ġclienti": 4493,
      "Ġinfi": 4494,
      "Ġstrategi": 4495,
      "Ġproportionalitatii": 4496,
      "Ġobligatorii": 4497,
      "Ġrefuz": 4498,
      "Ġhan": 4499,
      "Ġseminte": 4500,
      "Ġcsm": 4501,
      "ir": 4502,
      "Ġegala": 4503,
      "Ġaspectul": 4504,
      "Ġbine": 4505,
      "Ġscrise": 4506,
      "Ġinvestig": 4507,
      "9900": 4508,
      "Ġatribuire": 4509,
      "Ġ267": 4510,
      "Ġplante": 4511,
      "Ġvenituri": 4512,
      "Ġanuale": 4513,
      "bia": 4514,
      "Ġmotoare": 4515,
      "Ġsaptaman": 4516,
      "Ġsubpozi": 4517,
      "Ġjurisprudente": 4518,
      "Ġsuporta": 4519,
      "Ġfurnizat": 4520,
      "Ġ117": 4521,
      "Ġraportare": 4522,
      "Ġcooperarea": 4523,
      "Ġpul": 4524,
      "Ġprimite": 4525,
      "53": 4526,
      "Ġcaracteristici": 4527,
      "Ġexpedi": 4528,
      "Ġperformanta": 4529,
      "Ġmedie": 4530,
      "Ġgroup": 4531,
      "Ġdeduce": 4532,
      "Ġdeclara": 4533,
      "Î³": 4534,
      "Ġincompati": 4535,
      "schi": 4536,
      "atorie": 4537,
      "Ġnasterii": 4538,
      "Ġetc": 4539,
      "Ġproducatorul": 4540,
      "Ġpan": 4541,
      "Ġinformare": 4542,
      "Ġglob": 4543,
      "Ġintroductiva": 4544,
      "Ġviteza": 4545,
      "Ġexpirarea": 4546,
      "Ġdescriere": 4547,
      "Ġka": 4548,
      "mate": 4549,
      "Ġreglementeaza": 4550,
      "Ġtarii": 4551,
      "Ġdeli": 4552,
      "cz": 4553,
      "tatul": 4554,
      "Ġnecunosc": 4555,
      "Ġluxemburg": 4556,
      "Ġlabor": 4557,
      "Ġtrebuia": 4558,
      "ure": 4559,
      "Ġspp": 4560,
      "Ġresurselor": 4561,
      "Ġascul": 4562,
      "Ġpractici": 4563,
      "Ġmeta": 4564,
      "Ġprincipiilor": 4565,
      "Ġlitigiului": 4566,
      "Ġhotararile": 4567,
      "Ġbazeaza": 4568,
      "Ġconstante": 4569,
      "Ġinsasi": 4570,
      "Ġprelucrare": 4571,
      "Ġprezentele": 4572,
      "Ġlucrari": 4573,
      "Ġlim": 4574,
      "Ġfrontie": 4575,
      "Ġcontact": 4576,
      "Ġdatei": 4577,
      "81": 4578,
      "Ġintroducere": 4579,
      "Ġ116": 4580,
      "Ġlimiteaza": 4581,
      "cola": 4582,
      "Ġincerca": 4583,
      "sare": 4584,
      "Ġactualiz": 4585,
      "Ġration": 4586,
      "Ġdivizi": 4587,
      "cao": 4588,
      "Ġluata": 4589,
      "Ġcercetare": 4590,
      "Ġdistribui": 4591,
      "Ġexploatare": 4592,
      "Ġ210": 4593,
      "Ġ123": 4594,
      "Ġsemnificative": 4595,
      "Ġfura": 4596,
      "Ġferovi": 4597,
      "Ġtransferul": 4598,
      "Ġ114": 4599,
      "enil": 4600,
      "Ġexteri": 4601,
      "Ġsubstantei": 4602,
      "Ġnerespe": 4603,
      "Ġbaut": 4604,
      "rre": 4605,
      "Ġadoptarii": 4606,
      "lta": 4607,
      "Ġoperatiunilor": 4608,
      "Ġenergiei": 4609,
      "Ġnecesita": 4610,
      "Ġsolicitata": 4611,
      "Ġindustrie": 4612,
      "Ġflux": 4613,
      "Ġbanca": 4614,
      "Ġaste": 4615,
      "Ġpermanent": 4616,
      "Ġperspectiva": 4617,
      "Ġprivate": 4618,
      "Ġ050": 4619,
      "Ġrespectarii": 4620,
      "Ġcoroborat": 4621,
      "Ġrq": 4622,
      "ĠÏĢ": 4623,
      "venta": 4624,
      "Ġlibertatea": 4625,
      "lis": 4626,
      "Ġsemi": 4627,
      "Ġtub": 4628,
      "Ġdefine": 4629,
      "Ġcantitatile": 4630,
      "Ġinstituit": 4631,
      "Ġluand": 4632,
      "Ġelimina": 4633,
      "Ġfurnizeze": 4634,
      "Ġlucra": 4635,
      "Ġlocale": 4636,
      "Ġprevada": 4637,
      "Ġintretinere": 4638,
      "Ġdecretul": 4639,
      "87": 4640,
      "Ġmetale": 4641,
      "Ġara": 4642,
      "Ġteste": 4643,
      "Ġreprezentan": 4644,
      "Ġapoi": 4645,
      "Ġrespinsa": 4646,
      "Ġinferi": 4647,
      "otriva": 4648,
      "Ġderoga": 4649,
      "ame": 4650,
      "Ġcosturi": 4651,
      "Ġdepar": 4652,
      "Ġcaracterului": 4653,
      "Ġdepuse": 4654,
      "Ġparat": 4655,
      "Ġverifice": 4656,
      "Ġdestinata": 4657,
      "Ġefectelor": 4658,
      "Ġtestare": 4659,
      "Ġreglementate": 4660,
      "Ġeuropa": 4661,
      "Ġher": 4662,
      "Ġinterpretata": 4663,
      "urge": 4664,
      "Ġnormale": 4665,
      "Ġinstante": 4666,
      "Ġvolume": 4667,
      "sms": 4668,
      "Ġconfli": 4669,
      "Ġabsol": 4670,
      "Ġalo": 4671,
      "Ġ540": 4672,
      "Ġprevederile": 4673,
      "fen": 4674,
      "Ġfier": 4675,
      "Ġacorduri": 4676,
      "Ġsite": 4677,
      "Ġimpozabila": 4678,
      "Ġunica": 4679,
      "Ġconsa": 4680,
      "Ġagre": 4681,
      "Ġforfetare": 4682,
      "Ġconsideratiile": 4683,
      "Ġinregistrata": 4684,
      "ms": 4685,
      "Ġazi": 4686,
      "ĠÏĦ": 4687,
      "Ġreal": 4688,
      "Ġdecurg": 4689,
      "scu": 4690,
      "Ġsto": 4691,
      "Ġmedicale": 4692,
      "Ġrpc": 4693,
      "Ġaditiv": 4694,
      "Ġserie": 4695,
      "Ġreto": 4696,
      "Ġsumele": 4697,
      "Ġconcluzionat": 4698,
      "Ġceala": 4699,
      "Ġcererilor": 4700,
      "Ġintereselor": 4701,
      "Ġscazut": 4702,
      "Ġcai": 4703,
      "Ġrezultatul": 4704,
      "Ġrecomanda": 4705,
      "Ġcealalta": 4706,
      "Ġrecuren": 4707,
      "Ġrecunoscute": 4708,
      "Ġrsms": 4709,
      "Ġdivul": 4710,
      "bie": 4711,
      "ologica": 4712,
      "ptat": 4713,
      "Ġdecis": 4714,
      "ĠÃ": 4715,
      "Ġrezerve": 4716,
      "Ġseparat": 4717,
      "Ġ611": 4718,
      "Ġsmot": 4719,
      "Ġrqrr": 4720,
      "Ġqrre": 4721,
      "rus": 4722,
      "Ġnede": 4723,
      "Ġpronuntata": 4724,
      "tos": 4725,
      "59": 4726,
      "Ġ620": 4727,
      "Ġminima": 4728,
      "Î¹Î±": 4729,
      "09": 4730,
      "Ġsecun": 4731,
      "Ġconsumului": 4732,
      "Ġpesti": 4733,
      "Ġresurse": 4734,
      "Ġsanctiuni": 4735,
      "Ġactului": 4736,
      "Ġschimbul": 4737,
      "redi": 4738,
      "Ġland": 4739,
      "Ġlimitata": 4740,
      "mida": 4741,
      "gate": 4742,
      "bar": 4743,
      "Ġales": 4744,
      "Ġcalitatii": 4745,
      "Ġstandardele": 4746,
      "Ġcategorie": 4747,
      "Ġindemni": 4748,
      "unta": 4749,
      "ĠÎº": 4750,
      "Ġevita": 4751,
      "Ġsatis": 4752,
      "Ġprovenite": 4753,
      "Ġdefinitiv": 4754,
      "Ġobtinerea": 4755,
      "Ġulterioara": 4756,
      "Ġmaterii": 4757,
      "Ġsubliniaza": 4758,
      "Ġomului": 4759,
      "Ġfiecarei": 4760,
      "Ġcalea": 4761,
      "Ġprecis": 4762,
      "Ġdirector": 4763,
      "Ġraportului": 4764,
      "Ġcultura": 4765,
      "Ġjoc": 4766,
      "Ġautorizarea": 4767,
      "Ġtranspune": 4768,
      "Ġrezerv": 4769,
      "Ġdefinita": 4770,
      "Ġidentificat": 4771,
      "Ġpoliticii": 4772,
      "Ġziua": 4773,
      "Ġimposi": 4774,
      "Ġdobanzi": 4775,
      "Ġten": 4776,
      "Ġins": 4777,
      "Ġtrece": 4778,
      "Ġpus": 4779,
      "Ġsupusa": 4780,
      "Ġvege": 4781,
      "Ġsuplimentar": 4782,
      "Ġsectoare": 4783,
      "cc": 4784,
      "Ġer": 4785,
      "Ġdocumentelor": 4786,
      "Ġimpact": 4787,
      "Ġki": 4788,
      "Ġfoto": 4789,
      "Ġfranco": 4790,
      "Ġcauze": 4791,
      "83": 4792,
      "Ġpozitiile": 4793,
      "Ġdosarul": 4794,
      "Ġ529900": 4795,
      "Ġrevin": 4796,
      "Ġactiunilor": 4797,
      "Ġprestatii": 4798,
      "Ġdanemar": 4799,
      "anti": 4800,
      "Ġclasificate": 4801,
      "Ġrecti": 4802,
      "Ġrecunoscut": 4803,
      "Ġbunurilor": 4804,
      "Ġpenala": 4805,
      "Ġprejudiciul": 4806,
      "ard": 4807,
      "Ġtarziu": 4808,
      "61": 4809,
      "Ġlati": 4810,
      "forme": 4811,
      "Ġaccesorii": 4812,
      "Ġparticipare": 4813,
      "ks": 4814,
      "Ġindicate": 4815,
      "raj": 4816,
      "Ġexistentei": 4817,
      "ctionare": 4818,
      "Ġadministratie": 4819,
      "Ġmetod": 4820,
      "ricul": 4821,
      "Ġindemniz": 4822,
      "Ġacelui": 4823,
      "Ġfire": 4824,
      "exa": 4825,
      "Ġpenale": 4826,
      "Ġindeplineasca": 4827,
      "Ġvalorilor": 4828,
      "Ġprincipalele": 4829,
      "Ġponde": 4830,
      "lii": 4831,
      "torului": 4832,
      "Ġneta": 4833,
      "Ġslova": 4834,
      "Ġpronuntat": 4835,
      "Ġsuferit": 4836,
      "Ġdisti": 4837,
      "Ġdistanta": 4838,
      "Ġnegativ": 4839,
      "Ġsanatatea": 4840,
      "Ġnecunoscut": 4841,
      "Ġsituatiile": 4842,
      "Ġpreconi": 4843,
      "Ġnotificarea": 4844,
      "fida": 4845,
      "int": 4846,
      "Ġcoefici": 4847,
      "Ġdosar": 4848,
      "Ġvanzarilor": 4849,
      "Ġmaxime": 4850,
      "Ġposta": 4851,
      "Ġ119": 4852,
      "Ġsalb": 4853,
      "dc": 4854,
      "Ġ600": 4855,
      "ers": 4856,
      "Ġdemonstreze": 4857,
      "Ġprocede": 4858,
      "Ġ140": 4859,
      "Ġdura": 4860,
      "biliare": 4861,
      "Ġlimitat": 4862,
      "Ġasociate": 4863,
      "Ġenerge": 4864,
      "Ġimag": 4865,
      "Ġarbi": 4866,
      "Ġemisiilor": 4867,
      "Ġcertificatul": 4868,
      "Ġspecificate": 4869,
      "oanele": 4870,
      "Ġconfirma": 4871,
      "Ġlitu": 4872,
      "Ġinscri": 4873,
      "Ġ113": 4874,
      "Ġtaxele": 4875,
      "Ġpunerii": 4876,
      "Ġidentifica": 4877,
      "clo": 4878,
      "riei": 4879,
      "Ġschimba": 4880,
      "89": 4881,
      "scar": 4882,
      "Ġprivesc": 4883,
      "Ġprescri": 4884,
      "untul": 4885,
      "Ġregistrul": 4886,
      "Ġorganizatiei": 4887,
      "Ġarate": 4888,
      "Ġreexaminare": 4889,
      "Ġpag": 4890,
      "cy": 4891,
      "Ġinstrument": 4892,
      "Ġlun": 4893,
      "Ġexaminate": 4894,
      "cri": 4895,
      "Ġintegral": 4896,
      "Ġ@": 4897,
      "Ġorganismul": 4898,
      "Ġrecomand": 4899,
      "Ġlocului": 4900,
      "Ġholding": 4901,
      "Ġefective": 4902,
      "Ġbreve": 4903,
      "Ġmetode": 4904,
      "Ġpropriu": 4905,
      "Ġplanul": 4906,
      "Ġpofida": 4907,
      "Ġprocesului": 4908,
      "onul": 4909,
      "lele": 4910,
      "Ġfacilitate": 4911,
      "Ġedu": 4912,
      "Ġgradul": 4913,
      "Ġou": 4914,
      "Ġconcluziilor": 4915,
      "Ġregula": 4916,
      "Ġviii": 4917,
      "Ġoricarui": 4918,
      "Ġsuprafe": 4919,
      "Ġnavele": 4920,
      "Ġadevarat": 4921,
      "Ġgazda": 4922,
      "Ġmateria": 4923,
      "Ġcapacitate": 4924,
      "Ġfaptelor": 4925,
      "Ġdeza": 4926,
      "Ġhid": 4927,
      "Ġpct": 4928,
      "ssi": 4929,
      "Ġacordare": 4930,
      "Ġtitluri": 4931,
      "Ġtai": 4932,
      "Ġother": 4933,
      "ya": 4934,
      "Ġcup": 4935,
      "Ġ320": 4936,
      "Ġechivalent": 4937,
      "Ġhtt": 4938,
      "Ġconsulta": 4939,
      "Ġconcluzia": 4940,
      "Ġproiectul": 4941,
      "Ġsex": 4942,
      "Ġdefinitia": 4943,
      "Ġfizica": 4944,
      "Ġdefinitive": 4945,
      "gericht": 4946,
      "Ġ250": 4947,
      "Ġfondurile": 4948,
      "Ġpartii": 4949,
      "fier": 4950,
      "Ġmodificate": 4951,
      "Ġfir": 4952,
      "Ġgravi": 4953,
      "Ġsimpla": 4954,
      "Ġminister": 4955,
      "Ġcerea": 4956,
      "fron": 4957,
      "Ġevaluarii": 4958,
      "Ġdobandi": 4959,
      "Ġ#": 4960,
      "Ġoperatorilor": 4961,
      "Ġcompozi": 4962,
      "Ġrev": 4963,
      "Ġcorect": 4964,
      "Ġindo": 4965,
      "Ġbro": 4966,
      "matricul": 4967,
      "Ġanalogie": 4968,
      "Ġdegra": 4969,
      "Ġansamblu": 4970,
      "asi": 4971,
      "Ġsubstantelor": 4972,
      "Ġurmarit": 4973,
      "Ġ135": 4974,
      "Ġvehiculelor": 4975,
      "mple": 4976,
      "oper": 4977,
      "Ġconge": 4978,
      "Ġevacu": 4979,
      "Ġgrave": 4980,
      "Ġ400": 4981,
      "jului": 4982,
      "Ġjudecatori": 4983,
      "catie": 4984,
      "Ġsemnificativa": 4985,
      "Ġlipsi": 4986,
      "Ġucra": 4987,
      "Ġscrisa": 4988,
      "Ġagricultura": 4989,
      "Ġautorizatie": 4990,
      "Ġlit": 4991,
      "Ġdete": 4992,
      "63": 4993,
      "Ġeconom": 4994,
      "Ġmodel": 4995,
      "Ġmembri": 4996,
      "Ġeventual": 4997,
      "scha": 4998,
      "Ġnotificare": 4999,
      "Ġnormala": 5000,
      "ume": 5001,
      "Ġacorde": 5002,
      "Ġmixt": 5003,
      "Ġministerul": 5004,
      "Ġtotale": 5005,
      "Ġ1991": 5006,
      "Ġmor": 5007,
      "Ġ263": 5008,
      "ino": 5009,
      "Ġcredite": 5010,
      "bei": 5011,
      "gar": 5012,
      "Ġdefinitiva": 5013,
      "Ġ1234": 5014,
      "Ġconcesi": 5015,
      "Ġramane": 5016,
      "Ġdovezi": 5017,
      "Ġtac": 5018,
      "Ġ111": 5019,
      "mid": 5020,
      "Ġorganisme": 5021,
      "Ġspecia": 5022,
      "Ġagentiei": 5023,
      "Ġetape": 5024,
      "Ġraportor": 5025,
      "Ġamanuntul": 5026,
      "Ġprelucrate": 5027,
      "Ġfinantarea": 5028,
      "Ġinvata": 5029,
      "Ġprevedea": 5030,
      "Ġsticla": 5031,
      "alitatea": 5032,
      "Ġcombate": 5033,
      "Ġ139": 5034,
      "Ġfavora": 5035,
      "Ġambele": 5036,
      "Ġsurse": 5037,
      "Ġinmatricul": 5038,
      "Ġcirc": 5039,
      "Ġforta": 5040,
      "pp": 5041,
      "Ġconsac": 5042,
      "tionala": 5043,
      "dom": 5044,
      "Ġimpozabile": 5045,
      "Ġcump": 5046,
      "Ġcompan": 5047,
      "Ġobligat": 5048,
      "eri": 5049,
      "Ġhartie": 5050,
      "Ġdomnului": 5051,
      "Ġspa": 5052,
      "Ġtoxi": 5053,
      "Ġdovede": 5054,
      "Ġjustificata": 5055,
      "Ġcontractuale": 5056,
      "Ġfrau": 5057,
      "Ġmsc": 5058,
      "Ġmonitorizare": 5059,
      "Ġmultor": 5060,
      "Ġnuli": 5061,
      "Ġprea": 5062,
      "Ġparame": 5063,
      "Ġatare": 5064,
      "Ġorganismele": 5065,
      "Ġprezentata": 5066,
      "Ġvizat": 5067,
      "lata": 5068,
      "Ġlicente": 5069,
      "Ġdetaliate": 5070,
      "Ġconducat": 5071,
      "Ġgal": 5072,
      "Ġdenumite": 5073,
      "ocata": 5074,
      "Ġglobal": 5075,
      "Ġbucure": 5076,
      "Ġanexele": 5077,
      "Ġatacat": 5078,
      "Ġfortei": 5079,
      "Ġverb": 5080,
      "Ġaccepta": 5081,
      "Ġtransfron": 5082,
      "Ġindustrial": 5083,
      "tala": 5084,
      "spo": 5085,
      "Ġgeografice": 5086,
      "Ġfondului": 5087,
      "Ġplat": 5088,
      "Ġvandu": 5089,
      "Ġdatorate": 5090,
      "Ġinformat": 5091,
      "Ġcoa": 5092,
      "Ġ145": 5093,
      "Ġnava": 5094,
      "Ġprealabil": 5095,
      "Ġcalculeaza": 5096,
      "Ġformula": 5097,
      "Ġsolutie": 5098,
      "Ġdiferita": 5099,
      "Ġformare": 5100,
      "Ġprevederilor": 5101,
      "ry": 5102,
      "Ġportughe": 5103,
      "siunii": 5104,
      "Ġactiona": 5105,
      "Ġcelorlalte": 5106,
      "ĠÃĹ": 5107,
      "wer": 5108,
      "Ġcriteriul": 5109,
      "Ġintelectuala": 5110,
      "lla": 5111,
      "Ġabrog": 5112,
      "Ġtransfrontali": 5113,
      "Ġtratatului": 5114,
      "Ġbank": 5115,
      "Ġadmis": 5116,
      "Ġobser": 5117,
      "pusi": 5118,
      "Ġstrain": 5119,
      "Ġcopii": 5120,
      "Ġcard": 5121,
      "Ġmanage": 5122,
      "Ġmesa": 5123,
      "entului": 5124,
      "Ġ121": 5125,
      "Ġvom": 5126,
      "Ġcontribuie": 5127,
      "Ġmodelul": 5128,
      "Ġtarife": 5129,
      "Ġadministrare": 5130,
      "atom": 5131,
      "Ġindre": 5132,
      "Ðº": 5133,
      "Ġformat": 5134,
      "Ġcostul": 5135,
      "Ġpede": 5136,
      "Ġinfluenta": 5137,
      "Ġjudecatore": 5138,
      "Ġajutoarelor": 5139,
      "Ġsolutionarea": 5140,
      "Ġadministratiei": 5141,
      "Ġdepusa": 5142,
      "Ġautorizata": 5143,
      "Ġacoperite": 5144,
      "Ġsuverane": 5145,
      "Ġnorve": 5146,
      "Ġpierdere": 5147,
      "Ġdie": 5148,
      "Ġsupus": 5149,
      "Ġprofesi": 5150,
      "84": 5151,
      "Ġoriginea": 5152,
      "Ġww": 5153,
      "mann": 5154,
      "79": 5155,
      "Ġdefinit": 5156,
      "Ġod": 5157,
      "Ġcritica": 5158,
      "Ġveniturile": 5159,
      "Ġbunurile": 5160,
      "Ġprevad": 5161,
      "Ġsubventi": 5162,
      "Ġneregul": 5163,
      "Ġnorvegi": 5164,
      "Ġbis": 5165,
      "Ġasu": 5166,
      "Ġactioneaza": 5167,
      "Ġ126": 5168,
      "Ġimpozitul": 5169,
      "Ġechita": 5170,
      "Ġordinea": 5171,
      "Ġinfrastruct": 5172,
      "Ġpercep": 5173,
      "Ġsatisfa": 5174,
      "Ġposibili": 5175,
      "Ġcategoriile": 5176,
      "Ġsolicitant": 5177,
      "Ġrezultatelor": 5178,
      "Ġcalculul": 5179,
      "Ġscurt": 5180,
      "Ġefsa": 5181,
      "sf": 5182,
      "Ġconfirmat": 5183,
      "Ġegal": 5184,
      "Ġabuz": 5185,
      "Ġregulamentelor": 5186,
      "varii": 5187,
      "Ġconventie": 5188,
      "Ġfinale": 5189,
      "Ġstiintifice": 5190,
      "Ġconfera": 5191,
      "Ġret": 5192,
      "Ġceha": 5193,
      "stori": 5194,
      "Ġfamiliei": 5195,
      "Ġdenumire": 5196,
      "Ġ124": 5197,
      "Ġexecutarii": 5198,
      "ong": 5199,
      "Ġsubstanti": 5200,
      "renta": 5201,
      "Ġautor": 5202,
      "nice": 5203,
      "Ġph": 5204,
      "Ġ134": 5205,
      "Ġmodalitatile": 5206,
      "Ġ016": 5207,
      "Ġnein": 5208,
      "Ġnegocie": 5209,
      "dat": 5210,
      "Ġapropie": 5211,
      "Ġexportator": 5212,
      "Ġaduse": 5213,
      "Ġsubsidiar": 5214,
      "Ġcetate": 5215,
      "Ġmasurii": 5216,
      "Ġnavelor": 5217,
      "Ġefor": 5218,
      "Ġtransportului": 5219,
      "Ġsoi": 5220,
      "Ġstran": 5221,
      "Ġevident": 5222,
      "75": 5223,
      "Ġperioadele": 5224,
      "Ġinstitutiei": 5225,
      "Ġbucuresti": 5226,
      "Ġinsol": 5227,
      "Ġconstr": 5228,
      "Ġautorizatiei": 5229,
      "Ġnumerar": 5230,
      "Ġje": 5231,
      "Ġdemonstra": 5232,
      "Ġvalidi": 5233,
      "Ġgeografica": 5234,
      "Ġlucrator": 5235,
      "Ġexaminat": 5236,
      "gerii": 5237,
      "Ġeconomici": 5238,
      "Ġajutoarele": 5239,
      "âĶĢâĶĢâĶĢâĶĢâĶĢâĶĢâĶĢâĶĢâĶĢâĶĢâĶĢâĶĢâĶĢâĶĢâĶĢâĶĢâĶĢâĶĢâĶĢâĶĢâĶĢâĶĢâĶĢâĶĢâĶĢâĶĢâĶĢâĶĢâĶĢâĶĢâĶĢâĶĢ": 5240,
      "Ġentitatea": 5241,
      "Ġdescrise": 5242,
      "Ġsemne": 5243,
      "Ġbenzi": 5244,
      "Ġaprobarea": 5245,
      "Ġechipament": 5246,
      "Ġexterne": 5247,
      "Ġindeplinit": 5248,
      "umini": 5249,
      "Ġreflecta": 5250,
      "Ġportugali": 5251,
      "seste": 5252,
      "Ġeuratom": 5253,
      "Ġsensi": 5254,
      "Ġoperatorului": 5255,
      "Ġantre": 5256,
      "Ġadministratia": 5257,
      "Ġsedintei": 5258,
      "Ġvanzarile": 5259,
      "Ġtue": 5260,
      "Ġfederala": 5261,
      "Ġelectronic": 5262,
      "Ġaprovizi": 5263,
      "Ġoport": 5264,
      "Ġ122": 5265,
      "atoriu": 5266,
      "Ġobligatorie": 5267,
      "Ġcontractanta": 5268,
      "Ġdiferitele": 5269,
      "Ġimportante": 5270,
      "sis": 5271,
      "Ġcote": 5272,
      "jele": 5273,
      "Ġvamala": 5274,
      "Ġfull": 5275,
      "ins": 5276,
      "Ġdomnii": 5277,
      "zu": 5278,
      "Ġraspundere": 5279,
      "Ġproiectului": 5280,
      "dri": 5281,
      "Ġfinala": 5282,
      "Ġcana": 5283,
      "Ġcetatean": 5284,
      "cal": 5285,
      "Ġbeneficiul": 5286,
      "Ġindepar": 5287,
      "Ġcodurile": 5288,
      "Ġdiferit": 5289,
      "Ġautorizatii": 5290,
      "Ġchap": 5291,
      "Ġfunctionarilor": 5292,
      "Ġvalabil": 5293,
      "Ġindirect": 5294,
      "Ġ870": 5295,
      "mpotriva": 5296,
      "Ġinscris": 5297,
      "Ġconventiei": 5298,
      "Ġbal": 5299,
      "Ġpasari": 5300,
      "vili": 5301,
      "Ġnotiunii": 5302,
      "Ġfeder": 5303,
      "Ġavocati": 5304,
      "Ġdimpotriva": 5305,
      "dor": 5306,
      "reasca": 5307,
      "Ġimpozitului": 5308,
      "Ġconstanta": 5309,
      "rit": 5310,
      "ĠÎµ": 5311,
      "Ġiec": 5312,
      "Ġerori": 5313,
      "Ġrealizeaza": 5314,
      "Ġregionale": 5315,
      "Ġund": 5316,
      "yn": 5317,
      "Ġinsul": 5318,
      "cina": 5319,
      "Ġestim": 5320,
      "Ġnucle": 5321,
      "Ġ520": 5322,
      "Ġeliminarea": 5323,
      "Ġnomin": 5324,
      "73": 5325,
      "Ġconformitatii": 5326,
      "rt": 5327,
      "Ġdop": 5328,
      "Ġacordurile": 5329,
      "Ġapreciat": 5330,
      "Ġdepinde": 5331,
      "Ġfrun": 5332,
      "Ġimbra": 5333,
      "Ġgrasimi": 5334,
      "Ġpersonalul": 5335,
      "Ġidentificate": 5336,
      "Ġinfiin": 5337,
      "ons": 5338,
      "riere": 5339,
      "Ġvie": 5340,
      "ĠÂ±": 5341,
      "Ġran": 5342,
      "rice": 5343,
      "Ġcivile": 5344,
      "flu": 5345,
      "Ġchapter": 5346,
      "Ġinitiale": 5347,
      "lalti": 5348,
      "ska": 5349,
      "Ġ160": 5350,
      "Ġdia": 5351,
      "Ġaici": 5352,
      "Ġrede": 5353,
      "contra": 5354,
      "ox": 5355,
      "Ġdevenit": 5356,
      "Ġdenatura": 5357,
      "Ġcomertului": 5358,
      "Ġimprejurarile": 5359,
      "Ġteme": 5360,
      "alt": 5361,
      "Ġcompetentelor": 5362,
      "Ġcomponenta": 5363,
      "Ġ025": 5364,
      "Ġrapoar": 5365,
      "Ġobligati": 5366,
      "orte": 5367,
      "Ġmetodologi": 5368,
      "Ġlegitime": 5369,
      "Ġsfera": 5370,
      "Ġcentrala": 5371,
      "Ġpavili": 5372,
      "Ġproaspe": 5373,
      "Ġcomanda": 5374,
      "Ġsprijinul": 5375,
      "Ġinstalatii": 5376,
      "venind": 5377,
      "Ġ129": 5378,
      "Ġdeschiderea": 5379,
      "Ġnediscri": 5380,
      "Ġalumini": 5381,
      "Ġaditivi": 5382,
      "mant": 5383,
      "Ġsep": 5384,
      "Ġrealizat": 5385,
      "Ġarom": 5386,
      "Ġcomunicarii": 5387,
      "Ġjusta": 5388,
      "Ġiau": 5389,
      "Ġdea": 5390,
      "nici": 5391,
      "Ġdesene": 5392,
      "Ġredusa": 5393,
      "Ġsom": 5394,
      "Ġinterese": 5395,
      "Ġrati": 5396,
      "Ġinstituirea": 5397,
      "Ġalimentar": 5398,
      "Ġimportate": 5399,
      "Ġmarea": 5400,
      "Ġsimul": 5401,
      "Ġgeme": 5402,
      "69": 5403,
      "Ġimprejurarea": 5404,
      "ctoare": 5405,
      "Ġaprobare": 5406,
      "Ġtitularului": 5407,
      "Ġdefici": 5408,
      "Ġsani": 5409,
      "ner": 5410,
      "Ġgrupa": 5411,
      "Ġcour": 5412,
      "Ġlet": 5413,
      "Ġdra": 5414,
      "Ġincorp": 5415,
      "Ġjudecatoresti": 5416,
      "cha": 5417,
      "Ġ132": 5418,
      "Ġindoie": 5419,
      "Ġreglementa": 5420,
      "onal": 5421,
      "Ġcs": 5422,
      "Ġstandardi": 5423,
      "Ġproducatorului": 5424,
      "port": 5425,
      "Ġmedicamente": 5426,
      "lle": 5427,
      "Ġbugetul": 5428,
      "ziune": 5429,
      "Ġlei": 5430,
      "Ġreasi": 5431,
      "Ġglu": 5432,
      "Ġputerea": 5433,
      "Ġlegat": 5434,
      "Ġdore": 5435,
      "Ġcereale": 5436,
      "Ġcru": 5437,
      "Ġsesizata": 5438,
      "Ġcompetentei": 5439,
      "Ġafecta": 5440,
      "Ġcomportamentul": 5441,
      "cide": 5442,
      "Ġpensi": 5443,
      "Ġechipa": 5444,
      "Ġinstituie": 5445,
      "Ġmetodele": 5446,
      "oza": 5447,
      "inei": 5448,
      "Ġcrean": 5449,
      "Ġnomenclatura": 5450,
      "Ġretine": 5451,
      "Ġdiam": 5452,
      "Ġmondi": 5453,
      "Ġinteresele": 5454,
      "Ġexercite": 5455,
      "Ġling": 5456,
      "Ġincadreaza": 5457,
      "Ġml": 5458,
      "Ġintreru": 5459,
      "Ġinregistrat": 5460,
      "Ġperce": 5461,
      "Ġechilib": 5462,
      "Ġgreutatea": 5463,
      "Ġcapacitatii": 5464,
      "Ġ350": 5465,
      "Ġ141": 5466,
      "Ġproiecte": 5467,
      "Ġlucratoare": 5468,
      "Ġsecuritatea": 5469,
      "Ġcopilului": 5470,
      "Ġstudii": 5471,
      "Ġschema": 5472,
      "Ġfrecventa": 5473,
      "Ġconcurs": 5474,
      "Ġghs": 5475,
      "Ġ440": 5476,
      "Ġalineat": 5477,
      "Ġentitatii": 5478,
      "Ġmol": 5479,
      "iasi": 5480,
      "Ġcond": 5481,
      "Ġpolonia": 5482,
      "Ġprealabila": 5483,
      "ĠâĢľ": 5484,
      "Ġwww": 5485,
      "Ġed": 5486,
      "Ġfurniza": 5487,
      "Ġ1990": 5488,
      "Ġfl": 5489,
      "Ġunitatea": 5490,
      "Ġcriteriu": 5491,
      "Ġaceluiasi": 5492,
      "Ġrestru": 5493,
      "Ġungaria": 5494,
      "Ġreclamantelor": 5495,
      "fo": 5496,
      "Ġoperatori": 5497,
      "Ġsume": 5498,
      "Ġgarantie": 5499,
      "nda": 5500,
      "Ġcuvinte": 5501,
      "Ġsupravegherea": 5502,
      "pri": 5503,
      "Ġbucati": 5504,
      "Ġafili": 5505,
      "64": 5506,
      "arilor": 5507,
      "ud": 5508,
      "gr": 5509,
      "turile": 5510,
      "Ġconstatare": 5511,
      "Ġnotificat": 5512,
      "Ġcooper": 5513,
      "Ġbune": 5514,
      "Ġobiectivului": 5515,
      "Ġistori": 5516,
      "Ġprescrip": 5517,
      "Ġseri": 5518,
      "Ġinregistrarii": 5519,
      "Ġcontabile": 5520,
      "Ġgov": 5521,
      "Ġfamilie": 5522,
      "Ġpresedintelui": 5523,
      "Ġomologarea": 5524,
      "lara": 5525,
      "Ġ850": 5526,
      "Ġ1049": 5527,
      "rogen": 5528,
      "Ġrin": 5529,
      "Ġrurala": 5530,
      "Ġdistributie": 5531,
      "mr": 5532,
      "Ġdividen": 5533,
      "Ġdigi": 5534,
      "Ġvehiculele": 5535,
      "Ġcodului": 5536,
      "Ġemisiile": 5537,
      "Ġanii": 5538,
      "Ġvizata": 5539,
      "Ġdefe": 5540,
      "Ġcomert": 5541,
      "wie": 5542,
      "Ġqu": 5543,
      "Ġsubie": 5544,
      "74": 5545,
      "Ġoficiu": 5546,
      "Ġby": 5547,
      "Ġportugalia": 5548,
      "Ġcumpar": 5549,
      "Ġingrij": 5550,
      "orale": 5551,
      "ric": 5552,
      "Ġgospo": 5553,
      "miny": 5554,
      "Ġspeciile": 5555,
      "Ġridicata": 5556,
      "cei": 5557,
      "Ġtransmiterea": 5558,
      "cteze": 5559,
      "Ġdovedi": 5560,
      "Ġnumero": 5561,
      "Ġhidroxi": 5562,
      "Ġ610": 5563,
      "Ġty": 5564,
      "galitate": 5565,
      "Ġsef": 5566,
      "Ġcontrara": 5567,
      "Ġtotalitate": 5568,
      "Ġgminy": 5569,
      "Ġgar": 5570,
      "Ġapreciaza": 5571,
      "Ð´": 5572,
      "Ġsimplu": 5573,
      "Ġ^": 5574,
      "Ġacea": 5575,
      "usa": 5576,
      "Ġorganismelor": 5577,
      "72": 5578,
      "Ġstandarde": 5579,
      "Ġrecursul": 5580,
      "Ġimplicate": 5581,
      "Ġ128": 5582,
      "ctori": 5583,
      "Ġ230": 5584,
      "Ġutilizari": 5585,
      "Ġinsufici": 5586,
      "Ġindia": 5587,
      "Ġmaterialele": 5588,
      "Ġarbitra": 5589,
      "dae": 5590,
      "Ġspaniei": 5591,
      "Ġexaminarii": 5592,
      "Ġnavig": 5593,
      "lot": 5594,
      "Ġresortisant": 5595,
      "Ġcase": 5596,
      "Ġunitatile": 5597,
      "Ġconcepute": 5598,
      "Ġpere": 5599,
      "Ġautorizatia": 5600,
      "mice": 5601,
      "Ġantic": 5602,
      "Ġpronuntare": 5603,
      "rimoni": 5604,
      "Ġfen": 5605,
      "Ġcentral": 5606,
      "Ġanali": 5607,
      "Ġsubstantele": 5608,
      "Ġinsusi": 5609,
      "intelor": 5610,
      "Ġopun": 5611,
      "Ġriscurile": 5612,
      "Ġreprezentata": 5613,
      "Ġindoieli": 5614,
      "Ġmotivarea": 5615,
      "Ġentitatilor": 5616,
      "tier": 5617,
      "ptata": 5618,
      "Ġplc": 5619,
      "Ġrealizata": 5620,
      "Ġinaintea": 5621,
      "Ġfia": 5622,
      "Ġvadit": 5623,
      "Ġfunctiei": 5624,
      "Ġclu": 5625,
      "Ġdeducere": 5626,
      "Ġpreten": 5627,
      "Ġmentin": 5628,
      "Ġlarga": 5629,
      "Ġpescuitului": 5630,
      "Ġdime": 5631,
      "Ġ021": 5632,
      "Ġspatiul": 5633,
      "nica": 5634,
      "Ġine": 5635,
      "Ġamenzi": 5636,
      "Ġechivalente": 5637,
      "Ġiz": 5638,
      "Ġgrat": 5639,
      "Ġexemp": 5640,
      "Ġtratamentul": 5641,
      "Ġrecon": 5642,
      "Ġhydro": 5643,
      "cla": 5644,
      "Ġsprijini": 5645,
      "Ġdifu": 5646,
      "ÏģÎ±": 5647,
      "Ġmac": 5648,
      "Ġmajora": 5649,
      "Ġexceptie": 5650,
      "Ġsolicite": 5651,
      "Ġprobleme": 5652,
      "Ġnastere": 5653,
      "Ġexecut": 5654,
      "minarii": 5655,
      "Ġdesemnate": 5656,
      "Ġconfe": 5657,
      "Ġincorpor": 5658,
      "Ġfal": 5659,
      "landeza": 5660,
      "Ġconexe": 5661,
      "Ġcalenda": 5662,
      "Ġsimpli": 5663,
      "Ġprogramelor": 5664,
      "Ġdeplin": 5665,
      "Ġtradi": 5666,
      "Ġkw": 5667,
      "Ġfactori": 5668,
      "ire": 5669,
      "Ġ133": 5670,
      "Ġmemori": 5671,
      "Ġcomunicat": 5672,
      "Ġdro": 5673,
      "Ġcriteriilor": 5674,
      "Ġ730": 5675,
      "âĶĤ": 5676,
      "exi": 5677,
      "omo": 5678,
      "Ġtemporar": 5679,
      "Ġcpc": 5680,
      "sulf": 5681,
      "Ġgazelor": 5682,
      "Ġinstrumentele": 5683,
      "Ġazo": 5684,
      "Ġsolicitantului": 5685,
      "chts": 5686,
      "Ġ0003": 5687,
      "Ġviitoare": 5688,
      "Ġcl": 5689,
      "Ġpromovarea": 5690,
      "Ġtrafic": 5691,
      "Ġbovine": 5692,
      "Ġll": 5693,
      "Ġamenda": 5694,
      "Ġprograme": 5695,
      "cord": 5696,
      "strului": 5697,
      "Ġsuccesi": 5698,
      "Ġdomiciliul": 5699,
      "Ġdesigur": 5700,
      "Ġresta": 5701,
      "Ġsodiu": 5702,
      "Ġmedia": 5703,
      "Ġfinaliz": 5704,
      "aterale": 5705,
      "Ġrambursarea": 5706,
      "Ġfaptele": 5707,
      "Ġrefuza": 5708,
      "Ġgran": 5709,
      "Ġtransfe": 5710,
      "Ġaprobat": 5711,
      "Ġautomat": 5712,
      "Ġcolo": 5713,
      "00000": 5714,
      "mon": 5715,
      "Ġmuncii": 5716,
      "Ġavans": 5717,
      "Ġmoneda": 5718,
      "Ġvita": 5719,
      "cau": 5720,
      "ations": 5721,
      "hai": 5722,
      "Ġrecuperarea": 5723,
      "Ġproducerea": 5724,
      "Ġ721": 5725,
      "Ġboli": 5726,
      "Ġincalzi": 5727,
      "scipl": 5728,
      "Ġchei": 5729,
      "Ġidentice": 5730,
      "Ġdobanzii": 5731,
      "nam": 5732,
      "entii": 5733,
      "Î´": 5734,
      "Ġintin": 5735,
      "Ġpublicarea": 5736,
      "Ġanimalele": 5737,
      "Ġnon": 5738,
      "Ġimpactul": 5739,
      "umb": 5740,
      "Ġ147": 5741,
      "Ġtransmis": 5742,
      "Ġprogre": 5743,
      "gp": 5744,
      "Ġexperienta": 5745,
      "Ġoperatiune": 5746,
      "Ġneut": 5747,
      "Ġfemei": 5748,
      "Ġredactare": 5749,
      "rurile": 5750,
      "Ġstabilirii": 5751,
      "Ġangajament": 5752,
      "Ġsumelor": 5753,
      "Ġcontestat": 5754,
      "Ġconsumatorului": 5755,
      "Ġdci": 5756,
      "Ġdeut": 5757,
      "Ġadica": 5758,
      "Ġimpun": 5759,
      "Ġinspectie": 5760,
      "Ġexpli": 5761,
      "Ġrestructura": 5762,
      "Ġnivelului": 5763,
      "Ġdepozitare": 5764,
      "aran": 5765,
      "Ġgrefier": 5766,
      "Ġconformitatea": 5767,
      "stic": 5768,
      "Ġfrunze": 5769,
      "Ġdemonstreaza": 5770,
      "Ġcondus": 5771,
      "Ġpertinente": 5772,
      "Ġcra": 5773,
      "Ġprovenind": 5774,
      "Ġ2138": 5775,
      "Ġsuedia": 5776,
      "Ġsr": 5777,
      "zina": 5778,
      "cilea": 5779,
      "Ġ157": 5780,
      "Ġdeclarate": 5781,
      "Ġemisii": 5782,
      "Ġorizon": 5783,
      "Ġcontroalelor": 5784,
      "Ġprocedurale": 5785,
      "Ġlegata": 5786,
      "Ġcoere": 5787,
      "riile": 5788,
      "Ġbazate": 5789,
      "Ġpublicat": 5790,
      "Ġ148": 5791,
      "Ġpublici": 5792,
      "Ġrefuzul": 5793,
      "Ġaero": 5794,
      "ker": 5795,
      "Ġgrecia": 5796,
      "Ġdeterminate": 5797,
      "Ġfiliale": 5798,
      "sesc": 5799,
      "Ġazil": 5800,
      "siunile": 5801,
      "Ġinteriorul": 5802,
      "Ġnete": 5803,
      "Ġzah": 5804,
      "Ġtranzitorii": 5805,
      "Ġstatutului": 5806,
      "organi": 5807,
      "ving": 5808,
      "andu": 5809,
      "Ġdesfasurate": 5810,
      "Ġpermanenta": 5811,
      "Ġbrut": 5812,
      "Ġalcool": 5813,
      "Ġ213800": 5814,
      "Ġdespagubire": 5815,
      "Ġpom": 5816,
      "Ġaferent": 5817,
      "Ġlucratorii": 5818,
      "Ġpensie": 5819,
      "date": 5820,
      "Ġarmonizare": 5821,
      "Ġsemnat": 5822,
      "zona": 5823,
      "Ġoperationale": 5824,
      "zen": 5825,
      "Ġhotarat": 5826,
      "Ġcomunicatii": 5827,
      "Ġ137": 5828,
      "Ġdiscriminare": 5829,
      "Ġceru": 5830,
      "Ġvanzari": 5831,
      "Ġlinii": 5832,
      "Ġrecuperare": 5833,
      "Ġmanagement": 5834,
      "Ġfaza": 5835,
      "Ġplatii": 5836,
      "Ġcincilea": 5837,
      "Ġimportul": 5838,
      "Ġ}": 5839,
      "Ġeliberarea": 5840,
      "Ġizol": 5841,
      "Ġcertificare": 5842,
      "ĠÏĥ": 5843,
      "Ġsintetice": 5844,
      "anu": 5845,
      "Ġ143": 5846,
      "Ġ{": 5847,
      "Ġdesen": 5848,
      "Ġproaspete": 5849,
      "Ġexperti": 5850,
      "Ġ131": 5851,
      "Ġafirmat": 5852,
      "Ġdetermine": 5853,
      "Ġinvocata": 5854,
      "Ġreziduuri": 5855,
      "Ġdeschidere": 5856,
      "Ġincluda": 5857,
      "is": 5858,
      "Ġflo": 5859,
      "Ġlegaturi": 5860,
      "Ġbrute": 5861,
      "Ġlegislativ": 5862,
      "ÏģÎ¹": 5863,
      "Ġlocu": 5864,
      "Ġautonom": 5865,
      "Ġcomunicate": 5866,
      "sarea": 5867,
      "Ġmarcilor": 5868,
      "Ġcircumstante": 5869,
      "Ġvehiculul": 5870,
      "Ġincheie": 5871,
      "0010": 5872,
      "Ġcomertul": 5873,
      "Ġalegerea": 5874,
      "Ġresponsabile": 5875,
      "Ġaceleiasi": 5876,
      "Ġcitate": 5877,
      "Ġacopera": 5878,
      "Ġunel": 5879,
      "landez": 5880,
      "Ġimpusa": 5881,
      "sal": 5882,
      "Ġcincea": 5883,
      "Ġ0805": 5884,
      "Ġretro": 5885,
      "Ġdecon": 5886,
      "Ġnele": 5887,
      "Ġonu": 5888,
      "Ġdiscipl": 5889,
      "Ġseparate": 5890,
      "Ġsubord": 5891,
      "Ġtermenele": 5892,
      "Ġwa": 5893,
      "Ġveniturilor": 5894,
      "Ġprimirea": 5895,
      "litatii": 5896,
      "Ġregional": 5897,
      "Ġdefinitii": 5898,
      "Ġdemoc": 5899,
      "Ġreasigura": 5900,
      "indu": 5901,
      "Ġeronat": 5902,
      "stica": 5903,
      "Ġcombinate": 5904,
      "lizate": 5905,
      "Ġministerului": 5906,
      "Ġfrontiera": 5907,
      "Ġconturi": 5908,
      "Ġevidenta": 5909,
      "Ġdanemarca": 5910,
      "Ġcontradi": 5911,
      "Ġdirectivelor": 5912,
      "Ġtermenii": 5913,
      "Ġdeosebire": 5914,
      "gat": 5915,
      "Ġaltul": 5916,
      "Ġpuna": 5917,
      "Ġreprodu": 5918,
      "Ġintentia": 5919,
      "rantei": 5920,
      "Ġconsideratii": 5921,
      "Ġfolos": 5922,
      "Ġpericol": 5923,
      "Ġprimele": 5924,
      "Ġconferite": 5925,
      "Ġintelegere": 5926,
      "Ġmat": 5927,
      "Ġconfu": 5928,
      "Ġevacuare": 5929,
      "Ġalb": 5930,
      "Ġfigura": 5931,
      "qui": 5932,
      "cieze": 5933,
      "Ġutilizeze": 5934,
      "Ġmedii": 5935,
      "lei": 5936,
      "tand": 5937,
      "tativ": 5938,
      "Ġhidrocarb": 5939,
      "zione": 5940,
      "Ġtech": 5941,
      "Ġgrosi": 5942,
      "Ġutilizand": 5943,
      "Ġafirma": 5944,
      "Ġdaune": 5945,
      "Ġbundes": 5946,
      "zati": 5947,
      "Ġintreg": 5948,
      "mark": 5949,
      "Ġparticipat": 5950,
      "Ġorgane": 5951,
      "Ġdescar": 5952,
      "Ġconsecintele": 5953,
      "Ġbil": 5954,
      "Ġdistinctiv": 5955,
      "dt": 5956,
      "Ġactivele": 5957,
      "Ġpracticile": 5958,
      "Ġhabi": 5959,
      "Ġinspectii": 5960,
      "Ġechivalenta": 5961,
      "ÏĦÎ±": 5962,
      "Ġdimin": 5963,
      "Ġnavei": 5964,
      "Ġmijloacele": 5965,
      "Ġ142": 5966,
      "Ġplani": 5967,
      "Ġchimica": 5968,
      "Ġurilor": 5969,
      "Ġrepararea": 5970,
      "Ġlogi": 5971,
      "Ġuneia": 5972,
      "Ġplecare": 5973,
      "Ġ178": 5974,
      "Ġavocatul": 5975,
      "Ġeliberat": 5976,
      "Ġ180": 5977,
      "Ġexceptionale": 5978,
      "Ġcalifica": 5979,
      "Ġcontroalele": 5980,
      "Ġagentii": 5981,
      "Ġusor": 5982,
      "Ġ167": 5983,
      "Ġguverne": 5984,
      "Ġumane": 5985,
      "Ġiesire": 5986,
      "Ġilu": 5987,
      "Ġprobabil": 5988,
      "Ġmotivelor": 5989,
      "Ġcontroale": 5990,
      "Ġexercitarii": 5991,
      "Ġatingerea": 5992,
      "Ġgrefa": 5993,
      "onar": 5994,
      "Ġinceputul": 5995,
      "Ġpersonale": 5996,
      "jelor": 5997,
      "Ġcorpor": 5998,
      "Ġincetarea": 5999,
      "Ġasociere": 6000,
      "Ġagricola": 6001,
      "Ġcompetent": 6002,
      "ÏīÎ½": 6003,
      "ses": 6004,
      "Ġblo": 6005,
      "valu": 6006,
      "lina": 6007,
      "Ġconsumator": 6008,
      "Ġmaghi": 6009,
      "Ġmetal": 6010,
      "Ġix": 6011,
      "voca": 6012,
      "Ġgemeinde": 6013,
      "Ġdesfasurarea": 6014,
      "tosani": 6015,
      "Ġrambursare": 6016,
      "ow": 6017,
      "Ġbruta": 6018,
      "Ġexcluderea": 6019,
      "Ġdouaze": 6020,
      "Ġprevenirea": 6021,
      "Ġdemonstrat": 6022,
      "alizarii": 6023,
      "ling": 6024,
      "Ġcapita": 6025,
      "78": 6026,
      "Ġdeclaratii": 6027,
      "Ġfunctionarii": 6028,
      "spreze": 6029,
      "minate": 6030,
      "Ġdesemne": 6031,
      "inant": 6032,
      "Ġparteneri": 6033,
      "Ġuk": 6034,
      "Ġcola": 6035,
      "Ġdefal": 6036,
      "Ġcorecta": 6037,
      "Ġtutun": 6038,
      "Ġ414": 6039,
      "fin": 6040,
      "lus": 6041,
      "Ġcomesti": 6042,
      "Ġbani": 6043,
      "Ġaccesi": 6044,
      "Ġpopulara": 6045,
      "76": 6046,
      "Ġak": 6047,
      "Ġclauze": 6048,
      "Ġexprimat": 6049,
      "Ġcred": 6050,
      "Ġmentiunea": 6051,
      "Ġbenefi": 6052,
      "Ġdeseurilor": 6053,
      "Ġexplica": 6054,
      "dina": 6055,
      "Ġmandat": 6056,
      "enie": 6057,
      "dis": 6058,
      "ou": 6059,
      "Ġ168": 6060,
      "Ġimi": 6061,
      "Ġafirmativ": 6062,
      "Ġnefond": 6063,
      "Ġtransparenta": 6064,
      "Ġevaluate": 6065,
      "Ġire": 6066,
      "Ġcoresp": 6067,
      "Ġevaluari": 6068,
      "Ġinadmisibila": 6069,
      "Ġadreseze": 6070,
      "cine": 6071,
      "ologic": 6072,
      "Ġposibile": 6073,
      "Ġinfrastructura": 6074,
      "ungs": 6075,
      "Ġochi": 6076,
      "Ġexprimate": 6077,
      "Ġraspunderii": 6078,
      "Ġuleiuri": 6079,
      "uali": 6080,
      "Ġunuia": 6081,
      "Ġ630": 6082,
      "Ġabsor": 6083,
      "Ġutilizatorilor": 6084,
      "ware": 6085,
      "Ġtermeni": 6086,
      "Ġbiroul": 6087,
      "Ġcontinutului": 6088,
      "Ġcooperarii": 6089,
      "Ġaluminiu": 6090,
      "zator": 6091,
      "Ġtelevizi": 6092,
      "asa": 6093,
      "tur": 6094,
      "Ġtemporara": 6095,
      "Ġtransmisi": 6096,
      "Ġelectronica": 6097,
      "Ġâī¥": 6098,
      "Ġcompeti": 6099,
      "Ġsigurantei": 6100,
      "Ġmajor": 6101,
      "Ġmagi": 6102,
      "Ġlegalitatea": 6103,
      "Ġfon": 6104,
      "Ġcladi": 6105,
      "Ġcrescut": 6106,
      "Ġgrava": 6107,
      "Ġpal": 6108,
      "Ġinalta": 6109,
      "Ġdilu": 6110,
      "Ġln": 6111,
      "Ġdist": 6112,
      "Ġprincipii": 6113,
      "nia": 6114,
      "Ġreclamantii": 6115,
      "Ġcorespund": 6116,
      "Ġacoperire": 6117,
      "Ġconcret": 6118,
      "Ġlegitim": 6119,
      "Ġinclus": 6120,
      "Ġaviation": 6121,
      "onale": 6122,
      "ropor": 6123,
      "Ġnati": 6124,
      "ght": 6125,
      "justi": 6126,
      "Ġficat": 6127,
      "ape": 6128,
      "Ġdiverse": 6129,
      "Ġfini": 6130,
      "Ġexact": 6131,
      "Ġconflict": 6132,
      "Ġkon": 6133,
      "Ġobsta": 6134,
      "Ġelabor": 6135,
      "Ġtrime": 6136,
      "Ġcontul": 6137,
      "gaz": 6138,
      "Ġintervenienta": 6139,
      "Ġcalculata": 6140,
      "Ġrecursului": 6141,
      "Ġretinut": 6142,
      "Ġinvestitiilor": 6143,
      "Ġcarca": 6144,
      "Ġuniversi": 6145,
      "Ġexprimata": 6146,
      "zatoare": 6147,
      "Ġtetra": 6148,
      "Ġpericul": 6149,
      "Ġcalificarea": 6150,
      "Ġ152": 6151,
      "Ġpescui": 6152,
      "tudinea": 6153,
      "Ġvalid": 6154,
      "Ġgri": 6155,
      "Î¸": 6156,
      "Ġson": 6157,
      "Ġdefinitie": 6158,
      "Ġbumba": 6159,
      "Ġpiete": 6160,
      "Ġobtina": 6161,
      "hidro": 6162,
      "Ġ720": 6163,
      "Ġcontraparti": 6164,
      "ĠpoÅĤ": 6165,
      "Ġcomand": 6166,
      "Ġcantitate": 6167,
      "Ġinva": 6168,
      "Ġeventuala": 6169,
      "ctual": 6170,
      "Ġdifici": 6171,
      "Ġ182": 6172,
      "Ġplastic": 6173,
      "Ġnerespectarea": 6174,
      "Ġapare": 6175,
      "Ġinghe": 6176,
      "Ġtranzit": 6177,
      "Ġprogramele": 6178,
      "Ġscutirea": 6179,
      "Ġaprecia": 6180,
      "Ġradio": 6181,
      "Ġinstrumentelor": 6182,
      "zy": 6183,
      "Ġape": 6184,
      "Ġ340": 6185,
      "Ð¸Ñ": 6186,
      "Ġnejusti": 6187,
      "garii": 6188,
      "clor": 6189,
      "Ġ170": 6190,
      "Ġelectro": 6191,
      "Ġremedi": 6192,
      "Ġmagne": 6193,
      "Ġfinlanda": 6194,
      "Ġprevizi": 6195,
      "Ġcalculat": 6196,
      "Ġorganizatii": 6197,
      "Ġide": 6198,
      "Ġplantelor": 6199,
      "Ġaspectele": 6200,
      "Ġasiste": 6201,
      "Î¿Î½": 6202,
      "Ġfunctioneaza": 6203,
      "Ġmasurare": 6204,
      "Ġ1987": 6205,
      "Ġmotorului": 6206,
      "Ġrezolutie": 6207,
      "can": 6208,
      "Ġpozitiei": 6209,
      "Ġtipurile": 6210,
      "Ġnivelurile": 6211,
      "Ġpatrimoni": 6212,
      "Ġartificiale": 6213,
      "oniu": 6214,
      "Ġ0207": 6215,
      "Ġsolicitarea": 6216,
      "Ġrada": 6217,
      "ofoli": 6218,
      "ranti": 6219,
      "Ġbumbac": 6220,
      "Ġfla": 6221,
      "Ġcertificatului": 6222,
      "Ġcapat": 6223,
      "Ġcompetentele": 6224,
      "Ġreferinte": 6225,
      "Ġcompensare": 6226,
      "Ġveterinar": 6227,
      "Ġcrearea": 6228,
      "Ġapei": 6229,
      "Ġinst": 6230,
      "Ġ1107": 6231,
      "Ġimper": 6232,
      "Ġ0001": 6233,
      "Ġorientarile": 6234,
      "ĠÕ": 6235,
      "Ġalege": 6236,
      "Ġdimensiunea": 6237,
      "Ġ149": 6238,
      "Ġox": 6239,
      "Ġcompusa": 6240,
      "Ġrenta": 6241,
      "oro": 6242,
      "Ġsport": 6243,
      "Ġalia": 6244,
      "Ġdirectia": 6245,
      "Ġdepunerea": 6246,
      "Ġcontinand": 6247,
      "Ġmedicament": 6248,
      "Ġportofoli": 6249,
      "Ġunitatii": 6250,
      "Ġdefineste": 6251,
      "Ġdesemnat": 6252,
      "ferente": 6253,
      "Ġconfuzie": 6254,
      "Ġsupune": 6255,
      "Ġcine": 6256,
      "ferenti": 6257,
      "gan": 6258,
      "Ġcontabila": 6259,
      "Î¿ÏĤ": 6260,
      "Ġtemeini": 6261,
      "Ġrezum": 6262,
      "Ġacel": 6263,
      "Ġreprezentat": 6264,
      "Ġodata": 6265,
      "Ġfitosani": 6266,
      "Ġ310": 6267,
      "Ġincident": 6268,
      "Ġimbraca": 6269,
      "mii": 6270,
      "Ġafectate": 6271,
      "Ġpublicate": 6272,
      "Ġpresiune": 6273,
      "Ġanticip": 6274,
      "Ġcomparatie": 6275,
      "Ġ270": 6276,
      "Ġcopie": 6277,
      "Ġporumb": 6278,
      "Ġadministrarea": 6279,
      "Ġnatural": 6280,
      "Ġwith": 6281,
      "Ġinterva": 6282,
      "Ġorganizare": 6283,
      "Ġstadi": 6284,
      "Ġ234": 6285,
      "Ġinstructiunile": 6286,
      "Ġbeneficieze": 6287,
      "Ġsuspendarea": 6288,
      "Ġutila": 6289,
      "xili": 6290,
      "matice": 6291,
      "Ġgrupuri": 6292,
      "Ġoua": 6293,
      "Ġsituate": 6294,
      "Ġrn": 6295,
      "Ġsuspende": 6296,
      "Ġ1001": 6297,
      "Ġ299": 6298,
      "Ġcontributia": 6299,
      "Ġtere": 6300,
      "Ġizo": 6301,
      "Ġsuperioara": 6302,
      "ny": 6303,
      "Ġ261": 6304,
      "Ġarestare": 6305,
      "Ġcomm": 6306,
      "hof": 6307,
      "Ġevidenti": 6308,
      "Ġaccesului": 6309,
      "Ġoficiala": 6310,
      "Ġmonitorizarea": 6311,
      "Ġredus": 6312,
      "Ġpercepe": 6313,
      "Ġglobala": 6314,
      "Ġdeta": 6315,
      "Ġpartiala": 6316,
      "Ġconcurenti": 6317,
      "Ġindone": 6318,
      "001": 6319,
      "Ġpolone": 6320,
      "Ġreclamante": 6321,
      "Ġdatorita": 6322,
      "ken": 6323,
      "Ġambal": 6324,
      "Ġinstructiuni": 6325,
      "Ġresponsabili": 6326,
      "Ġpietele": 6327,
      "Ġretelei": 6328,
      "Ġpropuse": 6329,
      "inanta": 6330,
      "Ġmuta": 6331,
      "Ġingra": 6332,
      "Ġpierderea": 6333,
      "Ġdispun": 6334,
      "Ġatribuirea": 6335,
      "Ġintregime": 6336,
      "Ġtrimiterea": 6337,
      "Ġurmatoarelor": 6338,
      "Ġmotivat": 6339,
      "Ġvechi": 6340,
      "unte": 6341,
      "Ġviza": 6342,
      "Ġdeclaratiile": 6343,
      "Ġaderare": 6344,
      "Ġzil": 6345,
      "Ġcone": 6346,
      "Ġgaranteze": 6347,
      "Ġauxili": 6348,
      "Ġ146": 6349,
      "Ġchineza": 6350,
      "Ġmarcile": 6351,
      "strat": 6352,
      "Ġcert": 6353,
      "Ġanuala": 6354,
      "Ġconsim": 6355,
      "Ġnegative": 6356,
      "Ġmember": 6357,
      "Ġsil": 6358,
      "Ġcivil": 6359,
      "Ġtesaturi": 6360,
      "Ġlin": 6361,
      "Ġvariabile": 6362,
      "Ġsepar": 6363,
      "Ġpierderile": 6364,
      "Ġsuportate": 6365,
      "Ġinsolventa": 6366,
      "Ġexploatarea": 6367,
      "Ġimputer": 6368,
      "Ġdomeniului": 6369,
      "Ġneo": 6370,
      "Ġrecipi": 6371,
      "Ġ1989": 6372,
      "rabile": 6373,
      "starea": 6374,
      "Ġproteja": 6375,
      "Ġfactor": 6376,
      "Ġprag": 6377,
      "Ġrece": 6378,
      "Ġprimita": 6379,
      "utice": 6380,
      "Ġprestare": 6381,
      "Ġrol": 6382,
      "Ġparticipan": 6383,
      "Ġhttp": 6384,
      "Ġ151": 6385,
      "Ġlocal": 6386,
      "son": 6387,
      "teste": 6388,
      "Ġ155": 6389,
      "Ġimpozit": 6390,
      "Ġelvetia": 6391,
      "Ġfrancez": 6392,
      "Ġreprezentative": 6393,
      "Ġtoc": 6394,
      "Ġlmr": 6395,
      "Ġdezvoltarii": 6396,
      "Ġpolona": 6397,
      "oanelor": 6398,
      "Ġpronuntate": 6399,
      "Ġsemin": 6400,
      "Ġopt": 6401,
      "Ġobserva": 6402,
      "ok": 6403,
      "Ġbloc": 6404,
      "Ġpunctelor": 6405,
      "Ġ144": 6406,
      "Ġconsumatorul": 6407,
      "Ġpresupun": 6408,
      "stul": 6409,
      "Ġiran": 6410,
      "Ġdul": 6411,
      "stitut": 6412,
      "Ġasta": 6413,
      "Ġprepar": 6414,
      "Ġ560": 6415,
      "Ġstimul": 6416,
      "Ġregiunea": 6417,
      "Ġteritorii": 6418,
      "Ġwh": 6419,
      "Ġdepasesc": 6420,
      "Ġlicitatie": 6421,
      "put": 6422,
      "Ġvalu": 6423,
      "Ġvul": 6424,
      "Ġboa": 6425,
      "Ġesanti": 6426,
      "cher": 6427,
      "Ġjustitiei": 6428,
      "Ġreglementarii": 6429,
      "state": 6430,
      "Ġdispropor": 6431,
      "Ġvadita": 6432,
      "Ġverbal": 6433,
      "Ġunitatilor": 6434,
      "Ġdemocr": 6435,
      "sme": 6436,
      "Ġspor": 6437,
      "Ġdeteri": 6438,
      "Ġpozitii": 6439,
      "Ġaliment": 6440,
      "Î¹Îº": 6441,
      "Ġ154": 6442,
      "Ġ510": 6443,
      "Ġorez": 6444,
      "sel": 6445,
      "Ġexpunerii": 6446,
      "Ġasigurarii": 6447,
      "Ġsacri": 6448,
      "Ġsupli": 6449,
      "ntilor": 6450,
      "Ġangajat": 6451,
      "Ġevolutia": 6452,
      "Ġinformatie": 6453,
      "Ġlegala": 6454,
      "Ġdiferente": 6455,
      "Ġuscate": 6456,
      "Ġcauciu": 6457,
      "Ġjudecarea": 6458,
      "ctarii": 6459,
      "Ġ153": 6460,
      "turilor": 6461,
      "Ġstarea": 6462,
      "Ġexplicit": 6463,
      "Ġbarb": 6464,
      "Ġalternative": 6465,
      "Ġconcediu": 6466,
      "Ġ184": 6467,
      "Ġsubse": 6468,
      "trice": 6469,
      "Ġplatilor": 6470,
      "dos": 6471,
      "els": 6472,
      "Ġdirectoare": 6473,
      "Ġlungime": 6474,
      "chete": 6475,
      "riilor": 6476,
      "Ġadmisibila": 6477,
      "Ġputeau": 6478,
      "Ġinstituite": 6479,
      "Ġturcia": 6480,
      "Ġlegislative": 6481,
      "Ġplatile": 6482,
      "Ġretragerea": 6483,
      "Ġinlocuit": 6484,
      "Ġrecol": 6485,
      "Ġke": 6486,
      "Ġprotejata": 6487,
      "ye": 6488,
      "Ġdegraba": 6489,
      "opro": 6490,
      "Ġ800": 6491,
      "Ġformularul": 6492,
      "Ġpierderi": 6493,
      "Ġstruguri": 6494,
      "Ġmodifice": 6495,
      "Ġambi": 6496,
      "chel": 6497,
      "Ġdecurge": 6498,
      "Ġdeca": 6499,
      "Ġoferite": 6500,
      "Ġtrico": 6501,
      "Ġintroducerii": 6502,
      "Ġexpunerea": 6503,
      "Ġrespectivei": 6504,
      "Ġterti": 6505,
      "Ġcastig": 6506,
      "Ġdisproportion": 6507,
      "Ġsolas": 6508,
      "Ġintinderea": 6509,
      "Ġitalian": 6510,
      "Ġhotararilor": 6511,
      "Ġrespingere": 6512,
      "Ġboabe": 6513,
      "Ġcomportament": 6514,
      "Ġabordare": 6515,
      "Ġneleg": 6516,
      "Ġtoto": 6517,
      "Ġnumarului": 6518,
      "Ġinteresata": 6519,
      "produ": 6520,
      "Ġsuprema": 6521,
      "tire": 6522,
      "face": 6523,
      "Ġclasifica": 6524,
      "tis": 6525,
      "finan": 6526,
      "Ġ156": 6527,
      "Ġalba": 6528,
      "Ġriscuri": 6529,
      "Ġsituat": 6530,
      "Ġpretentii": 6531,
      "Ġbulgaria": 6532,
      "fc": 6533,
      "Ġprivata": 6534,
      "legi": 6535,
      "Ġturi": 6536,
      "Ġneutra": 6537,
      "Ġetil": 6538,
      "Ġnace": 6539,
      "gin": 6540,
      "orarea": 6541,
      "Ġinvatamant": 6542,
      "Ġcompany": 6543,
      "deauna": 6544,
      "Ġfabricate": 6545,
      "Ġdipl": 6546,
      "Ġcurent": 6547,
      "Ġnevoie": 6548,
      "Ġstrainatate": 6549,
      "Ġeronata": 6550,
      "Ġsumei": 6551,
      "Ġamorti": 6552,
      "rante": 6553,
      "Ġmanipul": 6554,
      "Ġdobandit": 6555,
      "Ġintentioneaza": 6556,
      "Ġvon": 6557,
      "Ġaprobate": 6558,
      "Ġ700": 6559,
      "Ġ343": 6560,
      "Ġrecunoscuta": 6561,
      "Ġcombinata": 6562,
      "Ġreasigurare": 6563,
      "Ġteleviziune": 6564,
      "Ġfiliala": 6565,
      "Ġindividuala": 6566,
      "Ġtotodata": 6567,
      "Ġajunge": 6568,
      "ule": 6569,
      "bs": 6570,
      "gli": 6571,
      "Ġdrum": 6572,
      "Ġamestecuri": 6573,
      "Ġimputa": 6574,
      "Ġ015": 6575,
      "Ġcotelor": 6576,
      "Ġ161": 6577,
      "Ġoficiului": 6578,
      "landei": 6579,
      "Ġmy": 6580,
      "Ġadministrator": 6581,
      "Ġtitl": 6582,
      "Ġoperational": 6583,
      "Ġconservare": 6584,
      "Ġ722": 6585,
      "Ġtona": 6586,
      "Ġexpresia": 6587,
      "Ġspaniola": 6588,
      "Ġlarg": 6589,
      "Ġ165": 6590,
      "Ġpotential": 6591,
      "pm": 6592,
      "Ġstrat": 6593,
      "Ġfore": 6594,
      "oreasca": 6595,
      "rig": 6596,
      "Ġimuni": 6597,
      "Ġcicl": 6598,
      "Ġspecie": 6599,
      "Ġintegri": 6600,
      "Ġsectorului": 6601,
      "Ġteritoriu": 6602,
      "Ġ640": 6603,
      "Ġcontribua": 6604,
      "Ġacordurilor": 6605,
      "Ġincercarii": 6606,
      "Ġcip": 6607,
      "leaza": 6608,
      "Ġproasp": 6609,
      "Ġcrea": 6610,
      "Ġatra": 6611,
      "Ġadaugat": 6612,
      "Ġcontrare": 6613,
      "Ġcunoaste": 6614,
      "Ġfigur": 6615,
      "Ġrecurentei": 6616,
      "sto": 6617,
      "Ġvot": 6618,
      "ditate": 6619,
      "Ġfinali": 6620,
      "Ġcomestibile": 6621,
      "Ġintretinerea": 6622,
      "Ġindependente": 6623,
      "Ġrealiza": 6624,
      "Ġdon": 6625,
      "Ġordonan": 6626,
      "Ġrutier": 6627,
      "Ġsap": 6628,
      "Ġreclam": 6629,
      "Ġelectric": 6630,
      "Ġraportate": 6631,
      "Ġaduca": 6632,
      "Ġbran": 6633,
      "Ġminerale": 6634,
      "Ġlivrare": 6635,
      "Ġpredom": 6636,
      "Ġlibertate": 6637,
      "Ġdeosebit": 6638,
      "Ġnb": 6639,
      "Ġ550": 6640,
      "sarii": 6641,
      "Ġcontinue": 6642,
      "Ġbut": 6643,
      "Ġteritoriului": 6644,
      "Ġcedo": 6645,
      "Ġafectata": 6646,
      "lizare": 6647,
      "mber": 6648,
      "Ġinsar": 6649,
      "Ġdetalii": 6650,
      "Ġdiminu": 6651,
      "Ġposibilitate": 6652,
      "Ġprecedent": 6653,
      "Ġcoordonarea": 6654,
      "Ġecu": 6655,
      "Ġdur": 6656,
      "Ġsectiune": 6657,
      "curi": 6658,
      "Ġcompusi": 6659,
      "Ġimputernici": 6660,
      "Ġesential": 6661,
      "Ġadministra": 6662,
      "Ġmijloc": 6663,
      "Ġurmaresc": 6664,
      "Ġnatiunilor": 6665,
      "pli": 6666,
      "Ġ330": 6667,
      "caror": 6668,
      "Ġoricaror": 6669,
      "Ġdesemneaza": 6670,
      "Ġcircumstantele": 6671,
      "Ġamerica": 6672,
      "Ġaa": 6673,
      "Ġobiectiunile": 6674,
      "Ġascultarea": 6675,
      "Ġseg": 6676,
      "Ġremor": 6677,
      "Ġregulile": 6678,
      "Ġinitiativa": 6679,
      "olul": 6680,
      "Ġrapoartele": 6681,
      "âĶĢâĶĢâĶĢâĶĢâĶĢâĶĢ": 6682,
      "Ġrefugi": 6683,
      "Ġsusceptibile": 6684,
      "Ġclasificare": 6685,
      "Ïĩ": 6686,
      "Ġpenal": 6687,
      "Ġautovehicule": 6688,
      "Ġexercitat": 6689,
      "Ġjumat": 6690,
      "pete": 6691,
      "Ġminute": 6692,
      "schaft": 6693,
      "Ġprescriptie": 6694,
      "pei": 6695,
      "Ġ204": 6696,
      "Ġ164": 6697,
      "Ġofc": 6698,
      "Ġ158": 6699,
      "Ġlichid": 6700,
      "Ġindata": 6701,
      "Ġaproape": 6702,
      "Ġregulamentele": 6703,
      "Ġcompatibilitatea": 6704,
      "Ġincluderea": 6705,
      "Ġmedical": 6706,
      "Ġcetatenie": 6707,
      "stata": 6708,
      "lari": 6709,
      "Ġvir": 6710,
      "Ġparale": 6711,
      "Ġorganismului": 6712,
      "Ġinlat": 6713,
      "Ġpedep": 6714,
      "Ġbare": 6715,
      "Ġreprezentand": 6716,
      "Ġintrat": 6717,
      "Ġmemoriul": 6718,
      "Ġimporturi": 6719,
      "Ġ1408": 6720,
      "Ġmediul": 6721,
      "Ġreexamina": 6722,
      "Ġresursele": 6723,
      "Ġnulitatii": 6724,
      "ram": 6725,
      "Ġintot": 6726,
      "Ġfracti": 6727,
      "aga": 6728,
      "Ġpolu": 6729,
      "Ġintotdeauna": 6730,
      "Ġindrep": 6731,
      "Ġsucurs": 6732,
      "Ġrealitate": 6733,
      "400": 6734,
      "alizare": 6735,
      "Ġdebar": 6736,
      "Ġgas": 6737,
      "ĠâĢĺ": 6738,
      "ku": 6739,
      "Ġlingvi": 6740,
      "Ġ176": 6741,
      "ctivitatii": 6742,
      "Ġcic": 6743,
      "Ġfactura": 6744,
      "Ġprestarea": 6745,
      "Ġutilizatorii": 6746,
      "Ġlimited": 6747,
      "Ġproduct": 6748,
      "Ġpronuntarea": 6749,
      "Ġfotogra": 6750,
      "Ġeventuale": 6751,
      "Ġcauciuc": 6752,
      "Ġeco": 6753,
      "Ġajuns": 6754,
      "Ġultimul": 6755,
      "Ġnote": 6756,
      "turii": 6757,
      "Ġapara": 6758,
      "Ġposte": 6759,
      "Ġ543": 6760,
      "Ġasimi": 6761,
      "Ġtermin": 6762,
      "Ġincuraj": 6763,
      "âĶĢâĶ¼": 6764,
      "Ġrezistenta": 6765,
      "Ġrecur": 6766,
      "Ġexpunere": 6767,
      "Ġpregatirea": 6768,
      "asing": 6769,
      "Ġdirectorul": 6770,
      "Ġsucces": 6771,
      "Ġdeclarata": 6772,
      "del": 6773,
      "Ġdispuna": 6774,
      "Ġafirmatia": 6775,
      "Ġfund": 6776,
      "Ġ175": 6777,
      "Ġcentrul": 6778,
      "Ġreproducere": 6779,
      "Ġtan": 6780,
      "Ġspal": 6781,
      "Ġ396": 6782,
      "Ġocupa": 6783,
      "Ġelaborarea": 6784,
      "Ġindeplinita": 6785,
      "Ġnaviga": 6786,
      "Ġnegli": 6787,
      "Ġscrisoare": 6788,
      "Ġinitie": 6789,
      "Ġexcluse": 6790,
      "Ġfurnizor": 6791,
      "Ġargumentatia": 6792,
      "untate": 6793,
      "Ġnepre": 6794,
      "Ġalimente": 6795,
      "Ġpota": 6796,
      "Ġtocmai": 6797,
      "toxi": 6798,
      "gese": 6799,
      "Ġnecom": 6800,
      "Ġ166": 6801,
      "Ġadresat": 6802,
      "Ġreguli": 6803,
      "Ġobligate": 6804,
      "Ġtelecomuni": 6805,
      "Ġextre": 6806,
      "Ġuscata": 6807,
      "Ġformulare": 6808,
      "Ġ260": 6809,
      "Ġschen": 6810,
      "Ġamenzilor": 6811,
      "berg": 6812,
      "arta": 6813,
      "Ġcompleteaza": 6814,
      "Ġprivilegi": 6815,
      "Ġpertinenta": 6816,
      "Ġplateasca": 6817,
      "Ġplafon": 6818,
      "ligi": 6819,
      "Ġvolun": 6820,
      "Ġspeciilor": 6821,
      "Ġdori": 6822,
      "Ġconcord": 6823,
      "Ġbunei": 6824,
      "Ġintreprin": 6825,
      "Ġpolitici": 6826,
      "Ġfundamental": 6827,
      "Ġtero": 6828,
      "Ġone": 6829,
      "ÏĨ": 6830,
      "Ġcondam": 6831,
      "ÏģÎ¿": 6832,
      "Ġmarii": 6833,
      "Ġtype": 6834,
      "Ġlucratori": 6835,
      "Ġpuri": 6836,
      "Ġincercarea": 6837,
      "Ġanticon": 6838,
      "Ġprobei": 6839,
      "Ġic": 6840,
      "Ġgol": 6841,
      "all": 6842,
      "Ġreala": 6843,
      "Ġprofesioni": 6844,
      "Ġexpirarii": 6845,
      "dition": 6846,
      "Ġconsultarea": 6847,
      "Ġinadmisibilitate": 6848,
      "Ġinterdictia": 6849,
      "gne": 6850,
      "Ġnew": 6851,
      "Ġevalua": 6852,
      "Ġaprecieze": 6853,
      "Ġstatistice": 6854,
      "Ġabuzive": 6855,
      "Ġverificat": 6856,
      "Ġ480": 6857,
      "Ġucraina": 6858,
      "Ġatribuite": 6859,
      "Ġ347": 6860,
      "liere": 6861,
      "cus": 6862,
      "Ġalocate": 6863,
      "Ġmala": 6864,
      "Ġplanului": 6865,
      "Ġ060": 6866,
      "Ġmail": 6867,
      "Ġlimitarea": 6868,
      "sprezece": 6869,
      "Ġlampi": 6870,
      "Ġdefinirea": 6871,
      "Ġcuprind": 6872,
      "Ġadmisibilitatea": 6873,
      "Ġprecizeze": 6874,
      "Ġcondamn": 6875,
      "Ġcolective": 6876,
      "nei": 6877,
      "Ġridicate": 6878,
      "Ġexceptii": 6879,
      "Ġlimbile": 6880,
      "Ġpaci": 6881,
      "sari": 6882,
      "Ġtole": 6883,
      "Ġrespectate": 6884,
      "ote": 6885,
      "ghi": 6886,
      "lizarea": 6887,
      "Ġaverti": 6888,
      "Ġpusa": 6889,
      "Ġdelegate": 6890,
      "Ġcapitalul": 6891,
      "Ġsector": 6892,
      "lind": 6893,
      "Ġ163": 6894,
      "Ġdiamet": 6895,
      "ech": 6896,
      "Ġinput": 6897,
      "Ġserve": 6898,
      "Ġreduse": 6899,
      "Ġmajoritatea": 6900,
      "Ġprep": 6901,
      "Ġtotalul": 6902,
      "Ġbugetului": 6903,
      "tarul": 6904,
      "onului": 6905,
      "Ġcaie": 6906,
      "Ġurmarite": 6907,
      "Ġlegislatiilor": 6908,
      "Ġexper": 6909,
      "Ġconstatarile": 6910,
      "Ġscadenta": 6911,
      "Ġameri": 6912,
      "Ġafrica": 6913,
      "spi": 6914,
      "Ġconsumatori": 6915,
      "Ġaeriene": 6916,
      "Ġvide": 6917,
      "Ġanalizat": 6918,
      "Ġhabitate": 6919,
      "Ġjudecatoreasca": 6920,
      "Ġspecificatiile": 6921,
      "Ġofere": 6922,
      "Ġinsarcin": 6923,
      "Ġ847": 6924,
      "dy": 6925,
      "Ġante": 6926,
      "Ġstraine": 6927,
      "Ġleasing": 6928,
      "Ġpublicitate": 6929,
      "Ġfunctionari": 6930,
      "Ġliniile": 6931,
      "Ġpne": 6932,
      "ÏĥÎ·": 6933,
      "Ġpericuloase": 6934,
      "ld": 6935,
      "mentarea": 6936,
      "Ġcle": 6937,
      "Ġinclusa": 6938,
      "Ġinclusi": 6939,
      "âĶĢâĶ": 6940,
      "Ġmanife": 6941,
      "Ġconsimta": 6942,
      "Ġcauzat": 6943,
      "rarile": 6944,
      "Ġputerii": 6945,
      "Ġinvestitiile": 6946,
      "Ġdovedit": 6947,
      "Ġanchete": 6948,
      "Ġurmator": 6949,
      "Ġcompensatorii": 6950,
      "Ġcazurilor": 6951,
      "Ġnee": 6952,
      "Ġabate": 6953,
      "Ġtro": 6954,
      "ham": 6955,
      "Ġnerezi": 6956,
      "larea": 6957,
      "Ġreper": 6958,
      "reapta": 6959,
      "Ġdesemna": 6960,
      "Ġeti": 6961,
      "Ġobtinuta": 6962,
      "Ġmobile": 6963,
      "Ġconturile": 6964,
      "Ġelementul": 6965,
      "Ġeliberate": 6966,
      "Ġfle": 6967,
      "Ġ900": 6968,
      "Ġtinut": 6969,
      "Ġcomparabile": 6970,
      "Ġcoduri": 6971,
      "Ġinregistreaza": 6972,
      "Ġhidrogen": 6973,
      "Ġ171": 6974,
      "Ġfacute": 6975,
      "Ġresponsabila": 6976,
      "Ġatentie": 6977,
      "Ġinstitut": 6978,
      "Ġechipamentele": 6979,
      "Ġdisponibil": 6980,
      "Ġcompus": 6981,
      "Ġtransporturilor": 6982,
      "Ġniveluri": 6983,
      "Ġdouazecea": 6984,
      "dra": 6985,
      "Ġconse": 6986,
      "Ġalimentara": 6987,
      "Ġhandica": 6988,
      "Ñĥ": 6989,
      "Ġlon": 6990,
      "Ġpreferenti": 6991,
      "Ġdocumentului": 6992,
      "Ġnominala": 6993,
      "dr": 6994,
      "Ġfixe": 6995,
      "Ġpregatire": 6996,
      "Ġincrederii": 6997,
      "Ġconstituit": 6998,
      "Ġambalaje": 6999,
      "Ġtinta": 7000,
      "Ġacumul": 7001,
      "Ġ172": 7002,
      "Ġdeplas": 7003,
      "Ġdistinctie": 7004,
      "Ġechipamentelor": 7005,
      "citatii": 7006,
      "Ġ1988": 7007,
      "Ġeficace": 7008,
      "Ġtuburi": 7009,
      "Ġexaminata": 7010,
      "Ġfavori": 7011,
      "fos": 7012,
      "Ġintensi": 7013,
      "ĠÎºÎ±": 7014,
      "Ġrestrictie": 7015,
      "Ġinsotita": 7016,
      "velo": 7017,
      "av": 7018,
      "Ġbilantiere": 7019,
      "Ġmed": 7020,
      "ruri": 7021,
      "Ġformularea": 7022,
      "Ġachizitionarea": 7023,
      "Ġeconomia": 7024,
      "Ġtranzactiile": 7025,
      "Ġunelte": 7026,
      "Ġstrict": 7027,
      "Ġanalizei": 7028,
      "Ġanticoncurenti": 7029,
      "ĺĲ": 7030,
      "Ġangajamentele": 7031,
      "Ġpopulatiei": 7032,
      "mara": 7033,
      "Ġexportate": 7034,
      "Ġfunctiile": 7035,
      "Ġimbracaminte": 7036,
      "Ġ940": 7037,
      "Ġdeschis": 7038,
      "Ġmie": 7039,
      "Ġlocuri": 7040,
      "Ġinteresului": 7041,
      "Ġtelefon": 7042,
      "Ġprofesional": 7043,
      "Ġnotificarii": 7044,
      "tes": 7045,
      "Ġmecanism": 7046,
      "Ġ226": 7047,
      "Ġ337": 7048,
      "Ġconventii": 7049,
      "Ġperfe": 7050,
      "ationale": 7051,
      "atu": 7052,
      "Ġforfetara": 7053,
      "Ġ239": 7054,
      "Ġindoi": 7055,
      "Ġreteaua": 7056,
      "Ġelu": 7057,
      "Ġobisnuita": 7058,
      "ristic": 7059,
      "oxid": 7060,
      "Ġdispozitiei": 7061,
      "mantul": 7062,
      "Ġjumatate": 7063,
      "Ġelena": 7064,
      "Ġprezentare": 7065,
      "Ġcoti": 7066,
      "Ġunice": 7067,
      "Ġ950": 7068,
      "Ġorganizatia": 7069,
      "Ġexterior": 7070,
      "Ġgarantare": 7071,
      "Ġcen": 7072,
      "Ġamino": 7073,
      "Ġcrose": 7074,
      "Ġdepre": 7075,
      "Ġtelef": 7076,
      "Ġpagina": 7077,
      "han": 7078,
      "Ġjap": 7079,
      "Ġreglementata": 7080,
      "Ġneindeplinirii": 7081,
      "Ġfurnizorii": 7082,
      "meze": 7083,
      "Ġ203": 7084,
      "Ġtestul": 7085,
      "Ġretragere": 7086,
      "Ġstandardelor": 7087,
      "Ġcontestata": 7088,
      "Ġsuporte": 7089,
      "Ġdeducerea": 7090,
      "rou": 7091,
      "Ġincon": 7092,
      "Ġ162": 7093,
      "Ġbauturi": 7094,
      "wo": 7095,
      "walt": 7096,
      "Ġvia": 7097,
      "Ġscrisori": 7098,
      "Ġmobiliare": 7099,
      "Ġurmarea": 7100,
      "Ġidentitatea": 7101,
      "Ġcalificata": 7102,
      "Ġdistrib": 7103,
      "Ġcera": 7104,
      "Ġcauzate": 7105,
      "Ġcalculate": 7106,
      "Ġproiectelor": 7107,
      "Ġllc": 7108,
      "Ġcomponentele": 7109,
      "Ġaferenta": 7110,
      "Ġcontina": 7111,
      "ÏĢÎ¿": 7112,
      "Ġfactorii": 7113,
      "Ġ169": 7114,
      "Ġconcrete": 7115,
      "Ġachizitie": 7116,
      "Ġdificultati": 7117,
      "Ġdeclaratiei": 7118,
      "Ġalias": 7119,
      "Ġset": 7120,
      "Ġnotificate": 7121,
      "hau": 7122,
      "Ġseria": 7123,
      "Ġprecizie": 7124,
      "xx": 7125,
      "Ġobisnuit": 7126,
      "Ġamid": 7127,
      "Ġaip": 7128,
      "Ġfacuta": 7129,
      "ments": 7130,
      "Ġdepla": 7131,
      "Ġvreun": 7132,
      "Ġclientilor": 7133,
      "Ġsera": 7134,
      "hl": 7135,
      "Ġroma": 7136,
      "Ġdomeniile": 7137,
      "Ġpretinsa": 7138,
      "Ġretroa": 7139,
      "Ġcertificatele": 7140,
      "Ġdeparta": 7141,
      "Ġcomenta": 7142,
      "Ġorganizatiile": 7143,
      "Ġsoft": 7144,
      "Ġexecutiv": 7145,
      "Ġconsumatorii": 7146,
      "Ġlucrarilor": 7147,
      "Ġnot": 7148,
      "ventiile": 7149,
      "ctionate": 7150,
      "Ġconstatate": 7151,
      "Ġconfirmata": 7152,
      "Ġ258": 7153,
      "Ġagricol": 7154,
      "jo": 7155,
      "Ġepui": 7156,
      "Ġcifre": 7157,
      "Ġtor": 7158,
      "Ġaprobarii": 7159,
      "cale": 7160,
      "Ġmetodei": 7161,
      "Ġintelegerii": 7162,
      "nie": 7163,
      "thyl": 7164,
      "Ġatenu": 7165,
      "Ġlabel": 7166,
      "Ġministrul": 7167,
      "Ġjustificat": 7168,
      "Ġ410": 7169,
      "Ġimprim": 7170,
      "Ġangajamente": 7171,
      "Ġvicti": 7172,
      "Ġlegislatie": 7173,
      "Ġstatistica": 7174,
      "Ġwo": 7175,
      "Ġincarcat": 7176,
      "presed": 7177,
      "ĠÎ¿": 7178,
      "Ġeticheta": 7179,
      "Ġclini": 7180,
      "Ġadaos": 7181,
      "Ġpropunem": 7182,
      "Ġcoordonare": 7183,
      "Ġpetrole": 7184,
      "lati": 7185,
      "Ġcarnii": 7186,
      "Ġzece": 7187,
      "Ġ256": 7188,
      "Ġbancii": 7189,
      "Ġ187": 7190,
      "Ġgrav": 7191,
      "Ġcapitalurilor": 7192,
      "Ġindeplinirii": 7193,
      "zz": 7194,
      "Ġschengen": 7195,
      "Ġ190": 7196,
      "Ġpropria": 7197,
      "Ġlituania": 7198,
      "ichi": 7199,
      "Ġdebit": 7200,
      "Ġcupru": 7201,
      "yz": 7202,
      "ties": 7203,
      "strate": 7204,
      "Ġhandicap": 7205,
      "Ġvaliditatea": 7206,
      "Ġcertificatelor": 7207,
      "Ġreciproca": 7208,
      "ac": 7209,
      "Ġmilitare": 7210,
      "Ġtoata": 7211,
      "Ġ227": 7212,
      "Ġindicatie": 7213,
      "ket": 7214,
      "Ġtrecut": 7215,
      "Ġrinichi": 7216,
      "Ġsolutii": 7217,
      "Ġimobili": 7218,
      "Ġdeschise": 7219,
      "Ġliberei": 7220,
      "Ġcorporation": 7221,
      "mari": 7222,
      "Ġapropi": 7223,
      "Ġretinute": 7224,
      "Ġatribuit": 7225,
      "Ġacredi": 7226,
      "gerilor": 7227,
      "Ġenergia": 7228,
      "Ġrespectivelor": 7229,
      "Ġ205": 7230,
      "lines": 7231,
      "Ġconservarea": 7232,
      "Ġparticulari": 7233,
      "loi": 7234,
      "Ġvertica": 7235,
      "Ġelibereaza": 7236,
      "Ġameli": 7237,
      "Ġ215": 7238,
      "Ġcald": 7239,
      "Ġzaharului": 7240,
      "Ġviitor": 7241,
      "Ġadministrat": 7242,
      "Ġapelor": 7243,
      "teasca": 7244,
      "Ġramas": 7245,
      "Ġmaritime": 7246,
      "Ġintroductive": 7247,
      "gene": 7248,
      "Ġ450": 7249,
      "ouri": 7250,
      "Ġetan": 7251,
      "Ġtul": 7252,
      "Ġtraducere": 7253,
      "bank": 7254,
      "Ġgenerate": 7255,
      "tima": 7256,
      "Ġconstran": 7257,
      "Ġbazat": 7258,
      "Ġola": 7259,
      "Ġdepunerii": 7260,
      "Ġcompro": 7261,
      "Ġrespectat": 7262,
      "Ġemisie": 7263,
      "Ġpastreaza": 7264,
      "Ġ290": 7265,
      "Ġincalta": 7266,
      "burg": 7267,
      "Ġarbo": 7268,
      "Ġrestituire": 7269,
      "Ġcompani": 7270,
      "Ġdeclarare": 7271,
      "Ġdisponibila": 7272,
      "Ġsuge": 7273,
      "Ġ181": 7274,
      "Ġsustinute": 7275,
      "Ġjustificate": 7276,
      "Ġcolectate": 7277,
      "dari": 7278,
      "Ġ211": 7279,
      "termin": 7280,
      "Ġsloveni": 7281,
      "Ġcolectare": 7282,
      "Ġalcooli": 7283,
      "Ġaromati": 7284,
      "Ġprestatiile": 7285,
      "Ġdescura": 7286,
      "Ġgarantia": 7287,
      "Ġdubla": 7288,
      "pere": 7289,
      "by": 7290,
      "Ġ189": 7291,
      "Ġfolosirea": 7292,
      "Ġ575": 7293,
      "Ġnasc": 7294,
      "Ġinterval": 7295,
      "Ġacolo": 7296,
      "Ġdaun": 7297,
      "Ġstadiul": 7298,
      "Ġcetatenia": 7299,
      "Ġcanada": 7300,
      "Ġportugheza": 7301,
      "Ġrusia": 7302,
      "Ġniciodata": 7303,
      "Ġspaniol": 7304,
      "Ġsalbatice": 7305,
      "Ġcoerenta": 7306,
      "Ġbazata": 7307,
      "Ġlegalitatii": 7308,
      "tinand": 7309,
      "Ġuniversal": 7310,
      "Ġgaranteaza": 7311,
      "Ġnoile": 7312,
      "Ġ61162": 7313,
      "cultura": 7314,
      "Ġtranzitie": 7315,
      "Ġgarantiile": 7316,
      "Ġ218": 7317,
      "Ġimbunatatirea": 7318,
      "Ġfoi": 7319,
      "Ġvandute": 7320,
      "Ġgrau": 7321,
      "Ġaveau": 7322,
      "fina": 7323,
      "Ġfolosit": 7324,
      "gent": 7325,
      "Ġrot": 7326,
      "Ġsustinuta": 7327,
      "rope": 7328,
      "Ġlactate": 7329,
      "Ġfranceze": 7330,
      "Ġpreciza": 7331,
      "Ġtarifara": 7332,
      "Ġlunii": 7333,
      "Ġ1000": 7334,
      "Ġmit": 7335,
      "Ġindex": 7336,
      "Ġindicatii": 7337,
      "310": 7338,
      "Ġaprin": 7339,
      "Ġzero": 7340,
      "Ġofertei": 7341,
      "Ġrelativ": 7342,
      "Ġexpuse": 7343,
      "em": 7344,
      "inile": 7345,
      "Ġcheie": 7346,
      "Ġred": 7347,
      "veri": 7348,
      "Ġanalize": 7349,
      "Ġexprima": 7350,
      "Ġjustifice": 7351,
      "Ġclo": 7352,
      "Ġinvestigare": 7353,
      "Ġsfe": 7354,
      "Ġsuspendare": 7355,
      "Ġprocent": 7356,
      "Ġretinuta": 7357,
      "Ġneuti": 7358,
      "Ġimpuna": 7359,
      "cp": 7360,
      "Ġvizu": 7361,
      "Ġeduc": 7362,
      "pari": 7363,
      "Ġinfrastructurii": 7364,
      "Ġnaf": 7365,
      "Ġplatita": 7366,
      "Ġcriti": 7367,
      "Ġpiese": 7368,
      "Ġpublicul": 7369,
      "Ġconcer": 7370,
      "Ġ183": 7371,
      "Ġcomercializarea": 7372,
      "Ġteritoriale": 7373,
      "Ġghi": 7374,
      "Ġdoreste": 7375,
      "Ġ208": 7376,
      "Ġfunctionar": 7377,
      "Ġorale": 7378,
      "Ġrespinse": 7379,
      "ocarea": 7380,
      "Ġrefuzat": 7381,
      "Ġsemnaturi": 7382,
      "era": 7383,
      "Ġtransmit": 7384,
      "Ġresortisantilor": 7385,
      "gente": 7386,
      "Ġprze": 7387,
      "Ġsoftware": 7388,
      "onala": 7389,
      "Ġtend": 7390,
      "Ġ185": 7391,
      "Ġcontestate": 7392,
      "Ġsaptamani": 7393,
      "cicle": 7394,
      "Ġimpus": 7395,
      "Ġapararea": 7396,
      "Ġfructelor": 7397,
      "Ġboala": 7398,
      "Ġindonezia": 7399,
      "Ġtru": 7400,
      "Ġsimili": 7401,
      "mata": 7402,
      "Ġmetali": 7403,
      "Ġcilind": 7404,
      "Ġinver": 7405,
      "Ġovine": 7406,
      "Ġchineze": 7407,
      "Ġproportie": 7408,
      "Ð¼": 7409,
      "Ġcorespon": 7410,
      "Ġrespectivului": 7411,
      "Ġamplas": 7412,
      "Ġsubventii": 7413,
      "Ġconstituite": 7414,
      "Ġaprecierii": 7415,
      "Ġzb": 7416,
      "Ġangajati": 7417,
      "formi": 7418,
      "Ġcompen": 7419,
      "Ġtail": 7420,
      "Ġalocarea": 7421,
      "302": 7422,
      "ÐµÐ½": 7423,
      "cil": 7424,
      "Ġprioritate": 7425,
      "Ġmaterialul": 7426,
      "Ġavute": 7427,
      "Ġrecunoastere": 7428,
      "Ġremar": 7429,
      "Ġfinantelor": 7430,
      "Ġafecteze": 7431,
      "mt": 7432,
      "Ġraspunsurile": 7433,
      "Ġselectie": 7434,
      "Ġcolectarea": 7435,
      "Ġraportat": 7436,
      "Ġocuparea": 7437,
      "Ġexistat": 7438,
      "Ġpru": 7439,
      "Ġ253": 7440,
      "Ġjurisdictional": 7441,
      "Ġproportional": 7442,
      "Ġexistent": 7443,
      "Ġ318": 7444,
      "Ġtrimiteri": 7445,
      "Ġgratuit": 7446,
      "Ġpertur": 7447,
      "Ġformarea": 7448,
      "Ġcomplex": 7449,
      "utat": 7450,
      "Ġlaminate": 7451,
      "Ġreturn": 7452,
      "vat": 7453,
      "ater": 7454,
      "Ġdistincte": 7455,
      "ciei": 7456,
      "mand": 7457,
      "201": 7458,
      "rina": 7459,
      "Ġque": 7460,
      "Ġ159": 7461,
      "Ġregionala": 7462,
      "Ġ216": 7463,
      "solid": 7464,
      "Ġcopiilor": 7465,
      "Ġvegetale": 7466,
      "Ġuniforme": 7467,
      "Ġ296": 7468,
      "Ġ236": 7469,
      "Ġinlocui": 7470,
      "Ġprovizorie": 7471,
      "Ġprimar": 7472,
      "Ġprospe": 7473,
      "df": 7474,
      "Ġsolutionare": 7475,
      "Ġbeneficiarul": 7476,
      "Ġindicii": 7477,
      "Ġreuniuni": 7478,
      "it": 7479,
      "Ġax": 7480,
      "Ġexcludere": 7481,
      "Ġaprobata": 7482,
      "Ġdiferentele": 7483,
      "Ġforesti": 7484,
      "cr": 7485,
      "Ġtranzactionare": 7486,
      "Ġatinge": 7487,
      "Ġdeterm": 7488,
      "siu": 7489,
      "cker": 7490,
      "Ġregene": 7491,
      "Ġdistru": 7492,
      "Ġservices": 7493,
      "Ġ255": 7494,
      "bul": 7495,
      "Ġexclus": 7496,
      "Ġlasa": 7497,
      "Ġham": 7498,
      "Ġ194": 7499,
      "mu": 7500,
      "Ġprobelor": 7501,
      "Ġsarurile": 7502,
      "Ġobiecte": 7503,
      "Ġdurate": 7504,
      "Ġcupl": 7505,
      "Ġcombinatie": 7506,
      "Ġdeplina": 7507,
      "chen": 7508,
      "Ġregulari": 7509,
      "Ġproiectele": 7510,
      "Ġhibri": 7511,
      "Ġcomercian": 7512,
      "Ġ254": 7513,
      "Ġpulbe": 7514,
      "Ġdiferenti": 7515,
      "stro": 7516,
      "Ġ731": 7517,
      "Ġintamp": 7518,
      "voa": 7519,
      "Ġteritoriala": 7520,
      "unoasca": 7521,
      "Ġcorespondenta": 7522,
      "Ġgovt": 7523,
      "Ġlocala": 7524,
      "Ġlipsita": 7525,
      "Ġintroductiv": 7526,
      "cor": 7527,
      "Ġles": 7528,
      "Ġgravitatea": 7529,
      "Ġdatorie": 7530,
      "Ġcalatori": 7531,
      "Ġprecise": 7532,
      "Ġvalabilitate": 7533,
      "Ġmentiune": 7534,
      "stei": 7535,
      "Ġ195": 7536,
      "Ġepi": 7537,
      "site": 7538,
      "Ġparis": 7539,
      "Ġaseman": 7540,
      "ntul": 7541,
      "Ġigp": 7542,
      "Ġconcentratia": 7543,
      "Ġorientari": 7544,
      "Ġimpiedi": 7545,
      "Ġalfa": 7546,
      "tative": 7547,
      "meri": 7548,
      "Ġeficient": 7549,
      "Ġenuntate": 7550,
      "Ġvalabila": 7551,
      "Ġlaborator": 7552,
      "Ġonx": 7553,
      "ston": 7554,
      "Ġrestructurare": 7555,
      "Ġindoiala": 7556,
      "torilor": 7557,
      "Ġextinderea": 7558,
      "Ġune": 7559,
      "Ġ240": 7560,
      "Ġintervalul": 7561,
      "Ġpui": 7562,
      "Ġtransferului": 7563,
      "Ġpose": 7564,
      "Ġindicatiilor": 7565,
      "Ġcomparti": 7566,
      "Ġnimic": 7567,
      "Ġspori": 7568,
      "Ġbv": 7569,
      "Ġabroga": 7570,
      "Ġajustare": 7571,
      "Ġcirculatia": 7572,
      "Ġferoviar": 7573,
      "Ġ202": 7574,
      "Ġcompletarile": 7575,
      "Ġ186": 7576,
      "Ġindicata": 7577,
      "Ġ231": 7578,
      "Ġsusceptibila": 7579,
      "Ġbrazi": 7580,
      "Ġmasline": 7581,
      "Ġprocu": 7582,
      "Ġ238": 7583,
      "Ġapartine": 7584,
      "Ġlibertatii": 7585,
      "Ġdespagubiri": 7586,
      "cur": 7587,
      "Ġ0406": 7588,
      "Ġoportun": 7589,
      "Ġprestate": 7590,
      "Ġclient": 7591,
      "Ġol": 7592,
      "Ġpropus": 7593,
      "hal": 7594,
      "Ġ191": 7595,
      "Ġpresu": 7596,
      "Ġpretinde": 7597,
      "Ġfizi": 7598,
      "Ġeconomiei": 7599,
      "Ġtarifar": 7600,
      "Ġanalizate": 7601,
      "hm": 7602,
      "Ġincredin": 7603,
      "Ġ580": 7604,
      "Ġacordarii": 7605,
      "Ġnegaran": 7606,
      "Ġstiintific": 7607,
      "Ġcalendaristic": 7608,
      "pun": 7609,
      "Ġ177": 7610,
      "Ġimprejurare": 7611,
      "Ġmunicipi": 7612,
      "minare": 7613,
      "Ġtricotate": 7614,
      "Ġpropuneri": 7615,
      "Ġstr": 7616,
      "cos": 7617,
      "Ġatlan": 7618,
      "Ġcourt": 7619,
      "Ġmodelului": 7620,
      "Ġbelgian": 7621,
      "Ġobservat": 7622,
      "Ġ179": 7623,
      "Ġrei": 7624,
      "jun": 7625,
      "Ġtevi": 7626,
      "Ġfacilita": 7627,
      "Ġresponsabilitatea": 7628,
      "Ġtrebuiau": 7629,
      "Ġ295": 7630,
      "Ġ840": 7631,
      "Ġarmonizarea": 7632,
      "Ġpretins": 7633,
      "Ġprotejarea": 7634,
      "Ġproaspata": 7635,
      "Ġ174": 7636,
      "Ġordinul": 7637,
      "anexa": 7638,
      "Ġutilizatori": 7639,
      "Ġsapte": 7640,
      "Ġautorizeaza": 7641,
      "Ġinfe": 7642,
      "Ġfusesera": 7643,
      "Ġatribuie": 7644,
      "Ġsemnul": 7645,
      "Ġecha": 7646,
      "Ġmig": 7647,
      "Ġevenimente": 7648,
      "Ġfarmace": 7649,
      "jei": 7650,
      "Ġcotele": 7651,
      "211": 7652,
      "Ġinlocuiesc": 7653,
      "Ġ213": 7654,
      "Ġneindeplinirea": 7655,
      "Ġangajator": 7656,
      "Ġdeclararea": 7657,
      "Ġpasageri": 7658,
      "Ġcode": 7659,
      "Ġvanzarii": 7660,
      "Ġras": 7661,
      "Ġpescuitul": 7662,
      "Ġmultil": 7663,
      "Ġlimitare": 7664,
      "Ġdivulgarea": 7665,
      "Ġstocuri": 7666,
      "Ġdeclan": 7667,
      "Ġministrului": 7668,
      "Ġplaci": 7669,
      "ĠÎ·": 7670,
      "Ġpavilionul": 7671,
      "ning": 7672,
      "Õ¡": 7673,
      "Ġsecuriti": 7674,
      "Ġcarbu": 7675,
      "Ġhydrocarb": 7676,
      "Ġurmata": 7677,
      "Ġ192": 7678,
      "Ġproduca": 7679,
      "Ġordonantei": 7680,
      "Ġclimatice": 7681,
      "Ġ206": 7682,
      "Ġdatorata": 7683,
      "gua": 7684,
      "Ġcombaterea": 7685,
      "Ġterenuri": 7686,
      "Ġpraf": 7687,
      "Ġpromovare": 7688,
      "Ġvietii": 7689,
      "sky": 7690,
      "dorf": 7691,
      "Ġbei": 7692,
      "Ġdispozitivele": 7693,
      "Ġderogari": 7694,
      "mos": 7695,
      "cule": 7696,
      "Ġmarine": 7697,
      "Ġ209": 7698,
      "Ġdiversi": 7699,
      "reak": 7700,
      "Ġpiele": 7701,
      "Ġnep": 7702,
      "Ġschimburilor": 7703,
      "Ġamericii": 7704,
      "sd": 7705,
      "Ġlituani": 7706,
      "Ġnavigatie": 7707,
      "Ġtariful": 7708,
      "Ġprimeste": 7709,
      "Ġextinsa": 7710,
      "Ġautomata": 7711,
      "Ġolaf": 7712,
      "Ġexecuta": 7713,
      "hidrat": 7714,
      "Ġincheierii": 7715,
      "Ġprejudicii": 7716,
      "Ġton": 7717,
      "Ġgn": 7718,
      "Ġneconsolid": 7719,
      "Ġaccident": 7720,
      "Ġbeneficiat": 7721,
      "Ġsimilara": 7722,
      "Ġdeosebita": 7723,
      "Ġbugetare": 7724,
      "vate": 7725,
      "Ġesp": 7726,
      "Ġclasele": 7727,
      "Ġinterpretarii": 7728,
      "Ġspatiu": 7729,
      "Ġonline": 7730,
      "Ġnichel": 7731,
      "Ġimpunerea": 7732,
      "Ġfinantate": 7733,
      "Ġsavarsite": 7734,
      "zin": 7735,
      "Ġgrupe": 7736,
      "Ġclorura": 7737,
      "cator": 7738,
      "Ġeventualele": 7739,
      "Ġjean": 7740,
      "urnal": 7741,
      "Ġbrita": 7742,
      "Ġabuziv": 7743,
      "Ġmodificarilor": 7744,
      "Ġacoperirea": 7745,
      "Ġconstitutionale": 7746,
      "nea": 7747,
      "Ġtipului": 7748,
      "Ġlas": 7749,
      "Ġproveni": 7750,
      "Ġcontributii": 7751,
      "Ġcapitalului": 7752,
      "hy": 7753,
      "Ġperio": 7754,
      "Ġpropunere": 7755,
      "Ġree": 7756,
      "Ġinstalatiile": 7757,
      "ctiile": 7758,
      "Î±Î½": 7759,
      "Ġfacand": 7760,
      "Ġagentie": 7761,
      "Ġiri": 7762,
      "Ġjurisdictionala": 7763,
      "Ġdezb": 7764,
      "Ġzon": 7765,
      "Ġfabricatie": 7766,
      "Ð¾Ð²": 7767,
      "Ġ193": 7768,
      "soara": 7769,
      "Ġefectului": 7770,
      "Ġcalificat": 7771,
      "Ġeurostat": 7772,
      "Ġconstand": 7773,
      "Ġparticular": 7774,
      "Ġadmisa": 7775,
      "Ġapartinand": 7776,
      "gs": 7777,
      "Ġvreo": 7778,
      "lit": 7779,
      "Ġitaliene": 7780,
      "Ġsurvenit": 7781,
      "gna": 7782,
      "Ġgarantiei": 7783,
      "Ġgrasime": 7784,
      "stein": 7785,
      "Ġcalificare": 7786,
      "gurata": 7787,
      "ctionarea": 7788,
      "Ġintermediare": 7789,
      "Ġcongelate": 7790,
      "Ġ173": 7791,
      "Ġinchis": 7792,
      "lora": 7793,
      "Ġexterna": 7794,
      "Ġpasta": 7795,
      "Ġrecru": 7796,
      "Ġ302": 7797,
      "Ġporcine": 7798,
      "Ġsituatiilor": 7799,
      "Ġdimensiuni": 7800,
      "Ġcombustibili": 7801,
      "Ġmentionati": 7802,
      "Ġpresupunand": 7803,
      "met": 7804,
      "Ġinstalatiilor": 7805,
      "Ġlimitate": 7806,
      "Ġabrogat": 7807,
      "Ġnei": 7808,
      "Ġcrosetate": 7809,
      "Ġ221": 7810,
      "Ġstu": 7811,
      "vent": 7812,
      "Ġpolie": 7813,
      "Ġapartin": 7814,
      "Ġtranzactie": 7815,
      "Ġexclusiva": 7816,
      "Ġpm": 7817,
      "Ġparticiparii": 7818,
      "Ġrapoarte": 7819,
      "Ġpermise": 7820,
      "Ġemitent": 7821,
      "Ġjocuri": 7822,
      "Ġextern": 7823,
      "Ġtransfera": 7824,
      "Ġincadrate": 7825,
      "Ġindirecte": 7826,
      "Ġlaw": 7827,
      "Ġscutite": 7828,
      "zore": 7829,
      "Ġletonia": 7830,
      "ux": 7831,
      "Ġregistru": 7832,
      "Ġ659": 7833,
      "Ġmono": 7834,
      "Ġautoriza": 7835,
      "Ġweb": 7836,
      "Ġregiuni": 7837,
      "Ġream": 7838,
      "Ġfax": 7839,
      "Ġrelatiile": 7840,
      "cipe": 7841,
      "Ġagl": 7842,
      "Ġorganizatiilor": 7843,
      "licita": 7844,
      "Ġmedicala": 7845,
      "Ġino": 7846,
      "Ġmasurarea": 7847,
      "hausti": 7848,
      "tm": 7849,
      "Ġpolitice": 7850,
      "Ġcoaja": 7851,
      "Ġconsideratiilor": 7852,
      "ĠÑģ": 7853,
      "Ġratei": 7854,
      "Ġexporturile": 7855,
      "Ġscheme": 7856,
      "pil": 7857,
      "Ġ188": 7858,
      "Ġingredi": 7859,
      "ameni": 7860,
      "Ġcompletarea": 7861,
      "Ġreprezentantii": 7862,
      "Ġalcat": 7863,
      "Ġaz": 7864,
      "Ġ217": 7865,
      "Ġstandardul": 7866,
      "Ġincercari": 7867,
      "Ġbeta": 7868,
      "Ġprecau": 7869,
      "Ġcontribui": 7870,
      "Ġwor": 7871,
      "Ġjournal": 7872,
      "Ġdirectivele": 7873,
      "Ġtrezore": 7874,
      "Ġecologica": 7875,
      "Ġopta": 7876,
      "Ġasc": 7877,
      "Ġsuperioare": 7878,
      "sera": 7879,
      "Ġconfr": 7880,
      "Ġalocare": 7881,
      "Ġautonoma": 7882,
      "Ġanimal": 7883,
      "Ġexplicat": 7884,
      "Ġacum": 7885,
      "Ġapropierea": 7886,
      "Ġneex": 7887,
      "Ġoameni": 7888,
      "Ġ883": 7889,
      "Ġmaro": 7890,
      "Ġcumparare": 7891,
      "jude": 7892,
      "Ġschemei": 7893,
      "Ġasigurata": 7894,
      "Ġlongi": 7895,
      "cului": 7896,
      "wan": 7897,
      "Ġnegarantate": 7898,
      "Ġtaric": 7899,
      "ndu": 7900,
      "Ġumi": 7901,
      "Ġbanda": 7902,
      "Ġpierderilor": 7903,
      "Ġturn": 7904,
      "Ġnecu": 7905,
      "Ġprobele": 7906,
      "Ġcons": 7907,
      "Ġairlines": 7908,
      "Ġintocmi": 7909,
      "Ġeficiente": 7910,
      "Ġcaile": 7911,
      "Ġoperatiunea": 7912,
      "toriu": 7913,
      "Ġcunoscute": 7914,
      "hn": 7915,
      "Ġwil": 7916,
      "Ġmax": 7917,
      "Ġilegal": 7918,
      "Ġceilalti": 7919,
      "Ġala": 7920,
      "Ġdiscre": 7921,
      "Ġinterzicerea": 7922,
      "tte": 7923,
      "Ġlucrarile": 7924,
      "Ġemb": 7925,
      "Ġcultiv": 7926,
      "Ġincarcare": 7927,
      "Ġderog": 7928,
      "Ġ297": 7929,
      "Ġoferit": 7930,
      "Ġ228": 7931,
      "Ġcontabil": 7932,
      "Ġconcuren": 7933,
      "Ġbeneficiar": 7934,
      "Ġtesut": 7935,
      "Ġwei": 7936,
      "Ġlimiteze": 7937,
      "Ġverbale": 7938,
      "Ġvalabile": 7939,
      "Ġati": 7940,
      "Ġsarcinile": 7941,
      "Ġlegumelor": 7942,
      "fie": 7943,
      "Ġgestiune": 7944,
      "Ġextinde": 7945,
      "Ġdocumentatia": 7946,
      "sam": 7947,
      "Ġanexe": 7948,
      "Ġclara": 7949,
      "Ġintal": 7950,
      "Ġ225": 7951,
      "Ġfurnizorul": 7952,
      "Ġcomportamentului": 7953,
      "Ġinferioara": 7954,
      "Ġinfluente": 7955,
      "Ġclauzele": 7956,
      "Ġcaprin": 7957,
      "Ġdoam": 7958,
      "Ġfacul": 7959,
      "Ġ278": 7960,
      "Ġanulat": 7961,
      "Ġrestituirea": 7962,
      "Ġmodului": 7963,
      "0020": 7964,
      "Ġ235": 7965,
      "Ġelveti": 7966,
      "catiilor": 7967,
      "tex": 7968,
      "Ġaprovizionare": 7969,
      "Ġvideo": 7970,
      "lizata": 7971,
      "Ġlichide": 7972,
      "Ġmarjei": 7973,
      "Ġparagraful": 7974,
      "Ġtransferate": 7975,
      "Ġip": 7976,
      "Ġmarfa": 7977,
      "Ġraporta": 7978,
      "Ġanuleaza": 7979,
      "bilizare": 7980,
      "Ġrambursari": 7981,
      "Ġrelu": 7982,
      "Ġclientii": 7983,
      "Ġang": 7984,
      "Ġparate": 7985,
      "licite": 7986,
      "Ġ2204": 7987,
      "tioase": 7988,
      "Ġutilizati": 7989,
      "Ġconcept": 7990,
      "Ġflexi": 7991,
      "Ġrevizuirea": 7992,
      "Ġnoastre": 7993,
      "Ġcauzalitate": 7994,
      "Ġofertan": 7995,
      "entale": 7996,
      "Ġadaptare": 7997,
      "Ġdovedeste": 7998,
      "Ġintegrate": 7999,
      "Ġster": 8000,
      "Ã¸": 8001,
      "Ġcasa": 8002,
      "Ġconturilor": 8003,
      "Ġapari": 8004,
      "Ġtv": 8005,
      "Ġdor": 8006,
      "Ġsimple": 8007,
      "Ġenergy": 8008,
      "Ġtranspunere": 8009,
      "Ġprodusa": 8010,
      "Ġadministratorul": 8011,
      "Ġdomenii": 8012,
      "Ġomc": 8013,
      "Ġintregul": 8014,
      "Ġautenti": 8015,
      "soci": 8016,
      "Ġintemeia": 8017,
      "Ġsubpozitia": 8018,
      "Ġ530": 8019,
      "Ġsectori": 8020,
      "Ġcompatibila": 8021,
      "Ġ1907": 8022,
      "2010": 8023,
      "Ġcetatenilor": 8024,
      "Ġconfidentiale": 8025,
      "Ġopozitia": 8026,
      "Ġnaturii": 8027,
      "Ġincen": 8028,
      "break": 8029,
      "Ġamintite": 8030,
      "Ġneconsolidat": 8031,
      "Ġlinie": 8032,
      "Ġintocmit": 8033,
      "Ġhand": 8034,
      "Ġdetaliata": 8035,
      "Ġamidon": 8036,
      "Ġimobiliare": 8037,
      "Ġparche": 8038,
      "Ġexpunerile": 8039,
      "ĠÂ§": 8040,
      "Ġobtinerii": 8041,
      "Ã¦": 8042,
      "Ġ1986": 8043,
      "Ġhidrocarburi": 8044,
      "bite": 8045,
      "Ġvata": 8046,
      "Ġraportarea": 8047,
      "randu": 8048,
      "Ġatributiile": 8049,
      "rol": 8050,
      "Ġarhi": 8051,
      "Ġ760": 8052,
      "pol": 8053,
      "Ġnutri": 8054,
      "Ġpage": 8055,
      "Ġ268": 8056,
      "ventiilor": 8057,
      "Ġ2201": 8058,
      "Ġcontractuala": 8059,
      "Ġ273": 8060,
      "Ġrepartizarea": 8061,
      "tila": 8062,
      "Ġsili": 8063,
      "rur": 8064,
      "Ġ9695": 8065,
      "ting": 8066,
      "Ġtimpului": 8067,
      "Ġexportul": 8068,
      "Ġsemnatura": 8069,
      "duri": 8070,
      "Ġ223": 8071,
      "Ġintocme": 8072,
      "Ġdevine": 8073,
      "Ġcomponentelor": 8074,
      "Ġscurta": 8075,
      "ĠÎ¼g": 8076,
      "Ġniciuna": 8077,
      "Ġcipru": 8078,
      "Ġorganizatie": 8079,
      "Ġsecretari": 8080,
      "Ġseparata": 8081,
      "Ġorient": 8082,
      "Ġaxa": 8083,
      "Ġ1006": 8084,
      "Ġsolva": 8085,
      "Ġstudiu": 8086,
      "Ġaditivului": 8087,
      "Ġtelefoni": 8088,
      "seasca": 8089,
      "Ġschimburile": 8090,
      "selea": 8091,
      "Ġinaltime": 8092,
      "geni": 8093,
      "vocat": 8094,
      "Ġrama": 8095,
      "Ġbancare": 8096,
      "Ġxvi": 8097,
      "luc": 8098,
      "Ġcreante": 8099,
      "Ġverde": 8100,
      "Ġgg": 8101,
      "Ġ280": 8102,
      "Ġexcesi": 8103,
      "Ġbeneficii": 8104,
      "Ġ266": 8105,
      "Ġsaselea": 8106,
      "Ġporta": 8107,
      "Ġconsiderentului": 8108,
      "ruci": 8109,
      "Ġdeseurile": 8110,
      "Ġimparti": 8111,
      "Ġrecurentele": 8112,
      "Ġefectuarii": 8113,
      "Ġspecificata": 8114,
      "Ġciti": 8115,
      "Ġveterinare": 8116,
      "Ġincalzire": 8117,
      "Ġsad": 8118,
      "Ġcarton": 8119,
      "Ġinfractiuni": 8120,
      "Ġconcluzioneze": 8121,
      "Î»Î±": 8122,
      "Ġderivat": 8123,
      "tana": 8124,
      "Ġbor": 8125,
      "Ġlatime": 8126,
      "Ġstan": 8127,
      "inea": 8128,
      "Ġdescuraj": 8129,
      "Ġzonei": 8130,
      "Ġreu": 8131,
      "ula": 8132,
      "Ġconving": 8133,
      "Ġbala": 8134,
      "Ġlistele": 8135,
      "ficati": 8136,
      "coza": 8137,
      "Ġcurente": 8138,
      "Ġacceptat": 8139,
      "Ġ249": 8140,
      "Ġ247": 8141,
      "Ġatesta": 8142,
      "Ġinsulele": 8143,
      "Ġnotele": 8144,
      "Ġ222": 8145,
      "Ġrug": 8146,
      "Ġfosf": 8147,
      "Ġputer": 8148,
      "Ġimobil": 8149,
      "Ġcomplexe": 8150,
      "Ġpasaport": 8151,
      "Ġenergetice": 8152,
      "dem": 8153,
      "sic": 8154,
      "Ġpracticilor": 8155,
      "Ġ429": 8156,
      "Ġ570": 8157,
      "Ġ325": 8158,
      "Ġconsiderent": 8159,
      "hen": 8160,
      "catoare": 8161,
      "Ġemiterea": 8162,
      "Ġfaina": 8163,
      "Ġcalciu": 8164,
      "Ġcalificate": 8165,
      "Ġnedetermin": 8166,
      "Ġnv": 8167,
      "Ġcreanta": 8168,
      "Ġcadrului": 8169,
      "rierea": 8170,
      "Ġoperatiunii": 8171,
      "hei": 8172,
      "ae": 8173,
      "Ġmeni": 8174,
      "Ġlitigiile": 8175,
      "wiecie": 8176,
      "Ġ288": 8177,
      "lt": 8178,
      "Ġmuschi": 8179,
      "dad": 8180,
      "Ġprealabile": 8181,
      "Ġlunga": 8182,
      "Ġsuede": 8183,
      "Ġirlandei": 8184,
      "Ġgospodarii": 8185,
      "Ġdensi": 8186,
      "Ġtransfrontaliere": 8187,
      "Ġcontingentelor": 8188,
      "Ġsie": 8189,
      "Ġthai": 8190,
      "Ġdefinitiei": 8191,
      "Ġent": 8192,
      "Ġjustificare": 8193,
      "Ġmascul": 8194,
      "Ġnoul": 8195,
      "Ġcapitaluri": 8196,
      "Ð³": 8197,
      "Ġcontributie": 8198,
      "dite": 8199,
      "Ġchemica": 8200,
      "Ġinterpretari": 8201,
      "Ġsediu": 8202,
      "Ġexercitiul": 8203,
      "Ġpension": 8204,
      "Ġ820": 8205,
      "Ġconstatarilor": 8206,
      "Ġcompatibile": 8207,
      "Ġbeneficiarului": 8208,
      "cee": 8209,
      "Ġdescris": 8210,
      "Ġexclusa": 8211,
      "menta": 8212,
      "Ġdescrisa": 8213,
      "Ġduratei": 8214,
      "Ġdominanta": 8215,
      "Ġraci": 8216,
      "cara": 8217,
      "Ġproprietatea": 8218,
      "Ġlibertatilor": 8219,
      "Ġcontingente": 8220,
      "Ġpowiecie": 8221,
      "Ġexporturilor": 8222,
      "Ġrezidenti": 8223,
      "Ġfrontiere": 8224,
      "Ġpersona": 8225,
      "Ġinteles": 8226,
      "chtshof": 8227,
      "Ġiu": 8228,
      "Ġstricte": 8229,
      "Ġsyste": 8230,
      "Ġesentiala": 8231,
      "Ġflori": 8232,
      "Ġdobandite": 8233,
      "Ġvest": 8234,
      "Ġsubc": 8235,
      "ones": 8236,
      "mier": 8237,
      "Ġ214": 8238,
      "fication": 8239,
      "Ġglobale": 8240,
      "her": 8241,
      "Ġrevizuire": 8242,
      "Ġcontinuu": 8243,
      "Ġup": 8244,
      "orarii": 8245,
      "Ġestonia": 8246,
      "Ġpasive": 8247,
      "Ġprecedente": 8248,
      "latura": 8249,
      "Ġcze": 8250,
      "Ġconversie": 8251,
      "ĠÐ¿": 8252,
      "Ġscara": 8253,
      "Ġcontinuarea": 8254,
      "aman": 8255,
      "Ġechitabil": 8256,
      "Ġdiagn": 8257,
      "Ġfinantarii": 8258,
      "Ġjudiciar": 8259,
      "cand": 8260,
      "Ġratele": 8261,
      "Ġdesfasurare": 8262,
      "Ġeficacitatea": 8263,
      "Ġhsc": 8264,
      "Ġacute": 8265,
      "Ġcaseta": 8266,
      "Ġmaterialului": 8267,
      "Ġcontributiei": 8268,
      "Ġrevizui": 8269,
      "Ġneer": 8270,
      "Ġresortisantii": 8271,
      "iner": 8272,
      "Ġ354": 8273,
      "Ġgermane": 8274,
      "fini": 8275,
      "Ġbur": 8276,
      "Ġconsoli": 8277,
      "Ġog": 8278,
      "Ġaflata": 8279,
      "Ġprestatiilor": 8280,
      "Ġdobanzilor": 8281,
      "Ġreduceri": 8282,
      "gru": 8283,
      "Ġdeschisa": 8284,
      "Ġsectoarele": 8285,
      "Ġlivrarea": 8286,
      "Ġsimplul": 8287,
      "Ġinlatura": 8288,
      "ntului": 8289,
      "Ġprestari": 8290,
      "Ġcontinute": 8291,
      "bc": 8292,
      "Ġ212": 8293,
      "Ġsuper": 8294,
      "Ġpermanente": 8295,
      "Ġazot": 8296,
      "Ġevalueaza": 8297,
      "dan": 8298,
      "ssa": 8299,
      "gal": 8300,
      "Ġmc": 8301,
      "Ġexercitiului": 8302,
      "Ġvice": 8303,
      "Ġ232": 8304,
      "Ġcopil": 8305,
      "Ġrezultatului": 8306,
      "Ġclaritate": 8307,
      "Ġstocurilor": 8308,
      "Ġstocare": 8309,
      "Ġtom": 8310,
      "gari": 8311,
      "Ġnegocierilor": 8312,
      "Õ¸": 8313,
      "siste": 8314,
      "Ġintracomuni": 8315,
      "Ġpredominant": 8316,
      "Ġgrosime": 8317,
      "Ġintelegeri": 8318,
      "vie": 8319,
      "Ġoperare": 8320,
      "Ġinsotite": 8321,
      "Ġ590": 8322,
      "Ġconcentratie": 8323,
      "Ġaca": 8324,
      "mia": 8325,
      "Ġ388": 8326,
      "Ġincore": 8327,
      "Ġ269": 8328,
      "Ġdelimi": 8329,
      "Ġaerului": 8330,
      "Ġorganele": 8331,
      "Ġurmat": 8332,
      "Ġafectat": 8333,
      "Ġcunoscut": 8334,
      "Ġinterzisa": 8335,
      "Ġderul": 8336,
      "cer": 8337,
      "Ġcarto": 8338,
      "Ġsavarsita": 8339,
      "Ġconsecinte": 8340,
      "Ġdatoriei": 8341,
      "Ġinexi": 8342,
      "Ġlos": 8343,
      "Ġmentiuni": 8344,
      "Ġcelorlalti": 8345,
      "onata": 8346,
      "Ġverificarii": 8347,
      "fenil": 8348,
      "Ġdestinatia": 8349,
      "Ġtrimis": 8350,
      "Ġnotificata": 8351,
      "Ġoli": 8352,
      "Ġzin": 8353,
      "Ġspecificat": 8354,
      "Ġprocenta": 8355,
      "Ġoferte": 8356,
      "Ġzo": 8357,
      "Ġsarcinilor": 8358,
      "Ġvariabila": 8359,
      "Ġcolabo": 8360,
      "Ġtabe": 8361,
      "Ġaerieni": 8362,
      "Ġeliminare": 8363,
      "Ġhal": 8364,
      "Ð°Ð½": 8365,
      "Ġtransmitere": 8366,
      "Ġinforma": 8367,
      "Ġpache": 8368,
      "Ġ750": 8369,
      "Ġautorizati": 8370,
      "Ġgama": 8371,
      "Ġprefer": 8372,
      "Ġumana": 8373,
      "Ġlistei": 8374,
      "Ġrestul": 8375,
      "Ġsua": 8376,
      "Ġabstra": 8377,
      "Ġdepozite": 8378,
      "Ġlimbi": 8379,
      "ĠâĺĲ": 8380,
      "Ġatomi": 8381,
      "Ġabili": 8382,
      "das": 8383,
      "Ġinscrise": 8384,
      "Ġceleilalte": 8385,
      "300": 8386,
      "Ġpermisa": 8387,
      "Ġlicentelor": 8388,
      "Ġconsacrat": 8389,
      "Ġmecanismul": 8390,
      "Ġintrebarii": 8391,
      "Ġalternativa": 8392,
      "vente": 8393,
      "1010": 8394,
      "Ġdenumirii": 8395,
      "Ġdatoriilor": 8396,
      "Ġcooperat": 8397,
      "Ġtensiune": 8398,
      "Ġlana": 8399,
      "Ġ251": 8400,
      "Ġconfidential": 8401,
      "Ġjustific": 8402,
      "yer": 8403,
      "Ġaran": 8404,
      "Ġesantionare": 8405,
      "Ġcaracteristicilor": 8406,
      "rarilor": 8407,
      "Ġfunctiilor": 8408,
      "Ġkv": 8409,
      "Ġteroris": 8410,
      "ineaza": 8411,
      "Ġperiodi": 8412,
      "Ġreciproc": 8413,
      "1000": 8414,
      "Ġconsultare": 8415,
      "Ġverificari": 8416,
      "Ġcontributiilor": 8417,
      "Ġpresiunea": 8418,
      "Ġcha": 8419,
      "ske": 8420,
      "Ġindependenti": 8421,
      "Ġcapturile": 8422,
      "mino": 8423,
      "Ġposibilitatii": 8424,
      "Ġjudecator": 8425,
      "Ġdocumentation": 8426,
      "Ġsm": 8427,
      "Ġformular": 8428,
      "Ġadmiterea": 8429,
      "Ġfinantari": 8430,
      "Ġcateva": 8431,
      "Ġinalt": 8432,
      "Ġreprezentantul": 8433,
      "bra": 8434,
      "Ġfp": 8435,
      "ÎµÎ½": 8436,
      "tene": 8437,
      "Ġji": 8438,
      "Ġ3200": 8439,
      "Ġacoperit": 8440,
      "inilor": 8441,
      "Ġ420": 8442,
      "oarele": 8443,
      "Ġku": 8444,
      "Ġpilot": 8445,
      "Ġbeneficiarii": 8446,
      "Ġmasur": 8447,
      "Ġofertelor": 8448,
      "Ġparteneriat": 8449,
      "Ġ1701": 8450,
      "sea": 8451,
      "Ġ233": 8452,
      "Ġnediscriminarii": 8453,
      "stii": 8454,
      "Ġindirecta": 8455,
      "Ġatributii": 8456,
      "Ġprelucrarii": 8457,
      "Ġ308": 8458,
      "ctorul": 8459,
      "Ġcotei": 8460,
      "Ġsaptea": 8461,
      "Ġbelgiei": 8462,
      "Ġ0808": 8463,
      "Ġreclamanti": 8464,
      "Ġdispozitivelor": 8465,
      "Ġvop": 8466,
      "Ġorganizari": 8467,
      "puta": 8468,
      "Ġ969500": 8469,
      "Ġvini": 8470,
      "Ġrapid": 8471,
      "Ġfrom": 8472,
      "Ġnormativ": 8473,
      "Ġfitosanitare": 8474,
      "Ġfisa": 8475,
      "Ġ00017": 8476,
      "Ġ0709": 8477,
      "lizat": 8478,
      "Ġasamb": 8479,
      "Ġferoviare": 8480,
      "Ġparametri": 8481,
      "Ġcompre": 8482,
      "Ġautonome": 8483,
      "Ġspecialitate": 8484,
      "untat": 8485,
      "vitate": 8486,
      "Ġ282": 8487,
      "Ġrezolutia": 8488,
      "Ġpreventi": 8489,
      "ev": 8490,
      "Ġcolectiva": 8491,
      "ell": 8492,
      "Ġclauzei": 8493,
      "Ġlungimea": 8494,
      "Ġ321": 8495,
      "Ġproportionala": 8496,
      "Ġiden": 8497,
      "Ġcolegi": 8498,
      "Ġnediscrimin": 8499,
      "Ġproduc": 8500,
      "Ġeconomie": 8501,
      "Ġexhausti": 8502,
      "Ġrusa": 8503,
      "Ġfavorabil": 8504,
      "Ġparalel": 8505,
      "Ġsolutia": 8506,
      "muri": 8507,
      "br": 8508,
      "Ġingriji": 8509,
      "Ġevitarea": 8510,
      "Ġmodificarii": 8511,
      "Ġmecanisme": 8512,
      "ats": 8513,
      "Ġcredinta": 8514,
      "Ġcampi": 8515,
      "amentului": 8516,
      "Ġaplicabilitatea": 8517,
      "Ġatributiilor": 8518,
      "fun": 8519,
      "Ġscaderea": 8520,
      "ced": 8521,
      "Ġidentic": 8522,
      "Ġconstatata": 8523,
      "Ġintalni": 8524,
      "Ġprofitul": 8525,
      "onte": 8526,
      "Ġfuraje": 8527,
      "Ġ245": 8528,
      "Ġmentina": 8529,
      "Ġinterventia": 8530,
      "Ġ271": 8531,
      "Ġsuspe": 8532,
      "Ġtestului": 8533,
      "Ġstandardizata": 8534,
      "Ġcompozitia": 8535,
      "atelor": 8536,
      "Ġrealizarii": 8537,
      "Ġparticipe": 8538,
      "Ġincerti": 8539,
      "Ġintarzie": 8540,
      "riu": 8541,
      "Ġsemnata": 8542,
      "Ġscaun": 8543,
      "Ġdistribuit": 8544,
      "Ġsimb": 8545,
      "Ġadreseaza": 8546,
      "ÃŁ": 8547,
      "Ġregase": 8548,
      "Ġrecep": 8549,
      "Ġoil": 8550,
      "Ġrezonabile": 8551,
      "Ġpercepute": 8552,
      "Ġprezente": 8553,
      "Ġmotivului": 8554,
      "Ġinterdictie": 8555,
      "Ġ257": 8556,
      "Ġduce": 8557,
      "Ġfete": 8558,
      "Ġajustari": 8559,
      "Ġconditionata": 8560,
      "ges": 8561,
      "Ġministru": 8562,
      "unghi": 8563,
      "Ġ1980": 8564,
      "Ġtehnici": 8565,
      "ret": 8566,
      "Ġincluzand": 8567,
      "mentar": 8568,
      "Ġimpozite": 8569,
      "Ġtransb": 8570,
      "Ġdisting": 8571,
      "Ġextindere": 8572,
      "uf": 8573,
      "Ġfisi": 8574,
      "ostic": 8575,
      "Ġafiliate": 8576,
      "Ġsunte": 8577,
      "Ġ680": 8578,
      "Ġresturi": 8579,
      "Ġcantitatilor": 8580,
      "Ġauten": 8581,
      "Ġem": 8582,
      "Ġslovenia": 8583,
      "Ġmoder": 8584,
      "Ġsosi": 8585,
      "Ġpastrarea": 8586,
      "Ġreglementarile": 8587,
      "Ġrosu": 8588,
      "uro": 8589,
      "loarea": 8590,
      "Ġnumere": 8591,
      "Ġlipsit": 8592,
      "Ġnorm": 8593,
      "Ġlipsei": 8594,
      "Ġconsultativ": 8595,
      "Ġactuale": 8596,
      "Ġvama": 8597,
      "Ġverificate": 8598,
      "Ġsloven": 8599,
      "Ġconsolidarea": 8600,
      "Ġservice": 8601,
      "Ġdiferitelor": 8602,
      "Ġasp": 8603,
      "ameste": 8604,
      "sten": 8605,
      "Ġpasare": 8606,
      "Ġagentilor": 8607,
      "utori": 8608,
      "Ġordinii": 8609,
      "sului": 8610,
      "leze": 8611,
      "Ġ303": 8612,
      "Ġbarbati": 8613,
      "Ġdispozitivului": 8614,
      "Ġtuni": 8615,
      "Ġprimeasca": 8616,
      "Ġfamiliale": 8617,
      "Ġlegislativa": 8618,
      "Ġ1702": 8619,
      "sponi": 8620,
      "Ġcontributiile": 8621,
      "Ġpotasiu": 8622,
      "Ġformatul": 8623,
      "Ġprotejat": 8624,
      "Ġcombina": 8625,
      "via": 8626,
      "Ġlingvistice": 8627,
      "inelor": 8628,
      "Ġ0040": 8629,
      "Ġspate": 8630,
      "Ġincredere": 8631,
      "Ġprzez": 8632,
      "Ġ265": 8633,
      "Ġauxiliare": 8634,
      "Ġuniforma": 8635,
      "Ġconsiderente": 8636,
      "Ġfila": 8637,
      "Ġetichetarea": 8638,
      "Ġsim": 8639,
      "Ġsilici": 8640,
      "sure": 8641,
      "Ġregiune": 8642,
      "Ġhc": 8643,
      "Ġproprietar": 8644,
      "Ġaudio": 8645,
      "Ġamena": 8646,
      "skim": 8647,
      "Ġfixare": 8648,
      "Ġaeronava": 8649,
      "Ġdeutsch": 8650,
      "Ġfixarea": 8651,
      "Ġdina": 8652,
      "gia": 8653,
      "Ġ224": 8654,
      "Ġacv": 8655,
      "poli": 8656,
      "Ġtransportate": 8657,
      "Ġtitular": 8658,
      "Ġomis": 8659,
      "Ġ2933": 8660,
      "Ġbeneficiarilor": 8661,
      "Ġcroatia": 8662,
      "Ġtera": 8663,
      "Ġcust": 8664,
      "Ġnefi": 8665,
      "uale": 8666,
      "Ġcetatenii": 8667,
      "Ġdobanda": 8668,
      "ssen": 8669,
      "Ġsanctiunile": 8670,
      "Ġdescrip": 8671,
      "Ġinlocuirea": 8672,
      "Ġadus": 8673,
      "Ġoriginar": 8674,
      "Ġhotaraste": 8675,
      "Ġadmise": 8676,
      "Ġvaca": 8677,
      "Ġvene": 8678,
      "Ġplanurile": 8679,
      "Ġamintita": 8680,
      "Ġaccele": 8681,
      "Ġmeci": 8682,
      "Ġnegru": 8683,
      "Ġaels": 8684,
      "Ġsuspenda": 8685,
      "bl": 8686,
      "hus": 8687,
      "taje": 8688,
      "Ġdispus": 8689,
      "Ġalternativ": 8690,
      "Ġvoi": 8691,
      "Ġpozitiv": 8692,
      "Ġ1985": 8693,
      "Ġtemeinicia": 8694,
      "Ġbase": 8695,
      "Ġparticule": 8696,
      "Ġmagistrat": 8697,
      "Ġbrazilia": 8698,
      "ĠÐ³": 8699,
      "Ġintegranta": 8700,
      "Ġdobanzile": 8701,
      "Ġtelecomunicatii": 8702,
      "Ġserioase": 8703,
      "Ġpsi": 8704,
      "Ġneloi": 8705,
      "Ġconditiei": 8706,
      "Ġmotivata": 8707,
      "Ġaeriana": 8708,
      "Ġecologice": 8709,
      "cent": 8710,
      "wn": 8711,
      "ring": 8712,
      "Ġnedeterminata": 8713,
      "Ġprocuro": 8714,
      "Ġantrepozi": 8715,
      "Ġnumeroase": 8716,
      "Ġ338": 8717,
      "Ġcolectiv": 8718,
      "Ġsesizat": 8719,
      "Ġremune": 8720,
      "Ġcontinui": 8721,
      "Ġdili": 8722,
      "Ġccr": 8723,
      "Ġsenz": 8724,
      "Ġ301": 8725,
      "atoarele": 8726,
      "Ġetal": 8727,
      "Ġintroduca": 8728,
      "Ġsemnal": 8729,
      "Ġaprindere": 8730,
      "oniei": 8731,
      "Ġimpiedice": 8732,
      "Ġimediata": 8733,
      "siei": 8734,
      "Ġintrebarilor": 8735,
      "landeze": 8736,
      "Ġtransforma": 8737,
      "Ġdenumiri": 8738,
      "Ġfederal": 8739,
      "Ġ244": 8740,
      "Ġaqu": 8741,
      "Ġcreantelor": 8742,
      "Ġimprumuturi": 8743,
      "Ġtransformare": 8744,
      "Ġ650": 8745,
      "Ġasocie": 8746,
      "Ġvarza": 8747,
      "Ġrealizeze": 8748,
      "Ġadusa": 8749,
      "Ġcontrolate": 8750,
      "Ġsecretar": 8751,
      "Ġamonte": 8752,
      "Ġpoarta": 8753,
      "Ġachizitiile": 8754,
      "Ġcailor": 8755,
      "Ġmedicamentelor": 8756,
      "Ġdosare": 8757,
      "Ġinmatriculare": 8758,
      "Ġid": 8759,
      "Ġromana": 8760,
      "Ġ277": 8761,
      "Ġfurnizare": 8762,
      "Ġbas": 8763,
      "Ġacva": 8764,
      "vita": 8765,
      "Ġmasurata": 8766,
      "Ġschimbare": 8767,
      "Ġintegrat": 8768,
      "Ġcurat": 8769,
      "Ġevaluat": 8770,
      "Ġrecent": 8771,
      "Ġprovizi": 8772,
      "Ġconstituita": 8773,
      "Ġcantitative": 8774,
      "nu": 8775,
      "Ġexploata": 8776,
      "inele": 8777,
      "Ġnotiune": 8778,
      "Ġprejudicia": 8779,
      "Ġfosta": 8780,
      "Ġmandatului": 8781,
      "pina": 8782,
      "Ġproblemele": 8783,
      "ocu": 8784,
      "dului": 8785,
      "Ġpn": 8786,
      "Ġproducts": 8787,
      "Ġconser": 8788,
      "Ġutilizator": 8789,
      "Ġastep": 8790,
      "Ġ468": 8791,
      "ines": 8792,
      "Ġintermediar": 8793,
      "Ġplanuri": 8794,
      "cura": 8795,
      "Ġreproseaza": 8796,
      "Ġnm": 8797,
      "Ġgy": 8798,
      "Ġdepunere": 8799,
      "Ġ219": 8800,
      "Ġinsuficienta": 8801,
      "Ġpierderii": 8802,
      "Ġraz": 8803,
      "Ġsalbatica": 8804,
      "Ġpropriilor": 8805,
      "Ġvanz": 8806,
      "onil": 8807,
      "Ġjudecatorilor": 8808,
      "entilor": 8809,
[...]
