{
  "version": "1.0",
  "truncation": null,
  "padding": null,
  "added_tokens": [
    {
      "id": 0,
      "content": "<pad>",
      "single_word": false,
      "lstrip": false,
      "rstrip": false,
      "normalized": false,
      "special": true
    },
    {
      "id": 1,
      "content": "<s>",
      "single_word": false,
      "lstrip": false,
      "rstrip": false,
      "normalized": false,
      "special": true
    },
    {
      "id": 2,
      "content": "</s>",
      "single_word": false,
      "lstrip": false,
      "rstrip": false,
      "normalized": false,
      "special": true
    },
    {
      "id": 3,
      "content": "<unk>",
      "single_word": false,
      "lstrip": false,
      "rstrip": false,
      "normalized": false,
      "special": true
    },
    {
      "id": 4,
      "content": "<mask>",
      "single_word": false,
      "lstrip": false,
      "rstrip": false,
      "normalized": false,
      "special": true
    }
  ],
  "normalizer": {
    "type": "Sequence",
    "normalizers": [
      {
        "type": "NFKD"
      },
      {
        "type": "BertNormalizer",
        "clean_text": true,
        "handle_chinese_chars": true,
        "strip_accents": null,
        "lowercase": true
      }
    ]
  },
  "pre_tokenizer": {
    "type": "Sequence",
    "pretokenizers": [
      {
        "type": "BertPreTokenizer"
      },
      {
        "type": "ByteLevel",
        "add_prefix_space": true,
        "trim_offsets": true,
        "use_regex": true
      }
    ]
  },
  "post_processor": {
    "type": "RobertaProcessing",
    "sep": [
      "</s>",
      2
    ],
    "cls": [
      "<s>",
      1
    ],
    "trim_offsets": true,
    "add_prefix_space": true
  },
  "decoder": {
    "type": "ByteLevel",
    "add_prefix_space": true,
    "trim_offsets": true,
    "use_regex": true
  },
  "model": {
    "type": "BPE",
    "dropout": null,
    "unk_token": "<unk>",
    "continuing_subword_prefix": null,
    "end_of_word_suffix": null,
    "fuse_unk": false,
    "vocab": {
      "<pad>": 0,
      "<s>": 1,
      "</s>": 2,
      "<unk>": 3,
      "<mask>": 4,
      "!": 5,
      "\"": 6,
      "#": 7,
      "$": 8,
      "%": 9,
      "&": 10,
      "'": 11,
      "(": 12,
      ")": 13,
      "*": 14,
      "+": 15,
      ",": 16,
      "-": 17,
      ".": 18,
      "/": 19,
      "0": 20,
      "1": 21,
      "2": 22,
      "3": 23,
      "4": 24,
      "5": 25,
      "6": 26,
      "7": 27,
      "8": 28,
      "9": 29,
      ":": 30,
      ";": 31,
      "<": 32,
      "=": 33,
      ">": 34,
      "?": 35,
      "@": 36,
      "[": 37,
      "\\": 38,
      "]": 39,
      "^": 40,
      "_": 41,
      "`": 42,
      "a": 43,
      "b": 44,
      "c": 45,
      "d": 46,
      "e": 47,
      "f": 48,
      "g": 49,
      "h": 50,
      "i": 51,
      "j": 52,
      "k": 53,
      "l": 54,
      "m": 55,
      "n": 56,
      "o": 57,
      "p": 58,
      "q": 59,
      "r": 60,
      "s": 61,
      "t": 62,
      "u": 63,
      "v": 64,
      "w": 65,
      "x": 66,
      "y": 67,
      "z": 68,
      "{": 69,
      "|": 70,
      "}": 71,
      "~": 72,
      "¡": 73,
      "¢": 74,
      "£": 75,
      "¤": 76,
      "¥": 77,
      "¦": 78,
      "§": 79,
      "¨": 80,
      "©": 81,
      "ª": 82,
      "«": 83,
      "¬": 84,
      "®": 85,
      "¯": 86,
      "°": 87,
      "±": 88,
      "²": 89,
      "³": 90,
      "´": 91,
      "µ": 92,
      "¶": 93,
      "·": 94,
      "¸": 95,
      "¹": 96,
      "º": 97,
      "»": 98,
      "¼": 99,
      "½": 100,
      "¾": 101,
      "¿": 102,
      "Â": 103,
      "Ã": 104,
      "Ä": 105,
      "Å": 106,
      "Æ": 107,
      "Ç": 108,
      "È": 109,
      "É": 110,
      "Ê": 111,
      "Ë": 112,
      "Î": 113,
      "Ï": 114,
      "Ð": 115,
      "Ñ": 116,
      "Ò": 117,
      "Ó": 118,
      "Õ": 119,
      "Ö": 120,
      "×": 121,
      "Ø": 122,
      "Ù": 123,
      "Ú": 124,
      "Û": 125,
      "ß": 126,
      "à": 127,
      "á": 128,
      "â": 129,
      "ã": 130,
      "ä": 131,
      "å": 132,
      "æ": 133,
      "ç": 134,
      "è": 135,
      "é": 136,
      "ð": 137,
      "Ġ": 138,
      "Ģ": 139,
      "ģ": 140,
      "Ĥ": 141,
      "ĥ": 142,
      "Ħ": 143,
      "ħ": 144,
      "Ĩ": 145,
      "ĩ": 146,
      "Ī": 147,
      "ī": 148,
      "Ĭ": 149,
      "ĭ": 150,
      "Į": 151,
      "į": 152,
      "İ": 153,
      "ı": 154,
      "Ĳ": 155,
      "ĳ": 156,
      "Ĵ": 157,
      "ĵ": 158,
      "Ķ": 159,
      "ķ": 160,
      "ĸ": 161,
      "Ĺ": 162,
      "ĺ": 163,
      "Ļ": 164,
      "ļ": 165,
      "Ľ": 166,
      "ľ": 167,
      "Ŀ": 168,
      "ŀ": 169,
      "Ł": 170,
      "ł": 171,
      "Ń": 172,
      "ni": 173,
      "Ġp": 174,
      "ow": 175,
      "Ġw": 176,
      "ze": 177,
      "nie": 178,
      "Ġd": 179,
      "st": 180,
      "ie": 181,
      "Ġz": 182,
      "Ġ,": 183,
      "Ġ.": 184,
      "yc": 185,
      "na": 186,
      "ÅĤ": 187,
      "Ġo": 188,
      "Ġs": 189,
      "zy": 190,
      "Ġpr": 191,
      "ac": 192,
      "ne": 193,
      "Ġk": 194,
      "Ġdo": 195,
      "Ġr": 196,
      "nia": 197,
      "Ġi": 198,
      "or": 199,
      "Ġt": 200,
      "od": 201,
      "Ġnie": 202,
      "ar": 203,
      "ad": 204,
      "Ġu": 205,
      "Ġc": 206,
      "Ġ1": 207,
      "je": 208,
      "Ġ2": 209,
      "Ġm": 210,
      "ych": 211,
      "os": 212,
      "oz": 213,
      "go": 214,
      "an": 215,
      "ra": 216,
      "Ġprze": 217,
      "li": 218,
      "Ġna": 219,
      "ia": 220,
      "Ġza": 221,
      "on": 222,
      "Ġ)": 223,
      "Ġâ": 224,
      "tyc": 225,
      "ĠâĢ": 226,
      "re": 227,
      "mi": 228,
      "Ġdotyc": 229,
      "Ġe": 230,
      "Ġwy": 231,
      "za": 232,
      "le": 233,
      "owa": 234,
      "Ġb": 235,
      "ja": 236,
      "Ġ(": 237,
      "Ġdotyczy": 238,
      "Ġa": 239,
      "sta": 240,
      "wa": 241,
      "ci": 242,
      "Ġpo": 243,
      "00": 244,
      "cz": 245,
      "te": 246,
      "ob": 247,
      "ku": 248,
      "ty": 249,
      "en": 250,
      "Ġ/": 251,
      "ko": 252,
      "ch": 253,
      "sp": 254,
      "tor": 255,
      "Ġsp": 256,
      "ka": 257,
      "Ġ_": 258,
      "owe": 259,
      "ji": 260,
      "Ġ3": 261,
      "Ġl": 262,
      "cze": 263,
      "jac": 264,
      "ro": 265,
      "Ġod": 266,
      "ym": 267,
      "Ġje": 268,
      "ki": 269,
      "wie": 270,
      "Ġ-": 271,
      "Ġst": 272,
      "ÅĤa": 273,
      "Ġin": 274,
      "Ġroz": 275,
      "Ġ0": 276,
      "Ġktor": 277,
      "Ġpod": 278,
      "tu": 279,
      "osci": 280,
      "Ġg": 281,
      "ĠâĢĵ": 282,
      "ub": 283,
      "Ġte": 284,
      "ln": 285,
      "kow": 286,
      "ta": 287,
      "Ġar": 288,
      "js": 289,
      "Ġ5": 290,
      "Ġze": 291,
      "kie": 292,
      "la": 293,
      "nego": 294,
      "Ġ:": 295,
      "wy": 296,
      "dy": 297,
      "rze": 298,
      "dz": 299,
      "Ġ4": 300,
      "ec": 301,
      "sie": 302,
      "Ġprzed": 303,
      "Ġf": 304,
      "Ġprzy": 305,
      "ste": 306,
      "niu": 307,
      "zad": 308,
      "wo": 309,
      "zac": 310,
      "Ġ20": 311,
      "ru": 312,
      "Ġko": 313,
      "nej": 314,
      "ozyc": 315,
      "Ġn": 316,
      "Ġsie": 317,
      "Ġlub": 318,
      "zenia": 319,
      "wi": 320,
      "Ġ200": 321,
      "Ġob": 322,
      "ry": 323,
      "at": 324,
      "Ġek": 325,
      "Ġ9": 326,
      "nych": 327,
      "Ġart": 328,
      "kt": 329,
      "kre": 330,
      "Ġ|": 331,
      "sz": 332,
      "Ġeksp": 333,
      "Ġni": 334,
      "mie": 335,
      "Ġrozp": 336,
      "ach": 337,
      "Ġ6": 338,
      "Ġeu": 339,
      "ozycje": 340,
      "in": 341,
      "Ġkon": 342,
      "raz": 343,
      "orzad": 344,
      "owia": 345,
      "ÅĤu": 346,
      "Ġekspozycje": 347,
      "Ġ7": 348,
      "oc": 349,
      "Ġ8": 350,
      "step": 351,
      "pe": 352,
      "one": 353,
      "ga": 354,
      "Ġprzez": 355,
      "Ġma": 356,
      "is": 357,
      "Ġkre": 358,
      "Ġpoz": 359,
      "Ġre": 360,
      "Ġkredy": 361,
      "aw": 362,
      "Ġrozporzad": 363,
      "Ġry": 364,
      "om": 365,
      "Ġbe": 366,
      "Ġoraz": 367,
      "jace": 368,
      "Ġwe": 369,
      "Ġ201": 370,
      "owania": 371,
      "kona": 372,
      "Ġkredyt": 373,
      "zenie": 374,
      "niejs": 375,
      "bi": 376,
      "Ġdz": 377,
      "Ġja": 378,
      "Ġzob": 379,
      "ny": 380,
      "da": 381,
      "Ġta": 382,
      "Ġspra": 383,
      "zania": 384,
      "mis": 385,
      "Ġust": 386,
      "Ġktorych": 387,
      "ony": 388,
      "ÅĤy": 389,
      "er": 390,
      "ÅĤac": 391,
      "Ġpow": 392,
      "Ġkomis": 393,
      "bior": 394,
      "mu": 395,
      "kres": 396,
      "Ġjest": 397,
      "Ġh": 398,
      "Ġpan": 399,
      "ada": 400,
      "stw": 401,
      "Ġce": 402,
      "tow": 403,
      "Ġmo": 404,
      "god": 405,
      "kty": 406,
      "Ġ;": 407,
      "osc": 408,
      "cie": 409,
      "Ġsk": 410,
      "un": 411,
      "Ġdnia": 412,
      "lu": 413,
      "Ġ00": 414,
      "Ġzobowia": 415,
      "Ġli": 416,
      "Ġsa": 417,
      "rod": 418,
      "Ġprzedsie": 419,
      "zna": 420,
      "owanie": 421,
      "acji": 422,
      "nosci": 423,
      "we": 424,
      "rb": 425,
      "Ġ10": 426,
      "osta": 427,
      "Ġprzedsiebior": 428,
      "odu": 429,
      "Ġnr": 430,
      "wia": 431,
      "czenia": 432,
      "Ġcz": 433,
      "stwa": 434,
      "cza": 435,
      "cji": 436,
      "men": 437,
      "owie": 438,
      "ce": 439,
      "gi": 440,
      "fi": 441,
      "du": 442,
      "zym": 443,
      "Ġsz": 444,
      "Ġryzy": 445,
      "Ġme": 446,
      "Ġwsp": 447,
      "ĠâĢĿ": 448,
      "Ġde": 449,
      "ĠâĢŀ": 450,
      "Ġ19": 451,
      "Ġal": 452,
      "Ġbez": 453,
      "ier": 454,
      "owego": 455,
      "Ġktore": 456,
      "Ġop": 457,
      "Ġzgod": 458,
      "owych": 459,
      "Ġdy": 460,
      "Ġzobowiazania": 461,
      "anych": 462,
      "Ġch": 463,
      "Ġkredytowe": 464,
      "ca": 465,
      "any": 466,
      "konanie": 467,
      "Ġmie": 468,
      "Ġniewy": 469,
      "Ġokres": 470,
      "ter": 471,
      "Ġryzyko": 472,
      "zu": 473,
      "ek": 474,
      "ÅĤo": 475,
      "ĠczÅĤ": 476,
      "no": 477,
      "owy": 478,
      "Ġws": 479,
      "Ġprodu": 480,
      "Ġniewykonanie": 481,
      "ĠâĢĶ": 482,
      "nika": 483,
      "lo": 484,
      "Ġnale": 485,
      "Ġpkt": 486,
      "Ġzas": 487,
      "ĠczÅĤon": 488,
      "by": 489,
      "ma": 490,
      "ot": 491,
      "em": 492,
      "ÅĤacz": 493,
      "Ġrozporzadzenia": 494,
      "owi": 495,
      "Ġprzep": 496,
      "licz": 497,
      "ÅĤad": 498,
      "ĠczÅĤonkow": 499,
      "yz": 500,
      "gu": 501,
      "wier": 502,
      "Ġusta": 503,
      "ycz": 504,
      "Ġpodsta": 505,
      "Ġjed": 506,
      "czego": 507,
      "nic": 508,
      "Ġpra": 509,
      "Ġsprawie": 510,
      "Ġtym": 511,
      "Ġdla": 512,
      "Ġwar": 513,
      "sci": 514,
      "kich": 515,
      "Ġwspo": 516,
      "Ġstos": 517,
      "Ġeuro": 518,
      "ĠczÅĤonkows": 519,
      "Ġprzyp": 520,
      "tr": 521,
      "Ġ12": 522,
      "Ġkont": 523,
      "Ġdyre": 524,
      "ona": 525,
      "Ġniz": 526,
      "yj": 527,
      "Ġsad": 528,
      "pie": 529,
      "sze": 530,
      "Ġka": 531,
      "Ġprzedsiebiorstw": 532,
      "dzie": 533,
      "gle": 534,
      "ej": 535,
      "Ġos": 536,
      "obec": 537,
      "onych": 538,
      "row": 539,
      "Ġ11": 540,
      "Ġall": 541,
      "Ġwobec": 542,
      "Ġnalezy": 543,
      "nym": 544,
      "Ġzgodnie": 545,
      "Ġfi": 546,
      "Ġdyrekty": 547,
      "zgle": 548,
      "Ġeurope": 549,
      "Ġodp": 550,
      "Ġdec": 551,
      "Ġniniejs": 552,
      "Ġ%": 553,
      "be": 554,
      "Ġdotyczac": 555,
      "nii": 556,
      "Ġter": 557,
      "Ġeuropejs": 558,
      "ytu": 559,
      "Ġmet": 560,
      "Ġto": 561,
      "cia": 562,
      "Ġda": 563,
      "war": 564,
      "Ġcze": 565,
      "Ġsrod": 566,
      "owej": 567,
      "lnosci": 568,
      "Ġzosta": 569,
      "Ġdecyz": 570,
      "Ġtermi": 571,
      "dzi": 572,
      "Ġor": 573,
      "gra": 574,
      "Ġmsp": 575,
      "Ġmetod": 576,
      "Ġeur": 577,
      "sy": 578,
      "for": 579,
      "ak": 580,
      "ans": 581,
      "ÅĤow": 582,
      "Ġ[": 583,
      "Ġ]": 584,
      "Ġinne": 585,
      "Ġpostep": 586,
      "ing": 587,
      "Ġskar": 588,
      "rac": 589,
      "Ġpraw": 590,
      "Ġra": 591,
      "dzia": 592,
      "Ġzna": 593,
      "kiego": 594,
      "10": 595,
      "ady": 596,
      "nicz": 597,
      "Ġstan": 598,
      "Ġprzypad": 599,
      "Ġtego": 600,
      "Ġczy": 601,
      "nios": 602,
      "ÅĤe": 603,
      "owane": 604,
      "Ġdzia": 605,
      "Ġco": 606,
      "Ġsta": 607,
      "Ġ50": 608,
      "Ġzar": 609,
      "Ġkomisja": 610,
      "Ġv": 611,
      "jacych": 612,
      "op": 613,
      "Ġwyro": 614,
      "Ġprzepis": 615,
      "Ġjak": 616,
      "bu": 617,
      "zyst": 618,
      "nik": 619,
      "Ġ13": 620,
      "Ġtr": 621,
      "Ġwnios": 622,
      "Ġdosta": 623,
      "Ġmetoda": 624,
      "su": 625,
      "Ġwyk": 626,
      "kiej": 627,
      "Ġszczego": 628,
      "Ġkra": 629,
      "woz": 630,
      "ĠwÅĤa": 631,
      "tyku": 632,
      "Ġrozporzadzenie": 633,
      "osz": 634,
      "Ġspec": 635,
      "lne": 636,
      "Ġ15": 637,
      "enta": 638,
      "Ġpanstwa": 639,
      "Ġstr": 640,
      "chod": 641,
      "si": 642,
      "Ġzwia": 643,
      "ĠâĢĲ": 644,
      "owana": 645,
      "Ġartyku": 646,
      "to": 647,
      "Ġkomisji": 648,
      "Ġwie": 649,
      "form": 650,
      "sÅĤu": 651,
      "niesie": 652,
      "Ġniniejsze": 653,
      "Ġwp": 654,
      "czy": 655,
      "Ġby": 656,
      "Ġum": 657,
      "Ġirb": 658,
      "Ġunii": 659,
      "zi": 660,
      "Ġpa": 661,
      "dni": 662,
      "Ġkraj": 663,
      "liczenia": 664,
      "Ġodpowie": 665,
      "Ġmln": 666,
      "jacy": 667,
      "ii": 668,
      "nem": 669,
      "rowad": 670,
      "nienia": 671,
      "ns": 672,
      "stycz": 673,
      "Ġ14": 674,
      "niem": 675,
      "Ġpier": 676,
      "Ġspecja": 677,
      "Ġkontra": 678,
      "Ġdyrektywy": 679,
      "stos": 680,
      "Ġprzypadku": 681,
      "Ġwspoln": 682,
      "Ġdostawy": 683,
      "Ġcelu": 684,
      "Ġpozniejs": 685,
      "and": 686,
      "mo": 687,
      "ĠzaÅĤacz": 688,
      "Ġinform": 689,
      "owar": 690,
      "nos": 691,
      "Ġkontrah": 692,
      "um": 693,
      "ĠdziaÅĤa": 694,
      "Ġinst": 695,
      "Ġpozniejszym": 696,
      "Ġterminem": 697,
      "Ġrozliczenia": 698,
      "Ġkontrahenta": 699,
      "Ġmoze": 700,
      "Ġ16": 701,
      "ktu": 702,
      "Ġosob": 703,
      "dzy": 704,
      "Ġrat": 705,
      "Ġ17": 706,
      "stepu": 707,
      "Ġtry": 708,
      "Ġspo": 709,
      "Ġsy": 710,
      "Ġodniesie": 711,
      "Ġro": 712,
      "Ġrow": 713,
      "lnych": 714,
      "pi": 715,
      "kresie": 716,
      "zie": 717,
      "20": 718,
      "Ġ=": 719,
      "fik": 720,
      "Ġprac": 721,
      "Ġca": 722,
      "ĠartykuÅĤ": 723,
      "Ġtowar": 724,
      "Ġrating": 725,
      "Ġmoz": 726,
      "Ġpierw": 727,
      "nans": 728,
      "cja": 729,
      "tem": 730,
      "kim": 731,
      "wiad": 732,
      "Ġbyc": 733,
      "Ġuzy": 734,
      "Ġ25": 735,
      "Ġspecjali": 736,
      "Ġuw": 737,
      "ks": 738,
      "Ġpozosta": 739,
      "Ġ30": 740,
      "zgled": 741,
      "stwo": 742,
      "Ġspecjalistycz": 743,
      "Ġ199": 744,
      "Ġzastos": 745,
      "Ġskarzac": 746,
      "tycz": 747,
      "Ġprawa": 748,
      "Ġdecyzji": 749,
      "Ġj": 750,
      "eÅĤ": 751,
      "kiem": 752,
      "Ġup": 753,
      "Ġram": 754,
      "Ġdzie": 755,
      "Ġ18": 756,
      "Ġspos": 757,
      "Ġai": 758,
      "Ġpor": 759,
      "oce": 760,
      "cy": 761,
      "pu": 762,
      "Ġprzedsta": 763,
      "cje": 764,
      "Ġich": 765,
      "Ġpar": 766,
      "jacego": 767,
      "Ġodniesieniu": 768,
      "Ġ<": 769,
      "Ġgru": 770,
      "ge": 771,
      "Ġtak": 772,
      "Ġrady": 773,
      "Ġ29": 774,
      "Ġpro": 775,
      "Ġrze": 776,
      "Ġsposob": 777,
      "Ġiz": 778,
      "Ġokresl": 779,
      "buna": 780,
      "lnego": 781,
      "cen": 782,
      "Ġist": 783,
      "Ġmi": 784,
      "Ġ21": 785,
      "Ġorze": 786,
      "acje": 787,
      "Ġlit": 788,
      "Ġstwier": 789,
      "Ġdru": 790,
      "ĠusÅĤu": 791,
      "waz": 792,
      "Ġle": 793,
      "Ġpodstaw": 794,
      "Ġjego": 795,
      "Ġuzna": 796,
      "Ġpos": 797,
      "de": 798,
      "str": 799,
      "Ġwszyst": 800,
      "ĠwÅĤasci": 801,
      "Ġgdy": 802,
      "Ġtrybuna": 803,
      "Ġty": 804,
      "Ġwyda": 805,
      "zas": 806,
      "Ġsyste": 807,
      "Ġjako": 808,
      "nosc": 809,
      "me": 810,
      "czone": 811,
      "bez": 812,
      "Ġpodstawie": 813,
      "ti": 814,
      "ba": 815,
      "kÅĤad": 816,
      "ud": 817,
      "Ġwarun": 818,
      "bezpie": 819,
      "Ġprzedmi": 820,
      "wania": 821,
      "stan": 822,
      "Ġobowia": 823,
      "Ġkredytowanie": 824,
      "ono": 825,
      "Ġsprze": 826,
      "Ġuwa": 827,
      "Ġwska": 828,
      "ocy": 829,
      "awans": 830,
      "Ġzaawans": 831,
      "us": 832,
      "czen": 833,
      "Ġpom": 834,
      "Ġairb": 835,
      "Ġzaawansowana": 836,
      "Ġad": 837,
      "Ġproce": 838,
      "Ġtych": 839,
      "zo": 840,
      "owym": 841,
      "Ġorg": 842,
      "ment": 843,
      "czenie": 844,
      "niej": 845,
      "Ġwart": 846,
      "Ġten": 847,
      "Ġnaru": 848,
      "Ġpodat": 849,
      "Ġ31": 850,
      "sc": 851,
      "Ġpostepowania": 852,
      "Ġmiedzy": 853,
      "Ġ22": 854,
      "Ġzwiaz": 855,
      "ktow": 856,
      "nikow": 857,
      "Ġ90": 858,
      "Ġ28": 859,
      "Ġzakresie": 860,
      "Ġ26": 861,
      "Ġprzewi": 862,
      "Ġtej": 863,
      "Ġpanstw": 864,
      "al": 865,
      "niez": 866,
      "owaniu": 867,
      "Ġ23": 868,
      "Ġx": 869,
      "Ġwynika": 870,
      "umie": 871,
      "czne": 872,
      "Ġoch": 873,
      "Ġue": 874,
      "lenia": 875,
      "Ġdotyczace": 876,
      "kar": 877,
      "prze": 878,
      "Ġstanowi": 879,
      "Ġtrze": 880,
      "ubli": 881,
      "gie": 882,
      "Ġct": 883,
      "ciw": 884,
      "Ġ24": 885,
      "zeli": 886,
      "szy": 887,
      "Ġkosz": 888,
      "Ġfinans": 889,
      "Ġtra": 890,
      "bie": 891,
      "Ġramach": 892,
      "west": 893,
      "ĠÂ": 894,
      "Ġnastepu": 895,
      "liw": 896,
      "Ġjezeli": 897,
      "il": 898,
      "Ġryn": 899,
      "kod": 900,
      "Ġkaz": 901,
      "my": 902,
      "Ġwykona": 903,
      "Ġjedno": 904,
      "liczne": 905,
      "sa": 906,
      "Ġele": 907,
      "Ġuwzgled": 908,
      "teria": 909,
      "Ġ27": 910,
      "Ġkor": 911,
      "Ġwyrok": 912,
      "Ġdeta": 913,
      "niku": 914,
      "zane": 915,
      "ĠczÅĤonkowskie": 916,
      "osp": 917,
      "nict": 918,
      "Ġzap": 919,
      "Ġobje": 920,
      "dat": 921,
      "Ġeuropejskiej": 922,
      "lny": 923,
      "mieni": 924,
      "Ġchar": 925,
      "zej": 926,
      "Ġktorym": 927,
      "Ġrowniez": 928,
      "Ġurze": 929,
      "Ġprzedstawi": 930,
      "lej": 931,
      "Ġkontro": 932,
      "Ġcen": 933,
      "Ġmaja": 934,
      "tych": 935,
      "Ġinter": 936,
      "ur": 937,
      "Ġspecjalistyczne": 938,
      "Ġszczegolnosci": 939,
      "jaca": 940,
      "Ġswiad": 941,
      "jacej": 942,
      "Ġregu": 943,
      "so": 944,
      "Ġsku": 945,
      "Ġjej": 946,
      "ren": 947,
      "Ġcharak": 948,
      "ska": 949,
      "zyc": 950,
      "Ġpierwsze": 951,
      "Ġinstytu": 952,
      "Ġogra": 953,
      "Ġcel": 954,
      "wen": 955,
      "gÅĤ": 956,
      "res": 957,
      "ĠspoÅĤ": 958,
      "mp": 959,
      "raw": 960,
      "Ġdetaliczne": 961,
      "Ġjedna": 962,
      "wod": 963,
      "Ġrep": 964,
      "Ġkwo": 965,
      "nienie": 966,
      "Ġwprowad": 967,
      "Ġmoga": 968,
      "40": 969,
      "Ġzarzu": 970,
      "Ġmar": 971,
      "tego": 972,
      "wor": 973,
      "pew": 974,
      "Ġprzeciw": 975,
      "Ġ+": 976,
      "zasad": 977,
      "odar": 978,
      "cyj": 979,
      "ospodar": 980,
      "Ġpowin": 981,
      "Ġzawar": 982,
      "Ġoko": 983,
      "Ġczesci": 984,
      "Ġdniu": 985,
      "Ġzawie": 986,
      "Ġnarus": 987,
      "Ġse": 988,
      "Ġof": 989,
      "woÅĤa": 990,
      "kach": 991,
      "zeniu": 992,
      "Ġstrony": 993,
      "stac": 994,
      "Ġrod": 995,
      "Ġwyp": 996,
      "Ġpl": 997,
      "czas": 998,
      "Ġaby": 999,
      "po": 1000,
      "Ġgospodar": 1001,
      "zen": 1002,
      "Ġmowa": 1003,
      "30": 1004,
      "Ġkar": 1005,
      "Ġwyma": 1006,
      "Ġsrodkow": 1007,
      "Ġnaj": 1008,
      "uje": 1009,
      "Ġwzgle": 1010,
      "Ġtakze": 1011,
      "acja": 1012,
      "Ġktory": 1013,
      "se": 1014,
      "Ġprocedu": 1015,
      "ĠcaÅĤ": 1016,
      "Ġzapew": 1017,
      "Ġorgan": 1018,
      "Ġfor": 1019,
      "ocie": 1020,
      "Ġmiejs": 1021,
      "muje": 1022,
      "Ġlu": 1023,
      "kcji": 1024,
      "Ġzw": 1025,
      "Ġprob": 1026,
      "Ġ100": 1027,
      "Ġozna": 1028,
      "nu": 1029,
      "Ġwspolno": 1030,
      "dnia": 1031,
      "onego": 1032,
      "Ġzasad": 1033,
      "Ġwa": 1034,
      "Ġprzedsiebiorstwa": 1035,
      "Ġwi": 1036,
      "uz": 1037,
      "ywa": 1038,
      "rona": 1039,
      "Ġpub": 1040,
      "Ġpodmi": 1041,
      "Ġau": 1042,
      "ĠodwoÅĤa": 1043,
      "Ġokolicz": 1044,
      "mentu": 1045,
      "Ġzaskar": 1046,
      "Ġuzasad": 1047,
      "Ġge": 1048,
      "rony": 1049,
      "ĠpozostaÅĤe": 1050,
      "Ġ2006": 1051,
      "Ġdoku": 1052,
      "Ġfun": 1053,
      "Ġzad": 1054,
      "adania": 1055,
      "ÅĤoz": 1056,
      "Ġprow": 1057,
      "Ġii": 1058,
      "lnej": 1059,
      "Ġinnych": 1060,
      "rob": 1061,
      "wiet": 1062,
      "lega": 1063,
      "Ġmu": 1064,
      "Ġktora": 1065,
      "Ġogo": 1066,
      "trzym": 1067,
      "Ġ2009": 1068,
      "Ġsek": 1069,
      "Ġex": 1070,
      "Ġzam": 1071,
      "Ġniez": 1072,
      "50": 1073,
      "Ġzwiazku": 1074,
      "Ġjednak": 1075,
      "den": 1076,
      "Ġwyka": 1077,
      "Ġ40": 1078,
      "zacji": 1079,
      "21": 1080,
      "Ġdrugie": 1081,
      "Ġpochod": 1082,
      "Ġ010": 1083,
      "lenie": 1084,
      "Ġswo": 1085,
      "Ġprowad": 1086,
      "anym": 1087,
      "ÅĤat": 1088,
      "Ġniniejszego": 1089,
      "Ġsam": 1090,
      "Ġpy": 1091,
      "rz": 1092,
      "nymi": 1093,
      "Ġinformacji": 1094,
      "Ġkry": 1095,
      "Ġpot": 1096,
      "Ġudzie": 1097,
      "Ġwartosci": 1098,
      "Ġpre": 1099,
      "ten": 1100,
      "Ġwyja": 1101,
      "do": 1102,
      "lez": 1103,
      "mentow": 1104,
      "Ġurzed": 1105,
      "ke": 1106,
      "wne": 1107,
      "Ġproduktow": 1108,
      "cj": 1109,
      "Ġdanych": 1110,
      "onym": 1111,
      "Ġprzyzna": 1112,
      "Ġga": 1113,
      "Ġpublicz": 1114,
      "pa": 1115,
      "Ġponie": 1116,
      "Ġur": 1117,
      "Ġ2004": 1118,
      "ktor": 1119,
      "Ġrzecz": 1120,
      "Ġkla": 1121,
      "Ġbezp": 1122,
      "Ġsytu": 1123,
      "Ġspor": 1124,
      "lna": 1125,
      "Ġorga": 1126,
      "Ġwymo": 1127,
      "Ġpodob": 1128,
      "Ġdodat": 1129,
      "nien": 1130,
      "bo": 1131,
      "ace": 1132,
      "Ġprzywoz": 1133,
      "Ġzo": 1134,
      "trz": 1135,
      "star": 1136,
      "Ġochrony": 1137,
      "Ġhi": 1138,
      "Ġ\"": 1139,
      "Ġprzeciwko": 1140,
      "owod": 1141,
      "owac": 1142,
      "Ġsm": 1143,
      "nawia": 1144,
      "ĠtrybunaÅĤ": 1145,
      "Ġzawiera": 1146,
      "Ġwniosek": 1147,
      "Ġkg": 1148,
      "szcza": 1149,
      "chy": 1150,
      "Ġpozyc": 1151,
      "zysta": 1152,
      "Ġsadu": 1153,
      "Ġpe": 1154,
      "Ġzastosowanie": 1155,
      "ue": 1156,
      "mini": 1157,
      "Ġbra": 1158,
      "Ġmozna": 1159,
      "owanych": 1160,
      "ÅĤacznie": 1161,
      "Ġrynku": 1162,
      "Ġ39": 1163,
      "Ġwyroku": 1164,
      "ÅĤyw": 1165,
      "ran": 1166,
      "fe": 1167,
      "sza": 1168,
      "Ġ2013": 1169,
      "Ġ0106": 1170,
      "Ġwymaga": 1171,
      "Ġdzien": 1172,
      "tkow": 1173,
      "ĠgÅĤow": 1174,
      "Ġzabezpie": 1175,
      "lnym": 1176,
      "ĠczÅĤonkowskich": 1177,
      "stwie": 1178,
      "ali": 1179,
      "Ġ01": 1180,
      "Ġcor": 1181,
      "ri": 1182,
      "Ġpoprze": 1183,
      "ls": 1184,
      "Ġparla": 1185,
      "Ġprawo": 1186,
      "Ġ>": 1187,
      "dnio": 1188,
      "lnosc": 1189,
      "Ġktorej": 1190,
      "zeniem": 1191,
      "Ġprzepisow": 1192,
      "Ġ2008": 1193,
      "Ġpostan": 1194,
      "acyj": 1195,
      "ycie": 1196,
      "Ġdotyczacych": 1197,
      "Ġosta": 1198,
      "Ġcharakte": 1199,
      "Ġwykor": 1200,
      "Ġoce": 1201,
      "Ġograni": 1202,
      "Ġstwierd": 1203,
      "Ġcy": 1204,
      "Ġpodstawowa": 1205,
      "tecz": 1206,
      "86": 1207,
      "rw": 1208,
      "ĠusÅĤug": 1209,
      "strze": 1210,
      "ano": 1211,
      "Ġwz": 1212,
      "Ġwszystkich": 1213,
      "Ġon": 1214,
      "Ġzasady": 1215,
      "Ġ2003": 1216,
      "nad": 1217,
      "Ġew": 1218,
      "Ġzakres": 1219,
      "tek": 1220,
      "Ġ32": 1221,
      "Ġskarzaca": 1222,
      "Ġpyta": 1223,
      "Ġposi": 1224,
      "Ġne": 1225,
      "ĠskÅĤad": 1226,
      "ĠwÅĤas": 1227,
      "Ġprzeka": 1228,
      "Ġzatem": 1229,
      "Ġpozi": 1230,
      "Ġzostac": 1231,
      "owis": 1232,
      "Ġba": 1233,
      "Ġprzyje": 1234,
      "Ġprzeprowad": 1235,
      "Ġadmini": 1236,
      "onej": 1237,
      "Ġponad": 1238,
      "zaj": 1239,
      "Ġgrudnia": 1240,
      "ium": 1241,
      "Ġtech": 1242,
      "Ġspraw": 1243,
      "Ġstosowania": 1244,
      "Ġpracow": 1245,
      "01": 1246,
      "lic": 1247,
      "gen": 1248,
      "Ġ2007": 1249,
      "Ġumowy": 1250,
      "ĠspeÅĤ": 1251,
      "zyw": 1252,
      "Ġokolicznosci": 1253,
      "Ġla": 1254,
      "szar": 1255,
      "Ġupraw": 1256,
      "nosi": 1257,
      "Ġfirb": 1258,
      "sk": 1259,
      "Ġewg": 1260,
      "jacym": 1261,
      "Ġbi": 1262,
      "Ġdochod": 1263,
      "Ġeuropejskiego": 1264,
      "Ġzb": 1265,
      "Ġ33": 1266,
      "Ġzat": 1267,
      "Ġsub": 1268,
      "Ġinte": 1269,
      "Ġ36": 1270,
      "Ġtytu": 1271,
      "tra": 1272,
      "Ġstrona": 1273,
      "Ġwykonaw": 1274,
      "osre": 1275,
      "Ġbezposre": 1276,
      "jaz": 1277,
      "Ġsprzeda": 1278,
      "ner": 1279,
      "Ġinformacje": 1280,
      "fikacji": 1281,
      "Ġ2014": 1282,
      "Ġzarzad": 1283,
      "racyj": 1284,
      "Ġpanstwo": 1285,
      "Ġsrodki": 1286,
      "ĠzostaÅĤy": 1287,
      "sli": 1288,
      "Ġpodmio": 1289,
      "Ġan": 1290,
      "Ġprzepisy": 1291,
      "Ġ35": 1292,
      "zanie": 1293,
      "ĠpeÅĤ": 1294,
      "Ġtrak": 1295,
      "Ġ38": 1296,
      "Ġzak": 1297,
      "nione": 1298,
      "Ġ37": 1299,
      "Ġmateria": 1300,
      "Ġkod": 1301,
      "Ġrepubli": 1302,
      "Ġobowiaz": 1303,
      "mia": 1304,
      "twar": 1305,
      "lar": 1306,
      "Ġurzad": 1307,
      "Ġobszar": 1308,
      "Ġzmi": 1309,
      "twor": 1310,
      "90": 1311,
      "Ġuwzglednia": 1312,
      "Ġcelow": 1313,
      "Ġ2011": 1314,
      "noszac": 1315,
      "Ġmocy": 1316,
      "Ġhand": 1317,
      "11": 1318,
      "Ġcr": 1319,
      "ĠzaÅĤaczniku": 1320,
      "Ġorgani": 1321,
      "dnie": 1322,
      "Ġil": 1323,
      "ami": 1324,
      "tami": 1325,
      "Ġfak": 1326,
      "Ġ34": 1327,
      "Ġkwa": 1328,
      "Ġniniejszej": 1329,
      "Ġ2005": 1330,
      "tar": 1331,
      "Ġsystem": 1332,
      "liwosci": 1333,
      "ol": 1334,
      "ĠwspoÅĤ": 1335,
      "Ġkro": 1336,
      "roz": 1337,
      "Ġpomocy": 1338,
      "cznych": 1339,
      "Ġpostanowie": 1340,
      "miesz": 1341,
      "ort": 1342,
      "Ġjesli": 1343,
      "Ġwspolnot": 1344,
      "Ġbar": 1345,
      "Ġorzecz": 1346,
      "wierd": 1347,
      "peÅĤ": 1348,
      "Ġopi": 1349,
      "len": 1350,
      "nek": 1351,
      "Ġprzedmiocie": 1352,
      "Ġrozumie": 1353,
      "Ġdokona": 1354,
      "Ġ99": 1355,
      "Ġkwest": 1356,
      "Ġprzek": 1357,
      "ĠtrybunaÅĤu": 1358,
      "Ġdi": 1359,
      "ĠczÅĤonkowskiego": 1360,
      "Ġustan": 1361,
      "Ġana": 1362,
      "Ġzmie": 1363,
      "Ġwymieni": 1364,
      "Ġjedy": 1365,
      "Ġzd": 1366,
      "Ġponadto": 1367,
      "Ġwyso": 1368,
      "czywi": 1369,
      "Ġzy": 1370,
      "Ġktorego": 1371,
      "Ġelekt": 1372,
      "Ġkontroli": 1373,
      "Ġobej": 1374,
      "Ġ2001": 1375,
      "Ġzaskarzo": 1376,
      "Ġczerw": 1377,
      "cha": 1378,
      "Ġcorp": 1379,
      "Ġdecyzja": 1380,
      "Ġorzecznict": 1381,
      "80": 1382,
      "Ġsprawoz": 1383,
      "tyw": 1384,
      "wane": 1385,
      "Ġdyrektywa": 1386,
      "Ġczyn": 1387,
      "ĠÎ": 1388,
      "czej": 1389,
      "gor": 1390,
      "000": 1391,
      "ktyw": 1392,
      "Ġpojaz": 1393,
      "Ġ2012": 1394,
      "Ġkonie": 1395,
      "Ġ02": 1396,
      "Ġdopu": 1397,
      "he": 1398,
      "ĠsÅĤu": 1399,
      "Ġlip": 1400,
      "94": 1401,
      "Ġcc": 1402,
      "Ġponiewaz": 1403,
      "owo": 1404,
      "menty": 1405,
      "Ġadminist": 1406,
      "kosci": 1407,
      "Ġczerwca": 1408,
      "Ġsu": 1409,
      "Ġ84": 1410,
      "Ġpis": 1411,
      "ozumie": 1412,
      "mieniu": 1413,
      "Ġnor": 1414,
      "Ġporozumie": 1415,
      "Ġniektor": 1416,
      "Ġtowarow": 1417,
      "snia": 1418,
      "Ġtakie": 1419,
      "dziaÅĤ": 1420,
      "szcze": 1421,
      "racza": 1422,
      "Ġparlamentu": 1423,
      "lnie": 1424,
      "Ġ41": 1425,
      "Ġmia": 1426,
      "czes": 1427,
      "Ġustanawia": 1428,
      "Ġlipca": 1429,
      "kowe": 1430,
      "Ġocen": 1431,
      "Ġzwiazane": 1432,
      "ion": 1433,
      "ciu": 1434,
      "Ġjednost": 1435,
      "lko": 1436,
      "kowych": 1437,
      "Ġwniosku": 1438,
      "Ġkonsu": 1439,
      "cow": 1440,
      "Ġnaz": 1441,
      "Ġ85": 1442,
      "Ġargu": 1443,
      "iag": 1444,
      "Ġczesc": 1445,
      "Ġ*": 1446,
      "chom": 1447,
      "Ġtrans": 1448,
      "Ġ60": 1449,
      "Ġani": 1450,
      "Ġbad": 1451,
      "Ġkonku": 1452,
      "Ġpomoc": 1453,
      "rytor": 1454,
      "Ġstwierdzi": 1455,
      "Ġpodlega": 1456,
      "Ġgr": 1457,
      "dno": 1458,
      "Ġsi": 1459,
      "Ġobro": 1460,
      "owanego": 1461,
      "ĠdziaÅĤalnosci": 1462,
      "tom": 1463,
      "Ġlicz": 1464,
      "Ġpoje": 1465,
      "mniej": 1466,
      "Ġreje": 1467,
      "Ġope": 1468,
      "Ġlist": 1469,
      "Ġrzad": 1470,
      "Ġrozumieniu": 1471,
      "Ġ05": 1472,
      "Ġznaj": 1473,
      "Ġ2016": 1474,
      "Ġtran": 1475,
      "ĠzaÅĤacznik": 1476,
      "omnia": 1477,
      "Ġoceny": 1478,
      "oby": 1479,
      "Ġ43": 1480,
      "Ġpracy": 1481,
      "Ġpostepowaniu": 1482,
      "Ġpowi": 1483,
      "Ġ2002": 1484,
      "Ġ2015": 1485,
      "pre": 1486,
      "czych": 1487,
      "Ġwo": 1488,
      "Ġprogra": 1489,
      "Ġ2010": 1490,
      "Ġpoli": 1491,
      "Ġcza": 1492,
      "Ġwzgledu": 1493,
      "Ġmini": 1494,
      "Ġwod": 1495,
      "Ġbrz": 1496,
      "Ġnad": 1497,
      "Ġzach": 1498,
      "lami": 1499,
      "Ġtylko": 1500,
      "Ġklasy": 1501,
      "ozli": 1502,
      "Ġzycie": 1503,
      "jedno": 1504,
      "zek": 1505,
      "ien": 1506,
      "Ġterytor": 1507,
      "trzyma": 1508,
      "ĠusÅĤugi": 1509,
      "py": 1510,
      "Ġwszystkie": 1511,
      "Ġsystemu": 1512,
      "ÅĤada": 1513,
      "Ġproba": 1514,
      "Ġ75": 1515,
      "ycja": 1516,
      "Ġubezpie": 1517,
      "oscia": 1518,
      "Ġ44": 1519,
      "Ġjedynie": 1520,
      "Ġpie": 1521,
      "Ġ45": 1522,
      "Ġzez": 1523,
      "dzier": 1524,
      "Ġrodzaj": 1525,
      "Ġsektor": 1526,
      "Ġpaz": 1527,
      "syÅĤa": 1528,
      "Ġ54": 1529,
      "zone": 1530,
      "kapi": 1531,
      "ul": 1532,
      "im": 1533,
      "Ġgo": 1534,
      "bed": 1535,
      "wnetrz": 1536,
      "Ġlo": 1537,
      "land": 1538,
      "Ġprzezna": 1539,
      "Ġopar": 1540,
      "sÅĤ": 1541,
      "kowi": 1542,
      "Ġ42": 1543,
      "Ġpazdzier": 1544,
      "ĠwÅĤasciwe": 1545,
      "Ġokreslonych": 1546,
      "niki": 1547,
      "Ġsmec": 1548,
      "Ġakapi": 1549,
      "Ġ91": 1550,
      "Ġsytuacji": 1551,
      "Ġfa": 1552,
      "Ġoznacza": 1553,
      "Ġsubstan": 1554,
      "rs": 1555,
      "Ġnieza": 1556,
      "Ġodpowiedzia": 1557,
      "ruchom": 1558,
      "Ġuni": 1559,
      "Ġnieruchom": 1560,
      "Ġpozwa": 1561,
      "Ġpoziom": 1562,
      "Ġprej": 1563,
      "Ġmarca": 1564,
      "Ġprejud": 1565,
      "Ġzwro": 1566,
      "dar": 1567,
      "Ġprejudycja": 1568,
      "Ġzda": 1569,
      "Ġale": 1570,
      "ts": 1571,
      "70": 1572,
      "ÅĤug": 1573,
      "Ġpun": 1574,
      "ĠwyÅĤacznie": 1575,
      "Ġgra": 1576,
      "Ġdane": 1577,
      "Ġjezy": 1578,
      "odzi": 1579,
      "taÅĤ": 1580,
      "Ġpazdziernika": 1581,
      "Ġbud": 1582,
      "Ġbezpie": 1583,
      "qu": 1584,
      "Ġwskaz": 1585,
      "Ġdowod": 1586,
      "Ġ52": 1587,
      "Ġuchy": 1588,
      "miar": 1589,
      "nera": 1590,
      "zel": 1591,
      "Ġpowyz": 1592,
      "Ġdostep": 1593,
      "Ġmog": 1594,
      "Ġ80": 1595,
      "Ġpostepowanie": 1596,
      "Ġnaruszenia": 1597,
      "Ġuwzgledniajac": 1598,
      "oru": 1599,
      "Ġzjedno": 1600,
      "Ġnastep": 1601,
      "Ġstycz": 1602,
      "Ġtrakta": 1603,
      "wencji": 1604,
      "Ġrozpat": 1605,
      "acz": 1606,
      "owany": 1607,
      "ĠzÅĤoz": 1608,
      "Ġproducen": 1609,
      "60": 1610,
      "owaz": 1611,
      "zuje": 1612,
      "Ġru": 1613,
      "Î±": 1614,
      "Ġ0086": 1615,
      "Ġone": 1616,
      "Ġmusi": 1617,
      "Ġwspomnia": 1618,
      "Ġwykony": 1619,
      "inte": 1620,
      "kami": 1621,
      "Ġniep": 1622,
      "Ġprzyj": 1623,
      "Ġprop": 1624,
      "gii": 1625,
      "stru": 1626,
      "Ġ2017": 1627,
      "Ġproduktu": 1628,
      "Ġwrze": 1629,
      "zace": 1630,
      "Ġpanstwie": 1631,
      "Ġinstru": 1632,
      "Ġak": 1633,
      "Ġtechnicz": 1634,
      "Ġsw": 1635,
      "Ġstycznia": 1636,
      "Ġustanowi": 1637,
      "Ġfran": 1638,
      "par": 1639,
      "Ġustawy": 1640,
      "Ġ95": 1641,
      "Ġprzewidzia": 1642,
      "finans": 1643,
      "Ġistnie": 1644,
      "Ġno": 1645,
      "Ġwyraz": 1646,
      "Ġanali": 1647,
      "Ġpodatku": 1648,
      "Ġzwie": 1649,
      "Ġtrzecie": 1650,
      "Ġzmiany": 1651,
      "Ġlecz": 1652,
      "Ġona": 1653,
      "Ġtransp": 1654,
      "ĠzostaÅĤ": 1655,
      "tej": 1656,
      "Ġinwest": 1657,
      "Ġwszel": 1658,
      "Ġkomisje": 1659,
      "tion": 1660,
      "Ġprzedmio": 1661,
      "Ġlistop": 1662,
      "unku": 1663,
      "Ġ49": 1664,
      "sty": 1665,
      "Ġtrzeci": 1666,
      "Ġ46": 1667,
      "Ġroku": 1668,
      "duje": 1669,
      "ĠczÅĤonkowskim": 1670,
      "Ġkonkuren": 1671,
      "Ġ96": 1672,
      "Ġ48": 1673,
      "Ġsprzedazy": 1674,
      "Ġkom": 1675,
      "lem": 1676,
      "Ġtakich": 1677,
      "cznego": 1678,
      "Ġ51": 1679,
      "Ġban": 1680,
      "Ġwrzesnia": 1681,
      "mite": 1682,
      "Ġosoby": 1683,
      "Ġdok": 1684,
      "der": 1685,
      "niach": 1686,
      "starcza": 1687,
      "Ġdalej": 1688,
      "Ġlc": 1689,
      "Ġprodukcji": 1690,
      "Ġduz": 1691,
      "Ġpoprzez": 1692,
      "Ġduzych": 1693,
      "Ġposiada": 1694,
      "ĠwpÅĤyw": 1695,
      "ĠzostaÅĤa": 1696,
      "Ġ55": 1697,
      "Ġlistopada": 1698,
      "Ġtf": 1699,
      "Ġkwiet": 1700,
      "niesi": 1701,
      "niz": 1702,
      "Ġistot": 1703,
      "cjona": 1704,
      "Ġkazd": 1705,
      "tycznych": 1706,
      "Ġniniejszym": 1707,
      "gl": 1708,
      "ĠtytuÅĤu": 1709,
      "fa": 1710,
      "Ġrozporzadzeniem": 1711,
      "ĠzaÅĤacznika": 1712,
      "tegor": 1713,
      "Ġ2000": 1714,
      "th": 1715,
      "Ġopis": 1716,
      "Ġtfue": 1717,
      "owanej": 1718,
      "Î¿": 1719,
      "Ġokreslo": 1720,
      "lin": 1721,
      "ĠzgÅĤ": 1722,
      "Ġ53": 1723,
      "szkod": 1724,
      "niecia": 1725,
      "Ġbezpieczen": 1726,
      "22": 1727,
      "waran": 1728,
      "Ġkwietnia": 1729,
      "Ġpotrze": 1730,
      "tku": 1731,
      "Ġzezwo": 1732,
      "Ġ2018": 1733,
      "onu": 1734,
      "Ġkwali": 1735,
      "nicy": 1736,
      "Ġostat": 1737,
      "ary": 1738,
      "Ġwartosc": 1739,
      "Ġener": 1740,
      "Ġkolej": 1741,
      "Ġ70": 1742,
      "cej": 1743,
      "wid": 1744,
      "Ġinterpre": 1745,
      "Ġzastosowania": 1746,
      "Ġbed": 1747,
      "Ġsze": 1748,
      "Ġds": 1749,
      "zacych": 1750,
      "wet": 1751,
      "ĠcÅĤa": 1752,
      "ich": 1753,
      "ĠodsyÅĤa": 1754,
      "es": 1755,
      "Ġzag": 1756,
      "Ġzwa": 1757,
      "Ġ93": 1758,
      "Ġszkod": 1759,
      "Ġokreslone": 1760,
      "Ġfunk": 1761,
      "Ġkrole": 1762,
      "Ġpowinny": 1763,
      "Ġiii": 1764,
      "Ġkryteria": 1765,
      "Ġbu": 1766,
      "Ġkategor": 1767,
      "Ġ92": 1768,
      "Ġy": 1769,
      "ic": 1770,
      "Ġpowy": 1771,
      "towych": 1772,
      "Ġprzemy": 1773,
      "Ġokresie": 1774,
      "Ġkosztow": 1775,
      "awia": 1776,
      "Ġwywoz": 1777,
      "Ġpowyzej": 1778,
      "Ġ47": 1779,
      "Ġadministracyj": 1780,
      "Ġ000": 1781,
      "ski": 1782,
      "ĠwÅĤo": 1783,
      "Ġkazde": 1784,
      "mina": 1785,
      "Ġkwoty": 1786,
      "Ġreali": 1787,
      "tki": 1788,
      "Ġakapit": 1789,
      "ĠspoÅĤe": 1790,
      "Ġzmieni": 1791,
      "Ġjuz": 1792,
      "interes": 1793,
      "ÅĤych": 1794,
      "Ġen": 1795,
      "Ġniefinans": 1796,
      "Ġnawet": 1797,
      "31": 1798,
      "Ġzainteres": 1799,
      "Ġstron": 1800,
      "Ġterytorium": 1801,
      "Ġros": 1802,
      "Ġinstytucje": 1803,
      "Ġwykorzyst": 1804,
      "ss": 1805,
      "Ġso": 1806,
      "Ġdoda": 1807,
      "narod": 1808,
      "Ġuzyska": 1809,
      "Ġhandl": 1810,
      "Ġumozli": 1811,
      "Ġww": 1812,
      "trzy": 1813,
      "Ġwarunki": 1814,
      "Ġdecyzje": 1815,
      "wol": 1816,
      "ĠpÅĤat": 1817,
      "omie": 1818,
      "Ġpowo": 1819,
      "Ġ59": 1820,
      "Ġproduk": 1821,
      "ĠwykÅĤad": 1822,
      "ĠdziaÅĤ": 1823,
      "owiem": 1824,
      "wanie": 1825,
      "Ġ1999": 1826,
      "Ġ94": 1827,
      "prac": 1828,
      "ĠdziaÅĤania": 1829,
      "cznie": 1830,
      "Ġniefinansowe": 1831,
      "Ġeuropejska": 1832,
      "teczne": 1833,
      "Ġtymczas": 1834,
      "Ġpowod": 1835,
      "og": 1836,
      "ywate": 1837,
      "Ġobywate": 1838,
      "yd": 1839,
      "ĠwyÅĤac": 1840,
      "Ġmiedzynarod": 1841,
      "ĠcaÅĤkowi": 1842,
      "Ġzamowie": 1843,
      "dziej": 1844,
      "cu": 1845,
      "Ġobcia": 1846,
      "Ġsprawy": 1847,
      "olo": 1848,
      "Ġgenera": 1849,
      "woj": 1850,
      "Ġceny": 1851,
      "Ġtem": 1852,
      "ÅĤaty": 1853,
      "ĠbyÅĤ": 1854,
      "Ġodda": 1855,
      "Ġ57": 1856,
      "Ġcom": 1857,
      "czonych": 1858,
      "Ġlat": 1859,
      "Ġ87": 1860,
      "ortu": 1861,
      "Î¹": 1862,
      "Ġswoje": 1863,
      "Ġregulami": 1864,
      "Ġniezbed": 1865,
      "Ġniewaz": 1866,
      "Ġlot": 1867,
      "Ġniektorych": 1868,
      "Ġnastepujace": 1869,
      "Ġbowiem": 1870,
      "ĠwspoÅĤprac": 1871,
      "Ġproje": 1872,
      "obod": 1873,
      "kol": 1874,
      "Ġ?": 1875,
      "Ġrec": 1876,
      "Ġkapi": 1877,
      "Ġinstytucji": 1878,
      "Ġswobod": 1879,
      "Ġ61": 1880,
      "Ġpodczas": 1881,
      "ĠwÅĤasciw": 1882,
      "Ġmiejsce": 1883,
      "Ġkomite": 1884,
      "Ġnum": 1885,
      "ĠwÅĤad": 1886,
      "szych": 1887,
      "wem": 1888,
      "Ġrzeczywi": 1889,
      "ĠbyÅĤy": 1890,
      "Ġwiecej": 1891,
      "Ġ56": 1892,
      "ĠspoÅĤki": 1893,
      "di": 1894,
      "Ġimieniu": 1895,
      "ve": 1896,
      "wienia": 1897,
      "Ġmus": 1898,
      "Ġprawem": 1899,
      "Ġwzgled": 1900,
      "Ġucze": 1901,
      "leg": 1902,
      "Ġokresla": 1903,
      "Ġkons": 1904,
      "Ġpoza": 1905,
      "Ġdziennik": 1906,
      "Ġstop": 1907,
      "Ġ98": 1908,
      "Ġwiel": 1909,
      "tura": 1910,
      "Ġiden": 1911,
      "Ġsporzad": 1912,
      "Ġzaskarzonej": 1913,
      "ĠodwoÅĤanie": 1914,
      "Ġcia": 1915,
      "Ġstosuje": 1916,
      "ublik": 1917,
      "ĠcaÅĤosci": 1918,
      "Ġ65": 1919,
      "Ġwarunkow": 1920,
      "Ġzabezpieczone": 1921,
      "Ġlutego": 1922,
      "Ġ71": 1923,
      "lan": 1924,
      "Ġbezposrednio": 1925,
      "obie": 1926,
      "Ġuwagi": 1927,
      "Ġustala": 1928,
      "Ġsprawozda": 1929,
      "wiek": 1930,
      "99": 1931,
      "Ġ2019": 1932,
      "Ġuczest": 1933,
      "Ġwewnetrz": 1934,
      "Ġrozpatry": 1935,
      "Ġcharakterze": 1936,
      "Ġczas": 1937,
      "Ġbru": 1938,
      "ĠszczegoÅĤ": 1939,
      "Ġwczes": 1940,
      "Ġskutecz": 1941,
      "Ġwzgledzie": 1942,
      "Ġcie": 1943,
      "Ġkoszty": 1944,
      "Ġbezpieczenstwa": 1945,
      "zona": 1946,
      "Ġow": 1947,
      "Ġpi": 1948,
      "dop": 1949,
      "Ġzaka": 1950,
      "Ġurzedowy": 1951,
      "Ġwed": 1952,
      "Ġrozporzadzeniu": 1953,
      "Ġunij": 1954,
      "Ġwyb": 1955,
      "tyczne": 1956,
      "Ġofer": 1957,
      "uk": 1958,
      "Ġuwage": 1959,
      "Ġregi": 1960,
      "Ġswiet": 1961,
      "Ġsprawa": 1962,
      "Ġobjetych": 1963,
      "Ġwysta": 1964,
      "Ġ58": 1965,
      "Ġwspolnoty": 1966,
      "Ġpowie": 1967,
      "Ġrada": 1968,
      "Ġsrodowis": 1969,
      "Ġstosow": 1970,
      "Ġodpowiedni": 1971,
      "Ġbadania": 1972,
      "Ġwyc": 1973,
      "Ġprzedstawicie": 1974,
      "niczych": 1975,
      "Ġorgany": 1976,
      "ĠbyÅĤa": 1977,
      "Ġodpowiedzi": 1978,
      "Ġwia": 1979,
      "Ġskor": 1980,
      "Ġzasada": 1981,
      "zin": 1982,
      "Ġpoda": 1983,
      "ÅĤos": 1984,
      "Ġwyrob": 1985,
      "szej": 1986,
      "Ġdu": 1987,
      "Ġ64": 1988,
      "Ġpon": 1989,
      "Ġpodobnie": 1990,
      "Ġumow": 1991,
      "Ġsto": 1992,
      "Ġrad": 1993,
      "towy": 1994,
      "acych": 1995,
      "Ġnadz": 1996,
      "Ġwyzna": 1997,
      "Ġvat": 1998,
      "Ġwymog": 1999,
      "Ġizba": 2000,
      "Ġprzypadkach": 2001,
      "Ġha": 2002,
      "Ġwydanie": 2003,
      "Ġcon": 2004,
      "Ġ08": 2005,
      "Ġ62": 2006,
      "rator": 2007,
      "Ġ97": 2008,
      "Ġposre": 2009,
      "Ġilosci": 2010,
      "jem": 2011,
      "Ġprocedura": 2012,
      "Ġznaku": 2013,
      "Ġswietle": 2014,
      "Ġ0094": 2015,
      "ĠdziaÅĤalnosc": 2016,
      "Ġprocedury": 2017,
      "Ġaktu": 2018,
      "Ġpomie": 2019,
      "dow": 2020,
      "Ġzobacz": 2021,
      "Ġmozliw": 2022,
      "tkiem": 2023,
      "va": 2024,
      "Ġpytania": 2025,
      "kowej": 2026,
      "ÅĤego": 2027,
      "onymi": 2028,
      "ĠzostaÅĤo": 2029,
      "Ġ81": 2030,
      "Ġskargi": 2031,
      "Ġtez": 2032,
      "Ġpomiedzy": 2033,
      "owymi": 2034,
      "Ġkrajowym": 2035,
      "dziaÅĤu": 2036,
      "Ġobrotu": 2037,
      "Ġwiek": 2038,
      "kolwiek": 2039,
      "Ġ73": 2040,
      "Ġstwierdzenie": 2041,
      "Ġprzekracza": 2042,
      "Ġzmia": 2043,
      "Ġpierwszej": 2044,
      "Ġ88": 2045,
      "Ġbrzmie": 2046,
      "Ġstosowane": 2047,
      "Ġinwestyc": 2048,
      "ĠÂ§": 2049,
      "qui": 2050,
      "adanie": 2051,
      "wac": 2052,
      "Ġpozwo": 2053,
      "Ġkorzysta": 2054,
      "ĠwedÅĤug": 2055,
      "Ġodpowi": 2056,
      "Ġ63": 2057,
      "Ġcharakter": 2058,
      "el": 2059,
      "Ġstandar": 2060,
      "Ġstra": 2061,
      "daw": 2062,
      "Ġpodp": 2063,
      "Ġporozumienia": 2064,
      "Ġprodukty": 2065,
      "Ġjakim": 2066,
      "Ġthe": 2067,
      "Ġdopuszcza": 2068,
      "Ġnajmniej": 2069,
      "ĠdÅĤu": 2070,
      "omen": 2071,
      "Ġniezalez": 2072,
      "iera": 2073,
      "Ġsadem": 2074,
      "Ġ09": 2075,
      "vi": 2076,
      "Ġbedzie": 2077,
      "lor": 2078,
      "kowego": 2079,
      "Ġwykorzysta": 2080,
      "Ġpara": 2081,
      "Ġposz": 2082,
      "Ġtransak": 2083,
      "Ġzwier": 2084,
      "Ġorzeczenia": 2085,
      "Ġ72": 2086,
      "Ġstanowis": 2087,
      "kowania": 2088,
      "Ġnieruchomoscia": 2089,
      "Ġrach": 2090,
      "Ġ198": 2091,
      "Ġzm": 2092,
      "Ġpierwszy": 2093,
      "ĠzakÅĤad": 2094,
      "Ġustalenia": 2095,
      "zat": 2096,
      "ksym": 2097,
      "ĠÂ»": 2098,
      "cznej": 2099,
      "Ġdrugi": 2100,
      "ĠodwoÅĤaw": 2101,
      "Ġprzewidzi": 2102,
      "oto": 2103,
      "Ġsre": 2104,
      "93": 2105,
      "Ġpozycja": 2106,
      "Ġhipo": 2107,
      "Ġrozwoj": 2108,
      "Ġ67": 2109,
      "Ġzatru": 2110,
      "Ġdrugiej": 2111,
      "Ġregul": 2112,
      "Ġzwol": 2113,
      "Ġdwo": 2114,
      "Ġplan": 2115,
      "zic": 2116,
      "Ġtrakt": 2117,
      "czeniu": 2118,
      "Ġdefi": 2119,
      "Ġap": 2120,
      "Ġpochodzenia": 2121,
      "Ġrepublika": 2122,
      "Ġpanstwach": 2123,
      "Ġim": 2124,
      "Ġ07": 2125,
      "Ġdanego": 2126,
      "jaw": 2127,
      "Ġ66": 2128,
      "Ġobec": 2129,
      "Ġodpowiada": 2130,
      "szego": 2131,
      "Ġ78": 2132,
      "Ġpowinna": 2133,
      "Ġ74": 2134,
      "Ġrodzaju": 2135,
      "Ġ68": 2136,
      "Ġzwierzat": 2137,
      "ĠspeÅĤnia": 2138,
      "Ġpozycji": 2139,
      "Ġsubstancji": 2140,
      "Ġgwaran": 2141,
      "Ġelektro": 2142,
      "Ġ89": 2143,
      "Ġper": 2144,
      "Ġpytanie": 2145,
      "Ġzdaniem": 2146,
      "tun": 2147,
      "Ġkrajowego": 2148,
      "Ġniewaznosci": 2149,
      "wierdzi": 2150,
      "Ġfundu": 2151,
      "Ġmasy": 2152,
      "Ġcn": 2153,
      "ĠÂ«": 2154,
      "Ġindy": 2155,
      "Ġaktyw": 2156,
      "Ġkrajowe": 2157,
      "Ġbrak": 2158,
      "Ġkryter": 2159,
      "Ġwystarcza": 2160,
      "Ġpodej": 2161,
      "Ġlt": 2162,
      "Ġtaki": 2163,
      "Ġwysokosci": 2164,
      "acy": 2165,
      "tury": 2166,
      "Ġmusza": 2167,
      "Ġnastepuje": 2168,
      "jach": 2169,
      "Ġopinii": 2170,
      "sztaÅĤ": 2171,
      "Ġwchod": 2172,
      "Ġkazdego": 2173,
      "Ġodm": 2174,
      "Ġklasyfikacji": 2175,
      "stracji": 2176,
      "Ġprzedmiotem": 2177,
      "ĠbyÅĤo": 2178,
      "Ġmaksym": 2179,
      "Ġsiedzi": 2180,
      "towac": 2181,
      "miec": 2182,
      "Ġprzyc": 2183,
      "Ġpowodu": 2184,
      "tacji": 2185,
      "Ġporow": 2186,
      "Ġwejs": 2187,
      "Ġosiag": 2188,
      "Ġtre": 2189,
      "12": 2190,
      "Ġdro": 2191,
      "emi": 2192,
      "Ġzapewnia": 2193,
      "Ġsil": 2194,
      "kowa": 2195,
      "Ġalbo": 2196,
      "Ġzobowiaz": 2197,
      "Ġzapewnienia": 2198,
      "Ġhisz": 2199,
      "Ġbraku": 2200,
      "Ġnich": 2201,
      "ksy": 2202,
      "Ġprzedmiot": 2203,
      "Ġskarzacej": 2204,
      "liwe": 2205,
      "Ġbie": 2206,
      "odat": 2207,
      "Ġwin": 2208,
      "lone": 2209,
      "omoc": 2210,
      "Ġokresu": 2211,
      "rza": 2212,
      "Ġ77": 2213,
      "Ġnieprze": 2214,
      "Ġzjednoczone": 2215,
      "Ġniem": 2216,
      "Ġswiadczenia": 2217,
      "grod": 2218,
      "Ġchodzi": 2219,
      "ÅĤem": 2220,
      "Ġit": 2221,
      "Ġstatu": 2222,
      "ĠzgÅĤos": 2223,
      "Ġtam": 2224,
      "Ġpodje": 2225,
      "Ġwyna": 2226,
      "regu": 2227,
      "Ġpowinien": 2228,
      "fikowane": 2229,
      "Ġmor": 2230,
      "odaw": 2231,
      "Ġpok": 2232,
      "Ġ83": 2233,
      "Ġkonsek": 2234,
      "Ġniemiec": 2235,
      "min": 2236,
      "Ġprzewoz": 2237,
      "Ġopodat": 2238,
      "Ġryzyka": 2239,
      "Ġpew": 2240,
      "trzymuje": 2241,
      "czna": 2242,
      "Ġ79": 2243,
      "ĠukÅĤad": 2244,
      "Ġand": 2245,
      "Ġ76": 2246,
      "szcz": 2247,
      "Ġmozliwosc": 2248,
      "as": 2249,
      "Ġobowiazek": 2250,
      "Ġnet": 2251,
      "ĠgÅĤownym": 2252,
      "15": 2253,
      "Ġ69": 2254,
      "Ġpracownikow": 2255,
      "ĠpoÅĤ": 2256,
      "Ġtu": 2257,
      "Ġmozliwosci": 2258,
      "Ġzarzutu": 2259,
      "Ġstosunku": 2260,
      "Ġdziedzi": 2261,
      "Ġspecjalistycznym": 2262,
      "Ġrazie": 2263,
      "Ġser": 2264,
      "Ġinnymi": 2265,
      "Ġtri": 2266,
      "Ġkredytowaniem": 2267,
      "ĠmateriaÅĤow": 2268,
      "Ġprzywozu": 2269,
      "Ġproducentow": 2270,
      "Ġus": 2271,
      "Ġdata": 2272,
      "zonych": 2273,
      "szym": 2274,
      "ĠpoÅĤow": 2275,
      "ycia": 2276,
      "Ġuwaza": 2277,
      "Ġnalez": 2278,
      "strzy": 2279,
      "niczego": 2280,
      "Ġzamiesz": 2281,
      "ĠbÅĤe": 2282,
      "Ġzau": 2283,
      "Ġpublicznego": 2284,
      "Ġdob": 2285,
      "wodaw": 2286,
      "Ġzadania": 2287,
      "kom": 2288,
      "Ġdokument": 2289,
      "jacymi": 2290,
      "Ġ2020": 2291,
      "Ġterminie": 2292,
      "Ġustawodaw": 2293,
      "Ġkredyty": 2294,
      "Ġzg": 2295,
      "Ġzarzut": 2296,
      "Ġjakie": 2297,
      "Ġtele": 2298,
      "Ġcentra": 2299,
      "ĠwÅĤasciwy": 2300,
      "Ġequi": 2301,
      "Ġat": 2302,
      "Ġtakiego": 2303,
      "widu": 2304,
      "Ġregulaminu": 2305,
      "kosc": 2306,
      "Ġagen": 2307,
      "kret": 2308,
      "wu": 2309,
      "Ġpowia": 2310,
      "Ġ06": 2311,
      "rom": 2312,
      "Ġsamo": 2313,
      "Ġorganizacji": 2314,
      "Ġeta": 2315,
      "13": 2316,
      "Ġsl": 2317,
      "ster": 2318,
      "Ġtowarowego": 2319,
      "ĠzÅĤo": 2320,
      "Ġ86": 2321,
      "Ġzmienia": 2322,
      "Ġmm": 2323,
      "Ġmniejs": 2324,
      "Ġpowier": 2325,
      "Ġujaw": 2326,
      "nionych": 2327,
      "mery": 2328,
      "Ġobejmuje": 2329,
      "Ġprzestrze": 2330,
      "wyz": 2331,
      "ber": 2332,
      "Ġbardziej": 2333,
      "Ġzostaje": 2334,
      "Ġjednakze": 2335,
      "Ġnaruszenie": 2336,
      "Ġprzedsiebiorstwo": 2337,
      "Ġemis": 2338,
      "Ġdom": 2339,
      "Ġskarzace": 2340,
      "Ġjakosci": 2341,
      "Ġmort": 2342,
      "ktury": 2343,
      "Ġtrybie": 2344,
      "Ġzgodnosci": 2345,
      "Ġzale": 2346,
      "Ġindywidu": 2347,
      "nikiem": 2348,
      "Ġobie": 2349,
      "Ġkategorii": 2350,
      "Ġorzecznictwo": 2351,
      "23": 2352,
      "Ġobowiazu": 2353,
      "czny": 2354,
      "Ġdwoch": 2355,
      "Ġogranicz": 2356,
      "Ġsamym": 2357,
      "Ġidenty": 2358,
      "Ġwnoszac": 2359,
      "Ġpostanowienia": 2360,
      "rezen": 2361,
      "Ġgrupy": 2362,
      "rzu": 2363,
      "Ġmiesie": 2364,
      "Ġdokony": 2365,
      "Ġwykonania": 2366,
      "Ġprakty": 2367,
      "Ġzastrze": 2368,
      "ha": 2369,
      "Ġostatni": 2370,
      "Ġnastepnie": 2371,
      "Ġbrzmienie": 2372,
      "Ġsame": 2373,
      "Ġwprowadza": 2374,
      "Ġorganizac": 2375,
      "Ġsprawach": 2376,
      "Ġzakresu": 2377,
      "Ġzawod": 2378,
      "ÅĤosci": 2379,
      "Ġwyjatkiem": 2380,
      "Ġwytwar": 2381,
      "Ġfinansowych": 2382,
      "wanych": 2383,
      "Ġrozstrzy": 2384,
      "Ġzdr": 2385,
      "zywa": 2386,
      "Ġtypu": 2387,
      "Ġbel": 2388,
      "Ġwspolnotowego": 2389,
      "Ïģ": 2390,
      "Ġkwestii": 2391,
      "wierdz": 2392,
      "ogra": 2393,
      "Î½": 2394,
      "Ġczasu": 2395,
      "Ġelektr": 2396,
      "Ġequity": 2397,
      "Ġdokumentow": 2398,
      "Ġimp": 2399,
      "Ġprogram": 2400,
      "glad": 2401,
      "Ġstwierdzic": 2402,
      "nach": 2403,
      "ozna": 2404,
      "scie": 2405,
      "eli": 2406,
      "Ġznajdu": 2407,
      "Ġjednej": 2408,
      "feren": 2409,
      "Ġmiec": 2410,
      "ĠpeÅĤn": 2411,
      "kowy": 2412,
      "ÏĦ": 2413,
      "Ġef": 2414,
      "onomi": 2415,
      "ĠâĢĻ": 2416,
      "owaÅĤa": 2417,
      "Ġpozwala": 2418,
      "Ġreprezen": 2419,
      "Ġotrzyma": 2420,
      "Ġuznac": 2421,
      "stra": 2422,
      "Ġtabe": 2423,
      "Ġhipoteczne": 2424,
      "ĠdziaÅĤan": 2425,
      "ĠwykÅĤadni": 2426,
      "Ġzalez": 2427,
      "Ġzakon": 2428,
      "ĠskÅĤada": 2429,
      "Ġnumer": 2430,
      "Ġ82": 2431,
      "Ġkonkurencji": 2432,
      "Ġwypad": 2433,
      "Ġpolity": 2434,
      "Ġmotyw": 2435,
      "Ġkazdym": 2436,
      "Ġwyroki": 2437,
      "ĠsÅĤuz": 2438,
      "tencja": 2439,
      "Ġtermin": 2440,
      "rzy": 2441,
      "wentu": 2442,
      "kla": 2443,
      "Ġiv": 2444,
      "ĠpeÅĤnomoc": 2445,
      "Ġakt": 2446,
      "Ġewentu": 2447,
      "Ġku": 2448,
      "Ġdostaw": 2449,
      "Ġ03": 2450,
      "Ġtaka": 2451,
      "zaÅĤ": 2452,
      "tym": 2453,
      "ĠspoÅĤka": 2454,
      "niecie": 2455,
      "Ġodpowiednie": 2456,
      "Ġprodukt": 2457,
      "Ġdotyczacy": 2458,
      "of": 2459,
      "pra": 2460,
      "Ġeuropejskich": 2461,
      "kania": 2462,
      "Ġile": 2463,
      "zych": 2464,
      "Ġzyw": 2465,
      "aca": 2466,
      "nictwa": 2467,
      "spo": 2468,
      "adze": 2469,
      "nieniu": 2470,
      "Ġsch": 2471,
      "Ġbo": 2472,
      "logi": 2473,
      "Ġzbior": 2474,
      "Ġwyjas": 2475,
      "zana": 2476,
      "regul": 2477,
      "Ġvi": 2478,
      "tan": 2479,
      "Ġdotyczacego": 2480,
      "Ġkomu": 2481,
      "Ġoswiad": 2482,
      "Ġprzewiduje": 2483,
      "osa": 2484,
      "nami": 2485,
      "Ġodnos": 2486,
      "Ġ04": 2487,
      "Ġinnego": 2488,
      "Ġdostepu": 2489,
      "Ġwaz": 2490,
      "Ġstosowanie": 2491,
      "Ġkosztami": 2492,
      "niona": 2493,
      "czania": 2494,
      "ĠprzykÅĤad": 2495,
      "Ġodpowiednio": 2496,
      "Ġprzyto": 2497,
      "niony": 2498,
      "Ġcelem": 2499,
      "Ġrol": 2500,
      "Ġzarow": 2501,
      "Ġtraktatu": 2502,
      "Ġprzyczy": 2503,
      "liz": 2504,
      "kodaw": 2505,
      "Ġobjete": 2506,
      "Ġczwar": 2507,
      "Ġju": 2508,
      "Ġzawart": 2509,
      "zgledni": 2510,
      "Ġkl": 2511,
      "onuje": 2512,
      "Ġkwota": 2513,
      "Ġkonkret": 2514,
      "Ġwymogi": 2515,
      "lona": 2516,
      "Ġmajac": 2517,
      "ory": 2518,
      "Ġelektronicz": 2519,
      "Ġosoba": 2520,
      "Ġkonty": 2521,
      "Ġes": 2522,
      "owaÅĤ": 2523,
      "14": 2524,
      "Ġkrajowych": 2525,
      "Ġnorma": 2526,
      "towej": 2527,
      "Ġkonieczne": 2528,
      "Ġprzetwor": 2529,
      "Ġobli": 2530,
      "24": 2531,
      "Ġskarga": 2532,
      "Ġprzewod": 2533,
      "Ġtemat": 2534,
      "Ġpodnosi": 2535,
      "Ġnada": 2536,
      "ng": 2537,
      "Ġobowiazku": 2538,
      "Ġuzytkow": 2539,
      "Ġpotrzeby": 2540,
      "Ġdostar": 2541,
      "Ġfe": 2542,
      "Ġtrzecich": 2543,
      "ces": 2544,
      "Ġjednego": 2545,
      "Ġfinansowe": 2546,
      "orcjona": 2547,
      "Ġchemi": 2548,
      "ora": 2549,
      "Ġanty": 2550,
      "Ġrob": 2551,
      "Ġzarowno": 2552,
      "Ġuwzgledni": 2553,
      "acie": 2554,
      "Ġodnoszac": 2555,
      "Ġwyd": 2556,
      "Ġjezyk": 2557,
      "Ġstandard": 2558,
      "Ġ0000": 2559,
      "Ġpodmiotow": 2560,
      "Ġminima": 2561,
      "iast": 2562,
      "Ġudo": 2563,
      "Ġinnym": 2564,
      "Ġwczesniejs": 2565,
      "Ġpowsta": 2566,
      "Ġmoty": 2567,
      "muja": 2568,
      "Ġuregul": 2569,
      "Ġkodek": 2570,
      "Ġkrajowy": 2571,
      "ĠodsyÅĤajacy": 2572,
      "Ġocena": 2573,
      "skie": 2574,
      "isa": 2575,
      "ĠwÅĤos": 2576,
      "Îµ": 2577,
      "Ġpotwierd": 2578,
      "Ġprawnych": 2579,
      "Ġfr": 2580,
      "Ġostatecz": 2581,
      "ĠprzemysÅĤ": 2582,
      "Ġwier": 2583,
      "cus": 2584,
      "Ġznak": 2585,
      "biera": 2586,
      "Ġprzepisami": 2587,
      "Ġzwiazanych": 2588,
      "Ġsrodka": 2589,
      "Ġgatun": 2590,
      "Ġnieu": 2591,
      "Ġwnioskodaw": 2592,
      "Ġmeta": 2593,
      "Ġpodmiot": 2594,
      "Ġniezgod": 2595,
      "stapi": 2596,
      "Ġwynagrod": 2597,
      "Ġudziela": 2598,
      "cjon": 2599,
      "Ġpodmioty": 2600,
      "niec": 2601,
      "Ġproto": 2602,
      "Ġwymienionych": 2603,
      "zono": 2604,
      "stu": 2605,
      "Ġzrod": 2606,
      "Ġ101": 2607,
      "Ġprzewidziane": 2608,
      "Ġmiejsca": 2609,
      "und": 2610,
      "Ġ197": 2611,
      "ĠudziaÅĤ": 2612,
      "ĠÐ": 2613,
      "dzenia": 2614,
      "Ġinterpretowac": 2615,
      "Ġrozwoju": 2616,
      "Ġmecha": 2617,
      "co": 2618,
      "Ġuwadze": 2619,
      "Ġsier": 2620,
      "Ġargument": 2621,
      "twa": 2622,
      "ĠwspoÅĤpracy": 2623,
      "Ġprywa": 2624,
      "Ġzwierze": 2625,
      "Ġnazwa": 2626,
      "unek": 2627,
      "Ġti": 2628,
      "rodze": 2629,
      "anymi": 2630,
      "Ġdni": 2631,
      "let": 2632,
      "Ġpostac": 2633,
      "skiej": 2634,
      "34": 2635,
      "Ġprzyjmuje": 2636,
      "Ġpowinno": 2637,
      "Ġprotoko": 2638,
      "Ġpierwszego": 2639,
      "Ġenergii": 2640,
      "Ġprejudycjalnym": 2641,
      "Ġ040": 2642,
      "racji": 2643,
      "adac": 2644,
      "Ġkorzy": 2645,
      "Ġtakiej": 2646,
      "szu": 2647,
      "Ġtary": 2648,
      "Ġdrodze": 2649,
      "Ġkie": 2650,
      "Ġkonsekwencji": 2651,
      "19": 2652,
      "Ġszko": 2653,
      "pienia": 2654,
      "Ġwarunkiem": 2655,
      "ozycji": 2656,
      "zycie": 2657,
      "Ġkrolestwo": 2658,
      "Ġdostos": 2659,
      "Ġag": 2660,
      "Ġrown": 2661,
      "Ġnider": 2662,
      "Ġhom": 2663,
      "ros": 2664,
      "Ġniego": 2665,
      "Ġtwierdzi": 2666,
      "Ġzare": 2667,
      "Ġelektrycz": 2668,
      "ĠpÅĤy": 2669,
      "zupeÅĤ": 2670,
      "Ġnim": 2671,
      "Ġsieci": 2672,
      "cyjnych": 2673,
      "Ġdziedzinie": 2674,
      "ĠwyÅĤaczeniem": 2675,
      "Ġwyniku": 2676,
      "Ġchro": 2677,
      "Ġmiesiecy": 2678,
      "Ġurzadzenia": 2679,
      "ĠuzupeÅĤ": 2680,
      "Ġzaskarzonego": 2681,
      "gania": 2682,
      "Ġprywat": 2683,
      "ĠpÅĤatnosci": 2684,
      "niczy": 2685,
      "Ġref": 2686,
      "et": 2687,
      "Ġpols": 2688,
      "Ġzdrowia": 2689,
      "uszcza": 2690,
      "Ġ110": 2691,
      "0000": 2692,
      "Ġponow": 2693,
      "Ġeog": 2694,
      "Ġzgodne": 2695,
      "ÅĤod": 2696,
      "Ġstaw": 2697,
      "33": 2698,
      "dyn": 2699,
      "Ġmomen": 2700,
      "lia": 2701,
      "towa": 2702,
      "Ġintere": 2703,
      "Ġogranicza": 2704,
      "25": 2705,
      "Ġpol": 2706,
      "Ġsan": 2707,
      "stry": 2708,
      "Ġkomp": 2709,
      "Ġjednoli": 2710,
      "resz": 2711,
      "Ġspecjalistycznego": 2712,
      "Ġograniczenia": 2713,
      "Ġnaka": 2714,
      "Ġzamowienia": 2715,
      "Ġ2021": 2716,
      "Ġopublik": 2717,
      "Ġzarzadzania": 2718,
      "czym": 2719,
      "sto": 2720,
      "Ġrepubliki": 2721,
      "Ġinteres": 2722,
      "Ġkredytowania": 2723,
      "Ġpocza": 2724,
      "Ġumowa": 2725,
      "Ïħ": 2726,
      "Ġprzepisu": 2727,
      "Ġprzetwar": 2728,
      "Ġwyklu": 2729,
      "Ġcharakteru": 2730,
      "stal": 2731,
      "Ġ104": 2732,
      "Ġjednostki": 2733,
      "teks": 2734,
      "Ġtaryf": 2735,
      "Ġwydaje": 2736,
      "unkow": 2737,
      "skich": 2738,
      "gna": 2739,
      "Ġir": 2740,
      "Ġslsc": 2741,
      "Ġstanowia": 2742,
      "Ð°": 2743,
      "iow": 2744,
      "Ġodbior": 2745,
      "pnia": 2746,
      "Ġwyz": 2747,
      "29": 2748,
      "Ġstru": 2749,
      "zys": 2750,
      "Ġniezbedne": 2751,
      "Ġdniem": 2752,
      "mien": 2753,
      "Ġbas": 2754,
      "Ġumozliwia": 2755,
      "Ġroslin": 2756,
      "czyc": 2757,
      "Ġci": 2758,
      "Ġzdo": 2759,
      "Ġ'": 2760,
      "niom": 2761,
      "zycz": 2762,
      "Ġwspar": 2763,
      "Ġtwor": 2764,
      "zajac": 2765,
      "Ġ0001": 2766,
      "towania": 2767,
      "Ġokolicznosc": 2768,
      "Ġuk": 2769,
      "Ġwchodzi": 2770,
      "Ġznaczenie": 2771,
      "Ġbruks": 2772,
      "Ġproduc": 2773,
      "Ġfrancus": 2774,
      "ĠszczegoÅĤowe": 2775,
      "Ġpojazdu": 2776,
      "Ġuz": 2777,
      "olog": 2778,
      "Ġzobowiazan": 2779,
      "Ġwykaz": 2780,
      "Ġoczywi": 2781,
      "Ġwat": 2782,
      "Ġstanie": 2783,
      "Ġponiesi": 2784,
      "Ġpoziomie": 2785,
      "Ġab": 2786,
      "Ġeg": 2787,
      "Ġodstep": 2788,
      "Ġwykonywania": 2789,
      "Ġoperator": 2790,
      "ĠmogÅĤ": 2791,
      "Ġwraz": 2792,
      "Ġwstep": 2793,
      "Ġstro": 2794,
      "Ġpodstawowego": 2795,
      "kÅĤ": 2796,
      "Ġswiadec": 2797,
      "Ġzatwierd": 2798,
      "ger": 2799,
      "Ġzareje": 2800,
      "Ġfaktycz": 2801,
      "Ġmod": 2802,
      "nica": 2803,
      "Ġuprawnien": 2804,
      "kimi": 2805,
      "dza": 2806,
      "Ġprawne": 2807,
      "Ġpojazdow": 2808,
      "68": 2809,
      "Ġczasie": 2810,
      "Ġodrzu": 2811,
      "Ġaktywow": 2812,
      "Ġfunkcjon": 2813,
      "zch": 2814,
      "rec": 2815,
      "Ġmiesz": 2816,
      "Ġokolicznosciach": 2817,
      "Ġkonwencji": 2818,
      "skiego": 2819,
      "alnej": 2820,
      "Ġwniesi": 2821,
      "Ġpostaci": 2822,
      "Ġwzgledem": 2823,
      "zia": 2824,
      "nieniem": 2825,
      "cenia": 2826,
      "Ġuzasadnienia": 2827,
      "Ġpla": 2828,
      "Ġchwi": 2829,
      "Ġloka": 2830,
      "Ĥ¬": 2831,
      "ron": 2832,
      "Ġwd": 2833,
      "ĠâĤ¬": 2834,
      "skry": 2835,
      "Ġrodzin": 2836,
      "Ġudostep": 2837,
      "acego": 2838,
      "Ġklien": 2839,
      "owan": 2840,
      "Ġsztu": 2841,
      "ĠtÅĤu": 2842,
      "Ġprzytoczone": 2843,
      "Ġrozwia": 2844,
      "Ġpodstawowych": 2845,
      "sÅĤa": 2846,
      "Ġwymag": 2847,
      "Ġprzypom": 2848,
      "kien": 2849,
      "Ġzezwolenia": 2850,
      "Ġtransportu": 2851,
      "ĠrozdziaÅĤ": 2852,
      "Ġwszcze": 2853,
      "ĠwÅĤac": 2854,
      "lt": 2855,
      "ĠÅĤacz": 2856,
      "Ġdotyczacej": 2857,
      "czonego": 2858,
      "Ġzmniejs": 2859,
      "Ġotrzymuje": 2860,
      "Ġchor": 2861,
      "Ġfizycz": 2862,
      "Ïĥ": 2863,
      "Ġnatura": 2864,
      "Ġspecy": 2865,
      "Ġwymogow": 2866,
      "Ġportu": 2867,
      "Ġbadan": 2868,
      "Ġfakt": 2869,
      "Ġono": 2870,
      "Ġtransakcji": 2871,
      "Ġwszelkie": 2872,
      "Ġac": 2873,
      "iu": 2874,
      "Ġcuk": 2875,
      "Ġkompe": 2876,
      "tylo": 2877,
      "Ġrok": 2878,
      "tro": 2879,
      "mb": 2880,
      "Ġkomitetu": 2881,
      "Ġakty": 2882,
      "Ġprzeszkod": 2883,
      "Ġstwierdzenia": 2884,
      "74": 2885,
      "cznym": 2886,
      "ver": 2887,
      "Ġochrona": 2888,
      "ĠzÅĤ": 2889,
      "Ġszkody": 2890,
      "ierow": 2891,
      "Ġproporcjona": 2892,
      "Ġwnioskow": 2893,
      "16": 2894,
      "tekscie": 2895,
      "Ġkontekscie": 2896,
      "zer": 2897,
      "Ġnaby": 2898,
      "Ġkr": 2899,
      "Ġdal": 2900,
      "Ġpolega": 2901,
      "Ġwarunkach": 2902,
      "Ġprzeglad": 2903,
      "Ġmetody": 2904,
      "Ġopinia": 2905,
      "Ġgrzyw": 2906,
      "minu": 2907,
      "Ġmle": 2908,
      "niac": 2909,
      "Ġrealizacji": 2910,
      "ĠwpÅĤy": 2911,
      "Ġprzygo": 2912,
      "Ġprogramu": 2913,
      "Ġweg": 2914,
      "Ġzwy": 2915,
      "Ġinstan": 2916,
      "stego": 2917,
      "Ġbudze": 2918,
      "Ġcer": 2919,
      "Ġliczba": 2920,
      "Ġpodkres": 2921,
      "czyn": 2922,
      "Ġam": 2923,
      "Ġwnioski": 2924,
      "che": 2925,
      "Ġwers": 2926,
      "nan": 2927,
      "Ġbudow": 2928,
      "wazyc": 2929,
      "oma": 2930,
      "Ġ1998": 2931,
      "Ġste": 2932,
      "Ġinterne": 2933,
      "Ġsprawied": 2934,
      "Ġemery": 2935,
      "nicze": 2936,
      "Ġswia": 2937,
      "zonej": 2938,
      "Ġkarty": 2939,
      "Ġtrzeciego": 2940,
      "Ġadres": 2941,
      "Ġswoich": 2942,
      "ys": 2943,
      "Ġkapita": 2944,
      "ĠwÅĤokien": 2945,
      "Ġusu": 2946,
      "tomiast": 2947,
      "Ġdotyczaca": 2948,
      "Ġnatomiast": 2949,
      "Ġczym": 2950,
      "Ġltd": 2951,
      "Ġstar": 2952,
      "kro": 2953,
      "Ġpublicznych": 2954,
      "Ġpomoca": 2955,
      "Ġorganu": 2956,
      "zony": 2957,
      "Ġtek": 2958,
      "Ġurzedowym": 2959,
      "odob": 2960,
      "Ġwykonawcze": 2961,
      "syÅĤ": 2962,
      "Ġtraktat": 2963,
      "Ġzmian": 2964,
      "Ġutrzyma": 2965,
      "bra": 2966,
      "Ġwydat": 2967,
      "Ġprzypomniec": 2968,
      "02": 2969,
      "Ġpoby": 2970,
      "ografi": 2971,
      "ho": 2972,
      "Ġzywnosci": 2973,
      "jsci": 2974,
      "Ġemisji": 2975,
      "wna": 2976,
      "Ġorganow": 2977,
      "ps": 2978,
      "graf": 2979,
      "Ġrejestracji": 2980,
      "Ġniej": 2981,
      "17": 2982,
      "Ġwydania": 2983,
      "Ġsporu": 2984,
      "wot": 2985,
      "Ġwzor": 2986,
      "granicz": 2987,
      "szech": 2988,
      "Ġtowarowy": 2989,
      "Ġargumenty": 2990,
      "Ġgdzie": 2991,
      "miany": 2992,
      "Ġsierpnia": 2993,
      "car": 2994,
      "struktury": 2995,
      "towym": 2996,
      "Ġ&": 2997,
      "Ġhomolog": 2998,
      "Ġsrodowiska": 2999,
      "Ġoh": 3000,
      "Ġmniej": 3001,
      "Ġaty": 3002,
      "ĠpozostaÅĤych": 3003,
      "wany": 3004,
      "Ġhar": 3005,
      "Ġhiszpa": 3006,
      "Ð¸": 3007,
      "18": 3008,
      "ĠprzepÅĤyw": 3009,
      "Ġterminu": 3010,
      "sÅĤugu": 3011,
      "Ġniniejsza": 3012,
      "nes": 3013,
      "ĠwpÅĤywu": 3014,
      "nac": 3015,
      "Ġzawarte": 3016,
      "Ġproces": 3017,
      "Ġdek": 3018,
      "Ġpart": 3019,
      "fikow": 3020,
      "Ġrozstrzyg": 3021,
      "zajem": 3022,
      "Ġdzienniku": 3023,
      "ydro": 3024,
      "Ġprawna": 3025,
      "Ġmcy": 3026,
      "Ġznajduje": 3027,
      "Ġuwag": 3028,
      "cyjne": 3029,
      "Ġmajace": 3030,
      "Ġzie": 3031,
      "wienie": 3032,
      "Ġchin": 3033,
      "Ġkompeten": 3034,
      "Ġpodniesi": 3035,
      "Ġocenie": 3036,
      "ĠkapitaÅĤ": 3037,
      "Ġpowierzch": 3038,
      "owaniem": 3039,
      "Ġgdyby": 3040,
      "Ġrefund": 3041,
      "anki": 3042,
      "Ġsystemow": 3043,
      "Ġzostanie": 3044,
      "Ġcywi": 3045,
      "ation": 3046,
      "sku": 3047,
      "yczaj": 3048,
      "Ġsen": 3049,
      "Ġbada": 3050,
      "ĠpoÅĤacz": 3051,
      "kÅĤada": 3052,
      "Ġkil": 3053,
      "dopodob": 3054,
      "Ġczynnosci": 3055,
      "Ġodnawia": 3056,
      "Ġodpowiednich": 3057,
      "Ġogolne": 3058,
      "ĠwÅĤadze": 3059,
      "Ġposzczego": 3060,
      "towane": 3061,
      "Ġmoni": 3062,
      "Î·": 3063,
      "Ġwszelkich": 3064,
      "Ġinstytucja": 3065,
      "Ġvii": 3066,
      "wana": 3067,
      "Ġmed": 3068,
      "Ġroznych": 3069,
      "Ġuprawnienia": 3070,
      "ocen": 3071,
      "Ġzatrud": 3072,
      "ÅĤowo": 3073,
      "Ġmozliwe": 3074,
      "Ġnetto": 3075,
      "Ġponi": 3076,
      "45": 3077,
      "wic": 3078,
      "niania": 3079,
      "Ġjaki": 3080,
      "Ġustanawiajace": 3081,
      "Ġformie": 3082,
      "Ġwiec": 3083,
      "Ġforma": 3084,
      "Ġskarzacy": 3085,
      "Ġwymienione": 3086,
      "zem": 3087,
      "Ġprawnej": 3088,
      "Ġkoniecz": 3089,
      "Ġzapobie": 3090,
      "ĠwÅĤascicie": 3091,
      "zanych": 3092,
      "Ġwprowadzenia": 3093,
      "Ġpozwana": 3094,
      "czeni": 3095,
      "niczo": 3096,
      "Ġwymagania": 3097,
      "Ġkolejnosci": 3098,
      "Ġprzedstawione": 3099,
      "pera": 3100,
      "mowania": 3101,
      "Ġudzia": 3102,
      "rop": 3103,
      "gar": 3104,
      "Ġorz": 3105,
      "Ġhe": 3106,
      "Ġpublicznej": 3107,
      "Ġposred": 3108,
      "kier": 3109,
      "Ġnp": 3110,
      "mier": 3111,
      "gia": 3112,
      "Ġhandlu": 3113,
      "Ġjeden": 3114,
      "Ġkazdej": 3115,
      "Ġcar": 3116,
      "Ġmaszy": 3117,
      "Ġtwierd": 3118,
      "Ġokreslony": 3119,
      "Ġpp": 3120,
      "Ġwymiar": 3121,
      "owanym": 3122,
      "Ġanalizy": 3123,
      "Ġgrzywny": 3124,
      "Ġszero": 3125,
      "Ġbeda": 3126,
      "tru": 3127,
      "Ġmonitor": 3128,
      "Ġpodzia": 3129,
      "ĠwypÅĤac": 3130,
      "39": 3131,
      "Ġsci": 3132,
      "Ġohim": 3133,
      "nice": 3134,
      "Ġstre": 3135,
      "Ġpolityki": 3136,
      "Ġregiona": 3137,
      "38": 3138,
      "Ġwiaze": 3139,
      "Ġtrwa": 3140,
      "Ġpowyzszych": 3141,
      "Ġind": 3142,
      "Ġuzyskania": 3143,
      "Ġskutkow": 3144,
      "Ġupowaz": 3145,
      "oli": 3146,
      "Ġet": 3147,
      "Ġpierwot": 3148,
      "Ġwzajem": 3149,
      "Ġwiekszej": 3150,
      "Ġprawid": 3151,
      "Ġtrakcie": 3152,
      "Ġwyraznie": 3153,
      "77": 3154,
      "tery": 3155,
      "Ġponizej": 3156,
      "Ġrx": 3157,
      "Ġktorzy": 3158,
      "Ġdwu": 3159,
      "Ġhu": 3160,
      "kracza": 3161,
      "tach": 3162,
      "noscia": 3163,
      "Ġgb": 3164,
      "Ġodszkod": 3165,
      "io": 3166,
      "Ġpokry": 3167,
      "ÏĢ": 3168,
      "lnymi": 3169,
      "Ġmajacych": 3170,
      "Ġdefinic": 3171,
      "Ġie": 3172,
      "Ġpoziomu": 3173,
      "Ġdysp": 3174,
      "les": 3175,
      "ĠdokÅĤad": 3176,
      "ĠpoÅĤac": 3177,
      "Ġciagu": 3178,
      "rad": 3179,
      "Ġkwote": 3180,
      "Ġporowna": 3181,
      "Ġochro": 3182,
      "Ġtakim": 3183,
      "Ġniedop": 3184,
      "zonego": 3185,
      "Ġsrodek": 3186,
      "Ġren": 3187,
      "Ġdeleg": 3188,
      "ĠzÅĤozony": 3189,
      "Ġniezaleznie": 3190,
      "Ġwypadku": 3191,
      "bur": 3192,
      "Ġtowary": 3193,
      "Ġsprawiedliwosci": 3194,
      "Ġnieprzekracza": 3195,
      "Ġsektora": 3196,
      "Ġnau": 3197,
      "Ġwery": 3198,
      "ĠksztaÅĤ": 3199,
      "alnie": 3200,
      "Ġprzyna": 3201,
      "Ġmoc": 3202,
      "Ġutwor": 3203,
      "Ġkonc": 3204,
      "Ġgeografi": 3205,
      "ciem": 3206,
      "Ġbrukseli": 3207,
      "ĠprzesÅĤ": 3208,
      "Ġokreslonego": 3209,
      "Ġtrzy": 3210,
      "Ġprawdopodob": 3211,
      "Ġstwierdz": 3212,
      "Ġ220": 3213,
      "26": 3214,
      "Ġsprawozdaw": 3215,
      "Ġodse": 3216,
      "Ġdel": 3217,
      "Ġopiera": 3218,
      "Ġodpowiedzialnosci": 3219,
      "ngen": 3220,
      "kretar": 3221,
      "Ġwskaza": 3222,
      "Ġsamego": 3223,
      "Ġistnieje": 3224,
      "cic": 3225,
      "35": 3226,
      "Ġun": 3227,
      "liwa": 3228,
      "Ġutr": 3229,
      "zyj": 3230,
      "Ġprejudycjalne": 3231,
      "Ġaustr": 3232,
      "orac": 3233,
      "Ġwyposa": 3234,
      "Ġsekretar": 3235,
      "acyjnych": 3236,
      "Ġpowietrz": 3237,
      "zacego": 3238,
      "Ġpap": 3239,
      "Ġwspolnej": 3240,
      "ĠprzysÅĤugu": 3241,
      "towe": 3242,
      "alna": 3243,
      "Ġtru": 3244,
      "Ġgaz": 3245,
      "08": 3246,
      "Ġwyra": 3247,
      "Ġreferen": 3248,
      "niesienia": 3249,
      "ÅĤoby": 3250,
      "Ġwskazuje": 3251,
      "Ġkraju": 3252,
      "sti": 3253,
      "ĠogÅĤ": 3254,
      "dniego": 3255,
      "Ġstosownych": 3256,
      "Ġnastepujacych": 3257,
      "Ġbadz": 3258,
      "Ġparagraf": 3259,
      "Ġinstal": 3260,
      "dze": 3261,
      "czeniem": 3262,
      "Ġswie": 3263,
      "Ġmniejszej": 3264,
      "stek": 3265,
      "Ġzanie": 3266,
      "Ġumiesz": 3267,
      "stej": 3268,
      "Ġdyrektywe": 3269,
      "Ġudzielenie": 3270,
      "Ġadwo": 3271,
      "Ġsprzeciw": 3272,
      "Ġkore": 3273,
      "Ġzwyk": 3274,
      "Ġsporzadzono": 3275,
      "27": 3276,
      "Ġzasadniczo": 3277,
      "Ġzawierajace": 3278,
      "Ġpieniez": 3279,
      "Ġustal": 3280,
      "ĠsÅĤow": 3281,
      "Ġchwili": 3282,
      "Ġudzielenia": 3283,
      "zego": 3284,
      "Ðµ": 3285,
      "Ġskarge": 3286,
      "Ġtresci": 3287,
      "Ġprzech": 3288,
      "Ġdowodow": 3289,
      "Ġprzyjecia": 3290,
      "Ġpodobne": 3291,
      "Ġwody": 3292,
      "kor": 3293,
      "Ġunie": 3294,
      "Ġwspolnego": 3295,
      "eny": 3296,
      "Ġ125": 3297,
      "Ġotrzym": 3298,
      "Ġewentua": 3299,
      "ĠmogÅĤa": 3300,
      "Ġkodeksu": 3301,
      "Ġproducenta": 3302,
      "Ġwspolnotowy": 3303,
      "Ġuzgod": 3304,
      "Ġbene": 3305,
      "Ġmon": 3306,
      "ĠodwoÅĤania": 3307,
      "Ġpt": 3308,
      "ĠmogÅĤy": 3309,
      "Ġbr": 3310,
      "Ġjednostka": 3311,
      "Ġizby": 3312,
      "Ð¾": 3313,
      "zuja": 3314,
      "ÏĤ": 3315,
      "mping": 3316,
      "skrymina": 3317,
      "Ġinstancji": 3318,
      "Ġprowadzi": 3319,
      "85": 3320,
      "ĠudziaÅĤu": 3321,
      "Ġzarzadza": 3322,
      "dumping": 3323,
      "Ġwystepu": 3324,
      "praw": 3325,
      "Ġnaleznosci": 3326,
      "Ġpowaz": 3327,
      "Ġodniesienia": 3328,
      "Ġdeklar": 3329,
      "tiona": 3330,
      "Ġtrzech": 3331,
      "Ġnieruchomosci": 3332,
      "Ġdop": 3333,
      "Ġdanej": 3334,
      "ĠwyÅĤacz": 3335,
      "Ġzadanie": 3336,
      "Ġom": 3337,
      "Ġantydumping": 3338,
      "Ġobni": 3339,
      "ĠnaÅĤoz": 3340,
      "Ġdwa": 3341,
      "Ġkorzysci": 3342,
      "fikacja": 3343,
      "dniej": 3344,
      "Ġdochodzenia": 3345,
      "Ġniedopuszcza": 3346,
      "waniu": 3347,
      "Ġgod": 3348,
      "ocia": 3349,
      "Ġelementow": 3350,
      "ĠartykuÅĤu": 3351,
      "Ġurzedu": 3352,
      "Ġcerty": 3353,
      "Ġzagro": 3354,
      "Ġdopusz": 3355,
      "Ġdum": 3356,
      "Ġtemu": 3357,
      "Ġ080": 3358,
      "Ġdrugiego": 3359,
      "uf": 3360,
      "towego": 3361,
      "zacy": 3362,
      "wej": 3363,
      "Ġdodatku": 3364,
      "ĠstwierdziÅĤ": 3365,
      "Ġwejscia": 3366,
      "Ġwyrobow": 3367,
      "ĠdÅĤug": 3368,
      "Ġprzedstawienia": 3369,
      "tt": 3370,
      "reb": 3371,
      "para": 3372,
      "Ġistotne": 3373,
      "Ġdruga": 3374,
      "Ġrozpra": 3375,
      "Ġgospodarczej": 3376,
      "Ġindywidua": 3377,
      "Ġpowiad": 3378,
      "Ġmiesi": 3379,
      "Ġzmienione": 3380,
      "Ġstatkow": 3381,
      "Ġpunktu": 3382,
      "Ġprace": 3383,
      "Ġuznania": 3384,
      "Ġety": 3385,
      "ĠwÅĤasnosci": 3386,
      "Ġszy": 3387,
      "95": 3388,
      "ser": 3389,
      "Ġzabezpieczenia": 3390,
      "36": 3391,
      "Ġnarusze": 3392,
      "Ġekonomi": 3393,
      "Ġpozycje": 3394,
      "Ġpodda": 3395,
      "ist": 3396,
      "strow": 3397,
      "Ġbrzmieniu": 3398,
      "Ġzamawia": 3399,
      "Ġocze": 3400,
      "44": 3401,
      "Ġtechno": 3402,
      "Ġzobowiaza": 3403,
      "ĠzaÅĤo": 3404,
      "Ġpanstwami": 3405,
      "Ġpreze": 3406,
      "Ġzasob": 3407,
      "Ġdodatkowe": 3408,
      "Ġprawnego": 3409,
      "Ġobywatel": 3410,
      "zywania": 3411,
      "Ġinf": 3412,
      "ĠprzemysÅĤu": 3413,
      "Ġpoin": 3414,
      "Ġ1994": 3415,
      "Ġzapewnic": 3416,
      "acyjne": 3417,
      "isie": 3418,
      "Ġcukru": 3419,
      "Ġsprawozdania": 3420,
      "Ġniew": 3421,
      "Ġzawartosci": 3422,
      "ĠupÅĤy": 3423,
      "Ġstany": 3424,
      "lum": 3425,
      "uja": 3426,
      "Ġmian": 3427,
      "Ġobszarow": 3428,
      "Ġnadzoru": 3429,
      "Ġstosowanych": 3430,
      "Ġnowych": 3431,
      "Ġdanym": 3432,
      "Ġkazdy": 3433,
      "Ġwpis": 3434,
      "Ġstanu": 3435,
      "Ġdyrektor": 3436,
      "Ġbia": 3437,
      "Ġ1997": 3438,
      "Ġoperacyj": 3439,
      "28": 3440,
      "Ġzarzuty": 3441,
      "Ġstaty": 3442,
      "Ġurzadzen": 3443,
      "ĠÅĤac": 3444,
      "Ġszcze": 3445,
      "Ġprzewodnicz": 3446,
      "Ġpers": 3447,
      "ome": 3448,
      "Ġoparciu": 3449,
      "Ġwyzej": 3450,
      "Ġkontyngen": 3451,
      "Ġspowod": 3452,
      "Ġexc": 3453,
      "Ġdodaje": 3454,
      "Ġair": 3455,
      "iny": 3456,
      "Ġorzecznictwa": 3457,
      "ĠopÅĤaty": 3458,
      "ĠzgÅĤosz": 3459,
      "Ġobowiazkow": 3460,
      "Ġdump": 3461,
      "Ġznacz": 3462,
      "dnich": 3463,
      "Ġsmer": 3464,
      "hi": 3465,
      "Ġnl": 3466,
      "ĠÅĤacznie": 3467,
      "Ġnab": 3468,
      "Ġwywozu": 3469,
      "Ġwynosi": 3470,
      "Ġ020": 3471,
      "lach": 3472,
      "Ġzada": 3473,
      "66": 3474,
      "Ġnia": 3475,
      "rys": 3476,
      "Ġzatrudnienia": 3477,
      "wer": 3478,
      "Ġniderlan": 3479,
      "gami": 3480,
      "Ġtraktowania": 3481,
      "Ġprzewidzianych": 3482,
      "Ġowoc": 3483,
      "Ġokreslona": 3484,
      "Ġsekcja": 3485,
      "pc": 3486,
      "ly": 3487,
      "Ġpomiar": 3488,
      "Ġsekcji": 3489,
      "Ġdotycza": 3490,
      "Ġmechaniz": 3491,
      "Ġryb": 3492,
      "Ġzwieks": 3493,
      "Ġpunkt": 3494,
      "Ġoka": 3495,
      "ĠwÅĤasciwego": 3496,
      "ĠopÅĤat": 3497,
      "Ġzu": 3498,
      "Ġprzetar": 3499,
      "Ġkontrole": 3500,
      "Ġportuga": 3501,
      "Ġska": 3502,
      "Ġistnienia": 3503,
      "czona": 3504,
      "Ġkazda": 3505,
      "Ġopodatkowania": 3506,
      "spe": 3507,
      "Ġkryteriow": 3508,
      "Ġpodlegaja": 3509,
      "Ġrobo": 3510,
      "Ġcu": 3511,
      "Ġzamie": 3512,
      "Ġwzro": 3513,
      "Ġdokumentu": 3514,
      "Ġzamieszkania": 3515,
      "Ġkryterium": 3516,
      "waÅĤ": 3517,
      "49": 3518,
      "Ġbenefi": 3519,
      "Ġsektorze": 3520,
      "stron": 3521,
      "Ġubezpieczenia": 3522,
      "Ġodnosi": 3523,
      "ies": 3524,
      "Ġdominu": 3525,
      "Ġoprac": 3526,
      "Ġzauwazyc": 3527,
      "oba": 3528,
      "chu": 3529,
      "Ġpia": 3530,
      "37": 3531,
      "fiku": 3532,
      "Ġstatku": 3533,
      "Ġ1996": 3534,
      "skim": 3535,
      "sad": 3536,
      "Ġzi": 3537,
      "Ġprocen": 3538,
      "Ġpotwierdza": 3539,
      "Ġkwalifikowane": 3540,
      "Ġwielo": 3541,
      "oczy": 3542,
      "Ġpodstawy": 3543,
      "Ġtempera": 3544,
      "Ġprzedstawia": 3545,
      "Ġpasz": 3546,
      "menta": 3547,
      "Ġpu": 3548,
      "Ġsytuacja": 3549,
      "Ġnadzor": 3550,
      "wal": 3551,
      "Ġskutki": 3552,
      "Ġwewnetrznego": 3553,
      "Ġsama": 3554,
      "ĠpopeÅĤ": 3555,
      "Ġzewnetrz": 3556,
      "Ġwspiera": 3557,
      "Ġustanowie": 3558,
      "Ġpisem": 3559,
      "04": 3560,
      "Ġprzej": 3561,
      "sm": 3562,
      "Ġautor": 3563,
      "Ġprowadzenia": 3564,
      "05": 3565,
      "Ġokreslenia": 3566,
      "Ġpopar": 3567,
      "fo": 3568,
      "ingu": 3569,
      "Ġprocedur": 3570,
      "Ġporzad": 3571,
      "Ġodpad": 3572,
      "fika": 3573,
      "Ġwykonawczego": 3574,
      "cjen": 3575,
      "Ġgmi": 3576,
      "Ġpozba": 3577,
      "Ġpierwszym": 3578,
      "Ġodnawialne": 3579,
      "Ġbeneficjen": 3580,
      "Ġjas": 3581,
      "Ġprzechowy": 3582,
      "czony": 3583,
      "Ġobszarze": 3584,
      "Ġwsparcia": 3585,
      "ĠdÅĤuz": 3586,
      "Ġpobiera": 3587,
      "07": 3588,
      "ĠodwoÅĤawcza": 3589,
      "Ġobciazenie": 3590,
      "Ġdrog": 3591,
      "Ġpozwolenia": 3592,
      "Ġuwzglednic": 3593,
      "ĠsÅĤ": 3594,
      "Ġformu": 3595,
      "ĠwspoÅĤczyn": 3596,
      "Ġinformacja": 3597,
      "Ġinwestycyj": 3598,
      "ĠzgÅĤa": 3599,
      "Ġprzych": 3600,
      "landii": 3601,
      "Ġotwar": 3602,
      "acej": 3603,
      "Ġswojej": 3604,
      "reg": 3605,
      "Ġ115": 3606,
      "Ġrolnych": 3607,
      "bre": 3608,
      "Ġpochodzacych": 3609,
      "mow": 3610,
      "fikacje": 3611,
      "Ġhomologacji": 3612,
      "Ð½": 3613,
      "sr": 3614,
      "ju": 3615,
      "ĠspoÅĤek": 3616,
      "Ġmiejscu": 3617,
      "osi": 3618,
      "Ġlicen": 3619,
      "Ġzaleznosci": 3620,
      "Ġpojecie": 3621,
      "gas": 3622,
      "Ġelementy": 3623,
      "Ġkontrola": 3624,
      "Ġliczby": 3625,
      "84": 3626,
      "Ġzaku": 3627,
      "Ġzarzutow": 3628,
      "odow": 3629,
      "Ġdokumenty": 3630,
      "ted": 3631,
      "har": 3632,
      "Ġ107": 3633,
      "Ġgrun": 3634,
      "Ġ1995": 3635,
      "Ġaf": 3636,
      "ĠwÅĤasciwosci": 3637,
      "Ġinny": 3638,
      "Â°": 3639,
      "Ġcharaktery": 3640,
      "Ġchlor": 3641,
      "Ġswiadczen": 3642,
      "Ġhandlowych": 3643,
      "Ġograniczen": 3644,
      "Ġpismie": 3645,
      "Ġpotencja": 3646,
      "Ġbadanie": 3647,
      "Ġuzyc": 3648,
      "ĠspeÅĤnione": 3649,
      "91": 3650,
      "Ġniemcy": 3651,
      "Ġnajwyz": 3652,
      "Ġistocie": 3653,
      "liÅĤ": 3654,
      "tycznego": 3655,
      "Ġstowar": 3656,
      "wis": 3657,
      "waza": 3658,
      "Ġrozpo": 3659,
      "Ġkur": 3660,
      "jaco": 3661,
      "Ġorzecznictwem": 3662,
      "Ġppkt": 3663,
      "kcje": 3664,
      "Ġgeneralny": 3665,
      "Ġeuropejski": 3666,
      "Ġprzekro": 3667,
      "Ġpowszech": 3668,
      "Ġniektore": 3669,
      "Ġzostana": 3670,
      "Ġwielkosci": 3671,
      "Ġjaka": 3672,
      "reszcie": 3673,
      "Ġcena": 3674,
      "Ġwreszcie": 3675,
      "Ġzawartych": 3676,
      "Ġkarte": 3677,
      "Ġzatwierdz": 3678,
      "wien": 3679,
      "Ġwszystkim": 3680,
      "06": 3681,
      "Ġostatnio": 3682,
      "orter": 3683,
      "Ġznaczenia": 3684,
      "Ġinnej": 3685,
      "rzad": 3686,
      "Ġrzadu": 3687,
      "dera": 3688,
      "Ġobejmu": 3689,
      "Ġog": 3690,
      "Ġgodzi": 3691,
      "Ġustalenie": 3692,
      "Ġav": 3693,
      "que": 3694,
      "bywa": 3695,
      "ld": 3696,
      "Ġ105": 3697,
      "Ġzmierza": 3698,
      "Ġwatp": 3699,
      "ejs": 3700,
      "Ġkolum": 3701,
      "Ġhydro": 3702,
      "Ġobecnie": 3703,
      "Ġbil": 3704,
      "Ġinterwe": 3705,
      "Ġprzedstawiciele": 3706,
      "Ġstwierdza": 3707,
      "ĠbÅĤad": 3708,
      "rysdy": 3709,
      "Ġutrzym": 3710,
      "Ġwynikajacych": 3711,
      "ina": 3712,
      "Ġzadan": 3713,
      "Ġjurysdy": 3714,
      "Ġwnosi": 3715,
      "Ġopro": 3716,
      "Ġwymagane": 3717,
      "Ġustawa": 3718,
      "cyjnego": 3719,
      "Ġsprawozdanie": 3720,
      "Ġautom": 3721,
      "Ġpobytu": 3722,
      "ĠÂ°": 3723,
      "Ġkierow": 3724,
      "Î»": 3725,
      "ĠkapitaÅĤu": 3726,
      "Ġuzyt": 3727,
      "Ġuznaje": 3728,
      "Ġpodmiotu": 3729,
      "Ġuzysk": 3730,
      "ler": 3731,
      "Ġilosc": 3732,
      "Ġpoinform": 3733,
      "Ġszczegolne": 3734,
      "ologi": 3735,
      "robi": 3736,
      "Ġkonsumentow": 3737,
      "Ġprzeznaczenia": 3738,
      "Ġzwrotu": 3739,
      "Ġbg": 3740,
      "03": 3741,
      "Ġstronie": 3742,
      "Ġswobodnego": 3743,
      "Ġokreslonym": 3744,
      "Ġprawie": 3745,
      "nianie": 3746,
      "Ġ112": 3747,
      "ok": 3748,
      "ĠzapÅĤaty": 3749,
      "Ġpojecia": 3750,
      "Ġzadnego": 3751,
      "pro": 3752,
      "Ġdowo": 3753,
      "Ġth": 3754,
      "Ġ030": 3755,
      "Ġpozy": 3756,
      "towi": 3757,
      "Ġdaty": 3758,
      "47": 3759,
      "Ġkwas": 3760,
      "dyna": 3761,
      "Ġustaw": 3762,
      "gh": 3763,
      "cyjnej": 3764,
      "Ġkomitet": 3765,
      "ĠprzedÅĤu": 3766,
      "Ġinwestycji": 3767,
      "pien": 3768,
      "Ġuch": 3769,
      "Ġwyroby": 3770,
      "Ġwynikajace": 3771,
      "Ġsobie": 3772,
      "zyÅĤ": 3773,
      "Ġpostanowienie": 3774,
      "Ġsamej": 3775,
      "ĠorzekÅĤ": 3776,
      "Ġmin": 3777,
      "Ġjeszcze": 3778,
      "anu": 3779,
      "Ġszo": 3780,
      "ĠnakÅĤada": 3781,
      "tytu": 3782,
      "Ġprojektu": 3783,
      "lonej": 3784,
      "Ġpomi": 3785,
      "ĠsÅĤuzby": 3786,
      "ana": 3787,
      "it": 3788,
      "Ġpersone": 3789,
      "ĠogÅĤos": 3790,
      "Ġniepra": 3791,
      "Ġistnienie": 3792,
      "Ġsur": 3793,
      "Ġmotywie": 3794,
      "Ġspad": 3795,
      "wiera": 3796,
      "zacja": 3797,
      "Ġfinansowego": 3798,
      "Ġjednostek": 3799,
      "tera": 3800,
      "Ġrownowaz": 3801,
      "Ġrezy": 3802,
      "Ġuprze": 3803,
      "65": 3804,
      "Ġfir": 3805,
      "Ġgor": 3806,
      "Ġgrup": 3807,
      "Ġkwestion": 3808,
      "Ġwor": 3809,
      "Ġ207": 3810,
      "Ġnieprawid": 3811,
      "ĠprzesyÅĤ": 3812,
      "bc": 3813,
      "Ġdokonania": 3814,
      "jmniej": 3815,
      "32": 3816,
      "Ġjednoczes": 3817,
      "Ġkrajow": 3818,
      "Ġtj": 3819,
      "Ġspozyw": 3820,
      "Ġinterwenien": 3821,
      "Ġeksportu": 3822,
      "Ġ300": 3823,
      "Ġubezpieczen": 3824,
      "Ġokreslonej": 3825,
      "Îº": 3826,
      "Ġparlament": 3827,
      "Ġbiorac": 3828,
      "Ġkwot": 3829,
      "ret": 3830,
      "Ġposzczegolnych": 3831,
      "Ġpri": 3832,
      "romad": 3833,
      "Ġodreb": 3834,
      "Ġrozsze": 3835,
      "Ġben": 3836,
      "Ġrynek": 3837,
      "Ġpopra": 3838,
      "Ġmomencie": 3839,
      "wali": 3840,
      "Ġuwzglednieniem": 3841,
      "ĠmiaÅĤa": 3842,
      "ipo": 3843,
      "69": 3844,
      "Ġgminy": 3845,
      "Ġuchyla": 3846,
      "Ġpasa": 3847,
      "ĠuzupeÅĤnia": 3848,
      "Ġciag": 3849,
      "Ġvan": 3850,
      "ĠartykuÅĤy": 3851,
      "Ġtabeli": 3852,
      "Ġjedn": 3853,
      "Ġapr": 3854,
      "Ġwynagrodzenia": 3855,
      "Ġprawodaw": 3856,
      "88": 3857,
      "las": 3858,
      "Ġprzejsci": 3859,
      "Ġuzasadnione": 3860,
      "Ġpracodaw": 3861,
      "Ġskarzacego": 3862,
      "Ġprzynajmniej": 3863,
      "Ġsiedzibe": 3864,
      "up": 3865,
      "per": 3866,
      "Ġdecy": 3867,
      "spek": 3868,
      "orow": 3869,
      "Ġpism": 3870,
      "uzu": 3871,
      "acyjny": 3872,
      "aci": 3873,
      "Ġzatytu": 3874,
      "Ġaktow": 3875,
      "rl": 3876,
      "raca": 3877,
      "Ġprp": 3878,
      "Ġopodatk": 3879,
      "ĠmiaÅĤ": 3880,
      "Ġuchybie": 3881,
      "Ġkomunika": 3882,
      "55": 3883,
      "Ġpowierzchni": 3884,
      "cep": 3885,
      "Ġeuipo": 3886,
      "try": 3887,
      "mer": 3888,
      "Ġzakresem": 3889,
      "owicie": 3890,
      "Ġdodatkowych": 3891,
      "two": 3892,
      "Ġmianowicie": 3893,
      "Ġdos": 3894,
      "Ġpotrzeb": 3895,
      "Ġuznane": 3896,
      "tycznej": 3897,
      "Ġprzeznaczone": 3898,
      "Ġver": 3899,
      "Ġman": 3900,
      "Ġfinansowania": 3901,
      "Ġksie": 3902,
      "tional": 3903,
      "Ġzachowania": 3904,
      "Ġjednym": 3905,
      "Ġoczeki": 3906,
      "czonym": 3907,
      "cenie": 3908,
      "Ġrejest": 3909,
      "Ġodzy": 3910,
      "41": 3911,
      "dziec": 3912,
      "ĠpeÅĤni": 3913,
      "Ġnieprzekraczajacej": 3914,
      "Ġinfor": 3915,
      "Ġfaktu": 3916,
      "ÑĢ": 3917,
      "Ġzmiana": 3918,
      "Ġkompetencji": 3919,
      "Ġograniczenie": 3920,
      "Ġokreslenie": 3921,
      "Ġgro": 3922,
      "Ġtechnicznych": 3923,
      "ĠprotokoÅĤu": 3924,
      "Ġgdyz": 3925,
      "Ġolej": 3926,
      "Ġaz": 3927,
      "com": 3928,
      "Ġwow": 3929,
      "Ġnaruszy": 3930,
      "46": 3931,
      "Ġnarusza": 3932,
      "Ġwowczas": 3933,
      "Ġkonta": 3934,
      "ĠzgÅĤoszenia": 3935,
      "Ġstruktu": 3936,
      "Ġnarod": 3937,
      "Ġzasobow": 3938,
      "ody": 3939,
      "Ġnadal": 3940,
      "Ġzwolnienia": 3941,
      "Ġdow": 3942,
      "ĠpowoÅĤa": 3943,
      "ĠgÅĤowne": 3944,
      "Ġkorzyst": 3945,
      "Ġinfra": 3946,
      "moni": 3947,
      "Ġwymiany": 3948,
      "Ġswiadczenie": 3949,
      "Ġkan": 3950,
      "Ġwykorzystywa": 3951,
      "Ġprzedstawiciel": 3952,
      "Ġdoprowad": 3953,
      "Ġnadu": 3954,
      "lasy": 3955,
      "Ġodes": 3956,
      "mbh": 3957,
      "ĠszczegoÅĤowo": 3958,
      "Ġwynik": 3959,
      "Ġodpadow": 3960,
      "Ġstanowisko": 3961,
      "zyÅĤa": 3962,
      "rr": 3963,
      "Ġpob": 3964,
      "Î¼": 3965,
      "Ġdziec": 3966,
      "Ġfedera": 3967,
      "Ġstad": 3968,
      "Ġrozpocze": 3969,
      "Ġgwarancji": 3970,
      "cyjna": 3971,
      "Ġrosz": 3972,
      "Ġobszaru": 3973,
      "Ġwspomnianego": 3974,
      "Ġprojekt": 3975,
      "ĠwÅĤasciwych": 3976,
      "ĠpowoÅĤu": 3977,
      "Ġprzeszkodzie": 3978,
      "Ġgmbh": 3979,
      "Ġklauzu": 3980,
      "Ġkredytowej": 3981,
      "75": 3982,
      "Ġstanowic": 3983,
      "Ġzagwaran": 3984,
      "rzenia": 3985,
      "Ġdk": 3986,
      "Ġwytwarzanie": 3987,
      "run": 3988,
      "Ġoblicza": 3989,
      "Ġszczegolnych": 3990,
      "Ġpowyzszego": 3991,
      "widen": 3992,
      "Ġmiesza": 3993,
      "Ġpostanowien": 3994,
      "Ġgeneralnego": 3995,
      "man": 3996,
      "Ġmt": 3997,
      "vo": 3998,
      "Ġjezyku": 3999,
      "Ġ103": 4000,
      "Ġcomp": 4001,
      "62": 4002,
      "jona": 4003,
      "lacji": 4004,
      "kowym": 4005,
      "acyjnego": 4006,
      "Ġramy": 4007,
      "Ġmaksyma": 4008,
      "Ġnastepujacy": 4009,
      "Ġspot": 4010,
      "ĠprzepÅĤywu": 4011,
      "dzo": 4012,
      "Ġprzysz": 4013,
      "Ġwykorzystania": 4014,
      "Ġbank": 4015,
      "Ġfaktycznych": 4016,
      "zw": 4017,
      "Ġuzasadnienie": 4018,
      "Ġrefundacji": 4019,
      "Ġnowe": 4020,
      "nictwem": 4021,
      "ĠpoÅĤowow": 4022,
      "Ġbardzo": 4023,
      "ĠmiaÅĤy": 4024,
      "zji": 4025,
      "71": 4026,
      "Ġdystry": 4027,
      "Ġwprowadzenie": 4028,
      "leniu": 4029,
      "racja": 4030,
      "ĠukÅĤadu": 4031,
      "Ġwal": 4032,
      "Ġwspolnote": 4033,
      "Ġprzedstawionych": 4034,
      "lony": 4035,
      "Ġzamowien": 4036,
      "Ġzastrzezeniem": 4037,
      "ding": 4038,
      "ĠodesÅĤa": 4039,
      "Ġtechnolo": 4040,
      "niny": 4041,
      "Ġkoncen": 4042,
      "Ġ108": 4043,
      "bar": 4044,
      "Ġcelne": 4045,
      "Ġdyrektywie": 4046,
      "Ġzarejestr": 4047,
      "Ġoddzie": 4048,
      "Ġprzetwarzania": 4049,
      "ĠtÅĤuszcz": 4050,
      "ĠuznaÅĤ": 4051,
      "Ġzde": 4052,
      "Ġgrupa": 4053,
      "stwem": 4054,
      "Ġ102": 4055,
      "98": 4056,
      "Ġfar": 4057,
      "Ġfin": 4058,
      "Ġzz": 4059,
      "Ġis": 4060,
      "Ïī": 4061,
      "Ġodpowiedzialnosc": 4062,
      "Ġpodpis": 4063,
      "Ġstanowiska": 4064,
      "Ġustalania": 4065,
      "Ġtymi": 4066,
      "Ġefe": 4067,
      "Ġdostepne": 4068,
      "wanego": 4069,
      "Ġ1993": 4070,
      "Ġee": 4071,
      "Ġspa": 4072,
      "Ġ5493": 4073,
      "Ġas": 4074,
      "Ġwczesniej": 4075,
      "Ġzaj": 4076,
      "niowe": 4077,
      "Ġopak": 4078,
      "ven": 4079,
      "Ġsubstancje": 4080,
      "ĠspoÅĤke": 4081,
      "Ġjakich": 4082,
      "Ġalko": 4083,
      "pans": 4084,
      "Ġskier": 4085,
      "Ġdlatego": 4086,
      "zalez": 4087,
      "ĠwkÅĤad": 4088,
      "Ġdotyczacym": 4089,
      "Ġporowny": 4090,
      "Ġodroz": 4091,
      "Ġwzgledow": 4092,
      "ĠwypeÅĤ": 4093,
      "Ġstali": 4094,
      "Ġ1992": 4095,
      "Ġorganizacje": 4096,
      "Ġposiadac": 4097,
      "Ġludzi": 4098,
      "komp": 4099,
      "Ġstref": 4100,
      "zar": 4101,
      "Ġzaw": 4102,
      "Ġeksplo": 4103,
      "Ġtrwania": 4104,
      "nionego": 4105,
      "ĠwÅĤasne": 4106,
      "Ġznakow": 4107,
      "Ġpracownika": 4108,
      "Ġautoma": 4109,
      "Ġuszcze": 4110,
      "ll": 4111,
      "58": 4112,
      "Ġniezna": 4113,
      "Ġaut": 4114,
      "Ġradzie": 4115,
      "Ġzdolnosci": 4116,
      "kwid": 4117,
      "Ġzakaz": 4118,
      "racje": 4119,
      "Ġspoj": 4120,
      "Ġodstepstwa": 4121,
      "Ġcelnych": 4122,
      "Ġskon": 4123,
      "Ġinna": 4124,
      "Ġpublik": 4125,
      "stapienia": 4126,
      "Ġhiszpans": 4127,
      "Ġgodzin": 4128,
      "ĠwÅĤasnych": 4129,
      "gow": 4130,
      "Ġcm": 4131,
      "Ġdystrybu": 4132,
      "Ġharmoni": 4133,
      "Ġunik": 4134,
      "Ġrejestru": 4135,
      "ĠwÅĤacznie": 4136,
      "Ġ549300": 4137,
      "now": 4138,
      "Ġobiektyw": 4139,
      "áĥ": 4140,
      "Ġprak": 4141,
      "Ġdowody": 4142,
      "Ġchy": 4143,
      "odzie": 4144,
      "niÅĤa": 4145,
      "Ġprzyjmu": 4146,
      "Ġwieks": 4147,
      "Ġnastapi": 4148,
      "Ġsprzedaz": 4149,
      "Ġwynoszac": 4150,
      "Ġzwal": 4151,
      "Ġ500": 4152,
      "Ġinstrument": 4153,
      "Ġgospodarcza": 4154,
      "ĠzakÅĤ": 4155,
      "Ġgre": 4156,
      "ĠprzesÅĤanki": 4157,
      "67": 4158,
      "Ġformular": 4159,
      "Ġadwoka": 4160,
      "ĠczÅĤonkowskimi": 4161,
      "Ġtyp": 4162,
      "Ġstopien": 4163,
      "Ġwyjasnia": 4164,
      "Ġzespo": 4165,
      "ĠobsÅĤu": 4166,
      "Ġul": 4167,
      "Ġsytuacje": 4168,
      "ksem": 4169,
      "Ġwykazie": 4170,
      "Ġpouf": 4171,
      "Ġwez": 4172,
      "Ġpoparcie": 4173,
      "lonego": 4174,
      "gne": 4175,
      "lina": 4176,
      "Ġstosowac": 4177,
      "Ġuje": 4178,
      "Ġdyskrymina": 4179,
      "Ġwspolnocie": 4180,
      "Ġmsr": 4181,
      "tyczna": 4182,
      "Ġmss": 4183,
      "Ġczyli": 4184,
      "stytu": 4185,
      "Ġkrolestwa": 4186,
      "Ġskutecznosci": 4187,
      "Ġpojem": 4188,
      "nictwo": 4189,
      "Ġlata": 4190,
      "Ġwatpliwosci": 4191,
      "Ġminister": 4192,
      "Ġaktywa": 4193,
      "Ġstopniu": 4194,
      "Ġrzecznika": 4195,
      "niego": 4196,
      "Ġcyk": 4197,
      "Ġciep": 4198,
      "Ġhol": 4199,
      "Ġosobe": 4200,
      "Ġina": 4201,
      "Ġchyba": 4202,
      "Ġowocow": 4203,
      "ĠskÅĤ": 4204,
      "Ġpodstawa": 4205,
      "Ġokreslonymi": 4206,
      "Ġubezpieczeni": 4207,
      "Ġosiagniecia": 4208,
      "Ġogolnego": 4209,
      "Ġrozpozna": 4210,
      "formu": 4211,
      "Ġtekst": 4212,
      "Ġmssf": 4213,
      "Ġeksploat": 4214,
      "Ġzaden": 4215,
      "Ġ120": 4216,
      "Ġcas": 4217,
      "Ġrozwaz": 4218,
      "ĠbÅĤed": 4219,
      "Ġform": 4220,
      "Ġopie": 4221,
      "fini": 4222,
      "moc": 4223,
      "Ġnume": 4224,
      "Ġinc": 4225,
      "Ġzdar": 4226,
      "Ġprzede": 4227,
      "Ġrzeczywist": 4228,
      "Ġobjetego": 4229,
      "ung": 4230,
      "Ġinteresow": 4231,
      "Ġinstrumentow": 4232,
      "Ġwielkosc": 4233,
      "Ġbedacych": 4234,
      "ft": 4235,
      "Ġpierwsza": 4236,
      "ĠÎ±": 4237,
      "Ġwynikow": 4238,
      "niesienie": 4239,
      "Ġadministracji": 4240,
      "wencja": 4241,
      "Ġstrate": 4242,
      "Ġunia": 4243,
      "Ġprocesu": 4244,
      "Ġwalu": 4245,
      "ĠpoÅĤaczonych": 4246,
      "ÑĤ": 4247,
      "Ġprodukcja": 4248,
      "Ġwiad": 4249,
      "Ġpolska": 4250,
      "Ġzainteresowane": 4251,
      "Ġhr": 4252,
      "Ġluksem": 4253,
      "onow": 4254,
      "Ġobjety": 4255,
      "owaÅĤy": 4256,
      "tora": 4257,
      "Ġwspolnotowych": 4258,
      "Ġtar": 4259,
      "Ġpostanowi": 4260,
      "sznie": 4261,
      "ph": 4262,
      "Ġrestruktury": 4263,
      "Ġzagranicz": 4264,
      "Ġpros": 4265,
      "Ġzasade": 4266,
      "Ġbilans": 4267,
      "yczy": 4268,
      "Ġumie": 4269,
      "Ġfinansowej": 4270,
      "Ġkoor": 4271,
      "Ġrachunkow": 4272,
      "Ġlikwid": 4273,
      "Ġzadnych": 4274,
      "noc": 4275,
      "200": 4276,
      "waj": 4277,
      "Ġistotnych": 4278,
      "Ġrekla": 4279,
      "Ġâī": 4280,
      "Ġrodziny": 4281,
      "Ġrac": 4282,
      "Ġprzedsiew": 4283,
      "Ġdes": 4284,
      "Ġtymczasem": 4285,
      "Ġunijnego": 4286,
      "Ġgu": 4287,
      "Ġtrud": 4288,
      "Ġcele": 4289,
      "Ġustalic": 4290,
      "ĠwÅĤaczajac": 4291,
      "Ġ106": 4292,
      "Ġ1510": 4293,
      "czysz": 4294,
      "Ġoddalic": 4295,
      "ĠÅĤ": 4296,
      "Ġzdrow": 4297,
      "Ġprzewidy": 4298,
      "zacje": 4299,
      "ĠprzedÅĤoz": 4300,
      "cyjny": 4301,
      "Ġwygas": 4302,
      "Ġogolnych": 4303,
      "Ġskarzacych": 4304,
      "ĠwykÅĤadnia": 4305,
      "Ġgatunkow": 4306,
      "Ġel": 4307,
      "43": 4308,
      "Ġemeryta": 4309,
      "Ġinterna": 4310,
      "ĠâĢ²": 4311,
      "Ġrynkow": 4312,
      "Ġoperacji": 4313,
      "Ġsied": 4314,
      "Ġzdrowot": 4315,
      "denta": 4316,
      "Ġosobowych": 4317,
      "Ġprzywozie": 4318,
      "Ġpojazd": 4319,
      "Ġadministracyjnych": 4320,
      "Ġobrony": 4321,
      "Ġoferty": 4322,
      "Ġwiadom": 4323,
      "ĠmaÅĤ": 4324,
      "tes": 4325,
      "Ġprogramow": 4326,
      "Ġmimo": 4327,
      "Ġfo": 4328,
      "Ġsiedziba": 4329,
      "Ġelektrycznej": 4330,
      "Ġprzegladu": 4331,
      "Ġye": 4332,
      "Ġcelnego": 4333,
      "Ġprzedsiewzie": 4334,
      "Ġlv": 4335,
      "Ġif": 4336,
      "pl": 4337,
      "Ñģ": 4338,
      "Ġsprzeci": 4339,
      "Ġkrot": 4340,
      "Ġnimi": 4341,
      "Ġzapewnienie": 4342,
      "landia": 4343,
      "Ġtyczy": 4344,
      "Ġwarzyw": 4345,
      "Ġgrzy": 4346,
      "Ġprzyjete": 4347,
      "Ġswobody": 4348,
      "Ġwykazu": 4349,
      "Ġzasadami": 4350,
      "Ġzroz": 4351,
      "Ġodmien": 4352,
      "Ġposrednictwem": 4353,
      "Ġoznaczenia": 4354,
      "ir": 4355,
      "Ġinspek": 4356,
      "ĠuÅĤat": 4357,
      "ens": 4358,
      "Ġsoba": 4359,
      "ture": 4360,
      "Ġprzewidzianego": 4361,
      "Ġkorzystania": 4362,
      "Ġzezwolenie": 4363,
      "Ġprzypis": 4364,
      "ĠmateriaÅĤy": 4365,
      "zki": 4366,
      "Ġnajp": 4367,
      "Ġtka": 4368,
      "Ġmiejsc": 4369,
      "Ġuzasadnia": 4370,
      "Ġorzeka": 4371,
      "Ġtest": 4372,
      "Ġzamk": 4373,
      "Ġkana": 4374,
      "Ġocene": 4375,
      "ĠpoÅĤnoc": 4376,
      "Ġrzecznik": 4377,
      "Ġwykonanie": 4378,
      "Ġwydatkow": 4379,
      "ĠzaÅĤacznikiem": 4380,
      "Ġrealiz": 4381,
      "Ġrodzi": 4382,
      "lizacji": 4383,
      "Ġprzeprowadzenia": 4384,
      "57": 4385,
      "Ġcentralnych": 4386,
      "Ġofe": 4387,
      "Ġwidzenia": 4388,
      "Ġtransport": 4389,
      "54": 4390,
      "Ġzmieniajace": 4391,
      "Ġkm": 4392,
      "Ġswiat": 4393,
      "Ġwytwor": 4394,
      "Ġzboz": 4395,
      "Ġnomen": 4396,
      "Ġofert": 4397,
      "Ġelement": 4398,
      "Ġuchwa": 4399,
      "Ġnieob": 4400,
      "Ġpokr": 4401,
      "wanej": 4402,
      "Ġpodstawe": 4403,
      "Ġdany": 4404,
      "jskich": 4405,
      "fer": 4406,
      "Ġposzan": 4407,
      "Ġuszczerb": 4408,
      "Ġsedzi": 4409,
      "Ġnomenkla": 4410,
      "64": 4411,
      "Ġopinie": 4412,
      "Ġnazwy": 4413,
      "wnatrz": 4414,
      "Ġsformu": 4415,
      "ĠtytuÅĤem": 4416,
      "Ġzesta": 4417,
      "Ġkw": 4418,
      "ĠudziaÅĤow": 4419,
      "Ġpowodz": 4420,
      "Ġregulu": 4421,
      "Ġlimi": 4422,
      "Ġdefini": 4423,
      "Ġobu": 4424,
      "Ġbedace": 4425,
      "Ġec": 4426,
      "ĠnaÅĤo": 4427,
      "Ġzawies": 4428,
      "Ġwysokosc": 4429,
      "81": 4430,
      "ĠspoÅĤecznego": 4431,
      "Ġoblicz": 4432,
      "wione": 4433,
      "59": 4434,
      "kon": 4435,
      "Ġpred": 4436,
      "terna": 4437,
      "Ġmg": 4438,
      "Î¿Ïħ": 4439,
      "Ġurod": 4440,
      "Ġsg": 4441,
      "kowo": 4442,
      "Ġobejm": 4443,
      "Ġfunduszy": 4444,
      "Ġprezes": 4445,
      "Ġnarze": 4446,
      "zaniu": 4447,
      "ĠwÅĤasciwym": 4448,
      "Ġrea": 4449,
      "ĠÎ¼": 4450,
      "Ġ2022": 4451,
      "Ġwykorzysty": 4452,
      "Ġokreslic": 4453,
      "ĠskÅĤadania": 4454,
      "onek": 4455,
      "Ġspornej": 4456,
      "Ġtabela": 4457,
      "tal": 4458,
      "Ġhiszpanii": 4459,
      "Ġpodejs": 4460,
      "Ġnoty": 4461,
      "09": 4462,
      "Ġnastepstwie": 4463,
      "Ġprawdopodobien": 4464,
      "Ġdowodu": 4465,
      "mar": 4466,
      "Ġwyboru": 4467,
      "Ġinteresu": 4468,
      "Ġpodatek": 4469,
      "Ġochrone": 4470,
      "Ġkoniecznosci": 4471,
      "adamia": 4472,
      "Ġpostepowaniem": 4473,
      "zaÅĤo": 4474,
      "rem": 4475,
      "Ġprzestep": 4476,
      "Ġinaczej": 4477,
      "Ġprzeznaczonych": 4478,
      "Ġodmowy": 4479,
      "lis": 4480,
      "Ġzdanie": 4481,
      "Ġbro": 4482,
      "Ġwyniki": 4483,
      "Ġuzalez": 4484,
      "Ġrzeczywiscie": 4485,
      "Ġsentencja": 4486,
      "lania": 4487,
      "Ġnapra": 4488,
      "Ġzaskarzona": 4489,
      "Ġidentyfik": 4490,
      "tel": 4491,
      "Ġzdefini": 4492,
      "acjach": 4493,
      "ode": 4494,
      "Ġwspolne": 4495,
      "Ġprzekraczajacej": 4496,
      "Ġagencji": 4497,
      "Ġangie": 4498,
      "Ġkiedy": 4499,
      "Ġzwana": 4500,
      "fr": 4501,
      "Ġwystapi": 4502,
      "Ġruchu": 4503,
      "Ġfunduszu": 4504,
      "ine": 4505,
      "Ġkli": 4506,
      "Ġnot": 4507,
      "Ġraz": 4508,
      "Ġposie": 4509,
      "ĠdziaÅĤanie": 4510,
      "ÅĤata": 4511,
      "Ġstawki": 4512,
      "Ġiso": 4513,
      "des": 4514,
      "63": 4515,
      "Ġder": 4516,
      "Ġzasadzie": 4517,
      "Ġfunkcji": 4518,
      "Ġpasaze": 4519,
      "czonej": 4520,
      "niczne": 4521,
      "Ġpodejm": 4522,
      "Ġuszczerbku": 4523,
      "korzyst": 4524,
      "Ġdre": 4525,
      "tycznie": 4526,
      "Ġtrad": 4527,
      "Ġprzyznanie": 4528,
      "are": 4529,
      "Ġsyn": 4530,
      "82": 4531,
      "am": 4532,
      "61": 4533,
      "Ġyear": 4534,
      "Ġwytycznych": 4535,
      "Ġprzyjac": 4536,
      "87": 4537,
      "ĠprawidÅĤ": 4538,
      "Ġustalen": 4539,
      "ĠpeÅĤnomocnikow": 4540,
      "bud": 4541,
      "cc": 4542,
      "Ġsoli": 4543,
      "53": 4544,
      "Ġho": 4545,
      "mian": 4546,
      "Ġpodobnych": 4547,
      "Ġwykonu": 4548,
      "Ġfinan": 4549,
      "ÅĤocznie": 4550,
      "ĠzapÅĤac": 4551,
      "zach": 4552,
      "tz": 4553,
      "nicznych": 4554,
      "Ġustalone": 4555,
      "ĠtrybunaÅĤowi": 4556,
      "Ġopublikowaniu": 4557,
      "Ġnorm": 4558,
      "Ġanaliza": 4559,
      "Ġrozne": 4560,
      "Ġlud": 4561,
      "Ġfra": 4562,
      "kcja": 4563,
      "ĠpozostaÅĤosci": 4564,
      "Ġwybor": 4565,
      "ĠwÅĤadz": 4566,
      "ĠzatytuÅĤow": 4567,
      "ĠzgÅĤasza": 4568,
      "Ġjp": 4569,
      "Ġuzytkownikow": 4570,
      "ĠprzesÅĤa": 4571,
      "Ġetapie": 4572,
      "Ġdostarcza": 4573,
      "Ġokreslono": 4574,
      "tedy": 4575,
      "Ġstoi": 4576,
      "Ġodsetek": 4577,
      "Ġwspolnota": 4578,
      "Ġwtedy": 4579,
      "Ġjednoczesnie": 4580,
      "ane": 4581,
      "Ġlekar": 4582,
      "ĠbyÅĤoby": 4583,
      "Ġnormy": 4584,
      "Ġzapis": 4585,
      "ther": 4586,
      "Ġproporcjonalnosci": 4587,
      "Ġuniewaz": 4588,
      "Ġgrec": 4589,
      "lep": 4590,
      "ande": 4591,
      "Ġpodatkowego": 4592,
      "tur": 4593,
      "Ġrybo": 4594,
      "Ġobywateli": 4595,
      "Ġdefinicja": 4596,
      "ĠdziaÅĤajacych": 4597,
      "Ġmiedzynarodowej": 4598,
      "Ġpocz": 4599,
      "Ġomawia": 4600,
      "Ġve": 4601,
      "Ġobowiazki": 4602,
      "Ġdokonac": 4603,
      "mac": 4604,
      "Ġzre": 4605,
      "Ġdodatek": 4606,
      "Ġrozwazan": 4607,
      "Ġobejmuja": 4608,
      "52": 4609,
      "stycznych": 4610,
      "krot": 4611,
      "omienia": 4612,
      "Ġwaznosci": 4613,
      "sia": 4614,
      "termin": 4615,
      "Ġangiels": 4616,
      "Ġgospodarczych": 4617,
      "Ġher": 4618,
      "Ġswiadectwa": 4619,
      "Ġporozumienie": 4620,
      "Ġenerge": 4621,
      "Ġtiret": 4622,
      "Ġstabi": 4623,
      "Ġ070": 4624,
      "Ġflu": 4625,
      "liczania": 4626,
      "Ġsygna": 4627,
      "Ġpanstwom": 4628,
      "czosci": 4629,
      "Ġzwrot": 4630,
      "nemu": 4631,
      "ĠgÅĤos": 4632,
      "Ġfrancja": 4633,
      "Ġali": 4634,
      "kowany": 4635,
      "gina": 4636,
      "ĠpÅĤa": 4637,
      "ĠuznaÅĤa": 4638,
      "ĠodsyÅĤajacego": 4639,
      "ut": 4640,
      "Ġton": 4641,
      "Ġporownywa": 4642,
      "Ġszyb": 4643,
      "nin": 4644,
      "kcie": 4645,
      "Ġnego": 4646,
      "mienia": 4647,
      "wajcar": 4648,
      "Ġwolnosci": 4649,
      "Ġrzeczy": 4650,
      "Ġszwajcar": 4651,
      "Ġrezu": 4652,
      "Ġoddzia": 4653,
      "westion": 4654,
      "ycznych": 4655,
      "lac": 4656,
      "Ġ400": 4657,
      "Ġswoim": 4658,
      "Ġskorzysta": 4659,
      "Ġdokonu": 4660,
      "ĠryboÅĤow": 4661,
      "Ġskutku": 4662,
      "ĠwÅĤochy": 4663,
      "ganie": 4664,
      "Ġlotniczego": 4665,
      "Ġluksembur": 4666,
      "Ġuwzglednienia": 4667,
      "Ġniebed": 4668,
      "gerich": 4669,
      "zon": 4670,
      "Ġwykonawczych": 4671,
      "Ġzabezpieczenie": 4672,
      "Ġzobowiazaniom": 4673,
      "usz": 4674,
      "ull": 4675,
      "aliz": 4676,
      "Ġniemniej": 4677,
      "nionej": 4678,
      "Ġanalogi": 4679,
      "Ġwskazac": 4680,
      "Ġwspolnotowe": 4681,
      "Ġrozwa": 4682,
      "Ġodliczenia": 4683,
      "legÅĤ": 4684,
      "Ġfunkcjonowaniu": 4685,
      "zaca": 4686,
      "orga": 4687,
      "id": 4688,
      "licza": 4689,
      "Ġwnioskodawca": 4690,
      "Ġzwanej": 4691,
      "51": 4692,
      "89": 4693,
      "Ġkole": 4694,
      "Ġniezbednych": 4695,
      "zanego": 4696,
      "Ġtresc": 4697,
      "Ġpoprzedza": 4698,
      "Ġjakiej": 4699,
      "ecy": 4700,
      "tyczny": 4701,
      "kowane": 4702,
      "oty": 4703,
      "42": 4704,
      "Ġwystapienia": 4705,
      "Ġmajacej": 4706,
      "Ġrodzajow": 4707,
      "Ġpowodow": 4708,
      "Ġustep": 4709,
      "Ġpta": 4710,
      "Ġzle": 4711,
      "Ġniderlandz": 4712,
      "Ġdrob": 4713,
      "Ġustanowione": 4714,
      "Ġstatki": 4715,
      "Ġponiesione": 4716,
      "Ġzawier": 4717,
      "Ġrachunek": 4718,
      "ĠzÅĤozenia": 4719,
      "Ġot": 4720,
      "Ġprzeje": 4721,
      "Ġwydane": 4722,
      "Ġzasi": 4723,
      "Ġzarejestrow": 4724,
      "Ġstatusu": 4725,
      "Ġebc": 4726,
      "Ġzgodnosc": 4727,
      "tywne": 4728,
      "yjnych": 4729,
      "Ġmaksymalna": 4730,
      "Ġswoja": 4731,
      "Ġden": 4732,
      "Ġzbadac": 4733,
      "Ġadministracyjnego": 4734,
      "gaz": 4735,
      "scia": 4736,
      "Ġdaw": 4737,
      "Ġgranic": 4738,
      "Ġdoswiad": 4739,
      "Ġtechniczne": 4740,
      "Ġpraktyki": 4741,
      "Ġpozniej": 4742,
      "lus": 4743,
      "Ġpapie": 4744,
      "ĠstwierdziÅĤa": 4745,
      "Ġobrob": 4746,
      "Ġustanawiajacego": 4747,
      "Ġudzielania": 4748,
      "ujac": 4749,
      "Ġczest": 4750,
      "Ġwymogami": 4751,
      "Ġole": 4752,
      "Ġlatach": 4753,
      "ĠstaÅĤego": 4754,
      "torow": 4755,
      "ÅĤej": 4756,
      "Ġkwalifik": 4757,
      "Ġzamierza": 4758,
      "Ġ150": 4759,
      "Ġpubliczne": 4760,
      "Ġodnosnie": 4761,
      "niowych": 4762,
      "niema": 4763,
      "Ġ109": 4764,
      "wego": 4765,
      "ĠodwoÅĤawczej": 4766,
      "wzgled": 4767,
      "Ġzwiazek": 4768,
      "Ġpojedyn": 4769,
      "Ġdore": 4770,
      "ĠcaÅĤkowita": 4771,
      "Ġprzyznania": 4772,
      "sion": 4773,
      "Ġsprzeciwu": 4774,
      "Ġwdra": 4775,
      "ĠdÅĤugo": 4776,
      "Ġprzyczyn": 4777,
      "Ġ050": 4778,
      "ĠmateriaÅĤu": 4779,
      "Ġzmien": 4780,
      "Ġdorad": 4781,
      "Ġwprowadzania": 4782,
      "trow": 4783,
      "lta": 4784,
      "Ġdys": 4785,
      "Ġswojego": 4786,
      "lane": 4787,
      "Ġdana": 4788,
      "Ġdochodow": 4789,
      "Ġodszkodowania": 4790,
      "Ġszczegolnie": 4791,
      "Ġzastosowaniu": 4792,
      "Ġare": 4793,
      "Ġsadow": 4794,
      "Ġurlo": 4795,
      "Ġwnoszaca": 4796,
      "Ġskory": 4797,
      "Ġodz": 4798,
      "Ġemi": 4799,
      "gn": 4800,
      "Ġubo": 4801,
      "Ġtrzeciej": 4802,
      "Ġfil": 4803,
      "Ġktorymi": 4804,
      "kan": 4805,
      "Ġwystep": 4806,
      "Ġprzypisie": 4807,
      "Ġaspe": 4808,
      "Ġznajduja": 4809,
      "Ġpracowniczego": 4810,
      "fen": 4811,
      "Ġdwie": 4812,
      "Ġoc": 4813,
      "ÅĤowosci": 4814,
      "Ġocenia": 4815,
      "Ġzarzuca": 4816,
      "Ġweryfikacji": 4817,
      "Ġkartelu": 4818,
      "bli": 4819,
      "Ġniezw": 4820,
      "ĠskÅĤadzie": 4821,
      "Ġdomniema": 4822,
      "gac": 4823,
      "ryj": 4824,
      "Ġwskazane": 4825,
      "Ġpole": 4826,
      "Ġdoz": 4827,
      "Ġ210": 4828,
      "Ġstatus": 4829,
      "Ġmasie": 4830,
      "Ġzakwestion": 4831,
      "rot": 4832,
      "Ġwywo": 4833,
      "rowna": 4834,
      "Ġkwestie": 4835,
      "ĠmiaÅĤo": 4836,
      "zaja": 4837,
      "Ġprzewidu": 4838,
      "Ġzwraca": 4839,
      "Ġwersji": 4840,
      "Ġpersonelu": 4841,
      "Ġdot": 4842,
      "Ġhk": 4843,
      "Ġpokrywa": 4844,
      "Ġetykie": 4845,
      "Ġprzywo": 4846,
      "Ġchocia": 4847,
      "Ġkonsul": 4848,
      "Ġrowno": 4849,
      "Ġtoku": 4850,
      "Ġznaki": 4851,
      "Ġsrodowisko": 4852,
      "Ġdzieci": 4853,
      "Ġchociaz": 4854,
      "Ġrownego": 4855,
      "mon": 4856,
      "Ġinic": 4857,
      "Ġodnoszacych": 4858,
      "sle": 4859,
      "Ġwniesiona": 4860,
      "Ġsilnikow": 4861,
      "owaniach": 4862,
      "Ġgospodarczego": 4863,
      "Ġsamych": 4864,
      "Ġzawartosc": 4865,
      "niczej": 4866,
      "ĠgÅĤownie": 4867,
      "niÅĤ": 4868,
      "Ġnaruszeniu": 4869,
      "obi": 4870,
      "Ġnape": 4871,
      "Ġreprezenta": 4872,
      "Ġproducent": 4873,
      "Ġwymia": 4874,
      "Ġpodatkowych": 4875,
      "Ġdokonanie": 4876,
      "Ġleczniczych": 4877,
      "Ġnega": 4878,
      "wiercie": 4879,
      "Ġkilku": 4880,
      "Ġalterna": 4881,
      "Ġtowarowych": 4882,
      "Ġkomunik": 4883,
      "Ġnos": 4884,
      "turze": 4885,
      "Ġprocedure": 4886,
      "Ġzastepu": 4887,
      "Ġzwyczaj": 4888,
      "ĠÅĤo": 4889,
      "rech": 4890,
      "wiercied": 4891,
      "Ġczego": 4892,
      "Ġuwaga": 4893,
      "Ġchrl": 4894,
      "Ġubie": 4895,
      "Ġzatwierdzenia": 4896,
      "ĠÎ´": 4897,
      "zaÅĤa": 4898,
      "Ġpodstawowe": 4899,
      "Ġmieszka": 4900,
      "Ġustanawiajacy": 4901,
      "Ġpowiadamia": 4902,
      "Ġodzwiercied": 4903,
      "Ð²": 4904,
      "szczego": 4905,
      "ĠcaÅĤkowicie": 4906,
      "100": 4907,
      "Ġterytoria": 4908,
      "Ġwieksz": 4909,
      "ĠtytuÅĤ": 4910,
      "Ġodnoszace": 4911,
      "por": 4912,
      "Ġliczbe": 4913,
      "Ġnaf": 4914,
      "towanych": 4915,
      "Ġzainteresowanych": 4916,
      "Ġetap": 4917,
      "Ġ138": 4918,
      "Ġcis": 4919,
      "Ġrade": 4920,
      "Ġtrzecia": 4921,
      "kologi": 4922,
      "ang": 4923,
      "Ġsamorzad": 4924,
      "gr": 4925,
      "Ġmas": 4926,
      "ĠcaÅĤkowitej": 4927,
      "zonym": 4928,
      "tory": 4929,
      "yczna": 4930,
      "szone": 4931,
      "Ġpismem": 4932,
      "Ġprzejr": 4933,
      "ĠniepeÅĤ": 4934,
      "Ġpapier": 4935,
      "Ġinn": 4936,
      "79": 4937,
      "Ġres": 4938,
      "Ġharmonizacji": 4939,
      "Ġsystemy": 4940,
      "win": 4941,
      "zanej": 4942,
      "Ġkomor": 4943,
      "Ġuregulowania": 4944,
      "Ġodpady": 4945,
      "pel": 4946,
      "Ġcpa": 4947,
      "dziale": 4948,
      "Ġwewnatrz": 4949,
      "Ġumawia": 4950,
      "Ġprzepisach": 4951,
      "Ġnapo": 4952,
      "ĠgÅĤownego": 4953,
      "Ġprzypadkow": 4954,
      "Ġrynkiem": 4955,
      "niesc": 4956,
      "Ġczestot": 4957,
      "Ð»": 4958,
      "ĠceÅĤ": 4959,
      "Ġswieze": 4960,
      "Ġmleka": 4961,
      "Ġxi": 4962,
      "Ġpowyzsze": 4963,
      "Ġuczestnicz": 4964,
      "Ġzatrudni": 4965,
      "Ġgazu": 4966,
      "Ġzachowanie": 4967,
      "Ġlab": 4968,
      "Ġtere": 4969,
      "Ġtrzecim": 4970,
      "Ġkredytowa": 4971,
      "Ġnieod": 4972,
      "lid": 4973,
      "Ġuniem": 4974,
      "skow": 4975,
      "Ġdie": 4976,
      "Ġuzywania": 4977,
      "Ġszw": 4978,
      "Ġuniemozli": 4979,
      "Ġzmiane": 4980,
      "ĠÃ": 4981,
      "wala": 4982,
      "ed": 4983,
      "ĠÅĤa": 4984,
      "Ġdetalicz": 4985,
      "Ġdokonuje": 4986,
      "Ġstowarzys": 4987,
      "Ġfunkcje": 4988,
      "Ġki": 4989,
      "Ġklu": 4990,
      "Ġoparte": 4991,
      "gy": 4992,
      "Ġkary": 4993,
      "Ġhiszpania": 4994,
      "cel": 4995,
      "Ġsurow": 4996,
      "48": 4997,
      "Ġplanu": 4998,
      "ble": 4999,
      "Ġadministrator": 5000,
      "Ġsprawe": 5001,
      "Ġ118": 5002,
      "Ġkonstytu": 5003,
      "Ġoswiadczenie": 5004,
      "Ġporzadku": 5005,
      "Ġniemiecki": 5006,
      "Ġimporter": 5007,
      "Ġkontrol": 5008,
      "Ġniena": 5009,
      "Ġinternational": 5010,
      "roje": 5011,
      "Ġlikwidacji": 5012,
      "stapie": 5013,
      "kury": 5014,
      "mul": 5015,
      "Ġ127": 5016,
      "Ġosiagnie": 5017,
      "Ġdumpingu": 5018,
      "56": 5019,
      "Ġkos": 5020,
      "liÅĤa": 5021,
      "Ġspp": 5022,
      "rosz": 5023,
      "Ġzazna": 5024,
      "Ġsal": 5025,
      "Ġber": 5026,
      "ĠryboÅĤowstwa": 5027,
      "ÅĤym": 5028,
      "Ġlinii": 5029,
      "Ġwymogu": 5030,
      "Ġsankcji": 5031,
      "Ġsprzedaw": 5032,
      "Ġutra": 5033,
      "92": 5034,
      "dan": 5035,
      "Î³": 5036,
      "Ġzwolnienie": 5037,
      "jacemu": 5038,
      "Ġorganom": 5039,
      "fic": 5040,
      "Ġpaliwa": 5041,
      "Ġprzejrzyst": 5042,
      "teryna": 5043,
      "Ġkwestia": 5044,
      "Ġbelgi": 5045,
      "ĠspeÅĤniaja": 5046,
      "Ġprowadzic": 5047,
      "Ġwspolnotowym": 5048,
      "Ġkul": 5049,
      "Ġfull": 5050,
      "Ġskutek": 5051,
      "Ġweteryna": 5052,
      "Ġstwierdzono": 5053,
      "Ġmonitorowania": 5054,
      "Ġorganizacja": 5055,
      "Ġhodow": 5056,
      "ÅĤaszcza": 5057,
      "Ġscie": 5058,
      "pp": 5059,
      "Ġpodatnika": 5060,
      "Ġustalona": 5061,
      "Ġoswiadczenia": 5062,
      "Ġ117": 5063,
      "ĠpoÅĤu": 5064,
      "Ġva": 5065,
      "ker": 5066,
      "Ġsol": 5067,
      "Ġzwrocic": 5068,
      "Ġpodpisa": 5069,
      "Ġkategoria": 5070,
      "Ġtymczasowego": 5071,
      "Ġ1991": 5072,
      "ĠwÅĤok": 5073,
      "Ġwnioskodawcy": 5074,
      "Ġkoordyna": 5075,
      "Ġelektronicznej": 5076,
      "Ġsystemie": 5077,
      "omi": 5078,
      "Ġuzytkowania": 5079,
      "Ġkandy": 5080,
      "ĠspeÅĤnienia": 5081,
      "Ġszwec": 5082,
      "acym": 5083,
      "Ġpewnych": 5084,
      "Ġutrwal": 5085,
      "Ġfer": 5086,
      "ĠzwÅĤaszcza": 5087,
      "ĠdÅĤugosci": 5088,
      "Ġrestrukturyzacji": 5089,
      "towanie": 5090,
      "Ġdefinicji": 5091,
      "wszy": 5092,
      "Ġeksper": 5093,
      "dnim": 5094,
      "Ġziem": 5095,
      "Ġkoncentr": 5096,
      "Ġodzyska": 5097,
      "Ġparame": 5098,
      "Ġrumu": 5099,
      "Ġq": 5100,
      "Ġpozostaje": 5101,
      "Ġzobowiazany": 5102,
      "Ġinfrastruktury": 5103,
      "Ġspozyc": 5104,
      "Ġkonsumenta": 5105,
      "nosza": 5106,
      "Ġzanieczysz": 5107,
      "Ġmargi": 5108,
      "ospoli": 5109,
      "kowanych": 5110,
      "ĠpÅĤ": 5111,
      "ÅĤadunku": 5112,
      "Ġinstrumenty": 5113,
      "Ġwiadomosci": 5114,
      "pospoli": 5115,
      "Ġgi": 5116,
      "Ġ136": 5117,
      "tyl": 5118,
      "Ġdobre": 5119,
      "Ġrozsad": 5120,
      "yl": 5121,
      "Ġurodzenia": 5122,
      "Ġprzemiesz": 5123,
      "Ġjakiego": 5124,
      "Ġkodu": 5125,
      "zacej": 5126,
      "cin": 5127,
      "lachet": 5128,
      "Ġwystarczajaco": 5129,
      "ĠsÅĤusznie": 5130,
      "zywszy": 5131,
      "Ġzwroci": 5132,
      "Ġrozprawy": 5133,
      "Ġfizycznych": 5134,
      "Ġegze": 5135,
      "Ġumowe": 5136,
      "Ġwykazac": 5137,
      "Ġutrzymuje": 5138,
      "Ġmajacy": 5139,
      "Ġtymczasowych": 5140,
      "Ġsca": 5141,
      "tto": 5142,
      "Ġdochodzeniem": 5143,
      "lad": 5144,
      "Ġzawiad": 5145,
      "Ġindu": 5146,
      "nim": 5147,
      "Ġzawieraja": 5148,
      "Ġifrs": 5149,
      "Ġwysp": 5150,
      "nosz": 5151,
      "owanymi": 5152,
      "styczne": 5153,
      "Ġekspozycji": 5154,
      "Ġwskazanych": 5155,
      "Ġwskazano": 5156,
      "Ġzakazu": 5157,
      "rzenie": 5158,
      "Ġwina": 5159,
      "Ġzjednoczonego": 5160,
      "Ġrozstrzygniecie": 5161,
      "ĠwÅĤasnie": 5162,
      "cjac": 5163,
      "Ġzgody": 5164,
      "Ġ600": 5165,
      "Ġud": 5166,
      "Ġinstalacji": 5167,
      "Ġok": 5168,
      "Ġponiz": 5169,
      "Ġ123": 5170,
      "Ġory": 5171,
      "hol": 5172,
      "Ġosobom": 5173,
      "ĠzrodÅĤa": 5174,
      "Ġniderland": 5175,
      "Ġ114": 5176,
      "Ġport": 5177,
      "Ġprzyjecie": 5178,
      "Ġowoce": 5179,
      "ĠÏĢ": 5180,
      "Ġprzewodniczacy": 5181,
      "Ġmaszyny": 5182,
      "ĠwÅĤadzy": 5183,
      "Ġnowego": 5184,
      "Ġrozpatrywane": 5185,
      "szczegol": 5186,
      "Ġcertyfika": 5187,
      "Ġniema": 5188,
      "Ġprzyznaje": 5189,
      "Ġwdro": 5190,
      "ofa": 5191,
      "Ġkrajowej": 5192,
      "ĠpokÅĤad": 5193,
      "Ġobliczenia": 5194,
      "Ġcechy": 5195,
      "ĠobsÅĤugi": 5196,
      "zyte": 5197,
      "Ġszostej": 5198,
      "Ġ119": 5199,
      "Ġzawarta": 5200,
      "serw": 5201,
      "Ġunijnych": 5202,
      "Ġnaduzyc": 5203,
      "Ġpodjecia": 5204,
      "Ġsamochod": 5205,
      "Ġwskazu": 5206,
      "Ġpodkresla": 5207,
      "sic": 5208,
      "Ġdokumentacji": 5209,
      "Ġmac": 5210,
      "nikom": 5211,
      "Ġupad": 5212,
      "Ġutrzymania": 5213,
      "ozycja": 5214,
      "Ġurzedni": 5215,
      "Ġinterpretacji": 5216,
      "Ġproducenci": 5217,
      "sÅĤucha": 5218,
      "Ġramowej": 5219,
      "Ġjurysdykcji": 5220,
      "Ġsadowi": 5221,
      "Ġbudyn": 5222,
      "cego": 5223,
      "rown": 5224,
      "szczy": 5225,
      "Ġutrwalonym": 5226,
      "Ġponownego": 5227,
      "Ġgrafi": 5228,
      "Ġopoz": 5229,
      "Ġwersja": 5230,
      "010": 5231,
      "Ġ{": 5232,
      "Ġ}": 5233,
      "Ġzamiar": 5234,
      "owano": 5235,
      "9900": 5236,
      "Ġistnieja": 5237,
      "ĠniezwÅĤocznie": 5238,
      "yjne": 5239,
      "Ġklientow": 5240,
      "orator": 5241,
      "Ġsposobu": 5242,
      "wek": 5243,
      "Ġprzekazania": 5244,
      "Ġwyjatkow": 5245,
      "ĠspoÅĤeczen": 5246,
      "ĠzÅĤozone": 5247,
      "Ġefektyw": 5248,
      "Ġposiad": 5249,
      "Ġrozwiazania": 5250,
      "83": 5251,
      "ÅĤate": 5252,
      "Ġcenach": 5253,
      "Ġwnioskiem": 5254,
      "Ġniniejszy": 5255,
      "Ġzbada": 5256,
      "Ġnakazu": 5257,
      "Ġnied": 5258,
      "towana": 5259,
      "Ġnieucz": 5260,
      "Ġimo": 5261,
      "Ġwegl": 5262,
      "Ġwspomniane": 5263,
      "ĠczÅĤonek": 5264,
      "Ġkwalifikacji": 5265,
      "ĠczÅĤowie": 5266,
      "Ġodbiorcow": 5267,
      "Ġpisma": 5268,
      "Ġintele": 5269,
      "Ġodpowiedz": 5270,
      "Ġmoim": 5271,
      "Ġ267": 5272,
      "Ġtowaru": 5273,
      "Ġfaktycznie": 5274,
      "Ġbankow": 5275,
      "Ġpodatkowej": 5276,
      "ĠbuÅĤ": 5277,
      "Ġintelektu": 5278,
      "ĠsformuÅĤ": 5279,
      "nicza": 5280,
      "Ġbiu": 5281,
      "Ġnegocjac": 5282,
      "Ġzycia": 5283,
      "jskiej": 5284,
      "Ġpodac": 5285,
      "Ġrozroz": 5286,
      "chi": 5287,
      "Ġwagi": 5288,
      "Ġuzasadnionych": 5289,
      "Ġstandardowe": 5290,
      "Ġakcji": 5291,
      "Ġhtt": 5292,
      "Ġdotyczacymi": 5293,
      "czu": 5294,
      "Ġmiedzynarodowych": 5295,
      "lanych": 5296,
      "Ġpodwyz": 5297,
      "Ġgroup": 5298,
      "Ġpodzie": 5299,
      "Ġtur": 5300,
      "Ġbadaw": 5301,
      "Ġorygina": 5302,
      "Ġupra": 5303,
      "Ġprobek": 5304,
      "Ġspornego": 5305,
      "Ġwyrowna": 5306,
      "onen": 5307,
      "bel": 5308,
      "Ġmotywy": 5309,
      "tymi": 5310,
      "Ġczar": 5311,
      "Ġgospodarki": 5312,
      "Ġsady": 5313,
      "Î¹Î±": 5314,
      "Ġjo": 5315,
      "Ġciezar": 5316,
      "Ġwiary": 5317,
      "Ġsubstancja": 5318,
      "ĠsÅĤuzb": 5319,
      "Ġdefinicje": 5320,
      "ĠokoÅĤo": 5321,
      "ĠzakÅĤadu": 5322,
      "Ġspecjalne": 5323,
      "Ġcech": 5324,
      "ĠÎº": 5325,
      "Ġagencja": 5326,
      "ĠzatytuÅĤowany": 5327,
      "sam": 5328,
      "Ġnabycia": 5329,
      "Ġadministracyjne": 5330,
      "Ġmiesa": 5331,
      "ÅĤaby": 5332,
      "Ġustanowienia": 5333,
      "Ġ113": 5334,
      "Ġwyszczegol": 5335,
      "Ġtowarowe": 5336,
      "Ġpaten": 5337,
      "Ġworks": 5338,
      "Ġwarunkami": 5339,
      "Ġwww": 5340,
      "Ġbyd": 5341,
      "ges": 5342,
      "Ġzaprze": 5343,
      "Ġwypowie": 5344,
      "eme": 5345,
      "Ġdostepnych": 5346,
      "Ġchi": 5347,
      "lonych": 5348,
      "Ġofi": 5349,
      "Ġdopuszczenie": 5350,
      "Ġdia": 5351,
      "ĠrozdziaÅĤu": 5352,
      "rach": 5353,
      "ĠzgÅĤoszenie": 5354,
      "Ġwspolnych": 5355,
      "ĠbuÅĤgar": 5356,
      "Ġszkode": 5357,
      "Ġsym": 5358,
      "Ġzezwala": 5359,
      "Ġzastosowac": 5360,
      "okres": 5361,
      "eks": 5362,
      "Ġponownie": 5363,
      "Ġochron": 5364,
      "Ġster": 5365,
      "Ġczesciowo": 5366,
      "Ġregulamin": 5367,
      "Ġ999": 5368,
      "port": 5369,
      "Ġ320": 5370,
      "lla": 5371,
      "Ġwspomnianej": 5372,
      "Ġodroznia": 5373,
      "Ġpytan": 5374,
      "Ġtro": 5375,
      "Ġ540": 5376,
      "Ġniebezpie": 5377,
      "Ġwspolnym": 5378,
      "Ġlaborator": 5379,
      "Ġwczesniejszego": 5380,
      "Ġaudy": 5381,
      "Ġszac": 5382,
      "Ġkonstru": 5383,
      "Ġlotu": 5384,
      "Ġmies": 5385,
      "nikami": 5386,
      "Ġ@": 5387,
      "Ġuru": 5388,
      "Ġargumentow": 5389,
      "Ġumozliwic": 5390,
      "liny": 5391,
      "ĠÏĦ": 5392,
      "Ġstawka": 5393,
      "Ġpostanowieniem": 5394,
      "ore": 5395,
      "wan": 5396,
      "Ġkonces": 5397,
      "Ġwykorzystanie": 5398,
      "fikowac": 5399,
      "ujacych": 5400,
      "Ġzapewniaja": 5401,
      "Ġgrub": 5402,
      "Ġbis": 5403,
      "niczym": 5404,
      "Ġcelnej": 5405,
      "stem": 5406,
      "Ġzmienic": 5407,
      "mentem": 5408,
      "Ġpodatkow": 5409,
      "cjonari": 5410,
      "Ġzawierac": 5411,
      "Ġregular": 5412,
      "Ġoni": 5413,
      "Ġwystar": 5414,
      "Ġzachod": 5415,
      "Ġbazie": 5416,
      "Ġ2574": 5417,
      "Ġstrat": 5418,
      "Ġotrzymania": 5419,
      "Ġtygod": 5420,
      "Ġkorekty": 5421,
      "Ġdate": 5422,
      "Ġszczeb": 5423,
      "mencie": 5424,
      "Ġ130": 5425,
      "Ġlega": 5426,
      "Ġzwanego": 5427,
      "Ġgh": 5428,
      "Ġnakaz": 5429,
      "Ġzgodna": 5430,
      "Ġtraktowanie": 5431,
      "zerw": 5432,
      "Ġdopie": 5433,
      "Ġbudzetu": 5434,
      "Ġgospodarczym": 5435,
      "Ġcps": 5436,
      "ĠczÅĤowieka": 5437,
      "adami": 5438,
      "Ġmaszyn": 5439,
      "Ġodmowi": 5440,
      "Ġpowietr": 5441,
      "Ġopodatkowaniu": 5442,
      "Ġri": 5443,
      "Ġpochodzace": 5444,
      "brew": 5445,
      "atow": 5446,
      "ĠskÅĤadnikow": 5447,
      "ati": 5448,
      "Ġprzestrzegania": 5449,
      "Ġbrutto": 5450,
      "Ġokresow": 5451,
      "Ġzadnej": 5452,
      "Ġdopiero": 5453,
      "Ġdopuszczalne": 5454,
      "Ġprzetarg": 5455,
      "Ġprawny": 5456,
      "Ġpartner": 5457,
      "wencje": 5458,
      "Ġpotwierdz": 5459,
      "Ġrq": 5460,
      "xi": 5461,
      "Ġpodatkowe": 5462,
      "uts": 5463,
      "Ġwbrew": 5464,
      "Ġczte": 5465,
      "Ġsrednia": 5466,
      "Ġinicja": 5467,
      "Ġoferen": 5468,
      "ksz": 5469,
      "Ġniekorzyst": 5470,
      "ara": 5471,
      "Ġkwalifiku": 5472,
      "Ġteren": 5473,
      "yczne": 5474,
      "Ġustanowionych": 5475,
      "ĠreguÅĤ": 5476,
      "zyn": 5477,
      "Ġsadowej": 5478,
      "Ġprzewidziana": 5479,
      "Ġstraty": 5480,
      "Ġkonsump": 5481,
      "Ġ140": 5482,
      "rami": 5483,
      "ĠpoÅĤoz": 5484,
      "tions": 5485,
      "sji": 5486,
      "zany": 5487,
      "ff": 5488,
      "Ġservi": 5489,
      "Ġalkoho": 5490,
      "Ġwydatki": 5491,
      "Ġwykorzystany": 5492,
      "Ġduze": 5493,
      "gericht": 5494,
      "Ġlotniczych": 5495,
      "Ġgene": 5496,
      "ling": 5497,
      "ania": 5498,
      "Ġles": 5499,
      "Ġpowyzszym": 5500,
      "Ġuchybienia": 5501,
      "zacym": 5502,
      "dac": 5503,
      "Ġcof": 5504,
      "Ġwegla": 5505,
      "ÅĤami": 5506,
      "Ġpocia": 5507,
      "sms": 5508,
      "Ġbezwzgled": 5509,
      "Ġ250": 5510,
      "Ġlad": 5511,
      "ĠzrodeÅĤ": 5512,
      "Ġuzyciu": 5513,
      "Ġodpowiednim": 5514,
      "Ġefsa": 5515,
      "kowanie": 5516,
      "Ġ620": 5517,
      "Ġogolnej": 5518,
      "Ġsekretarz": 5519,
      "Ġpewne": 5520,
      "Ġzastapi": 5521,
      "Ġfunkcjonowania": 5522,
      "Ġsystema": 5523,
      "Ġnon": 5524,
      "Ġgospodarstwa": 5525,
      "Ġwarunek": 5526,
      "Ġkontynu": 5527,
      "Ġtransakcje": 5528,
      "Ġrachunku": 5529,
      "Ġroznice": 5530,
      "zyna": 5531,
      "Ġmomentu": 5532,
      "Ġdoprowadzi": 5533,
      "Ġdrugim": 5534,
      "br": 5535,
      "cs": 5536,
      "pia": 5537,
      "Ġtechnicznej": 5538,
      "Ġlin": 5539,
      "Ġzagrozenia": 5540,
      "Ġzjednoczonych": 5541,
      "Ġprzydzie": 5542,
      "Ġ111": 5543,
      "Ġuzywa": 5544,
      "Ġpodlegajacych": 5545,
      "Ġchorob": 5546,
      "ab": 5547,
      "Ġbezzasad": 5548,
      "Ġnabyw": 5549,
      "Ġstruktura": 5550,
      "rost": 5551,
      "Ġzobowiazanie": 5552,
      "Ġkilka": 5553,
      "Ġzastepuje": 5554,
      "Ġzawarcia": 5555,
      "Ġreto": 5556,
      "Ġpewnosci": 5557,
      "Ġrsms": 5558,
      "Ġukra": 5559,
      "Ġostr": 5560,
      "Ġpienieznych": 5561,
      "Ġochronie": 5562,
      "ĠÃĹ": 5563,
      "Ġsmot": 5564,
      "Ġoznaczenie": 5565,
      "Ġrqrr": 5566,
      "97": 5567,
      "Ġnalezacych": 5568,
      "Ġistoty": 5569,
      "Ġprawnym": 5570,
      "Ġ160": 5571,
      "Ġfaktyczne": 5572,
      "Ġmetylo": 5573,
      "Ġorzeczenie": 5574,
      "Ġodniesienie": 5575,
      "Ġintelektualnej": 5576,
      "adr": 5577,
      "Ġtelewi": 5578,
      "Ġkonsultacji": 5579,
      "Ġwycofa": 5580,
      "Ġ611": 5581,
      "ĠcaÅĤej": 5582,
      "ton": 5583,
      "Ġwyrokiem": 5584,
      "Ġland": 5585,
      "nis": 5586,
      "Ġrozstrzygniecia": 5587,
      "Ġprzekazanie": 5588,
      "Ġautonomi": 5589,
      "ĠwÅĤacz": 5590,
      "enia": 5591,
      "Ġdzi": 5592,
      "Ġrekomp": 5593,
      "Ġwzrost": 5594,
      "Ġ1990": 5595,
      "Ġszk": 5596,
      "990": 5597,
      "Ġdekre": 5598,
      "tw": 5599,
      "Ġholding": 5600,
      "Ġarbi": 5601,
      "Ġkata": 5602,
      "Ġgl": 5603,
      "Ġzawierajacych": 5604,
      "bon": 5605,
      "mentami": 5606,
      "Ġdotych": 5607,
      "towany": 5608,
      "Ġdotychczas": 5609,
      "nian": 5610,
      "Ġwspolna": 5611,
      "Ġtoz": 5612,
      "Ġbezposredniego": 5613,
      "Ġobjetym": 5614,
      "Ġdodanej": 5615,
      "Ġtyle": 5616,
      "Ġregulacji": 5617,
      "Ġprojektow": 5618,
      "lii": 5619,
      "lno": 5620,
      "Ġeura": 5621,
      "ĠszczegoÅĤowych": 5622,
      "Ġzab": 5623,
      "Ġnegatyw": 5624,
      "atrz": 5625,
      "Ġstud": 5626,
      "Ġdyskryminacji": 5627,
      "Ġqu": 5628,
      "rywa": 5629,
      "Ġnadmier": 5630,
      "Ġbun": 5631,
      "Ġrozmiar": 5632,
      "Ġ135": 5633,
      "Ġreg": 5634,
      "Ġwil": 5635,
      "Ġsrodkami": 5636,
      "Ġrzeczywistosci": 5637,
      "Ġstronami": 5638,
      "Ġpraktyka": 5639,
      "Ġrodza": 5640,
      "Ġodpowiedniego": 5641,
      "Ġdumping": 5642,
      "Ġwygasniecia": 5643,
      "Ġ145": 5644,
      "Ġuzyskac": 5645,
      "oza": 5646,
      "owiec": 5647,
      "Ġ121": 5648,
      "Ġpodnios": 5649,
      "ĠzakÅĤada": 5650,
      "Ġinternetowej": 5651,
      "seku": 5652,
      "Ġorganiz": 5653,
      "Ġmasa": 5654,
      "Ġzastep": 5655,
      "Ġtex": 5656,
      "Ġ529900": 5657,
      "owaÅĤo": 5658,
      "Ġbelgii": 5659,
      "Ġed": 5660,
      "miast": 5661,
      "rus": 5662,
      "Ġzgromad": 5663,
      "cyz": 5664,
      "ĠpodziaÅĤu": 5665,
      "Ġwyczer": 5666,
      "Ġwystarczy": 5667,
      "kuje": 5668,
      "ĠartykuÅĤow": 5669,
      "Ġ139": 5670,
      "Ġchoroby": 5671,
      "rodu": 5672,
      "Ġfrancuski": 5673,
      "Ġ116": 5674,
      "gs": 5675,
      "Ġzapozna": 5676,
      "Ġprzechowywania": 5677,
      "Ġpieciu": 5678,
      "Ġdywiden": 5679,
      "Ġobejmowac": 5680,
      "ÅĤby": 5681,
      "Ġpomiesz": 5682,
      "Ġuwzglednieniu": 5683,
      "sen": 5684,
      "Ġzalicz": 5685,
      "Ġgospodarczy": 5686,
      "Ġpropon": 5687,
      "Ġsporne": 5688,
      "Ġsprzeczne": 5689,
      "Ġmat": 5690,
      "roc": 5691,
      "Ġuzytych": 5692,
      "Ġspozycia": 5693,
      "Ġbaw": 5694,
      "Ġwystarczajace": 5695,
      "Ġtribuna": 5696,
      "Ġwykonywanie": 5697,
      "tus": 5698,
      "73": 5699,
      "Ġwniesienia": 5700,
      "np": 5701,
      "ÅĤywac": 5702,
      "Ġsele": 5703,
      "Ġtransgranicz": 5704,
      "Ġwyklucza": 5705,
      "ensa": 5706,
      "ĠnakÅĤad": 5707,
      "nieciu": 5708,
      "Ġwiejskich": 5709,
      "Ġpraktyk": 5710,
      "ĠprzedÅĤo": 5711,
      "Ġunijny": 5712,
      "ĠspoÅĤce": 5713,
      "Ġkonwencja": 5714,
      "Ġprzedstawienie": 5715,
      "Ġpapierow": 5716,
      "ĠoddziaÅĤy": 5717,
      "tis": 5718,
      "Ġmusia": 5719,
      "Ġprecy": 5720,
      "Ġapara": 5721,
      "Ġobowiazujacych": 5722,
      "Ġprzekazy": 5723,
      "Ġkodeks": 5724,
      "Ġprzedstawic": 5725,
      "Ġspecyfikacji": 5726,
      "Ġzarzadzanie": 5727,
      "Ġprepara": 5728,
      "Ġobliczania": 5729,
      "Ġprzedmiotu": 5730,
      "ĠprzysÅĤuguje": 5731,
      "Ġprzyjetych": 5732,
      "Ġinteresie": 5733,
      "ĠwspoÅĤczynnik": 5734,
      "bardziej": 5735,
      "Ġph": 5736,
      "Ġstosunkow": 5737,
      "lf": 5738,
      "Ġnajbardziej": 5739,
      "Ġkorzystanie": 5740,
      "Ġwierzyte": 5741,
      "Ġwykorzystywane": 5742,
      "ĠtrybunaÅĤem": 5743,
      "Ġchoc": 5744,
      "ĠprzeksztaÅĤ": 5745,
      "Ġwystepuje": 5746,
      "Ġsc": 5747,
      "ĠnieprawidÅĤowosci": 5748,
      "Ġjaz": 5749,
      "Ġzgodny": 5750,
      "Ġzasie": 5751,
      "pen": 5752,
      "Ġczescia": 5753,
      "Ġzezwolen": 5754,
      "Ġzac": 5755,
      "ĠÎµ": 5756,
      "Ġodwo": 5757,
      "Ġbezpraw": 5758,
      "Ġrolnictwa": 5759,
      "Ġstrone": 5760,
      "Ġblo": 5761,
      "tacja": 5762,
      "Ġcelny": 5763,
      "cjach": 5764,
      "Ġpodjac": 5765,
      "sel": 5766,
      "Ġbio": 5767,
      "Ġpodwoj": 5768,
      "Ġwartosciowych": 5769,
      "ĠstaÅĤe": 5770,
      "Ġnowej": 5771,
      "Ġswoj": 5772,
      "Ġminera": 5773,
      "Ġdeklaracji": 5774,
      "Ġnorwe": 5775,
      "Ġprzyrzad": 5776,
      "Ġsprzeciwia": 5777,
      "Ġposied": 5778,
      "Ġmem": 5779,
      "ĠodesÅĤanie": 5780,
      "Ġniedo": 5781,
      "Ġodby": 5782,
      "Ġwiarygod": 5783,
      "ĠwniosÅĤa": 5784,
      "Ġeuratom": 5785,
      "Ġsiar": 5786,
      "legac": 5787,
      "Ġsh": 5788,
      "ĠodlegÅĤ": 5789,
      "Ġsiebie": 5790,
      "Ġdostosowania": 5791,
      "Ġtrudnosci": 5792,
      "Ġdecydu": 5793,
      "ĠmogÅĤyby": 5794,
      "Ġpomimo": 5795,
      "Ġâī¤": 5796,
      "Ġwieksza": 5797,
      "kierow": 5798,
      "Ġ124": 5799,
      "ĠpoÅĤaczenia": 5800,
      "Ġzobowiazane": 5801,
      "Ġsubsy": 5802,
      "Ġniewaznosc": 5803,
      "Ġuzytku": 5804,
      "Ġsystemem": 5805,
      "rozone": 5806,
      "Ġmy": 5807,
      "wisko": 5808,
      "Ġ122": 5809,
      "Ġpodro": 5810,
      "Ġrozprawie": 5811,
      "Ġwykazania": 5812,
      "Ġcyfr": 5813,
      "Ġpunktow": 5814,
      "Ġprzypisa": 5815,
      "Ġczynnikow": 5816,
      "niete": 5817,
      "godaw": 5818,
      "Ġzwierzeta": 5819,
      "lat": 5820,
      "Ġkrajowymi": 5821,
      "Ġreaseku": 5822,
      "Ġhandlowa": 5823,
      "Ġprezen": 5824,
      "Ġfinansowa": 5825,
      "Ġostateczne": 5826,
      "Ġprywatnego": 5827,
      "96": 5828,
      "dami": 5829,
      "Ġstwor": 5830,
      "Ġaustrii": 5831,
      "Ġekstra": 5832,
      "Ġsoc": 5833,
      "Ġpozwolen": 5834,
      "ds": 5835,
      "Ġzaproje": 5836,
      "niowa": 5837,
      "Ġuznanie": 5838,
      "Ġhandlowej": 5839,
      "Ġgospodarcze": 5840,
      "Ġzaist": 5841,
      "Ġzrown": 5842,
      "Ġwymagan": 5843,
      "Ġ126": 5844,
      "ĠwÅĤasny": 5845,
      "Ġspozywczych": 5846,
      "Ġobowiazywania": 5847,
      "Ġzawartej": 5848,
      "Ġroztwor": 5849,
      "wcze": 5850,
      "Ġbezposrednich": 5851,
      "Ġzaswiad": 5852,
      "angaz": 5853,
      "Ġtranzy": 5854,
      "Ġokre": 5855,
      "Ġwoje": 5856,
      "ÅĤowe": 5857,
      "ecyd": 5858,
      "Ġewentualnie": 5859,
      "ĠwÅĤasciciel": 5860,
      "gram": 5861,
      "Ġskutkiem": 5862,
      "Ġpotwierdzi": 5863,
      "Ġuczestniczy": 5864,
      "Ġinwestycje": 5865,
      "ĠupadÅĤosci": 5866,
      "Ġcode": 5867,
      "Ġzwierzecego": 5868,
      "Ġidentyfikacji": 5869,
      "Ġviii": 5870,
      "Ġlos": 5871,
      "ĠbiaÅĤ": 5872,
      "Ġwnoszace": 5873,
      "Ġleas": 5874,
      "Ġbry": 5875,
      "Ġnowa": 5876,
      "Ġksieg": 5877,
      "Ġother": 5878,
      "Ġgrzywien": 5879,
      "Ġposta": 5880,
      "Ġzaprop": 5881,
      "Ġprzekazuje": 5882,
      "Ġpracownik": 5883,
      "Ġprzyznane": 5884,
      "Ġmiedzynarodowego": 5885,
      "Ġniedy": 5886,
      "Ġwywiera": 5887,
      "lendar": 5888,
      "Ġzwe": 5889,
      "Ġstosowana": 5890,
      "Ġzobowiazana": 5891,
      "Ġwspolny": 5892,
      "ĠwskazaÅĤa": 5893,
      "Ġ850": 5894,
      "Ġwewnetrznym": 5895,
      "liwie": 5896,
      "Ġtac": 5897,
      "Ġ350": 5898,
      "Ġ721": 5899,
      "grze": 5900,
      "Ġrur": 5901,
      "Ġzaangaz": 5902,
      "Ġsilnika": 5903,
      "denty": 5904,
      "Ġpozwolenie": 5905,
      "Ġmikro": 5906,
      "zywac": 5907,
      "Ġkalendar": 5908,
      "ino": 5909,
      "tywy": 5910,
      "ĠzakÅĤadow": 5911,
      "Ġkolumnie": 5912,
      "Ġwspomnianych": 5913,
      "Ġzbli": 5914,
      "kowanej": 5915,
      "Ġrozwi": 5916,
      "lle": 5917,
      "Ġumowie": 5918,
      "Ġui": 5919,
      "Ġzawierajacy": 5920,
      "Ġ1234": 5921,
      "pozy": 5922,
      "Ġuwazam": 5923,
      "Ġzby": 5924,
      "Ġeksport": 5925,
      "Ġpostepowan": 5926,
      "Ġantydumpingowe": 5927,
      "poli": 5928,
      "Ġdokonane": 5929,
      "Ġkontek": 5930,
      "Ðº": 5931,
      "Ġirlandii": 5932,
      "Ġludz": 5933,
      "Ġkompu": 5934,
      "Ġprzewidziany": 5935,
      "tuje": 5936,
      "Ġogolna": 5937,
      "Ġkonsument": 5938,
      "leniem": 5939,
      "dem": 5940,
      "Ġkoniecznosc": 5941,
      "Ġ134": 5942,
      "Ġpowstania": 5943,
      "Ġkierun": 5944,
      "dp": 5945,
      "Ġindziej": 5946,
      "Ġwzi": 5947,
      "bina": 5948,
      "tychmiast": 5949,
      "ĠwpÅĤywa": 5950,
      "Ġnatychmiast": 5951,
      "Ġer": 5952,
      "Ġzdolnosc": 5953,
      "Ġwskaznik": 5954,
      "Ġznacznie": 5955,
      "Ġbanku": 5956,
      "enylo": 5957,
      "Ġprzeniesienia": 5958,
      "Ġzmianie": 5959,
      "Ġstosowne": 5960,
      "jon": 5961,
      "Ġkredytowy": 5962,
      "Ġproblem": 5963,
      "Ġbande": 5964,
      "Ġprzeprowadzeniu": 5965,
      "Ġklucz": 5966,
      "Ġbelgia": 5967,
      "Ġnara": 5968,
      "Ġstopy": 5969,
      "ruje": 5970,
      "Ġund": 5971,
      "ĠbaweÅĤ": 5972,
      "Ġodbywa": 5973,
      "Ġujawnianie": 5974,
      "Ġprzystapienia": 5975,
      "Ġrodzaje": 5976,
      "Ġjazdy": 5977,
      "usza": 5978,
      "Ġdobrej": 5979,
      "Ġml": 5980,
      "Ġzyskow": 5981,
      "Ġ141": 5982,
      "zione": 5983,
      "ĠprzedstawiÅĤa": 5984,
      "Ġdepozy": 5985,
      "Ġformy": 5986,
      "Ġprzecie": 5987,
      "Ġzwo": 5988,
      "Ġnomenklatury": 5989,
      "Ġustawodawstw": 5990,
      "Ġurzadzenie": 5991,
      "ÅĤyby": 5992,
      "Ġoba": 5993,
      "Ġrachunkowosci": 5994,
      "Ġpublikacji": 5995,
      "ian": 5996,
      "Ġprzetargu": 5997,
      "Ġpubli": 5998,
      "Ġtowarzy": 5999,
      "ĠwysyÅĤ": 6000,
      "ban": 6001,
      "ado": 6002,
      "Ġ870": 6003,
      "Ġudostepnia": 6004,
      "Ġczynnej": 6005,
      "Ġtaj": 6006,
      "Ġfis": 6007,
      "Ġmys": 6008,
      "unki": 6009,
      "Ġodrzuc": 6010,
      "Ġotrzy": 6011,
      "Ġkorzysc": 6012,
      "jscia": 6013,
      "Ġ263": 6014,
      "ÅĤozyc": 6015,
      "Ġami": 6016,
      "Ġcour": 6017,
      "ning": 6018,
      "Ġwyjsci": 6019,
      "Ġnaruszeniem": 6020,
      "Ġsprzetu": 6021,
      "Ġzwane": 6022,
      "ade": 6023,
      "Ġfaktycznego": 6024,
      "Ġnajpoz": 6025,
      "Ġzostaja": 6026,
      "Ġkier": 6027,
      "owek": 6028,
      "Ġbaz": 6029,
      "umia": 6030,
      "Ġszerokosci": 6031,
      "Ġprzewidzianej": 6032,
      "Ġwieku": 6033,
      "Ġpochodne": 6034,
      "Ġswiadcz": 6035,
      "Ġdocel": 6036,
      "Ġreprezentatyw": 6037,
      "Ġnaruszen": 6038,
      "ĠupÅĤywie": 6039,
      "Ġpobra": 6040,
      "Ġwielu": 6041,
      "Ġmedi": 6042,
      "ĠcÅĤo": 6043,
      "ĠÅĤat": 6044,
      "Ġczwarty": 6045,
      "Ġpowazne": 6046,
      "Ġmajacego": 6047,
      "Ġoprocz": 6048,
      "liwy": 6049,
      "nium": 6050,
      "Ġpodrozy": 6051,
      "Ġniezgodnosci": 6052,
      "Ġprzedaw": 6053,
      "Ġzaje": 6054,
      "Ġtue": 6055,
      "acyjna": 6056,
      "Ġweterynaryj": 6057,
      "Ġpunkcie": 6058,
      "Ġprzeprowadza": 6059,
      "cami": 6060,
      "Ġnajpozniej": 6061,
      "78": 6062,
      "Ġ520": 6063,
      "Ġprowadzenie": 6064,
      "ĠprzesÅĤanek": 6065,
      "Ġogolny": 6066,
      "Ġdroga": 6067,
      "Ġnazwisko": 6068,
      "Ġszesci": 6069,
      "Ġglu": 6070,
      "Ġkwestionuje": 6071,
      "Ġkwesti": 6072,
      "Ġnazwe": 6073,
      "nitar": 6074,
      "Ġrozdziale": 6075,
      "Ġ025": 6076,
      "Ġeuropejskim": 6077,
      "Ġwybra": 6078,
      "Ġprobki": 6079,
      "Ġistniejacych": 6080,
      "ywania": 6081,
      "Ġsiedziby": 6082,
      "Ġgodziwej": 6083,
      "Ġtechnologii": 6084,
      "ĠskÅĤadek": 6085,
      "Ġ230": 6086,
      "zol": 6087,
      "Ġprzeprowadzenie": 6088,
      "Ġgazow": 6089,
      "lik": 6090,
      "Ġ132": 6091,
      "Ġtozsam": 6092,
      "Ġalkoholu": 6093,
      "ĠpÅĤac": 6094,
      "Ġjada": 6095,
      "Ġkredytu": 6096,
      "Ġuchylenie": 6097,
      "fikowania": 6098,
      "Ġangielski": 6099,
      "Ġspornych": 6100,
      "Ġmetali": 6101,
      "Ġonz": 6102,
      "styki": 6103,
      "Ġjakiegokolwiek": 6104,
      "Ġ129": 6105,
      "001": 6106,
      "Ġzidenty": 6107,
      "Ġstosowaniu": 6108,
      "Ġmer": 6109,
      "Ġwegier": 6110,
      "ĠusÅĤugodaw": 6111,
      "Ġ0805": 6112,
      "niono": 6113,
      "Ġrezerw": 6114,
      "Ġcelna": 6115,
      "ozy": 6116,
      "Ġ720": 6117,
      "Ġoznaczen": 6118,
      "Ġopieki": 6119,
      "Ġosi": 6120,
      "vis": 6121,
      "Ġkalendarz": 6122,
      "Ġkonser": 6123,
      "Ġgranicy": 6124,
      "Ġobciazona": 6125,
      "czyÅĤ": 6126,
      "piera": 6127,
      "Ġdziecka": 6128,
      "Ġneu": 6129,
      "Ġrole": 6130,
      "Ġlicencji": 6131,
      "Ġwarsza": 6132,
      "Ġeksportujacych": 6133,
      "Ġexcl": 6134,
      "moniz": 6135,
      "Ġcene": 6136,
      "Ġwynagrodzenie": 6137,
      "ws": 6138,
      "Ġsynte": 6139,
      "Ġkontrahen": 6140,
      "Ġ730": 6141,
      "Ġrezer": 6142,
      "Ġsprawozdan": 6143,
      "Ġmsc": 6144,
      "cher": 6145,
      "fikowanych": 6146,
      "Ġwarunku": 6147,
      "Ġklas": 6148,
      "szczenia": 6149,
      "mawi": 6150,
      "stil": 6151,
      "Ġporownaniu": 6152,
      "72": 6153,
      "Ġpojazdy": 6154,
      "Ġmodu": 6155,
      "Ġprzyznana": 6156,
      "ierac": 6157,
      "ĠÂ±": 6158,
      "Ġrozdzie": 6159,
      "Ġwytwarzania": 6160,
      "Ġurzednikow": 6161,
      "niejsze": 6162,
      "Ġzadnym": 6163,
      "Ġzysku": 6164,
      "Ġswej": 6165,
      "niowego": 6166,
      "Ġradi": 6167,
      "Ġzarzadu": 6168,
      "Ġvo": 6169,
      "ĠbÅĤedu": 6170,
      "Ġ440": 6171,
      "Ġedu": 6172,
      "Ġznajd": 6173,
      "Ġstatek": 6174,
      "Ġposwiad": 6175,
      "Ġwydanego": 6176,
      "Ġkategorie": 6177,
      "Ġprzebie": 6178,
      "ĠgÅĤownych": 6179,
      "Ġpismo": 6180,
      "pr": 6181,
      "Ġalu": 6182,
      "omienie": 6183,
      "Ġproku": 6184,
      "Ġoczywiscie": 6185,
      "Ġodli": 6186,
      "Ġpowody": 6187,
      "Ġtor": 6188,
      "Ġmode": 6189,
      "ujace": 6190,
      "ĠspoÅĤecznej": 6191,
      "cal": 6192,
      "Ġrybac": 6193,
      "harmoniz": 6194,
      "Ġartykule": 6195,
      "Ġosrod": 6196,
      "ĠwskazaÅĤ": 6197,
      "Ġspecyfi": 6198,
      "Ġprzewozu": 6199,
      "uszy": 6200,
      "tyce": 6201,
      "Ġcrr": 6202,
      "Ġpak": 6203,
      "Ġazy": 6204,
      "Ġdelegowanego": 6205,
      "ĠmateriaÅĤ": 6206,
      "Ġwykracza": 6207,
      "ĠmogÅĤoby": 6208,
      "Ġsum": 6209,
      "Ġ128": 6210,
      "Ġosobie": 6211,
      "Ġobniz": 6212,
      "Ġnowy": 6213,
      "Ġwierzycie": 6214,
      "Ġroznic": 6215,
      "Ġwewnetrznych": 6216,
      "Ġskierow": 6217,
      "siona": 6218,
      "Ġgatunki": 6219,
      "Ġzwiazana": 6220,
      "Ġpoddane": 6221,
      "Ġumor": 6222,
      "Ġobciazenia": 6223,
      "Ġzapropon": 6224,
      "Ġrejestr": 6225,
      "ting": 6226,
      "Ġsedziowie": 6227,
      "Ġps": 6228,
      "Ġujawnienie": 6229,
      "ĠpoÅĤudni": 6230,
      "Ġpoczatkow": 6231,
      "Ġdopusci": 6232,
      "zolu": 6233,
      "oczyn": 6234,
      "Ġtradyc": 6235,
      "Ġobowiazujace": 6236,
      "Ġpobierania": 6237,
      "Ġfu": 6238,
      "wczych": 6239,
      "Ġzakonczenia": 6240,
      "Ġgov": 6241,
      "Ġurlopu": 6242,
      "flu": 6243,
      "Ġrekompensa": 6244,
      "Ġprom": 6245,
      "Ġstosowany": 6246,
      "Ġuczestnikow": 6247,
      "Ġgar": 6248,
      "Ġ016": 6249,
      "Ġprofi": 6250,
      "Ġdochodzenie": 6251,
      "Ġznajdujacych": 6252,
      "Ġwsparcie": 6253,
      "rzed": 6254,
      "Ġgranicach": 6255,
      "Ġprog": 6256,
      "tna": 6257,
      "Ġprzemieszczania": 6258,
      "Ġpanstwu": 6259,
      "Ġoszac": 6260,
      "Ġval": 6261,
      "ĠpowoÅĤuje": 6262,
      "Ġuwzglednienie": 6263,
      "Ġposiadaja": 6264,
      "Ġpreferen": 6265,
      "Ġcywilnego": 6266,
      "Ġcpc": 6267,
      "Ġ133": 6268,
      "ĠogÅĤoszenia": 6269,
      "Ġodpowiedniej": 6270,
      "Ġtranspor": 6271,
      "Ġmiesiac": 6272,
      "ĠpeÅĤnomocnicy": 6273,
      "Ġstatutu": 6274,
      "Ġsamodzie": 6275,
      "Ġzharmoniz": 6276,
      "Ġskuteczne": 6277,
      "Ġspoc": 6278,
      "Ġprzypomnia": 6279,
      "Ġdokonywania": 6280,
      "Ġkad": 6281,
      "czycie": 6282,
      "Ġ1049": 6283,
      "Ġwys": 6284,
      "Ġwykonane": 6285,
      "Ġtom": 6286,
      "Ġutru": 6287,
      "Ġukon": 6288,
      "Ġsec": 6289,
      "oryte": 6290,
      "tosci": 6291,
      "ance": 6292,
      "ĠczÅĤonkowie": 6293,
      "ure": 6294,
      "ĠpodziaÅĤ": 6295,
      "Ġmieso": 6296,
      "ĠswiatÅĤa": 6297,
      "Ġszkoda": 6298,
      "Ġaresz": 6299,
      "Ġubiega": 6300,
      "Ġintegra": 6301,
      "Ġfrancji": 6302,
      "ĠwÅĤasciciela": 6303,
      "ida": 6304,
      "Ġgromad": 6305,
      "Ġsprawozdaniu": 6306,
      "ĠpÅĤyn": 6307,
      "Ġhor": 6308,
      "Ġuregulowanie": 6309,
      "Ġprosz": 6310,
      "Ġkosztach": 6311,
      "ĠÅĤu": 6312,
      "Ġanaliz": 6313,
      "Ġmember": 6314,
      "kra": 6315,
      "Ġpredkosci": 6316,
      "Ġrzadow": 6317,
      "Ġprioryte": 6318,
      "Ġrownowa": 6319,
      "cznosci": 6320,
      "cyjnym": 6321,
      "Ġzabezpiecza": 6322,
      "Ġprzyjm": 6323,
      "Ġ1987": 6324,
      "Ġniderlandy": 6325,
      "Ð´": 6326,
      "ĠpoÅĤo": 6327,
      "Ġpozyczki": 6328,
      "zajace": 6329,
      "Ġpodatkiem": 6330,
      "Ġprawda": 6331,
      "Ġzawsze": 6332,
      "Ġnaturalne": 6333,
      "Ġwymiaru": 6334,
      "Ġkonsult": 6335,
      "Ġziar": 6336,
      "Ġdominujacej": 6337,
      "Ġporozumien": 6338,
      "Ġwprowadzone": 6339,
      "Ġ131": 6340,
      "omina": 6341,
      "Ġdysponuje": 6342,
      "ĠcaÅĤy": 6343,
      "Ġrozli": 6344,
      "Ġustanowienie": 6345,
      "Ġobjeta": 6346,
      "Ġzwery": 6347,
      "Ġoznaczaja": 6348,
      "Ġograniczone": 6349,
      "Ġudowod": 6350,
      "Ġniewie": 6351,
      "Ġstandardowa": 6352,
      "ĠÅĤacznosci": 6353,
      "Ġswiadectwo": 6354,
      "liwosc": 6355,
      "Ġskoro": 6356,
      "acyjnej": 6357,
      "Ġwzoru": 6358,
      "Ġkat": 6359,
      "ancu": 6360,
      "Ġtechniczna": 6361,
      "Ġekologi": 6362,
      "Ġkolei": 6363,
      "Ġjednostke": 6364,
      "Ġkody": 6365,
      "osfor": 6366,
      "Ġorganowi": 6367,
      "ĠpeÅĤnomocnika": 6368,
      "Ġspoczywa": 6369,
      "wilej": 6370,
      "Ġoddalenie": 6371,
      "Ġoczywisty": 6372,
      "Ġrepublike": 6373,
      "tew": 6374,
      "Ġwschod": 6375,
      "jow": 6376,
      "komu": 6377,
      "lasyfikowane": 6378,
      "ĠÅĤad": 6379,
      "Ġzakwali": 6380,
      "Ġdopuszczalnosci": 6381,
      "stor": 6382,
      "ĠreguÅĤy": 6383,
      "Ġdostawcy": 6384,
      "Ġindustr": 6385,
      "Ġ610": 6386,
      "organiz": 6387,
      "Ġrosy": 6388,
      "Ġprodukcyjnych": 6389,
      "Ġwzrostu": 6390,
      "niowej": 6391,
      "Ġwierzytelnosci": 6392,
      "Ġ148": 6393,
      "Ġuporzad": 6394,
      "czeniach": 6395,
      "Ġbelgijs": 6396,
      "Ġrozpatrywanych": 6397,
      "Ġuzyte": 6398,
      "ĠwpÅĤyne": 6399,
      "Ġgospodarstw": 6400,
      "nionym": 6401,
      "Ġprzekazywania": 6402,
      "Ġitp": 6403,
      "Ġroznica": 6404,
      "ublikowany": 6405,
      "tech": 6406,
      "nina": 6407,
      "au": 6408,
      "Ġogolnym": 6409,
      "Ġwytyczne": 6410,
      "Ġeuropejskie": 6411,
      "Ġnielega": 6412,
      "kul": 6413,
      "Ġdrze": 6414,
      "Ġuchylajace": 6415,
      "Ġsocja": 6416,
      "yczaÅĤ": 6417,
      "ĠczÅĤonka": 6418,
      "naÅĤ": 6419,
      "Ġpowiadomienia": 6420,
      "Ġsole": 6421,
      "Ġwymagaja": 6422,
      "Ġoparty": 6423,
      "Ġstosownie": 6424,
      "Ġkwasu": 6425,
      "Ġpas": 6426,
      "Ġwydawania": 6427,
      "Ġae": 6428,
      "ĠÅĤancu": 6429,
      "Ġpodwaza": 6430,
      "Ġwzie": 6431,
      "spon": 6432,
      "Ġekspor": 6433,
      "Ġchemicznych": 6434,
      "Ġrzeczywistego": 6435,
      "Ġprawdopodobienstwo": 6436,
      "Ġaktuali": 6437,
      "Ġwziac": 6438,
      "Ġstruktury": 6439,
      "Ġtranspozycji": 6440,
      "Ġadre": 6441,
      "Ġzakonczeniu": 6442,
      "Ġskutecznego": 6443,
      "Ġkomunikatu": 6444,
      "oksy": 6445,
      "Ġirlandia": 6446,
      "ĠskÅĤadki": 6447,
      "Ġstaran": 6448,
      "Ġsprawozdawca": 6449,
      "Ġ340": 6450,
      "Ġwojewod": 6451,
      "lli": 6452,
      "Ġzela": 6453,
      "spor": 6454,
      "kutek": 6455,
      "Ġwskutek": 6456,
      "int": 6457,
      "Ġinterwen": 6458,
      "Ġxx": 6459,
      "oj": 6460,
      "ĠpozostaÅĤy": 6461,
      "Ġchnp": 6462,
      "Ġterenie": 6463,
      "ck": 6464,
      "Ġnadzw": 6465,
      "Ġlimite": 6466,
      "Ġstopnia": 6467,
      "Ġrowna": 6468,
      "Ġsiod": 6469,
      "Ġsadowego": 6470,
      "Ġnadzwyczaj": 6471,
      "Ġostatecznie": 6472,
      "Ġsztucznych": 6473,
      "Ġobszarach": 6474,
      "00000": 6475,
      "Ġczterech": 6476,
      "Ġdime": 6477,
      "Ġosobi": 6478,
      "lot": 6479,
      "Ġskardze": 6480,
      "Ġmier": 6481,
      "Ġuznana": 6482,
      "Ġpomiaru": 6483,
      "Ġmotywach": 6484,
      "cio": 6485,
      "Ġakapicie": 6486,
      "nospraw": 6487,
      "Ġiec": 6488,
      "Ġogolnie": 6489,
      "Ġwojs": 6490,
      "zn": 6491,
      "Ġsko": 6492,
      "Ġtkaniny": 6493,
      "Ġomawi": 6494,
      "Ġbezposredni": 6495,
      "Ġewentualnego": 6496,
      "Ġ157": 6497,
      "Ġpowietrza": 6498,
      "Ġdosz": 6499,
      "Ġzawodowej": 6500,
      "ĠskÅĤadnika": 6501,
      "Ġgranica": 6502,
      "Ġwiedzy": 6503,
      "Ġszkolenia": 6504,
      "Ġalternatyw": 6505,
      "Ġpowietrznych": 6506,
      "ĠcaÅĤego": 6507,
      "ĠwypÅĤaty": 6508,
      "Ġograniczajacych": 6509,
      "Ġkomple": 6510,
      "Ġzawi": 6511,
      "Ġzajmu": 6512,
      "Ġposiadania": 6513,
      "Ġwtor": 6514,
      "Ġwodach": 6515,
      "zan": 6516,
      "Ġopa": 6517,
      "Ġhttp": 6518,
      "czech": 6519,
      "Ġdeuts": 6520,
      "ĠniepeÅĤnospraw": 6521,
      "Ġadwok": 6522,
      "Ġproble": 6523,
      "Ġniemczech": 6524,
      "cien": 6525,
      "ĠspoÅĤeczenstwa": 6526,
      "hof": 6527,
      "Ġrozpatrywanego": 6528,
      "Ġpopiera": 6529,
      "Ġjakichkolwiek": 6530,
      "Ġstowarzy": 6531,
      "Ġdozwol": 6532,
      "ycy": 6533,
      "Ġuzyskane": 6534,
      "Ġbundes": 6535,
      "chodu": 6536,
      "Ġuwzglednione": 6537,
      "Ġobraz": 6538,
      "Ġinformuje": 6539,
      "Ġwymiarze": 6540,
      "ÏģÎ¹": 6541,
      "ĠcaÅĤosc": 6542,
      "Ġlep": 6543,
      "Ġgli": 6544,
      "Ġscisle": 6545,
      "ple": 6546,
      "Ġwzmoc": 6547,
      "Ġzapas": 6548,
      "Ġapel": 6549,
      "Ġzakupu": 6550,
      "Ġpremi": 6551,
      "Ġpoja": 6552,
      "Ġplc": 6553,
      "Ġavia": 6554,
      "Ġdyrektyw": 6555,
      "Ġminimalna": 6556,
      "chen": 6557,
      "Ġ147": 6558,
      "Ġpsze": 6559,
      "adu": 6560,
      "ĠzrodÅĤo": 6561,
      "Ġwszczeciu": 6562,
      "grafi": 6563,
      "ÏģÎ±": 6564,
      "Ġspe": 6565,
      "Ġkwalifikowa": 6566,
      "Ġghs": 6567,
      "jet": 6568,
      "Ġfre": 6569,
      "wiac": 6570,
      "Ġuzycie": 6571,
      "Ġczynniki": 6572,
      "Ġpracownicy": 6573,
      "Ġoperatora": 6574,
      "Ġpodobien": 6575,
      "Ġkontyngentu": 6576,
      "Ġ137": 6577,
      "Ġ180": 6578,
      "Ġdzieki": 6579,
      "Ġdokonana": 6580,
      "Ġdrewna": 6581,
      "Ġzdecyd": 6582,
      "Ġkontakt": 6583,
      "Ġpopu": 6584,
      "Ġprzedstawiona": 6585,
      "Ġwyciag": 6586,
      "Ġpowoduje": 6587,
      "Ġorganami": 6588,
      "Ġkoniec": 6589,
      "Ġuczestnictwa": 6590,
      "Ġreak": 6591,
      "ct": 6592,
      "Ġutrzymanie": 6593,
      "Ġznaczeniu": 6594,
      "ĠogoÅĤem": 6595,
      "Ġkoszt": 6596,
      "Ġ270": 6597,
      "dia": 6598,
      "Ġix": 6599,
      "cyp": 6600,
      "Ġbedacy": 6601,
      "Ġuj": 6602,
      "Ġ178": 6603,
      "Ġznakiem": 6604,
      "Ġusuniecia": 6605,
      "Ġobywatela": 6606,
      "Ġwstepie": 6607,
      "Ġ143": 6608,
      "zja": 6609,
      "nen": 6610,
      "Ġprzejrzystosci": 6611,
      "Ġargumentu": 6612,
      "Ġodzie": 6613,
      "Ġprzewodniczacego": 6614,
      "ĠtÅĤumac": 6615,
      "Ġeksploatacji": 6616,
      "Ġtwierdz": 6617,
      "Î´": 6618,
      "Ġzwalczania": 6619,
      "Ġkoz": 6620,
      "Ġprzedsiewziecia": 6621,
      "lowe": 6622,
      "Ġnasiona": 6623,
      "owszech": 6624,
      "Ġkonkretnych": 6625,
      "Ġkrze": 6626,
      "Ġpodejmuje": 6627,
      "ĠprzepÅĤy": 6628,
      "Ġ0003": 6629,
      "ĠÅĤaczna": 6630,
      "Ġutrzymywa": 6631,
      "Ġwarzywa": 6632,
      "wieniu": 6633,
      "Ġostatnich": 6634,
      "czyÅĤa": 6635,
      "Ġdominujaca": 6636,
      "Ġcre": 6637,
      "ĠwÅĤoski": 6638,
      "Ġwzory": 6639,
      "Ġ1989": 6640,
      "Ġzwany": 6641,
      "Ġograniczona": 6642,
      "Ġmajaca": 6643,
      "Ġfirmy": 6644,
      "Ġskarb": 6645,
      "lc": 6646,
      "sprze": 6647,
      "Ġkory": 6648,
      "Ġsar": 6649,
      "tre": 6650,
      "ange": 6651,
      "sh": 6652,
      "tarza": 6653,
      "ÅĤowi": 6654,
      "Ġwsrod": 6655,
      "Ġuzywane": 6656,
      "Ġzadne": 6657,
      "komunik": 6658,
      "Ġportugals": 6659,
      "Ġprzychodow": 6660,
      "ĠprzedÅĤozone": 6661,
      "ĠspoÅĤecznych": 6662,
      "Ġnauk": 6663,
      "Ġponiesionych": 6664,
      "Ġpetro": 6665,
      "Ġostatniego": 6666,
      "ĠpostanowiÅĤ": 6667,
      "iac": 6668,
      "Ġczer": 6669,
      "Ġodpowiednia": 6670,
      "Ġpiec": 6671,
      "Ġpanstwem": 6672,
      "Ġdocu": 6673,
      "Ġrepublice": 6674,
      "Ġbur": 6675,
      "owani": 6676,
      "Ġargumentacja": 6677,
      "solid": 6678,
      "ĠnaruszyÅĤ": 6679,
      "Ġostroz": 6680,
      "kry": 6681,
      "Ġprzestrzega": 6682,
      "ĠpÅĤywa": 6683,
      "Ġakcjonari": 6684,
      "ĠmogÅĤby": 6685,
      "stow": 6686,
      "mace": 6687,
      "Ġagencje": 6688,
      "Ġnast": 6689,
      "Ġindywidualnych": 6690,
      "Ġodstepstwo": 6691,
      "Ġwyjasnienia": 6692,
      "Ġpoczawszy": 6693,
      "Ġodzwierciedla": 6694,
      "Ġ021": 6695,
      "fc": 6696,
      "Ġ142": 6697,
      "Ġ234": 6698,
      "hydro": 6699,
      "Ġorzeczen": 6700,
      "ĠmÅĤod": 6701,
      "ĠnaruszyÅĤa": 6702,
      "Ġakcyz": 6703,
      "Ġmody": 6704,
      "Ġpodmiotom": 6705,
      "Ġzwazywszy": 6706,
      "Ġczestotliwosci": 6707,
      "Ġrezyden": 6708,
      "dziaÅĤa": 6709,
      "przewod": 6710,
      "Ġpodkreslic": 6711,
      "Ġdochody": 6712,
      "Ġ2150": 6713,
      "Ġ0406": 6714,
      "Ġjednozna": 6715,
      "ĠmogÅĤo": 6716,
      "Ġskutecznej": 6717,
      "Ġporozumieniu": 6718,
      "Ġspecjalnie": 6719,
      "niaja": 6720,
      "Ġwydana": 6721,
      "Ġmiedzynarodowe": 6722,
      "ĠdziaÅĤalnoscia": 6723,
      "ĠprzesyÅĤa": 6724,
      "ĠzakÅĤoce": 6725,
      "Ġmiesiaca": 6726,
      "Ġpozbawi": 6727,
      "Ġ800": 6728,
      "ĠwÅĤasciwa": 6729,
      "Ġwymaganych": 6730,
      "owuje": 6731,
      "yjnej": 6732,
      "Ġrub": 6733,
      "Ġprzem": 6734,
      "trum": 6735,
      "Ġwych": 6736,
      "Ġgatunku": 6737,
      "Ġzapobiegania": 6738,
      "Ġinterwenienta": 6739,
      "ĠpowoÅĤ": 6740,
      "Ġrezult": 6741,
      "Ġrezultacie": 6742,
      "jska": 6743,
      "ÏĦÎ±": 6744,
      "Ġjednolitego": 6745,
      "Ġprzepisie": 6746,
      "Ġdekretu": 6747,
      "Ġdalsze": 6748,
      "Ġodnosza": 6749,
      "Ġpodniesione": 6750,
      "ÏīÎ½": 6751,
      "Ġnegocjacji": 6752,
      "Ġgranice": 6753,
      "Ġbieg": 6754,
      "Ġniedyskrymina": 6755,
      "ose": 6756,
      "Ġstrefy": 6757,
      "Ġjakiejkolwiek": 6758,
      "ori": 6759,
      "Ġkorek": 6760,
      "Ġ414": 6761,
      "Ġkolejnych": 6762,
      "Ġxii": 6763,
      "Ġtechnicznego": 6764,
      "Ġzmianami": 6765,
      "Ġmoca": 6766,
      "Ġsprawd": 6767,
      "ĠchÅĤod": 6768,
      "wro": 6769,
      "Ġarku": 6770,
      "Ġimi": 6771,
      "ĠsÅĤod": 6772,
      "Ġzagad": 6773,
      "uri": 6774,
      "Ġace": 6775,
      "Ġadwokat": 6776,
      "owienia": 6777,
      "Ġzwykle": 6778,
      "Ġspotka": 6779,
      "fin": 6780,
      "Ġrozpoczecia": 6781,
      "76": 6782,
      "Ġstanowiacych": 6783,
      "Ġest": 6784,
      "Ġmaksymalnej": 6785,
      "Ġrentow": 6786,
      "Ġostateczna": 6787,
      "Ġbedacego": 6788,
      "Ġwskazuja": 6789,
      "Ġpodstawowej": 6790,
      "wat": 6791,
      "Ġpowiazane": 6792,
      "jsc": 6793,
      "Ġ2138": 6794,
      "Ġprzekazane": 6795,
      "Ġwydaj": 6796,
      "Ġzauwa": 6797,
      "Ġdwudzie": 6798,
      "zeniach": 6799,
      "Ġ310": 6800,
      "Ġjednolitej": 6801,
      "Ġraczej": 6802,
      "Ġkrajowa": 6803,
      "ĠstaÅĤy": 6804,
      "Ġ204": 6805,
      "Ġdokonywac": 6806,
      "ĠÏĥ": 6807,
      "Ġniewiel": 6808,
      "waÅĤa": 6809,
      "Ġdyscyp": 6810,
      "sek": 6811,
      "Ġodpowiedziec": 6812,
      "Ġkoncentracji": 6813,
      "Ġwnoszacy": 6814,
      "Ġinstrumentu": 6815,
      "ĠudziaÅĤy": 6816,
      "Ġryzykiem": 6817,
      "0010": 6818,
      "ben": 6819,
      "czo": 6820,
      "Ġzmieniona": 6821,
      "orod": 6822,
      "Ġbiologi": 6823,
      "Ġegzeku": 6824,
      "Ġeuropa": 6825,
      "Ġpodlegac": 6826,
      "Ġczu": 6827,
      "Ġniewystarcza": 6828,
      "Ġzawartego": 6829,
      "Ġprzypomina": 6830,
      "Ġzazad": 6831,
      "Ġzbadania": 6832,
      "Ġeksporter": 6833,
      "Ġrezolu": 6834,
      "Ġ1068": 6835,
      "Ġpodejscie": 6836,
      "bia": 6837,
      "Ġprepar": 6838,
      "zami": 6839,
      "Ġfrance": 6840,
      "maceu": 6841,
      "Ġzmniejszenie": 6842,
      "Ġpodnosza": 6843,
      "Ġobre": 6844,
      "nich": 6845,
      "Ġpal": 6846,
      "Ġposiedzeniu": 6847,
      "Ġeduk": 6848,
      "Ġamery": 6849,
      "Ġzmienionej": 6850,
      "Ġpowro": 6851,
      "Ġczwarte": 6852,
      "Ġpostanowieniami": 6853,
      "Ġprzedsiebiorczosci": 6854,
      "tie": 6855,
      "Ġuzyskanie": 6856,
      "Ġmotywu": 6857,
      "Ġwatrob": 6858,
      "owki": 6859,
      "faul": 6860,
      "Ġdemo": 6861,
      "Ġroboty": 6862,
      "nal": 6863,
      "ĠupÅĤywem": 6864,
      "Ġwykry": 6865,
      "Ġklima": 6866,
      "Ġsme": 6867,
      "Ġkompetencje": 6868,
      "ĠdÅĤugotermin": 6869,
      "bor": 6870,
      "kans": 6871,
      "Ġnadaw": 6872,
      "Ġnaleza": 6873,
      "Ġfizyczne": 6874,
      "Ġkorzystac": 6875,
      "Ġleg": 6876,
      "ĠoddaliÅĤ": 6877,
      "tacje": 6878,
      "Ġpolskiej": 6879,
      "Ġwazne": 6880,
      "Ġszczegolna": 6881,
      "Ġtyto": 6882,
      "Ġbadanym": 6883,
      "Ġzasadach": 6884,
      "ĠzÅĤozonych": 6885,
      "Ġ900": 6886,
      "Ġjadr": 6887,
      "Ġuprosz": 6888,
      "Ġwymieniony": 6889,
      "Ġprzyjmowania": 6890,
      "ute": 6891,
      "Ġkukury": 6892,
      "ĠdÅĤugosc": 6893,
      "Ġtelefo": 6894,
      "Ġ152": 6895,
      "Ġustanowionego": 6896,
      "Ġdrogi": 6897,
      "Ġwykonawca": 6898,
      "Ġbudowlane": 6899,
      "ĠspeÅĤniac": 6900,
      "lib": 6901,
      "Ġaktua": 6902,
      "Ġwyznacza": 6903,
      "Ġaustriac": 6904,
      "Ġprzyznanych": 6905,
      "Ġprzeprowadzic": 6906,
      "Ġgranicz": 6907,
      "Ġ0207": 6908,
      "Ġkwocie": 6909,
      "Ġ170": 6910,
      "Ġrynkowej": 6911,
      "orty": 6912,
      "Ġodszkodowanie": 6913,
      "mann": 6914,
      "Ġ151": 6915,
      "giem": 6916,
      "Ġtowarowym": 6917,
      "Ġliscie": 6918,
      "Ġ299": 6919,
      "Ġprejudycjalnego": 6920,
      "Ġstowarzyszenia": 6921,
      "gos": 6922,
      "ĠprotokoÅĤ": 6923,
      "Ġkomputer": 6924,
      "Ġrop": 6925,
      "Ġuprawniony": 6926,
      "Ġ!": 6927,
      "df": 6928,
      "Ġcelnym": 6929,
      "Ġ155": 6930,
      "Ġ168": 6931,
      "Ġ630": 6932,
      "Ġzwiazanego": 6933,
      "Ġuznawania": 6934,
      "Ġuzasadniona": 6935,
      "ĠâĢĺ": 6936,
      "Ġhandlowe": 6937,
      "Ġustawodawstwa": 6938,
      "Ġsiedli": 6939,
      "Ġprecyzyj": 6940,
      "Ġ1001": 6941,
      "Ġkolor": 6942,
      "Ġlogi": 6943,
      "jaÅĤ": 6944,
      "Ġ722": 6945,
      "Ġdodatkow": 6946,
      "wiska": 6947,
      "ial": 6948,
      "ĠmogÅĤaby": 6949,
      "ock": 6950,
      "Ġzrownowa": 6951,
      "Ġmiasta": 6952,
      "Ġszpi": 6953,
      "tunek": 6954,
      "Ġaustria": 6955,
      "ms": 6956,
      "Ġnajem": 6957,
      "Ġposrednio": 6958,
      "Ġpodatkowy": 6959,
      "Ġ1000": 6960,
      "wanym": 6961,
      "Ġzmieniajaca": 6962,
      "Ġdodatkowego": 6963,
      "Ġbedaca": 6964,
      "Ġprzywozowych": 6965,
      "Ġpodnosz": 6966,
      "Ġwido": 6967,
      "Ġkonserw": 6968,
      "Ġzawieszenia": 6969,
      "Ġpoczatku": 6970,
      "Ġbezposrednie": 6971,
      "Ġzagrozenie": 6972,
      "Ġzinte": 6973,
      "Ġsza": 6974,
      "Ġwazna": 6975,
      "Ġnieuczci": 6976,
      "Ġsle": 6977,
      "pii": 6978,
      "Ġcztery": 6979,
      "ĠciagÅĤ": 6980,
      "Ġpolski": 6981,
      "Ð¸Ñ": 6982,
      "Ġkoordynacji": 6983,
      "Ġuprzednio": 6984,
      "Ġfederalna": 6985,
      "Ġstosunek": 6986,
      "Ġtymczasowe": 6987,
      "Ġ1408": 6988,
      "ÅĤuje": 6989,
      "Ġostatnie": 6990,
      "Ġaviation": 6991,
      "tycznym": 6992,
      "Ġopartego": 6993,
      "Ġszczeblu": 6994,
      "Ġbadaniu": 6995,
      "Ġutrwa": 6996,
      "sor": 6997,
      "noszenia": 6998,
      "Ġcl": 6999,
      "Ġdefaul": 7000,
      "Ġzaprojekt": 7001,
      "Ġtelekomunik": 7002,
      "ÏģÎ¿": 7003,
      "Ġcelach": 7004,
      "Ġsporna": 7005,
      "line": 7006,
      "Ġklauzuli": 7007,
      "Ġtwierdzenia": 7008,
      "Ġ149": 7009,
      "Ġwejscie": 7010,
      "Ġproponuje": 7011,
      "Ġterminow": 7012,
      "bl": 7013,
      "Ġistnia": 7014,
      "Ġprzeprowadzania": 7015,
      "Ġsamolo": 7016,
      "Ġniewym": 7017,
      "Ġkobie": 7018,
      "Ġ700": 7019,
      "Ġwalc": 7020,
      "Ġproby": 7021,
      "Ġuniemozliwia": 7022,
      "Ġzaop": 7023,
      "Ġwskazania": 7024,
      "Ġprocesie": 7025,
      "Ġoparta": 7026,
      "chlor": 7027,
      "Ġfundusze": 7028,
      "Ġcentrum": 7029,
      "Ġstanowiace": 7030,
      "anka": 7031,
      "Î¸": 7032,
      "szeniu": 7033,
      "ĠpoÅĤowy": 7034,
      "zyczna": 7035,
      "Ġ156": 7036,
      "Ġposiadacz": 7037,
      "Ġgatunek": 7038,
      "cznymi": 7039,
      "Ġjaj": 7040,
      "Ġnb": 7041,
      "Ġindone": 7042,
      "Ġzakup": 7043,
      "rope": 7044,
      "Ġzwiekszenie": 7045,
      "Ġ144": 7046,
      "Ġpodatnik": 7047,
      "ĠprzyjeÅĤa": 7048,
      "Ġokresy": 7049,
      "Ġdystrybucji": 7050,
      "Ġudzielic": 7051,
      "Ġszereg": 7052,
      "Ġrozpoczy": 7053,
      "Ġ182": 7054,
      "Ġposzanowania": 7055,
      "Ġaroma": 7056,
      "Ġmoje": 7057,
      "burg": 7058,
      "Ġkarnego": 7059,
      "Ġoddalona": 7060,
      "Ġbazy": 7061,
      "Ġstwar": 7062,
      "Ġpunkty": 7063,
      "traz": 7064,
      "Ġfeder": 7065,
      "Ġnaped": 7066,
      "gon": 7067,
      "Ġustanowiony": 7068,
      "Ġministra": 7069,
      "Ġroszczenia": 7070,
      "Ġpodejmowania": 7071,
      "Ġplat": 7072,
      "Ġhipote": 7073,
      "eca": 7074,
      "Ġoskar": 7075,
      "Ġadministracyjnej": 7076,
      "Ġistotny": 7077,
      "Ġreklam": 7078,
      "Ġplac": 7079,
      "Ġmig": 7080,
      "Ġprezesa": 7081,
      "wig": 7082,
      "Ġosia": 7083,
      "Ġpowietrznego": 7084,
      "Ġpraktyce": 7085,
      "Ġnalicz": 7086,
      "iacie": 7087,
      "Ġuporzadkowanej": 7088,
      "Ġoleje": 7089,
      "ĠwypÅĤaca": 7090,
      "Ġpowiadomi": 7091,
      "cor": 7092,
      "Ġinicjatywy": 7093,
      "Ġracjona": 7094,
      "Ġzmniejszenia": 7095,
      "Ġprezy": 7096,
      "Ġpracodawcy": 7097,
      "Ġswe": 7098,
      "Ġklienta": 7099,
      "Ġscalonej": 7100,
      "Ġrozumiec": 7101,
      "Ġwino": 7102,
      "Ġsodu": 7103,
      "Ġdodatkowy": 7104,
      "Ġmiesiace": 7105,
      "Ġgwarancje": 7106,
      "Ġprzestrzeni": 7107,
      "Ġpaliw": 7108,
      "Ġdepar": 7109,
      "Ġanalogicznie": 7110,
      "Ġpreparaty": 7111,
      "zib": 7112,
      "ÅĤasci": 7113,
      "break": 7114,
      "Ġsztuk": 7115,
      "Ġnajlep": 7116,
      "ĠopÅĤata": 7117,
      "Ġsadowych": 7118,
      "Ġustanowic": 7119,
      "Ġwpzib": 7120,
      "Ġtelewizyj": 7121,
      "Ġ213800": 7122,
      "Ġzdania": 7123,
      "Ġzalezy": 7124,
      "Ġspali": 7125,
      "Ġmechanizm": 7126,
      "Ġfunkcjona": 7127,
      "Ġdyspon": 7128,
      "Ġistotna": 7129,
      "Ġdotacji": 7130,
      "ĠwyÅĤaczenia": 7131,
      "Ġsolidar": 7132,
      "Ġwyrzad": 7133,
      "Ġmagne": 7134,
      "roduk": 7135,
      "Ġodpowiedzialne": 7136,
      "Ġsredniej": 7137,
      "Ġcoro": 7138,
      "Ġprzedstawiciela": 7139,
      "Ġfoto": 7140,
      "Ġktoremu": 7141,
      "Ġzawiesic": 7142,
      "onari": 7143,
      "lono": 7144,
      "Ġuznany": 7145,
      "Ġkonf": 7146,
      "Ġprzeciwnie": 7147,
      "Ġniezgodne": 7148,
      "Ġpin": 7149,
      "Ġ330": 7150,
      "Ġprzepisom": 7151,
      "Ġnaturalnego": 7152,
      "Ġ640": 7153,
      "Ġumozliwienia": 7154,
      "Ġuzytkownika": 7155,
      "Ġunika": 7156,
      "Ġrn": 7157,
      "Ġgeme": 7158,
      "Ġustalono": 7159,
      "Ġspojnosci": 7160,
      "Ġfizyczna": 7161,
      "Ġseg": 7162,
      "ole": 7163,
      "Ġke": 7164,
      "Ġprywatnych": 7165,
      "Ġunikniecia": 7166,
      "rzeb": 7167,
      "Ġkas": 7168,
      "Ġ1988": 7169,
      "Ġpowiazanych": 7170,
      "Ġkomplet": 7171,
      "Ġdniach": 7172,
      "Ġwyrazenie": 7173,
      "Ġnarzedzi": 7174,
      "ĠkapitaÅĤowych": 7175,
      "Ġwiersz": 7176,
      "Ġcp": 7177,
      "Ġsporny": 7178,
      "ĠprzywoÅĤa": 7179,
      "Ġ167": 7180,
      "Î¹Îº": 7181,
      "rzec": 7182,
      "ĠbydÅĤa": 7183,
      "reszta": 7184,
      "aria": 7185,
      "Ġobnizenia": 7186,
      "Ġzreszta": 7187,
      "Ġmacier": 7188,
      "Ġobszary": 7189,
      "Ġmaga": 7190,
      "Ġuchylenia": 7191,
      "Ġzastrzezenia": 7192,
      "gli": 7193,
      "Ġpolityka": 7194,
      "Ġimpor": 7195,
      "acyjnym": 7196,
      "Ġmortga": 7197,
      "Ġklasa": 7198,
      "Ġniesp": 7199,
      "Ġrozpoczyna": 7200,
      "tylu": 7201,
      "Ġucz": 7202,
      "Ġswiadectw": 7203,
      "Ġzaprzesta": 7204,
      "Ġmortgages": 7205,
      "Ġkonca": 7206,
      "Ġvon": 7207,
      "Ġdefaulted": 7208,
      "Ġzwiazki": 7209,
      "Ġwszczecia": 7210,
      "Ġinformacjami": 7211,
      "Ġprzedawnienia": 7212,
      "Ġ1107": 7213,
      "Ġmajacym": 7214,
      "Ġwprowadzic": 7215,
      "klu": 7216,
      "Ġnaukowych": 7217,
      "Ġrealizacje": 7218,
      "ĠspoÅĤeczne": 7219,
      "Ġwskaznikow": 7220,
      "Ġ153": 7221,
      "Ġgrubosci": 7222,
      "tive": 7223,
      "Ġuprawnienie": 7224,
      "Ġpasazerow": 7225,
      "Ġhamul": 7226,
      "Ġpierwszen": 7227,
      "Ġgas": 7228,
      "Ġ165": 7229,
      "lenu": 7230,
      "Ġawar": 7231,
      "Ġodno": 7232,
      "linar": 7233,
      "ĠtÅĤuszczu": 7234,
      "Ġple": 7235,
      "Ġdodatki": 7236,
      "Ġpowle": 7237,
      "ĠodsyÅĤajacym": 7238,
      "Ġprzystapie": 7239,
      "Ġita": 7240,
      "Ġdobrow": 7241,
      "Ġskorzyst": 7242,
      "Ġszesciu": 7243,
      "Ġimport": 7244,
      "Ġdrogowego": 7245,
      "Ġnalezycie": 7246,
      "nianych": 7247,
      "Ġtribunal": 7248,
      "Ġdesty": 7249,
      "val": 7250,
      "wedz": 7251,
      "Ġuzyski": 7252,
      "Ġswych": 7253,
      "Ġludowej": 7254,
      "Ġwydanych": 7255,
      "Ïĩ": 7256,
      "Ġpowtor": 7257,
      "Ġdomowych": 7258,
      "Ġzbiera": 7259,
      "Ġnace": 7260,
      "Ġkwestionari": 7261,
      "Ġindywidualnie": 7262,
      "yjnego": 7263,
      "Ġwskazanie": 7264,
      "Ġcentralne": 7265,
      "Ġidentyfikacyjny": 7266,
      "Ġrzadowych": 7267,
      "glu": 7268,
      "Ġliczbie": 7269,
      "Ġprzeniesienie": 7270,
      "Ġdetalicznej": 7271,
      "Ġutraty": 7272,
      "Ġtlen": 7273,
      "tkami": 7274,
      "Ġcla": 7275,
      "Ġurzedowych": 7276,
      "Ġskutecznosc": 7277,
      "Ġdis": 7278,
      "Ġprawodawca": 7279,
      "los": 7280,
      "Ġzim": 7281,
      "ex": 7282,
      "Ġreasekuracji": 7283,
      "Ġzapros": 7284,
      "Ġrozwiazanie": 7285,
      "Ġzrealiz": 7286,
      "jazdu": 7287,
      "Ġ261": 7288,
      "ĠsiÅĤy": 7289,
      "Ġwykonawczym": 7290,
      "syw": 7291,
      "ĠdziaÅĤu": 7292,
      "Ġrazem": 7293,
      "Ġsredni": 7294,
      "Ġredu": 7295,
      "Ġ2694": 7296,
      "Ġzarejestrowany": 7297,
      "rii": 7298,
      "Ġskres": 7299,
      "Ġ161": 7300,
      "ard": 7301,
      "Ġrozpoznania": 7302,
      "Ġotrzymane": 7303,
      "grywa": 7304,
      "Ġ510": 7305,
      "Ġorzecznictwie": 7306,
      "Ġwste": 7307,
      "oro": 7308,
      "Ġobywatelstwo": 7309,
      "Ġbri": 7310,
      "mum": 7311,
      "Ġnieznane": 7312,
      "Ġmil": 7313,
      "ĠpeÅĤnej": 7314,
      "Ġklasyfikacja": 7315,
      "wieniem": 7316,
      "Ġzaznaczyc": 7317,
      "Ġinstalacje": 7318,
      "Ġid": 7319,
      "czac": 7320,
      "ĠposÅĤu": 7321,
      "Ġwykonuje": 7322,
      "Ġpoczat": 7323,
      "Ġponosi": 7324,
      "Ġmajatku": 7325,
      "ĠpowoÅĤywac": 7326,
      "omer": 7327,
      "Ġnastepnego": 7328,
      "Ġurzedowego": 7329,
      "lni": 7330,
      "Ġprogramy": 7331,
      "wspo": 7332,
      "zaniem": 7333,
      "Ġrezydenta": 7334,
      "Ġtemperaturze": 7335,
      "Ġhy": 7336,
      "Ġkonsumen": 7337,
      "Ġaktach": 7338,
      "Ġodcin": 7339,
      "Ġrozporzadzen": 7340,
      "Ġmechanizmu": 7341,
      "Ġdziesie": 7342,
      "Ġwspomniany": 7343,
      "Ġwielokrot": 7344,
      "ĠwÅĤokna": 7345,
      "Ġwad": 7346,
      "Ġdalszego": 7347,
      "Ġuszkod": 7348,
      "Ġcenie": 7349,
      "Ġustanowiona": 7350,
      "Ġ184": 7351,
      "Ġpochodzacego": 7352,
      "Ġfur": 7353,
      "hy": 7354,
      "Ġregion": 7355,
      "Ġfundusz": 7356,
      "Ġindeks": 7357,
      "Ġrynkach": 7358,
      "Ġwyznaczonym": 7359,
      "Ġ154": 7360,
      "zed": 7361,
      "Ġdostawcow": 7362,
      "mas": 7363,
      "Ġpojemnosci": 7364,
      "Ġzatrzyma": 7365,
      "cial": 7366,
      "Ġdochodowego": 7367,
      "Ġkrzy": 7368,
      "Ġkonkur": 7369,
      "ĠzaÅĤozeniu": 7370,
      "Ġrefundacje": 7371,
      "Ġuzycia": 7372,
      "Ġpozytyw": 7373,
      "Ġinteresy": 7374,
      "ĠpozostaÅĤa": 7375,
      "Ġograniczyc": 7376,
      "raczac": 7377,
      "Ġfinansowy": 7378,
      "Ġantydumpingowych": 7379,
      "Ġrozpuszcza": 7380,
      "Ġpokrycia": 7381,
      "mus": 7382,
      "Ġminimalne": 7383,
      "Ġszwecji": 7384,
      "Ġzapobiega": 7385,
      "Ġea": 7386,
      "Î¿Î½": 7387,
      "Ġanalize": 7388,
      "ĠczÅĤonkami": 7389,
      "ĠÕ": 7390,
      "zyÅĤy": 7391,
      "Ġbrzmienia": 7392,
      "ĠwÅĤokienniczych": 7393,
      "forma": 7394,
      "Ġskorzystac": 7395,
      "ken": 7396,
      "ĠzasiÅĤ": 7397,
      "Ġprzekazanych": 7398,
      "Ġ146": 7399,
      "Ġaspektow": 7400,
      "Ġweglowod": 7401,
      "Ġwyposazenia": 7402,
      "ĠwyÅĤaczenie": 7403,
      "ong": 7404,
      "Ġakces": 7405,
      "Ġwith": 7406,
      "Ġwzajemnego": 7407,
      "Ġmis": 7408,
      "Ġodpowiedzialny": 7409,
      "Ġdrobiu": 7410,
      "Ġneutra": 7411,
      "Ġ550": 7412,
      "ĠzoÅĤ": 7413,
      "Ġznaczy": 7414,
      "Ġemiten": 7415,
      "Ġdodatkowo": 7416,
      "Ġwzros": 7417,
      "Ġnomina": 7418,
      "Ġjasno": 7419,
      "zaÅĤoby": 7420,
      "Ġpop": 7421,
      "Ġprzewidzianym": 7422,
      "Ġuzytecz": 7423,
      "Ġzewnetrznych": 7424,
      "Ġtas": 7425,
      "Ġsprzet": 7426,
      "Ġinni": 7427,
      "Ġposzu": 7428,
      "Ġinwestycyjnych": 7429,
      "Ġpowodztwo": 7430,
      "Ġrezerwy": 7431,
      "Ġprzestrzen": 7432,
      "Ġzamiast": 7433,
      "Ġprzebywa": 7434,
      "Ġfinansowym": 7435,
      "ĠpoÅĤaczone": 7436,
      "Ġnarodow": 7437,
      "ĠmaÅĤo": 7438,
      "Ġbor": 7439,
      "Ġportfe": 7440,
      "Ġluksemburgu": 7441,
      "Ġwojewodz": 7442,
      "Ġprowadzone": 7443,
      "Ġewiden": 7444,
      "muni": 7445,
      "Ġchronionych": 7446,
      "Ġwdrozenia": 7447,
      "ziÅĤ": 7448,
      "her": 7449,
      "Ġpoziomy": 7450,
      "Ġsrodkach": 7451,
      "lam": 7452,
      "bry": 7453,
      "Ġ158": 7454,
      "Ġ560": 7455,
      "Ġrejestracje": 7456,
      "Ġwymienionego": 7457,
      "Ġuchybi": 7458,
      "Ġsty": 7459,
      "Ġnig": 7460,
      "Ġobnizenie": 7461,
      "Ġsekretariacie": 7462,
      "ĠpoÅĤnocnej": 7463,
      "Ġnastepujaco": 7464,
      "Ġprzyznanej": 7465,
      "Ġ337": 7466,
      "Ġkierunku": 7467,
      "Ġobjetosci": 7468,
      "ĠbaweÅĤny": 7469,
      "Ġprzewiduja": 7470,
      "Ġkarta": 7471,
      "strzym": 7472,
      "Ġschen": 7473,
      "Ġopakowania": 7474,
      "Ġwinog": 7475,
      "zajacych": 7476,
      "Ġzwiekszenia": 7477,
      "Ġsporow": 7478,
      "Ġmysl": 7479,
      "Ġinteg": 7480,
      "trac": 7481,
      "Ġwyzszej": 7482,
      "ari": 7483,
      "ĠstaÅĤych": 7484,
      "Ġkwar": 7485,
      "ep": 7486,
      "Ġamino": 7487,
      "Ġprzysp": 7488,
      "Ġpotwierdzenie": 7489,
      "Ġpostrze": 7490,
      "waniem": 7491,
      "Ġzawieszenie": 7492,
      "Ġadwokaci": 7493,
      "Ġfarmaceu": 7494,
      "roporcjona": 7495,
      "Ġfen": 7496,
      "tyka": 7497,
      "ya": 7498,
      "Ġwystapie": 7499,
      "ktywne": 7500,
      "biez": 7501,
      "Ġetapu": 7502,
      "Ġnastepujacym": 7503,
      "Ġ480": 7504,
      "Ġdyrektora": 7505,
      "Ġdun": 7506,
      "Ġwysokiej": 7507,
      "Ġfrancuska": 7508,
      "Ġuczy": 7509,
      "Ġol": 7510,
      "Î¿ÏĤ": 7511,
      "Ġstawek": 7512,
      "Ġhandel": 7513,
      "Ġzarzadzajacego": 7514,
      "Ġnazw": 7515,
      "Ġsuch": 7516,
      "ĠpuÅĤa": 7517,
      "Ġrezulta": 7518,
      "Ġnapraw": 7519,
      "Ġuzywanie": 7520,
      "chaft": 7521,
      "Ġuzasadniony": 7522,
      "Ġ396": 7523,
      "Ġwykonawcy": 7524,
      "Ġmieszaniny": 7525,
      "Ġalkohol": 7526,
      "stop": 7527,
      "Ġrzeczpospoli": 7528,
      "Ġdumpingowych": 7529,
      "Ġbanki": 7530,
      "Ġobrobki": 7531,
      "Ġodmowa": 7532,
      "Ġgry": 7533,
      "Ġ175": 7534,
      "Ġstanowisku": 7535,
      "Ġzadaniem": 7536,
      "Ġnieogra": 7537,
      "ou": 7538,
      "Ġrws": 7539,
      "Ġtype": 7540,
      "Ġprzewidziano": 7541,
      "ĠnalezaÅĤo": 7542,
      "Ġkrajowemu": 7543,
      "Ġfinansowanie": 7544,
      "Ġopublikowania": 7545,
      "Ġmili": 7546,
      "Ġrozum": 7547,
      "Ġzmienionego": 7548,
      "Ġuznajac": 7549,
      "Ġzainteresowanego": 7550,
      "Ġbroni": 7551,
      "Ġpublicznym": 7552,
      "Ġszczegolny": 7553,
      "Ġ1515": 7554,
      "ĠskÅĤadnik": 7555,
      "Ġpodaje": 7556,
      "Ġatlan": 7557,
      "Ġincy": 7558,
      "Ġzastosowaniem": 7559,
      "Ġprzyjeta": 7560,
      "ktura": 7561,
      "szlachet": 7562,
      "Ġgruntow": 7563,
      "iem": 7564,
      "ziÅĤa": 7565,
      "kun": 7566,
      "tka": 7567,
      "Ġodpowiadaja": 7568,
      "Ġzadna": 7569,
      "Ġubezpieczeniowych": 7570,
      "Ġ9000": 7571,
      "ĠodesÅĤania": 7572,
      "Ġzjednoczonym": 7573,
      "Ġoczekiwan": 7574,
      "Ġprzedsiebiorstwom": 7575,
      "Ġniepod": 7576,
      "Ġobrebie": 7577,
      "Ġodro": 7578,
      "Ġsubsydi": 7579,
      "Ġpodatnikow": 7580,
      "Ġograniczony": 7581,
      "Ġaresztowania": 7582,
      "Ġnormalnej": 7583,
      "Ġwniesione": 7584,
      "Ġzamknie": 7585,
      "Ġpowodztwa": 7586,
      "Ġnieproporcjona": 7587,
      "Ġpodjete": 7588,
      "Ġdyscyplinar": 7589,
      "Ġszwedz": 7590,
      "Ġotrzymanych": 7591,
      "Ġwykonywaniu": 7592,
      "Ġhistor": 7593,
      "ĠprzedkÅĤada": 7594,
      "Ġumieszczenia": 7595,
      "Ġzauwaza": 7596,
      "Ġpieniezne": 7597,
      "Ġela": 7598,
      "ĠÅĤagod": 7599,
      "oi": 7600,
      "Ġwykluczyc": 7601,
      "Ġtwierdzenie": 7602,
      "Ġwyzsza": 7603,
      "Ġhydroksy": 7604,
      "dae": 7605,
      "Ġurzednika": 7606,
      "zd": 7607,
      "stronnych": 7608,
      "ĠdziaÅĤajace": 7609,
      "Ġprzetwarzanie": 7610,
      "Ġnieogranicz": 7611,
      "Ġnieokres": 7612,
      "Ġrolnej": 7613,
      "Ġustalonych": 7614,
      "Ġzalezna": 7615,
      "Ġwymienia": 7616,
      "Ġtetra": 7617,
      "Ġprzewoznika": 7618,
      "ĠsÅĤowa": 7619,
      "Ġkandydat": 7620,
      "Ġodsetki": 7621,
      "Ġposiadaniu": 7622,
      "Ġ410": 7623,
      "Ġzaopat": 7624,
      "oca": 7625,
      "Ġspalin": 7626,
      "Ġrech": 7627,
      "Ġzarejestrowane": 7628,
      "Ġtrzeba": 7629,
      "ght": 7630,
      "ĠwÅĤasnej": 7631,
      "Ġwystepowania": 7632,
      "lowych": 7633,
      "Ġcompany": 7634,
      "Ġszczegolnego": 7635,
      "Ġlie": 7636,
      "Ġpen": 7637,
      "Ġ015": 7638,
      "Ġemerytury": 7639,
      "tac": 7640,
      "inde": 7641,
      "fikowana": 7642,
      "Ġâī¥": 7643,
      "ĠwspoÅĤpraca": 7644,
      "Ġnap": 7645,
      "Ġtel": 7646,
      "Ġwypadek": 7647,
      "orf": 7648,
      "Ġwstepne": 7649,
      "rawy": 7650,
      "tyki": 7651,
      "Ġinterwenient": 7652,
      "Ġpozar": 7653,
      "cem": 7654,
      "Ġprzedstawicieli": 7655,
      "Ġsiedlisk": 7656,
      "Ġodpowiednimi": 7657,
      "Ġzamawiajacy": 7658,
      "ĠoddziaÅĤywania": 7659,
      "Ã¦": 7660,
      "Ġwyceny": 7661,
      "Ġpierwotnego": 7662,
      "onie": 7663,
      "ĠbyÅĤaby": 7664,
      "Ġzaniecha": 7665,
      "Ġcukier": 7666,
      "Ġimporterow": 7667,
      "Ġelementu": 7668,
      "tyz": 7669,
      "Ġdwudziestego": 7670,
      "Ġspotkania": 7671,
      "Ġsedziow": 7672,
      "Ġdokonano": 7673,
      "dÅĤu": 7674,
      "Ġwywozowych": 7675,
      "Ġlamp": 7676,
      "Ġzwrotowi": 7677,
      "Ġsuma": 7678,
      "Ġkodow": 7679,
      "Ġidentyfika": 7680,
      "iach": 7681,
      "Ġczwartego": 7682,
      "Ġzgad": 7683,
      "toksy": 7684,
      "Ġuwagach": 7685,
      "Ġwydaw": 7686,
      "Ġustalaniu": 7687,
      "Ġruch": 7688,
      "Ġprzynalez": 7689,
      "czono": 7690,
      "Ġprowadzacych": 7691,
      "Ġantydumpingowego": 7692,
      "Ġzroznic": 7693,
      "Ġroszczen": 7694,
      "Ġdr": 7695,
      "Ġmiedzynarodowa": 7696,
      "Ġpoczatkowo": 7697,
      "Ġenergia": 7698,
      "Ġmargines": 7699,
      "Ġ1985": 7700,
      "Ġgran": 7701,
      "Ġmiare": 7702,
      "Ġpodrob": 7703,
      "ĠstaÅĤa": 7704,
      "Ġstoja": 7705,
      "Ġbran": 7706,
      "Ġkurs": 7707,
      "Ġzanieczyszczen": 7708,
      "Ġsmier": 7709,
      "Ġaw": 7710,
      "Ġmez": 7711,
      "Ġ164": 7712,
      "Ġtoks": 7713,
      "Ġ388": 7714,
      "Ġniderlandow": 7715,
      "Ġtozsamosci": 7716,
      "Ġoferta": 7717,
      "ziem": 7718,
      "Ġzaprojektowane": 7719,
      "Ġ171": 7720,
      "Ġustawowych": 7721,
      "Ġpostepowaniach": 7722,
      "fina": 7723,
      "Ġzwiazany": 7724,
      "Ġprzetworzone": 7725,
      "Ġrozpowszech": 7726,
      "Ġunijnym": 7727,
      "Ġnaduzycia": 7728,
      "lex": 7729,
      "Ġwegry": 7730,
      "Ġnapie": 7731,
      "Ġkonkurencje": 7732,
      "Ġniepo": 7733,
      "ĠcaÅĤkowite": 7734,
      "Ġbezpieczenstwo": 7735,
      "Ġdokonywane": 7736,
      "ments": 7737,
      "zwyczaj": 7738,
      "Ġpage": 7739,
      "Ġ169": 7740,
      "Ġniesk": 7741,
      "Ġparlamentow": 7742,
      "Ġpartii": 7743,
      "Ġznami": 7744,
      "ĠwysÅĤucha": 7745,
      "Ġdar": 7746,
      "Ġposiadajace": 7747,
      "Ġpodane": 7748,
      "Ġ187": 7749,
      "ÏĨ": 7750,
      "Ġ163": 7751,
      "Ġ176": 7752,
      "Ġdacie": 7753,
      "Ġustawodawstwo": 7754,
      "Ġwykorzystaniem": 7755,
      "Ġmonta": 7756,
      "mujac": 7757,
      "Ġiran": 7758,
      "Ġstosuja": 7759,
      "Ġadministracyjny": 7760,
      "Ġ940": 7761,
      "Ġpodsu": 7762,
      "Ġwaznosc": 7763,
      "Ġprzesz": 7764,
      "Ġakcje": 7765,
      "ĠpeÅĤnego": 7766,
      "Ġsamorzadowych": 7767,
      "Ġchinskiej": 7768,
      "Ġporownania": 7769,
      "stycznej": 7770,
      "ĠwykazaÅĤa": 7771,
      "Ġnadrzed": 7772,
      "Ġzdarzenia": 7773,
      "Ġsposrod": 7774,
      "Ġzapasow": 7775,
      "Ġusci": 7776,
      "ĠkoÅĤ": 7777,
      "Ġrys": 7778,
      "Ġogni": 7779,
      "Ġostroznosci": 7780,
      "Ġmaksymalnie": 7781,
      "Ġ205": 7782,
      "Ġzorganiz": 7783,
      "Ġprzyznawania": 7784,
      "Ġakcesor": 7785,
      "lowy": 7786,
      "Ġ190": 7787,
      "Ġcywilnych": 7788,
      "Ġ1006": 7789,
      "Ġosie": 7790,
      "Ġteksty": 7791,
      "ierw": 7792,
      "Ġkara": 7793,
      "Ġzawodowych": 7794,
      "Ġ343": 7795,
      "Ġnarzedzia": 7796,
      "Ġdanii": 7797,
      "Ġpozwalaja": 7798,
      "ĠzÅĤozona": 7799,
      "Ġzmody": 7800,
      "Ġnastepujacymi": 7801,
      "Ġkonkretnego": 7802,
      "ĠdziaÅĤajacego": 7803,
      "Ġswiadczone": 7804,
      "towanego": 7805,
      "Ġtworzyw": 7806,
      "ĠdokonaÅĤ": 7807,
      "Ġpoprawy": 7808,
      "Ġuprawniona": 7809,
      "Ġesp": 7810,
      "berg": 7811,
      "Ġinspekcji": 7812,
      "zeni": 7813,
      "Ġnabycie": 7814,
      "Ġniewymie": 7815,
      "ĠskÅĤadu": 7816,
      "Ġspecjalnych": 7817,
      "Ġoficja": 7818,
      "Ġujem": 7819,
      "Ġprzygotowa": 7820,
      "Ġlimited": 7821,
      "Ġostrze": 7822,
      "Ġwspolnie": 7823,
      "ĠwydaÅĤ": 7824,
      "Ġrynkowych": 7825,
      "Ġsrednie": 7826,
      "oboj": 7827,
      "Ġrzeczpospolita": 7828,
      "Ġ166": 7829,
      "Ġnajwyzszego": 7830,
      "Ġwydany": 7831,
      "Ġzazwyczaj": 7832,
      "Ġzainteresowanym": 7833,
      "Ġposiadacza": 7834,
      "Ġkodem": 7835,
      "Ġ950": 7836,
      "ĠryczaÅĤ": 7837,
      "400": 7838,
      "lany": 7839,
      "Ġpali": 7840,
      "Ġcerami": 7841,
      "Ġpodpozycja": 7842,
      "Ġzwieksz": 7843,
      "ĠzwÅĤo": 7844,
      "Ġgotow": 7845,
      "Ġproduktami": 7846,
      "Ġkosci": 7847,
      "Ġrozstrzyga": 7848,
      "Ġwybr": 7849,
      "Ġln": 7850,
      "konku": 7851,
      "ĠdokÅĤadnie": 7852,
      "Ġmetode": 7853,
      "lue": 7854,
      "Ġzawodowego": 7855,
      "Ġrezi": 7856,
      "Ġzbyt": 7857,
      "Ġskoryg": 7858,
      "lenek": 7859,
      "Ġ253": 7860,
      "Ġsytuacjach": 7861,
      "Ġpoprzednim": 7862,
      "Ġschengen": 7863,
      "Ġnizsza": 7864,
      "oni": 7865,
      "Ġpobyt": 7866,
      "Ġprzewidziec": 7867,
      "Ġnowo": 7868,
      "Ġramowego": 7869,
      "Ġmal": 7870,
      "Ġczyst": 7871,
      "bili": 7872,
      "czek": 7873,
      "Ġpodwa": 7874,
      "Ġewentualne": 7875,
      "Ġ162": 7876,
      "Ġorganem": 7877,
      "ĠwpÅĤyneÅĤo": 7878,
      "ycznej": 7879,
      "Ġtowarzys": 7880,
      "Ġwykonywane": 7881,
      "Ġselektyw": 7882,
      "Ġtona": 7883,
      "owemu": 7884,
      "Ġgrupie": 7885,
      "Ġnic": 7886,
      "Ġsr": 7887,
      "Ġmodel": 7888,
      "Ġzagwarantowania": 7889,
      "Ġner": 7890,
      "Ġpapiery": 7891,
      "Ġtun": 7892,
      "Ġwiele": 7893,
      "bri": 7894,
      "310": 7895,
      "Ġwymiane": 7896,
      "Ġparlamentowi": 7897,
      "Ġzaza": 7898,
      "ĠÎºÎ±": 7899,
      "ÅĤosc": 7900,
      "Ġwpraw": 7901,
      "Ġprzeana": 7902,
      "scic": 7903,
      "oraz": 7904,
      "Ġwprawdzie": 7905,
      "Ġwizy": 7906,
      "Ġostatniej": 7907,
      "Ġpodroz": 7908,
      "ĠwkÅĤadu": 7909,
      "Ġfosfor": 7910,
      "tri": 7911,
      "Ġpoziomow": 7912,
      "Ġzawierajaca": 7913,
      "laf": 7914,
      "Ġrobot": 7915,
      "Ġ172": 7916,
      "Ġoczywiste": 7917,
      "Ġbv": 7918,
      "Ġbeneficjentow": 7919,
      "ĠopÅĤac": 7920,
      "Ġ226": 7921,
      "szenia": 7922,
      "Ġtwierdza": 7923,
      "Ġprawdopodobienstwa": 7924,
      "konkuren": 7925,
      "Ġroczne": 7926,
      "Ġzaleca": 7927,
      "Ġpsych": 7928,
      "Ġkrolestwie": 7929,
      "Ġdan": 7930,
      "Ġpodd": 7931,
      "Ġprzedsiebiorstwami": 7932,
      "Ġelektroniczna": 7933,
      "ĠwÅĤoska": 7934,
      "Ġuchybienie": 7935,
      "ĠsÅĤuzy": 7936,
      "Ġzaspo": 7937,
      "Ġ203": 7938,
      "ĠprawidÅĤowego": 7939,
      "niane": 7940,
      "Ġnieobje": 7941,
      "Ġrzeko": 7942,
      "nt": 7943,
      "kowan": 7944,
      "Ġmargine": 7945,
      "Ġrejestracyj": 7946,
      "atic": 7947,
      "jskiego": 7948,
      "Ġzwiazanej": 7949,
      "Ġprowadza": 7950,
      "Ġzasta": 7951,
      "ela": 7952,
      "Ġzapa": 7953,
      "Ġopisane": 7954,
      "ĠbÅĤednie": 7955,
      "Ġowego": 7956,
      "Ġofc": 7957,
      "Ġrozm": 7958,
      "ĠdokonaÅĤa": 7959,
      "portu": 7960,
      "Ġzastosowan": 7961,
      "Ġmorskich": 7962,
      "Ġprzypada": 7963,
      "Ġterr": 7964,
      "Ġnadwyz": 7965,
      "ĠzgÅĤas": 7966,
      "Ġinfrastru": 7967,
      "Ġwartoscia": 7968,
      "Ġskrzy": 7969,
      "Ġstandardow": 7970,
      "ÅĤowy": 7971,
      "Ġoszu": 7972,
      "Ġsach": 7973,
      "Ġuchod": 7974,
      "Ġwyrazi": 7975,
      "Ġnapojow": 7976,
      "zeniom": 7977,
      "Ġczesto": 7978,
      "Ġprzeniesi": 7979,
      "Ġpodobnego": 7980,
      "Ġkoncesji": 7981,
      "ant": 7982,
      "Ġuznano": 7983,
      "Ġzalecenia": 7984,
      "Ġ260": 7985,
      "Ġger": 7986,
      "Ġzagranicznych": 7987,
      "Ġodzyskania": 7988,
      "Ġfunkcja": 7989,
      "grzebie": 7990,
      "Ġspecjalnego": 7991,
      "Ġpodatkowa": 7992,
      "jom": 7993,
      "Ġskorzystania": 7994,
      "stro": 7995,
      "Ġszczegolnej": 7996,
      "Ġoswiadczen": 7997,
      "Ġkonwer": 7998,
      "Ġtemperatury": 7999,
      "Ġbezgrzebie": 8000,
      "Ġ450": 8001,
      "Ġroznicy": 8002,
      "ĠweÅĤ": 8003,
      "Ġ1701": 8004,
      "Ġpodlegajace": 8005,
      "Ġwyrazona": 8006,
      "Ġsadami": 8007,
      "ĠcaÅĤkowitego": 8008,
      "ĠksztaÅĤcenia": 8009,
      "Ġmlecznych": 8010,
      "Ġrzady": 8011,
      "Ġ575": 8012,
      "Ġzobowiazuje": 8013,
      "Ġnazwiska": 8014,
      "Ġcywilnej": 8015,
      "ĠzaÅĤacznikach": 8016,
      "Ġprzeprowadzone": 8017,
      "Ġhandlowego": 8018,
      "gnie": 8019,
      "Ġpodatkowym": 8020,
      "zekw": 8021,
      "Ġnota": 8022,
      "Ġprzeci": 8023,
      "ias": 8024,
      "Ġdochodu": 8025,
      "Ġelektryczne": 8026,
      "Ġprzyznac": 8027,
      "ĠwÅĤasciwej": 8028,
      "Ġemisje": 8029,
      "Ġindywidualnej": 8030,
      "Ġrachun": 8031,
      "ye": 8032,
      "Ġdostawa": 8033,
      "Ġleczniczego": 8034,
      "Ġprzekazywane": 8035,
      "fu": 8036,
      "ĠukÅĤadow": 8037,
      "lation": 8038,
      "Ġkredytowych": 8039,
      "Ġoperacje": 8040,
      "Ġokreslania": 8041,
      "Ġnieodp": 8042,
      "Ġkonsumpcji": 8043,
      "Ġvar": 8044,
      "udi": 8045,
      "Ġposredni": 8046,
      "ÏĥÎ·": 8047,
      "towanej": 8048,
      "kredy": 8049,
      "Ġprzedstawiony": 8050,
      "Ġuchodz": 8051,
      "Ġ543": 8052,
      "Ġpodjecie": 8053,
      "Ġzaleznej": 8054,
      "ĠuchwaÅĤa": 8055,
      "Ġdodac": 8056,
      "Ġoblig": 8057,
      "Ġdobr": 8058,
      "Ġwymagany": 8059,
      "Ġkoncep": 8060,
      "Ġstronom": 8061,
      "Ġobecnosc": 8062,
      "Ġzgode": 8063,
      "Ġnajs": 8064,
      "nikach": 8065,
      "king": 8066,
      "tai": 8067,
      "Ġefektywnosci": 8068,
      "ĠmaÅĤych": 8069,
      "Ġwykorzystane": 8070,
      "Ġprzejecia": 8071,
      "Ġwniesienie": 8072,
      "Ġutrzy": 8073,
      "Ġinten": 8074,
      "ometr": 8075,
      "Ġarbitraz": 8076,
      "ĠsÅĤuzace": 8077,
      "Ġpubliczna": 8078,
      "Ġniemozli": 8079,
      "Ġdrz": 8080,
      "Ġocenic": 8081,
      "Ġzbiorowego": 8082,
      "var": 8083,
      "Ġostatecznego": 8084,
      "ycznego": 8085,
      "Ġ211": 8086,
      "Ġgle": 8087,
      "Ġzasoby": 8088,
      "Ġcien": 8089,
      "Ġpapieru": 8090,
      "Ġstresz": 8091,
      "otrzeb": 8092,
      "ĠkawaÅĤ": 8093,
      "Ñĥ": 8094,
      "Ġdodatkowa": 8095,
      "Ġ347": 8096,
      "niÅĤy": 8097,
      "Ġszlachet": 8098,
      "Ġnaci": 8099,
      "ĠczÅĤonkowskiemu": 8100,
      "Ġuwzgledniac": 8101,
      "Ġbezspor": 8102,
      "ĠpodniosÅĤa": 8103,
      "Ġprodukcyjne": 8104,
      "Ġzeglu": 8105,
      "Ġgrupe": 8106,
      "ĠdoszÅĤo": 8107,
      "Ġnajpierw": 8108,
      "ĠprzyszÅĤosci": 8109,
      "Ġjadalne": 8110,
      "wiec": 8111,
      "Ġokreslaja": 8112,
      "Ġdotk": 8113,
      "ise": 8114,
      "Ġrosliny": 8115,
      "Ġtury": 8116,
      "Ġimie": 8117,
      "Ġzwiazkow": 8118,
      "liwek": 8119,
      "Ġbiz": 8120,
      "Ġskierowane": 8121,
      "Ġczwarta": 8122,
      "Ġrzeczonego": 8123,
      "Ġzaskarzenia": 8124,
      "Ġniepublikowany": 8125,
      "Ġprzycze": 8126,
      "Ġotrzymywa": 8127,
      "Ġhiszpanski": 8128,
      "Ġzadane": 8129,
      "Ġzeliwa": 8130,
      "Ġuzyskanych": 8131,
      "Ġfluor": 8132,
      "Ġrzeczywiste": 8133,
      "trzna": 8134,
      "Ġpetrole": 8135,
      "ĠniewÅĤasci": 8136,
      "wiania": 8137,
      "ĠtÅĤo": 8138,
      "Ġskali": 8139,
      "Ġosad": 8140,
      "Ġskutecznie": 8141,
      "ĠmaÅĤzon": 8142,
      "Ġprzedza": 8143,
      "Ġterminy": 8144,
      "Ġklauzula": 8145,
      "Ġzyski": 8146,
      "Ġkomunikat": 8147,
      "laz": 8148,
      "ĠÎ¿": 8149,
      "hu": 8150,
      "Ġbeta": 8151,
      "Ġkrotko": 8152,
      "Ġllc": 8153,
      "Ġwymagac": 8154,
      "Ġnawia": 8155,
      "ĠgÅĤowny": 8156,
      "Ġzapoznaniu": 8157,
      "ira": 8158,
      "Ġpromoc": 8159,
      "Ġ840": 8160,
      "lek": 8161,
      "Ġwyposazenie": 8162,
      "Ã¸": 8163,
      "ĠspoÅĤdzie": 8164,
      "ywac": 8165,
      "Ġuzasadnieniu": 8166,
      "Ġryzu": 8167,
      "Ġ189": 8168,
      "ujacy": 8169,
      "Ġbedacej": 8170,
      "Ġwskaznika": 8171,
      "Ġczwartej": 8172,
      "ĠwÅĤaczenia": 8173,
      "Ġzatrudnionych": 8174,
      "wnetrzna": 8175,
      "Ġmniejsza": 8176,
      "Ġstosujac": 8177,
      "Ġzni": 8178,
      "Ġtext": 8179,
      "dium": 8180,
      "Ġdwoma": 8181,
      "Ġportugalia": 8182,
      "Ġdozwolone": 8183,
      "Ġwdrazania": 8184,
      "Ġrozpatrywany": 8185,
      "Ġswego": 8186,
      "Ġdokonanej": 8187,
      "Ġwskazanego": 8188,
      "Ġlotniczy": 8189,
      "Ġminimalnej": 8190,
      "Ġindywidualne": 8191,
      "Ġalumi": 8192,
      "Ġwystawi": 8193,
      "Ġprzyb": 8194,
      "Ġkopie": 8195,
      "ky": 8196,
      "Ġwewnetrznej": 8197,
      "Ġtune": 8198,
      "Ġpagebreak": 8199,
      "300": 8200,
      "ĠbyÅĤby": 8201,
      "Ġdostawca": 8202,
      "Ġpoko": 8203,
      "tec": 8204,
      "ĠprzedstawiÅĤ": 8205,
      "Ġzawodu": 8206,
      "Ġhur": 8207,
      "boksy": 8208,
      "Ġbli": 8209,
      "Ġpodmiotami": 8210,
      "Ġwywod": 8211,
      "Ġmozliwie": 8212,
      "Ġkredytow": 8213,
      "Ġodrzucic": 8214,
      "ĠprzesÅĤucha": 8215,
      "Ġdodatkowej": 8216,
      "Ġobrot": 8217,
      "Ġorien": 8218,
      "Ġinterwencji": 8219,
      "oÅĤ": 8220,
      "Ġnigdy": 8221,
      "pol": 8222,
      "Ġwag": 8223,
      "Ġrzeczypospoli": 8224,
      "ĠpÅĤaszczy": 8225,
      "Ġ847": 8226,
      "Ġobrocie": 8227,
      "dzic": 8228,
      "Ġwto": 8229,
      "ĠwÅĤasnym": 8230,
      "Ġniezawiera": 8231,
      "Ġwnoszacej": 8232,
      "Ġazo": 8233,
      "stwu": 8234,
      "Ġsred": 8235,
      "Ġdostarczone": 8236,
      "nn": 8237,
      "Ġbudowy": 8238,
      "Ġdziedz": 8239,
      "Ġakcep": 8240,
      "ÏĢÎ¿": 8241,
      "mentar": 8242,
      "Ġgie": 8243,
      "Ġcyklu": 8244,
      "Ġprosze": 8245,
      "Ġkontyngent": 8246,
      "ĠprzemysÅĤowych": 8247,
      "jas": 8248,
      "Ġprzekazuja": 8249,
      "Ġeli": 8250,
      "ĠdÅĤugu": 8251,
      "Ġantykonkuren": 8252,
      "Ġoperatorow": 8253,
      "Ġotrzymuja": 8254,
      "Ġprzedzy": 8255,
      "Ġdania": 8256,
      "przed": 8257,
      "Ġrzeczypospolitej": 8258,
      "tlen": 8259,
      "Ġobrach": 8260,
      "Ġptakow": 8261,
      "tos": 8262,
      "Ġswin": 8263,
      "Ġndp": 8264,
      "nar": 8265,
      "Ġbyli": 8266,
      "Ġsedzie": 8267,
      "Ġkonkretnie": 8268,
      "Ġroboczych": 8269,
      "Ġfizycznej": 8270,
      "Ġodczy": 8271,
      "Ġwyjatek": 8272,
      "tycznymi": 8273,
      "Ġ318": 8274,
      "Ġwysokiego": 8275,
      "ĠskÅĤadowania": 8276,
      "stre": 8277,
      "Ġregionow": 8278,
      "robione": 8279,
      "Ġuzywajacy": 8280,
      "Ġustawie": 8281,
      "Ġtytule": 8282,
      "Ġrekompensaty": 8283,
      "zujacych": 8284,
      "Ġproszku": 8285,
      "Ġpozostaja": 8286,
      "Ġzwolnie": 8287,
      "Ġprzekraczac": 8288,
      "gan": 8289,
      "fikowany": 8290,
      "Ġekpc": 8291,
      "Ġlitera": 8292,
      "Ġwpisa": 8293,
      "Ġwyjasnienie": 8294,
      "Ġprzyczyny": 8295,
      "Ġniedopuszczalne": 8296,
      "Ġdypl": 8297,
      "Ġumiejet": 8298,
      "Ġ1702": 8299,
      "Ġuniknac": 8300,
      "ĠÅĤacznej": 8301,
      "odi": 8302,
      "Ġrejon": 8303,
      "ksztaÅĤ": 8304,
      "landz": 8305,
      "ĠwysÅĤa": 8306,
      "Ġwystarczajacy": 8307,
      "rzywilej": 8308,
      "Ġeuropean": 8309,
      "Ġproceduralnych": 8310,
      "Ġwynikajaca": 8311,
      "Ġszwecja": 8312,
      "Ġustepu": 8313,
      "gue": 8314,
      "Ġpracodawca": 8315,
      "Ġtraktowane": 8316,
      "Ġnieop": 8317,
      "zyscy": 8318,
      "Ġrozroznienia": 8319,
      "Ġnalezace": 8320,
      "Ġgener": 8321,
      "Ġmiedzynarodowym": 8322,
      "Ġfinlandii": 8323,
      "hl": 8324,
      "Ġprzeanaliz": 8325,
      "wczego": 8326,
      "Ġwynikajacego": 8327,
      "ĠzakÅĤady": 8328,
      "tin": 8329,
      "Ġsprost": 8330,
      "ĠzÅĤozonym": 8331,
      "wki": 8332,
      "Ġ221": 8333,
      "Ġwszyscy": 8334,
      "Ġsolas": 8335,
      "Ġnieroz": 8336,
      "Ġarab": 8337,
      "Ġ174": 8338,
      "Ġdokumencie": 8339,
      "Ġxv": 8340,
      "Ġakredy": 8341,
      "kowac": 8342,
      "Ġpubliczny": 8343,
      "Ġrealizacja": 8344,
      "Ġ731": 8345,
      "Ġpodejscia": 8346,
      "cion": 8347,
      "Ġkatem": 8348,
      "wnej": 8349,
      "ĠnaÅĤozone": 8350,
      "Ġprzesta": 8351,
      "Ġegza": 8352,
      "ĠpoÅĤaczenie": 8353,
      "Ġ256": 8354,
      "Ġdalszych": 8355,
      "Ġautomatycznie": 8356,
      "Ġgemeinde": 8357,
      "Ġpatrz": 8358,
      "Ġdobra": 8359,
      "Ġoks": 8360,
      "Ġkoncowego": 8361,
      "Ġdziennika": 8362,
      "Ġodziez": 8363,
      "Ġass": 8364,
      "Ġodstra": 8365,
      "Ġ258": 8366,
      "Ġlisty": 8367,
      "Ġ1986": 8368,
      "Ġ231": 8369,
      "Ġdrzwi": 8370,
      "Ġcorpor": 8371,
      "Ġrezydentami": 8372,
      "Ġwymagana": 8373,
      "Ġsprawdza": 8374,
      "pry": 8375,
      "Ġbeneficjenta": 8376,
      "Ġpoufnosci": 8377,
      "Ġinve": 8378,
      "ses": 8379,
      "Ġrolnikow": 8380,
      "Ġ202": 8381,
      "Ġplanow": 8382,
      "jskie": 8383,
      "Ġmetalu": 8384,
      "Ġbal": 8385,
      "Ġdazy": 8386,
      "Ġobowiazkowi": 8387,
      "Ġprzetworow": 8388,
      "Ġsektorow": 8389,
      "Ġpodwy": 8390,
      "Ġzgoda": 8391,
      "Ġ185": 8392,
      "Ġpota": 8393,
      "Ġtaryfy": 8394,
      "Ġpodpisy": 8395,
      "mm": 8396,
      "ĠpeÅĤnym": 8397,
      "020": 8398,
      "Ġcha": 8399,
      "Ġmic": 8400,
      "Ġzwroc": 8401,
      "Ġpozbawienia": 8402,
      "Ġpokrycie": 8403,
      "Ġdoma": 8404,
      "Ġrzeczywistej": 8405,
      "Ġpolsce": 8406,
      "Ġkorzystaja": 8407,
      "Ġjakosc": 8408,
      "Ġproduktach": 8409,
      "Ġodmawia": 8410,
      "ĠdÅĤuznika": 8411,
      "Ġfrag": 8412,
      "Ġgeneral": 8413,
      "Ġbandera": 8414,
      "jski": 8415,
      "Ġdopuszczalna": 8416,
      "Ġmaksymalny": 8417,
      "Ġ290": 8418,
      "Ġostatnim": 8419,
      "ĠzespoÅĤu": 8420,
      "Ġ216": 8421,
      "Ġoliwek": 8422,
      "Ġgen": 8423,
      "Ġ159": 8424,
      "Ġwczesniejszych": 8425,
      "Ġmaksymalne": 8426,
      "Ġkomponen": 8427,
      "Ġstrategii": 8428,
      "Ġrozpatrywanej": 8429,
      "Ġnajwyzszy": 8430,
      "Ġusa": 8431,
      "Ġswiadczy": 8432,
      "Ġefek": 8433,
      "Ġbudowlanych": 8434,
      "Ġelec": 8435,
      "Ġodrozniajacego": 8436,
      "Ġ181": 8437,
      "ĠskÅĤadniki": 8438,
      "sko": 8439,
      "Ġprzychody": 8440,
      "Ġcentralnego": 8441,
      "Ġcieplar": 8442,
      "Ġzaskarzonym": 8443,
      "ĠogÅĤoszenie": 8444,
      "Ġumozliwiajace": 8445,
      "Ġniedopuszczalnosci": 8446,
      "Ġwoda": 8447,
      "Ġ820": 8448,
      "Ġzywnosc": 8449,
      "Ġgrecja": 8450,
      "Ġcorporation": 8451,
      "ration": 8452,
      "Ġgodziny": 8453,
      "Ġsilnik": 8454,
      "Ġodmienne": 8455,
      "Ġprzewoznikow": 8456,
      "liwych": 8457,
      "Ġdeklaracja": 8458,
      "ĠwydziaÅĤu": 8459,
      "Ġsprawdzenia": 8460,
      "ĠsÅĤowe": 8461,
      "Ġprzywro": 8462,
      "Ġmodelu": 8463,
      "Ġbilansowe": 8464,
      "Ġaluminium": 8465,
      "ĠdoÅĤacz": 8466,
      "Ġpersonel": 8467,
      "ĠcaÅĤym": 8468,
      "Ġ217": 8469,
      "Ġ240": 8470,
      "zaÅĤy": 8471,
      "Ġulega": 8472,
      "Ġ191": 8473,
      "Ġindywidualnego": 8474,
      "Ġdanymi": 8475,
      "Ġwprowadzanie": 8476,
      "Ġgier": 8477,
      "Ġfinansow": 8478,
      "Ġruchom": 8479,
      "dÅĤuz": 8480,
      "ĠwysyÅĤa": 8481,
      "Ġpochodnych": 8482,
      "Ġkonkurencja": 8483,
      "Ġodmian": 8484,
      "Ġniebedacych": 8485,
      "Ġtier": 8486,
      "Ġspre": 8487,
      "Ġdokonanych": 8488,
      "Ġwystepuja": 8489,
      "Ġwpisu": 8490,
      "Ġji": 8491,
      "Ġzebra": 8492,
      "Ġuprzywilej": 8493,
      "Ġpierwszych": 8494,
      "Ġstada": 8495,
      "Ġsurowcow": 8496,
      "Ġreprezentowana": 8497,
      "Ġznie": 8498,
      "Ġbul": 8499,
      "ĠodlegÅĤosc": 8500,
      "Ġ177": 8501,
      "Ġorzechy": 8502,
      "Ġswa": 8503,
      "Ġzanim": 8504,
      "Ġtakimi": 8505,
      "Ġprowadzonej": 8506,
      "Ġwyrazone": 8507,
      "Ġobecnosci": 8508,
      "sponden": 8509,
      "Ġdw": 8510,
      "stych": 8511,
      "Ġmieszanki": 8512,
      "Ġ750": 8513,
      "ĠpÅĤatnosc": 8514,
      "Ġwczesniejszy": 8515,
      "Ġ239": 8516,
      "Ġgeograficznych": 8517,
      "Ġenergie": 8518,
      "211": 8519,
      "ĠpÅĤatniczych": 8520,
      "Ġmezczy": 8521,
      "Ġpowinni": 8522,
      "dit": 8523,
      "Ġdysku": 8524,
      "Ġtelef": 8525,
      "Ġmiedzi": 8526,
      "Ġniepew": 8527,
      "Ġzastosowane": 8528,
      "210": 8529,
      "recz": 8530,
      "Ġ701": 8531,
      "Ġszesc": 8532,
      "Ġregionu": 8533,
      "ĠprawidÅĤowo": 8534,
      "Ġwiekszosci": 8535,
      "pt": 8536,
      "Ġ183": 8537,
      "ÐµÐ½": 8538,
      "ĠusÅĤugami": 8539,
      "Ġwchodza": 8540,
      "owali": 8541,
      "Ġgmin": 8542,
      "tyna": 8543,
      "ĠzÅĤozonego": 8544,
      "Ġkontyngentow": 8545,
      "Ġdobrowo": 8546,
      "Ġkol": 8547,
      "Ġ173": 8548,
      "wersy": 8549,
      "elimin": 8550,
      "Ġniemieckiego": 8551,
      "mego": 8552,
      "teli": 8553,
      "Ġrozni": 8554,
      "Ġ215": 8555,
      "fes": 8556,
      "Ġwspomniana": 8557,
      "Ġtzw": 8558,
      "Ġpowszechnie": 8559,
      "mento": 8560,
      "Ġpodziale": 8561,
      "Ġwyproduk": 8562,
      "Ġudzielone": 8563,
      "Ġ194": 8564,
      "Ġpospoli": 8565,
      "Ġwydaniem": 8566,
      "rzyc": 8567,
      "Ġzrozumie": 8568,
      "ÅĤowym": 8569,
      "ĠwyÅĤaczone": 8570,
      "Ġwodor": 8571,
      "Ġzywi": 8572,
      "Ġpozwanej": 8573,
      "ÅĤki": 8574,
      "Ġtenden": 8575,
      "Ġobserw": 8576,
      "Ġpromieni": 8577,
      "Ġgal": 8578,
      "Ġ0808": 8579,
      "Ġrozcien": 8580,
      "ats": 8581,
      "tÅĤu": 8582,
      "Ġposzuki": 8583,
      "ujacego": 8584,
      "lines": 8585,
      "oda": 8586,
      "Ġstwierdzone": 8587,
      "sÅĤuch": 8588,
      "Ġsin": 8589,
      "Ġwartosciowe": 8590,
      "ĠkapitaÅĤowe": 8591,
      "czymi": 8592,
      "Ġglob": 8593,
      "zow": 8594,
      "ĠwykÅĤadnie": 8595,
      "Ġodnosnych": 8596,
      "Ġpotrzeba": 8597,
      "ena": 8598,
      "czno": 8599,
      "Ġbut": 8600,
      "Ġkonsekwencje": 8601,
      "Ġwynikiem": 8602,
      "Ġpogor": 8603,
      "Ġwyelimin": 8604,
      "Ġpodjetych": 8605,
      "Ġobejmujace": 8606,
      "Ġhyd": 8607,
      "Ġdemokra": 8608,
      "Ġprzeli": 8609,
      "Ġstrategi": 8610,
      "Ġchog": 8611,
      "Ġwh": 8612,
      "Ġ208": 8613,
      "Ġ179": 8614,
      "mid": 8615,
      "Ġodw": 8616,
      "Ġograniczajace": 8617,
      "Ġ296": 8618,
      "Ġdopuszcz": 8619,
      "ĠsÅĤowac": 8620,
      "Ġsymbo": 8621,
      "lana": 8622,
      "Ġsuple": 8623,
      "Ġ255": 8624,
      "Ġpost": 8625,
      "Ġ213": 8626,
      "Ġprowadzonych": 8627,
      "Ġpary": 8628,
      "ĠnaÅĤozonej": 8629,
      "Ġsrednicy": 8630,
      "ktem": 8631,
      "Ġoleju": 8632,
      "Ġustalajace": 8633,
      "Ġosiagniecie": 8634,
      "ĠgÅĤownej": 8635,
      "Ġobowiazkowe": 8636,
      "Ġwykluczenia": 8637,
      "Ġrozwazania": 8638,
      "Ġprowin": 8639,
      "Ġwskazniki": 8640,
      "Ġwyrobu": 8641,
      "yjna": 8642,
      "Ġwol": 8643,
      "Ġzbadanie": 8644,
      "ĠmasÅĤa": 8645,
      "zujace": 8646,
      "Ġforme": 8647,
      "ĠnaÅĤozenia": 8648,
      "Ġarchi": 8649,
      "Ġcat": 8650,
      "Ġegzekw": 8651,
      "Ġtechnologi": 8652,
      "Ġalfa": 8653,
      "Ġelektrycznych": 8654,
      "Ġostatnia": 8655,
      "Ġpoka": 8656,
      "Ġumozliwi": 8657,
      "Ġservices": 8658,
      "ĠprzywoÅĤ": 8659,
      "Ġ218": 8660,
      "Ġptaki": 8661,
      "Ġspecyfikacje": 8662,
      "Ġcourt": 8663,
      "Ġgum": 8664,
      "Ġ236": 8665,
      "Ġzakazuje": 8666,
      "Ġopakowaniach": 8667,
      "ĠodpÅĤat": 8668,
      "Ġlabel": 8669,
      "Ġpienie": 8670,
      "Ġtan": 8671,
      "ĠusÅĤuge": 8672,
      "Ġzmieniony": 8673,
      "Ġzysk": 8674,
      "ag": 8675,
      "Ġdostatecz": 8676,
      "Ġbezstron": 8677,
      "Ġ192": 8678,
      "Ġmedia": 8679,
      "Ġ2204": 8680,
      "ĠpeÅĤna": 8681,
      "Ġwewnatrzwspo": 8682,
      "Ġogrod": 8683,
      "kin": 8684,
      "ĠzwykÅĤego": 8685,
      "Ġpakie": 8686,
      "Ġelektronicznych": 8687,
      "Ġporownanie": 8688,
      "Ġkomunikacji": 8689,
      "Ġobra": 8690,
      "ĠpoÅĤaczen": 8691,
      "trol": 8692,
      "zacymi": 8693,
      "Ġubezpieczenie": 8694,
      "Ġmono": 8695,
      "nictwie": 8696,
      "Ġdrew": 8697,
      "Ġwnioskodawce": 8698,
      "Ġopracowy": 8699,
      "koje": 8700,
      "Ġinforma": 8701,
      "Ġlotni": 8702,
      "waÅĤy": 8703,
      "ĠuzupeÅĤniajace": 8704,
      "302": 8705,
      "Ġswoboda": 8706,
      "Ġuruch": 8707,
      "Ġkonsultacje": 8708,
      "Ġewentualnych": 8709,
      "Ġnacze": 8710,
      "Ġtransakcja": 8711,
      "Ġpozycjami": 8712,
      "Ġpowierzchnia": 8713,
      "opo": 8714,
      "Ġcudz": 8715,
      "Ġbrazy": 8716,
      "Ġstaje": 8717,
      "Ġdynami": 8718,
      "Ġpana": 8719,
      "Ġpodwojnego": 8720,
      "Ġobiektow": 8721,
      "niejsza": 8722,
      "Ġmarke": 8723,
      "Ġoperacyjnego": 8724,
      "2010": 8725,
      "Ġobyd": 8726,
      "Ġuprawnione": 8727,
      "Ġinstrukcje": 8728,
      "Ġpodpozycji": 8729,
      "Ġ228": 8730,
      "Ġzatwierdza": 8731,
      "Ġ2645": 8732,
      "Ġzagroz": 8733,
      "kr": 8734,
      "Ġzuzycie": 8735,
      "Ġponos": 8736,
      "Ġzain": 8737,
      "Ġprojekty": 8738,
      "Ġtaryfowych": 8739,
      "Ġniebie": 8740,
      "Ġfaktury": 8741,
      "Ġemerytalnych": 8742,
      "Ġprowi": 8743,
      "Ġwiekszosc": 8744,
      "Ġ193": 8745,
      "Ġnieuzasad": 8746,
      "Ġkapu": 8747,
      "lskiej": 8748,
      "Ġtraktow": 8749,
      "Ġpopraw": 8750,
      "tania": 8751,
      "Ġefr": 8752,
      "ĠusÅĤuga": 8753,
      "Ġazot": 8754,
      "Ġdopuszczenia": 8755,
      "Ġelektronicznego": 8756,
      "Ġagri": 8757,
      "Ġsekretaria": 8758,
      "lec": 8759,
      "Ġprzyjeciu": 8760,
      "aco": 8761,
      "Ġprocedurze": 8762,
      "Ġpodsek": 8763,
      "Ġskarg": 8764,
      "Ġsedziego": 8765,
      "Ġzuzyc": 8766,
      "Ġminimum": 8767,
      "Ġkonkurs": 8768,
      "Ġ659": 8769,
      "Ġaku": 8770,
      "Ġham": 8771,
      "Ġwyczerpa": 8772,
      "Ġdowolna": 8773,
      "yce": 8774,
      "Ġolejow": 8775,
      "bank": 8776,
      "Ġkompens": 8777,
      "Ġzyc": 8778,
      "Ġwywie": 8779,
      "Ġowe": 8780,
      "Ġlek": 8781,
      "Ġwynikajacej": 8782,
      "Ġzagra": 8783,
      "Ġskonsolid": 8784,
      "Ġvol": 8785,
      "030": 8786,
      "Ġchloro": 8787,
      "Ġprawnie": 8788,
      "Ġprocesow": 8789,
      "Ġistniejace": 8790,
      "owienie": 8791,
      "Ġusp": 8792,
      "ĠwniosÅĤ": 8793,
      "Ġfunkcjonowanie": 8794,
      "kat": 8795,
      "Ġwzgledy": 8796,
      "fie": 8797,
      "Ġitalia": 8798,
      "Ġniezgodna": 8799,
      "Ġdywidend": 8800,
      "bs": 8801,
      "Ġdra": 8802,
      "Ġraport": 8803,
      "Ġtrzecimi": 8804,
      "Ġwykazuje": 8805,
      "ĠzwrociÅĤ": 8806,
      "Ġpowietrznej": 8807,
      "Ġdirec": 8808,
      "Ġtworzenia": 8809,
      "Ġwoj": 8810,
      "Ġzwolnione": 8811,
      "Ġminimalnych": 8812,
      "Ġokreg": 8813,
      "setz": 8814,
      "Ġpodniesiony": 8815,
      "Ġolaf": 8816,
      "Ġafry": 8817,
      "tshof": 8818,
      "Ġszwajcaria": 8819,
      "Ġodmiany": 8820,
      "Ġ280": 8821,
      "Ġczynna": 8822,
      "mt": 8823,
      "Ġobjetej": 8824,
      "Ġpodobienstwa": 8825,
      "Ġtymczasowo": 8826,
      "Ġprzepisem": 8827,
[...]
