{
  "version": "1.0",
  "truncation": null,
  "padding": null,
  "added_tokens": [
    {
      "id": 0,
      "content": "<pad>",
      "single_word": false,
      "lstrip": false,
      "rstrip": false,
      "normalized": false,
      "special": true
    },
    {
      "id": 1,
      "content": "<s>",
      "single_word": false,
      "lstrip": false,
      "rstrip": false,
      "normalized": false,
      "special": true
    },
    {
      "id": 2,
      "content": "</s>",
      "single_word": false,
      "lstrip": false,
      "rstrip": false,
      "normalized": false,
      "special": true
    },
    {
      "id": 3,
      "content": "<unk>",
      "single_word": false,
      "lstrip": false,
      "rstrip": false,
      "normalized": false,
      "special": true
    },
    {
      "id": 4,
      "content": "<mask>",
      "single_word": false,
      "lstrip": false,
      "rstrip": false,
      "normalized": false,
      "special": true
    }
  ],
  "normalizer": {
    "type": "Sequence",
    "normalizers": [
      {
        "type": "NFKD"
      },
      {
        "type": "BertNormalizer",
        "clean_text": true,
        "handle_chinese_chars": true,
        "strip_accents": null,
        "lowercase": true
      }
    ]
  },
  "pre_tokenizer": {
    "type": "Sequence",
    "pretokenizers": [
      {
        "type": "BertPreTokenizer"
      },
      {
        "type": "ByteLevel",
        "add_prefix_space": true,
        "trim_offsets": true,
        "use_regex": true
      }
    ]
  },
  "post_processor": {
    "type": "RobertaProcessing",
    "sep": [
      "</s>",
      2
    ],
    "cls": [
      "<s>",
      1
    ],
    "trim_offsets": true,
    "add_prefix_space": true
  },
  "decoder": {
    "type": "ByteLevel",
    "add_prefix_space": true,
    "trim_offsets": true,
    "use_regex": true
  },
  "model": {
    "type": "BPE",
    "dropout": null,
    "unk_token": "<unk>",
    "continuing_subword_prefix": null,
    "end_of_word_suffix": null,
    "fuse_unk": false,
    "vocab": {
      "<pad>": 0,
      "<s>": 1,
      "</s>": 2,
      "<unk>": 3,
      "<mask>": 4,
      "!": 5,
      "\"": 6,
      "#": 7,
      "$": 8,
      "%": 9,
      "&": 10,
      "'": 11,
      "(": 12,
      ")": 13,
      "*": 14,
      "+": 15,
      ",": 16,
      "-": 17,
      ".": 18,
      "/": 19,
      "0": 20,
      "1": 21,
      "2": 22,
      "3": 23,
      "4": 24,
      "5": 25,
      "6": 26,
      "7": 27,
      "8": 28,
      "9": 29,
      ":": 30,
      ";": 31,
      "<": 32,
      "=": 33,
      ">": 34,
      "?": 35,
      "@": 36,
      "[": 37,
      "\\": 38,
      "]": 39,
      "^": 40,
      "_": 41,
      "`": 42,
      "a": 43,
      "b": 44,
      "c": 45,
      "d": 46,
      "e": 47,
      "f": 48,
      "g": 49,
      "h": 50,
      "i": 51,
      "j": 52,
      "k": 53,
      "l": 54,
      "m": 55,
      "n": 56,
      "o": 57,
      "p": 58,
      "q": 59,
      "r": 60,
      "s": 61,
      "t": 62,
      "u": 63,
      "v": 64,
      "w": 65,
      "x": 66,
      "y": 67,
      "z": 68,
      "{": 69,
      "|": 70,
      "}": 71,
      "~": 72,
      "¡": 73,
      "¢": 74,
      "£": 75,
      "¤": 76,
      "¥": 77,
      "¦": 78,
      "§": 79,
      "¨": 80,
      "©": 81,
      "ª": 82,
      "«": 83,
      "¬": 84,
      "®": 85,
      "¯": 86,
      "°": 87,
      "±": 88,
      "²": 89,
      "³": 90,
      "´": 91,
      "µ": 92,
      "¶": 93,
      "·": 94,
      "¸": 95,
      "¹": 96,
      "º": 97,
      "»": 98,
      "¼": 99,
      "½": 100,
      "¾": 101,
      "¿": 102,
      "Â": 103,
      "Ã": 104,
      "Ä": 105,
      "Å": 106,
      "Æ": 107,
      "Ç": 108,
      "È": 109,
      "É": 110,
      "Ê": 111,
      "Ë": 112,
      "Í": 113,
      "Î": 114,
      "Ï": 115,
      "Ð": 116,
      "Ñ": 117,
      "Ò": 118,
      "Ó": 119,
      "Õ": 120,
      "Ö": 121,
      "×": 122,
      "Ø": 123,
      "Ù": 124,
      "Ú": 125,
      "Û": 126,
      "Ü": 127,
      "ß": 128,
      "à": 129,
      "á": 130,
      "â": 131,
      "ã": 132,
      "ä": 133,
      "å": 134,
      "æ": 135,
      "ç": 136,
      "è": 137,
      "é": 138,
      "ê": 139,
      "ï": 140,
      "ð": 141,
      "Ġ": 142,
      "Ģ": 143,
      "ģ": 144,
      "Ĥ": 145,
      "ĥ": 146,
      "Ħ": 147,
      "ħ": 148,
      "Ĩ": 149,
      "ĩ": 150,
      "Ī": 151,
      "ī": 152,
      "Ĭ": 153,
      "ĭ": 154,
      "Į": 155,
      "į": 156,
      "İ": 157,
      "ı": 158,
      "Ĳ": 159,
      "ĳ": 160,
      "Ĵ": 161,
      "ĵ": 162,
      "Ķ": 163,
      "ķ": 164,
      "ĸ": 165,
      "Ĺ": 166,
      "ĺ": 167,
      "Ļ": 168,
      "ļ": 169,
      "Ľ": 170,
      "ľ": 171,
      "Ŀ": 172,
      "ŀ": 173,
      "Ł": 174,
      "ł": 175,
      "Ń": 176,
      "Ġd": 177,
      "en": 178,
      "er": 179,
      "Ġa": 180,
      "es": 181,
      "on": 182,
      "Ġ.": 183,
      "ch": 184,
      "in": 185,
      "Ġs": 186,
      "Ġ,": 187,
      "Ġl": 188,
      "Ġp": 189,
      "un": 190,
      "ti": 191,
      "Ġc": 192,
      "re": 193,
      "Ġde": 194,
      "Ġe": 195,
      "te": 196,
      "ta": 197,
      "Ġdi": 198,
      "an": 199,
      "li": 200,
      "ll": 201,
      "Ġn": 202,
      "or": 203,
      "Ġ1": 204,
      "is": 205,
      "Ġ2": 206,
      "to": 207,
      "Ġv": 208,
      "Ġb": 209,
      "Ġm": 210,
      "ur": 211,
      "Ġf": 212,
      "Ġin": 213,
      "ar": 214,
      "le": 215,
      "Ġg": 216,
      "Ġi": 217,
      "ung": 218,
      "tr": 219,
      "ion": 220,
      "it": 221,
      "Ġun": 222,
      "Ġr": 223,
      "Ġ'": 224,
      "Ġla": 225,
      "om": 226,
      "Ġau": 227,
      "Ġ)": 228,
      "men": 229,
      "Ġâ": 230,
      "Ġcon": 231,
      "ĠâĢ": 232,
      "Ġder": 233,
      "Ġo": 234,
      "ss": 235,
      "qu": 236,
      "la": 237,
      "Ġpr": 238,
      "ge": 239,
      "Ġ-": 240,
      "ten": 241,
      "Ġ(": 242,
      "ic": 243,
      "Ġda": 244,
      "ich": 245,
      "ie": 246,
      "Ġ20": 247,
      "Ġre": 248,
      "Ġz": 249,
      "zion": 250,
      "Ġdie": 251,
      "Ġw": 252,
      "Ġ0": 253,
      "tion": 254,
      "Ġdes": 255,
      "ter": 256,
      "Ġle": 257,
      "che": 258,
      "Ġ3": 259,
      "Ġh": 260,
      "Ġan": 261,
      "Ġk": 262,
      "ia": 263,
      "ts": 264,
      "tra": 265,
      "Ġbe": 266,
      "der": 267,
      "Ġein": 268,
      "al": 269,
      "de": 270,
      "Ġdell": 271,
      "Ġse": 272,
      "Ġqu": 273,
      "gen": 274,
      "Ġ/": 275,
      "ĠâĢĻ": 276,
      "Ġen": 277,
      "di": 278,
      "os": 279,
      "Ġver": 280,
      "at": 281,
      "den": 282,
      "Ġar": 283,
      "us": 284,
      "Ġcom": 285,
      "zione": 286,
      "pp": 287,
      "Ġper": 288,
      "Ġes": 289,
      "ol": 290,
      "Ġ5": 291,
      "Ġil": 292,
      "Ġpar": 293,
      "Ġ4": 294,
      "ca": 295,
      "Ġpro": 296,
      "bi": 297,
      "Ġnon": 298,
      "Ġdel": 299,
      "Ġu": 300,
      "Ġund": 301,
      "me": 302,
      "io": 303,
      "Ġer": 304,
      "Ġal": 305,
      "ce": 306,
      "ma": 307,
      "ra": 308,
      "Ġne": 309,
      "hr": 310,
      "Ġet": 311,
      "lich": 312,
      "Ġge": 313,
      "Ġall": 314,
      "eit": 315,
      "ff": 316,
      "il": 317,
      "ne": 318,
      "ig": 319,
      "Ġim": 320,
      "Ġzu": 321,
      "ess": 322,
      "Ġapp": 323,
      "Ġ201": 324,
      "tu": 325,
      "Ġsu": 326,
      "tan": 327,
      "ve": 328,
      "icht": 329,
      "ber": 330,
      "Ġ;": 331,
      "do": 332,
      "Ġ:": 333,
      "ir": 334,
      "pr": 335,
      "Ġso": 336,
      "za": 337,
      "va": 338,
      "Ġdu": 339,
      "Ġab": 340,
      "ver": 341,
      "et": 342,
      "Ġ6": 343,
      "au": 344,
      "Ġj": 345,
      "tre": 346,
      "Ġles": 347,
      "Ġpo": 348,
      "Ġ200": 349,
      "ita": 350,
      "Ġ_": 351,
      "Ġche": 352,
      "Ġ19": 353,
      "ach": 354,
      "ĠÂ": 355,
      "ungs": 356,
      "ale": 357,
      "pe": 358,
      "as": 359,
      "be": 360,
      "Ġ7": 361,
      "Ġ8": 362,
      "Ġcons": 363,
      "Ġauf": 364,
      "Ġ9": 365,
      "Ġden": 366,
      "lica": 367,
      "ere": 368,
      "00": 369,
      "ag": 370,
      "ica": 371,
      "Ġme": 372,
      "tic": 373,
      "ment": 374,
      "Ġdella": 375,
      "iss": 376,
      "Ġ%": 377,
      "ger": 378,
      "ist": 379,
      "Ġaus": 380,
      "Ġapplica": 381,
      "sch": 382,
      "lle": 383,
      "ant": 384,
      "Ġma": 385,
      "ri": 386,
      "Ġsta": 387,
      "bile": 388,
      "na": 389,
      "ci": 390,
      "Ġ|": 391,
      "mento": 392,
      "Ġvon": 393,
      "Ġvor": 394,
      "Ġac": 395,
      "ione": 396,
      "am": 397,
      "Ġpre": 398,
      "Ġmo": 399,
      "Ġnicht": 400,
      "ut": 401,
      "Ġpres": 402,
      "ans": 403,
      "Ġ10": 404,
      "Ġbes": 405,
      "fa": 406,
      "Ġta": 407,
      "vi": 408,
      "zioni": 409,
      "ĠâĢĵ": 410,
      "Ġdem": 411,
      "ine": 412,
      "ben": 413,
      "ation": 414,
      "tro": 415,
      "ent": 416,
      "el": 417,
      "ungen": 418,
      "Ġart": 419,
      "Ġha": 420,
      "for": 421,
      "mb": 422,
      "Ġmit": 423,
      "Ġreg": 424,
      "id": 425,
      "and": 426,
      "Ġfur": 427,
      "Ġno": 428,
      "ĠÂ§": 429,
      "lla": 430,
      "vo": 431,
      "ali": 432,
      "ens": 433,
      "que": 434,
      "Ġson": 435,
      "Ġcomm": 436,
      "Ġ\"": 437,
      "Ġeine": 438,
      "Ġfa": 439,
      "ente": 440,
      "gli": 441,
      "ÃŁ": 442,
      "Ġdo": 443,
      "Ġco": 444,
      "we": 445,
      "Ġdas": 446,
      "Ġapplicabile": 447,
      "Ġartic": 448,
      "Ġeur": 449,
      "ui": 450,
      "Ġnach": 451,
      "Ġt": 452,
      "trag": 453,
      "ese": 454,
      "ier": 455,
      "ro": 456,
      "pos": 457,
      "tti": 458,
      "he": 459,
      "ato": 460,
      "Ġist": 461,
      "Ġque": 462,
      "und": 463,
      "du": 464,
      "Ġex": 465,
      "im": 466,
      "ze": 467,
      "Ġtra": 468,
      "ug": 469,
      "ck": 470,
      "Ġabs": 471,
      "tell": 472,
      "Ġ12": 473,
      "Ġor": 474,
      "tto": 475,
      "Ġvom": 476,
      "ul": 477,
      "olo": 478,
      "Ġsch": 479,
      "Ġca": 480,
      "Ġce": 481,
      "mente": 482,
      "per": 483,
      "Ġinter": 484,
      "Ġdec": 485,
      "por": 486,
      "ann": 487,
      "Ġ11": 488,
      "Ġou": 489,
      "isch": 490,
      "tes": 491,
      "Ġdis": 492,
      "Ġte": 493,
      "ven": 494,
      "Ġri": 495,
      "tor": 496,
      "Ġges": 497,
      "ite": 498,
      "hal": 499,
      "Ġuber": 500,
      "Ġam": 501,
      "ura": 502,
      "tions": 503,
      "Ġsi": 504,
      "ft": 505,
      "Ġass": 506,
      "Ġrech": 507,
      "end": 508,
      "ib": 509,
      "Ġdass": 510,
      "Ġch": 511,
      "Ġkla": 512,
      "Ġpour": 513,
      "Ġacc": 514,
      "uss": 515,
      "Ġfor": 516,
      "tig": 517,
      "ola": 518,
      "Ġoder": 519,
      "ub": 520,
      "Ġgi": 521,
      "um": 522,
      "Ġfr": 523,
      "Ġfin": 524,
      "Ġdelle": 525,
      "atz": 526,
      "Ġgr": 527,
      "ges": 528,
      "cia": 529,
      "Ġ15": 530,
      "lichen": 531,
      "tif": 532,
      "bili": 533,
      "Ġra": 534,
      "Ġuna": 535,
      "ina": 536,
      "Ġbei": 537,
      "ire": 538,
      "fer": 539,
      "Ġeuro": 540,
      "gr": 541,
      "Ġwer": 542,
      "ga": 543,
      "Ġpa": 544,
      "pa": 545,
      "Ġdans": 546,
      "Ġune": 547,
      "Ġdur": 548,
      "Ġconc": 549,
      "ord": 550,
      "Ġins": 551,
      "Ġ199": 552,
      "Ġsich": 553,
      "Ġdei": 554,
      "Ġgen": 555,
      "tta": 556,
      "Ġunter": 557,
      "Ġess": 558,
      "rit": 559,
      "Ġdecis": 560,
      "Ġtr": 561,
      "gan": 562,
      "uf": 563,
      "Ġad": 564,
      "zza": 565,
      "ind": 566,
      "ien": 567,
      "etz": 568,
      "ure": 569,
      "con": 570,
      "Ġ13": 571,
      "co": 572,
      "Ġhat": 573,
      "Ġalle": 574,
      "uch": 575,
      "ise": 576,
      "lo": 577,
      "Ġres": 578,
      "Ġest": 579,
      "Ġto": 580,
      "zia": 581,
      "Ġmar": 582,
      "ing": 583,
      "Ġalla": 584,
      "teil": 585,
      "po": 586,
      "Ġzur": 587,
      "Ġklager": 588,
      "uhr": 589,
      "Ġ*": 590,
      "Ġber": 591,
      "urs": 592,
      "rech": 593,
      "Ġdies": 594,
      "Ġfe": 595,
      "enn": 596,
      "Ġav": 597,
      "wer": 598,
      "Ġ14": 599,
      "zi": 600,
      "ins": 601,
      "no": 602,
      "Ġob": 603,
      "keit": 604,
      "Ġeiner": 605,
      "Ġai": 606,
      "Ġdurch": 607,
      "Ġsur": 608,
      "cu": 609,
      "Ġauch": 610,
      "hl": 611,
      "Ġric": 612,
      "posi": 613,
      "Ġwir": 614,
      "par": 615,
      "ano": 616,
      "son": 617,
      "Ġ00": 618,
      "ĠâĢĶ": 619,
      "Ġals": 620,
      "Ġkon": 621,
      "ider": 622,
      "are": 623,
      "Ġum": 624,
      "Ġris": 625,
      "se": 626,
      "Ġcommiss": 627,
      "Ġeta": 628,
      "lag": 629,
      "Ġperson": 630,
      "min": 631,
      "Ġwerden": 632,
      "Ġbesch": 633,
      "hen": 634,
      "Ġlo": 635,
      "Ġ16": 636,
      "mbre": 637,
      "Ġ25": 638,
      "ni": 639,
      "ors": 640,
      "Ġnel": 641,
      "mp": 642,
      "Ġeurope": 643,
      "lie": 644,
      "Ġautor": 645,
      "ue": 646,
      "Ġparti": 647,
      "fahr": 648,
      "ang": 649,
      "st": 650,
      "Ġents": 651,
      "Ġques": 652,
      "Ġ17": 653,
      "lass": 654,
      "Ġarticle": 655,
      "Ġti": 656,
      "Ġ30": 657,
      "Ġcui": 658,
      "zu": 659,
      "menti": 660,
      "lus": 661,
      "Ġcomp": 662,
      "Ġdal": 663,
      "vor": 664,
      "Ġ18": 665,
      "dere": 666,
      "liche": 667,
      "Ġsie": 668,
      "Ġter": 669,
      "ili": 670,
      "ies": 671,
      "azione": 672,
      "ahr": 673,
      "ati": 674,
      "Ġser": 675,
      "Ġat": 676,
      "uo": 677,
      "titu": 678,
      "Ġrela": 679,
      "Ġcas": 680,
      "gel": 681,
      "Ġqui": 682,
      "ein": 683,
      "ante": 684,
      "uck": 685,
      "Ġbek": 686,
      "Ġarticolo": 687,
      "Ġdef": 688,
      "beit": 689,
      "Ġcomun": 690,
      "fica": 691,
      "ico": 692,
      "Ġ21": 693,
      "Ġwe": 694,
      "Ġaux": 695,
      "ux": 696,
      "Ġvers": 697,
      "Ġdire": 698,
      "tim": 699,
      "Ġsono": 700,
      "ers": 701,
      "Ġspe": 702,
      "ischen": 703,
      "Ġpresente": 704,
      "ono": 705,
      "Ġfinan": 706,
      "Ġessere": 707,
      "fuhr": 708,
      "Ġregola": 709,
      "Ġ22": 710,
      "hmen": 711,
      "ice": 712,
      "Ġii": 713,
      "Ġpe": 714,
      "bes": 715,
      "llo": 716,
      "trags": 717,
      "bar": 718,
      "tive": 719,
      "ĠâĢľ": 720,
      "nen": 721,
      "ande": 722,
      "igen": 723,
      "Ġgli": 724,
      "Ġ31": 725,
      "Ġ01": 726,
      "vis": 727,
      "Ġvo": 728,
      "Ġje": 729,
      "uta": 730,
      "da": 731,
      "iv": 732,
      "Ġcor": 733,
      "Ġconsider": 734,
      "Ġseg": 735,
      "Ġsind": 736,
      "mer": 737,
      "Ġeff": 738,
      "gi": 739,
      "zo": 740,
      "Ġsp": 741,
      "Ġpag": 742,
      "Ġis": 743,
      "Ġbas": 744,
      "Ġcar": 745,
      "luss": 746,
      "les": 747,
      "Ġcontro": 748,
      "uto": 749,
      "Ġrechts": 750,
      "tand": 751,
      "cess": 752,
      "nung": 753,
      "Ġsa": 754,
      "mit": 755,
      "Ġsen": 756,
      "fr": 757,
      "Ġind": 758,
      "Ġbeklag": 759,
      "ommen": 760,
      "anti": 761,
      "Ġdar": 762,
      "Ġinfor": 763,
      "vers": 764,
      "Ġwird": 765,
      "Ġdiese": 766,
      "tiva": 767,
      "Ġparte": 768,
      "aft": 769,
      "tz": 770,
      "mi": 771,
      "cheid": 772,
      "res": 773,
      "Ġur": 774,
      "20": 775,
      "pon": 776,
      "Ġ29": 777,
      "Ġproce": 778,
      "mo": 779,
      "Ġpas": 780,
      "ction": 781,
      "enden": 782,
      "Ġzus": 783,
      "Ġparag": 784,
      "Ġ23": 785,
      "Ġsei": 786,
      "Ġnr": 787,
      "ste": 788,
      "Ġleg": 789,
      "Ġparagra": 790,
      "menta": 791,
      "Ġdecisione": 792,
      "Ġzum": 793,
      "bli": 794,
      "esso": 795,
      "Ġconse": 796,
      "Ġfon": 797,
      "ires": 798,
      "Ġ>": 799,
      "Ġstato": 800,
      "Ġ24": 801,
      "dig": 802,
      "cie": 803,
      "af": 804,
      "ffic": 805,
      "Ġregolamento": 806,
      "heit": 807,
      "ques": 808,
      "Ġdisposi": 809,
      "enti": 810,
      "Ġnella": 811,
      "Ġ28": 812,
      "Ġprodu": 813,
      "Ġpos": 814,
      "Ġger": 815,
      "Ġmemb": 816,
      "Ġ27": 817,
      "sse": 818,
      "ene": 819,
      "halt": 820,
      "ort": 821,
      "Ġgrund": 822,
      "Ġpri": 823,
      "gra": 824,
      "Ġtu": 825,
      "Ġimpor": 826,
      "Ġ50": 827,
      "Ġsein": 828,
      "geb": 829,
      "Ġ26": 830,
      "lan": 831,
      "tte": 832,
      "ito": 833,
      "Ġgegen": 834,
      "Ġcommun": 835,
      "Ġst": 836,
      "Ġpub": 837,
      "Ġ=": 838,
      "ori": 839,
      "Ġent": 840,
      "tt": 841,
      "ud": 842,
      "ner": 843,
      "Ġcp": 844,
      "Ġag": 845,
      "her": 846,
      "tel": 847,
      "br": 848,
      "utz": 849,
      "Ġbis": 850,
      "tant": 851,
      "ho": 852,
      "kt": 853,
      "maÃŁ": 854,
      "ute": 855,
      "Ġval": 856,
      "igli": 857,
      "Ġho": 858,
      "uer": 859,
      "Ġpi": 860,
      "ĠÂ»": 861,
      "Ġcos": 862,
      "Ġna": 863,
      "Ġsont": 864,
      "ĠÂ«": 865,
      "pres": 866,
      "ichts": 867,
      "leg": 868,
      "iti": 869,
      "pf": 870,
      "go": 871,
      "Ġman": 872,
      "nis": 873,
      "ble": 874,
      "lles": 875,
      "tri": 876,
      "iel": 877,
      "Ġfes": 878,
      "Ġgew": 879,
      "Ġ2013": 880,
      "Ġinforma": 881,
      "Ġele": 882,
      "ende": 883,
      "Ġentre": 884,
      "Ġatti": 885,
      "Ġmon": 886,
      "Ġposs": 887,
      "ance": 888,
      "ments": 889,
      "Ġander": 890,
      "Ġconfor": 891,
      "fo": 892,
      "Ġoper": 893,
      "Ġten": 894,
      "Ġarbeit": 895,
      "Ġcontra": 896,
      "Ġquan": 897,
      "Ġcre": 898,
      "Ġ]": 899,
      "Ġ[": 900,
      "iden": 901,
      "Ġnor": 902,
      "Ġ2014": 903,
      "Ġorgan": 904,
      "Ġsow": 905,
      "Ġste": 906,
      "ici": 907,
      "bs": 908,
      "Ġdecision": 909,
      "ate": 910,
      "Â°": 911,
      "Ġx": 912,
      "tres": 913,
      "ces": 914,
      "Ġwie": 915,
      "rei": 916,
      "Ġuti": 917,
      "tifica": 918,
      "fe": 919,
      "uar": 920,
      "Ġange": 921,
      "Ġli": 922,
      "wal": 923,
      "Ġmodi": 924,
      "Ġfat": 925,
      "fall": 926,
      "Ġihr": 927,
      "Ġih": 928,
      "osten": 929,
      "Ġrecht": 930,
      "si": 931,
      "Ġcommissione": 932,
      "Ġ198": 933,
      "ont": 934,
      "Ġassic": 935,
      "Ġdalla": 936,
      "Ġeines": 937,
      "Ġpartic": 938,
      "Ġmer": 939,
      "lage": 940,
      "Ġwenn": 941,
      "Ġetre": 942,
      "Ġcondi": 943,
      "tivo": 944,
      "istra": 945,
      "timm": 946,
      "Ġ90": 947,
      "Ġro": 948,
      "ves": 949,
      "Ġzw": 950,
      "Ġ000": 951,
      "its": 952,
      "tsch": 953,
      "miss": 954,
      "ht": 955,
      "Ġrapp": 956,
      "auf": 957,
      "ritto": 958,
      "Ġkann": 959,
      "ĠâĢŀ": 960,
      "Ġbase": 961,
      "Ġoff": 962,
      "anton": 963,
      "ore": 964,
      "Ġeinem": 965,
      "Ġutili": 966,
      "Ġeinen": 967,
      "lt": 968,
      "Ġ2012": 969,
      "Ġwur": 970,
      "trie": 971,
      "Ġdegli": 972,
      "Ġklagerin": 973,
      "enza": 974,
      "ile": 975,
      "Ġlavor": 976,
      "enta": 977,
      "gl": 978,
      "tin": 979,
      "grund": 980,
      "Ġrisch": 981,
      "21": 982,
      "sta": 983,
      "Ġmin": 984,
      "Ġmis": 985,
      "iste": 986,
      "Ġconcer": 987,
      "Ġinteress": 988,
      "ari": 989,
      "tivi": 990,
      "Ġci": 991,
      "Ġcome": 992,
      "bre": 993,
      "Ġmater": 994,
      "iche": 995,
      "Ġve": 996,
      "tru": 997,
      "Ġrich": 998,
      "pruch": 999,
      "Ġsatz": 1000,
      "Ġinc": 1001,
      "orden": 1002,
      "Ġbr": 1003,
      "Ġ2011": 1004,
      "Ġtrans": 1005,
      "vita": 1006,
      "ank": 1007,
      "nah": 1008,
      "mber": 1009,
      "Ġdall": 1010,
      "tore": 1011,
      "Ġgra": 1012,
      "forder": 1013,
      "Ġweit": 1014,
      "Ġquali": 1015,
      "gio": 1016,
      "mein": 1017,
      "Ġvis": 1018,
      "Ġimp": 1019,
      "weis": 1020,
      "zio": 1021,
      "Ġfra": 1022,
      "Ġvi": 1023,
      "Ġsol": 1024,
      "unde": 1025,
      "áĥ": 1026,
      "Ġed": 1027,
      "fol": 1028,
      "Ġsocie": 1029,
      "Ġcommission": 1030,
      "tenza": 1031,
      "hn": 1032,
      "lar": 1033,
      "Ġlie": 1034,
      "lement": 1035,
      "uti": 1036,
      "Ġrischio": 1037,
      "Ġ2015": 1038,
      "leich": 1039,
      "Ġurteil": 1040,
      "Ġnur": 1041,
      "cc": 1042,
      "fahren": 1043,
      "Ġwar": 1044,
      "Ġmed": 1045,
      "01": 1046,
      "gu": 1047,
      "Ġrep": 1048,
      "Ġgener": 1049,
      "Ġdefau": 1050,
      "Ġeffet": 1051,
      "Ġir": 1052,
      "cht": 1053,
      "cip": 1054,
      "Ġjo": 1055,
      "Ġhin": 1056,
      "Ġdom": 1057,
      "tik": 1058,
      "Ġconsid": 1059,
      "Ġ2009": 1060,
      "anno": 1061,
      "era": 1062,
      "Ġstati": 1063,
      "trib": 1064,
      "pro": 1065,
      "orr": 1066,
      "tar": 1067,
      "ke": 1068,
      "ini": 1069,
      "Ġrn": 1070,
      "ario": 1071,
      "orso": 1072,
      "mes": 1073,
      "ites": 1074,
      "Ġans": 1075,
      "parte": 1076,
      "Ġcpv": 1077,
      "nahme": 1078,
      "cun": 1079,
      "Ġave": 1080,
      "Ġsecon": 1081,
      "Ġdieser": 1082,
      "Ġfo": 1083,
      "llen": 1084,
      "Ġju": 1085,
      "Ġlu": 1086,
      "uris": 1087,
      "Ġmes": 1088,
      "Ġnecess": 1089,
      "zug": 1090,
      "dito": 1091,
      "ministra": 1092,
      "Ġgar": 1093,
      "ando": 1094,
      "Ġdeve": 1095,
      "Ġprodo": 1096,
      "Ġtrib": 1097,
      "Ġcer": 1098,
      "ha": 1099,
      "Ġas": 1100,
      "Ġ2008": 1101,
      "Ġquanto": 1102,
      "Ġsel": 1103,
      "isse": 1104,
      "Ġ2010": 1105,
      "Ġnell": 1106,
      "gb": 1107,
      "Ġdro": 1108,
      "Ġ40": 1109,
      "Ġhabe": 1110,
      "Ġthe": 1111,
      "chi": 1112,
      "Ġog": 1113,
      "ures": 1114,
      "walt": 1115,
      "prech": 1116,
      "iglio": 1117,
      "Ġindi": 1118,
      "ata": 1119,
      "Ġdiritto": 1120,
      "one": 1121,
      "zie": 1122,
      "recht": 1123,
      "Ġmen": 1124,
      "pflich": 1125,
      "Ġcet": 1126,
      "Ġpor": 1127,
      "icher": 1128,
      "gato": 1129,
      "ations": 1130,
      "Ġstra": 1131,
      "Ġfol": 1132,
      "zz": 1133,
      "Ġke": 1134,
      "Ġcee": 1135,
      "aria": 1136,
      "Ġord": 1137,
      "gt": 1138,
      "bilita": 1139,
      "Ġtribun": 1140,
      "Ġaff": 1141,
      "ass": 1142,
      "dita": 1143,
      "Ġsin": 1144,
      "Ġcaso": 1145,
      "Ġfeder": 1146,
      "bbe": 1147,
      "Ġese": 1148,
      "Ġaccor": 1149,
      "Ġkom": 1150,
      "Ġautres": 1151,
      "teg": 1152,
      "Ġvig": 1153,
      "Ġantrags": 1154,
      "Ġsos": 1155,
      "anza": 1156,
      "Ġ2016": 1157,
      "Ġgu": 1158,
      "Ġy": 1159,
      "Ġ197": 1160,
      "Ġbund": 1161,
      "ciali": 1162,
      "Ġverb": 1163,
      "Ġconven": 1164,
      "schaft": 1165,
      "Ġpuo": 1166,
      "Ġaccord": 1167,
      "Ġhier": 1168,
      "lung": 1169,
      "ssch": 1170,
      "sa": 1171,
      "oro": 1172,
      "azioni": 1173,
      "unden": 1174,
      "gericht": 1175,
      "Ġgeb": 1176,
      "Ġrepub": 1177,
      "Ġnove": 1178,
      "Ġanche": 1179,
      "rif": 1180,
      "Ġwo": 1181,
      "upp": 1182,
      "Ġers": 1183,
      "Ġ35": 1184,
      "ero": 1185,
      "Ġconsiglio": 1186,
      "Ġgel": 1187,
      "ahl": 1188,
      "Ġvgl": 1189,
      "cembre": 1190,
      "Ġanne": 1191,
      "onne": 1192,
      "land": 1193,
      "30": 1194,
      "Ġautorita": 1195,
      "Ġcaus": 1196,
      "tellung": 1197,
      "Ġsens": 1198,
      "ulta": 1199,
      "Ġcomunita": 1200,
      "Ġprin": 1201,
      "geben": 1202,
      "Ġ2007": 1203,
      "Ġbeklagte": 1204,
      "Ġus": 1205,
      "kommen": 1206,
      "xe": 1207,
      "Ġsal": 1208,
      "Ġbeklagten": 1209,
      "Ġmateria": 1210,
      "uv": 1211,
      "Ġren": 1212,
      "ordnung": 1213,
      "Ġgesetz": 1214,
      "Ġinf": 1215,
      "Ġentscheid": 1216,
      "Ġperio": 1217,
      "Ġconforme": 1218,
      "Ġof": 1219,
      "10": 1220,
      "Ġtale": 1221,
      "Ġkeine": 1222,
      "Ġtras": 1223,
      "Ġregel": 1224,
      "Ġ32": 1225,
      "Ġlim": 1226,
      "Ġmuss": 1227,
      "Ġbundes": 1228,
      "tellt": 1229,
      "Ġ2006": 1230,
      "amento": 1231,
      "ander": 1232,
      "Ġnom": 1233,
      "tere": 1234,
      "Ġbeschluss": 1235,
      "cita": 1236,
      "lin": 1237,
      "ap": 1238,
      "tet": 1239,
      "Ġpropr": 1240,
      "hang": 1241,
      "Ġdeter": 1242,
      "tf": 1243,
      "Ġuffic": 1244,
      "Ġsit": 1245,
      "gesetz": 1246,
      "Ġsuo": 1247,
      "Ġcontes": 1248,
      "Ġweiter": 1249,
      "tigen": 1250,
      "Ġcam": 1251,
      "Ġprof": 1252,
      "Ġland": 1253,
      "Ġcfr": 1254,
      "halten": 1255,
      "Ġberuf": 1256,
      "ique": 1257,
      "Ġces": 1258,
      "Ġetat": 1259,
      "Ġsul": 1260,
      "Ġcommunau": 1261,
      "Ġ39": 1262,
      "cte": 1263,
      "Ġsowie": 1264,
      "conom": 1265,
      "Ġmag": 1266,
      "Ġpun": 1267,
      "Ġparagrafo": 1268,
      "Ġ<": 1269,
      "fug": 1270,
      "Ġbestimm": 1271,
      "Ġcompe": 1272,
      "ession": 1273,
      "tikel": 1274,
      "glie": 1275,
      "Ġconseil": 1276,
      "Ġvol": 1277,
      "Ġbeh": 1278,
      "Ġ33": 1279,
      "Ġworden": 1280,
      "Ġeconom": 1281,
      "pet": 1282,
      "Ġzwe": 1283,
      "je": 1284,
      "Ġpiu": 1285,
      "dem": 1286,
      "Ġeuropeen": 1287,
      "Ġcir": 1288,
      "Ġapr": 1289,
      "mittel": 1290,
      "Ġartikel": 1291,
      "tuale": 1292,
      "mission": 1293,
      "Ġgesch": 1294,
      "Ġrat": 1295,
      "Ġsia": 1296,
      "ad": 1297,
      "Ġ2003": 1298,
      "Ġ2004": 1299,
      "olare": 1300,
      "Ġsecondo": 1301,
      "Ġ2002": 1302,
      "wend": 1303,
      "ises": 1304,
      "Ġsc": 1305,
      "Ġunion": 1306,
      "Ġattivita": 1307,
      "ffen": 1308,
      "11": 1309,
      "Ġul": 1310,
      "Ġaltri": 1311,
      "nes": 1312,
      "Ġ34": 1313,
      "glio": 1314,
      "Ġ100": 1315,
      "esse": 1316,
      "ima": 1317,
      "ence": 1318,
      "Ġsy": 1319,
      "Ġ2017": 1320,
      "Ġsuper": 1321,
      "Ġete": 1322,
      "izza": 1323,
      "Ġmehr": 1324,
      "Ġteil": 1325,
      "wir": 1326,
      "Ġavec": 1327,
      "Ġindica": 1328,
      "Ġorganis": 1329,
      "uber": 1330,
      "erva": 1331,
      "Ġparagrap": 1332,
      "Ġjan": 1333,
      "satz": 1334,
      "Ġbo": 1335,
      "Ġopp": 1336,
      "Ġdoc": 1337,
      "Ġeg": 1338,
      "Ġ60": 1339,
      "lu": 1340,
      "Ġplus": 1341,
      "Ġpoli": 1342,
      "gegen": 1343,
      "chen": 1344,
      "Ġappro": 1345,
      "ssen": 1346,
      "Ġdocu": 1347,
      "werde": 1348,
      "Ġfi": 1349,
      "ssa": 1350,
      "Ġprincip": 1351,
      "Ġ07": 1352,
      "Ġsulla": 1353,
      "ba": 1354,
      "blica": 1355,
      "Ġdev": 1356,
      "Ġarbeits": 1357,
      "Ġ04": 1358,
      "Ġassicura": 1359,
      "Ġmodifica": 1360,
      "Ġmeto": 1361,
      "Ġ36": 1362,
      "tellen": 1363,
      "imo": 1364,
      "Ġue": 1365,
      "Ġ2005": 1366,
      "ĠâĢĿ": 1367,
      "eits": 1368,
      "pte": 1369,
      "Ġoc": 1370,
      "50": 1371,
      "lieÃŁ": 1372,
      "Ġallegato": 1373,
      "Ġcette": 1374,
      "tigkeit": 1375,
      "Ġfun": 1376,
      "Ġfest": 1377,
      "Ġkosten": 1378,
      "cri": 1379,
      "ĠmaÃŁ": 1380,
      "lig": 1381,
      "Ġwurde": 1382,
      "ora": 1383,
      "ds": 1384,
      "waltungs": 1385,
      "Ġ38": 1386,
      "Ġserv": 1387,
      "glich": 1388,
      "Ġado": 1389,
      "porta": 1390,
      "Ġzeit": 1391,
      "Ġquale": 1392,
      "Ġ37": 1393,
      "iten": 1394,
      "int": 1395,
      "Ġtribunale": 1396,
      "pun": 1397,
      "ino": 1398,
      "des": 1399,
      "gram": 1400,
      "Ġstre": 1401,
      "Ġcommer": 1402,
      "ture": 1403,
      "ln": 1404,
      "Ġerk": 1405,
      "Ġeinz": 1406,
      "if": 1407,
      "Ġforma": 1408,
      "gh": 1409,
      "Ġloro": 1410,
      "arie": 1411,
      "Ġtro": 1412,
      "Ġcanton": 1413,
      "ko": 1414,
      "Ġorig": 1415,
      "igkeit": 1416,
      "Ġricorr": 1417,
      "Ġbetrie": 1418,
      "Ġtratta": 1419,
      "Ġrec": 1420,
      "Ġfederale": 1421,
      "tante": 1422,
      "chten": 1423,
      "Ġaccordo": 1424,
      "Ġricorso": 1425,
      "vol": 1426,
      "Ġ06": 1427,
      "Ġ02": 1428,
      "Ġ84": 1429,
      "Ġ05": 1430,
      "Ġgemein": 1431,
      "Ġ08": 1432,
      "tandi": 1433,
      "oria": 1434,
      "Ġva": 1435,
      "uve": 1436,
      "Ġze": 1437,
      "aux": 1438,
      "liegen": 1439,
      "Ġsach": 1440,
      "Ġarre": 1441,
      "hm": 1442,
      "enz": 1443,
      "mess": 1444,
      "sich": 1445,
      "Ġparagraphe": 1446,
      "ats": 1447,
      "Ġsig": 1448,
      "ffer": 1449,
      "Ġvoll": 1450,
      "mine": 1451,
      "Ġlet": 1452,
      "afts": 1453,
      "Ġjahr": 1454,
      "Ġec": 1455,
      "bei": 1456,
      "Ġcredito": 1457,
      "Ġcompeten": 1458,
      "zzati": 1459,
      "Ġpresiden": 1460,
      "Ġfran": 1461,
      "fi": 1462,
      "Ġcompr": 1463,
      "man": 1464,
      "Ġ196": 1465,
      "ische": 1466,
      "iore": 1467,
      "bra": 1468,
      "Ġjuris": 1469,
      "Ġfatto": 1470,
      "cato": 1471,
      "Ġ03": 1472,
      "Ġnoch": 1473,
      "Ġkonnen": 1474,
      "Ġreglement": 1475,
      "Ġeuropea": 1476,
      "amt": 1477,
      "Ġprote": 1478,
      "Ġon": 1479,
      "Ġ09": 1480,
      "Ġnum": 1481,
      "Ġ44": 1482,
      "aus": 1483,
      "Ġmetodo": 1484,
      "bil": 1485,
      "Ġrig": 1486,
      "tura": 1487,
      "ula": 1488,
      "Ġ2001": 1489,
      "licher": 1490,
      "Ġpeut": 1491,
      "tali": 1492,
      "Ġdieses": 1493,
      "eres": 1494,
      "Ġproced": 1495,
      "Ġspese": 1496,
      "ls": 1497,
      "Ġsua": 1498,
      "urato": 1499,
      "olog": 1500,
      "Ġbeste": 1501,
      "Ġven": 1502,
      "Ġbeschwerde": 1503,
      "Ġamministra": 1504,
      "gaben": 1505,
      "hne": 1506,
      "grunde": 1507,
      "19": 1508,
      "Ġconten": 1509,
      "Ġform": 1510,
      "Ġprodotti": 1511,
      "Ġsotto": 1512,
      "tung": 1513,
      "Ġleist": 1514,
      "06": 1515,
      "Ġgo": 1516,
      "lique": 1517,
      "tis": 1518,
      "net": 1519,
      "Ġ85": 1520,
      "Ġcour": 1521,
      "Ġmembri": 1522,
      "osi": 1523,
      "ient": 1524,
      "dern": 1525,
      "Ġinterna": 1526,
      "Ġher": 1527,
      "fass": 1528,
      "ammen": 1529,
      "Ġparticolare": 1530,
      "Ġkein": 1531,
      "Ġ48": 1532,
      "ondere": 1533,
      "hor": 1534,
      "Ġhe": 1535,
      "Ġgelten": 1536,
      "Ġ42": 1537,
      "Ġdata": 1538,
      "tanto": 1539,
      "Ġann": 1540,
      "dr": 1541,
      "Ġspeci": 1542,
      "imento": 1543,
      "Ġiii": 1544,
      "Ġgro": 1545,
      "met": 1546,
      "ange": 1547,
      "Ġga": 1548,
      "Ġcontrib": 1549,
      "Ġmai": 1550,
      "Ġspeciali": 1551,
      "Ġstabili": 1552,
      "ĠgemaÃŁ": 1553,
      "Ġtout": 1554,
      "Ġpresta": 1555,
      "Ġpresenta": 1556,
      "Ġ2000": 1557,
      "Ġbere": 1558,
      "udi": 1559,
      "uni": 1560,
      "falls": 1561,
      "ys": 1562,
      "via": 1563,
      "gesch": 1564,
      "Ġ49": 1565,
      "halb": 1566,
      "reich": 1567,
      "Ġsocieta": 1568,
      "Ġcal": 1569,
      "Ġausge": 1570,
      "Ġ41": 1571,
      "Ġservi": 1572,
      "rank": 1573,
      "zeich": 1574,
      "Ġnorma": 1575,
      "Ġben": 1576,
      "enst": 1577,
      "quis": 1578,
      "Ġihre": 1579,
      "Ġ2018": 1580,
      "Ġeigen": 1581,
      "Ġsitu": 1582,
      "Ġgius": 1583,
      "Ġpartie": 1584,
      "Ġunione": 1585,
      "Ġdiretti": 1586,
      "Ġfall": 1587,
      "ales": 1588,
      "Ġfer": 1589,
      "ige": 1590,
      "tens": 1591,
      "pra": 1592,
      "Ġ45": 1593,
      "ciale": 1594,
      "lagen": 1595,
      "Ġ80": 1596,
      "Ġzwischen": 1597,
      "Ġohne": 1598,
      "ungsver": 1599,
      "ak": 1600,
      "Ġposi": 1601,
      "000": 1602,
      "Ġdiesem": 1603,
      "ioni": 1604,
      "entra": 1605,
      "Ġoperazioni": 1606,
      "mina": 1607,
      "Ġeuropa": 1608,
      "Ġequ": 1609,
      "weise": 1610,
      "Ġnuo": 1611,
      "Ġprogram": 1612,
      "Ġhaben": 1613,
      "Ġlavoro": 1614,
      "Ġ43": 1615,
      "Ġnat": 1616,
      "22": 1617,
      "Ġverwaltungs": 1618,
      "ibile": 1619,
      "chtig": 1620,
      "Ġesecu": 1621,
      "Ġ46": 1622,
      "Ġerfol": 1623,
      "tanza": 1624,
      "Ġmembres": 1625,
      "tori": 1626,
      "Ġexe": 1627,
      "ents": 1628,
      "Ġlors": 1629,
      "Ġzusammen": 1630,
      "getto": 1631,
      "Ġentscheidung": 1632,
      "ding": 1633,
      "Ġeinzel": 1634,
      "Ġ54": 1635,
      "Ĥ¬": 1636,
      "Ġnei": 1637,
      "Ġproto": 1638,
      "tione": 1639,
      "nahmen": 1640,
      "fahrens": 1641,
      "Ġont": 1642,
      "Ġgiud": 1643,
      "Ġantragstell": 1644,
      "Ġparties": 1645,
      "Ġdroit": 1646,
      "ull": 1647,
      "Ġba": 1648,
      "voir": 1649,
      "Ġeuropeenne": 1650,
      "ĠâĤ¬": 1651,
      "ted": 1652,
      "Ġnovembre": 1653,
      "Ġpruf": 1654,
      "Ġelle": 1655,
      "ifica": 1656,
      "hin": 1657,
      "gabe": 1658,
      "Ġvertrags": 1659,
      "Ġabsatz": 1660,
      "Ġpresent": 1661,
      "Ġklage": 1662,
      "zeug": 1663,
      "Ġbau": 1664,
      "Ġfait": 1665,
      "Ġseine": 1666,
      "Ġdispositions": 1667,
      "Ġrispet": 1668,
      "teili": 1669,
      "Ġak": 1670,
      "bere": 1671,
      "Ġpla": 1672,
      "rift": 1673,
      "heb": 1674,
      "irb": 1675,
      "Ġvaluta": 1676,
      "Ġeinge": 1677,
      "Ġimporta": 1678,
      "Ġgior": 1679,
      "Ġricorrente": 1680,
      "Ġdr": 1681,
      "Ġdicembre": 1682,
      "Ġ+": 1683,
      "auss": 1684,
      "zahl": 1685,
      "eri": 1686,
      "Ġirb": 1687,
      "Ġprocedu": 1688,
      "urteil": 1689,
      "Ġ55": 1690,
      "isten": 1691,
      "Ġetats": 1692,
      "nehmen": 1693,
      "Ġentra": 1694,
      "Ġquesto": 1695,
      "alen": 1696,
      "gerichts": 1697,
      "Ġriguar": 1698,
      "dre": 1699,
      "Ġid": 1700,
      "Ġcap": 1701,
      "Ġbereits": 1702,
      "Ġgaranti": 1703,
      "Ġ51": 1704,
      "tifs": 1705,
      "Ġpen": 1706,
      "dente": 1707,
      "ants": 1708,
      "Ġtes": 1709,
      "jet": 1710,
      "Ġ52": 1711,
      "ab": 1712,
      "gleich": 1713,
      "Ġentsprech": 1714,
      "Ġfinanzia": 1715,
      "Ġsenza": 1716,
      "Ġel": 1717,
      "ks": 1718,
      "Ġmitglie": 1719,
      "uito": 1720,
      "Ġproduits": 1721,
      "Ġali": 1722,
      "ame": 1723,
      "Ġhohe": 1724,
      "ule": 1725,
      "Ġprevis": 1726,
      "kehr": 1727,
      "gang": 1728,
      "Ġsec": 1729,
      "iale": 1730,
      "hand": 1731,
      "Ġnation": 1732,
      "stan": 1733,
      "Ġdefault": 1734,
      "essi": 1735,
      "fen": 1736,
      "Ġ47": 1737,
      "Ġbene": 1738,
      "Ġmln": 1739,
      "ons": 1740,
      "posta": 1741,
      "clus": 1742,
      "Ġmati": 1743,
      "die": 1744,
      "Ġerforder": 1745,
      "Ġbetre": 1746,
      "zial": 1747,
      "Ġfolgen": 1748,
      "uli": 1749,
      "Ġcontroparte": 1750,
      "Ġdemande": 1751,
      "Ġred": 1752,
      "nit": 1753,
      "Ġleur": 1754,
      "tica": 1755,
      "Ġcateg": 1756,
      "Ġrifer": 1757,
      "Ġiv": 1758,
      "Ġeven": 1759,
      "Ġprocedure": 1760,
      "wa": 1761,
      "ices": 1762,
      "Ġdtf": 1763,
      "Ġhanno": 1764,
      "Ġvorliegen": 1765,
      "Ġ1999": 1766,
      "ctive": 1767,
      "lauf": 1768,
      "Ġnota": 1769,
      "Ġprima": 1770,
      "zzo": 1771,
      "Ġanderen": 1772,
      "bo": 1773,
      "Ġaber": 1774,
      "Ġindus": 1775,
      "Ġregion": 1776,
      "raft": 1777,
      "Ġseiner": 1778,
      "Ġ59": 1779,
      "stand": 1780,
      "Ġstu": 1781,
      "Ġ70": 1782,
      "Ġrichies": 1783,
      "Ġannexe": 1784,
      "Ġ99": 1785,
      "Ġdoit": 1786,
      "Ġihrer": 1787,
      "Ġdirettiva": 1788,
      "Ġappe": 1789,
      "pru": 1790,
      "vali": 1791,
      "og": 1792,
      "Ġverein": 1793,
      "cep": 1794,
      "Ġdov": 1795,
      "Ġsous": 1796,
      "Ġprece": 1797,
      "ichtlich": 1798,
      "tragen": 1799,
      "uzione": 1800,
      "Ġdest": 1801,
      "Ġconclus": 1802,
      "Ġoss": 1803,
      "Ġtre": 1804,
      "etzung": 1805,
      "Ġ53": 1806,
      "stu": 1807,
      "Ġmeme": 1808,
      "Ġtrava": 1809,
      "Ġzulass": 1810,
      "Ġzahl": 1811,
      "Ġsegu": 1812,
      "Ġgenna": 1813,
      "gew": 1814,
      "Ġgennaio": 1815,
      "iz": 1816,
      "Ġcomme": 1817,
      "Ġ75": 1818,
      "insi": 1819,
      "alita": 1820,
      "Ġainsi": 1821,
      "Ġjus": 1822,
      "Ġconcerne": 1823,
      "ils": 1824,
      "Ġses": 1825,
      "Ġsentenza": 1826,
      "Ġandere": 1827,
      "lic": 1828,
      "Ġdichi": 1829,
      "Ġcomple": 1830,
      "Ġand": 1831,
      "leist": 1832,
      "Ġetabli": 1833,
      "Ġloi": 1834,
      "Ġqual": 1835,
      "richt": 1836,
      "Ġdichiar": 1837,
      "endo": 1838,
      "Ġassicurato": 1839,
      "ierung": 1840,
      "Ġrappor": 1841,
      "Ġinol": 1842,
      "Ġabsch": 1843,
      "essa": 1844,
      "nisse": 1845,
      "Ġtech": 1846,
      "Ġautre": 1847,
      "Ġmass": 1848,
      "Ġni": 1849,
      "tal": 1850,
      "ÃŁer": 1851,
      "Ġconcern": 1852,
      "Ġ57": 1853,
      "dio": 1854,
      "vision": 1855,
      "ugno": 1856,
      "besondere": 1857,
      "Ġsuiv": 1858,
      "zionale": 1859,
      "Ġhande": 1860,
      "dur": 1861,
      "Ġfests": 1862,
      "Ġ56": 1863,
      "ingen": 1864,
      "bito": 1865,
      "Ġpes": 1866,
      "ct": 1867,
      "ill": 1868,
      "bst": 1869,
      "Ġinsbesondere": 1870,
      "Ġprov": 1871,
      "Ġtali": 1872,
      "Ġgiugno": 1873,
      "Ġrahmen": 1874,
      "Ġdiver": 1875,
      "Ġtem": 1876,
      "Ġcausa": 1877,
      "Ġsupp": 1878,
      "Ġaver": 1879,
      "legen": 1880,
      "ttore": 1881,
      "ucksich": 1882,
      "fic": 1883,
      "Ġ87": 1884,
      "Ġsyste": 1885,
      "iger": 1886,
      "Ġwel": 1887,
      "weit": 1888,
      "Ġgema": 1889,
      "kre": 1890,
      "cio": 1891,
      "eg": 1892,
      "Ġsan": 1893,
      "Ġcondizioni": 1894,
      "Ġapres": 1895,
      "Ġsensi": 1896,
      "Ġwegen": 1897,
      "Ġinves": 1898,
      "Ġinvali": 1899,
      "zeit": 1900,
      "Ġdamit": 1901,
      "zw": 1902,
      "tzt": 1903,
      "Ġanspruch": 1904,
      "Ġfinanzi": 1905,
      "almente": 1906,
      "Ġstata": 1907,
      "Ġ64": 1908,
      "arbeit": 1909,
      "denza": 1910,
      "kun": 1911,
      "Ġprev": 1912,
      "zus": 1913,
      "Ġruck": 1914,
      "Ġ91": 1915,
      "Ġpunto": 1916,
      "tue": 1917,
      "Ġagli": 1918,
      "Ġgiudi": 1919,
      "Ġconfer": 1920,
      "riff": 1921,
      "gese": 1922,
      "Ġriten": 1923,
      "treten": 1924,
      "punkt": 1925,
      "Ġperiodo": 1926,
      "halts": 1927,
      "Ġfahr": 1928,
      "Ġpf": 1929,
      "Ġcontestuale": 1930,
      "Ġ61": 1931,
      "tima": 1932,
      "Ġsteuer": 1933,
      "Ġrating": 1934,
      "Ġcol": 1935,
      "Ġpmi": 1936,
      "Ġmisure": 1937,
      "Ġgleich": 1938,
      "Ġ58": 1939,
      "Ġberucksich": 1940,
      "Ġop": 1941,
      "Ġentrepr": 1942,
      "Ġsepte": 1943,
      "anda": 1944,
      "isce": 1945,
      "tschaft": 1946,
      "tera": 1947,
      "Ġconto": 1948,
      "dia": 1949,
      "Ġcommunaute": 1950,
      "aten": 1951,
      "Ġpossono": 1952,
      "Ġsolo": 1953,
      "lted": 1954,
      "Ġconformement": 1955,
      "Ġdefaulted": 1956,
      "Ġsinne": 1957,
      "mt": 1958,
      "Ġemp": 1959,
      "ibt": 1960,
      "las": 1961,
      "Ġsicher": 1962,
      "trage": 1963,
      "ues": 1964,
      "Ġwider": 1965,
      "Ġantragsteller": 1966,
      "Ġbezug": 1967,
      "iesen": 1968,
      "Ġprocedura": 1969,
      "Ġmodif": 1970,
      "Ġstr": 1971,
      "Ġeffe": 1972,
      "Ġobbli": 1973,
      "wendung": 1974,
      "Ġnotifica": 1975,
      "02": 1976,
      "Ġdisposizioni": 1977,
      "Ġverfahren": 1978,
      "age": 1979,
      "ane": 1980,
      "fin": 1981,
      "Ġwahr": 1982,
      "Ġotto": 1983,
      "03": 1984,
      "Ġ65": 1985,
      "Ġchar": 1986,
      "Ġsom": 1987,
      "Ġkanton": 1988,
      "tale": 1989,
      "Ġtito": 1990,
      "Ġ2019": 1991,
      "Ġapplicazione": 1992,
      "tigung": 1993,
      "Ġvalore": 1994,
      "digung": 1995,
      "teur": 1996,
      "tamente": 1997,
      "ac": 1998,
      "Ġeu": 1999,
      "bens": 2000,
      "Ġquin": 2001,
      "Ġrag": 2002,
      "Ġrelative": 2003,
      "Ġmet": 2004,
      "teilig": 2005,
      "oper": 2006,
      "ime": 2007,
      "ide": 2008,
      "Ġfre": 2009,
      "Ġapplication": 2010,
      "fs": 2011,
      "tten": 2012,
      "Ġade": 2013,
      "Ġmesures": 2014,
      "Ġseien": 2015,
      "Ġban": 2016,
      "Ġtats": 2017,
      "Ġinte": 2018,
      "Ġhatte": 2019,
      "Ġmaggio": 2020,
      "org": 2021,
      "dung": 2022,
      "legt": 2023,
      "ines": 2024,
      "Ġbil": 2025,
      "Ġwes": 2026,
      "Ġprofession": 2027,
      "Ġdopo": 2028,
      "fuhrt": 2029,
      "tives": 2030,
      "Ġvorsch": 2031,
      "Ġesposi": 2032,
      "pre": 2033,
      "tige": 2034,
      "ard": 2035,
      "Ġdiverse": 2036,
      "Ġcr": 2037,
      "Ġesecuzione": 2038,
      "bles": 2039,
      "Ġoffent": 2040,
      "Ġbver": 2041,
      "lev": 2042,
      "brica": 2043,
      "Ġmoglich": 2044,
      "Ġdeux": 2045,
      "Ġtoute": 2046,
      "Ġreali": 2047,
      "Ġaltre": 2048,
      "Ġplan": 2049,
      "Ġtraite": 2050,
      "indes": 2051,
      "Ġottobre": 2052,
      "Ġfam": 2053,
      "nement": 2054,
      "Ġconsiderando": 2055,
      "Ġzuruck": 2056,
      "Ġmoy": 2057,
      "Ġagen": 2058,
      "Ġtex": 2059,
      "orio": 2060,
      "Ġinvesti": 2061,
      "Ġimpr": 2062,
      "Ġdep": 2063,
      "ose": 2064,
      "geber": 2065,
      "Ġweil": 2066,
      "Ġistitu": 2067,
      "Ġcirc": 2068,
      "Ġricon": 2069,
      "yl": 2070,
      "Ġfis": 2071,
      "Ġdue": 2072,
      "esen": 2073,
      "Ġ2020": 2074,
      "Ġ63": 2075,
      "Ġatten": 2076,
      "Ġmarzo": 2077,
      "Ġluglio": 2078,
      "tragt": 2079,
      "Ġgia": 2080,
      "urg": 2081,
      "Ġfuhr": 2082,
      "tato": 2083,
      "oli": 2084,
      "rebbe": 2085,
      "Ġaltro": 2086,
      "tigt": 2087,
      "Ġera": 2088,
      "Ġ73": 2089,
      "Ġdello": 2090,
      "Ġlegge": 2091,
      "ern": 2092,
      "Ġdann": 2093,
      "gemein": 2094,
      "ree": 2095,
      "Ġschul": 2096,
      "Ġpubbli": 2097,
      "ssi": 2098,
      "ueur": 2099,
      "Ġsuc": 2100,
      "Ġgrundsatz": 2101,
      "doch": 2102,
      "Ġcha": 2103,
      "taire": 2104,
      "Ġdeze": 2105,
      "erk": 2106,
      "Ġinfer": 2107,
      "Ġjedoch": 2108,
      "Ġdess": 2109,
      "itar": 2110,
      "Ġ95": 2111,
      "Ġbeg": 2112,
      "Ġfinanziamenti": 2113,
      "Ġquesta": 2114,
      "Ġdienst": 2115,
      "Ġdiffer": 2116,
      "Ġdonne": 2117,
      "Ġinso": 2118,
      "Ġrespon": 2119,
      "ka": 2120,
      "Ġinformazioni": 2121,
      "riften": 2122,
      "Ġdefin": 2123,
      "tare": 2124,
      "Ġeinsch": 2125,
      "schen": 2126,
      "tionen": 2127,
      "ana": 2128,
      "Ġmercato": 2129,
      "Ġconditions": 2130,
      "Ġdezember": 2131,
      "Ġspecializzati": 2132,
      "ister": 2133,
      "Ġtutti": 2134,
      "Ġsog": 2135,
      "Ġchi": 2136,
      "Ġverpflich": 2137,
      "Ġcostitu": 2138,
      "vg": 2139,
      "mier": 2140,
      "Ġ62": 2141,
      "Ġdate": 2142,
      "Ġsim": 2143,
      "Ġgewahr": 2144,
      "iet": 2145,
      "Ġol": 2146,
      "neh": 2147,
      "Ġpersonne": 2148,
      "Ġsoll": 2149,
      "Ġgericht": 2150,
      "Ġ74": 2151,
      "genommen": 2152,
      "Ġ\\": 2153,
      "Ġmisura": 2154,
      "ona": 2155,
      "Ġdestina": 2156,
      "04": 2157,
      "Ġwaren": 2158,
      "Ġresponsa": 2159,
      "Ġogni": 2160,
      "aup": 2161,
      "itato": 2162,
      "Ġprec": 2163,
      "Ġ68": 2164,
      "Ġsette": 2165,
      "ken": 2166,
      "Ġsiste": 2167,
      "Ġaprile": 2168,
      "Ġinoltre": 2169,
      "Ġbzw": 2170,
      "Ġricht": 2171,
      "Ġeuropaischen": 2172,
      "Ġmom": 2173,
      "port": 2174,
      "Ġsoweit": 2175,
      "Ġufficio": 2176,
      "ungsbe": 2177,
      "isla": 2178,
      "Ġfeb": 2179,
      "Ġfab": 2180,
      "Ġpart": 2181,
      "ph": 2182,
      "uver": 2183,
      "Ġmodo": 2184,
      "0000": 2185,
      "Ġjewe": 2186,
      "gestellt": 2187,
      "Ġauto": 2188,
      "Ġtatsach": 2189,
      "Ġcivi": 2190,
      "lassen": 2191,
      "Ġvorauss": 2192,
      "Ġcapa": 2193,
      "ehm": 2194,
      "Ġlegisla": 2195,
      "Ġko": 2196,
      "Ġalcun": 2197,
      "Ġmedi": 2198,
      "Ġnelle": 2199,
      "Ġ93": 2200,
      "tici": 2201,
      "zogen": 2202,
      "mar": 2203,
      "Ġ66": 2204,
      "Ġit": 2205,
      "iva": 2206,
      "Ġdati": 2207,
      "Ġautorizza": 2208,
      "Ġaussch": 2209,
      "Ġru": 2210,
      "Ġiden": 2211,
      "Ġpays": 2212,
      "Ġdav": 2213,
      "bilite": 2214,
      "Ġkg": 2215,
      "Ġ69": 2216,
      "Ġsca": 2217,
      "Ġrepubblica": 2218,
      "Ġsic": 2219,
      "atori": 2220,
      "bor": 2221,
      "Ġvigueur": 2222,
      "vait": 2223,
      "Ġaufgrund": 2224,
      "tiv": 2225,
      "annten": 2226,
      "Ġproprie": 2227,
      "Ġff": 2228,
      "Ġessa": 2229,
      "inea": 2230,
      "Ġinternation": 2231,
      "Ġquindi": 2232,
      "dit": 2233,
      "Ġ67": 2234,
      "mon": 2235,
      "05": 2236,
      "Ġdetta": 2237,
      "Ġvigore": 2238,
      "Ġavanza": 2239,
      "nehmer": 2240,
      "Ġsettembre": 2241,
      "Ġfebbra": 2242,
      "Ġfebbraio": 2243,
      "Ġklagers": 2244,
      "Ġgenerale": 2245,
      "ÃŁe": 2246,
      "Ġ94": 2247,
      "Ġarret": 2248,
      "Ġsans": 2249,
      "Ġselon": 2250,
      "Ġ92": 2251,
      "Ġzi": 2252,
      "Ġesposizioni": 2253,
      "tique": 2254,
      "Ġantrag": 2255,
      "reg": 2256,
      "ehmig": 2257,
      "lichkeit": 2258,
      "Ġsociete": 2259,
      "Ġjanuar": 2260,
      "Ġdevono": 2261,
      "Ġ1998": 2262,
      "cch": 2263,
      "besch": 2264,
      "Ġclass": 2265,
      "Ġstreit": 2266,
      "kte": 2267,
      "Ġitali": 2268,
      "Ġexp": 2269,
      "Ġinteresse": 2270,
      "Ġtermine": 2271,
      "Ġvale": 2272,
      "Ġdesig": 2273,
      "Ġnumero": 2274,
      "Ġjour": 2275,
      "Ġseit": 2276,
      "Ġ96": 2277,
      "fuhrung": 2278,
      "verfahren": 2279,
      "nungs": 2280,
      "gangen": 2281,
      "onder": 2282,
      "meno": 2283,
      "jahr": 2284,
      "Ġderen": 2285,
      "Ġbgb": 2286,
      "Ġ88": 2287,
      "Ġselbst": 2288,
      "Ġloca": 2289,
      "Ġ98": 2290,
      "Ġjuni": 2291,
      "cn": 2292,
      "Ġcomunica": 2293,
      "gia": 2294,
      "chs": 2295,
      "Ġcrit": 2296,
      "ento": 2297,
      "ches": 2298,
      "ms": 2299,
      "Ġverw": 2300,
      "Ġseguito": 2301,
      "Ġversicher": 2302,
      "osci": 2303,
      "Ġcontin": 2304,
      "Ġkommission": 2305,
      "Ġconf": 2306,
      "Ġ76": 2307,
      "istenza": 2308,
      "uvent": 2309,
      "gere": 2310,
      "ters": 2311,
      "verhalt": 2312,
      "Ġservices": 2313,
      "13": 2314,
      "Ġsv": 2315,
      "Ġerw": 2316,
      "ille": 2317,
      "ee": 2318,
      "iert": 2319,
      "12": 2320,
      "ugna": 2321,
      "etta": 2322,
      "zzi": 2323,
      "mal": 2324,
      "geg": 2325,
      "mato": 2326,
      "Ġfl": 2327,
      "stre": 2328,
      "Ġub": 2329,
      "Ġmitglied": 2330,
      "Ġvereinbar": 2331,
      "Ġrisulta": 2332,
      "Ġmach": 2333,
      "Ġpoint": 2334,
      "Ġdarauf": 2335,
      "Ġnouve": 2336,
      "Ġsondern": 2337,
      "sation": 2338,
      "bau": 2339,
      "Ġstatu": 2340,
      "Ġschutz": 2341,
      "Ġverfug": 2342,
      "Ġdomanda": 2343,
      "Ġihm": 2344,
      "Ġimpugna": 2345,
      "els": 2346,
      "Ġlett": 2347,
      "wg": 2348,
      "Ġenti": 2349,
      "Ġeser": 2350,
      "osto": 2351,
      "fur": 2352,
      "Ġvu": 2353,
      "Ġadministra": 2354,
      "Ġagr": 2355,
      "Ġbetriebs": 2356,
      "Ġasso": 2357,
      "Ġ72": 2358,
      "Ġdivers": 2359,
      "Ġairb": 2360,
      "Ġconcernant": 2361,
      "enze": 2362,
      "Ð°": 2363,
      "Ġverordnung": 2364,
      "Ġcomune": 2365,
      "ii": 2366,
      "Ġph": 2367,
      "Ġaggi": 2368,
      "Ġerst": 2369,
      "fah": 2370,
      "Ġmarche": 2371,
      "Ġscha": 2372,
      "heits": 2373,
      "tivamente": 2374,
      "Ġavanzato": 2375,
      "uxe": 2376,
      "Ġwurden": 2377,
      "ris": 2378,
      "annt": 2379,
      "ziale": 2380,
      "val": 2381,
      "ĠauÃŁer": 2382,
      "Ġgerichts": 2383,
      "anz": 2384,
      "essione": 2385,
      "mment": 2386,
      "Ġcivile": 2387,
      "Ġdefini": 2388,
      "Ġjuli": 2389,
      "Ġ97": 2390,
      "Ġimporto": 2391,
      "idi": 2392,
      "Ġeffettu": 2393,
      "Ġprotoco": 2394,
      "tur": 2395,
      "Ġgiudice": 2396,
      "Ġdont": 2397,
      "druck": 2398,
      "tandigen": 2399,
      "Ġstand": 2400,
      "Ġquel": 2401,
      "esi": 2402,
      "Ġsgb": 2403,
      "henden": 2404,
      "Ġservizi": 2405,
      "Ġbeteilig": 2406,
      "Ġsme": 2407,
      "use": 2408,
      "Ġfehl": 2409,
      "ick": 2410,
      "Ġcode": 2411,
      "Ġpersonen": 2412,
      "zieh": 2413,
      "Ġok": 2414,
      "Ġpresidente": 2415,
      "tiche": 2416,
      "posto": 2417,
      "Ġwieder": 2418,
      "legung": 2419,
      "Ġdalle": 2420,
      "Ġimprese": 2421,
      "Ġanni": 2422,
      "etzungen": 2423,
      "Ġpl": 2424,
      "omo": 2425,
      "Ġ2021": 2426,
      "Ġcooper": 2427,
      "pruf": 2428,
      "Ġener": 2429,
      "Ġlui": 2430,
      "wo": 2431,
      "Ġinterven": 2432,
      "Ġ78": 2433,
      "ert": 2434,
      "Ġvisto": 2435,
      "Ġcalc": 2436,
      "Ġprova": 2437,
      "ome": 2438,
      "Ġsub": 2439,
      "weisen": 2440,
      "ennt": 2441,
      "Ġth": 2442,
      "vizz": 2443,
      "14": 2444,
      "Ġty": 2445,
      "Ġlettera": 2446,
      "Ġesclus": 2447,
      "Ġmarz": 2448,
      "Ġaug": 2449,
      "Ġ83": 2450,
      "Ġ1997": 2451,
      "illi": 2452,
      "Ġpriva": 2453,
      "Ġdetermina": 2454,
      "Ġuno": 2455,
      "Ġ79": 2456,
      "Ġfour": 2457,
      "tano": 2458,
      "fra": 2459,
      "det": 2460,
      "Ġfine": 2461,
      "Ġtele": 2462,
      "Ġfiss": 2463,
      "ilt": 2464,
      "getti": 2465,
      "Ġsvizz": 2466,
      "Ġbi": 2467,
      "Ġannu": 2468,
      "kung": 2469,
      "lieÃŁlich": 2470,
      "Ġpeuvent": 2471,
      "cher": 2472,
      "Ġdirective": 2473,
      "Ġdiesen": 2474,
      "Ġ89": 2475,
      "Ġerf": 2476,
      "Ġdan": 2477,
      "Ġentro": 2478,
      "ieden": 2479,
      "Ġpertanto": 2480,
      "andi": 2481,
      "urid": 2482,
      "Ġcc": 2483,
      "Ġkonn": 2484,
      "Ġtitre": 2485,
      "Ġ77": 2486,
      "Ġdetermin": 2487,
      "Ġtatigkeit": 2488,
      "niss": 2489,
      "Ġabkommen": 2490,
      "jo": 2491,
      "08": 2492,
      "Ġvw": 2493,
      "Ġsare": 2494,
      "los": 2495,
      "Ġmembro": 2496,
      "Ġ86": 2497,
      "Ġinstitu": 2498,
      "Ġadotta": 2499,
      "Ġrappres": 2500,
      "Ġdecembre": 2501,
      "bero": 2502,
      "kosten": 2503,
      "Ġpubblica": 2504,
      "Ġaufge": 2505,
      "itz": 2506,
      "Ġem": 2507,
      "Ġvise": 2508,
      "aires": 2509,
      "Ġosserva": 2510,
      "Ġvorge": 2511,
      "Ġware": 2512,
      "tag": 2513,
      "uncia": 2514,
      "Ġverfahrens": 2515,
      "Ġconsegu": 2516,
      "Ġvalutazione": 2517,
      "voll": 2518,
      "Ġcorp": 2519,
      "une": 2520,
      "Ġufficiale": 2521,
      "ler": 2522,
      "uppo": 2523,
      "ions": 2524,
      "Ġcertifica": 2525,
      "Ġnotamment": 2526,
      "Ġbuch": 2527,
      "Ġsoit": 2528,
      "hoben": 2529,
      "utung": 2530,
      "dar": 2531,
      "15": 2532,
      "ĠÐ": 2533,
      "Ġdispon": 2534,
      "Ġcompte": 2535,
      "Ġschwe": 2536,
      "Ġgilt": 2537,
      "Ġgewesen": 2538,
      "Ġkun": 2539,
      "Ġanno": 2540,
      "Ġprodotto": 2541,
      "aire": 2542,
      "Ġsettore": 2543,
      "Ġhal": 2544,
      "Ġanima": 2545,
      "bia": 2546,
      "rigen": 2547,
      "Ġrin": 2548,
      "Ġrevision": 2549,
      "Ġassur": 2550,
      "Ġzweck": 2551,
      "lossen": 2552,
      "ip": 2553,
      "Ġconsiderant": 2554,
      "Ġvia": 2555,
      "Ġct": 2556,
      "Ġdenn": 2557,
      "Ġja": 2558,
      "vier": 2559,
      "Ġrichiesta": 2560,
      "Ġentgegen": 2561,
      "Ġvertragsparte": 2562,
      "Ġgeneral": 2563,
      "reto": 2564,
      "hol": 2565,
      "Ġtecn": 2566,
      "Ġsuccess": 2567,
      "ilfe": 2568,
      "Ġinformations": 2569,
      "tanze": 2570,
      "Ġparla": 2571,
      "Ġspecif": 2572,
      "llet": 2573,
      "Ġleurs": 2574,
      "tober": 2575,
      "Ġcit": 2576,
      "prechung": 2577,
      "Ġdai": 2578,
      "33": 2579,
      "cteur": 2580,
      "Ġtutta": 2581,
      "tario": 2582,
      "Ġcorte": 2583,
      "Ġ1996": 2584,
      "ĠÎ": 2585,
      "Ġnonche": 2586,
      "Ġvertrag": 2587,
      "Ġinsoweit": 2588,
      "rat": 2589,
      "Ġcond": 2590,
      "Ġconvention": 2591,
      "Ġmala": 2592,
      "tiques": 2593,
      "Ġdeu": 2594,
      "Ġpron": 2595,
      "Ġmais": 2596,
      "Ġanal": 2597,
      "Ġquanti": 2598,
      "Ġnovember": 2599,
      "Ġgeltend": 2600,
      "Ġdeci": 2601,
      "Ġcio": 2602,
      "wert": 2603,
      "fang": 2604,
      "Ġobje": 2605,
      "Ġ1994": 2606,
      "Ġsor": 2607,
      "Ġappare": 2608,
      "Ġerklar": 2609,
      "Ġproz": 2610,
      "teilung": 2611,
      "Ġoktober": 2612,
      "grundung": 2613,
      "Ġsull": 2614,
      "Ġuni": 2615,
      "Ġambito": 2616,
      "tw": 2617,
      "Ġexecu": 2618,
      "Ġreco": 2619,
      "alement": 2620,
      "Ġforme": 2621,
      "Ġsulle": 2622,
      "Ġaller": 2623,
      "Ġ1995": 2624,
      "Ġquando": 2625,
      "atti": 2626,
      "Ġcamp": 2627,
      "itre": 2628,
      "Ġmod": 2629,
      "Ġfal": 2630,
      "anspruch": 2631,
      "Ġbean": 2632,
      "ara": 2633,
      "Ġvio": 2634,
      "uis": 2635,
      "Ġcontr": 2636,
      "ugen": 2637,
      "Ġzwar": 2638,
      "Ġprocess": 2639,
      "laub": 2640,
      "dite": 2641,
      "troffen": 2642,
      "Ġhins": 2643,
      "chein": 2644,
      "Ġinten": 2645,
      "Ġacquis": 2646,
      "gono": 2647,
      "zzazione": 2648,
      "Ġpremier": 2649,
      "Ġintro": 2650,
      "ution": 2651,
      "tico": 2652,
      "Ġfig": 2653,
      "Ġmoyen": 2654,
      "Ġzeitpunkt": 2655,
      "Ġlive": 2656,
      "Ġ?": 2657,
      "Ġapril": 2658,
      "Ġsti": 2659,
      "uire": 2660,
      "versicher": 2661,
      "Ġappel": 2662,
      "Ġdeli": 2663,
      "Ġdon": 2664,
      "Ġlieu": 2665,
      "Ġoggetto": 2666,
      "Ġcategoria": 2667,
      "tern": 2668,
      "handlung": 2669,
      "ust": 2670,
      "Ġcarico": 2671,
      "Ġappello": 2672,
      "Ġmembre": 2673,
      "Ġmotivi": 2674,
      "Ġpubblico": 2675,
      "Ġrechtsprechung": 2676,
      "dimento": 2677,
      "tation": 2678,
      "mita": 2679,
      "Ġanhang": 2680,
      "Ġsui": 2681,
      "ibilita": 2682,
      "07": 2683,
      "Ġ82": 2684,
      "Ġcolle": 2685,
      "teri": 2686,
      "Ġoffic": 2687,
      "Ġatto": 2688,
      "Ġdaher": 2689,
      "ÃŁen": 2690,
      "Ġanwendung": 2691,
      "fuhrer": 2692,
      "Ġtravail": 2693,
      "Ġsociale": 2694,
      "Ġterrit": 2695,
      "Ġprati": 2696,
      "inn": 2697,
      "spruch": 2698,
      "Ġseptember": 2699,
      "oni": 2700,
      "Ġriferimento": 2701,
      "zionali": 2702,
      "ivent": 2703,
      "Ġedi": 2704,
      "hre": 2705,
      "Ġrefer": 2706,
      "eig": 2707,
      "Ġnutz": 2708,
      "Ġsozial": 2709,
      "Ġom": 2710,
      "trit": 2711,
      "Ġrelativa": 2712,
      "16": 2713,
      "Ġdavon": 2714,
      "Ġfac": 2715,
      "kon": 2716,
      "penden": 2717,
      "Ġspa": 2718,
      "Ġattu": 2719,
      "Ġsus": 2720,
      "zei": 2721,
      "Ġfinanci": 2722,
      "Ġao": 2723,
      "Ġalimenta": 2724,
      "omp": 2725,
      "Ġcontrac": 2726,
      "Ġmesure": 2727,
      "Ġbeurteil": 2728,
      "Ġpass": 2729,
      "cl": 2730,
      "fg": 2731,
      "Ġbel": 2732,
      "17": 2733,
      "plan": 2734,
      "Ġsistema": 2735,
      "Ġexer": 2736,
      "grundet": 2737,
      "ani": 2738,
      "Ġrs": 2739,
      "Ġmodifie": 2740,
      "Ġprecis": 2741,
      "Ġfonction": 2742,
      "Ġauss": 2743,
      "lementa": 2744,
      "Ġagosto": 2745,
      "Ġultim": 2746,
      "Ġversch": 2747,
      "Ġnorme": 2748,
      "Ġcorre": 2749,
      "entscheid": 2750,
      "Ġrepublique": 2751,
      "pi": 2752,
      "Ġsmec": 2753,
      "Ġmoins": 2754,
      "Ġcerta": 2755,
      "Ġfrei": 2756,
      "ĠâĢĲ": 2757,
      "Ġconta": 2758,
      "Ġgenehmig": 2759,
      "Ġindustr": 2760,
      "lau": 2761,
      "lik": 2762,
      "Ġcantonale": 2763,
      "fern": 2764,
      "Ġsiano": 2765,
      "Ġmerito": 2766,
      "Ġdoivent": 2767,
      "Ġbre": 2768,
      "Ġinfra": 2769,
      "Ġallo": 2770,
      "Ġconstitu": 2771,
      "Ġcomite": 2772,
      "Ġstesso": 2773,
      "gesehen": 2774,
      "Ġquestione": 2775,
      "Ġgegeben": 2776,
      "Ġtitolo": 2777,
      "Ġmussen": 2778,
      "fron": 2779,
      "Ġinvalidita": 2780,
      "Ġverle": 2781,
      "Ġgiorni": 2782,
      "Ġasseg": 2783,
      "Ġstru": 2784,
      "ichte": 2785,
      "lare": 2786,
      "Ġmi": 2787,
      "Ġcontre": 2788,
      "tata": 2789,
      "Ġgeschafts": 2790,
      "Ġanlage": 2791,
      "Ġaccer": 2792,
      "Ġsemp": 2793,
      "Ġmise": 2794,
      "Ġverifica": 2795,
      "leva": 2796,
      "Ġimmo": 2797,
      "cite": 2798,
      "Ġelen": 2799,
      "200": 2800,
      "Ġ&": 2801,
      "Ġmun": 2802,
      "Ġfar": 2803,
      "parti": 2804,
      "ison": 2805,
      "stuck": 2806,
      "tanden": 2807,
      "bbero": 2808,
      "Ġgegenuber": 2809,
      "Ġallgemein": 2810,
      "gegner": 2811,
      "Ġarticles": 2812,
      "Ġorigine": 2813,
      "unter": 2814,
      "Ġfrage": 2815,
      "Ġerfolg": 2816,
      "Ġtoutes": 2817,
      "Ġdela": 2818,
      "ot": 2819,
      "Ġprimo": 2820,
      "Ġils": 2821,
      "Ġcadre": 2822,
      "linie": 2823,
      "99": 2824,
      "Ġimpe": 2825,
      "ssement": 2826,
      "Ġcass": 2827,
      "Ġneu": 2828,
      "Ġesame": 2829,
      "Ġpersone": 2830,
      "schaf": 2831,
      "Ġabge": 2832,
      "Ġfebr": 2833,
      "Ġmomento": 2834,
      "Ġeffec": 2835,
      "Ġremp": 2836,
      "Ġvwgo": 2837,
      "rechts": 2838,
      "ammer": 2839,
      "pflicht": 2840,
      "Ġsud": 2841,
      "Ġadegu": 2842,
      "Ġautorites": 2843,
      "Ġgiuris": 2844,
      "Ġregelung": 2845,
      "urezza": 2846,
      "orre": 2847,
      "Ġech": 2848,
      "Ġbgh": 2849,
      "Ġgrado": 2850,
      "Ġmitgliedsta": 2851,
      "gewiesen": 2852,
      "ement": 2853,
      "tent": 2854,
      "Ġriconosci": 2855,
      "ias": 2856,
      "reiben": 2857,
      "Ġkraft": 2858,
      "Ġcham": 2859,
      "media": 2860,
      "Ġgese": 2861,
      "86": 2862,
      "Ġaz": 2863,
      "antes": 2864,
      "Ġregime": 2865,
      "Ġinner": 2866,
      "Î¹": 2867,
      "Ġcapacita": 2868,
      "Ġlic": 2869,
      "Ġsubs": 2870,
      "lli": 2871,
      "Ġunters": 2872,
      "Ġbetreff": 2873,
      "Ġrelazione": 2874,
      "forma": 2875,
      "Ġwelche": 2876,
      "icolo": 2877,
      "ps": 2878,
      "Ġvoraussetzungen": 2879,
      "Ġober": 2880,
      "orie": 2881,
      "tance": 2882,
      "ied": 2883,
      "Ġweiteren": 2884,
      "Ġfebruar": 2885,
      "Ġjuin": 2886,
      "Ġrice": 2887,
      "Ġung": 2888,
      "Ġerg": 2889,
      "Ġrapporto": 2890,
      "Ġeuropeo": 2891,
      "Ġprix": 2892,
      "ieur": 2893,
      "Ġpresso": 2894,
      "Ġtuttavia": 2895,
      "Ġliber": 2896,
      "tanti": 2897,
      "Ġsecur": 2898,
      "Ġprestazioni": 2899,
      "ischer": 2900,
      "ton": 2901,
      "Ġamts": 2902,
      "Ġqualita": 2903,
      "tionne": 2904,
      "Ġcontrollo": 2905,
      "Ġfach": 2906,
      "Ġorganisation": 2907,
      "Ġautorite": 2908,
      "Ġalmeno": 2909,
      "Ġavait": 2910,
      "Ġindivi": 2911,
      "Ġposition": 2912,
      "mehr": 2913,
      "94": 2914,
      "Ġquesti": 2915,
      "Ġhand": 2916,
      "Ġlimita": 2917,
      "pl": 2918,
      "Ġdazu": 2919,
      "Ġfini": 2920,
      "Ġfinanz": 2921,
      "wie": 2922,
      "iali": 2923,
      "vertrag": 2924,
      "Ġmindes": 2925,
      "fte": 2926,
      "cer": 2927,
      "bereich": 2928,
      "Î±": 2929,
      "Ġsera": 2930,
      "ja": 2931,
      "Ġincar": 2932,
      "dis": 2933,
      "Ġtrattato": 2934,
      "wick": 2935,
      "Ġpol": 2936,
      "Ġauff": 2937,
      "anger": 2938,
      "Ġcpc": 2939,
      "Ġdaten": 2940,
      "heiten": 2941,
      "Ġini": 2942,
      "Ġcapita": 2943,
      "Ġorigin": 2944,
      "Ġbeige": 2945,
      "pens": 2946,
      "Ġbruxe": 2947,
      "Ġrecla": 2948,
      "Ġ195": 2949,
      "Ġpaesi": 2950,
      "Ġdrit": 2951,
      "ieme": 2952,
      "iter": 2953,
      "Ġavrebbe": 2954,
      "amen": 2955,
      "Ġliste": 2956,
      "Ġtotale": 2957,
      "Ġmili": 2958,
      "Ġmatieres": 2959,
      "ua": 2960,
      "agn": 2961,
      "Ġetait": 2962,
      "Ġsituazione": 2963,
      "Ġ500": 2964,
      "Ġpublic": 2965,
      "Ġsicurezza": 2966,
      "Ġreddito": 2967,
      "Ġavis": 2968,
      "Ġegli": 2969,
      "Ġseguenti": 2970,
      "ible": 2971,
      "Ġbeim": 2972,
      "ssung": 2973,
      "uvre": 2974,
      "ye": 2975,
      "Ġvali": 2976,
      "derung": 2977,
      "Ġproven": 2978,
      "ritti": 2979,
      "traum": 2980,
      "Ġindividu": 2981,
      "Ġdabei": 2982,
      "Ġintegra": 2983,
      "Ġkrank": 2984,
      "Ġfabbrica": 2985,
      "Ð¸": 2986,
      "Ġcomitato": 2987,
      "Ġinferiore": 2988,
      "ktion": 2989,
      "sten": 2990,
      "Ġemplo": 2991,
      "Ġtal": 2992,
      "messen": 2993,
      "Ġprincipio": 2994,
      "ctions": 2995,
      "Ġservice": 2996,
      "Ġ71": 2997,
      "zzetta": 2998,
      "Ġfir": 2999,
      "up": 3000,
      "Ġprotezione": 3001,
      "Ġassicurazione": 3002,
      "Ġchaque": 3003,
      "Ġdeutsch": 3004,
      "Ġviel": 3005,
      "Ġbenefic": 3006,
      "Ġconformemente": 3007,
      "Ġcontrole": 3008,
      "Ġgazzetta": 3009,
      "ÅĤ": 3010,
      "Ġmm": 3011,
      "th": 3012,
      "erung": 3013,
      "Ġdenen": 3014,
      "23": 3015,
      "Ġassocia": 3016,
      "Ġotten": 3017,
      "Ġappar": 3018,
      "Ġunternehmen": 3019,
      "Ġausfuhr": 3020,
      "09": 3021,
      "Ġlivello": 3022,
      "Ġwohn": 3023,
      "Ġsvizzera": 3024,
      "Ġmatiere": 3025,
      "Ġfino": 3026,
      "Ġzo": 3027,
      "Ġbruxelles": 3028,
      "Ġaide": 3029,
      "Ġcri": 3030,
      "ilo": 3031,
      "lang": 3032,
      "Ġprepar": 3033,
      "Ġhinsichtlich": 3034,
      "trice": 3035,
      "Ġrequis": 3036,
      "olta": 3037,
      "Ġstraf": 3038,
      "Ġnatur": 3039,
      "Ġpermet": 3040,
      "mun": 3041,
      "streck": 3042,
      "mble": 3043,
      "andert": 3044,
      "Ġsuperiore": 3045,
      "Ġresp": 3046,
      "uge": 3047,
      "Ġdonnees": 3048,
      "Ġsarebbe": 3049,
      "Ġsvol": 3050,
      "Ġubrigen": 3051,
      "Ġbede": 3052,
      "Ġerheb": 3053,
      "Ġprovve": 3054,
      "Ġmode": 3055,
      "pati": 3056,
      "haft": 3057,
      "Ġtarif": 3058,
      "tamento": 3059,
      "Ġsecurite": 3060,
      "Ġproduit": 3061,
      "quer": 3062,
      "Ġrespe": 3063,
      "Ġgiurid": 3064,
      "Ġtutte": 3065,
      "tanz": 3066,
      "Ġcorris": 3067,
      "Ġquo": 3068,
      "Ġgrunde": 3069,
      "Ġzpo": 3070,
      "Ġoltre": 3071,
      "Ġdessen": 3072,
      "Ġjanvier": 3073,
      "Ġinsta": 3074,
      "Ġsign": 3075,
      "Ġbetra": 3076,
      "trut": 3077,
      "Ġrispetto": 3078,
      "Ġ1993": 3079,
      "Ġavant": 3080,
      "sk": 3081,
      "Ġavoir": 3082,
      "Ġtemp": 3083,
      "fon": 3084,
      "Ġcause": 3085,
      "Ġetwa": 3086,
      "Ġanc": 3087,
      "Î¿": 3088,
      "Ġvaleur": 3089,
      "uhren": 3090,
      "zt": 3091,
      "Ġschweiz": 3092,
      "Ġeserci": 3093,
      "Ġkonkre": 3094,
      "Ġinden": 3095,
      "Ġtous": 3096,
      "Ġerfull": 3097,
      "25": 3098,
      "Ġcompetente": 3099,
      "Ġtempo": 3100,
      "ume": 3101,
      "baren": 3102,
      "Ġpresident": 3103,
      "Ġgenannten": 3104,
      "pose": 3105,
      "Ġritenuto": 3106,
      "Ġps": 3107,
      "Ġgesell": 3108,
      "Ġzuge": 3109,
      "Ġcarat": 3110,
      "Ġsezione": 3111,
      "ages": 3112,
      "talt": 3113,
      "Ġprufung": 3114,
      "Ġprescri": 3115,
      "Ġgiudizio": 3116,
      "tandig": 3117,
      "Ġecce": 3118,
      "Ġviola": 3119,
      "Ġaucun": 3120,
      "isation": 3121,
      "Ġsenat": 3122,
      "18": 3123,
      "uten": 3124,
      "Ġnie": 3125,
      "Ġbescheid": 3126,
      "sg": 3127,
      "Ġdroits": 3128,
      "Ġespr": 3129,
      "24": 3130,
      "rier": 3131,
      "Ġbf": 3132,
      "Ġsvil": 3133,
      "Ġesporta": 3134,
      "Ġsolche": 3135,
      "Ġproble": 3136,
      "Ġriguarda": 3137,
      "Ġimmobili": 3138,
      "innen": 3139,
      "Ġbew": 3140,
      "Ġrid": 3141,
      "tron": 3142,
      "gement": 3143,
      "Ġkeinen": 3144,
      "teile": 3145,
      "leistungen": 3146,
      "Ġlt": 3147,
      "Ġrepres": 3148,
      "voca": 3149,
      "Ġquello": 3150,
      "forderungen": 3151,
      "ativa": 3152,
      "Ġnu": 3153,
      "itet": 3154,
      "presa": 3155,
      "rie": 3156,
      "Ġelles": 3157,
      "diti": 3158,
      "taria": 3159,
      "Ġracc": 3160,
      "Ġinde": 3161,
      "fochten": 3162,
      "llement": 3163,
      "Ġparticuli": 3164,
      "Ġconfron": 3165,
      "toff": 3166,
      "art": 3167,
      "ser": 3168,
      "Ġledig": 3169,
      "gestell": 3170,
      "Ġpersona": 3171,
      "iere": 3172,
      "Ġkap": 3173,
      "Ġgeme": 3174,
      "Ġnome": 3175,
      "Ġangefochten": 3176,
      "tzung": 3177,
      "Ġoblig": 3178,
      "Ġlediglich": 3179,
      "kom": 3180,
      "Ġliqu": 3181,
      "pazione": 3182,
      "teurs": 3183,
      "ibili": 3184,
      "Ġlandes": 3185,
      "Ġurs": 3186,
      "nita": 3187,
      "Ðµ": 3188,
      "Ġjeden": 3189,
      "atze": 3190,
      "Ġ1992": 3191,
      "Ġexemp": 3192,
      "Ġcen": 3193,
      "Ġbegrundung": 3194,
      "Ġdurante": 3195,
      "Ġmittel": 3196,
      "tuali": 3197,
      "mitt": 3198,
      "Ġultimo": 3199,
      "Ġschaden": 3200,
      "Ġbesonder": 3201,
      "Ġaugust": 3202,
      "Ġrapport": 3203,
      "hilfe": 3204,
      "Ġpenale": 3205,
      "Ġlebens": 3206,
      "yant": 3207,
      "uillet": 3208,
      "Ġcentra": 3209,
      "aggio": 3210,
      "Ġleistungen": 3211,
      "Ġbl": 3212,
      "iene": 3213,
      "Ð¾": 3214,
      "Ġbetrieb": 3215,
      "Ġcompens": 3216,
      "off": 3217,
      "Ġihren": 3218,
      "Ġmars": 3219,
      "Ġperiode": 3220,
      "assung": 3221,
      "mbh": 3222,
      "Ġcircos": 3223,
      "Ġzwei": 3224,
      "Ġmax": 3225,
      "Ġdeshalb": 3226,
      "Ġamministrazione": 3227,
      "mbi": 3228,
      "vole": 3229,
      "ku": 3230,
      "Ġgesam": 3231,
      "gie": 3232,
      "Ġjuillet": 3233,
      "quelle": 3234,
      "Ġbereich": 3235,
      "Ġacce": 3236,
      "dn": 3237,
      "entscheidung": 3238,
      "sia": 3239,
      "Ġwerde": 3240,
      "Ġattes": 3241,
      "Ġlorsque": 3242,
      "Ġrileva": 3243,
      "Ġdeclar": 3244,
      "gangs": 3245,
      "bl": 3246,
      "inato": 3247,
      "Ġgrundstuck": 3248,
      "29": 3249,
      "ides": 3250,
      "richtung": 3251,
      "Ġluo": 3252,
      "asser": 3253,
      "Ġbewer": 3254,
      "Ġmontant": 3255,
      "Ġgmbh": 3256,
      "Ġripe": 3257,
      "Ġelec": 3258,
      "Ġverkehr": 3259,
      "Ġquella": 3260,
      "Ġtechni": 3261,
      "gente": 3262,
      "Ġstaat": 3263,
      "Ġcosi": 3264,
      "Ġkonne": 3265,
      "Ġjeweils": 3266,
      "rich": 3267,
      "Ġ81": 3268,
      "Ġentreprise": 3269,
      "ption": 3270,
      "gna": 3271,
      "cono": 3272,
      "Ġorganizza": 3273,
      "urr": 3274,
      "frei": 3275,
      "ungss": 3276,
      "Ġleistungs": 3277,
      "Ġtermin": 3278,
      "Ġconsulta": 3279,
      "tate": 3280,
      "Ġesam": 3281,
      "eren": 3282,
      "Ġgg": 3283,
      "Ġstessa": 3284,
      "Ġaltra": 3285,
      "Ġhaus": 3286,
      "Ġschon": 3287,
      "Ġsegre": 3288,
      "Ġpreve": 3289,
      "Ġattendu": 3290,
      "Ġfu": 3291,
      "Ġpersonnes": 3292,
      "Ġwirtschaft": 3293,
      "Ġcontratto": 3294,
      "Ġrichtlinie": 3295,
      "gesetzt": 3296,
      "Ġavere": 3297,
      "Ġcod": 3298,
      "Ġvorschriften": 3299,
      "zen": 3300,
      "Ġap": 3301,
      "tandige": 3302,
      "Ġwesent": 3303,
      "Ġopposi": 3304,
      "fici": 3305,
      "Ġhaup": 3306,
      "Ġausdruck": 3307,
      "Ġstaats": 3308,
      "Ġsalute": 3309,
      "endant": 3310,
      "ĠmaÃŁnahmen": 3311,
      "Ġsuoi": 3312,
      "mogen": 3313,
      "Ġantragsgegner": 3314,
      "Ġservizio": 3315,
      "Ġcontrat": 3316,
      "Ġtesto": 3317,
      "prufung": 3318,
      "siasi": 3319,
      "Ġsysteme": 3320,
      "Ġaa": 3321,
      "Ġunbe": 3322,
      "istre": 3323,
      "Ġqualsiasi": 3324,
      "Ġsod": 3325,
      "bescheid": 3326,
      "Ġutilizza": 3327,
      "Ġindustrie": 3328,
      "ennes": 3329,
      "tric": 3330,
      "Ġdort": 3331,
      "nal": 3332,
      "Ġcias": 3333,
      "Ġnord": 3334,
      "porto": 3335,
      "Ġble": 3336,
      "gehen": 3337,
      "Ġavr": 3338,
      "fes": 3339,
      "tiene": 3340,
      "Ġciascun": 3341,
      "Ġcli": 3342,
      "Ġmand": 3343,
      "Ġtipo": 3344,
      "Ġfonds": 3345,
      "Ġcorrispon": 3346,
      "Ġsco": 3347,
      "Ġpagamento": 3348,
      "gn": 3349,
      "Ġmedico": 3350,
      "Ġberufung": 3351,
      "Ġdenom": 3352,
      "Ġprotection": 3353,
      "Ġsue": 3354,
      "Ġeuropee": 3355,
      "rauch": 3356,
      "Ġexecution": 3357,
      "kten": 3358,
      "klag": 3359,
      "Ġbestimmungen": 3360,
      "Ġrelativo": 3361,
      "imi": 3362,
      "Ġquestion": 3363,
      "Ġexcl": 3364,
      "Ġcriteri": 3365,
      "ules": 3366,
      "Ġwiderspruch": 3367,
      "Ġergibt": 3368,
      "taires": 3369,
      "bildung": 3370,
      "Ġos": 3371,
      "Ġtar": 3372,
      "Ġcharge": 3373,
      "sso": 3374,
      "haus": 3375,
      "Ġbesteht": 3376,
      "Ġelementi": 3377,
      "gelt": 3378,
      "Ġlaquelle": 3379,
      "44": 3380,
      "oc": 3381,
      "Ġfru": 3382,
      "Ġalinea": 3383,
      "Ġmesi": 3384,
      "hes": 3385,
      "ienti": 3386,
      "tazione": 3387,
      "Ġlimite": 3388,
      "Ġlp": 3389,
      "Ġwas": 3390,
      "Ġpossibile": 3391,
      "vano": 3392,
      "Ġgover": 3393,
      "Ġcomb": 3394,
      "Ġeben": 3395,
      "hic": 3396,
      "Ġhatten": 3397,
      "Ġapprova": 3398,
      "Ġwahrend": 3399,
      "kraft": 3400,
      "Ġallein": 3401,
      "uite": 3402,
      "tien": 3403,
      "Ġweitere": 3404,
      "icamente": 3405,
      "Ġelet": 3406,
      "Ġattrib": 3407,
      "Ġjur": 3408,
      "Ġdura": 3409,
      "Ġistanza": 3410,
      "Ġproduzione": 3411,
      "Ġumstan": 3412,
      "Ġzusammenhang": 3413,
      "hend": 3414,
      "Ġ1991": 3415,
      "maÃŁig": 3416,
      "Ġzusatz": 3417,
      "Ġocc": 3418,
      "ole": 3419,
      "Ġcompris": 3420,
      "mite": 3421,
      "Ġegalement": 3422,
      "Ġtribunal": 3423,
      "Ġaufent": 3424,
      "Ġmiss": 3425,
      "Ġparteien": 3426,
      "Ġergeb": 3427,
      "grupp": 3428,
      "endet": 3429,
      "wirk": 3430,
      "Ġweder": 3431,
      "amm": 3432,
      "Ġgemeinschaft": 3433,
      "Ġgiurispru": 3434,
      "Ġprezzo": 3435,
      "Ġquantita": 3436,
      "Ġgre": 3437,
      "lopp": 3438,
      "dt": 3439,
      "usch": 3440,
      "licht": 3441,
      "vere": 3442,
      "Ġ0106": 3443,
      "tifie": 3444,
      "Ġmateriali": 3445,
      "Ġverk": 3446,
      "Ġesemp": 3447,
      "Ġbar": 3448,
      "uro": 3449,
      "Ġsostitu": 3450,
      "Ġdagli": 3451,
      "Ġstate": 3452,
      "Ġvehic": 3453,
      "gg": 3454,
      "Ġinnerhalb": 3455,
      "Ġgouver": 3456,
      "laden": 3457,
      "Ġgestion": 3458,
      "inaus": 3459,
      "andes": 3460,
      "iente": 3461,
      "Ġkonnte": 3462,
      "Ġbu": 3463,
      "han": 3464,
      "Ġgestione": 3465,
      "Ġerforderlich": 3466,
      "Ġrendita": 3467,
      "tischen": 3468,
      "Ġimpugnata": 3469,
      "Ġtabe": 3470,
      "27": 3471,
      "Ġmediante": 3472,
      "tants": 3473,
      "Ġsede": 3474,
      "Ġwert": 3475,
      "Ġesp": 3476,
      "Ġeconomique": 3477,
      "Ġhinaus": 3478,
      "ttamente": 3479,
      "vore": 3480,
      "Ġhers": 3481,
      "Ġuntersch": 3482,
      "Ġchap": 3483,
      "Ġnecessario": 3484,
      "Ġfatti": 3485,
      "Ġgere": 3486,
      "Ġgas": 3487,
      "vr": 3488,
      "zin": 3489,
      "weg": 3490,
      "ivo": 3491,
      "Ġentsch": 3492,
      "Ġancora": 3493,
      "toire": 3494,
      "Ġcompl": 3495,
      "Ġayant": 3496,
      "gior": 3497,
      "Ġangaben": 3498,
      "Ġvollstreck": 3499,
      "tizia": 3500,
      "Ġberu": 3501,
      "Ġmois": 3502,
      "ierungs": 3503,
      "Ġconformita": 3504,
      "Ġquad": 3505,
      "Ġpreven": 3506,
      "Ġfolgt": 3507,
      "fassungs": 3508,
      "tivites": 3509,
      "Ġindem": 3510,
      "Ġhu": 3511,
      "dent": 3512,
      "Ġdettaglio": 3513,
      "Ġluogo": 3514,
      "Ġprod": 3515,
      "Ġofficiel": 3516,
      "Ġdesigna": 3517,
      "cien": 3518,
      "Ġmal": 3519,
      "fehl": 3520,
      "nach": 3521,
      "Ġlang": 3522,
      "Ġbezeich": 3523,
      "Ġvorliegenden": 3524,
      "Ġquest": 3525,
      "ieren": 3526,
      "oles": 3527,
      "Ġcosti": 3528,
      "Ġprogramma": 3529,
      "Ġentreprises": 3530,
      "Ġfisca": 3531,
      "28": 3532,
      "bringen": 3533,
      "Ġfrist": 3534,
      "amente": 3535,
      "Ġdou": 3536,
      "Ġexplo": 3537,
      "lungs": 3538,
      "Ġvista": 3539,
      "Ġentsprechend": 3540,
      "tific": 3541,
      "Ġdeten": 3542,
      "sschutz": 3543,
      "Ġaiuto": 3544,
      "twen": 3545,
      "Ġbeschaf": 3546,
      "schutz": 3547,
      "Ġpure": 3548,
      "mel": 3549,
      "Ġgiudizi": 3550,
      "Ġfamili": 3551,
      "Ġnive": 3552,
      "erve": 3553,
      "Ġtransport": 3554,
      "Ġvergleich": 3555,
      "haf": 3556,
      "Ġverbind": 3557,
      "ksam": 3558,
      "Ġinstru": 3559,
      "Ġgesamt": 3560,
      "Ġpou": 3561,
      "Ġenga": 3562,
      "lege": 3563,
      "Ġtechn": 3564,
      "arsi": 3565,
      "ivil": 3566,
      "Ġaveva": 3567,
      "utto": 3568,
      "Ġgeandert": 3569,
      "Ġgrundsatzlich": 3570,
      "Ġavril": 3571,
      "Ġschreiben": 3572,
      "vorsch": 3573,
      "Ġangeb": 3574,
      "wand": 3575,
      "Ġzone": 3576,
      "Ġsteht": 3577,
      "Ġexce": 3578,
      "Ġbeantragt": 3579,
      "Ġnuova": 3580,
      "Ġfixe": 3581,
      "dingungen": 3582,
      "dant": 3583,
      "Ġpiano": 3584,
      "Ġfonda": 3585,
      "Ġdelai": 3586,
      "bare": 3587,
      "Ġquelle": 3588,
      "tie": 3589,
      "Ġcin": 3590,
      "Ġesercizio": 3591,
      "Ġauffassung": 3592,
      "ances": 3593,
      "rechtlichen": 3594,
      "nier": 3595,
      "nitt": 3596,
      "Ġgiustizia": 3597,
      "kra": 3598,
      "Ġcel": 3599,
      "Ġrilas": 3600,
      "Ġcours": 3601,
      "Ġmarch": 3602,
      "Ġgiurisprudenza": 3603,
      "ller": 3604,
      "last": 3605,
      "terie": 3606,
      "cheiden": 3607,
      "Ġhoch": 3608,
      "Ġutilise": 3609,
      "Ġmor": 3610,
      "Ġsegna": 3611,
      "Ġmeno": 3612,
      "Ġnote": 3613,
      "Ġobjet": 3614,
      "Ġgrundlage": 3615,
      "Ġ1990": 3616,
      "Ġpaese": 3617,
      "Ġcamera": 3618,
      "Ġtrois": 3619,
      "orde": 3620,
      "Ġpertin": 3621,
      "Ġcomunicazione": 3622,
      "Ġproprio": 3623,
      "inder": 3624,
      "Ġragione": 3625,
      "war": 3626,
      "Ġdevelopp": 3627,
      "messo": 3628,
      "Ġfassung": 3629,
      "Ġcapo": 3630,
      "Ġnotwen": 3631,
      "Ġ125": 3632,
      "endre": 3633,
      "Ġosservazioni": 3634,
      "part": 3635,
      "Ġbetroffen": 3636,
      "cement": 3637,
      "Ġerkenn": 3638,
      "Ġbeweis": 3639,
      "Ġ300": 3640,
      "Ġsituation": 3641,
      "Ġnuovo": 3642,
      "Ġmotiva": 3643,
      "Ġfaire": 3644,
      "Ġindennita": 3645,
      "Ġrespin": 3646,
      "timmung": 3647,
      "cs": 3648,
      "Ġmaterie": 3649,
      "Ġzei": 3650,
      "Ġneben": 3651,
      "Ġasyl": 3652,
      "Ġense": 3653,
      "ade": 3654,
      "gati": 3655,
      "Ġhy": 3656,
      "Ġalter": 3657,
      "Ġverhalt": 3658,
      "Ġdocumenta": 3659,
      "icoli": 3660,
      "Ġaffer": 3661,
      "Ġbverwg": 3662,
      "Ġpu": 3663,
      "upe": 3664,
      "Ġsosten": 3665,
      "iede": 3666,
      "Ġuso": 3667,
      "ziali": 3668,
      "aum": 3669,
      "Ġversorg": 3670,
      "Ġvin": 3671,
      "Ġgemeins": 3672,
      "Ġgemass": 3673,
      "Ġinsor": 3674,
      "Ġconseguenza": 3675,
      "missione": 3676,
      "Ġjuridi": 3677,
      "34": 3678,
      "iben": 3679,
      "Ġviene": 3680,
      "Ġdisc": 3681,
      "Ġacqu": 3682,
      "machtig": 3683,
      "Ġeval": 3684,
      "Ġlug": 3685,
      "illig": 3686,
      "Ġurspr": 3687,
      "Ġversto": 3688,
      "Ġgesetzes": 3689,
      "Ġseinen": 3690,
      "Ġterri": 3691,
      "Ġparlamento": 3692,
      "Ð½": 3693,
      "Ġgenommen": 3694,
      "Ġadr": 3695,
      "dungs": 3696,
      "Ġvie": 3697,
      "31": 3698,
      "Ġumfang": 3699,
      "39": 3700,
      "tage": 3701,
      "Ġterzi": 3702,
      "Ġentrata": 3703,
      "Ġfas": 3704,
      "ÑĢ": 3705,
      "Ġtic": 3706,
      "antw": 3707,
      "position": 3708,
      "leit": 3709,
      "unto": 3710,
      "lungen": 3711,
      "Ġrappresen": 3712,
      "Ġqualora": 3713,
      "Ġnegli": 3714,
      "Ġrelativi": 3715,
      "unque": 3716,
      "Ġassegna": 3717,
      "Ġbeteiligten": 3718,
      "Ġpoi": 3719,
      "wid": 3720,
      "Ġactivites": 3721,
      "Ġbestehen": 3722,
      "Ġdauer": 3723,
      "yer": 3724,
      "tbes": 3725,
      "Ġauszu": 3726,
      "Ġbeni": 3727,
      "barkeit": 3728,
      "cial": 3729,
      "Ġtexte": 3730,
      "Ġanerk": 3731,
      "stellung": 3732,
      "visione": 3733,
      "anna": 3734,
      "Ġkre": 3735,
      "Ġcarac": 3736,
      "Ġehe": 3737,
      "Ġlavorativa": 3738,
      "Ġfallen": 3739,
      "Ġspecifica": 3740,
      "Ġimmedia": 3741,
      "Ġfavore": 3742,
      "Ġaddi": 3743,
      "Ġannee": 3744,
      "Ġjournal": 3745,
      "mos": 3746,
      "Ġaccus": 3747,
      "Ġrim": 3748,
      "Ġvan": 3749,
      "schaften": 3750,
      "Ġdanno": 3751,
      "ghi": 3752,
      "Ġansch": 3753,
      "frist": 3754,
      "durch": 3755,
      "Ġprotocole": 3756,
      "ong": 3757,
      "Ġstellen": 3758,
      "26": 3759,
      "leistung": 3760,
      "Ġaf": 3761,
      "Ġchies": 3762,
      "Ġocto": 3763,
      "Ġdocumenti": 3764,
      "Ġchapitre": 3765,
      "Ġterritorio": 3766,
      "Ġaven": 3767,
      "pla": 3768,
      "Ġfirb": 3769,
      "Ġverg": 3770,
      "crit": 3771,
      "mann": 3772,
      "Ġverfugung": 3773,
      "ity": 3774,
      "ucht": 3775,
      "Ġalors": 3776,
      "pricht": 3777,
      "Ġka": 3778,
      "gend": 3779,
      "ival": 3780,
      "Ġdogan": 3781,
      "Ġweise": 3782,
      "Ġinformation": 3783,
      "Ġfolgenden": 3784,
      "Ġoctobre": 3785,
      "schafts": 3786,
      "entes": 3787,
      "Ġester": 3788,
      "Ġziff": 3789,
      "Ġanderung": 3790,
      "Ġevi": 3791,
      "tische": 3792,
      "iligen": 3793,
      "Ġlin": 3794,
      "Ġaccomp": 3795,
      "Ġberech": 3796,
      "bis": 3797,
      "Ġprecedente": 3798,
      "Ġseinem": 3799,
      "Ġgefahr": 3800,
      "horde": 3801,
      "Ġelenco": 3802,
      "ida": 3803,
      "Ġfunzion": 3804,
      "Ġsopra": 3805,
      "Ġdiffic": 3806,
      "Ġliegt": 3807,
      "Ġconsiderato": 3808,
      "Ġantragstellerin": 3809,
      "Ġsee": 3810,
      "Ġpens": 3811,
      "tivite": 3812,
      "oso": 3813,
      "Ġcelle": 3814,
      "Ġobbligo": 3815,
      "Ġoppure": 3816,
      "Ġpretore": 3817,
      "Ġschrift": 3818,
      "36": 3819,
      "sst": 3820,
      "Ġcassation": 3821,
      "Ġentwick": 3822,
      "uation": 3823,
      "Ġarbeitnehmer": 3824,
      "geschlossen": 3825,
      "grenz": 3826,
      "Ġpartir": 3827,
      "Ġcorpor": 3828,
      "Ġdiritti": 3829,
      "Ġrecu": 3830,
      "Ġdrei": 3831,
      "olto": 3832,
      "Ġanforderungen": 3833,
      "tibili": 3834,
      "Ġwahl": 3835,
      "Ġexper": 3836,
      "Ġgemeinde": 3837,
      "Ġstatt": 3838,
      "teilt": 3839,
      "Ġagric": 3840,
      "klar": 3841,
      "Ġzudem": 3842,
      "Ġchambre": 3843,
      "wur": 3844,
      "Ġopport": 3845,
      "Ġjedenfalls": 3846,
      "tisch": 3847,
      "ÏĦ": 3848,
      "Ġpra": 3849,
      "Ġkommt": 3850,
      "ktor": 3851,
      "tum": 3852,
      "Ġemission": 3853,
      "Ġpremi": 3854,
      "Ġvielmehr": 3855,
      "Ġ106": 3856,
      "Ġfeststell": 3857,
      "Ġinteressi": 3858,
      "verso": 3859,
      "Ġbegrundet": 3860,
      "Ġroy": 3861,
      "Ġcassa": 3862,
      "ender": 3863,
      "gemaÃŁ": 3864,
      "Ġquelli": 3865,
      "verhaltnis": 3866,
      "Ġcodice": 3867,
      "poste": 3868,
      "Ġubersch": 3869,
      "Ġinhalt": 3870,
      "verkehr": 3871,
      "Ġprove": 3872,
      "Ġlit": 3873,
      "Ġerhoben": 3874,
      "hof": 3875,
      "Ġmodalita": 3876,
      "Ġappli": 3877,
      "yste": 3878,
      "Ġmigli": 3879,
      "Ġcorso": 3880,
      "Ġkammer": 3881,
      "Ġbeschwerdefuhrer": 3882,
      "Ġkranken": 3883,
      "Ġopposizione": 3884,
      "tement": 3885,
      "Ġprozess": 3886,
      "Ġliegen": 3887,
      "osc": 3888,
      "Ġproje": 3889,
      "Ġsto": 3890,
      "vir": 3891,
      "Ġrempla": 3892,
      "ception": 3893,
      "Ġpromo": 3894,
      "form": 3895,
      "Ġfinanziarie": 3896,
      "Ġinterno": 3897,
      "ty": 3898,
      "ik": 3899,
      "Ġcasi": 3900,
      "denti": 3901,
      "Ġabbia": 3902,
      "Ġobie": 3903,
      "ait": 3904,
      "Ġáĥ": 3905,
      "Ġrilev": 3906,
      "Ġfev": 3907,
      "versicherung": 3908,
      "gazione": 3909,
      "Ġq": 3910,
      "Ġcompres": 3911,
      "Ġnature": 3912,
      "Ġparteci": 3913,
      "Ġsviluppo": 3914,
      "Ġinve": 3915,
      "Ġvertu": 3916,
      "Ġabkommens": 3917,
      "Ġavv": 3918,
      "steuer": 3919,
      "Ġaer": 3920,
      "Ġparticip": 3921,
      "hnung": 3922,
      "Ġbehand": 3923,
      "Ġgiustifica": 3924,
      "Ġcelui": 3925,
      "hebung": 3926,
      "Ġstfa": 3927,
      "mis": 3928,
      "Ġgewer": 3929,
      "Ġpossibilita": 3930,
      "fasst": 3931,
      "Ġsoltanto": 3932,
      "Ġmu": 3933,
      "Ġgemacht": 3934,
      "Ġgaran": 3935,
      "Ġzustandig": 3936,
      "cheide": 3937,
      "Ġvorgesehen": 3938,
      "Ġzeitraum": 3939,
      "zuweisen": 3940,
      "Ġberucksichtigung": 3941,
      "Ġergan": 3942,
      "Ġunmittel": 3943,
      "Ġlas": 3944,
      "Ġbestimmt": 3945,
      "Ġsuffic": 3946,
      "Ġhandelt": 3947,
      "Ġpari": 3948,
      "mag": 3949,
      "legten": 3950,
      "Ġmund": 3951,
      "Ġvertre": 3952,
      "Ġordin": 3953,
      "Ġangeklag": 3954,
      "Ġdiscip": 3955,
      "Ġdernier": 3956,
      "Ġambi": 3957,
      "zulass": 3958,
      "Ġnazionale": 3959,
      "Ġtrattamento": 3960,
      "Ġlugano": 3961,
      "pot": 3962,
      "Ġarbeitgeber": 3963,
      "instanz": 3964,
      "Ġbeigeladen": 3965,
      "essun": 3966,
      "Ġdecisioni": 3967,
      "Ġaci": 3968,
      "Ġsoum": 3969,
      "Ġltf": 3970,
      "tando": 3971,
      "Ġsuit": 3972,
      "Ġmoglichkeit": 3973,
      "lis": 3974,
      "Ġresiden": 3975,
      "Ġoffentlichen": 3976,
      "Ġmedes": 3977,
      "Ġassistenza": 3978,
      "Ġgiorno": 3979,
      "Ġintrodu": 3980,
      "Ġmindestens": 3981,
      "Ġexerc": 3982,
      "atura": 3983,
      "berg": 3984,
      "ature": 3985,
      "Ġredu": 3986,
      "Ġdafur": 3987,
      "Ġatta": 3988,
      "Ġentree": 3989,
      "Ġstudi": 3990,
      "Ġinvece": 3991,
      "ungsan": 3992,
      "iques": 3993,
      "Ġfirma": 3994,
      "Ġposizione": 3995,
      "Ġcla": 3996,
      "ates": 3997,
      "Ġprogramme": 3998,
      "ierten": 3999,
      "Ġjahre": 4000,
      "Ġinfatti": 4001,
      "Ġfron": 4002,
      "Ġfix": 4003,
      "burg": 4004,
      "Ġdurchfuhrung": 4005,
      "Ġwen": 4006,
      "Ġihrem": 4007,
      "time": 4008,
      "fahigkeit": 4009,
      "Ġniveau": 4010,
      "gesetzes": 4011,
      "Ġeconomica": 4012,
      "reichend": 4013,
      "Ġmangel": 4014,
      "blick": 4015,
      "tem": 4016,
      "mbo": 4017,
      "Ġstatis": 4018,
      "Ġtype": 4019,
      "Ġoffer": 4020,
      "Ġutilizzati": 4021,
      "Ġpie": 4022,
      "Ġlar": 4023,
      "isant": 4024,
      "Ġoccu": 4025,
      "Ġcampione": 4026,
      "Ġhau": 4027,
      "koll": 4028,
      "Ġfond": 4029,
      "Ġobten": 4030,
      "uns": 4031,
      "Ġcontribu": 4032,
      "com": 4033,
      "Ġcoord": 4034,
      "Ġrecon": 4035,
      "Ġexclus": 4036,
      "Ġdaruber": 4037,
      "Ġrates": 4038,
      "Ġsuisse": 4039,
      "Ġnessun": 4040,
      "Ġdeb": 4041,
      "Ġvue": 4042,
      "Ġappre": 4043,
      "Ġpronuncia": 4044,
      "neten": 4045,
      "Ġrequisiti": 4046,
      "45": 4047,
      "Ġappropr": 4048,
      "verfahrens": 4049,
      "Ġapplique": 4050,
      "richtungen": 4051,
      "Ġdato": 4052,
      "darf": 4053,
      "Ġbag": 4054,
      "ych": 4055,
      "Ġjusqu": 4056,
      "Ġrechtss": 4057,
      "Ġdarf": 4058,
      "Ġcan": 4059,
      "gebiet": 4060,
      "Ġkommen": 4061,
      "Ġschw": 4062,
      "Ġvertragsparteien": 4063,
      "Ġ1989": 4064,
      "Ġinca": 4065,
      "Ġanzu": 4066,
      "Ġbedeutung": 4067,
      "tschafts": 4068,
      "oten": 4069,
      "Ġzoll": 4070,
      "Ġtag": 4071,
      "Ġtiers": 4072,
      "Ġscambi": 4073,
      "Ġproduction": 4074,
      "tehen": 4075,
      "Ġabwe": 4076,
      "cati": 4077,
      "Ġconfronti": 4078,
      "teuer": 4079,
      "Ġcommerciali": 4080,
      "gesell": 4081,
      "Ġequival": 4082,
      "Ġseguente": 4083,
      "Ġerlass": 4084,
      "Ġperman": 4085,
      "hung": 4086,
      "issen": 4087,
      "gat": 4088,
      "cteurs": 4089,
      "Ġsk": 4090,
      "Ġzr": 4091,
      "Ġmanif": 4092,
      "Ġfib": 4093,
      "Ġbeam": 4094,
      "utachten": 4095,
      "37": 4096,
      "Ġmalatti": 4097,
      "Ġdichiarazione": 4098,
      "Ġarrete": 4099,
      "Ġtrasporto": 4100,
      "Ġconvenzione": 4101,
      "Ġconsequ": 4102,
      "Ġconcurr": 4103,
      "anis": 4104,
      "Ġconferma": 4105,
      "Ġcirca": 4106,
      "Ġmie": 4107,
      "Ġjeder": 4108,
      "Ġerwer": 4109,
      "setzung": 4110,
      "dienst": 4111,
      "urant": 4112,
      "nisses": 4113,
      "Ġpersonale": 4114,
      "Ġebenfalls": 4115,
      "fre": 4116,
      "Ġbestand": 4117,
      "telle": 4118,
      "Ġlos": 4119,
      "Ġaufgaben": 4120,
      "Ġtassa": 4121,
      "Ġbilan": 4122,
      "Ġuberein": 4123,
      "Ġdurata": 4124,
      "respon": 4125,
      "Ġincarto": 4126,
      "Ġcomma": 4127,
      "Ġabro": 4128,
      "Ġasse": 4129,
      "Ġkantons": 4130,
      "gehr": 4131,
      "Ġesempio": 4132,
      "Ġpros": 4133,
      "Ġstellung": 4134,
      "Ġjuridique": 4135,
      "Ġschluss": 4136,
      "Ġrelatives": 4137,
      "Ġhinter": 4138,
      "gar": 4139,
      "brication": 4140,
      "Ġconclu": 4141,
      "Ġkennt": 4142,
      "pruche": 4143,
      "Ġdeta": 4144,
      "Ġabl": 4145,
      "Ġjahren": 4146,
      "Ġdescri": 4147,
      "Ġ115": 4148,
      "Ġnieder": 4149,
      "Ġmanifes": 4150,
      "atto": 4151,
      "Ġeuropeennes": 4152,
      "Ġbetracht": 4153,
      "Ġterritoire": 4154,
      "Ġcapito": 4155,
      "lina": 4156,
      "Ġbfh": 4157,
      "Ġafin": 4158,
      "Ġdecreto": 4159,
      "Ġziel": 4160,
      "Ġregles": 4161,
      "Ġperi": 4162,
      "Ġprodut": 4163,
      "Ġformula": 4164,
      "47": 4165,
      "Ġsofern": 4166,
      "ichten": 4167,
      "Ġmain": 4168,
      "Ġdistrib": 4169,
      "dings": 4170,
      "zialmente": 4171,
      "Ġverlan": 4172,
      "Ġgrandi": 4173,
      "Ġgiusta": 4174,
      "Ġsoddis": 4175,
      "Ġerfolgt": 4176,
      "Ġcommunautes": 4177,
      "Ġvoce": 4178,
      "onn": 4179,
      "udge": 4180,
      "iaire": 4181,
      "Ġinsol": 4182,
      "unehmen": 4183,
      "ila": 4184,
      "Ġresul": 4185,
      "Ġseptembre": 4186,
      "truzione": 4187,
      "Ġfabrication": 4188,
      "Ġfahrzeug": 4189,
      "Ġaufl": 4190,
      "wirtschaft": 4191,
      "Ġov": 4192,
      "006": 4193,
      "Ġcircostanze": 4194,
      "Ġesen": 4195,
      "Ġdeleg": 4196,
      "itarbeit": 4197,
      "Ġenvir": 4198,
      "Ġriguardo": 4199,
      "jud": 4200,
      "Ġcarb": 4201,
      "Ġdoma": 4202,
      "pes": 4203,
      "Ġquadro": 4204,
      "gique": 4205,
      "Ġrepublik": 4206,
      "Ġprevues": 4207,
      "ruf": 4208,
      "gelegt": 4209,
      "Ġconcorr": 4210,
      "Ġcomplessi": 4211,
      "Ġsenso": 4212,
      "Ġrelev": 4213,
      "Ġopportun": 4214,
      "Ġbull": 4215,
      "rifts": 4216,
      "viso": 4217,
      "Ġesper": 4218,
      "piel": 4219,
      "Åĵ": 4220,
      "Ġinci": 4221,
      "Ġvorlauf": 4222,
      "griff": 4223,
      "ĠmaÃŁgeb": 4224,
      "Ġaccesso": 4225,
      "Ġverpflichtet": 4226,
      "Ġsigni": 4227,
      "Ġdanach": 4228,
      "Ġ107": 4229,
      "mens": 4230,
      "Ġtariff": 4231,
      "Ġarticoli": 4232,
      "Ġzustandigen": 4233,
      "Ġprotocollo": 4234,
      "issance": 4235,
      "Ġcantone": 4236,
      "Ġpersonnel": 4237,
      "Ġminister": 4238,
      "Ġvir": 4239,
      "Ġsupplementa": 4240,
      "Ġgesund": 4241,
      "Ġqueste": 4242,
      "Î½": 4243,
      "Ġsection": 4244,
      "igung": 4245,
      "Ġdeveloppement": 4246,
      "Ġmotifs": 4247,
      "haltung": 4248,
      "ses": 4249,
      "liches": 4250,
      "Ġzulassig": 4251,
      "Ġsegue": 4252,
      "Ġbetrag": 4253,
      "35": 4254,
      "Ġrestitu": 4255,
      "Ġeffetti": 4256,
      "Ġblo": 4257,
      "Ġsons": 4258,
      "38": 4259,
      "Ġkor": 4260,
      "Ġvermogen": 4261,
      "teris": 4262,
      "Ġmens": 4263,
      "Ġfevrier": 4264,
      "aume": 4265,
      "Ġoccorre": 4266,
      "Ġprocedimento": 4267,
      "Ġgeeig": 4268,
      "Ġmeta": 4269,
      "Ġconcentra": 4270,
      "Ġschweizer": 4271,
      "Ġaiuti": 4272,
      "Ġamen": 4273,
      "Ġkur": 4274,
      "Ġbudge": 4275,
      "Ġergebnis": 4276,
      "Ġmilli": 4277,
      "Ġunita": 4278,
      "ran": 4279,
      "Ġregle": 4280,
      "Ġstelle": 4281,
      "Ġmetho": 4282,
      "etzen": 4283,
      "bewer": 4284,
      "Ġdepuis": 4285,
      "Ġprofessionale": 4286,
      "Ġref": 4287,
      "tbestand": 4288,
      "antwort": 4289,
      "Ġnav": 4290,
      "Ġrepon": 4291,
      "Ġimpresa": 4292,
      "ÑĤ": 4293,
      "nungen": 4294,
      "Ġ}": 4295,
      "Ġgrunden": 4296,
      "Ġobietti": 4297,
      "Ġhinblick": 4298,
      "Ġtur": 4299,
      "Ġannahme": 4300,
      "Ġcro": 4301,
      "Ġfla": 4302,
      "Ġnombre": 4303,
      "cen": 4304,
      "Ġripetibili": 4305,
      "nehm": 4306,
      "Ġklar": 4307,
      "Ġdebi": 4308,
      "Ġcooperation": 4309,
      "Ġbehorde": 4310,
      "tito": 4311,
      "Ġerzeug": 4312,
      "Ġ{": 4313,
      "Ġdestin": 4314,
      "Ġinfort": 4315,
      "Ġzona": 4316,
      "Ġpur": 4317,
      "Ġfabbricazione": 4318,
      "ĠstraÃŁe": 4319,
      "Ġverfol": 4320,
      "olazione": 4321,
      "Ġhom": 4322,
      "ett": 4323,
      "Ġbekannt": 4324,
      "Ġcz": 4325,
      "Ġeffica": 4326,
      "Ġformazione": 4327,
      "Ġmentre": 4328,
      "Ġunique": 4329,
      "Ġhar": 4330,
      "Ġfrais": 4331,
      "Ġzun": 4332,
      "Ñģ": 4333,
      "uma": 4334,
      "voi": 4335,
      "cas": 4336,
      "Ġconvi": 4337,
      "Ġprofessionne": 4338,
      "Ġeinzelnen": 4339,
      "Ġcolla": 4340,
      "cchi": 4341,
      "cin": 4342,
      "Ġoffen": 4343,
      "ziehung": 4344,
      "Ġersten": 4345,
      "Ġling": 4346,
      "Ġbien": 4347,
      "eld": 4348,
      "Ġmort": 4349,
      "46": 4350,
      "Ġpropria": 4351,
      "Ġnego": 4352,
      "reib": 4353,
      "Ġcita": 4354,
      "Ġanwend": 4355,
      "Ġcorporate": 4356,
      "dotto": 4357,
      "fal": 4358,
      "Ġstellt": 4359,
      "Ġverhandlung": 4360,
      "Ġfederal": 4361,
      "Ġbetroffenen": 4362,
      "dimenti": 4363,
      "treff": 4364,
      "Ġinteressato": 4365,
      "Ġenthalten": 4366,
      "Ġrdn": 4367,
      "Ġmess": 4368,
      "Ġassicurazioni": 4369,
      "Ġappell": 4370,
      "Ġactivite": 4371,
      "Ġimpi": 4372,
      "Ġcitta": 4373,
      "gesamt": 4374,
      "achst": 4375,
      "ieurs": 4376,
      "Ġesenzione": 4377,
      "Ġvertragspartei": 4378,
      "Ġallgemeinen": 4379,
      "Ġpsich": 4380,
      "fuhrten": 4381,
      "Ġsache": 4382,
      "ĠeinschlieÃŁlich": 4383,
      "tiven": 4384,
      "pen": 4385,
      "ign": 4386,
      "Ġvorbe": 4387,
      "Ġ108": 4388,
      "kunft": 4389,
      "car": 4390,
      "Ġkontro": 4391,
      "Ġprogetto": 4392,
      "Ġherr": 4393,
      "Ġtrasfer": 4394,
      "fugt": 4395,
      "Ġinterpre": 4396,
      "tee": 4397,
      "Ġexporta": 4398,
      "Ġconsul": 4399,
      "Ġmerci": 4400,
      "Ġgegenstand": 4401,
      "ungsverfahren": 4402,
      "Ġtenuto": 4403,
      "Ġcorrespon": 4404,
      "zunehmen": 4405,
      "Ġgouvernement": 4406,
      "Ġnecessaire": 4407,
      "ication": 4408,
      "cle": 4409,
      "Ġ110": 4410,
      "Ġprezzi": 4411,
      "Ġton": 4412,
      "Ġberucksichtigen": 4413,
      "Ġduree": 4414,
      "Ġberufungs": 4415,
      "Ġgroupe": 4416,
      "ktur": 4417,
      "Ġpartire": 4418,
      "Ġindicato": 4419,
      "ret": 4420,
      "Ġregistra": 4421,
      "Ġoggetti": 4422,
      "ums": 4423,
      "Ġ105": 4424,
      "Ġportant": 4425,
      "Ġeffetto": 4426,
      "Ġesso": 4427,
      "Ġangefochtenen": 4428,
      "Ġmitgliedstaaten": 4429,
      "Ġunver": 4430,
      "Ġfranca": 4431,
      "Ġpaie": 4432,
      "Ġnecessaires": 4433,
      "Ġfil": 4434,
      "dic": 4435,
      "Ġautorizzazione": 4436,
      "Ġsenats": 4437,
      "Ġovg": 4438,
      "dizione": 4439,
      "gestellten": 4440,
      "Ġdunque": 4441,
      "Ġallerdings": 4442,
      "Ġobjec": 4443,
      "Ġesamina": 4444,
      "buch": 4445,
      "Ġrisul": 4446,
      "Ġantragsgegnerin": 4447,
      "Ġvoir": 4448,
      "Ġvors": 4449,
      "Ġausgefuhrt": 4450,
      "Ġraff": 4451,
      "Ġcomunque": 4452,
      "regel": 4453,
      "ive": 4454,
      "iff": 4455,
      "vra": 4456,
      "Ġeche": 4457,
      "Ġerfullt": 4458,
      "Ġbank": 4459,
      "pendente": 4460,
      "Ġenergie": 4461,
      "pie": 4462,
      "Ġclassifica": 4463,
      "Ġkinder": 4464,
      "uts": 4465,
      "Ġvice": 4466,
      "Ġaction": 4467,
      "anier": 4468,
      "Ġidentifica": 4469,
      "Ġschrifts": 4470,
      "Ġverfassungs": 4471,
      "fach": 4472,
      "once": 4473,
      "Ġvolta": 4474,
      "93": 4475,
      "Ġbenefici": 4476,
      "rieben": 4477,
      "Ġzunachst": 4478,
      "Ġimpie": 4479,
      "Ġticino": 4480,
      "Ġlassen": 4481,
      "Ġfuhrt": 4482,
      "Ġinsgesamt": 4483,
      "Ġconsiderazione": 4484,
      "Ġinclus": 4485,
      "schul": 4486,
      "Ġwa": 4487,
      "erche": 4488,
      "Ġveicolo": 4489,
      "ital": 4490,
      "ennung": 4491,
      "Ġaura": 4492,
      "Ġlegale": 4493,
      "Ġ124": 4494,
      "Ġpresen": 4495,
      "Ġforn": 4496,
      "gegenstand": 4497,
      "Ġspecie": 4498,
      "Ġkons": 4499,
      "liess": 4500,
      "berechtig": 4501,
      "Ġindustria": 4502,
      "Ġnichts": 4503,
      "Ġihnen": 4504,
      "Ġrichie": 4505,
      "Ġutilisation": 4506,
      "Ġpresentato": 4507,
      "orf": 4508,
      "Ġersta": 4509,
      "Ġglo": 4510,
      "Ġfins": 4511,
      "Ġsoli": 4512,
      "Ġsempli": 4513,
      "Ġsurve": 4514,
      "Ġricev": 4515,
      "Ġtenor": 4516,
      "inte": 4517,
      "Ġpoten": 4518,
      "Ġarbi": 4519,
      "Ġzugrunde": 4520,
      "Ġipo": 4521,
      "Ġmitarbeit": 4522,
      "Ġ120": 4523,
      "Ġfondo": 4524,
      "gliche": 4525,
      "Îµ": 4526,
      "Ġdisposizione": 4527,
      "Ġassurance": 4528,
      "Ġformation": 4529,
      "Ġparlement": 4530,
      "Ġlung": 4531,
      "Ġnouvelle": 4532,
      "Ġsuivant": 4533,
      "wahl": 4534,
      "icip": 4535,
      "Ġdonc": 4536,
      "Ġslo": 4537,
      "Ġbehorden": 4538,
      "Ġfalle": 4539,
      "Ġsou": 4540,
      "cken": 4541,
      "olli": 4542,
      "Ġextra": 4543,
      "Ġannulla": 4544,
      "fla": 4545,
      "Ġnega": 4546,
      "quel": 4547,
      "fallen": 4548,
      "Ġcomporta": 4549,
      "Ġmaniere": 4550,
      "Ġdimos": 4551,
      "Ġpropor": 4552,
      "Ġpendant": 4553,
      "Ġinsolven": 4554,
      "Ġfiscale": 4555,
      "Ġorien": 4556,
      "Ġanges": 4557,
      "Ġziffer": 4558,
      "Ġelek": 4559,
      "Ġgruppo": 4560,
      "Ġrecours": 4561,
      "Ġmarchand": 4562,
      "Ġmanten": 4563,
      "teriori": 4564,
      "Ġnrw": 4565,
      "Ġfalli": 4566,
      "ther": 4567,
      "Ġgrupp": 4568,
      "ĠÅĵ": 4569,
      "dro": 4570,
      "Ġgeo": 4571,
      "ienza": 4572,
      "Ġbur": 4573,
      "Ġdiversi": 4574,
      "so": 4575,
      "Ġcommerce": 4576,
      "Ġora": 4577,
      "75": 4578,
      "Ġtraitement": 4579,
      "agung": 4580,
      "agna": 4581,
      "Ġmus": 4582,
      "Ġabschluss": 4583,
      "Ġlavori": 4584,
      "Ġtotal": 4585,
      "Ġordine": 4586,
      "sbe": 4587,
      "Ġlasst": 4588,
      "Ġlauf": 4589,
      "Ġbeurteilung": 4590,
      "Ġcommerciale": 4591,
      "Ġwirkung": 4592,
      "tritt": 4593,
      "Ġfolge": 4594,
      "Ġproc": 4595,
      "Ġaufs": 4596,
      "Ġpop": 4597,
      "Ġabweich": 4598,
      "Ġbeein": 4599,
      "Ġvendita": 4600,
      "Ġrepresen": 4601,
      "Ġanimali": 4602,
      "moglich": 4603,
      "ssta": 4604,
      "itigen": 4605,
      "Ġraison": 4606,
      "dner": 4607,
      "Ġintegr": 4608,
      "Ġanti": 4609,
      "tiger": 4610,
      "Î¿Ï": 4611,
      "Ġconserva": 4612,
      "Ġchiesto": 4613,
      "Ġfeststellung": 4614,
      "Ġnational": 4615,
      "Ġfosse": 4616,
      "Ġseconda": 4617,
      "omma": 4618,
      "90": 4619,
      "Ġwort": 4620,
      "Ġjusti": 4621,
      "uale": 4622,
      "Ġdecide": 4623,
      "Ġreclamo": 4624,
      "Ġunab": 4625,
      "hangig": 4626,
      "Ġpunti": 4627,
      "sen": 4628,
      "Ġbisher": 4629,
      "Ġwirtschafts": 4630,
      "Ġmassimo": 4631,
      "Ġmedia": 4632,
      "Ġgesetzlichen": 4633,
      "mater": 4634,
      "Ġergeben": 4635,
      "Ġ1988": 4636,
      "Ġpoiche": 4637,
      "Ġtable": 4638,
      "Ġ113": 4639,
      "widr": 4640,
      "Ġsolle": 4641,
      "Ġdurfen": 4642,
      "iner": 4643,
      "Ġgoverno": 4644,
      "ibles": 4645,
      "Ġinformationen": 4646,
      "inen": 4647,
      "Ġenco": 4648,
      "tragung": 4649,
      "Ġ117": 4650,
      "lato": 4651,
      "elt": 4652,
      "Ġjeweiligen": 4653,
      "Ġeins": 4654,
      "Ġammon": 4655,
      "Ġbb": 4656,
      "Ġmunicip": 4657,
      "Ġhtt": 4658,
      "Ġerho": 4659,
      "Ġnationale": 4660,
      "cy": 4661,
      "Ġcontributi": 4662,
      "ination": 4663,
      "dono": 4664,
      "Ġcategorie": 4665,
      "posito": 4666,
      "ai": 4667,
      "Ġumstande": 4668,
      "nissen": 4669,
      "Ġprotokoll": 4670,
      "Ġcapitolo": 4671,
      "Ġerhalten": 4672,
      "Ġamministrativo": 4673,
      "Ġscien": 4674,
      "Ġconcreto": 4675,
      "cili": 4676,
      "Ġauslegung": 4677,
      "Ġriduzione": 4678,
      "Ġexigen": 4679,
      "Ġmonat": 4680,
      "Ġsyn": 4681,
      "Ġdurchge": 4682,
      "Ġhierzu": 4683,
      "Ġattuazione": 4684,
      "Ġeinkommen": 4685,
      "Ġ#": 4686,
      "Ġprevisto": 4687,
      "Ġnam": 4688,
      "Ġrifi": 4689,
      "uali": 4690,
      "Ġsachvers": 4691,
      "terin": 4692,
      "olar": 4693,
      "Ġassicurata": 4694,
      "Ġpreviste": 4695,
      "rait": 4696,
      "Ġtess": 4697,
      "Ġlig": 4698,
      "Ġ600": 4699,
      "Ġquat": 4700,
      "betrie": 4701,
      "Ġ126": 4702,
      "Ġ1986": 4703,
      "tantes": 4704,
      "Ġ400": 4705,
      "Ġlc": 4706,
      "forderung": 4707,
      "Ġmul": 4708,
      "Ġregis": 4709,
      "Ġzweit": 4710,
      "Ġela": 4711,
      "hens": 4712,
      "Ġdocumentazione": 4713,
      "Ġallen": 4714,
      "utter": 4715,
      "mass": 4716,
      "Ġae": 4717,
      "Ġstabilis": 4718,
      "acht": 4719,
      "Ġdetto": 4720,
      "Ġprevede": 4721,
      "ints": 4722,
      "Ġqualite": 4723,
      "Ġjuge": 4724,
      "Ġihn": 4725,
      "Ġsollte": 4726,
      "Ġstrut": 4727,
      "Ġnatura": 4728,
      "illance": 4729,
      "Ġschwer": 4730,
      "Ġadottato": 4731,
      "Ġwit": 4732,
      "Ġaucune": 4733,
      "Ġmas": 4734,
      "Ġfort": 4735,
      "Ġregionale": 4736,
      "Ġreserve": 4737,
      "Ġverurteil": 4738,
      "Ġbesta": 4739,
      "Ġbeiden": 4740,
      "Ġrappresenta": 4741,
      "Ġlib": 4742,
      "Ġeffectue": 4743,
      "Ġsempre": 4744,
      "Ġexploita": 4745,
      "Ġappor": 4746,
      "Ġtabella": 4747,
      "Ġtutto": 4748,
      "Ġtatsachlich": 4749,
      "Ġkr": 4750,
      "bla": 4751,
      "Ġmese": 4752,
      "Ġautoma": 4753,
      "Ġjahres": 4754,
      "Ġregno": 4755,
      "Ġ104": 4756,
      "Ġjours": 4757,
      "Ġforder": 4758,
      "Ġetablissement": 4759,
      "Ġstabilito": 4760,
      "Ġgebau": 4761,
      "Ġconfe": 4762,
      "Ġcompor": 4763,
      "chte": 4764,
      "Ġ0086": 4765,
      "geld": 4766,
      "Ġimputa": 4767,
      "rechnung": 4768,
      "Ġconti": 4769,
      "digen": 4770,
      "Ġfondi": 4771,
      "Ġqualifica": 4772,
      "Ġinternational": 4773,
      "oga": 4774,
      "ative": 4775,
      "Ġesc": 4776,
      "Ġabw": 4777,
      "Ġproprieta": 4778,
      "Ġprojet": 4779,
      "Ġcl": 4780,
      "Ġautorisation": 4781,
      "Ġpic": 4782,
      "Ġcompati": 4783,
      "pt": 4784,
      "Ġantici": 4785,
      "Ġinteressen": 4786,
      "trato": 4787,
      "folge": 4788,
      "Ġsitz": 4789,
      "Ġgem": 4790,
      "Ġexercice": 4791,
      "Ġverhalten": 4792,
      "ulation": 4793,
      "alite": 4794,
      "Ġconsidere": 4795,
      "Ġsing": 4796,
      "Ġperche": 4797,
      "Ġbanca": 4798,
      "Ġdepens": 4799,
      "Ġzweif": 4800,
      "Ġvita": 4801,
      "Ġod": 4802,
      "Ġapplicables": 4803,
      "Ġaides": 4804,
      "ache": 4805,
      "Ġtempor": 4806,
      "vero": 4807,
      "Ġdisposition": 4808,
      "Ġdiens": 4809,
      "ivamente": 4810,
      "Ġort": 4811,
      "Ġbegriff": 4812,
      "Ġpeti": 4813,
      "Ġfuhren": 4814,
      "Ġespe": 4815,
      "Ġerganz": 4816,
      "Ġsostanza": 4817,
      "Ġunivers": 4818,
      "bestimm": 4819,
      "Ġsolchen": 4820,
      "Ġrdnr": 4821,
      "Ġdeutschland": 4822,
      "Ġgestellt": 4823,
      "Ġultima": 4824,
      "punkte": 4825,
      "Ġconseg": 4826,
      "56": 4827,
      "tati": 4828,
      "Ġprocedures": 4829,
      "Ġberechtig": 4830,
      "atur": 4831,
      "Ġverkehrs": 4832,
      "weisung": 4833,
      "Ġexamen": 4834,
      "Ġcertificato": 4835,
      "Ġpras": 4836,
      "Ġanali": 4837,
      "89": 4838,
      "Ġurteils": 4839,
      "timmen": 4840,
      "Ġimportazione": 4841,
      "Ġroyaume": 4842,
      "Ġverse": 4843,
      "Ġsar": 4844,
      "kunf": 4845,
      "nete": 4846,
      "mittlung": 4847,
      "Ġrechtlichen": 4848,
      "osa": 4849,
      "Ġiniti": 4850,
      "cts": 4851,
      "Ġverwaltungsgericht": 4852,
      "Ġsche": 4853,
      "Ġwill": 4854,
      "agno": 4855,
      "Ġversicherungs": 4856,
      "rio": 4857,
      "Ġriserva": 4858,
      "sto": 4859,
      "Ġgenehmigung": 4860,
      "Ġpremiere": 4861,
      "Ġvorschrift": 4862,
      "Ġfrance": 4863,
      "Ġimposta": 4864,
      "Ġapplic": 4865,
      "Ġpotre": 4866,
      "Ġbra": 4867,
      "Ġkm": 4868,
      "Ġgesetzgeber": 4869,
      "waltung": 4870,
      "Ġgestu": 4871,
      "ssements": 4872,
      "Ġdeclaration": 4873,
      "inter": 4874,
      "Ġ1987": 4875,
      "Ġscopo": 4876,
      "Ġcontributo": 4877,
      "Ġserie": 4878,
      "Ġmassima": 4879,
      "Ġerforderlichen": 4880,
      "vorschriften": 4881,
      "Ġtermini": 4882,
      "Ġresulta": 4883,
      "Ġpersonal": 4884,
      "Ġ150": 4885,
      "gom": 4886,
      "Ġdiagn": 4887,
      "Ġhaft": 4888,
      "Ġcelles": 4889,
      "Ġesistenza": 4890,
      "Ġessi": 4891,
      "mand": 4892,
      "igt": 4893,
      "Ġanlagen": 4894,
      "Ġcalcolo": 4895,
      "Ġmotivo": 4896,
      "zuf": 4897,
      "Ġglob": 4898,
      "Ġensemble": 4899,
      "Ġern": 4900,
      "sc": 4901,
      "Ġsepar": 4902,
      "Ġelements": 4903,
      "Ġorganizzazione": 4904,
      "Ġposte": 4905,
      "Ġzins": 4906,
      "ren": 4907,
      "Ġpeso": 4908,
      "ulture": 4909,
      "ziel": 4910,
      "Ġincapa": 4911,
      "Ġhil": 4912,
      "Ġrespinto": 4913,
      "cra": 4914,
      "Ġcapitale": 4915,
      "Ġeman": 4916,
      "Ġ130": 4917,
      "Ġuntersuch": 4918,
      "Ġeventuali": 4919,
      "Ġsegretario": 4920,
      "Ġcomplementa": 4921,
      "Ġimportazioni": 4922,
      "Ġentscheiden": 4923,
      "Ġetant": 4924,
      "Ġinsorgente": 4925,
      "ker": 4926,
      "Ġugu": 4927,
      "Ġlorsqu": 4928,
      "Ġpatr": 4929,
      "Ġinstall": 4930,
      "Ġevaluation": 4931,
      "Ġliquid": 4932,
      "here": 4933,
      "glichen": 4934,
      "mitteln": 4935,
      "Ġordnungs": 4936,
      "Ġnecessarie": 4937,
      "Ġverbunden": 4938,
      "74": 4939,
      "imon": 4940,
      "nali": 4941,
      "ologie": 4942,
      "Ġ109": 4943,
      "Ġalso": 4944,
      "zahlung": 4945,
      "Ġatte": 4946,
      "Ġoccas": 4947,
      "Ġnummer": 4948,
      "Ġjud": 4949,
      "Ġtragen": 4950,
      "Ġquar": 4951,
      "ences": 4952,
      "Ġunzulass": 4953,
      "Ġinteret": 4954,
      "Ġsufficiente": 4955,
      "Ġdub": 4956,
      "Ġrevisione": 4957,
      "Ġincom": 4958,
      "Ġoperation": 4959,
      "Ġaffe": 4960,
      "Ġriguard": 4961,
      "zwe": 4962,
      "olari": 4963,
      "Ġvertra": 4964,
      "unta": 4965,
      "fun": 4966,
      "chter": 4967,
      "Ġtranspor": 4968,
      "Ġinsolvenz": 4969,
      "Ġ1985": 4970,
      "Ġsuivantes": 4971,
      "Ġsecteur": 4972,
      "Ġvises": 4973,
      "Ïģ": 4974,
      "Ġimportant": 4975,
      "Ġminis": 4976,
      "itig": 4977,
      "Ġrisposta": 4978,
      "Ġdisciplina": 4979,
      "ennent": 4980,
      "ichtet": 4981,
      "áĥĶ": 4982,
      "Ġdedu": 4983,
      "Ġbio": 4984,
      "posti": 4985,
      "Ġlocali": 4986,
      "Ġtaux": 4987,
      "Ġjede": 4988,
      "verwaltungs": 4989,
      "Ġpregi": 4990,
      "Ġspeciale": 4991,
      "Ġavven": 4992,
      "Ġconosc": 4993,
      "Ġvisees": 4994,
      "Ġpsych": 4995,
      "Ġforni": 4996,
      "Ġfestgestellt": 4997,
      "Ġep": 4998,
      "Ġ122": 4999,
      "heim": 5000,
      "Ġclasse": 5001,
      "Ġlage": 5002,
      "Ġvereinbarung": 5003,
      "Ġobs": 5004,
      "ligen": 5005,
      "Ġceux": 5006,
      "ĠÅĵuvre": 5007,
      "Ġvii": 5008,
      "ierte": 5009,
      "Ġbass": 5010,
      "Ġoli": 5011,
      "Ġadministration": 5012,
      "Ġubereinkommen": 5013,
      "bezogen": 5014,
      "Ġrispettivamente": 5015,
      "Ġluft": 5016,
      "53": 5017,
      "Ġsignifica": 5018,
      "Ġvorliegend": 5019,
      "Ġengage": 5020,
      "Ġerano": 5021,
      "inaires": 5022,
      "Ġparere": 5023,
      "Ġumw": 5024,
      "beschluss": 5025,
      "orti": 5026,
      "hg": 5027,
      "Ġrese": 5028,
      "Ġsurveillance": 5029,
      "Ġ101": 5030,
      "gno": 5031,
      "Ġentsprechenden": 5032,
      "Ġwesentlichen": 5033,
      "Ġinser": 5034,
      "leve": 5035,
      "Ġmarchandises": 5036,
      "Ġrece": 5037,
      "Ð²": 5038,
      "Ġstehen": 5039,
      "Ġcollabor": 5040,
      "Ġconvenuta": 5041,
      "Ġihres": 5042,
      "Ġpresenza": 5043,
      "Ġ!": 5044,
      "Ġkonnten": 5045,
      "Ġpagina": 5046,
      "ipe": 5047,
      "40": 5048,
      "ista": 5049,
      "aro": 5050,
      "rechtliche": 5051,
      "Ġnetto": 5052,
      "Ġore": 5053,
      "tigten": 5054,
      "Ġgerade": 5055,
      "laire": 5056,
      "Ġcondizione": 5057,
      "Ġpatro": 5058,
      "ungsk": 5059,
      "tamenti": 5060,
      "Ġsociali": 5061,
      "Ġ116": 5062,
      "Ġdoku": 5063,
      "Ġiso": 5064,
      "Ġscritto": 5065,
      "Ġreference": 5066,
      "Ġgiudiziaria": 5067,
      "Ġazione": 5068,
      "Ġbetreffenden": 5069,
      "Ġsara": 5070,
      "Ġmachen": 5071,
      "teilen": 5072,
      "Ġbestimmung": 5073,
      "Ġlinea": 5074,
      "Ġconstru": 5075,
      "Ġcittad": 5076,
      "Ġunico": 5077,
      "Ġletz": 5078,
      "Ġxx": 5079,
      "Ġbilancio": 5080,
      "ichen": 5081,
      "ones": 5082,
      "usse": 5083,
      "Ġseines": 5084,
      "ww": 5085,
      "Ġmodificato": 5086,
      "rebbero": 5087,
      "Ġbehandlung": 5088,
      "Ġersichtlich": 5089,
      "Ġposto": 5090,
      "Ġstar": 5091,
      "Ġplace": 5092,
      "anne": 5093,
      "41": 5094,
      "43": 5095,
      "Ġablauf": 5096,
      "Ġtant": 5097,
      "Ġbsg": 5098,
      "Ġassis": 5099,
      "gesellschaft": 5100,
      "Ġvente": 5101,
      "Ġrilascia": 5102,
      "Ġkundigung": 5103,
      "fois": 5104,
      "Ġwal": 5105,
      "Ġreun": 5106,
      "Ġadresse": 5107,
      "Ġaper": 5108,
      "Ġresid": 5109,
      "Ġoutre": 5110,
      "Ġinkraft": 5111,
      "Ġdiff": 5112,
      "pecie": 5113,
      "Ġordonn": 5114,
      "Ġapplicabili": 5115,
      "Ġverso": 5116,
      "Ġpena": 5117,
      "Ġgenerali": 5118,
      "Ġlegislation": 5119,
      "Ġset": 5120,
      "xes": 5121,
      "istet": 5122,
      "Ġtexti": 5123,
      "Ġgeogra": 5124,
      "Ġ112": 5125,
      "Ġsce": 5126,
      "Ġgeht": 5127,
      "49": 5128,
      "teriore": 5129,
      "Ġwirksam": 5130,
      "Ġcooperazione": 5131,
      "Ġinfras": 5132,
      "Ġtragt": 5133,
      "Ġhol": 5134,
      "Ġpesca": 5135,
      "handen": 5136,
      "Ġplusieurs": 5137,
      "Ġdove": 5138,
      "mie": 5139,
      "Ġindique": 5140,
      "Ġguad": 5141,
      "Ġesig": 5142,
      "Ġchf": 5143,
      "einbar": 5144,
      "Ġbegehr": 5145,
      "vie": 5146,
      "Ġcy": 5147,
      "Ġsinn": 5148,
      "Ġaero": 5149,
      "Ġstell": 5150,
      "Ġtemps": 5151,
      "Ġpris": 5152,
      "Ġsicherheit": 5153,
      "Ġlegit": 5154,
      "Ġapplicable": 5155,
      "Ġfattis": 5156,
      "Ġvertreten": 5157,
      "85": 5158,
      "jen": 5159,
      "Ġmaxim": 5160,
      "wn": 5161,
      "Ġstadt": 5162,
      "Ġamt": 5163,
      "tzen": 5164,
      "bio": 5165,
      "beh": 5166,
      "Ġfattispecie": 5167,
      "Ġgutachten": 5168,
      "durf": 5169,
      "Ġcarattere": 5170,
      "anwal": 5171,
      "Ġrejet": 5172,
      "Ġdirettamente": 5173,
      "Ġunmittelbar": 5174,
      "Ġrechte": 5175,
      "agne": 5176,
      "Ġcf": 5177,
      "Ġverhaltnis": 5178,
      "behorde": 5179,
      "Ġperizia": 5180,
      "eins": 5181,
      "Ġzutreff": 5182,
      "Ġverbale": 5183,
      "Ð»": 5184,
      "Ġbestimmten": 5185,
      "Ġgarantire": 5186,
      "Ġvoraus": 5187,
      "Ġrelatif": 5188,
      "97": 5189,
      "Ġconsum": 5190,
      "Ġoe": 5191,
      "vollmachtig": 5192,
      "Ġentscheidungs": 5193,
      "Ġausdrucklich": 5194,
      "Ġunicamente": 5195,
      "Ġ030": 5196,
      "orsi": 5197,
      "83": 5198,
      "Ġaufgehoben": 5199,
      "Ġconclusione": 5200,
      "Ġbg": 5201,
      "Ġausfuhrungen": 5202,
      "Ġfolgende": 5203,
      "Î·": 5204,
      "Ġdocumento": 5205,
      "Ġvalori": 5206,
      "lati": 5207,
      "line": 5208,
      "Ġlandgericht": 5209,
      "Ġentr": 5210,
      "Ġdin": 5211,
      "Ġconcurrence": 5212,
      "Ġattaque": 5213,
      "Ġdadurch": 5214,
      "Ġ123": 5215,
      "ix": 5216,
      "icato": 5217,
      "Ġleistung": 5218,
      "Ġerne": 5219,
      "Ġhinweis": 5220,
      "Ġdocuments": 5221,
      "tees": 5222,
      "Ġregelungen": 5223,
      "Ġsicherheits": 5224,
      "ron": 5225,
      "Ġmitglieder": 5226,
      "ets": 5227,
      "landa": 5228,
      "Ġfunzionamento": 5229,
      "haben": 5230,
      "Ġlong": 5231,
      "Ġderiv": 5232,
      "bank": 5233,
      "Ġkar": 5234,
      "Ġille": 5235,
      "eur": 5236,
      "ĠverstoÃŁ": 5237,
      "Ġammiss": 5238,
      "wirkung": 5239,
      "Ġkle": 5240,
      "offent": 5241,
      "Ġsegg": 5242,
      "vre": 5243,
      "rankung": 5244,
      "poli": 5245,
      "Ġwobei": 5246,
      "Ġargom": 5247,
      "Ġazr": 5248,
      "Ġeli": 5249,
      "Ġpara": 5250,
      "organ": 5251,
      "Ġsuite": 5252,
      "Ġtass": 5253,
      "Ġnamlich": 5254,
      "Ġprovvis": 5255,
      "Ġpossa": 5256,
      "Ġunterstu": 5257,
      "67": 5258,
      "omand": 5259,
      "endere": 5260,
      "Ġarz": 5261,
      "Ġeigenen": 5262,
      "Ġwww": 5263,
      "getta": 5264,
      "Ġberufs": 5265,
      "Ġgrave": 5266,
      "Ġistituisce": 5267,
      "Ġzie": 5268,
      "Ġbewillig": 5269,
      "Ġoctro": 5270,
      "Ġmedic": 5271,
      "Ġcondition": 5272,
      "ziehen": 5273,
      "Ġpouvoir": 5274,
      "Ġaussi": 5275,
      "Ġjudic": 5276,
      "Ġang": 5277,
      "Ġangemessen": 5278,
      "Ġev": 5279,
      "Ġberuht": 5280,
      "Ġminimo": 5281,
      "later": 5282,
      "Ġnecessita": 5283,
      "Ġrede": 5284,
      "Ġzahlung": 5285,
      "Ġmacht": 5286,
      "Ġina": 5287,
      "Ġtel": 5288,
      "iglia": 5289,
      "Ġcondanna": 5290,
      "Ġ127": 5291,
      "bring": 5292,
      "Ġliv": 5293,
      "Ġseul": 5294,
      "Ġtenu": 5295,
      "tzus": 5296,
      "Ġluce": 5297,
      "ersatz": 5298,
      "hande": 5299,
      "Ġmundlichen": 5300,
      "Ġkenntnis": 5301,
      "Ġmiglior": 5302,
      "Ġbedarf": 5303,
      "Ġsante": 5304,
      "Ġdepos": 5305,
      "Ġza": 5306,
      "Ġnorm": 5307,
      "Ġstor": 5308,
      "ira": 5309,
      "Ġgaranzia": 5310,
      "Ġpeche": 5311,
      "Ġgerman": 5312,
      "Ġinternazionale": 5313,
      "cture": 5314,
      "Ġend": 5315,
      "Ġcredit": 5316,
      "dee": 5317,
      "Ġmedica": 5318,
      "tus": 5319,
      "Ġitalia": 5320,
      "Ġ103": 5321,
      "Ġviolazione": 5322,
      "erten": 5323,
      "Ġdepart": 5324,
      "Ġrechnung": 5325,
      "pier": 5326,
      "Ġconsenti": 5327,
      "Ġdovuto": 5328,
      "Ġviii": 5329,
      "Ġcondu": 5330,
      "Ġnavi": 5331,
      "auer": 5332,
      "Ġpflicht": 5333,
      "Ġtoutefois": 5334,
      "Ġsugli": 5335,
      "Ġfrau": 5336,
      "liegt": 5337,
      "Ġcommune": 5338,
      "Ġsonder": 5339,
      "trager": 5340,
      "abs": 5341,
      "lable": 5342,
      "rankt": 5343,
      "Ġricer": 5344,
      "quent": 5345,
      "Ġmezzi": 5346,
      "áĥĺ": 5347,
      "Ġconclusioni": 5348,
      "Ġdomic": 5349,
      "Ġende": 5350,
      "Ġvorhanden": 5351,
      "Ġmalattia": 5352,
      "Ġ114": 5353,
      "grunden": 5354,
      "Ġaufzu": 5355,
      "Ġzivil": 5356,
      "reak": 5357,
      "Ġmateriale": 5358,
      "Ġademp": 5359,
      "pia": 5360,
      "alites": 5361,
      "inamento": 5362,
      "inger": 5363,
      "ki": 5364,
      "Ġnas": 5365,
      "ttung": 5366,
      "Ġpero": 5367,
      "Ġfornit": 5368,
      "zugs": 5369,
      "Ġhandels": 5370,
      "len": 5371,
      "atore": 5372,
      "chsel": 5373,
      "atta": 5374,
      "gruppe": 5375,
      "yse": 5376,
      "Ġdomicili": 5377,
      "Ġautorise": 5378,
      "Ġbreve": 5379,
      "Ġsecre": 5380,
      "Ġtramite": 5381,
      "Ġ119": 5382,
      "posizione": 5383,
      "medi": 5384,
      "inata": 5385,
      "Ġritiene": 5386,
      "Ġrechtfer": 5387,
      "Ġemploye": 5388,
      "Ġwiderruf": 5389,
      "oren": 5390,
      "Ġradio": 5391,
      "Ġrechtsmittel": 5392,
      "Ġschadens": 5393,
      "Ġexpr": 5394,
      "Ġfau": 5395,
      "tente": 5396,
      "Ġwiderspruchs": 5397,
      "Ġbeigeladenen": 5398,
      "Ġrendu": 5399,
      "Ġ102": 5400,
      "Ġzweifel": 5401,
      "Ġveroffent": 5402,
      "Ġcommunautaire": 5403,
      "imes": 5404,
      "Ġobligations": 5405,
      "Ġutilisees": 5406,
      "able": 5407,
      "inazione": 5408,
      "Ġobblighi": 5409,
      "Ġexigences": 5410,
      "Ġmark": 5411,
      "Ġgegebenen": 5412,
      "urces": 5413,
      "Ġenvironne": 5414,
      "ĠÃ": 5415,
      "Ġinfortun": 5416,
      "Ġexploitation": 5417,
      "Ġbor": 5418,
      "Ġare": 5419,
      "Ġcm": 5420,
      "Ġcompresi": 5421,
      "Ġnv": 5422,
      "benso": 5423,
      "atis": 5424,
      "Ġphy": 5425,
      "produ": 5426,
      "haber": 5427,
      "xis": 5428,
      "Ġprevo": 5429,
      "imenti": 5430,
      "Ġsg": 5431,
      "Ġverwendung": 5432,
      "gata": 5433,
      "Ġparticulier": 5434,
      "Ġsosteg": 5435,
      "Ġinterne": 5436,
      "bt": 5437,
      "Ġdevant": 5438,
      "Ġweg": 5439,
      "Ġraggi": 5440,
      "Ġinn": 5441,
      "zustellen": 5442,
      "ase": 5443,
      "wendungen": 5444,
      "uses": 5445,
      "Ġbuchsta": 5446,
      "Ġbeeintra": 5447,
      "titi": 5448,
      "Ġcompar": 5449,
      "Ġberucksichtigt": 5450,
      "Ġselbs": 5451,
      "Ġacces": 5452,
      "Ġentsprechende": 5453,
      "iscono": 5454,
      "Ġbullet": 5455,
      "Ġsele": 5456,
      "Ġegard": 5457,
      "Ġbeitrags": 5458,
      "Ġnazionali": 5459,
      "48": 5460,
      "Ġfonctionnement": 5461,
      "Ġersch": 5462,
      "Ġcertaines": 5463,
      "Ġelabor": 5464,
      "Ġprea": 5465,
      "diens": 5466,
      "Ġ118": 5467,
      "Ġstabilisce": 5468,
      "einander": 5469,
      "zip": 5470,
      "Ġ121": 5471,
      "ania": 5472,
      "Ġalters": 5473,
      "ubung": 5474,
      "Ġoperations": 5475,
      "Ġcommercio": 5476,
      "Ġfinanziario": 5477,
      "etzt": 5478,
      "Ġsoggetti": 5479,
      "dire": 5480,
      "ohl": 5481,
      "Ġentspricht": 5482,
      "Ġpien": 5483,
      "Ġreven": 5484,
      "zer": 5485,
      "Ġveicoli": 5486,
      "Ġattra": 5487,
      "ccia": 5488,
      "bach": 5489,
      "Ġeee": 5490,
      "Ġpubli": 5491,
      "Ġconvenuto": 5492,
      "Ġsostegno": 5493,
      "Ġpageb": 5494,
      "Ġpagebreak": 5495,
      "Ġappellante": 5496,
      "Ġimpo": 5497,
      "Ġassurer": 5498,
      "Ġintervento": 5499,
      "wach": 5500,
      "tuelle": 5501,
      "wenden": 5502,
      "Ġfunf": 5503,
      "Ġsubord": 5504,
      "Ġgestutzt": 5505,
      "ids": 5506,
      "Ġgeltenden": 5507,
      "Ġganz": 5508,
      "Ġsowohl": 5509,
      "Ġconcre": 5510,
      "Ġbon": 5511,
      "cal": 5512,
      "angen": 5513,
      "Ġ111": 5514,
      "Ġeinheit": 5515,
      "Ġef": 5516,
      "Ġebenso": 5517,
      "Ġsuff": 5518,
      "pass": 5519,
      "Ġnutzung": 5520,
      "tezza": 5521,
      "tuto": 5522,
      "Ġcentrale": 5523,
      "Ġfunzione": 5524,
      "Ġbef": 5525,
      "Ġestg": 5526,
      "Ġraccomand": 5527,
      "Ġstf": 5528,
      "kg": 5529,
      "raum": 5530,
      "100": 5531,
      "Ġby": 5532,
      "laut": 5533,
      "lager": 5534,
      "Ġopportuno": 5535,
      "Ġaufhebung": 5536,
      "timazione": 5537,
      "Ġbverfg": 5538,
      "Ġanordnung": 5539,
      "Ġconi": 5540,
      "tungen": 5541,
      "laubnis": 5542,
      "das": 5543,
      "Ġ020": 5544,
      "ugt": 5545,
      "Ġunge": 5546,
      "Ġrisol": 5547,
      "Ġneuen": 5548,
      "immt": 5549,
      "fet": 5550,
      "vgl": 5551,
      "ieure": 5552,
      "Ġalterna": 5553,
      "55": 5554,
      "Ġstreitgegenstand": 5555,
      "Ġmaggior": 5556,
      "Ġvic": 5557,
      "Ġwerk": 5558,
      "bie": 5559,
      "Ġaccetta": 5560,
      "Ġinch": 5561,
      "Ġtrova": 5562,
      "itat": 5563,
      "Ġsr": 5564,
      "Ġetr": 5565,
      "Ġausnahme": 5566,
      "Ġrom": 5567,
      "zuglich": 5568,
      "Ġ1980": 5569,
      "tesi": 5570,
      "Ġram": 5571,
      "Ġveran": 5572,
      "Ġdahin": 5573,
      "Ġcaractere": 5574,
      "Ġouver": 5575,
      "Ġinterets": 5576,
      "Ġrepr": 5577,
      "Ġ250": 5578,
      "Ġdepenses": 5579,
      "itige": 5580,
      "Ġpaiement": 5581,
      "Ġverantwort": 5582,
      "Ġdomaine": 5583,
      "erklar": 5584,
      "heben": 5585,
      "anto": 5586,
      "Ġmitarbeiter": 5587,
      "verb": 5588,
      "tesa": 5589,
      "Ġassegnazione": 5590,
      "Ġadopte": 5591,
      "lassung": 5592,
      "tari": 5593,
      "Ġfrequ": 5594,
      "Ġgio": 5595,
      "Ġverif": 5596,
      "oss": 5597,
      "Ġaspet": 5598,
      "Ġzustandigkeit": 5599,
      "Ġvorbringen": 5600,
      "Ġ129": 5601,
      "áĥĲ": 5602,
      "Ġacte": 5603,
      "Ġdaraus": 5604,
      "isen": 5605,
      "vio": 5606,
      "Ġcompetenti": 5607,
      "Ġproro": 5608,
      "Ġdarle": 5609,
      "Ġconsomma": 5610,
      "Ġnos": 5611,
      "Ġbul": 5612,
      "Ġzugelassen": 5613,
      "Ġraum": 5614,
      "Ġakten": 5615,
      "Ġteilweise": 5616,
      "ungsbereich": 5617,
      "mach": 5618,
      "ular": 5619,
      "Ġspecifiche": 5620,
      "Ġauton": 5621,
      "ote": 5622,
      "Ġpartecipazione": 5623,
      "Ġbeamten": 5624,
      "Ġdipl": 5625,
      "Ġprestazione": 5626,
      "Ġpoints": 5627,
      "Ġordonnance": 5628,
      "58": 5629,
      "Ġscientif": 5630,
      "Ġitalien": 5631,
      "Ġrichiedente": 5632,
      "schluss": 5633,
      "Ġinfine": 5634,
      "Ġbulletin": 5635,
      "fluss": 5636,
      "Ġprinci": 5637,
      "Ġkauf": 5638,
      "bel": 5639,
      "Ġrecherche": 5640,
      "Ġquota": 5641,
      "Ġdovrebbe": 5642,
      "Ġverbrauch": 5643,
      "tumer": 5644,
      "78": 5645,
      "bung": 5646,
      "Ġfeststellungen": 5647,
      "Ġprevue": 5648,
      "Ġvolume": 5649,
      "Ġprendre": 5650,
      "cke": 5651,
      "materiali": 5652,
      "Ġ1975": 5653,
      "rechte": 5654,
      "Ġredditi": 5655,
      "Ġchia": 5656,
      "mals": 5657,
      "Ġtca": 5658,
      "Ġterzo": 5659,
      "Ġausgleich": 5660,
      "itaire": 5661,
      "Ġprejud": 5662,
      "ssage": 5663,
      "Ġoffice": 5664,
      "mark": 5665,
      "Ġpossible": 5666,
      "Ġtatbestand": 5667,
      "Ġvaria": 5668,
      "Ġferro": 5669,
      "Ġpourvoi": 5670,
      "gung": 5671,
      "Ġazioni": 5672,
      "Ġessendo": 5673,
      "Ġemer": 5674,
      "Ġvier": 5675,
      "aussch": 5676,
      "Ġkorper": 5677,
      "Ġsospens": 5678,
      "Ġverletzung": 5679,
      "Ġaout": 5680,
      "Ġeconomico": 5681,
      "Ġstunden": 5682,
      "59": 5683,
      "nements": 5684,
      "Ġulteriori": 5685,
      "Ġdecisions": 5686,
      "aff": 5687,
      "Ġconn": 5688,
      "Ġlimiti": 5689,
      "Ġlpga": 5690,
      "Ġomolo": 5691,
      "64": 5692,
      "riffen": 5693,
      "dat": 5694,
      "Ġguadagno": 5695,
      "Ġvolon": 5696,
      "Ġsau": 5697,
      "Ġemb": 5698,
      "Ġforderung": 5699,
      "Ġricerca": 5700,
      "satze": 5701,
      "Ġcontinu": 5702,
      "ktions": 5703,
      "Ġursprung": 5704,
      "Ġie": 5705,
      "Ġassenza": 5706,
      "Ġproposta": 5707,
      "Ġcertains": 5708,
      "Ġnich": 5709,
      "ungsgrund": 5710,
      "ersi": 5711,
      "Ġgewahrt": 5712,
      "69": 5713,
      "cchia": 5714,
      "Ġtransfer": 5715,
      "uchen": 5716,
      "Ġfinanciere": 5717,
      "Ġavuto": 5718,
      "Ġdirec": 5719,
      "Ġconfeder": 5720,
      "Ġfavor": 5721,
      "Ġappend": 5722,
      "Ġhoher": 5723,
      "Ġria": 5724,
      "anten": 5725,
      "Ġvisee": 5726,
      "Ġoben": 5727,
      "Ġtute": 5728,
      "Ġistante": 5729,
      "Ġ1982": 5730,
      "genza": 5731,
      "tita": 5732,
      "Ġobligation": 5733,
      "Ġesercita": 5734,
      "stein": 5735,
      "Ġzug": 5736,
      "Ġmoment": 5737,
      "Ġverschieden": 5738,
      "person": 5739,
      "Ġbeginn": 5740,
      "Ġzahlen": 5741,
      "vaient": 5742,
      "Ġanimaux": 5743,
      "Ġdecorr": 5744,
      "Ġgesellschaft": 5745,
      "Ġeseg": 5746,
      "Ġunterlagen": 5747,
      "Ġspie": 5748,
      "Ġdeut": 5749,
      "42": 5750,
      "atom": 5751,
      "Ġleit": 5752,
      "Ġgebuhren": 5753,
      "Ġconcernente": 5754,
      "Ġprior": 5755,
      "Ġsoient": 5756,
      "Ġgrande": 5757,
      "Ġverwaltungsgerichts": 5758,
      "Ġferner": 5759,
      "hy": 5760,
      "Ġ1984": 5761,
      "Ġbesondere": 5762,
      "Ġeuros": 5763,
      "ĠâĪ": 5764,
      "Ġagree": 5765,
      "Ġresponsabilita": 5766,
      "Ġbeans": 5767,
      "Ġlitig": 5768,
      "Ġrichia": 5769,
      "Ġpartei": 5770,
      "Ġrenten": 5771,
      "od": 5772,
      "Ġwissen": 5773,
      "Ġsomit": 5774,
      "Ġanderer": 5775,
      "Ġgebiet": 5776,
      "Ġeinrichtungen": 5777,
      "Ġschriftsatz": 5778,
      "Ġvengono": 5779,
      "Ġvehicule": 5780,
      "dige": 5781,
      "essen": 5782,
      "halte": 5783,
      "Ġreglementa": 5784,
      "Ġtechniques": 5785,
      "Ġnotification": 5786,
      "occu": 5787,
      "Ġrilevato": 5788,
      "Ġsistemi": 5789,
      "Ġmedizin": 5790,
      "Ġinchies": 5791,
      "Ġzusammenarbeit": 5792,
      "Ġconvient": 5793,
      "Ġesisten": 5794,
      "Ġ133": 5795,
      "Ġwasser": 5796,
      "Ġangeklagten": 5797,
      "Ġgestalt": 5798,
      "Ġfaisant": 5799,
      "Ġumstand": 5800,
      "Ġbst": 5801,
      "Ġtenore": 5802,
      "Ġnj": 5803,
      "Ġdetermine": 5804,
      "gre": 5805,
      "Ġprincipe": 5806,
      "Ġtier": 5807,
      "Ġconce": 5808,
      "Ġmarches": 5809,
      "utes": 5810,
      "erte": 5811,
      "Ġantragstellers": 5812,
      "bereit": 5813,
      "Ġbv": 5814,
      "iera": 5815,
      "Ġdoganale": 5816,
      "Ġbran": 5817,
      "iko": 5818,
      "Ġenreg": 5819,
      "ziend": 5820,
      "Ġcontenuto": 5821,
      "Ġeventuale": 5822,
      "Ġwett": 5823,
      "Ġconcorrenza": 5824,
      "Ġrisultati": 5825,
      "Ġmedici": 5826,
      "standig": 5827,
      "Ġlettre": 5828,
      "lande": 5829,
      "mping": 5830,
      "Ġlehr": 5831,
      "Ġnotifie": 5832,
      "Ġdimens": 5833,
      "Ġdesigne": 5834,
      "Ġprozent": 5835,
      "Ġkapite": 5836,
      "Ġvirtu": 5837,
      "Ġpratique": 5838,
      "ctement": 5839,
      "Ġunterschied": 5840,
      "bur": 5841,
      "Ġnuovi": 5842,
      "Ġausland": 5843,
      "Ġbedingungen": 5844,
      "Ġfranco": 5845,
      "Ġobserva": 5846,
      "Ġflug": 5847,
      "Ġindemn": 5848,
      "Ġminim": 5849,
      "Ġdocument": 5850,
      "Ġgetroffen": 5851,
      "Ġtassazione": 5852,
      "Ġrimb": 5853,
      "Ġfede": 5854,
      "Ġversorgungs": 5855,
      "Ġincapacita": 5856,
      "Ġinkrafttreten": 5857,
      "Ġconna": 5858,
      "materialien": 5859,
      "Ġscar": 5860,
      "hnt": 5861,
      "Ġgmin": 5862,
      "gs": 5863,
      "Ġ132": 5864,
      "Ġmodalites": 5865,
      "Ġurt": 5866,
      "Ġunbegrundet": 5867,
      "zy": 5868,
      "Ġcomptes": 5869,
      "lieÃŁen": 5870,
      "Ġgermania": 5871,
      "zzato": 5872,
      "onna": 5873,
      "xte": 5874,
      "Ġprovvedimenti": 5875,
      "hein": 5876,
      "pol": 5877,
      "Ġfehler": 5878,
      "Ġxii": 5879,
      "Ġetaient": 5880,
      "Ġassure": 5881,
      "32": 5882,
      "Ġesportazione": 5883,
      "Ġpublique": 5884,
      "quelles": 5885,
      "Ġnjw": 5886,
      "Ġbesonderen": 5887,
      "ief": 5888,
      "Ġabschnitt": 5889,
      "Ġhilfs": 5890,
      "Ġalcuna": 5891,
      "Ġverbindung": 5892,
      "Ġsudde": 5893,
      "Ġseront": 5894,
      "digt": 5895,
      "Ġcrimine": 5896,
      "Ġzulassung": 5897,
      "annte": 5898,
      "Ġnotwendig": 5899,
      "Ġgehor": 5900,
      "Ġcpp": 5901,
      "Ġ1983": 5902,
      "Ġindiri": 5903,
      "ĠâĪĴ": 5904,
      "fassung": 5905,
      "Ġeuratom": 5906,
      "Ġgebie": 5907,
      "Ġcura": 5908,
      "Ġmulti": 5909,
      "Ġ1977": 5910,
      "Ġcalcola": 5911,
      "Ġderog": 5912,
      "Ġenten": 5913,
      "Ġ721": 5914,
      "Ġdichiarato": 5915,
      "laubi": 5916,
      "beschwerde": 5917,
      "Ġtatsachen": 5918,
      "mette": 5919,
      "Ġcoper": 5920,
      "xy": 5921,
      "Ġ135": 5922,
      "Ġsmer": 5923,
      "Ġprevisti": 5924,
      "Ġnot": 5925,
      "Ġnet": 5926,
      "Ġwortlaut": 5927,
      "Ġfestzus": 5928,
      "pare": 5929,
      "Ġzutreffend": 5930,
      "rechtlich": 5931,
      "cco": 5932,
      "Ġentwicklung": 5933,
      "Ġmodifiche": 5934,
      "Ġpresupp": 5935,
      "Ġuberschre": 5936,
      "Ġress": 5937,
      "Ġsauf": 5938,
      "zona": 5939,
      "Ġprincipi": 5940,
      "bric": 5941,
      "Ġjugement": 5942,
      "Ġprasiden": 5943,
      "Ġexisten": 5944,
      "Ġdol": 5945,
      "Ġcouts": 5946,
      "Ġconcessione": 5947,
      "Ġ136": 5948,
      "Ġkeiner": 5949,
      "Ġverwe": 5950,
      "Ġspiel": 5951,
      "dotta": 5952,
      "Ġanders": 5953,
      "Ġpost": 5954,
      "Ġaere": 5955,
      "Ġeinzu": 5956,
      "Ġ138": 5957,
      "Ġaccess": 5958,
      "arten": 5959,
      "elle": 5960,
      "Ġdistin": 5961,
      "Ġgran": 5962,
      "Ġarzt": 5963,
      "Ġrund": 5964,
      "Ġintra": 5965,
      "Ġkonk": 5966,
      "Ġeviden": 5967,
      "Ġangenommen": 5968,
      "Ġsimili": 5969,
      "ammlung": 5970,
      "Ġvorgenommen": 5971,
      "Ġassicuratore": 5972,
      "Ġvigil": 5973,
      "Ġvehicules": 5974,
      "Ġweniger": 5975,
      "geme": 5976,
      "Ġessai": 5977,
      "Ġee": 5978,
      "Ġaziend": 5979,
      "Ġ1979": 5980,
      "Ġother": 5981,
      "Ġparticipation": 5982,
      "Ġdestine": 5983,
      "Ġdettagli": 5984,
      "ple": 5985,
      "sel": 5986,
      "Ġsamt": 5987,
      "Ġelettr": 5988,
      "uc": 5989,
      "wohl": 5990,
      "Ġuguale": 5991,
      "reibung": 5992,
      "Ġvous": 5993,
      "Ġdirection": 5994,
      "Ġaccordi": 5995,
      "Ġhaupt": 5996,
      "Ġabzu": 5997,
      "issant": 5998,
      "ciales": 5999,
      "gni": 6000,
      "Ġincon": 6001,
      "onia": 6002,
      "urante": 6003,
      "Ġnamen": 6004,
      "Ġtelle": 6005,
      "Ġbebau": 6006,
      "Ġpostu": 6007,
      "Ġhera": 6008,
      "critto": 6009,
      "Ġfinanziaria": 6010,
      "Ġbeach": 6011,
      "Ġunfall": 6012,
      "Ġprom": 6013,
      "Ġottenere": 6014,
      "Ġlingua": 6015,
      "gent": 6016,
      "Ġsuccessivo": 6017,
      "Ġvertrau": 6018,
      "Ġable": 6019,
      "Ġconsta": 6020,
      "Ġassemble": 6021,
      "Ġbie": 6022,
      "Ġtechnique": 6023,
      "Ġteneur": 6024,
      "mentation": 6025,
      "Ġvinc": 6026,
      "dert": 6027,
      "Ġbeneficia": 6028,
      "Ġmodification": 6029,
      "Ġirre": 6030,
      "Ġresso": 6031,
      "Ġdeparte": 6032,
      "Ġarch": 6033,
      "Ġpotuto": 6034,
      "Ġaffaires": 6035,
      "Ġmme": 6036,
      "Ġhinreichend": 6037,
      "Ġneue": 6038,
      "ungsanspruch": 6039,
      "Ġunabhangig": 6040,
      "ling": 6041,
      "Ġspra": 6042,
      "Ġgarantie": 6043,
      "Ġ142": 6044,
      "gehend": 6045,
      "fd": 6046,
      "rente": 6047,
      "Ġactions": 6048,
      "tande": 6049,
      "dies": 6050,
      "Ġpflege": 6051,
      "Ġverpflichtung": 6052,
      "Ġmensili": 6053,
      "stelle": 6054,
      "Ġequipe": 6055,
      "Ġ137": 6056,
      "magne": 6057,
      "Ġreci": 6058,
      "Ġunterzeich": 6059,
      "81": 6060,
      "Ġtor": 6061,
      "Ġreten": 6062,
      "Ġinternet": 6063,
      "Ġchiede": 6064,
      "racht": 6065,
      "Ġinchiesta": 6066,
      "Ġevol": 6067,
      "Ġessen": 6068,
      "Ġstrateg": 6069,
      "Ġtres": 6070,
      "Ġwirk": 6071,
      "Ġgrava": 6072,
      "Ðº": 6073,
      "ttes": 6074,
      "Ġsh": 6075,
      "Ġprestations": 6076,
      "ssatz": 6077,
      "hofs": 6078,
      "Ġalta": 6079,
      "schein": 6080,
      "Ġvege": 6081,
      "Ġeinfuhr": 6082,
      "ciation": 6083,
      "durre": 6084,
      "Ġseite": 6085,
      "Ġ700": 6086,
      "Ġbeso": 6087,
      "Ġeleva": 6088,
      "Ġremplace": 6089,
      "Ġmonaten": 6090,
      "quels": 6091,
      "verle": 6092,
      "Ġpolitique": 6093,
      "Ġfut": 6094,
      "prochen": 6095,
      "ĠÏ": 6096,
      "Ġcens": 6097,
      "Ġsostanze": 6098,
      "Ġcrediti": 6099,
      "Ġnun": 6100,
      "Ġenergia": 6101,
      "toria": 6102,
      "Ġsoumis": 6103,
      "Ġassociation": 6104,
      "zusch": 6105,
      "udica": 6106,
      "Ġmol": 6107,
      "maÃŁnahmen": 6108,
      "Ġanderes": 6109,
      "Ġapplicano": 6110,
      "Ġbov": 6111,
      "Ġobjek": 6112,
      "Ġregolamenta": 6113,
      "Ġexclusion": 6114,
      "Ġamende": 6115,
      "forme": 6116,
      "Ġente": 6117,
      "Ã¸": 6118,
      "Ġnecessaria": 6119,
      "Ġacco": 6120,
      "Ġallgeme": 6121,
      "quete": 6122,
      "fehler": 6123,
      "84": 6124,
      "Ġerklarung": 6125,
      "leitung": 6126,
      "Ġbasis": 6127,
      "Ġvigilanza": 6128,
      "Ġcircolazione": 6129,
      "Ġausgeschlossen": 6130,
      "Ġpresentare": 6131,
      "Ġafferma": 6132,
      "Ġqualifi": 6133,
      "Ġapprovazione": 6134,
      "reichen": 6135,
      "Ġinfortunio": 6136,
      "Ġfinale": 6137,
      "Ġgewahrle": 6138,
      "Ġindipendente": 6139,
      "Ġappendice": 6140,
      "tatigkeit": 6141,
      "Ġwettbewer": 6142,
      "Ġix": 6143,
      "Ġeffectu": 6144,
      "Ġjustice": 6145,
      "Ġvari": 6146,
      "Ġmil": 6147,
      "Ġpian": 6148,
      "ancelli": 6149,
      "Ġpoids": 6150,
      "Ġdeuxieme": 6151,
      "Ġprejudice": 6152,
      "Ġinteressati": 6153,
      "Ġtemper": 6154,
      "Ġcere": 6155,
      "Ġprogr": 6156,
      "ly": 6157,
      "Ġanalisi": 6158,
      "langt": 6159,
      "Ġpriv": 6160,
      "Ġstabilire": 6161,
      "Ġtempes": 6162,
      "zeuge": 6163,
      "Ġprocedere": 6164,
      "Ġprincipale": 6165,
      "Ġrechtsschutz": 6166,
      "Ġproduttori": 6167,
      "Ġpoter": 6168,
      "Ġnello": 6169,
      "Ġinterieur": 6170,
      "Ġoriginaires": 6171,
      "Ġallemagne": 6172,
      "enen": 6173,
      "ator": 6174,
      "angs": 6175,
      "Ġpours": 6176,
      "Ġmilioni": 6177,
      "Ġrif": 6178,
      "Ġltd": 6179,
      "Ġbuchst": 6180,
      "Ġ1978": 6181,
      "Ġerwag": 6182,
      "Ġprevista": 6183,
      "Ġhr": 6184,
      "vs": 6185,
      "Ġrequ": 6186,
      "Ġkonkreten": 6187,
      "Ġgrenz": 6188,
      "Ġsocietes": 6189,
      "Ġsystem": 6190,
      "wirkungen": 6191,
      "arbeitung": 6192,
      "Ġaufenthalts": 6193,
      "Ġ140": 6194,
      "73": 6195,
      "Ġmel": 6196,
      "Ġ154": 6197,
      "Ġ128": 6198,
      "Ġnouveau": 6199,
      "Ġhttp": 6200,
      "Ġdimin": 6201,
      "Ġnotif": 6202,
      "Ġcau": 6203,
      "Ġkostenentscheidung": 6204,
      "Ġescluso": 6205,
      "Ġconfir": 6206,
      "Ġentschieden": 6207,
      "lander": 6208,
      "Ġgrand": 6209,
      "Ġcampo": 6210,
      "Ġhalt": 6211,
      "Ġsicht": 6212,
      "Ġstrumenti": 6213,
      "Ġsuivants": 6214,
      "Ġalcuni": 6215,
      "Ġetranger": 6216,
      "Ġdestinati": 6217,
      "áĥĶáĥ": 6218,
      "Ġeventu": 6219,
      "Ġabi": 6220,
      "Ġbestimmte": 6221,
      "erien": 6222,
      "merk": 6223,
      "kunfte": 6224,
      "Ġcommunication": 6225,
      "Ġstam": 6226,
      "Ġ1981": 6227,
      "Ġallgemeine": 6228,
      "Ġaufnahme": 6229,
      "Ġfois": 6230,
      "Ġsatis": 6231,
      "Ġdefiniti": 6232,
      "Ġdars": 6233,
      "Ġgemeinsamen": 6234,
      "rats": 6235,
      "zeitig": 6236,
      "amenti": 6237,
      "Ġestra": 6238,
      "Ġdispositivo": 6239,
      "Ġinternationale": 6240,
      "Ġprocessuali": 6241,
      "Ġordre": 6242,
      "versorg": 6243,
      "osim": 6244,
      "Ġcompetenza": 6245,
      "Ġgerichte": 6246,
      "Ġsollen": 6247,
      "Ġolg": 6248,
      "Ġentita": 6249,
      "Ġbehaup": 6250,
      "fecht": 6251,
      "Ġangegeben": 6252,
      "Ġoffentlich": 6253,
      "Ġcarta": 6254,
      "Ġdarin": 6255,
      "Ġfondamenta": 6256,
      "antrag": 6257,
      "Ġindire": 6258,
      "Ġexam": 6259,
      "itor": 6260,
      "Ġ148": 6261,
      "Ġ1976": 6262,
      "ĠgroÃŁ": 6263,
      "Ġhon": 6264,
      "Ġkrit": 6265,
      "Ġtatsachlichen": 6266,
      "gebie": 6267,
      "Ġgegebenenfalls": 6268,
      "Ġdessus": 6269,
      "pli": 6270,
      "ena": 6271,
      "Ġinspe": 6272,
      "volmente": 6273,
      "Ġseques": 6274,
      "Ġair": 6275,
      "Ġbudget": 6276,
      "Ġcum": 6277,
      "Ġpregiudi": 6278,
      "pend": 6279,
      "Ġubertragen": 6280,
      "77": 6281,
      "Ġcompon": 6282,
      "Ġbleiben": 6283,
      "Ġersatz": 6284,
      "Ġunions": 6285,
      "llus": 6286,
      "Ġregierungs": 6287,
      "Ġcontractantes": 6288,
      "utet": 6289,
      "Ġcircu": 6290,
      "fests": 6291,
      "Ġmoyens": 6292,
      "erheb": 6293,
      "Ġbetreffend": 6294,
      "Ġwon": 6295,
      "genehmig": 6296,
      "Ġgebaude": 6297,
      "bene": 6298,
      "Ġaupres": 6299,
      "ĠschlieÃŁlich": 6300,
      "Ġ160": 6301,
      "Ġsemplice": 6302,
      "Ġlef": 6303,
      "Ġapparten": 6304,
      "ager": 6305,
      "tellungs": 6306,
      "Ġries": 6307,
      "nie": 6308,
      "Ġcouver": 6309,
      "itt": 6310,
      "Ġauftrag": 6311,
      "Ġrappresentante": 6312,
      "Ġfacili": 6313,
      "Ġunite": 6314,
      "Ġlabor": 6315,
      "Ġausgenommen": 6316,
      "Ġconfermato": 6317,
      "Ġoffens": 6318,
      "anges": 6319,
      "Ġarri": 6320,
      "Ġverwende": 6321,
      "maÃŁigkeit": 6322,
      "lation": 6323,
      "Ġbesitz": 6324,
      "Ġss": 6325,
      "Ġ800": 6326,
      "adigung": 6327,
      "betrag": 6328,
      "Ġwor": 6329,
      "Ġportu": 6330,
      "Ġpasse": 6331,
      "Ġame": 6332,
      "Ġausschuss": 6333,
      "61": 6334,
      "Ġurteile": 6335,
      "erement": 6336,
      "lei": 6337,
      "Ġerfolgen": 6338,
      "Ġadeguata": 6339,
      "Ġriconoscimento": 6340,
      "Ġfili": 6341,
      "Ġeltern": 6342,
      "Ġenthalt": 6343,
      "Ġmenzion": 6344,
      "Ġsuperfic": 6345,
      "iatr": 6346,
      "werte": 6347,
      "dits": 6348,
      "nu": 6349,
      "Ġdatore": 6350,
      "Ġther": 6351,
      "Ġtrasforma": 6352,
      "Ġtatigkeiten": 6353,
      "Ġbeeintrachtig": 6354,
      "Ġorganismi": 6355,
      "duto": 6356,
      "messa": 6357,
      "Ġrechtsstre": 6358,
      "Ġsachverstandigen": 6359,
      "Ġinizio": 6360,
      "Ġporte": 6361,
      "Ġgeld": 6362,
      "Ġreguli": 6363,
      "91": 6364,
      "Ġgenere": 6365,
      "zeugen": 6366,
      "Ġvormaterialien": 6367,
      "Îº": 6368,
      "widrig": 6369,
      "Ġinformazione": 6370,
      "Ġlog": 6371,
      "proz": 6372,
      "Ġtonne": 6373,
      "bildungs": 6374,
      "Ġsanitar": 6375,
      "Ġverletzt": 6376,
      "Ġdecorrere": 6377,
      "Ġansicht": 6378,
      "Ġanspruche": 6379,
      "Ġconsegna": 6380,
      "Ġsha": 6381,
      "Ġsomma": 6382,
      "Ġhochs": 6383,
      "Ġfinanzie": 6384,
      "Ġimportation": 6385,
      "Ġ320": 6386,
      "Ġimpianti": 6387,
      "tigte": 6388,
      "98": 6389,
      "Ġgesundheit": 6390,
      "Ġjudiciaire": 6391,
      "Ġtermes": 6392,
      "Ġzeugen": 6393,
      "blatt": 6394,
      "Ġmarkt": 6395,
      "Ġbewertung": 6396,
      "Ġoffentliche": 6397,
      "Ġcollo": 6398,
      "Ġverwendet": 6399,
      "Ġesse": 6400,
      "60": 6401,
      "Ġlucra": 6402,
      "mittelt": 6403,
      "92": 6404,
      "Ġpermanente": 6405,
      "Ġwonach": 6406,
      "Ġvarie": 6407,
      "Ġdomande": 6408,
      "ĠausschlieÃŁlich": 6409,
      "kraf": 6410,
      "Ġproposito": 6411,
      "angehor": 6412,
      "Ġahn": 6413,
      "Ġbuchstabe": 6414,
      "Ġfisch": 6415,
      "Ġfornire": 6416,
      "Ġeinsatz": 6417,
      "Ġprocesso": 6418,
      "auÃŁer": 6419,
      "Ġrens": 6420,
      "gages": 6421,
      "ĠregelmaÃŁig": 6422,
      "uche": 6423,
      "Ġorganismes": 6424,
      "Ġverz": 6425,
      "Ġadap": 6426,
      "Ġbeis": 6427,
      "Ġmotivazione": 6428,
      "Ġrz": 6429,
      "bestimmungen": 6430,
      "Ġgminy": 6431,
      "arbeits": 6432,
      "indest": 6433,
      "elo": 6434,
      "Ġposta": 6435,
      "Ġgene": 6436,
      "Ġkol": 6437,
      "Ġtyp": 6438,
      "hnen": 6439,
      "Ġrempli": 6440,
      "Ġremun": 6441,
      "Ġtravaille": 6442,
      "Ġeau": 6443,
      "Ġoriginari": 6444,
      "Ġordinanza": 6445,
      "Ġbure": 6446,
      "Ġsofor": 6447,
      "zon": 6448,
      "Ġ134": 6449,
      "cole": 6450,
      "Ġriun": 6451,
      "brauch": 6452,
      "Ġporto": 6453,
      "Ġabb": 6454,
      "Ġpers": 6455,
      "Ġlegislazione": 6456,
      "frage": 6457,
      "ggio": 6458,
      "Ġtravaux": 6459,
      "Ġpolizia": 6460,
      "Ġossia": 6461,
      "Ġemploi": 6462,
      "Ġprive": 6463,
      "erklarung": 6464,
      "Ġdaran": 6465,
      "Ġprend": 6466,
      "the": 6467,
      "Ġrilevante": 6468,
      "Ġdipenden": 6469,
      "Ġpotrebbe": 6470,
      "Ġdienstleistungen": 6471,
      "Ġderiva": 6472,
      "Ġmacch": 6473,
      "aufs": 6474,
      "Ġberechnung": 6475,
      "Ġrenseig": 6476,
      "cca": 6477,
      "ĠpoÅĤ": 6478,
      "Ġliefer": 6479,
      "einbarung": 6480,
      "Ġerre": 6481,
      "Ġseu": 6482,
      "Ġobiettivi": 6483,
      "Ġdimostra": 6484,
      "truttura": 6485,
      "Ġoeuvre": 6486,
      "orse": 6487,
      "Ġcivil": 6488,
      "Ġrespect": 6489,
      "Ġsam": 6490,
      "Ġchim": 6491,
      "ziato": 6492,
      "Ġluxe": 6493,
      "Ġcase": 6494,
      "Ġzumindest": 6495,
      "Ġmodu": 6496,
      "Ġdeterminato": 6497,
      "Ġpoly": 6498,
      "Ġconcord": 6499,
      "Ġunzulassig": 6500,
      "Ġpersonali": 6501,
      "Ġgeh": 6502,
      "Ġechange": 6503,
      "nova": 6504,
      "Ġerteilt": 6505,
      "isons": 6506,
      "Ġstock": 6507,
      "Ġlv": 6508,
      "Ġ2022": 6509,
      "Ġcompter": 6510,
      "Ġobjectifs": 6511,
      "Ġbeschlusses": 6512,
      "Ġpropri": 6513,
      "Ġconsequence": 6514,
      "Ġsalvo": 6515,
      "moglichkeit": 6516,
      "Ġmt": 6517,
      "57": 6518,
      "Ġfile": 6519,
      "Ġ0094": 6520,
      "Ġimportante": 6521,
      "Ġprovin": 6522,
      "Ġerklart": 6523,
      "Ġsechs": 6524,
      "Ġcomunitario": 6525,
      "schnitt": 6526,
      "Ġmonate": 6527,
      "anderung": 6528,
      "Ġeinzelheiten": 6529,
      "Ġricord": 6530,
      "Ġresponsabile": 6531,
      "Ġdk": 6532,
      "Ġbanque": 6533,
      "Ġprescrizioni": 6534,
      "Ġcambia": 6535,
      "Ġdurchgefuhrt": 6536,
      "Ġflucht": 6537,
      "66": 6538,
      "Ġcertific": 6539,
      "Ġsetzt": 6540,
      "Ġmaj": 6541,
      "Ġutilises": 6542,
      "Ġinstituant": 6543,
      "Ġgeeignet": 6544,
      "propr": 6545,
      "Ġlicen": 6546,
      "Ġmerk": 6547,
      "bet": 6548,
      "Ġcompetentes": 6549,
      "Ġencore": 6550,
      "fie": 6551,
      "arbe": 6552,
      "Ġvg": 6553,
      "erseits": 6554,
      "Ġecheant": 6555,
      "Ġpubblicazione": 6556,
      "Ġmenschen": 6557,
      "Ġciascuna": 6558,
      "Ġconsoli": 6559,
      "achen": 6560,
      "Ġzustandige": 6561,
      "Ġexemption": 6562,
      "Ġajo": 6563,
      "Ġaccusa": 6564,
      "Ġapproprie": 6565,
      "entr": 6566,
      "Ġ1972": 6567,
      "bringung": 6568,
      "Ġcostituisce": 6569,
      "grenze": 6570,
      "Ġconformi": 6571,
      "Ġgiudici": 6572,
      "Ġdouanier": 6573,
      "Ġpratica": 6574,
      "Ġcontractante": 6575,
      "Ġwiederhol": 6576,
      "anzi": 6577,
      "Ġcostruzione": 6578,
      "ugh": 6579,
      "Ġprufen": 6580,
      "Ġanlass": 6581,
      "Ġmots": 6582,
      "erv": 6583,
      "ĠÂ°": 6584,
      "Ġporta": 6585,
      "prache": 6586,
      "osti": 6587,
      "Ġenregistre": 6588,
      "Ġdott": 6589,
      "Ġcriteres": 6590,
      "Ġaurait": 6591,
      "Ġsgg": 6592,
      "Ġangesichts": 6593,
      "Ġsegnatamente": 6594,
      "Ġstellungnahme": 6595,
      "Ġdifficolta": 6596,
      "Ġenvironnement": 6597,
      "Ġdeutlich": 6598,
      "Ġwege": 6599,
      "Ġbleibt": 6600,
      "Ġbat": 6601,
      "Ġentgelt": 6602,
      "til": 6603,
      "Ġnecessari": 6604,
      "uration": 6605,
      "Ġpflich": 6606,
      "llate": 6607,
      "Ġlettere": 6608,
      "Ġministre": 6609,
      "Ġaffin": 6610,
      "Ġmetal": 6611,
      "Ġcircon": 6612,
      "Ġrembo": 6613,
      "Ġdeco": 6614,
      "kammer": 6615,
      "Ġabgele": 6616,
      "Ġrichtung": 6617,
      "Ġvorgetragen": 6618,
      "Ġimpon": 6619,
      "Ġwith": 6620,
      "toffe": 6621,
      "wegen": 6622,
      "Ġregierung": 6623,
      "urre": 6624,
      "Ġrespec": 6625,
      "Ġmodifications": 6626,
      "ystem": 6627,
      "Ġpubblici": 6628,
      "Ġkurz": 6629,
      "Ġ720": 6630,
      "Ġpal": 6631,
      "Ġzinsen": 6632,
      "Ġmillions": 6633,
      "Ġfg": 6634,
      "Ġtecniche": 6635,
      "Ġvermogens": 6636,
      "olarmente": 6637,
      "Ġexemple": 6638,
      "Ġistrut": 6639,
      "Ġfranc": 6640,
      "Ġrichieste": 6641,
      "Ð´": 6642,
      "Ġfinanziari": 6643,
      "Ġpretura": 6644,
      "ichter": 6645,
      "Ġsuss": 6646,
      "Ġ520": 6647,
      "Ġenf": 6648,
      "Ġprofilo": 6649,
      "Ġinternationalen": 6650,
      "Ġrecom": 6651,
      "Ġistituto": 6652,
      "Ġrecuper": 6653,
      "Ġfinancement": 6654,
      "Ġtasso": 6655,
      "Ġbenutz": 6656,
      "Ġmitgliedstaat": 6657,
      "ssier": 6658,
      "fahig": 6659,
      "Ġverte": 6660,
      "54": 6661,
      "Ġabus": 6662,
      "Ġbefin": 6663,
      "Ġeinzelfall": 6664,
      "Ġriporta": 6665,
      "mus": 6666,
      "Ġgb": 6667,
      "Ġaccords": 6668,
      "ables": 6669,
      "teller": 6670,
      "ial": 6671,
      "Ġanhalts": 6672,
      "Ġriconosciuto": 6673,
      "adig": 6674,
      "Ġweiterhin": 6675,
      "Ġovvero": 6676,
      "Ġ1968": 6677,
      "ex": 6678,
      "Ġpermesso": 6679,
      "Ġuberwie": 6680,
      "Ġtransit": 6681,
      "lige": 6682,
      "Ġvit": 6683,
      "Ġstaaten": 6684,
      "Ġerteilung": 6685,
      "Ġdistur": 6686,
      "Ġparten": 6687,
      "Ġaltres": 6688,
      "Ġobbligat": 6689,
      "bliche": 6690,
      "Ġmarg": 6691,
      "Ġmettre": 6692,
      "Ġdemandes": 6693,
      "Ġausges": 6694,
      "ape": 6695,
      "ium": 6696,
      "Ġresto": 6697,
      "Ġpt": 6698,
      "voc": 6699,
      "Ġnachdem": 6700,
      "Ġpresentata": 6701,
      "fanger": 6702,
      "Ġterme": 6703,
      "Ġrembours": 6704,
      "lehr": 6705,
      "Ġxi": 6706,
      "Ġaltresi": 6707,
      "Ġcomuni": 6708,
      "Ġcaratteris": 6709,
      "Ġproba": 6710,
      "Ġexis": 6711,
      "Ġphysi": 6712,
      "ĠÃĹ": 6713,
      "Ġ139": 6714,
      "linien": 6715,
      "gerung": 6716,
      "ibilite": 6717,
      "indung": 6718,
      "Ġfonde": 6719,
      "Ġimporti": 6720,
      "cheidet": 6721,
      "Ġtelefon": 6722,
      "Ġfamilien": 6723,
      "Ġtf": 6724,
      "atzung": 6725,
      "Ġpapier": 6726,
      "Ġausgangs": 6727,
      "Ġvollstandig": 6728,
      "uman": 6729,
      "Ġausbildung": 6730,
      "Ġentscheidungen": 6731,
      "Ġproblema": 6732,
      "Ġlequel": 6733,
      "Ġconte": 6734,
      "Ġgibt": 6735,
      "Ġregione": 6736,
      "jenigen": 6737,
      "Ġuk": 6738,
      "Ġgeboten": 6739,
      "Ġintende": 6740,
      "Ġdiplom": 6741,
      "Ġanhor": 6742,
      "Ġentstanden": 6743,
      "Ġfestge": 6744,
      "Ġattraverso": 6745,
      "anta": 6746,
      "Ġacqua": 6747,
      "Ġanalyse": 6748,
      "gas": 6749,
      "versicherungs": 6750,
      "Ġrestri": 6751,
      "Ġnavig": 6752,
      "Ġkra": 6753,
      "Ġriferimenti": 6754,
      "Ġdiscuss": 6755,
      "Ġindicare": 6756,
      "Ġesito": 6757,
      "Ġsopp": 6758,
      "Ġausgegangen": 6759,
      "isches": 6760,
      "Ġcondam": 6761,
      "Ġpatrimon": 6762,
      "iser": 6763,
      "ersta": 6764,
      "iles": 6765,
      "wider": 6766,
      "Ġausubung": 6767,
      "kation": 6768,
      "Ġaffinche": 6769,
      "Ġindag": 6770,
      "Ġhilfe": 6771,
      "Ġprise": 6772,
      "zuge": 6773,
      "Ġnehmen": 6774,
      "ckt": 6775,
      "Ġanalog": 6776,
      "Ġregional": 6777,
      "ok": 6778,
      "platz": 6779,
      "Ġresultats": 6780,
      "genden": 6781,
      "Ġeroff": 6782,
      "Ġbstbl": 6783,
      "Ġcompensazione": 6784,
      "tivita": 6785,
      "vertre": 6786,
      "daten": 6787,
      "Ġcandi": 6788,
      "Ġunito": 6789,
      "Ġameli": 6790,
      "pflege": 6791,
      "Ġambiente": 6792,
      "ÏĤ": 6793,
      "Ġhandel": 6794,
      "Ġdargelegt": 6795,
      "Ġsum": 6796,
      "Ġkapitel": 6797,
      "302": 6798,
      "uri": 6799,
      "Ġove": 6800,
      "Ġamministrativa": 6801,
      "Ġaccertamento": 6802,
      "Ġpatroc": 6803,
      "verordnung": 6804,
      "terieure": 6805,
      "kontro": 6806,
      "atorio": 6807,
      "Ġdritten": 6808,
      "Ġpieces": 6809,
      "Ġmedesimo": 6810,
      "ĠmaÃŁnahme": 6811,
      "Ġerwerbs": 6812,
      "Ġmodifi": 6813,
      "Ġhaushalts": 6814,
      "ĠstraÃŁen": 6815,
      "Ġauswahl": 6816,
      "Ġsais": 6817,
      "eno": 6818,
      "Ġchacun": 6819,
      "Ġpreten": 6820,
      "unternehmen": 6821,
      "Ġomologazione": 6822,
      "Ġage": 6823,
      "Ġorts": 6824,
      "Ġepo": 6825,
      "Ġnl": 6826,
      "Ġpubblicata": 6827,
      "tg": 6828,
      "Ġverlangen": 6829,
      "Ġerlassen": 6830,
      "arzt": 6831,
      "Ġerbra": 6832,
      "Ġreti": 6833,
      "Ġverosim": 6834,
      "Ġcontratti": 6835,
      "hle": 6836,
      "Ġeingefugt": 6837,
      "kunfts": 6838,
      "Ġrisorse": 6839,
      "Ġpolizei": 6840,
      "Ġdopp": 6841,
      "unsten": 6842,
      "bild": 6843,
      "Ġanspruchs": 6844,
      "Ġespece": 6845,
      "Ġspater": 6846,
      "Ġutile": 6847,
      "Ġfoto": 6848,
      "Ġrisoluzione": 6849,
      "uiti": 6850,
      "Ġsostan": 6851,
      "Ġilleg": 6852,
      "51": 6853,
      "Ġzweiten": 6854,
      "Ġ131": 6855,
      "Ġvorlage": 6856,
      "Ġkommentar": 6857,
      "Ġfinanziamento": 6858,
      "mettere": 6859,
      "Ġconstate": 6860,
      "Ġappal": 6861,
      "Ġbs": 6862,
      "ptions": 6863,
      "Ġauszugehen": 6864,
      "Ġcontrolli": 6865,
      "Ġhaupts": 6866,
      "Ġsystemes": 6867,
      "handlungen": 6868,
      "Ġerkennt": 6869,
      "Ġscambio": 6870,
      "Ġsatisfa": 6871,
      "Ġstandard": 6872,
      "machung": 6873,
      "Ġcertificat": 6874,
      "Ġbehande": 6875,
      "Ġuberprufung": 6876,
      "Ġabschie": 6877,
      "52": 6878,
      "76": 6879,
      "Ġsomme": 6880,
      "Ġdeterminazione": 6881,
      "Ġcombus": 6882,
      "atoria": 6883,
      "zufuhren": 6884,
      "pc": 6885,
      "Ġtritt": 6886,
      "zr": 6887,
      "ziente": 6888,
      "Ġprufungs": 6889,
      "Ġconge": 6890,
      "Ġrelevant": 6891,
      "laubiger": 6892,
      "Ġlf": 6893,
      "vven": 6894,
      "Ġfragen": 6895,
      "gemeinschaft": 6896,
      "Ġnumer": 6897,
      "Ġrisque": 6898,
      "cche": 6899,
      "Ġapprezza": 6900,
      "tier": 6901,
      "ateurs": 6902,
      "Ġpublica": 6903,
      "Ġparticolari": 6904,
      "Ġvalutare": 6905,
      "fft": 6906,
      "auftrag": 6907,
      "taggio": 6908,
      "op": 6909,
      "Ġvergutung": 6910,
      "ffene": 6911,
      "Ġpote": 6912,
      "Ġsuperficie": 6913,
      "Ġnachweis": 6914,
      "Ġabgewiesen": 6915,
      "Ġnormale": 6916,
      "ws": 6917,
      "Ġnorve": 6918,
      "Ġmortgages": 6919,
      "ru": 6920,
      "Ġfissato": 6921,
      "Ġrevoca": 6922,
      "auff": 6923,
      "Ġangabe": 6924,
      "Ġfrank": 6925,
      "Ġbrutto": 6926,
      "Ġmention": 6927,
      "rankungen": 6928,
      "pub": 6929,
      "Ġconstitue": 6930,
      "Ġsoddisfa": 6931,
      "Ġfuori": 6932,
      "Ġnomina": 6933,
      "ivi": 6934,
      "Ġposti": 6935,
      "Ġprak": 6936,
      "kasse": 6937,
      "Ġceca": 6938,
      "Ġ180": 6939,
      "72": 6940,
      "Ġubers": 6941,
      "Ġevita": 6942,
      "Ġdomes": 6943,
      "Ġemployeur": 6944,
      "dauer": 6945,
      "Ġsem": 6946,
      "Ġgravame": 6947,
      "ologia": 6948,
      "Ġschen": 6949,
      "Ġcu": 6950,
      "genti": 6951,
      "Ġcontenant": 6952,
      "Ġasilo": 6953,
      "Ġscadenza": 6954,
      "Î»": 6955,
      "vertrags": 6956,
      "troffene": 6957,
      "Ġinflu": 6958,
      "Ġzugang": 6959,
      "glia": 6960,
      "Ġminima": 6961,
      "Ġdeutschen": 6962,
      "Ġgewahrung": 6963,
      "Ġmusse": 6964,
      "71": 6965,
      "fahrt": 6966,
      "Ġfunktion": 6967,
      "Ġaccolto": 6968,
      "Ġmoglie": 6969,
      "Ġzucch": 6970,
      "301": 6971,
      "igra": 6972,
      "Ġdomicilio": 6973,
      "inaire": 6974,
      "Ġdichiara": 6975,
      "ummer": 6976,
      "bedingungen": 6977,
      "Ġkonz": 6978,
      "Ġterra": 6979,
      "Ġusine": 6980,
      "tsche": 6981,
      "Ġpartecip": 6982,
      "Ġprocede": 6983,
      "anstalt": 6984,
      "Ġsolcher": 6985,
      "Ġconformite": 6986,
      "Ġgerecht": 6987,
      "anze": 6988,
      "Ġparziale": 6989,
      "Ġwirtschaftlichen": 6990,
      "Ġdagegen": 6991,
      "Ġfibres": 6992,
      "Ġressources": 6993,
      "Ġinvestimenti": 6994,
      "Ġremuner": 6995,
      "Ġsubven": 6996,
      "Ġzustimmung": 6997,
      "Ġcategor": 6998,
      "Ġallegati": 6999,
      "Ġimpiego": 7000,
      "pflichtigen": 7001,
      "Ġdruck": 7002,
      "aren": 7003,
      "Ġjug": 7004,
      "Ġlei": 7005,
      "Ġgul": 7006,
      "Ġstudien": 7007,
      "Ġrecipro": 7008,
      "Ġfestzustellen": 7009,
      "Ġmezzo": 7010,
      "Ġbezogen": 7011,
      "Ġfont": 7012,
      "Ġindic": 7013,
      "prozess": 7014,
      "Ġgs": 7015,
      "agli": 7016,
      "Ġeffettivamente": 7017,
      "Ġrapporti": 7018,
      "Ġrichiesto": 7019,
      "Ġprevu": 7020,
      "Ġbvr": 7021,
      "Ġschiff": 7022,
      "Ġfigurant": 7023,
      "Ġspazio": 7024,
      "iÃŁ": 7025,
      "rige": 7026,
      "Ġmg": 7027,
      "Ġrischi": 7028,
      "Ġfigur": 7029,
      "Ġzentra": 7030,
      "truzioni": 7031,
      "hesion": 7032,
      "Ġoneri": 7033,
      "Ġperdita": 7034,
      "ette": 7035,
      "Ġmodificata": 7036,
      "Ġfournit": 7037,
      "Ġsoddisf": 7038,
      "Ġcho": 7039,
      "Ġgele": 7040,
      "Ġoperazione": 7041,
      "Ġumsatz": 7042,
      "Ġindicazione": 7043,
      "Ġgrat": 7044,
      "Ġnucle": 7045,
      "Ġaccep": 7046,
      "Ġtableau": 7047,
      "Ġsalario": 7048,
      "Ġchiara": 7049,
      "Ġexportation": 7050,
      "Ġherstellen": 7051,
      "Ġlander": 7052,
      "Ġ173": 7053,
      "Ġfindet": 7054,
      "herr": 7055,
      "Ġdurchfuhr": 7056,
      "Ġtutela": 7057,
      "Ġconsumo": 7058,
      "Ġerziel": 7059,
      "Ġmitge": 7060,
      "df": 7061,
      "Ġargu": 7062,
      "see": 7063,
      "ungser": 7064,
      "Ġerkennbar": 7065,
      "usel": 7066,
      "griffen": 7067,
      "Ġfehlt": 7068,
      "Ġerle": 7069,
      "Ġdossier": 7070,
      "Ġumstanden": 7071,
      "Ġkir": 7072,
      "ĠdaÃŁ": 7073,
      "Ġpertinenti": 7074,
      "Ġconoscenza": 7075,
      "Ġdeterminare": 7076,
      "Ġadozione": 7077,
      "Ġ1971": 7078,
      "Ġchie": 7079,
      "Ġopera": 7080,
      "Ġkunden": 7081,
      "tellten": 7082,
      "Ġdeja": 7083,
      "Ġpercen": 7084,
      "Ġreconna": 7085,
      "Ġvortrag": 7086,
      "Ġsaranno": 7087,
      "Ġerfullung": 7088,
      "teten": 7089,
      "Ġnebst": 7090,
      "lastung": 7091,
      "wiesen": 7092,
      "Ġbri": 7093,
      "ond": 7094,
      "Ġinforme": 7095,
      "Ġhervor": 7096,
      "Ġelettron": 7097,
      "Ġpreso": 7098,
      "Ġbut": 7099,
      "falle": 7100,
      "Ġcalcul": 7101,
      "95": 7102,
      "Ġnessuna": 7103,
      "Ġprises": 7104,
      "Ġresponsabilite": 7105,
      "Ġgerichtshof": 7106,
      "Ġindicati": 7107,
      "Ġmobili": 7108,
      "Ġvorgesehenen": 7109,
      "Ġautonom": 7110,
      "Ġlimites": 7111,
      "Ġlicenza": 7112,
      "Ġprefer": 7113,
      "Ġbelgique": 7114,
      "Ġaktien": 7115,
      "tances": 7116,
      "willig": 7117,
      "zeitraum": 7118,
      "Ġgelt": 7119,
      "Ġbestehenden": 7120,
      "mitglie": 7121,
      "Ġpc": 7122,
      "Ġpreis": 7123,
      "Ġlandwirtschaft": 7124,
      "verkehrs": 7125,
      "Ġimpegno": 7126,
      "Ġpru": 7127,
      "Ġunternehmens": 7128,
      "Ġbeteiligung": 7129,
      "Ġidone": 7130,
      "Ġparame": 7131,
      "Ġgaz": 7132,
      "Ġbro": 7133,
      "kur": 7134,
      "ĠordnungsgemaÃŁ": 7135,
      "Ġkontrolle": 7136,
      "Ġew": 7137,
      "Ġricorrenti": 7138,
      "zulegen": 7139,
      "ennzeich": 7140,
      "Ġpp": 7141,
      "Ġspor": 7142,
      "Ġ900": 7143,
      "ele": 7144,
      "Ġcentre": 7145,
      "dien": 7146,
      "Ġthis": 7147,
      "lex": 7148,
      "Ġtreffen": 7149,
      "hil": 7150,
      "ost": 7151,
      "Ġleben": 7152,
      "Ġzones": 7153,
      "Ġeccezione": 7154,
      "Ġmercati": 7155,
      "Ġorganismo": 7156,
      "kreis": 7157,
      "tandiger": 7158,
      "Ġecc": 7159,
      "Ġamelior": 7160,
      "Ġdallo": 7161,
      "Ġpaziente": 7162,
      "Ġeigene": 7163,
      "Ġberat": 7164,
      "Ġgemeinden": 7165,
      "cente": 7166,
      "Ġpon": 7167,
      "fiques": 7168,
      "Ġgesellschaf": 7169,
      "Ġprogetti": 7170,
      "mr": 7171,
      "Ġesigen": 7172,
      "Ġplas": 7173,
      "mor": 7174,
      "Ġechanges": 7175,
      "Ġchius": 7176,
      "Ġuberwach": 7177,
      "Ġrete": 7178,
      "Ġfestgesetzt": 7179,
      "Ġrestituzione": 7180,
      "Ġzwangs": 7181,
      "Ġrap": 7182,
      "Ġbli": 7183,
      "vegli": 7184,
      "Ġconclusions": 7185,
      "Ġpolitica": 7186,
      "Ġsper": 7187,
      "Ġsucc": 7188,
      "Ġalles": 7189,
      "tat": 7190,
      "Ġ620": 7191,
      "Ġforza": 7192,
      "Ġsuppor": 7193,
      "Ġimportanza": 7194,
      "Ġdeterminante": 7195,
      "gangenen": 7196,
      "65": 7197,
      "áĥĺáĥ": 7198,
      "zzare": 7199,
      "Ġgara": 7200,
      "Ġeid": 7201,
      "Ġindu": 7202,
      "Ġburger": 7203,
      "Ġlato": 7204,
      "Ġverlus": 7205,
      "Ġaumento": 7206,
      "ultur": 7207,
      "truktur": 7208,
      "Ġattrice": 7209,
      "Ġsalva": 7210,
      "Ġuns": 7211,
      "ctivement": 7212,
      "tiere": 7213,
      "80": 7214,
      "Ġpropres": 7215,
      "87": 7216,
      "damento": 7217,
      "Ġconiug": 7218,
      "truct": 7219,
      "coli": 7220,
      "Ġrepar": 7221,
      "Ġverwendeten": 7222,
      "Ġcess": 7223,
      "Ġverm": 7224,
      "Ġprecedenti": 7225,
      "Ġsaint": 7226,
      "Ġbeschlusse": 7227,
      "attu": 7228,
      "Ġministero": 7229,
      "ĠmaÃŁgabe": 7230,
      "Ġrecante": 7231,
      "Ġstima": 7232,
      "Ġmassnahmen": 7233,
      "iori": 7234,
      "Ġcorrespond": 7235,
      "Ġeinrichtung": 7236,
      "Ġbezuglich": 7237,
      "Ġtrotz": 7238,
      "Ġassistance": 7239,
      "Ġindirizzo": 7240,
      "Ġcapital": 7241,
      "Ġsport": 7242,
      "Ġabsence": 7243,
      "Ġ1967": 7244,
      "Ġgelegen": 7245,
      "haup": 7246,
      "werk": 7247,
      "Ġvoie": 7248,
      "zahlt": 7249,
      "orge": 7250,
      "Ġsarebbero": 7251,
      "Ġdeliber": 7252,
      "vfg": 7253,
      "gazioni": 7254,
      "Ġnationalen": 7255,
      "nommen": 7256,
      "Ġgravi": 7257,
      "Ġcontraenti": 7258,
      "Ġbiens": 7259,
      "Ġorganisme": 7260,
      "Ġfres": 7261,
      "Ġassociazione": 7262,
      "Ġattuale": 7263,
      "Ġallem": 7264,
      "bation": 7265,
      "Ġsimila": 7266,
      "lange": 7267,
      "Ġlucrativa": 7268,
      "Ġprovvedimento": 7269,
      "Ġdebito": 7270,
      "Ġausreichend": 7271,
      "Ġtitu": 7272,
      "Ġrispon": 7273,
      "ogno": 7274,
      "ball": 7275,
      "Ġerhalt": 7276,
      "Ġattore": 7277,
      "Ġerkennen": 7278,
      "Ġshall": 7279,
      "Ġrelazioni": 7280,
      "Ġconcluso": 7281,
      "trifft": 7282,
      "aggi": 7283,
      "Ġcitata": 7284,
      "Ġgeschlossen": 7285,
      "letzt": 7286,
      "Ġdisoccu": 7287,
      "Ġeinschlag": 7288,
      "Ġlibre": 7289,
      "Ġgroup": 7290,
      "Ġterritoria": 7291,
      "Ġita": 7292,
      "Ġfacon": 7293,
      "Ġwelcher": 7294,
      "Ġprofessionnelle": 7295,
      "Ġinsieme": 7296,
      "inee": 7297,
      "itori": 7298,
      "ordnet": 7299,
      "Ġsospensione": 7300,
      "Ġ1973": 7301,
      "Ġpreuve": 7302,
      "Ġscel": 7303,
      "Ġassun": 7304,
      "Ġlai": 7305,
      "Ġemissions": 7306,
      "Ġhierfur": 7307,
      "Ġtun": 7308,
      "Ġbal": 7309,
      "Ġalt": 7310,
      "ehen": 7311,
      "mettre": 7312,
      "Ġderoga": 7313,
      "Ġorganisations": 7314,
      "Ġ1974": 7315,
      "Ġapparecchi": 7316,
      "tter": 7317,
      "Ġparis": 7318,
      "Ġritenere": 7319,
      "Ġmaniera": 7320,
      "Ġzwecke": 7321,
      "Ġletzt": 7322,
      "inale": 7323,
      "Ġaufsichts": 7324,
      "Ġimportations": 7325,
      "Ġmio": 7326,
      "ĠâĢ¢": 7327,
      "Ġdiven": 7328,
      "Ġmehrere": 7329,
      "Ġ146": 7330,
      "Ġinstance": 7331,
      "Ġdefinizione": 7332,
      "aa": 7333,
      "chets": 7334,
      "Ġpublics": 7335,
      "umere": 7336,
      "Ġcaratteristiche": 7337,
      "Ġconstruction": 7338,
      "Ġverhin": 7339,
      "Ġanhaltspunkte": 7340,
      "frut": 7341,
      "zure": 7342,
      "Ġanzuwenden": 7343,
      "Ġconstata": 7344,
      "funk": 7345,
      "Ġderar": 7346,
      "Ġintermedia": 7347,
      "Ġstgb": 7348,
      "Ġparzialmente": 7349,
      "Ġerb": 7350,
      "Ġbegrenz": 7351,
      "Ġulteriore": 7352,
      "Ġproposition": 7353,
      "bahn": 7354,
      "Ġfestsetzung": 7355,
      "Ġrica": 7356,
      "tretto": 7357,
      "Ġrenseignements": 7358,
      "Ġrichter": 7359,
      "79": 7360,
      "xx": 7361,
      "Ġpret": 7362,
      "Ġoffensichtlich": 7363,
      "Ġsorvegli": 7364,
      "Ġmodifiee": 7365,
      "Ġmotor": 7366,
      "Ġesecutivo": 7367,
      "cao": 7368,
      "Ġripr": 7369,
      "messi": 7370,
      "Ġmedio": 7371,
      "vocato": 7372,
      "raient": 7373,
      "ĠauÃŁerdem": 7374,
      "Ġfase": 7375,
      "Ġrechtliche": 7376,
      "uter": 7377,
      "Ġsocial": 7378,
      "Ġprecise": 7379,
      "Ġabroge": 7380,
      "Ġrr": 7381,
      "fge": 7382,
      "Ġmemes": 7383,
      "nische": 7384,
      "Ġgebrauch": 7385,
      "Ġvanno": 7386,
      "Ġtrager": 7387,
      "Ġfigura": 7388,
      "Ġattiva": 7389,
      "Ġzuruckgewiesen": 7390,
      "Ġminer": 7391,
      "messens": 7392,
      "Ġcifra": 7393,
      "Ġstessi": 7394,
      "Ġfigli": 7395,
      "Ġvorinstanz": 7396,
      "Ġcontenenti": 7397,
      "Ġquestioni": 7398,
      "Ġschuld": 7399,
      "Ġuhr": 7400,
      "áĥĲáĥ": 7401,
      "Ġvorgaben": 7402,
      "Ġact": 7403,
      "Ġsonstigen": 7404,
      "88": 7405,
      "Ġnuove": 7406,
      "Ġavendo": 7407,
      "uratore": 7408,
      "akte": 7409,
      "vin": 7410,
      "Ġfrom": 7411,
      "Ġ141": 7412,
      "Ġerzeugnisse": 7413,
      "gende": 7414,
      "Ġappareils": 7415,
      "Ġubereins": 7416,
      "Ġaao": 7417,
      "Ġpotere": 7418,
      "Ġewg": 7419,
      "Ġinsu": 7420,
      "Ġfrancese": 7421,
      "Ġzuletzt": 7422,
      "Ġapplicare": 7423,
      "Ġartific": 7424,
      "Ġtat": 7425,
      "Ġmodello": 7426,
      "ppe": 7427,
      "Ġdichiarazioni": 7428,
      "Ġinvestissement": 7429,
      "ria": 7430,
      "Ġfrancaise": 7431,
      "Ġdeclare": 7432,
      "Ġmateriel": 7433,
      "zone": 7434,
      "punkten": 7435,
      "ped": 7436,
      "Ġnov": 7437,
      "Ġnem": 7438,
      "Ġaufenthg": 7439,
      "Ġagenzia": 7440,
      "Ġprojets": 7441,
      "Ġdescrizione": 7442,
      "ĠmaÃŁgeblichen": 7443,
      "Ġautorizzato": 7444,
      "Ġirr": 7445,
      "ordin": 7446,
      "ateur": 7447,
      "Ġpraxis": 7448,
      "llin": 7449,
      "Ġmanc": 7450,
      "Ġretro": 7451,
      "lleurs": 7452,
      "Ġfacolta": 7453,
      "Ġnous": 7454,
      "Ġetablissements": 7455,
      "Ġutilis": 7456,
      "Ġmone": 7457,
      "gestellte": 7458,
      "Ġciascuno": 7459,
      "Ġbenef": 7460,
      "ĠâĢĺ": 7461,
      "Ġsecond": 7462,
      "Ġveterin": 7463,
      "selben": 7464,
      "char": 7465,
      "Ġprogrammes": 7466,
      "Ġaspe": 7467,
      "Ġsiehe": 7468,
      "Ġanderungen": 7469,
      "Ġvar": 7470,
      "Ġwahrschein": 7471,
      "tums": 7472,
      "Ġprime": 7473,
      "landes": 7474,
      "Ġchange": 7475,
      "tuellement": 7476,
      "regelung": 7477,
      "Ġfonctions": 7478,
      "icole": 7479,
      "Ġeng": 7480,
      "Ġsemb": 7481,
      "Ġbverfge": 7482,
      "Ġpresentazione": 7483,
      "Ġcontrovers": 7484,
      "uridic": 7485,
      "Ġangeklagte": 7486,
      "Ġverwaltung": 7487,
      "tenti": 7488,
      "Ġestime": 7489,
      "Ġtextiles": 7490,
      "Ġheraus": 7491,
      "Ġtatig": 7492,
      "Ġbus": 7493,
      "Ġfinancier": 7494,
      "Ġbezie": 7495,
      "Ġailleurs": 7496,
      "Ġanteil": 7497,
      "Ġrevisions": 7498,
      "Ġraggiung": 7499,
      "Ġwh": 7500,
      "Ġfoi": 7501,
      "Ġabgabe": 7502,
      "tos": 7503,
      "Ġschweizerischen": 7504,
      "Ġruss": 7505,
      "Ġboden": 7506,
      "telles": 7507,
      "ungspflicht": 7508,
      "Ġequity": 7509,
      "sche": 7510,
      "Ġmolto": 7511,
      "Ġerlau": 7512,
      "Ġreato": 7513,
      "Ġeuropaische": 7514,
      "Ġvorhaben": 7515,
      "blie": 7516,
      "Ġsap": 7517,
      "crizione": 7518,
      "Ġconsiderata": 7519,
      "Ġcommunique": 7520,
      "Ġaudi": 7521,
      "Ġgesichts": 7522,
      "Ġnachvoll": 7523,
      "tria": 7524,
      "Ġandern": 7525,
      "Ġinstallations": 7526,
      "Ġmecc": 7527,
      "liefer": 7528,
      "Ġecrit": 7529,
      "Ġprem": 7530,
      "Ġ145": 7531,
      "Ġangefochtene": 7532,
      "betrieb": 7533,
      "Ġverwiesen": 7534,
      "Ġjugend": 7535,
      "Ġfid": 7536,
      "Ġindicazioni": 7537,
      "Ġsozr": 7538,
      "Ġrealizzazione": 7539,
      "00000": 7540,
      "Ġrev": 7541,
      "Ġcontesto": 7542,
      "Ġentnehmen": 7543,
      "tech": 7544,
      "Ġintimazione": 7545,
      "Ġmission": 7546,
      "Ġfruher": 7547,
      "gesetzten": 7548,
      "arbeiten": 7549,
      "Ġjuridic": 7550,
      "Ġtanto": 7551,
      "Ġprim": 7552,
      "Ġtage": 7553,
      "vors": 7554,
      "Ġbeitrage": 7555,
      "Ġeleve": 7556,
      "Ġrestric": 7557,
      "Ġfrancs": 7558,
      "entale": 7559,
      "lievo": 7560,
      "ssant": 7561,
      "Ġinterro": 7562,
      "Ġwohnung": 7563,
      "hyl": 7564,
      "Ġschadensersatz": 7565,
      "reise": 7566,
      "Ġerforderliche": 7567,
      "Ġcres": 7568,
      "Ġtri": 7569,
      "Ġparalle": 7570,
      "igkeiten": 7571,
      "kunde": 7572,
      "behandlung": 7573,
      "Ġbetreu": 7574,
      "Ġstudio": 7575,
      "itari": 7576,
      "Ġfinden": 7577,
      "Ġbt": 7578,
      "Ġdirecteur": 7579,
      "Ġhintergrund": 7580,
      "stande": 7581,
      "Ġinqu": 7582,
      "Ġstehenden": 7583,
      "Ġregeln": 7584,
      "geschrieben": 7585,
      "Ġpausch": 7586,
      "Ġimmediatamente": 7587,
      "Ġpercep": 7588,
      "iller": 7589,
      "Ġinvi": 7590,
      "Ġspecifiques": 7591,
      "rang": 7592,
      "Ġexception": 7593,
      "dy": 7594,
      "62": 7595,
      "Ġrilascio": 7596,
      "Ġache": 7597,
      "Ġivi": 7598,
      "Ġ143": 7599,
      "Ġappliquent": 7600,
      "Ġbeschwerdefuhrerin": 7601,
      "Ġaccorde": 7602,
      "Ġprob": 7603,
      "Ġanzus": 7604,
      "tete": 7605,
      "Ġcentro": 7606,
      "Ġgemachten": 7607,
      "Ġbisherigen": 7608,
      "Ġschriftlich": 7609,
      "Ġnova": 7610,
      "Ġouvra": 7611,
      "Ġprevi": 7612,
      "vollmachtigten": 7613,
      "Ġprogrammi": 7614,
      "Ġcompos": 7615,
      "Ġkonig": 7616,
      "genehmigung": 7617,
      "Ġcarni": 7618,
      "Ġberufungsgericht": 7619,
      "Ġua": 7620,
      "Ġversamento": 7621,
      "Ġofferta": 7622,
      "Ġtrasferimento": 7623,
      "010": 7624,
      "Ġtariffa": 7625,
      "dendo": 7626,
      "Ġcure": 7627,
      "Ġammissibile": 7628,
      "Ġple": 7629,
      "lazione": 7630,
      "Ġ1970": 7631,
      "Ġinizia": 7632,
      "ciaux": 7633,
      "cepti": 7634,
      "Ġreseau": 7635,
      "Ïī": 7636,
      "atte": 7637,
      "Ġadoption": 7638,
      "Ġermessens": 7639,
      "Ġbge": 7640,
      "Ġspecifico": 7641,
      "Ġreception": 7642,
      "Ġbundesgerichts": 7643,
      "Ġcinque": 7644,
      "Ġobli": 7645,
      "pendant": 7646,
      "Ġcapacite": 7647,
      "haupt": 7648,
      "Ġalimentare": 7649,
      "Ġtonnes": 7650,
      "Ġcomprese": 7651,
      "Ġdarlehens": 7652,
      "Ġrisiko": 7653,
      "Ġevitare": 7654,
      "Ġgef": 7655,
      "Ġidentita": 7656,
      "70": 7657,
      "Ġstabilite": 7658,
      "tations": 7659,
      "ausschuss": 7660,
      "Ġ144": 7661,
      "fertigt": 7662,
      "Ġessenti": 7663,
      "Ġwissenschaft": 7664,
      "Ġkreis": 7665,
      "verhaltnisses": 7666,
      "oir": 7667,
      "esione": 7668,
      "detta": 7669,
      "Ġcosto": 7670,
      "Ġgleichen": 7671,
      "Ġbureau": 7672,
      "agement": 7673,
      "ggia": 7674,
      "Ġstabilita": 7675,
      "Ġtasse": 7676,
      "Ġsegretaria": 7677,
      "lite": 7678,
      "Ġfare": 7679,
      "achtet": 7680,
      "Ġgewinn": 7681,
      "Ġmeglio": 7682,
      "Ġexter": 7683,
      "Ġverme": 7684,
      "Ġacci": 7685,
      "Ġgesundheits": 7686,
      "Ġdisposto": 7687,
      "Ġsuscepti": 7688,
      "benen": 7689,
      "Ġterren": 7690,
      "Ġdepartement": 7691,
      "Ġautant": 7692,
      "Ġfaits": 7693,
      "Ġham": 7694,
      "Ġgrundsatze": 7695,
      "Ġait": 7696,
      "zir": 7697,
      "Ġclin": 7698,
      "Ġgefuhrt": 7699,
      "Ġsachver": 7700,
      "Ġhomolog": 7701,
      "rees": 7702,
      "Ġig": 7703,
      "Ġerstinstanz": 7704,
      "Ġsolleva": 7705,
      "Ġestero": 7706,
      "Ġanimale": 7707,
      "Ġvalere": 7708,
      "Ġbeen": 7709,
      "est": 7710,
      "Ġprecede": 7711,
      "gano": 7712,
      "Ġmainten": 7713,
      "ots": 7714,
      "jour": 7715,
      "Ġarres": 7716,
      "Ġauslander": 7717,
      "Ġviolation": 7718,
      "Ġdiscri": 7719,
      "Ġanschluss": 7720,
      "Ġedu": 7721,
      "ungsplan": 7722,
      "Ġacquisi": 7723,
      "Ġretra": 7724,
      "Ġverpflichtungen": 7725,
      "ense": 7726,
      "flache": 7727,
      "Ġreduction": 7728,
      "Ġrente": 7729,
      "porti": 7730,
      "Ġglobale": 7731,
      "Ġalcune": 7732,
      "Ġdm": 7733,
      "Ġaty": 7734,
      "tritts": 7735,
      "Ġrein": 7736,
      "col": 7737,
      "behorden": 7738,
      "Ġdomma": 7739,
      "Ġinvia": 7740,
      "Ġtechnischen": 7741,
      "Ġeink": 7742,
      "imit": 7743,
      "Ġkam": 7744,
      "Ġbesonders": 7745,
      "Ġvorbehalt": 7746,
      "Ġadministrative": 7747,
      "Ġagence": 7748,
      "Ġoccasione": 7749,
      "Ġumwelt": 7750,
      "Ġelektron": 7751,
      "Ġinteressata": 7752,
      "kap": 7753,
      "peten": 7754,
      "Ġregistro": 7755,
      "Ġproblemi": 7756,
      "Ġcic": 7757,
      "Ġeffettuate": 7758,
      "Ġsetti": 7759,
      "Ġnunmehr": 7760,
      "Ġavvia": 7761,
      "Ġdirectement": 7762,
      "gare": 7763,
      "Ġgesamten": 7764,
      "ullen": 7765,
      "Ġinvestimento": 7766,
      "Ġgeworden": 7767,
      "Ġexcedant": 7768,
      "porre": 7769,
      "Ġcomprend": 7770,
      "Ġrisar": 7771,
      "Ġcela": 7772,
      "Ġbegrunden": 7773,
      "Ġstruttura": 7774,
      "Ġsussi": 7775,
      "Ġcapoverso": 7776,
      "Ġmono": 7777,
      "uelle": 7778,
      "Ġnahe": 7779,
      "log": 7780,
      "Ġnemmeno": 7781,
      "Ġmano": 7782,
      "Ġinfolge": 7783,
      "mee": 7784,
      "Ġapprezzamento": 7785,
      "Ġbos": 7786,
      "Ġletzten": 7787,
      "Ġsignor": 7788,
      "Ġactes": 7789,
      "Ġschuldner": 7790,
      "Ġdefaut": 7791,
      "Ġsuffis": 7792,
      "Ġtransito": 7793,
      "male": 7794,
      "usion": 7795,
      "Ġerge": 7796,
      "Ġgeschutz": 7797,
      "Ġdovrebbero": 7798,
      "Ġsls": 7799,
      "Ġinvalido": 7800,
      "Ġgrundstucks": 7801,
      "Ġgenugt": 7802,
      "Ġinternazionali": 7803,
      "Ġtels": 7804,
      "rechen": 7805,
      "Ġadottare": 7806,
      "Ġincor": 7807,
      "Ġtari": 7808,
      "Ġbesol": 7809,
      "win": 7810,
      "Ġquatre": 7811,
      "hi": 7812,
      "vv": 7813,
      "Ġsettori": 7814,
      "icherung": 7815,
      "Ġadhesion": 7816,
      "Ġespressa": 7817,
      "Ġwiderspruchsbescheid": 7818,
      "Ġwest": 7819,
      "áĥĿ": 7820,
      "Ġnachfol": 7821,
      "Ġdovra": 7822,
      "Ġinvita": 7823,
      "Ġarea": 7824,
      "Ġdazio": 7825,
      "affen": 7826,
      "Ġserait": 7827,
      "Ġverbraucher": 7828,
      "Ġlavoratori": 7829,
      "Ġrechten": 7830,
      "lichung": 7831,
      "vibile": 7832,
      "Ġaffaire": 7833,
      "Ġsino": 7834,
      "voli": 7835,
      "00000000": 7836,
      "Ġslsc": 7837,
      "Ġdoganali": 7838,
      "Ġeinde": 7839,
      "Ġmethode": 7840,
      "Ġreleve": 7841,
      "Ġdane": 7842,
      "Ġkriterien": 7843,
      "cheinigung": 7844,
      "Ġapprobation": 7845,
      "Ġlasi": 7846,
      "Ġnotificazione": 7847,
      "Ġcn": 7848,
      "altro": 7849,
      "Ġsupple": 7850,
      "Ġbeschrankt": 7851,
      "Ġsachverhalt": 7852,
      "Ġ156": 7853,
      "Ġformale": 7854,
      "lor": 7855,
      "Ġsigne": 7856,
      "wirksam": 7857,
      "Ġbundesverwaltungs": 7858,
      "Ġannullamento": 7859,
      "Ġkapital": 7860,
      "verletzung": 7861,
      "att": 7862,
      "Ġpetizione": 7863,
      "Ġtitolare": 7864,
      "Ġbetrifft": 7865,
      "Ġsubito": 7866,
      "Ġverjahr": 7867,
      "Ġmentionne": 7868,
      "Ġacquisto": 7869,
      "Ġfiglio": 7870,
      "Ġmotore": 7871,
      "Ġarbeitsverhaltnis": 7872,
      "Ġannees": 7873,
      "Ġvelo": 7874,
      "Ġdette": 7875,
      "Ġtecnica": 7876,
      "Ġequivalente": 7877,
      "ordnungs": 7878,
      "Ġaccia": 7879,
      "Ġabgeschlossen": 7880,
      "Ġcirconstan": 7881,
      "Ġconcesso": 7882,
      "Ġcoun": 7883,
      "cker": 7884,
      "Ġparagrafi": 7885,
      "Ġesclusivamente": 7886,
      "Ġrepresentant": 7887,
      "Ġbereit": 7888,
      "Ġprincipes": 7889,
      "Ġvoraussetzung": 7890,
      "Ġmic": 7891,
      "Ġnimmt": 7892,
      "Ġdecret": 7893,
      "mm": 7894,
      "Ġperaltro": 7895,
      "dotti": 7896,
      "Ġblick": 7897,
      "Ġgut": 7898,
      "nir": 7899,
      "Ġlungo": 7900,
      "Ġsix": 7901,
      "amb": 7902,
      "96": 7903,
      "muni": 7904,
      "Ġzusch": 7905,
      "Ð¸Ñ": 7906,
      "Ġcoin": 7907,
      "Ġnaher": 7908,
      "Ġtelecom": 7909,
      "weist": 7910,
      "Ġfronte": 7911,
      "kel": 7912,
      "Ġpolice": 7913,
      "Ġprescriptions": 7914,
      "Ġindemnite": 7915,
      "Ġtenendo": 7916,
      "Ġscrit": 7917,
      "Ġrend": 7918,
      "Ġmail": 7919,
      "Ġdechets": 7920,
      "naire": 7921,
      "Ġpublie": 7922,
      "Ġdiversa": 7923,
      "neimit": 7924,
      "Ġpreli": 7925,
      "Ġimmer": 7926,
      "Ġcontrats": 7927,
      "Ġfamiglia": 7928,
      "Ġaumenta": 7929,
      "Ġanalo": 7930,
      "Ġ1969": 7931,
      "Ġzuvor": 7932,
      "Ġsvilupp": 7933,
      "Ġprendere": 7934,
      "program": 7935,
      "Ġazienda": 7936,
      "Ġnormes": 7937,
      "Ġperiodi": 7938,
      "lieÃŁt": 7939,
      "Ġmasse": 7940,
      "Ġpia": 7941,
      "Ġewr": 7942,
      "Ïĥ": 7943,
      "Ġreno": 7944,
      "Ġbeispiel": 7945,
      "Ġrub": 7946,
      "Ġbeantrag": 7947,
      "pruft": 7948,
      "vertrages": 7949,
      "terior": 7950,
      "zif": 7951,
      "Ġteile": 7952,
      "Ġcana": 7953,
      "Ġprivat": 7954,
      "graph": 7955,
      "uble": 7956,
      "als": 7957,
      "Ġobservations": 7958,
      "Ġeffets": 7959,
      "Ġindepend": 7960,
      "2000": 7961,
      "Ġdisponibili": 7962,
      "care": 7963,
      "Ġfibre": 7964,
      "tariat": 7965,
      "Ġchef": 7966,
      "tient": 7967,
      "Ġaventi": 7968,
      "Ġbeschl": 7969,
      "Ġ850": 7970,
      "Ġvorher": 7971,
      "Ġasylg": 7972,
      "Ġâī": 7973,
      "Ġtitoli": 7974,
      "ingt": 7975,
      "gebung": 7976,
      "Ġtardi": 7977,
      "Ġeffettuato": 7978,
      "Ġeffettuare": 7979,
      "Ġcompreso": 7980,
      "niere": 7981,
      "Ġeugh": 7982,
      "Ġvertreter": 7983,
      "tification": 7984,
      "Ġgiuridica": 7985,
      "Ġsocc": 7986,
      "Ġprogn": 7987,
      "entgelt": 7988,
      "Ġcontraire": 7989,
      "Ġgesche": 7990,
      "yes": 7991,
      "Ġdirezione": 7992,
      "Ġjuges": 7993,
      "Ġubereinkommens": 7994,
      "Ġbilater": 7995,
      "Ġsorveglianza": 7996,
      "ffe": 7997,
      "Ġabzuweisen": 7998,
      "Ġfinanciers": 7999,
      "Ġtard": 8000,
      "Ġbaugb": 8001,
      "vocat": 8002,
      "Ġproducts": 8003,
      "Ġprivi": 8004,
      "Ġausser": 8005,
      "ĠauÃŁerhalb": 8006,
      "Ġverf": 8007,
      "Ġnavires": 8008,
      "Ġcliente": 8009,
      "usione": 8010,
      "gul": 8011,
      "Ġfils": 8012,
      "Ġaufwendungen": 8013,
      "Ġ1964": 8014,
      "Ġlocale": 8015,
      "Ġstip": 8016,
      "Ġmandat": 8017,
      "minister": 8018,
      "cchio": 8019,
      "orna": 8020,
      "Ġmwn": 8021,
      "Ġmangels": 8022,
      "Ġmixte": 8023,
      "Ġproviso": 8024,
      "Ġbfhe": 8025,
      "Ġeffettuata": 8026,
      "Ġtv": 8027,
      "Ġfallimento": 8028,
      "cito": 8029,
      "Ġipote": 8030,
      "Ġesclu": 8031,
      "Ġanhand": 8032,
      "neimittel": 8033,
      "Ġlum": 8034,
      "Ġetc": 8035,
      "Ġriparti": 8036,
      "Ġich": 8037,
      "gger": 8038,
      "Ġseulement": 8039,
      "ionamento": 8040,
      "fugung": 8041,
      "Ġbeihilfe": 8042,
      "Ġstpo": 8043,
      "Ġavocat": 8044,
      "ĠauÃŁen": 8045,
      "Ġexerce": 8046,
      "Ġdispositivi": 8047,
      "Ġtelles": 8048,
      "Ġverlangt": 8049,
      "Ġeingere": 8050,
      "fuhrte": 8051,
      "Ġbezeichnet": 8052,
      "Ġ170": 8053,
      "teso": 8054,
      "lia": 8055,
      "Ġfores": 8056,
      "Ġcorrispondente": 8057,
      "Ġarb": 8058,
      "ostante": 8059,
      "cancelli": 8060,
      "Ġuberzeug": 8061,
      "Ġeinst": 8062,
      "Ġusage": 8063,
      "Ġtotali": 8064,
      "Ġvicecancelli": 8065,
      "Ġprofit": 8066,
      "Ġglaub": 8067,
      "Ġdazi": 8068,
      "Ġimpos": 8069,
      "Ġentste": 8070,
      "cation": 8071,
      "Ġstructure": 8072,
      "nummer": 8073,
      "Ġchamp": 8074,
      "Ġkind": 8075,
      "bb": 8076,
      "itats": 8077,
      "Ġsouti": 8078,
      "ennen": 8079,
      "Ġrealisation": 8080,
      "Ġsonstige": 8081,
      "hel": 8082,
      "zzata": 8083,
      "Ġscola": 8084,
      "Ġjedem": 8085,
      "Ġsavoir": 8086,
      "Ġbetragt": 8087,
      "Ġpercentuale": 8088,
      "Ġpenali": 8089,
      "Ġcommunes": 8090,
      "Ġappliquer": 8091,
      "Ġappropria": 8092,
      "absich": 8093,
      "Ġrisques": 8094,
      "Ġreve": 8095,
      "Ġprop": 8096,
      "Ġbetr": 8097,
      "Ġzuzu": 8098,
      "Ġkal": 8099,
      "Ġ162": 8100,
      "Ġorgane": 8101,
      "veur": 8102,
      "Ġfournir": 8103,
      "versorgung": 8104,
      "Ġ151": 8105,
      "Ġauswirkungen": 8106,
      "passung": 8107,
      "Ġnachvollzieh": 8108,
      "Ġuniquement": 8109,
      "Î¹Î±": 8110,
      "ĠmaÃŁsta": 8111,
      "Ġeigentumer": 8112,
      "Ġanhorung": 8113,
      "Ġank": 8114,
      "Ġcinq": 8115,
      "Ġartikels": 8116,
      "Ġpflichten": 8117,
      "llazione": 8118,
      "Ġinteg": 8119,
      "Ġausbildungs": 8120,
      "Ġversicherten": 8121,
      "Ġdifferenz": 8122,
      "Ġlohn": 8123,
      "Ġdurfte": 8124,
      "Ġrive": 8125,
      "Ġregierungsrat": 8126,
      "Ġnachste": 8127,
      "Ġversione": 8128,
      "gene": 8129,
      "vereinbarung": 8130,
      "Ġuf": 8131,
      "Ġrechtsvorschriften": 8132,
      "Ġernst": 8133,
      "Ġmutter": 8134,
      "Ġrapports": 8135,
      "Ġanderem": 8136,
      "Ġlatte": 8137,
      "ting": 8138,
      "Ġemissioni": 8139,
      "bot": 8140,
      "Ġbeide": 8141,
      "Ġbericht": 8142,
      "Ġausweis": 8143,
      "Ġbanc": 8144,
      "schie": 8145,
      "Ġsenten": 8146,
      "Ġerweit": 8147,
      "Ġharmon": 8148,
      "Ġmec": 8149,
      "Ġermachtig": 8150,
      "Ġrinuncia": 8151,
      "Ġbeta": 8152,
      "wasser": 8153,
      "ications": 8154,
      "Ġutilizz": 8155,
      "Ġvollstreckung": 8156,
      "Ġsehr": 8157,
      "Ġarbeiten": 8158,
      "Ġsola": 8159,
      "trices": 8160,
      "Ġnetz": 8161,
      "Ġlsg": 8162,
      "Ġintens": 8163,
      "Ġpsichiatr": 8164,
      "asi": 8165,
      "Ġelement": 8166,
      "Ġmachines": 8167,
      "Ġinstruments": 8168,
      "zum": 8169,
      "Ġhingewiesen": 8170,
      "digungs": 8171,
      "cata": 8172,
      "Ġbern": 8173,
      "ards": 8174,
      "Ġcomprende": 8175,
      "formation": 8176,
      "data": 8177,
      "Ġmithin": 8178,
      "Ġuberhaupt": 8179,
      "Ġricevuto": 8180,
      "Ġvertragssta": 8181,
      "Ġcopia": 8182,
      "Ġsieht": 8183,
      "Ġbuona": 8184,
      "Ġamer": 8185,
      "Ġchiff": 8186,
      "Ġ172": 8187,
      "Ġausschluss": 8188,
      "Ġprol": 8189,
      "Ġquattro": 8190,
      "Ġrechtlich": 8191,
      "Ġprecisato": 8192,
      "Ġcomplessivi": 8193,
      "Ġoctroi": 8194,
      "Ġumsetzung": 8195,
      "Ġparlaments": 8196,
      "preis": 8197,
      "Ġparagraphes": 8198,
      "Ġorgani": 8199,
      "Ġlesquelles": 8200,
      "63": 8201,
      "Ġpuis": 8202,
      "sstelle": 8203,
      "Ġlascia": 8204,
      "Ġmedesima": 8205,
      "cier": 8206,
      "Ġweiteres": 8207,
      "Ġacque": 8208,
      "Ġdisoccupazione": 8209,
      "lita": 8210,
      "Ġgiuridico": 8211,
      "Ġconseguente": 8212,
      "Ġamb": 8213,
      "Ġanfecht": 8214,
      "anwalt": 8215,
      "Ġrucks": 8216,
      "Ġgarantite": 8217,
      "Ġeinstwe": 8218,
      "Ġbese": 8219,
      "Ġsimilaires": 8220,
      "Ġstatut": 8221,
      "Ġconclusion": 8222,
      "Ġrimborso": 8223,
      "Ġcote": 8224,
      "Ġengagements": 8225,
      "ĠÂ±": 8226,
      "Ġkrankenhaus": 8227,
      "Ġ167": 8228,
      "Ġspates": 8229,
      "Ġresponsable": 8230,
      "reiber": 8231,
      "issement": 8232,
      "Ġdefinitiva": 8233,
      "Ġflo": 8234,
      "Ġprevoit": 8235,
      "dence": 8236,
      "Ġrichtet": 8237,
      "Ġladite": 8238,
      "grundlage": 8239,
      "ry": 8240,
      "Ġlitigi": 8241,
      "Ġcredi": 8242,
      "Ġconseguenze": 8243,
      "Ġlangue": 8244,
      "Ġrappro": 8245,
      "Ġdispositif": 8246,
      "Ġengagement": 8247,
      "Ġrefus": 8248,
      "tom": 8249,
      "Ġbeabsich": 8250,
      "Ġstaatsangehor": 8251,
      "Ġinhaber": 8252,
      "Ġglaubiger": 8253,
      "Ġconcernen": 8254,
      "Ġzwingen": 8255,
      "Ġoffre": 8256,
      "Ġimpianto": 8257,
      "Ġaggiudica": 8258,
      "Ġumfasst": 8259,
      "Ġprze": 8260,
      "fordert": 8261,
      "Ġ1966": 8262,
      "Ġfunzioni": 8263,
      "Ġgiudicato": 8264,
      "Ġvolte": 8265,
      "Ġfern": 8266,
      "Ġstatus": 8267,
      "Ġgenau": 8268,
      "Ġpesc": 8269,
      "Ġvalle": 8270,
      "Ġsottos": 8271,
      "Ġesclusi": 8272,
      "Ġapprofon": 8273,
      "Ġvalido": 8274,
      "Ġtessili": 8275,
      "Ġfrem": 8276,
      "Ġavaient": 8277,
      "cimento": 8278,
      "Ġschuler": 8279,
      "legte": 8280,
      "Ġristruttura": 8281,
      "issent": 8282,
      "Ġcomposizione": 8283,
      "Ġpermettre": 8284,
      "zeiten": 8285,
      "Ġmaxima": 8286,
      "ban": 8287,
      "Ġdiv": 8288,
      "Ġeinspruch": 8289,
      "Ġconcernenti": 8290,
      "Ġagricole": 8291,
      "Ġdefinition": 8292,
      "Ġiss": 8293,
      "68": 8294,
      "Ġspatestens": 8295,
      "Ġchem": 8296,
      "Ġfestgelegt": 8297,
      "Ġdistretto": 8298,
      "tigungs": 8299,
      "llata": 8300,
      "Ġerr": 8301,
      "reichende": 8302,
      "Ġbellin": 8303,
      "Ġkindes": 8304,
      "Ġnationales": 8305,
      "Ġargomenta": 8306,
      "Ġrenfor": 8307,
      "Ġmodifiant": 8308,
      "tazioni": 8309,
      "wesen": 8310,
      "Ġ152": 8311,
      "Ġfrancia": 8312,
      "all": 8313,
      "Ġaerien": 8314,
      "Ġdescription": 8315,
      "tex": 8316,
      "Ġerhebliche": 8317,
      "Ġwirtschaftliche": 8318,
      "wiecie": 8319,
      "Ġeconomia": 8320,
      "Ġ155": 8321,
      "Ġspricht": 8322,
      "Ġtan": 8323,
      "Ġ220": 8324,
      "Ġcommunity": 8325,
      "Ġapprouve": 8326,
      "Ġbord": 8327,
      "Ġtraff": 8328,
      "arz": 8329,
      "Ġsynthe": 8330,
      "Ġbgbl": 8331,
      "istente": 8332,
      "Ġbestatigt": 8333,
      "bu": 8334,
      "Ġliege": 8335,
      "Ġarr": 8336,
      "Ġdevrait": 8337,
      "Ġregole": 8338,
      "Ġnulla": 8339,
      "inden": 8340,
      "Ġpresenti": 8341,
      "plans": 8342,
      "Ġ321": 8343,
      "ificazione": 8344,
      "Ġeingetreten": 8345,
      "Ġconsommation": 8346,
      "Ġcompta": 8347,
      "Ġaggiorna": 8348,
      "Ġbonne": 8349,
      "Ġbellinzona": 8350,
      "Ġindividue": 8351,
      "Ġattualmente": 8352,
      "Ġbegrunde": 8353,
      "Ġabgelehnt": 8354,
      "uben": 8355,
      "werts": 8356,
      "Ġzeug": 8357,
      "Ġdeterminer": 8358,
      "mu": 8359,
      "Ġdestines": 8360,
      "Ġregioni": 8361,
      "ziehungs": 8362,
      "freiheit": 8363,
      "naires": 8364,
      "Ġmusste": 8365,
      "Ġtipi": 8366,
      "Ġluxembo": 8367,
      "Ġipotesi": 8368,
      "idung": 8369,
      "verwaltung": 8370,
      "Ġstreitgegenstandlichen": 8371,
      "Ġbefr": 8372,
      "ziert": 8373,
      "Ġpowiecie": 8374,
      "Ġverbess": 8375,
      "reifen": 8376,
      "Ġ147": 8377,
      "Ġdispone": 8378,
      "Ġfidu": 8379,
      "Ġanerkennung": 8380,
      "Ġkonkrete": 8381,
      "Ġaggiunto": 8382,
      "fugnis": 8383,
      "Ġlandgerichts": 8384,
      "Ġcentrali": 8385,
      "Ġaccertamenti": 8386,
      "Ġdavanti": 8387,
      "Ġstesse": 8388,
      "gehalt": 8389,
      "von": 8390,
      "Ġcolonna": 8391,
      "Ġtedes": 8392,
      "Ġrelatifs": 8393,
      "Ġmajor": 8394,
      "Ġutilizzato": 8395,
      "tandnis": 8396,
      "Ġbla": 8397,
      "Ġbulg": 8398,
      "traÃŁe": 8399,
      "Ġinscri": 8400,
      "Ġsollten": 8401,
      "Ġimma": 8402,
      "Ġzuruckzuweisen": 8403,
      "Ġtabelle": 8404,
      "ater": 8405,
      "Ġispe": 8406,
      "Ġmessa": 8407,
      "berechtigten": 8408,
      "Ġpropos": 8409,
      "Ġamtsblatt": 8410,
      "ties": 8411,
      "anspruche": 8412,
      "Ġpoteva": 8413,
      "Ġerwagungen": 8414,
      "Ġbestehe": 8415,
      "quant": 8416,
      "Ġligne": 8417,
      "Ġtiss": 8418,
      "Ġobiettivo": 8419,
      "Ġherrn": 8420,
      "sione": 8421,
      "Ġabbi": 8422,
      "una": 8423,
      "Ġtrasmissione": 8424,
      "Ġhandeln": 8425,
      "Ġ730": 8426,
      "Ġtrat": 8427,
      "Ġcategories": 8428,
      "arbeitet": 8429,
      "ya": 8430,
      "Ġpartner": 8431,
      "Ġmos": 8432,
      "Ġkantonalen": 8433,
      "Ġfournisse": 8434,
      "nehmung": 8435,
      "pothe": 8436,
      "Ġberechtigt": 8437,
      "Ġitaliana": 8438,
      "tze": 8439,
      "Ġverd": 8440,
      "Ġcirculation": 8441,
      "losen": 8442,
      "Ġuberpruf": 8443,
      "Ġ157": 8444,
      "markt": 8445,
      "teriormente": 8446,
      "Ġwies": 8447,
      "ĠmaÃŁgeblich": 8448,
      "Ġrisultato": 8449,
      "ungsverfahrens": 8450,
      "Ġmarito": 8451,
      "Ġfluss": 8452,
      "Ġintera": 8453,
      "Ġfabric": 8454,
      "Ġenquete": 8455,
      "maligen": 8456,
      "Ġvolls": 8457,
      "Ġragioni": 8458,
      "Ġelectri": 8459,
      "Ġperse": 8460,
      "Ġsamtliche": 8461,
      "Ġmotif": 8462,
      "Ġfestlegung": 8463,
      "llon": 8464,
      "Ġermessen": 8465,
      "mante": 8466,
      "del": 8467,
      "ppure": 8468,
      "Ġmaladie": 8469,
      "was": 8470,
      "Ġprivaten": 8471,
      "Ġriti": 8472,
      "Ġtraffico": 8473,
      "Ġcontrad": 8474,
      "Ġvisant": 8475,
      "uzioni": 8476,
      "Ġmunicipio": 8477,
      "tellungen": 8478,
      "Ġheures": 8479,
      "hlen": 8480,
      "Ġnormativa": 8481,
      "Ġmitteilung": 8482,
      "ontan": 8483,
      "Ġtest": 8484,
      "iezione": 8485,
      "Ġefficace": 8486,
      "Ġbeitrag": 8487,
      "agt": 8488,
      "Ġscor": 8489,
      "Ġprofessionali": 8490,
      "Ġnutzungs": 8491,
      "Ġcharges": 8492,
      "Ġsoggior": 8493,
      "Ġcommunautaires": 8494,
      "Ġaggiun": 8495,
      "Ġverificare": 8496,
      "Ġnotwendigen": 8497,
      "Ġlor": 8498,
      "Ġresol": 8499,
      "Ġschie": 8500,
      "apie": 8501,
      "jahres": 8502,
      "Ġragionevolmente": 8503,
      "oltura": 8504,
      "Ġbewilligung": 8505,
      "zionalita": 8506,
      "Ġintroduit": 8507,
      "Ġtreu": 8508,
      "Ġ1000": 8509,
      "Ġermittlung": 8510,
      "Ġrigetto": 8511,
      "Ġsuccessivamente": 8512,
      "Ġsvr": 8513,
      "Ġdiparti": 8514,
      "genannten": 8515,
      "Ġriba": 8516,
      "Ġwich": 8517,
      "feld": 8518,
      "Ġcontraria": 8519,
      "alis": 8520,
      "Ġsito": 8521,
      "Ġaffec": 8522,
      "Ġcompagn": 8523,
      "ccio": 8524,
      "Ġconcession": 8525,
      "Ġaccusato": 8526,
      "giques": 8527,
      "Ġeconomiques": 8528,
      "Ġeinger": 8529,
      "iges": 8530,
      "Ġnonostante": 8531,
      "Ġpouvait": 8532,
      "Ġrau": 8533,
      "Ġalto": 8534,
      "Ġversorgung": 8535,
      "repub": 8536,
      "Ġconsiderati": 8537,
      "Ġaccogli": 8538,
      "Ġsvolgere": 8539,
      "Ġmodificare": 8540,
      "trafe": 8541,
      "Ġcomportamento": 8542,
      "gegeben": 8543,
      "Ġ185": 8544,
      "Ġmanuten": 8545,
      "Ġutilizzo": 8546,
      "Ġunstre": 8547,
      "Ġbetroffene": 8548,
      "darfs": 8549,
      "Ġresulte": 8550,
      "82": 8551,
      "loss": 8552,
      "Ġlignes": 8553,
      "Ġmandato": 8554,
      "Ġfrancais": 8555,
      "Ġerfasst": 8556,
      "Ġpato": 8557,
      "Ġumfass": 8558,
      "Ġmia": 8559,
      "Ġfischere": 8560,
      "Ġgehalten": 8561,
      "Ġ169": 8562,
      "Ġamtsgericht": 8563,
      "Ġprotokolls": 8564,
      "indre": 8565,
      "Ġeinmal": 8566,
      "bilmente": 8567,
      "eni": 8568,
      "Ġlegt": 8569,
      "Ġbeigeladene": 8570,
      "Ġverfolg": 8571,
      "ddo": 8572,
      "Ġzustand": 8573,
      "Ġwochen": 8574,
      "Ġsubstanti": 8575,
      "Ġintegrazione": 8576,
      "Ġbesteuer": 8577,
      "Ġwettbewerbs": 8578,
      "Ġdele": 8579,
      "uvant": 8580,
      "Ġsitue": 8581,
      "Ġfornitura": 8582,
      "Ġeidgen": 8583,
      "Ġ722": 8584,
      "ungsantrag": 8585,
      "seits": 8586,
      "Ġ210": 8587,
      "Ġpublication": 8588,
      "Ġbois": 8589,
      "Ġsite": 8590,
      "Ġtagen": 8591,
      "Ġzahlungs": 8592,
      "Ġconcl": 8593,
      "Ġtfa": 8594,
      "Ġmiet": 8595,
      "igne": 8596,
      "wurf": 8597,
      "Ġberufen": 8598,
      "taf": 8599,
      "Ġcomunale": 8600,
      "Ġ190": 8601,
      "Ġconformes": 8602,
      "Ġadesione": 8603,
      "mise": 8604,
      "Ġbesoins": 8605,
      "Ġcasa": 8606,
      "Ġlag": 8607,
      "Ġ401": 8608,
      "Ġindicate": 8609,
      "Ġstranier": 8610,
      "Î¼": 8611,
      "kommission": 8612,
      "wahr": 8613,
      "Ġalimentari": 8614,
      "Ġenonce": 8615,
      "Ġdivie": 8616,
      "Ġfgo": 8617,
      "Ġaufzuheben": 8618,
      "Ġrechnungs": 8619,
      "Ġgiornali": 8620,
      "Ġtonnellate": 8621,
      "ttungs": 8622,
      "Ġavviso": 8623,
      "Ġerfolgte": 8624,
      "Ġautomo": 8625,
      "wehr": 8626,
      "Ġfaveur": 8627,
      "Ġvergut": 8628,
      "Ġ153": 8629,
      "Ġ610": 8630,
      "Ġmaggiore": 8631,
      "Ġgewo": 8632,
      "Ġsubstances": 8633,
      "Ġreal": 8634,
      "Ġausgleichs": 8635,
      "Ġquote": 8636,
      "pfung": 8637,
      "Ġcittadini": 8638,
      "inati": 8639,
      "fragen": 8640,
      "Ġsettiman": 8641,
      "unci": 8642,
      "Ġsoluzione": 8643,
      "Ġquestions": 8644,
      "Ġesigenze": 8645,
      "Ġdig": 8646,
      "Ġ611": 8647,
      "lichkeits": 8648,
      "Ġcontroles": 8649,
      "Ġreser": 8650,
      "Ġexceder": 8651,
      "Ġsubi": 8652,
      "Ġdanni": 8653,
      "ungsbehorde": 8654,
      "Ġappr": 8655,
      "alt": 8656,
      "Ġbundesgericht": 8657,
      "Ġtextes": 8658,
      "Ġsalarie": 8659,
      "Ġdestinazione": 8660,
      "Ġberlin": 8661,
      "Ġmitgeteilt": 8662,
      "Ġhydro": 8663,
      "Ġanzahl": 8664,
      "Ġvet": 8665,
      "Ġpropre": 8666,
      "Ñĥ": 8667,
      "Ġministere": 8668,
      "aden": 8669,
      "plica": 8670,
      "Ġbeteili": 8671,
      "Ġgesellschafter": 8672,
      "Ġstrom": 8673,
      "Ġvorsitz": 8674,
      "gate": 8675,
      "Ġjedes": 8676,
      "Ġdirettore": 8677,
      "Ġersche": 8678,
      "Ġedifica": 8679,
      "gerecht": 8680,
      "Ġristrutturazione": 8681,
      "Ġespa": 8682,
      "Ġidentif": 8683,
      "tsta": 8684,
      "Ġubergangs": 8685,
      "Ġpericolo": 8686,
      "Ġtitel": 8687,
      "Ġblan": 8688,
      "Ġregions": 8689,
      "Ġ159": 8690,
      "Ġcontribuente": 8691,
      "ings": 8692,
      "Ġelemento": 8693,
      "Ġchiedere": 8694,
      "Ġdisturbi": 8695,
      "Ġach": 8696,
      "gerech": 8697,
      "flachen": 8698,
      "Ġendgul": 8699,
      "late": 8700,
      "Ġaggra": 8701,
      "Ġ550": 8702,
      "Ġmcy": 8703,
      "Ġderniere": 8704,
      "Ġsiege": 8705,
      "ungsvertrag": 8706,
      "Ġerreicht": 8707,
      "Ġspecial": 8708,
      "Ġbeanstanden": 8709,
      "Ġstabiliti": 8710,
      "Ġinstallation": 8711,
      "Ġrechtfertigen": 8712,
      "Ġesistenti": 8713,
      "cho": 8714,
      "Ġbundesamt": 8715,
      "Ġconfederazione": 8716,
      "Ġ165": 8717,
      "Ġbezieht": 8718,
      "mas": 8719,
      "Ġcell": 8720,
      "werden": 8721,
      "ners": 8722,
      "Ġerteil": 8723,
      "dom": 8724,
      "Ġesaminare": 8725,
      "Ġadop": 8726,
      "Ġimball": 8727,
      "lari": 8728,
      "sein": 8729,
      "Ġ161": 8730,
      "erlaubnis": 8731,
      "Ġsostituito": 8732,
      "Ġderivanti": 8733,
      "Ġistruttoria": 8734,
      "Ġformuli": 8735,
      "Ġdecidere": 8736,
      "Ġtaf": 8737,
      "Ġancien": 8738,
      "Ġfourni": 8739,
      "Ġsostiene": 8740,
      "Ġursprungs": 8741,
      "Ġpresa": 8742,
      "Ġpom": 8743,
      "Ġverble": 8744,
      "Ġforce": 8745,
      "Ġavs": 8746,
      "kri": 8747,
      "Ġkonigreich": 8748,
      "Ġdiagnosi": 8749,
      "Ġcertificati": 8750,
      "Ġangegriffen": 8751,
      "Ġvorste": 8752,
      "Ġwechsel": 8753,
      "hezza": 8754,
      "Ġammontare": 8755,
      "Ġcaracteris": 8756,
      "duta": 8757,
      "gehende": 8758,
      "Ġsupera": 8759,
      "Ġoa": 8760,
      "Ġpermis": 8761,
      "Ġaeuv": 8762,
      "Ġconsiderare": 8763,
      "Ġbverw": 8764,
      "Ġviole": 8765,
      "Ġditta": 8766,
      "Ġia": 8767,
      "Ġprincipali": 8768,
      "alender": 8769,
      "Ġcontractant": 8770,
      "barer": 8771,
      "Ġbverwge": 8772,
      "bon": 8773,
      "Ġarbitra": 8774,
      "Ġdublin": 8775,
      "Ġarbeitszeit": 8776,
      "minare": 8777,
      "Ġprivato": 8778,
      "laires": 8779,
      "ude": 8780,
      "Ġsvizzero": 8781,
      "Ġmisto": 8782,
      "Ġrequer": 8783,
      "Ġjustifie": 8784,
      "Ġziti": 8785,
      "gruppen": 8786,
      "Ġdeciso": 8787,
      "inare": 8788,
      "Ġecu": 8789,
      "Ġ1963": 8790,
      "Ġic": 8791,
      "Ġdesignation": 8792,
      "Ġaliqu": 8793,
      "ordnen": 8794,
      "unfahigkeit": 8795,
      "Ġaffid": 8796,
      "Ġwiders": 8797,
      "langen": 8798,
      "Ġassicurati": 8799,
      "Ġandererseits": 8800,
      "Ġzumut": 8801,
      "Ġobjectif": 8802,
      "Ġarzneimittel": 8803,
      "taus": 8804,
      "Ġmacchine": 8805,
      "Ġmonte": 8806,
      "ften": 8807,
      "Ġmasch": 8808,
      "Ġtroisieme": 8809,
      "Ġsoggetto": 8810,
      "Ġaudit": 8811,
      "gange": 8812,
      "Ġsil": 8813,
      "Ġcontribution": 8814,
      "Ġproceder": 8815,
      "Ġzugleich": 8816,
      "Ġaussage": 8817,
      "verfassungs": 8818,
      "Ġ158": 8819,
      "Ġpubbliche": 8820,
      "Ġ1962": 8821,
      "Ġexistence": 8822,
      "Ġcompetence": 8823,
      "esa": 8824,
      "Ġbassi": 8825,
      "Ġexc": 8826,
      "Ġdetail": 8827,
      "ckung": 8828,
      "Ġinterventi": 8829,
      "Ġerste": 8830,
      "assen": 8831,
      "urgo": 8832,
      "Ġanwendbar": 8833,
      "Ġreso": 8834,
      "Ġsequestro": 8835,
      "Ġcompiti": 8836,
      "schule": 8837,
      "Ġadottate": 8838,
      "lg": 8839,
      "osen": 8840,
      "Ġtemporane": 8841,
      "Ġobtenir": 8842,
      "Ġimpot": 8843,
      "Ġnouvelles": 8844,
      "Ġstation": 8845,
      "Ġlesquels": 8846,
      "sitz": 8847,
      "trici": 8848,
      "bestimmung": 8849,
      "Ġeventualmente": 8850,
      "Ġvorgelegten": 8851,
      "Ġgerichtlichen": 8852,
      "Ġermitt": 8853,
      "Ġindes": 8854,
      "Ġzusatzlich": 8855,
      "Ġriguardanti": 8856,
      "bri": 8857,
      "gebau": 8858,
      "cule": 8859,
      "umen": 8860,
      "Ġadeguate": 8861,
      "inf": 8862,
      "republik": 8863,
      "nel": 8864,
      "Ġprealable": 8865,
      "Ġgam": 8866,
      "Ġ193": 8867,
      "Ġchir": 8868,
      "uchs": 8869,
      "cola": 8870,
      "itaires": 8871,
      "Ġdinanzi": 8872,
      "Ġportug": 8873,
      "Ġspecifici": 8874,
      "Ġzulassige": 8875,
      "abile": 8876,
      "hner": 8877,
      "schrift": 8878,
      "Ġinteressate": 8879,
      "Ġcongi": 8880,
      "Ġappena": 8881,
      "Ġdib": 8882,
      "Ġasy": 8883,
      "Ġprovenienti": 8884,
      "Ġsatzung": 8885,
      "Ġdemander": 8886,
      "Ġaspetti": 8887,
      "Ġraccolta": 8888,
      "tite": 8889,
      "Ġnave": 8890,
      "Ġpermettant": 8891,
      "Ġduss": 8892,
      "zeichen": 8893,
      "Ġstrada": 8894,
      "Ġcollec": 8895,
      "licite": 8896,
      "Ġsorte": 8897,
      "Ġagreement": 8898,
      "ativo": 8899,
      "Ġpositi": 8900,
      "klarung": 8901,
      "Ġvorlaufig": 8902,
      "ĠverauÃŁer": 8903,
      "Ġwohl": 8904,
      "Ġio": 8905,
      "Ġanz": 8906,
      "Ġculture": 8907,
      "Ġopere": 8908,
      "Ġudi": 8909,
      "Ġunternehmer": 8910,
      "ligkeit": 8911,
      "Ġerfullen": 8912,
      "Ġbru": 8913,
      "Ġcostante": 8914,
      "Ġpossano": 8915,
      "Ġpossibilite": 8916,
      "Ġdesignazione": 8917,
      "Ġbewerber": 8918,
      "Ġ174": 8919,
      "Ġutilizzare": 8920,
      "kar": 8921,
      "umes": 8922,
      "ster": 8923,
      "Ġsignature": 8924,
      "Ġconsente": 8925,
      "Ġwenig": 8926,
      "beruf": 8927,
      "Ġoperatori": 8928,
      "nutz": 8929,
      "nehmers": 8930,
      "Ġ1965": 8931,
      "lichkeiten": 8932,
      "Ġhandele": 8933,
      "Ġdifferenza": 8934,
      "critta": 8935,
      "graf": 8936,
      "Ġvoci": 8937,
      "cies": 8938,
      "Ġrl": 8939,
      "Ġconfermata": 8940,
      "Ġmantenimento": 8941,
      "meldung": 8942,
      "Ġgruppe": 8943,
      "Ġprofessione": 8944,
      "Ġdusseld": 8945,
      "erebbe": 8946,
      "Ġmetodi": 8947,
      "schg": 8948,
      "Ġstatuendo": 8949,
      "Ġregistrazione": 8950,
      "Ġcopertura": 8951,
      "dra": 8952,
      "Ġrechtswidrig": 8953,
      "arma": 8954,
      "isses": 8955,
      "Ġkonta": 8956,
      "ceva": 8957,
      "Ġapprovato": 8958,
      "Ġnegozia": 8959,
      "Ġvide": 8960,
      "dag": 8961,
      "bin": 8962,
      "bericht": 8963,
      "dium": 8964,
      "Ġunterstutzung": 8965,
      "Ġannexes": 8966,
      "Ġvorgelegt": 8967,
      "Ġkunst": 8968,
      "Ġhomologation": 8969,
      "vermogen": 8970,
      "Ġprononce": 8971,
      "Ġauflage": 8972,
      "Ġamministrative": 8973,
      "Ġunwirksam": 8974,
      "ologique": 8975,
      "wirken": 8976,
      "Ã¦": 8977,
      "Ġmarque": 8978,
      "Ġinnova": 8979,
      "Ġschle": 8980,
      "kund": 8981,
      "Ġreparti": 8982,
      "Ġbestimmen": 8983,
      "Ġalco": 8984,
      "ungsbescheid": 8985,
      "Ġhauptsache": 8986,
      "Ġine": 8987,
      "ruck": 8988,
      "assi": 8989,
      "Ġidentificazione": 8990,
      "Ġindis": 8991,
      "Ġmaximal": 8992,
      "gence": 8993,
      "Ġaufgabe": 8994,
      "Ġagit": 8995,
      "Ġ212": 8996,
      "Ġfornis": 8997,
      "Ġfoss": 8998,
      "Ġkalender": 8999,
      "Ġvisti": 9000,
      "achsen": 9001,
      "Ġirlanda": 9002,
      "Ġzb": 9003,
      "Ġofferte": 9004,
      "Ġinven": 9005,
      "Ġanpassung": 9006,
      "Ġafgh": 9007,
      "Ġtransports": 9008,
      "Ġtechnische": 9009,
      "Ġmaximale": 9010,
      "dumping": 9011,
      "Ġbenach": 9012,
      "aufnahme": 9013,
      "vamente": 9014,
[...]
