{
  "version": "1.0",
  "truncation": null,
  "padding": null,
  "added_tokens": [
    {
      "id": 0,
      "content": "<pad>",
      "single_word": false,
      "lstrip": false,
      "rstrip": false,
      "normalized": false,
      "special": true
    },
    {
      "id": 1,
      "content": "<s>",
      "single_word": false,
      "lstrip": false,
      "rstrip": false,
      "normalized": false,
      "special": true
    },
    {
      "id": 2,
      "content": "</s>",
      "single_word": false,
      "lstrip": false,
      "rstrip": false,
      "normalized": false,
      "special": true
    },
    {
      "id": 3,
      "content": "<unk>",
      "single_word": false,
      "lstrip": false,
      "rstrip": false,
      "normalized": false,
      "special": true
    },
    {
      "id": 4,
      "content": "<mask>",
      "single_word": false,
      "lstrip": false,
      "rstrip": false,
      "normalized": false,
      "special": true
    }
  ],
  "normalizer": {
    "type": "Sequence",
    "normalizers": [
      {
        "type": "NFKD"
      },
      {
        "type": "BertNormalizer",
        "clean_text": true,
        "handle_chinese_chars": true,
        "strip_accents": null,
        "lowercase": true
      }
    ]
  },
  "pre_tokenizer": {
    "type": "Sequence",
    "pretokenizers": [
      {
        "type": "BertPreTokenizer"
      },
      {
        "type": "ByteLevel",
        "add_prefix_space": true,
        "trim_offsets": true,
        "use_regex": true
      }
    ]
  },
  "post_processor": {
    "type": "RobertaProcessing",
    "sep": [
      "</s>",
      2
    ],
    "cls": [
      "<s>",
      1
    ],
    "trim_offsets": true,
    "add_prefix_space": true
  },
  "decoder": {
    "type": "ByteLevel",
    "add_prefix_space": true,
    "trim_offsets": true,
    "use_regex": true
  },
  "model": {
    "type": "BPE",
    "dropout": null,
    "unk_token": "<unk>",
    "continuing_subword_prefix": null,
    "end_of_word_suffix": null,
    "fuse_unk": false,
    "vocab": {
      "<pad>": 0,
      "<s>": 1,
      "</s>": 2,
      "<unk>": 3,
      "<mask>": 4,
      "!": 5,
      "\"": 6,
      "#": 7,
      "$": 8,
      "%": 9,
      "&": 10,
      "'": 11,
      "(": 12,
      ")": 13,
      "*": 14,
      "+": 15,
      ",": 16,
      "-": 17,
      ".": 18,
      "/": 19,
      "0": 20,
      "1": 21,
      "2": 22,
      "3": 23,
      "4": 24,
      "5": 25,
      "6": 26,
      "7": 27,
      "8": 28,
      "9": 29,
      ":": 30,
      ";": 31,
      "<": 32,
      "=": 33,
      ">": 34,
      "?": 35,
      "@": 36,
      "[": 37,
      "\\": 38,
      "]": 39,
      "^": 40,
      "_": 41,
      "`": 42,
      "a": 43,
      "b": 44,
      "c": 45,
      "d": 46,
      "e": 47,
      "f": 48,
      "g": 49,
      "h": 50,
      "i": 51,
      "j": 52,
      "k": 53,
      "l": 54,
      "m": 55,
      "n": 56,
      "o": 57,
      "p": 58,
      "q": 59,
      "r": 60,
      "s": 61,
      "t": 62,
      "u": 63,
      "v": 64,
      "w": 65,
      "x": 66,
      "y": 67,
      "z": 68,
      "{": 69,
      "|": 70,
      "}": 71,
      "~": 72,
      "¡": 73,
      "¢": 74,
      "£": 75,
      "¤": 76,
      "¥": 77,
      "¦": 78,
      "§": 79,
      "¨": 80,
      "©": 81,
      "ª": 82,
      "«": 83,
      "¬": 84,
      "®": 85,
      "¯": 86,
      "°": 87,
      "±": 88,
      "²": 89,
      "³": 90,
      "´": 91,
      "µ": 92,
      "¶": 93,
      "·": 94,
      "¸": 95,
      "¹": 96,
      "º": 97,
      "»": 98,
      "¼": 99,
      "½": 100,
      "¾": 101,
      "¿": 102,
      "Â": 103,
      "Ã": 104,
      "Ä": 105,
      "Å": 106,
      "Æ": 107,
      "Ç": 108,
      "É": 109,
      "Ê": 110,
      "Ë": 111,
      "Î": 112,
      "Ï": 113,
      "Ð": 114,
      "Ñ": 115,
      "Ò": 116,
      "Ó": 117,
      "Ô": 118,
      "Õ": 119,
      "Ö": 120,
      "×": 121,
      "Ø": 122,
      "Ù": 123,
      "Ú": 124,
      "Û": 125,
      "Ý": 126,
      "ß": 127,
      "à": 128,
      "á": 129,
      "â": 130,
      "ã": 131,
      "ä": 132,
      "å": 133,
      "æ": 134,
      "ç": 135,
      "è": 136,
      "é": 137,
      "ê": 138,
      "ð": 139,
      "Ġ": 140,
      "Ģ": 141,
      "ģ": 142,
      "Ĥ": 143,
      "ĥ": 144,
      "Ħ": 145,
      "ħ": 146,
      "Ĩ": 147,
      "ĩ": 148,
      "Ī": 149,
      "ī": 150,
      "Ĭ": 151,
      "ĭ": 152,
      "Į": 153,
      "į": 154,
      "İ": 155,
      "ı": 156,
      "Ĳ": 157,
      "ĳ": 158,
      "Ĵ": 159,
      "ĵ": 160,
      "Ķ": 161,
      "ķ": 162,
      "ĸ": 163,
      "Ĺ": 164,
      "ĺ": 165,
      "Ļ": 166,
      "ļ": 167,
      "Ľ": 168,
      "ľ": 169,
      "Ŀ": 170,
      "ŀ": 171,
      "Ł": 172,
      "ł": 173,
      "Ń": 174,
      "en": 175,
      "Ġa": 176,
      "Ġ.": 177,
      "Ġd": 178,
      "Ġ,": 179,
      "Ġs": 180,
      "Ġp": 181,
      "in": 182,
      "er": 183,
      "ta": 184,
      "an": 185,
      "ti": 186,
      "es": 187,
      "Ġc": 188,
      "on": 189,
      "is": 190,
      "Ġn": 191,
      "re": 192,
      "Ġ1": 193,
      "Ġ2": 194,
      "te": 195,
      "Ġk": 196,
      "Ġv": 197,
      "al": 198,
      "Ġe": 199,
      "or": 200,
      "Ġm": 201,
      "Ġo": 202,
      "Ġl": 203,
      "ar": 204,
      "as": 205,
      "Ġt": 206,
      "Ġ-": 207,
      "Ġ)": 208,
      "el": 209,
      "Ġi": 210,
      "ro": 211,
      "Ġ(": 212,
      "Ġb": 213,
      "Ġu": 214,
      "Î±": 215,
      "Ġ/": 216,
      "Ġf": 217,
      "ĠÐ": 218,
      "Î¿": 219,
      "et": 220,
      "ra": 221,
      "os": 222,
      "ri": 223,
      "Î¹": 224,
      "ch": 225,
      "Ġde": 226,
      "Ð°": 227,
      "om": 228,
      "la": 229,
      "Îµ": 230,
      "Ġâ": 231,
      "us": 232,
      "ci": 233,
      "ÏĦ": 234,
      "ĠâĢ": 235,
      "Ġin": 236,
      "li": 237,
      "Ġj": 238,
      "Ġg": 239,
      "Ġ20": 240,
      "Ġz": 241,
      "le": 242,
      "at": 243,
      "Ð¸": 244,
      "ni": 245,
      "Ðµ": 246,
      "Ġ3": 247,
      "em": 248,
      "it": 249,
      "Ġh": 250,
      "Ġ_": 251,
      "ed": 252,
      "ÑĤ": 253,
      "ing": 254,
      "Î·": 255,
      "Î½": 256,
      "Ð¾": 257,
      "ad": 258,
      "un": 259,
      "Ġ0": 260,
      "Ġta": 261,
      "Ġre": 262,
      "to": 263,
      "od": 264,
      "Ïĥ": 265,
      "Ïģ": 266,
      "Ġ:": 267,
      "Ð½": 268,
      "id": 269,
      "tu": 270,
      "ma": 271,
      "ka": 272,
      "Ïħ": 273,
      "ĠÎ": 274,
      "ol": 275,
      "ie": 276,
      "ÏĢ": 277,
      "ÑĢ": 278,
      "Ġw": 279,
      "ja": 280,
      "ur": 281,
      "men": 282,
      "Ġpro": 283,
      "Ñģ": 284,
      "Ġan": 285,
      "ÏĤ": 286,
      "il": 287,
      "ov": 288,
      "Ġ5": 289,
      "Ġ4": 290,
      "Ġr": 291,
      "ne": 292,
      "Ġna": 293,
      "Ġar": 294,
      "he": 295,
      "je": 296,
      "Ġal": 297,
      "ia": 298,
      "and": 299,
      "ul": 300,
      "eg": 301,
      "im": 302,
      "ter": 303,
      "ts": 304,
      "Ġto": 305,
      "ik": 306,
      "Ġ200": 307,
      "ir": 308,
      "ca": 309,
      "ĠÏĦ": 310,
      "Ġla": 311,
      "va": 312,
      "Ġsa": 313,
      "Ġ|": 314,
      "Ġse": 315,
      "Ġ9": 316,
      "Ġ201": 317,
      "Ġen": 318,
      "Ïī": 319,
      "tion": 320,
      "Ġeu": 321,
      "ig": 322,
      "ks": 323,
      "Ð²": 324,
      "ot": 325,
      "na": 326,
      "ud": 327,
      "um": 328,
      "Ġpar": 329,
      "Ð»": 330,
      "Ġpr": 331,
      "Ġ8": 332,
      "Ġ6": 333,
      "Ġte": 334,
      "zi": 335,
      "Ġdi": 336,
      "sa": 337,
      "Îº": 338,
      "Ġcon": 339,
      "Ġ7": 340,
      "de": 341,
      "Ġni": 342,
      "ce": 343,
      "Î¿Ïħ": 344,
      "Î¼": 345,
      "ke": 346,
      "qu": 347,
      "Ġfor": 348,
      "Ġne": 349,
      "pe": 350,
      "Ġti": 351,
      "Ġun": 352,
      "za": 353,
      "Ġes": 354,
      "Ġthe": 355,
      "ut": 356,
      "Ġcom": 357,
      "ko": 358,
      "si": 359,
      "00": 360,
      "ĠâĢĵ": 361,
      "Ġpo": 362,
      "ĠâĢĶ": 363,
      "red": 364,
      "Ġat": 365,
      "Ġdo": 366,
      "ĠÎµ": 367,
      "Ġpa": 368,
      "Ġvan": 369,
      "Ġza": 370,
      "Ġeuro": 371,
      "Ġja": 372,
      "Ġ19": 373,
      "Ġ;": 374,
      "Ġra": 375,
      "Î»": 376,
      "ran": 377,
      "Ġma": 378,
      "vi": 379,
      "ten": 380,
      "Ġap": 381,
      "ru": 382,
      "ve": 383,
      "mis": 384,
      "Ġ10": 385,
      "ĠÎ±": 386,
      "Ġ%": 387,
      "st": 388,
      "Ġ'": 389,
      "ji": 390,
      "Ġsu": 391,
      "ĠÏĢ": 392,
      "Ġko": 393,
      "Ð´": 394,
      "lo": 395,
      "Ġdel": 396,
      "Ä§": 397,
      "ĠâĢĻ": 398,
      "ek": 399,
      "Ġof": 400,
      "Ðº": 401,
      "ĠÐ¿": 402,
      "Ġle": 403,
      "ent": 404,
      "Ġpri": 405,
      "ite": 406,
      "Ġarti": 407,
      "am": 408,
      "ic": 409,
      "Ġod": 410,
      "ĠÐ½": 411,
      "sta": 412,
      "se": 413,
      "Ġis": 414,
      "Ġbe": 415,
      "end": 416,
      "ga": 417,
      "no": 418,
      "pa": 419,
      "ju": 420,
      "Ġkom": 421,
      "oni": 422,
      "Ġda": 423,
      "ku": 424,
      "ho": 425,
      "Ġka": 426,
      "ĠÎº": 427,
      "ĠÑģ": 428,
      "ĠÏĥ": 429,
      "Ð½Ð¸": 430,
      "por": 431,
      "Ġsta": 432,
      "ita": 433,
      "vo": 434,
      "Ġst": 435,
      "Ġir": 436,
      "Î¹Î±": 437,
      "ba": 438,
      "Ġno": 439,
      "Ġreg": 440,
      "eni": 441,
      "ung": 442,
      "ge": 443,
      "ll": 444,
      "Ġder": 445,
      "Ġver": 446,
      "Ġniet": 447,
      "Ġpre": 448,
      "da": 449,
      "Î¹Îº": 450,
      "Î·ÏĤ": 451,
      "be": 452,
      "Ġri": 453,
      "Ġ12": 454,
      "ver": 455,
      "ÏīÎ½": 456,
      "io": 457,
      "ze": 458,
      "ĠÐ½Ð°": 459,
      "ÏĦÎ±": 460,
      "Ġli": 461,
      "Î³": 462,
      "ass": 463,
      "ine": 464,
      "der": 465,
      "Ġ00": 466,
      "ha": 467,
      "Ġdes": 468,
      "ĠÐ¾": 469,
      "Ġor": 470,
      "Ġqu": 471,
      "Ġon": 472,
      "Ñı": 473,
      "Ð·": 474,
      "van": 475,
      "Ġ15": 476,
      "Ġper": 477,
      "Ġas": 478,
      "me": 479,
      "Ġso": 480,
      "Ġnem": 481,
      "Ġex": 482,
      "Ġaf": 483,
      "kal": 484,
      "so": 485,
      "Ġet": 486,
      "du": 487,
      "ep": 488,
      "Ġ11": 489,
      "Ġkon": 490,
      "ÑĬ": 491,
      "Ġuni": 492,
      "ali": 493,
      "sk": 494,
      "Ġsp": 495,
      "ist": 496,
      "for": 497,
      "lu": 498,
      "Ġden": 499,
      "Ġiz": 500,
      "Ġro": 501,
      "ning": 502,
      "Ġob": 503,
      "Ġje": 504,
      "Ġva": 505,
      "ÏģÎ¿": 506,
      "ych": 507,
      "og": 508,
      "ÑĢÐ°": 509,
      "Ġil": 510,
      "ÎµÎ¹": 511,
      "Ġsi": 512,
      "lan": 513,
      "bi": 514,
      "ÏĢÎ¿": 515,
      "ĠÎºÎ±": 516,
      "Ġav": 517,
      "10": 518,
      "Ġval": 519,
      "one": 520,
      "Ġtal": 521,
      "Ð¼": 522,
      "maz": 523,
      "Ġer": 524,
      "fi": 525,
      "ub": 526,
      "ÅĤ": 527,
      "ina": 528,
      "di": 529,
      "ÏĨ": 530,
      "Ġac": 531,
      "ty": 532,
      "mi": 533,
      "ens": 534,
      "isi": 535,
      "Ġag": 536,
      "ÑĤÐ¾": 537,
      "Ð¿": 538,
      "Ġpod": 539,
      "Ġartik": 540,
      "Ġy": 541,
      "ÑĢÐµ": 542,
      "Ġim": 543,
      "ando": 544,
      "Ġch": 545,
      "ÑĤÐ°": 546,
      "ord": 547,
      "ĠÐ¸": 548,
      "joni": 549,
      "ow": 550,
      "iz": 551,
      "all": 552,
      "est": 553,
      "nos": 554,
      "ment": 555,
      "Ġop": 556,
      "ere": 557,
      "Ïĩ": 558,
      "Ġalkal": 559,
      "ÑĤÐµ": 560,
      "Ġalkalmaz": 561,
      "assing": 562,
      "Ġtoep": 563,
      "Ġtoepassing": 564,
      "Ġel": 565,
      "Ġad": 566,
      "Ã¦": 567,
      "Ġand": 568,
      "Ñĩ": 569,
      "Ġ16": 570,
      "ki": 571,
      "Ñĥ": 572,
      "Ġ199": 573,
      "zen": 574,
      "Ġalkalmazando": 575,
      "Ġvo": 576,
      "Ġ13": 577,
      "ĠÎ´": 578,
      "ala": 579,
      "Ġ25": 580,
      "res": 581,
      "Ġpos": 582,
      "Ð½Ð¾": 583,
      "Ġmed": 584,
      "tel": 585,
      "Ġ17": 586,
      "ĠÎ¼": 587,
      "Ã¸": 588,
      "Î¸": 589,
      "gi": 590,
      "ĠÂ": 591,
      "Ġmar": 592,
      "Ġca": 593,
      "ber": 594,
      "Ð²Ð°": 595,
      "ana": 596,
      "ys": 597,
      "ara": 598,
      "Î´": 599,
      "Ġdie": 600,
      "nu": 601,
      "pos": 602,
      "Ġco": 603,
      "tor": 604,
      "ale": 605,
      "uni": 606,
      "ĠÐ²": 607,
      "ps": 608,
      "Ġth": 609,
      "Ġ14": 610,
      "ĠÐ´": 611,
      "ÏģÎ±": 612,
      "Ġau": 613,
      "tal": 614,
      "tan": 615,
      "eri": 616,
      "ÏģÎ¹": 617,
      "po": 618,
      "ene": 619,
      "zz": 620,
      "lat": 621,
      "era": 622,
      "Ġfin": 623,
      "Ġ30": 624,
      "Ġom": 625,
      "Ġdire": 626,
      "ky": 627,
      "Ġ26": 628,
      "cht": 629,
      "20": 630,
      "Ð³": 631,
      "ces": 632,
      "Ġha": 633,
      "ĠÎ¿": 634,
      "ise": 635,
      "Ġdu": 636,
      "min": 637,
      "ÏĦÎ·": 638,
      "Ġmo": 639,
      "cu": 640,
      "mo": 641,
      "Î½Î±": 642,
      "val": 643,
      "zy": 644,
      "Ġ21": 645,
      "cy": 646,
      "ÐµÐ½": 647,
      "ff": 648,
      "Ġeurope": 649,
      "gen": 650,
      "Ġtri": 651,
      "ÑģÑĤ": 652,
      "den": 653,
      "tra": 654,
      "co": 655,
      "Ġmin": 656,
      "lamen": 657,
      "Ġtu": 658,
      "ij": 659,
      "tes": 660,
      "Ġku": 661,
      "tiv": 662,
      "Ġvy": 663,
      "ĠÐº": 664,
      "pp": 665,
      "Ġsk": 666,
      "Ġce": 667,
      "Ð±": 668,
      "Ġnr": 669,
      "sion": 670,
      "ÏĦÎ¿": 671,
      "Ġres": 672,
      "tas": 673,
      "Ġinter": 674,
      "Ġall": 675,
      "ĠÐ¾ÑĤ": 676,
      "emb": 677,
      "gu": 678,
      "Ġ31": 679,
      "Ġog": 680,
      "Ġque": 681,
      "Ġby": 682,
      "ĠgÄ§": 683,
      "cial": 684,
      "ĠÐ·": 685,
      "jen": 686,
      "Ġoch": 687,
      "Ġpra": 688,
      "ell": 689,
      "sti": 690,
      "ada": 691,
      "cao": 692,
      "Ġ18": 693,
      "ag": 694,
      "Ġkred": 695,
      "up": 696,
      "ani": 697,
      "Ġaz": 698,
      "ÑĨ": 699,
      "do": 700,
      "gy": 701,
      "cha": 702,
      "Ġos": 703,
      "Ġfa": 704,
      "ari": 705,
      "tie": 706,
      "cia": 707,
      "bo": 708,
      "ast": 709,
      "cion": 710,
      "ven": 711,
      "ĠÐ·Ð°": 712,
      "asta": 713,
      "Ġmu": 714,
      "Ġ]": 715,
      "Ġ29": 716,
      "Ġvi": 717,
      "Ġ[": 718,
      "use": 719,
      "jo": 720,
      "Ġve": 721,
      "go": 722,
      "Î½Î¿": 723,
      "ĠÏĦÎ·ÏĤ": 724,
      "tem": 725,
      "Ġme": 726,
      "Ġsom": 727,
      "Ġter": 728,
      "ÏĥÎ·": 729,
      "ista": 730,
      "ust": 731,
      "ans": 732,
      "Ġab": 733,
      "ente": 734,
      "ĠÎ¼Îµ": 735,
      "ele": 736,
      "ini": 737,
      "ÑĢÐ¸": 738,
      "Ġbas": 739,
      "ny": 740,
      "ĠâĢŀ": 741,
      "ade": 742,
      "Ġmod": 743,
      "che": 744,
      "Ġx": 745,
      "Ġsz": 746,
      "ok": 747,
      "Ġ23": 748,
      "Ġdet": 749,
      "Ġ22": 750,
      "ena": 751,
      "op": 752,
      "Ġund": 753,
      "ĠÏĦÎ¿Ïħ": 754,
      "kt": 755,
      "bu": 756,
      "Ġem": 757,
      "Ġ24": 758,
      "kon": 759,
      "Ġ27": 760,
      "Ġbes": 761,
      "Ġrep": 762,
      "Ġtar": 763,
      "ubli": 764,
      "man": 765,
      "las": 766,
      "zzjoni": 767,
      "ane": 768,
      "ÐµÐ½Ð¸": 769,
      "Ġjo": 770,
      "Ġpor": 771,
      "Ð½Ð°": 772,
      "Ġtil": 773,
      "ito": 774,
      "Ġ\"": 775,
      "ui": 776,
      "Ġdec": 777,
      "ĠÎºÎ±Î¹": 778,
      "Ġpres": 779,
      "ĠÏĦÎ·": 780,
      "Î²": 781,
      "mer": 782,
      "wa": 783,
      "ĠÐ¿Ð¾": 784,
      "Ġtra": 785,
      "rea": 786,
      "mission": 787,
      "Ġdis": 788,
      "ĠÐµ": 789,
      "50": 790,
      "tiva": 791,
      "Î¼Îµ": 792,
      "ĠÏĢÏģÎ¿": 793,
      "Ġfinan": 794,
      "ĠâĢĿ": 795,
      "tar": 796,
      "Ġartikel": 797,
      "tro": 798,
      "lig": 799,
      "Ġprodu": 800,
      "Ð¶": 801,
      "ĠÏĥÏħ": 802,
      "Ġ28": 803,
      "iv": 804,
      "Ġge": 805,
      "Ġspe": 806,
      "Ġam": 807,
      "levan": 808,
      "zo": 809,
      "Ġpred": 810,
      "pro": 811,
      "Î¹Ïĥ": 812,
      "Ġkoh": 813,
      "ug": 814,
      "Ġ90": 815,
      "Ġroz": 816,
      "Î¼Î±": 817,
      "ced": 818,
      "len": 819,
      "ÎµÏĤ": 820,
      "40": 821,
      "tet": 822,
      "ĠÎ·": 823,
      "ato": 824,
      "th": 825,
      "Ġlo": 826,
      "Ġmil": 827,
      "Ġ2009": 828,
      "zione": 829,
      "Ġbi": 830,
      "ÑĢÐ¾": 831,
      "Ġuz": 832,
      "ĠÎ³": 833,
      "Ġsec": 834,
      "Ġpi": 835,
      "gan": 836,
      "ĠâĢľ": 837,
      "ingen": 838,
      "Ġtran": 839,
      "Ġ50": 840,
      "Ġartic": 841,
      "zes": 842,
      "ob": 843,
      "Ġki": 844,
      "Ġtr": 845,
      "Ġfe": 846,
      "olo": 847,
      "lus": 848,
      "uta": 849,
      "Ġei": 850,
      "Ġgen": 851,
      "Ð»Ð°": 852,
      "Ġeur": 853,
      "Ġrelevan": 854,
      "ct": 855,
      "Ġclan": 856,
      "del": 857,
      "Ġinfor": 858,
      "30": 859,
      "ÑĨÐ¸": 860,
      "per": 861,
      "Ġii": 862,
      "uks": 863,
      "ben": 864,
      "Ġze": 865,
      "ÏĦÎ¹Îº": 866,
      "ĠÏĦÎ¿": 867,
      "tions": 868,
      "Ġsub": 869,
      "Ġser": 870,
      "lag": 871,
      "pi": 872,
      "ĠÎ±ÏĢÎ¿": 873,
      "ard": 874,
      "Ġju": 875,
      "irb": 876,
      "ant": 877,
      "ved": 878,
      "ris": 879,
      "und": 880,
      "kti": 881,
      "Ġles": 882,
      "Ġpas": 883,
      "ÑĤÐ¸": 884,
      "Ġaut": 885,
      "esta": 886,
      "ly": 887,
      "ande": 888,
      "Ġ2013": 889,
      "Ġlu": 890,
      "Ġcons": 891,
      "Ġind": 892,
      "gra": 893,
      "Ġrelevant": 894,
      "Ġdin": 895,
      "Ġcor": 896,
      "iet": 897,
      "kov": 898,
      "Î¾": 899,
      "cz": 900,
      "Ð»Ð¸": 901,
      "Ð½Ðµ": 902,
      "hr": 903,
      "esti": 904,
      "elle": 905,
      "Ġaty": 906,
      "Ġpe": 907,
      "ese": 908,
      "mu": 909,
      "Ġparti": 910,
      "Ġmcy": 911,
      "zu": 912,
      "ost": 913,
      "Ġkas": 914,
      "nem": 915,
      "rav": 916,
      "dy": 917,
      "itet": 918,
      "jas": 919,
      "Ġatt": 920,
      "Ġhar": 921,
      "Ġvar": 922,
      "ĠÎµÏĢ": 923,
      "Ġapp": 924,
      "ora": 925,
      "Ð²Ð¸": 926,
      "ÐºÐ°": 927,
      "fer": 928,
      "nuje": 929,
      "Ġhet": 930,
      "ck": 931,
      "Ġirb": 932,
      "ind": 933,
      "Î¼Î¿": 934,
      "ania": 935,
      "Ġ=": 936,
      "Ġcu": 937,
      "Ġrec": 938,
      "sp": 939,
      "ft": 940,
      "Ġnu": 941,
      "Ð²Ð¾": 942,
      "isa": 943,
      "chen": 944,
      "Ġ000": 945,
      "stan": 946,
      "Î±Ïĥ": 947,
      "fa": 948,
      "usta": 949,
      "Ġleg": 950,
      "Ġneup": 951,
      "latnuje": 952,
      "lj": 953,
      "Ġcomp": 954,
      "we": 955,
      "Ġrelevantno": 956,
      "ĠÑģÑĬ": 957,
      "iden": 958,
      "Ġneuplatnuje": 959,
      "land": 960,
      "Ġ37": 961,
      "nosti": 962,
      "Ġele": 963,
      "Ġ2011": 964,
      "jiet": 965,
      "ende": 966,
      "Ġgem": 967,
      "Ġpun": 968,
      "yn": 969,
      "Ñī": 970,
      "ĠÐºÐ¾": 971,
      "kom": 972,
      "tup": 973,
      "ym": 974,
      "var": 975,
      "vel": 976,
      "Ġein": 977,
      "ÑĢÐµÐ´": 978,
      "ĠÏħ": 979,
      "Ġkomis": 980,
      "Ġproced": 981,
      "ska": 982,
      "vat": 983,
      "zat": 984,
      "Ġfi": 985,
      "bas": 986,
      "Ġmat": 987,
      "ida": 988,
      "ĠÏĦÎ·Î½": 989,
      "Ġell": 990,
      "ona": 991,
      "ÐºÐ¸": 992,
      "ori": 993,
      "ella": 994,
      "Ġinforma": 995,
      "Ġ2014": 996,
      "Ġ01": 997,
      "ÏĦÎ±Î¹": 998,
      "olu": 999,
      "80": 1000,
      "ura": 1001,
      "ÑĦ": 1002,
      "ste": 1003,
      "kla": 1004,
      "Ġho": 1005,
      "vis": 1006,
      "ire": 1007,
      "21": 1008,
      "Ġou": 1009,
      "Ġkomisi": 1010,
      "kl": 1011,
      "Ġfo": 1012,
      "ico": 1013,
      "ĠÏĦÏīÎ½": 1014,
      "kk": 1015,
      "Ġagus": 1016,
      "Î¹Î¿": 1017,
      "90": 1018,
      "Ġef": 1019,
      "tt": 1020,
      "Ġeg": 1021,
      "Ġmet": 1022,
      "ering": 1023,
      "sz": 1024,
      "Ġhe": 1025,
      "stitu": 1026,
      "cen": 1027,
      "ova": 1028,
      "cie": 1029,
      "Ġ2008": 1030,
      "ann": 1031,
      "ĠÏĢÎ±": 1032,
      "ĠÑĩ": 1033,
      "ega": 1034,
      "Ġfran": 1035,
      "tud": 1036,
      "Ġkredit": 1037,
      "imo": 1038,
      "umu": 1039,
      "Ġprin": 1040,
      "Ġsis": 1041,
      "Ġregu": 1042,
      "son": 1043,
      "Ġ2006": 1044,
      "ett": 1045,
      "art": 1046,
      "Ġ2015": 1047,
      "Ġ2012": 1048,
      "Ġover": 1049,
      "uv": 1050,
      "hod": 1051,
      "Ġmit": 1052,
      "Ġ40": 1053,
      "Ġdom": 1054,
      "Ġpris": 1055,
      "hu": 1056,
      "istra": 1057,
      "enti": 1058,
      "nie": 1059,
      "cti": 1060,
      "ser": 1061,
      "ted": 1062,
      "Ð¸Ñģ": 1063,
      "Ġthat": 1064,
      "Ġstran": 1065,
      "osta": 1066,
      "ak": 1067,
      "tele": 1068,
      "Ġcas": 1069,
      "ide": 1070,
      "Ġbez": 1071,
      "Ġkor": 1072,
      "Ġvon": 1073,
      "cka": 1074,
      "lamento": 1075,
      "Ġev": 1076,
      "bili": 1077,
      "Ġke": 1078,
      "una": 1079,
      "ity": 1080,
      "ĠÐ¼": 1081,
      "Ġur": 1082,
      "Ġunion": 1083,
      "lica": 1084,
      "tre": 1085,
      "het": 1086,
      "pu": 1087,
      "jan": 1088,
      "ÏīÏĤ": 1089,
      "Ġkommission": 1090,
      "Ġ2007": 1091,
      "ĠÐ³": 1092,
      "60": 1093,
      "mise": 1094,
      "Ġdan": 1095,
      "Ġgr": 1096,
      "hte": 1097,
      "Ġmeg": 1098,
      "oll": 1099,
      "ith": 1100,
      "ÐµÐ½Ð¸Ðµ": 1101,
      "Ġnie": 1102,
      "Ġunder": 1103,
      "vr": 1104,
      "Ð²Ðµ": 1105,
      "Ġum": 1106,
      "Ġtre": 1107,
      "ach": 1108,
      "tin": 1109,
      "tig": 1110,
      "Ġ2004": 1111,
      "nych": 1112,
      "Ġwy": 1113,
      "tseg": 1114,
      "Ġsch": 1115,
      "mento": 1116,
      "ich": 1117,
      "Ġak": 1118,
      "Ġeller": 1119,
      "ÏģÎµ": 1120,
      "Ġtill": 1121,
      "Ġ?": 1122,
      "Ġdru": 1123,
      "tul": 1124,
      "Ġzal": 1125,
      "sen": 1126,
      "Ġinc": 1127,
      "asi": 1128,
      "ang": 1129,
      "Ġty": 1130,
      "ĠÎµÏĢÎ¹": 1131,
      "ici": 1132,
      "Ġdem": 1133,
      "Ġ2003": 1134,
      "Ġ2010": 1135,
      "11": 1136,
      "esi": 1137,
      "ĠÂ«": 1138,
      "Ġvis": 1139,
      "Ġ2016": 1140,
      "ĠÎ´Î¹Î±": 1141,
      "bun": 1142,
      "ĠÂ»": 1143,
      "ÏĦÎµ": 1144,
      "ela": 1145,
      "Ġ07": 1146,
      "uri": 1147,
      "Ġba": 1148,
      "Ġtai": 1149,
      "usi": 1150,
      "ede": 1151,
      "Ġeuropa": 1152,
      "ih": 1153,
      "Ġrepubli": 1154,
      "que": 1155,
      "kel": 1156,
      "Ġ*": 1157,
      "Ġok": 1158,
      "Ġmer": 1159,
      "Ġ100": 1160,
      "Î¹Î±ÏĤ": 1161,
      "Ġct": 1162,
      "Ġapr": 1163,
      "ros": 1164,
      "Ġkan": 1165,
      "ove": 1166,
      "Ġit": 1167,
      "Ġdal": 1168,
      "Ġche": 1169,
      "ms": 1170,
      "ure": 1171,
      "Ġvoi": 1172,
      "ua": 1173,
      "ers": 1174,
      "Ġnor": 1175,
      "gal": 1176,
      "Ġges": 1177,
      "nes": 1178,
      "Ġraz": 1179,
      "fica": 1180,
      "ken": 1181,
      "ont": 1182,
      "ike": 1183,
      "tis": 1184,
      "ges": 1185,
      "Ġcomuni": 1186,
      "Ġpan": 1187,
      "Ġdas": 1188,
      "ÏģÏī": 1189,
      "Ġpara": 1190,
      "led": 1191,
      "mente": 1192,
      "ue": 1193,
      "iska": 1194,
      "Ġprp": 1195,
      "ision": 1196,
      "Ġproces": 1197,
      "Ġimpor": 1198,
      "Ġtribun": 1199,
      "par": 1200,
      "Ġ2001": 1201,
      "mel": 1202,
      "mas": 1203,
      "ego": 1204,
      "nost": 1205,
      "idh": 1206,
      "bh": 1207,
      "ill": 1208,
      "Ġ39": 1209,
      "68": 1210,
      "ĠÏĢÎ¿Ïħ": 1211,
      "urs": 1212,
      "Ġved": 1213,
      "Ġmas": 1214,
      "Ð»Ð¾": 1215,
      "mat": 1216,
      "Ġsal": 1217,
      "Ġ32": 1218,
      "Ġrela": 1219,
      "Ġ\\": 1220,
      "Ġeurop": 1221,
      "cne": 1222,
      "pr": 1223,
      "ĠÐ¸Ð·": 1224,
      "Ġbet": 1225,
      "jos": 1226,
      "tsegek": 1227,
      "anje": 1228,
      "Ġsen": 1229,
      "ÏĦÎ¹": 1230,
      "Ġkun": 1231,
      "Î»Î¿": 1232,
      "ado": 1233,
      "wi": 1234,
      "Ġga": 1235,
      "Ġzas": 1236,
      "Ġhite": 1237,
      "les": 1238,
      "Ġmemb": 1239,
      "Ġfur": 1240,
      "Ġcer": 1241,
      "tell": 1242,
      "ÏĨÎ¿": 1243,
      "Ġsam": 1244,
      "Ġbu": 1245,
      "Ġ99": 1246,
      "Ġpu": 1247,
      "Ġkos": 1248,
      "iti": 1249,
      "ĠÎ½Î±": 1250,
      "Ġny": 1251,
      "ble": 1252,
      "Ġesta": 1253,
      "ero": 1254,
      "anu": 1255,
      "Ġrat": 1256,
      "Ġ2002": 1257,
      "ner": 1258,
      "int": 1259,
      "Ġ84": 1260,
      "Ġ35": 1261,
      "Ġbr": 1262,
      "Î¿ÏħÎ½": 1263,
      "Ġstra": 1264,
      "ÏĢÎ±": 1265,
      "Ġ38": 1266,
      "Ġtrans": 1267,
      "Ġ33": 1268,
      "ĠÎ³Î¹Î±": 1269,
      "Ġperson": 1270,
      "taan": 1271,
      "rad": 1272,
      "ĠÐ±": 1273,
      "ĠÐ´Ð°": 1274,
      "Ġprinci": 1275,
      "cija": 1276,
      "nih": 1277,
      "wo": 1278,
      "menta": 1279,
      "Ð´Ð°": 1280,
      "Ġud": 1281,
      "zna": 1282,
      "Ġsl": 1283,
      "Ġservi": 1284,
      "Ġ2005": 1285,
      "Ġcr": 1286,
      "Ġhu": 1287,
      "isti": 1288,
      "top": 1289,
      "Ġ34": 1290,
      "Ñħ": 1291,
      "Ġrego": 1292,
      "Ġexc": 1293,
      "Ġkrediet": 1294,
      "tol": 1295,
      "Ġkitet": 1296,
      "anas": 1297,
      "gs": 1298,
      "nik": 1299,
      "enta": 1300,
      "umi": 1301,
      "vid": 1302,
      "ÑĬÑĢ": 1303,
      "Ġinstitu": 1304,
      "itta": 1305,
      "Ġnar": 1306,
      "js": 1307,
      "Ġmis": 1308,
      "pre": 1309,
      "bli": 1310,
      "Ġkitettsegek": 1311,
      "ĠÑĢÐµ": 1312,
      "Ġdella": 1313,
      "ĠÑģÐµ": 1314,
      "fic": 1315,
      "Ġvai": 1316,
      "Ġus": 1317,
      "chts": 1318,
      "Ġvoor": 1319,
      "pske": 1320,
      "Ġriz": 1321,
      "Ġmen": 1322,
      "Ġart": 1323,
      "ului": 1324,
      "tat": 1325,
      "Ġconc": 1326,
      "ktu": 1327,
      "ger": 1328,
      "ĠÐ¿ÑĢÐ¾": 1329,
      "Ġnov": 1330,
      "kse": 1331,
      "vad": 1332,
      "Ġ85": 1333,
      "ement": 1334,
      "ÃŁ": 1335,
      "Ġ+": 1336,
      "Ġup": 1337,
      "Ġvel": 1338,
      "Ġeff": 1339,
      "eb": 1340,
      "issa": 1341,
      "ĠÏĥÏħÎ¼": 1342,
      "15": 1343,
      "Ġorgan": 1344,
      "pri": 1345,
      "gÄ§": 1346,
      "ĠÎºÎ±ÏĦÎ±": 1347,
      "pora": 1348,
      "essa": 1349,
      "bre": 1350,
      "sch": 1351,
      "ckazat": 1352,
      "Ġfel": 1353,
      "Ġbel": 1354,
      "Î»Î±": 1355,
      "74": 1356,
      "ÑĪ": 1357,
      "yb": 1358,
      "Ġinte": 1359,
      "ode": 1360,
      "its": 1361,
      "Ġale": 1362,
      "ins": 1363,
      "Ġpot": 1364,
      "Ġcl": 1365,
      "Ġdar": 1366,
      "oda": 1367,
      "ion": 1368,
      "Ġdr": 1369,
      "Ġdos": 1370,
      "Ġstan": 1371,
      "yt": 1372,
      "ordning": 1373,
      "Ð´Ð¸": 1374,
      "Ð»ÐµÐ½": 1375,
      "uste": 1376,
      "jn": 1377,
      "70": 1378,
      "ĠÐ¿ÑĢÐ¸": 1379,
      "Ġben": 1380,
      "isten": 1381,
      "lio": 1382,
      "fin": 1383,
      "kockazat": 1384,
      "Ġ36": 1385,
      "Ð¿Ð¾": 1386,
      "inen": 1387,
      "Ġcour": 1388,
      "fici": 1389,
      "Ġprod": 1390,
      "imi": 1391,
      "ĠÎµÎº": 1392,
      "ministra": 1393,
      "Ġauf": 1394,
      "mes": 1395,
      "Ġ1510": 1396,
      "Ġprogra": 1397,
      "erde": 1398,
      "Ġ>": 1399,
      "Ġili": 1400,
      "ely": 1401,
      "fe": 1402,
      "Î¸Îµ": 1403,
      "ction": 1404,
      "Ġsud": 1405,
      "tali": 1406,
      "ets": 1407,
      "jal": 1408,
      "Ġjed": 1409,
      "vl": 1410,
      "Ã¸r": 1411,
      "Ġpla": 1412,
      "ĠÎµÎ½": 1413,
      "Ġkuri": 1414,
      "Ġ2017": 1415,
      "oma": 1416,
      "iko": 1417,
      "ĠÎ±Ïģ": 1418,
      "Ġpoli": 1419,
      "Äĳ": 1420,
      "eto": 1421,
      "Ġtribunal": 1422,
      "zia": 1423,
      "zed": 1424,
      "ping": 1425,
      "Ġ60": 1426,
      "ots": 1427,
      "usti": 1428,
      "Î»Î·": 1429,
      "Ġured": 1430,
      "Ġmal": 1431,
      "Ġut": 1432,
      "fo": 1433,
      "ban": 1434,
      "nal": 1435,
      "Ġbo": 1436,
      "ht": 1437,
      "port": 1438,
      "taling": 1439,
      "dig": 1440,
      "zad": 1441,
      "nis": 1442,
      "94": 1443,
      "Ġpart": 1444,
      "nia": 1445,
      "ln": 1446,
      "ino": 1447,
      "Ġ198": 1448,
      "Ġprze": 1449,
      "Ġevro": 1450,
      "anie": 1451,
      "ungs": 1452,
      "Ġfra": 1453,
      "Ġsep": 1454,
      "osti": 1455,
      "Î»Îµ": 1456,
      "Ġfun": 1457,
      "Ġmi": 1458,
      "Ġ2000": 1459,
      "nim": 1460,
      "lin": 1461,
      "Ġtas": 1462,
      "ÏĨÎ±": 1463,
      "ĠÑĢÐ°": 1464,
      "Ġsus": 1465,
      "ret": 1466,
      "inn": 1467,
      "Ġune": 1468,
      "gel": 1469,
      "Ġfil": 1470,
      "iste": 1471,
      "Ġ<": 1472,
      "Ġnas": 1473,
      "Ġue": 1474,
      "Ġwan": 1475,
      "Ð»Ðµ": 1476,
      "Î¿Î¹": 1477,
      "Ġpubli": 1478,
      "met": 1479,
      "ond": 1480,
      "Ġander": 1481,
      "Ġcare": 1482,
      "ĠÏĥÏĦÎ¿": 1483,
      "Ġtelj": 1484,
      "enia": 1485,
      "Ð¼ÐµÐ½": 1486,
      "Ġairb": 1487,
      "Ġteljes": 1488,
      "igi": 1489,
      "jar": 1490,
      "Ġid": 1491,
      "Ġik": 1492,
      "Ġnot": 1493,
      "ĠÐ¾Ð±": 1494,
      "Ġindi": 1495,
      "ĠÎ»": 1496,
      "ole": 1497,
      "ante": 1498,
      "til": 1499,
      "Ġaus": 1500,
      "Ġew": 1501,
      "Ġsh": 1502,
      "ĠÐ°": 1503,
      "Ġgener": 1504,
      "ÏģÎ·": 1505,
      "kos": 1506,
      "Ġdat": 1507,
      "Ġq": 1508,
      "Ġuc": 1509,
      "jem": 1510,
      "ata": 1511,
      "Ġjew": 1512,
      "bil": 1513,
      "Ġdirek": 1514,
      "war": 1515,
      "ott": 1516,
      "udi": 1517,
      "pas": 1518,
      "betaling": 1519,
      "Ġwe": 1520,
      "ron": 1521,
      "Ġcar": 1522,
      "Ġdell": 1523,
      "ses": 1524,
      "eder": 1525,
      "Ġgo": 1526,
      "Ġ1999": 1527,
      "Ġmon": 1528,
      "Ġali": 1529,
      "Ġyhte": 1530,
      "teik": 1531,
      "any": 1532,
      "Ġrend": 1533,
      "ĠÐ½Ðµ": 1534,
      "old": 1535,
      "Ġonder": 1536,
      "13": 1537,
      "ÑĤÐµÐ»": 1538,
      "22": 1539,
      "Ġ08": 1540,
      "Ġcorp": 1541,
      "Ġole": 1542,
      "risico": 1543,
      "Ġkg": 1544,
      "mit": 1545,
      "Ġwanbetaling": 1546,
      "stat": 1547,
      "Ġrad": 1548,
      "Ġala": 1549,
      "Ġkap": 1550,
      "vu": 1551,
      "jel": 1552,
      "Ġvor": 1553,
      "93": 1554,
      "Ġsie": 1555,
      "ÅĤa": 1556,
      "kin": 1557,
      "Ġsin": 1558,
      "Ġspeci": 1559,
      "Ġci": 1560,
      "ĠÏĢÎ±ÏģÎ±": 1561,
      "ungen": 1562,
      "Ġ02": 1563,
      "zenia": 1564,
      "ĠÏĢÎµ": 1565,
      "ĠÏĩ": 1566,
      "ĠÏĢÏģÎ¿Ïĥ": 1567,
      "Ġsad": 1568,
      "Ġ&": 1569,
      "gr": 1570,
      "Ġcel": 1571,
      "Ġdans": 1572,
      "Ġlas": 1573,
      "ĠÏĦÎ±": 1574,
      "ĠÐ´Ð¾": 1575,
      "iri": 1576,
      "Ġimp": 1577,
      "Ġ95": 1578,
      "ites": 1579,
      "Ġalle": 1580,
      "by": 1581,
      "Ġparlamen": 1582,
      "lament": 1583,
      "Ñİ": 1584,
      "kor": 1585,
      "ustri": 1586,
      "ines": 1587,
      "Ġcommis": 1588,
      "entru": 1589,
      "Î¼ÎµÎ½": 1590,
      "zd": 1591,
      "mar": 1592,
      "ry": 1593,
      "isen": 1594,
      "Ġnebo": 1595,
      "ithe": 1596,
      "Ġzu": 1597,
      "Ð°Ð»": 1598,
      "Ġkum": 1599,
      "12": 1600,
      "Ġparte": 1601,
      "bri": 1602,
      "ĠÐ¿ÑĢÐµÐ´": 1603,
      "ÏĥÎ·ÏĤ": 1604,
      "Ġnum": 1605,
      "Ġgeme": 1606,
      "tive": 1607,
      "Ð²Ð°Ð½Ðµ": 1608,
      "Î²Î±": 1609,
      "ĠÎ²": 1610,
      "Ġeen": 1611,
      "Ġ96": 1612,
      "ĠgÄ§all": 1613,
      "fu": 1614,
      "Ġann": 1615,
      "Ġpentru": 1616,
      "ksi": 1617,
      "cas": 1618,
      "sat": 1619,
      "une": 1620,
      "Î¿ÏħÏĤ": 1621,
      "Ġbh": 1622,
      "tore": 1623,
      "inti": 1624,
      "Ġinv": 1625,
      "Ġ42": 1626,
      "Ġadministra": 1627,
      "tari": 1628,
      "kas": 1629,
      "jet": 1630,
      "Ġteh": 1631,
      "iso": 1632,
      "ades": 1633,
      "Ġlt": 1634,
      "stru": 1635,
      "tek": 1636,
      "agra": 1637,
      "get": 1638,
      "Ġspecial": 1639,
      "gli": 1640,
      "ude": 1641,
      "14": 1642,
      "Ġwh": 1643,
      "ige": 1644,
      "Ġban": 1645,
      "ano": 1646,
      "Ġcontra": 1647,
      "ĠÏĥÎµ": 1648,
      "jon": 1649,
      "Ġpol": 1650,
      "ile": 1651,
      "Ġteljesito": 1652,
      "form": 1653,
      "000": 1654,
      "Ð·Ð¸": 1655,
      "Ġprav": 1656,
      "fika": 1657,
      "su": 1658,
      "ĠÏħÏĢÎ¿": 1659,
      "Ġ43": 1660,
      "Ġfirb": 1661,
      "tij": 1662,
      "Ð½Ð¸Ñı": 1663,
      "Î¿Î½": 1664,
      "ec": 1665,
      "Ġul": 1666,
      "Ġpl": 1667,
      "Ġvol": 1668,
      "tava": 1669,
      "Ġ52": 1670,
      "tivi": 1671,
      "iku": 1672,
      "Ġforordning": 1673,
      "Ġmaar": 1674,
      "ull": 1675,
      "Ġris": 1676,
      "Ġpov": 1677,
      "Ġ54": 1678,
      "Ġkar": 1679,
      "Ġautor": 1680,
      "tional": 1681,
      "rel": 1682,
      "ÏģÎ³": 1683,
      "Ð¿Ðµ": 1684,
      "isu": 1685,
      "lita": 1686,
      "hal": 1687,
      "ÐºÐ¾": 1688,
      "ums": 1689,
      "Î¶": 1690,
      "Ġmateri": 1691,
      "Ġies": 1692,
      "ember": 1693,
      "gar": 1694,
      "jed": 1695,
      "ÏĦÎ¿ÏĤ": 1696,
      "Ġkomisija": 1697,
      "Ġrequ": 1698,
      "77": 1699,
      "usa": 1700,
      "rat": 1701,
      "ime": 1702,
      "Ð³Ð°": 1703,
      "wie": 1704,
      "ip": 1705,
      "Ġker": 1706,
      "Ġdne": 1707,
      "Ġed": 1708,
      "kta": 1709,
      "Ġ80": 1710,
      "Ġcommission": 1711,
      "ĠÎ±Î½Î±": 1712,
      "teg": 1713,
      "ral": 1714,
      "eli": 1715,
      "rem": 1716,
      "cji": 1717,
      "ÑģÑĤÐ°": 1718,
      "Ġseg": 1719,
      "Ġdeci": 1720,
      "Ġec": 1721,
      "Ġats": 1722,
      "ras": 1723,
      "Ġtv": 1724,
      "Ġwa": 1725,
      "ÏĥÎµ": 1726,
      "sok": 1727,
      "ÎµÎ¹ÏĤ": 1728,
      "Ġ44": 1729,
      "Ġblo": 1730,
      "99": 1731,
      "elt": 1732,
      "Ġzna": 1733,
      "Ġequ": 1734,
      "ischen": 1735,
      "pon": 1736,
      "Ġpour": 1737,
      "Ã¦r": 1738,
      "ĠÏĥÏĦÎ·": 1739,
      "oty": 1740,
      "szer": 1741,
      "tero": 1742,
      "com": 1743,
      "Ġste": 1744,
      "nej": 1745,
      "Ġkontro": 1746,
      "chta": 1747,
      "Ġuit": 1748,
      "Ġcomm": 1749,
      "Ġthis": 1750,
      "cional": 1751,
      "cni": 1752,
      "rom": 1753,
      "Ġair": 1754,
      "Î»Î¹": 1755,
      "Ġnon": 1756,
      "Ġ94": 1757,
      "neho": 1758,
      "Ġgu": 1759,
      "bru": 1760,
      "kow": 1761,
      "sie": 1762,
      "86": 1763,
      "ern": 1764,
      "idu": 1765,
      "Ġsig": 1766,
      "Ġvir": 1767,
      "uksen": 1768,
      "Ġunie": 1769,
      "zjoni": 1770,
      "orden": 1771,
      "Ġhi": 1772,
      "Ġkol": 1773,
      "Ġparagra": 1774,
      "kun": 1775,
      "ril": 1776,
      "ĠÏĢÎµÏģÎ¹": 1777,
      "Ġson": 1778,
      "menti": 1779,
      "Ġten": 1780,
      "ĠÐºÐ°": 1781,
      "opa": 1782,
      "Ġegy": 1783,
      "Ġwith": 1784,
      "enie": 1785,
      "vod": 1786,
      "Ġkad": 1787,
      "bal": 1788,
      "ĠÄ§": 1789,
      "anti": 1790,
      "olog": 1791,
      "Ġ45": 1792,
      "posta": 1793,
      "gt": 1794,
      "ÏĦÏīÎ½": 1795,
      "zioni": 1796,
      "Ġest": 1797,
      "Ġgro": 1798,
      "ÎµÏħ": 1799,
      "ÏĢÎ¿Î¹": 1800,
      "hand": 1801,
      "ips": 1802,
      "Ġ2574": 1803,
      "Ð·Ð°": 1804,
      "ou": 1805,
      "ĠgÄ§and": 1806,
      "Ġlos": 1807,
      "Ġ93": 1808,
      "Ð¼Ð°": 1809,
      "Ġcps": 1810,
      "Ġwer": 1811,
      "lich": 1812,
      "imas": 1813,
      "istu": 1814,
      "Ġdef": 1815,
      "19": 1816,
      "Î¹ÎºÎ·": 1817,
      "jici": 1818,
      "ĠgÄ§al": 1819,
      "Ġprincip": 1820,
      "tati": 1821,
      "bor": 1822,
      "uden": 1823,
      "Ġaan": 1824,
      "ĠÑĩÐ»ÐµÐ½": 1825,
      "Ġwas": 1826,
      "ĠÑĢÐ°Ð·": 1827,
      "liga": 1828,
      "Ġ55": 1829,
      "Ġsys": 1830,
      "ings": 1831,
      "ats": 1832,
      "taa": 1833,
      "Ġru": 1834,
      "Ġstate": 1835,
      "Ġdali": 1836,
      "Ġalla": 1837,
      "Ġcourt": 1838,
      "Ġfol": 1839,
      "Ġagen": 1840,
      "osi": 1841,
      "Ġ70": 1842,
      "ĠÏĦÎ¹": 1843,
      "Ġitali": 1844,
      "Ġindustri": 1845,
      "mec": 1846,
      "ÎµÎ½": 1847,
      "Ġgm": 1848,
      "Ġsur": 1849,
      "hend": 1850,
      "ĠÐ¿Ð°": 1851,
      "Ġvasta": 1852,
      "Ġarticle": 1853,
      "Ġgi": 1854,
      "Ġdod": 1855,
      "Ġlim": 1856,
      "Ġstraips": 1857,
      "Ġ92": 1858,
      "Ġ98": 1859,
      "Ġdispos": 1860,
      "Ġcp": 1861,
      "Ġber": 1862,
      "ties": 1863,
      "ux": 1864,
      "teri": 1865,
      "Ġprogram": 1866,
      "Ð¸Ñı": 1867,
      "Ġ53": 1868,
      "jsk": 1869,
      "Ġeks": 1870,
      "Ġmill": 1871,
      "kv": 1872,
      "iai": 1873,
      "vet": 1874,
      "zesi": 1875,
      "Ġlc": 1876,
      "Ġsan": 1877,
      "Ġ91": 1878,
      "Ġvom": 1879,
      "Ġvz": 1880,
      "tim": 1881,
      "Ġktor": 1882,
      "kri": 1883,
      "Ġdrza": 1884,
      "Ġoder": 1885,
      "Ġoike": 1886,
      "ille": 1887,
      "Ġol": 1888,
      "Ġfu": 1889,
      "ido": 1890,
      "Ġass": 1891,
      "Ġrefer": 1892,
      "ÑĢÑĥ": 1893,
      "iga": 1894,
      "Ġeuroopa": 1895,
      "Ġpartner": 1896,
      "Ġproto": 1897,
      "Ġprzed": 1898,
      "tam": 1899,
      "Ġ97": 1900,
      "Ð½Ð¾ÑģÑĤ": 1901,
      "vir": 1902,
      "cov": 1903,
      "Ġmln": 1904,
      "Ġfl": 1905,
      "tia": 1906,
      "ĠÑĤ": 1907,
      "ktor": 1908,
      "Ġrechts": 1909,
      "Ġbil": 1910,
      "Ġsmec": 1911,
      "pla": 1912,
      "ligt": 1913,
      "Ġsto": 1914,
      "wer": 1915,
      "ĠÎ±Î½": 1916,
      "hed": 1917,
      "Ġ010": 1918,
      "Ġarba": 1919,
      "ĠÎ¸": 1920,
      "ĠÎµÎ¾": 1921,
      "osa": 1922,
      "Ġdelle": 1923,
      "Ġandere": 1924,
      "Ġfis": 1925,
      "coes": 1926,
      "este": 1927,
      "adh": 1928,
      "Ġrozhod": 1929,
      "Ġ48": 1930,
      "kat": 1931,
      "ute": 1932,
      "Ġkter": 1933,
      "Ġdur": 1934,
      "Ġhog": 1935,
      "ÏħÏģÏī": 1936,
      "Ġ05": 1937,
      "ws": 1938,
      "asa": 1939,
      "Ġeuroop": 1940,
      "Ġproduk": 1941,
      "ami": 1942,
      "Ġska": 1943,
      "Ġpoz": 1944,
      "Ġgmbh": 1945,
      "med": 1946,
      "45": 1947,
      "hom": 1948,
      "gov": 1949,
      "Ġarticol": 1950,
      "Ġproiz": 1951,
      "010": 1952,
      "Ġoc": 1953,
      "Î¼Î·": 1954,
      "els": 1955,
      "Î´Î¹Îº": 1956,
      "cri": 1957,
      "jes": 1958,
      "cio": 1959,
      "Ġlid": 1960,
      "Ġtech": 1961,
      "Ġcee": 1962,
      "Ġspr": 1963,
      "Ġclen": 1964,
      "pecial": 1965,
      "zet": 1966,
      "ĠÎºÎ¿Î¹": 1967,
      "Ġprov": 1968,
      "Ġteis": 1969,
      "Ġslu": 1970,
      "urg": 1971,
      "Ġbiz": 1972,
      "Ġuber": 1973,
      "Ġek": 1974,
      "31": 1975,
      "pan": 1976,
      "ate": 1977,
      "Ġconsid": 1978,
      "vor": 1979,
      "otstell": 1980,
      "Ġeuroopan": 1981,
      "Ġgar": 1982,
      "Ġzalob": 1983,
      "nen": 1984,
      "ĠÑĥ": 1985,
      "hd": 1986,
      "hy": 1987,
      "lie": 1988,
      "Ġpras": 1989,
      "Ġuna": 1990,
      "Ġblootstell": 1991,
      "Ġinterna": 1992,
      "Ġkoz": 1993,
      "ÑģÐ½Ð¾": 1994,
      "elo": 1995,
      "Ġdirec": 1996,
      "Ġ09": 1997,
      "Ġlie": 1998,
      "Ġsau": 1999,
      "cor": 2000,
      "des": 2001,
      "omo": 2002,
      "Ġtegen": 2003,
      "Ġtur": 2004,
      "17": 2005,
      "ados": 2006,
      "Ġsit": 2007,
      "sione": 2008,
      "Ġprej": 2009,
      "Ġ04": 2010,
      "Ġcent": 2011,
      "uo": 2012,
      "pis": 2013,
      "Ġpen": 2014,
      "tura": 2015,
      "Ġartikolu": 2016,
      "sag": 2017,
      "Ġskal": 2018,
      "Ġ49": 2019,
      "tr": 2020,
      "are": 2021,
      "Ġelekt": 2022,
      "Ġ46": 2023,
      "Ġiii": 2024,
      "Ġprilo": 2025,
      "Ġ03": 2026,
      "Ġadvo": 2027,
      "Ġtransa": 2028,
      "Ġbend": 2029,
      "ÑĨÐ¸Ñı": 2030,
      "Ġhen": 2031,
      "Ġmot": 2032,
      "Ġunije": 2033,
      "Ġdoku": 2034,
      "Ġnach": 2035,
      "Ġkonk": 2036,
      "Ð³Ð»Ð°": 2037,
      "Ġman": 2038,
      "Ġaplica": 2039,
      "ĠÎ±ÏģÎ¸": 2040,
      "Ġblootstellingen": 2041,
      "Ġ75": 2042,
      "ulo": 2043,
      "Ġoso": 2044,
      "Ġvyro": 2045,
      "Î³ÏģÎ±": 2046,
      "Ġargu": 2047,
      "Ġnad": 2048,
      "Ð½Ð¸ÑĤÐµ": 2049,
      "Ġvas": 2050,
      "taja": 2051,
      "Ġondernem": 2052,
      "Ġplan": 2053,
      "kir": 2054,
      "Ġdirekti": 2055,
      "jat": 2056,
      "Ġproti": 2057,
      "Ġjusti": 2058,
      "Ġartigo": 2059,
      "wal": 2060,
      "Ġcik": 2061,
      "Ġkal": 2062,
      "ose": 2063,
      "iske": 2064,
      "tivo": 2065,
      "Ġinf": 2066,
      "ÑĬÐ»": 2067,
      "ulta": 2068,
      "bl": 2069,
      "Ð´Ðµ": 2070,
      "lad": 2071,
      "Î´Î¿": 2072,
      "adering": 2073,
      "zeni": 2074,
      "eno": 2075,
      "Ġtor": 2076,
      "Ġvid": 2077,
      "Ġjur": 2078,
      "Ġpresente": 2079,
      "ima": 2080,
      "unt": 2081,
      "Ġkra": 2082,
      "Ġins": 2083,
      "Ġrating": 2084,
      "Ġmodszer": 2085,
      "ker": 2086,
      "lening": 2087,
      "Ġgra": 2088,
      "Ġbenadering": 2089,
      "Ġondernemingen": 2090,
      "iseerde": 2091,
      "Ġpal": 2092,
      "49": 2093,
      "Ġfr": 2094,
      "verlening": 2095,
      "Ġacts": 2096,
      "omen": 2097,
      "Ġpie": 2098,
      "porta": 2099,
      "ÏĦÏģÎ¿": 2100,
      "mal": 2101,
      "Ġland": 2102,
      "Ġcontro": 2103,
      "Ġopera": 2104,
      "Ġbeg": 2105,
      "Ġkul": 2106,
      "Ġbij": 2107,
      "Ġkreditne": 2108,
      "Ġnez": 2109,
      "Ġnod": 2110,
      "Ġ87": 2111,
      "Ġgespecial": 2112,
      "Ġgespecialiseerde": 2113,
      "iniu": 2114,
      "Ġie": 2115,
      "Ġstat": 2116,
      "entes": 2117,
      "hair": 2118,
      "Ġkredietverlening": 2119,
      "Ġmes": 2120,
      "ĠÐ²ÑĬ": 2121,
      "Ġbar": 2122,
      "zni": 2123,
      "Ġuk": 2124,
      "Ġrendel": 2125,
      "jad": 2126,
      "pec": 2127,
      "Ġspra": 2128,
      "Ġstr": 2129,
      "16": 2130,
      "Ġher": 2131,
      "ÏģÎ¿Ïħ": 2132,
      "sel": 2133,
      "ula": 2134,
      "Ġkommissionen": 2135,
      "finan": 2136,
      "hor": 2137,
      "zenie": 2138,
      "koz": 2139,
      "Ġconse": 2140,
      "ej": 2141,
      "illa": 2142,
      "Ġmm": 2143,
      "Ġseptem": 2144,
      "ator": 2145,
      "Ġnes": 2146,
      "ĠÎ¹": 2147,
      "omio": 2148,
      "Ġeiro": 2149,
      "Ġlub": 2150,
      "wy": 2151,
      "lic": 2152,
      "Ġlit": 2153,
      "Ġoh": 2154,
      "vy": 2155,
      "ÏĥÎ±": 2156,
      "ÑģÑĤÐ²Ð¾": 2157,
      "Ġmark": 2158,
      "nings": 2159,
      "Ġspecialis": 2160,
      "Ġdata": 2161,
      "Ġhitele": 2162,
      "Ġao": 2163,
      "Ġning": 2164,
      "Ġeltero": 2165,
      "Ġdecision": 2166,
      "84": 2167,
      "Ġtveg": 2168,
      "tais": 2169,
      "ĠÏĥÏħÎ½": 2170,
      "assa": 2171,
      "Ġener": 2172,
      "Ġai": 2173,
      "Ġikke": 2174,
      "Ġkri": 2175,
      "Ġhitel": 2176,
      "Ġrozhodnu": 2177,
      "Ġnao": 2178,
      "Ġgada": 2179,
      "rany": 2180,
      "ĠÎµÎ¹": 2181,
      "Ġ56": 2182,
      "cc": 2183,
      "Ġmay": 2184,
      "Ġkoji": 2185,
      "Ġsystem": 2186,
      "ÏĩÎµÎ¹": 2187,
      "zek": 2188,
      "takse": 2189,
      "ninger": 2190,
      "Ġvah": 2191,
      "Ġkkv": 2192,
      "Ġeiropas": 2193,
      "tos": 2194,
      "Ġrez": 2195,
      "75": 2196,
      "Ġetta": 2197,
      "ves": 2198,
      "Ġvest": 2199,
      "ÏĩÎµ": 2200,
      "zzjonijiet": 2201,
      "Ġtem": 2202,
      "ister": 2203,
      "her": 2204,
      "Ġszal": 2205,
      "net": 2206,
      "vni": 2207,
      "ski": 2208,
      "Ġals": 2209,
      "itva": 2210,
      "ĠÎ´Î¹Îº": 2211,
      "Ġhand": 2212,
      "Ġkat": 2213,
      "Ġktore": 2214,
      "Ġdov": 2215,
      "Ð¼ÐµÐ½ÑĤ": 2216,
      "Ġeuropos": 2217,
      "rid": 2218,
      "ome": 2219,
      "23": 2220,
      "Ġpat": 2221,
      "pra": 2222,
      "egen": 2223,
      "ske": 2224,
      "rif": 2225,
      "Ġrady": 2226,
      "ex": 2227,
      "jali": 2228,
      "ÏĢÎ·": 2229,
      "cep": 2230,
      "Ġot": 2231,
      "lici": 2232,
      "Ġgeneral": 2233,
      "Ġsas": 2234,
      "denti": 2235,
      "Ġhitelezesi": 2236,
      "tik": 2237,
      "Ġ2018": 2238,
      "Ġstranke": 2239,
      "Î½Î¿Î½": 2240,
      "Ġ73": 2241,
      "Ġ59": 2242,
      "Ġeuropske": 2243,
      "enska": 2244,
      "Ġevropske": 2245,
      "Ġkitettsegektol": 2246,
      "ĠÎµÏħÏģÏī": 2247,
      "Ġpozi": 2248,
      "Ġnav": 2249,
      "pod": 2250,
      "istri": 2251,
      "kem": 2252,
      "Ġorg": 2253,
      "lia": 2254,
      "Ġdon": 2255,
      "lik": 2256,
      "rope": 2257,
      "sio": 2258,
      "ÑĦÐ¸": 2259,
      "att": 2260,
      "bra": 2261,
      "far": 2262,
      "Ġnet": 2263,
      "Ġattie": 2264,
      "cer": 2265,
      "Ġnel": 2266,
      "Ġ65": 2267,
      "pet": 2268,
      "Î³Ïī": 2269,
      "Ġeta": 2270,
      "itel": 2271,
      "ab": 2272,
      "Ġzar": 2273,
      "Ġties": 2274,
      "Ġeuropeen": 2275,
      "Ġist": 2276,
      "Ġsod": 2277,
      "mon": 2278,
      "tili": 2279,
      "cijas": 2280,
      "mina": 2281,
      "Ġaux": 2282,
      "ÏĥÎ¹": 2283,
      "tic": 2284,
      "Î³Î·": 2285,
      "Ġupp": 2286,
      "Ġ2019": 2287,
      "ĠÐ¿ÑĢÐµ": 2288,
      "anden": 2289,
      "pim": 2290,
      "Ġ41": 2291,
      "kar": 2292,
      "dos": 2293,
      "uma": 2294,
      "Ġhy": 2295,
      "kol": 2296,
      "ÑģÐ¸": 2297,
      "Ġots": 2298,
      "ĠÏĥÏĦÎ·Î½": 2299,
      "pl": 2300,
      "Ð³Ð¾": 2301,
      "Ġ06": 2302,
      "nog": 2303,
      "isia": 2304,
      "anja": 2305,
      "Ġgal": 2306,
      "ĠÏĦÎ¹ÏĤ": 2307,
      "har": 2308,
      "Ġpou": 2309,
      "Ġriziko": 2310,
      "Ġszallita": 2311,
      "bar": 2312,
      "pen": 2313,
      "Ð³ÑĢÐ°": 2314,
      "sto": 2315,
      "Ġregolamento": 2316,
      "klad": 2317,
      "Ġtveganje": 2318,
      "Ġprzy": 2319,
      "ciu": 2320,
      "sid": 2321,
      "Ġhitelkockazat": 2322,
      "Ġpad": 2323,
      "ded": 2324,
      "Ġewrope": 2325,
      "Ġregulamen": 2326,
      "Ġnyitva": 2327,
      "Ġuved": 2328,
      "Ġszallitasok": 2329,
      "Ġpartnerkockazat": 2330,
      "Ġinstan": 2331,
      "kup": 2332,
      "ĠÎ±Ïħ": 2333,
      "tur": 2334,
      "Ġkreditno": 2335,
      "iss": 2336,
      "az": 2337,
      "lal": 2338,
      "Ġltd": 2339,
      "cije": 2340,
      "vend": 2341,
      "ĠÎºÎ¿Î¹Î½Î¿": 2342,
      "ctive": 2343,
      "pad": 2344,
      "Ġgru": 2345,
      "Ġidenti": 2346,
      "Ġneces": 2347,
      "Ġhogy": 2348,
      "Ġ2020": 2349,
      "Ġsm": 2350,
      "Ġartikli": 2351,
      "Ġunter": 2352,
      "Ġnari": 2353,
      "cher": 2354,
      "ther": 2355,
      "Ġif": 2356,
      "Ġtoim": 2357,
      "pres": 2358,
      "ĠÂ§": 2359,
      "icial": 2360,
      "Ġaasta": 2361,
      "porzad": 2362,
      "lut": 2363,
      "Î¹ÎºÎ¿": 2364,
      "pun": 2365,
      "pozi": 2366,
      "Ġfinanci": 2367,
      "Ġconform": 2368,
      "Ġminn": 2369,
      "nika": 2370,
      "gew": 2371,
      "Ġliik": 2372,
      "eme": 2373,
      "ÎºÎ¿": 2374,
      "Ġmodi": 2375,
      "Ġcol": 2376,
      "Ð¼Ðµ": 2377,
      "Ġkohtu": 2378,
      "Ġasi": 2379,
      "Ġkoske": 2380,
      "tea": 2381,
      "koh": 2382,
      "iset": 2383,
      "Ġ1997": 2384,
      "Ġ51": 2385,
      "prav": 2386,
      "cties": 2387,
      "vil": 2388,
      "anna": 2389,
      "rit": 2390,
      "lam": 2391,
      "ningen": 2392,
      "29": 2393,
      "Ġord": 2394,
      "Ġsza": 2395,
      "ort": 2396,
      "Ġ1995": 2397,
      "Ġlet": 2398,
      "Ġstand": 2399,
      "uld": 2400,
      "Ġpriv": 2401,
      "Ġ47": 2402,
      "Ġpoh": 2403,
      "Ġcommissione": 2404,
      "Ġmy": 2405,
      "Ġapplica": 2406,
      "Ġdoty": 2407,
      "ance": 2408,
      "Ġ2150": 2409,
      "ÑģÐ¾": 2410,
      "ciju": 2411,
      "ĠÎ¿Î¹": 2412,
      "Ġ74": 2413,
      "Ġentre": 2414,
      "onom": 2415,
      "Ġdies": 2416,
      "Ġzur": 2417,
      "ĠÐºÐ¾Ð¼": 2418,
      "of": 2419,
      "ĠÎµÏħÏģÏīÏĢÎ±": 2420,
      "Ġuma": 2421,
      "Ġfon": 2422,
      "otta": 2423,
      "Ġ63": 2424,
      "Ġprim": 2425,
      "ica": 2426,
      "Ġata": 2427,
      "ler": 2428,
      "Ġjar": 2429,
      "zne": 2430,
      "Ġinstru": 2431,
      "Ġperi": 2432,
      "Ġdro": 2433,
      "ikkel": 2434,
      "ksen": 2435,
      "Ġeste": 2436,
      "Ġsaj": 2437,
      "Ġpok": 2438,
      "cza": 2439,
      "isesti": 2440,
      "Ġjos": 2441,
      "ĠÎ½": 2442,
      "lage": 2443,
      "xx": 2444,
      "Ġshall": 2445,
      "hi": 2446,
      "roci": 2447,
      "Ã¦n": 2448,
      "eny": 2449,
      "Ġeuropeiska": 2450,
      "Ġsubje": 2451,
      "rus": 2452,
      "Ġcz": 2453,
      "ege": 2454,
      "agal": 2455,
      "Ġmuka": 2456,
      "Î±Î½": 2457,
      "sc": 2458,
      "Ġregion": 2459,
      "ild": 2460,
      "Ġoficial": 2461,
      "Ð¸Ð·": 2462,
      "Ġeuropaischen": 2463,
      "Ġtad": 2464,
      "eda": 2465,
      "umus": 2466,
      "ĠÑĢÐµÐ³Ð»Ð°": 2467,
      "Ġmater": 2468,
      "Ġszer": 2469,
      "zin": 2470,
      "utta": 2471,
      "ĠÑĤÐ¾": 2472,
      "zit": 2473,
      "Ð¶Ð°": 2474,
      "sjoni": 2475,
      "Ġrozporzad": 2476,
      "teagal": 2477,
      "Ġtro": 2478,
      "Ġnat": 2479,
      "nio": 2480,
      "34": 2481,
      "ii": 2482,
      "ary": 2483,
      "uf": 2484,
      "pow": 2485,
      "Ġdirektiv": 2486,
      "Ġfas": 2487,
      "chan": 2488,
      "tant": 2489,
      "rie": 2490,
      "tii": 2491,
      "Ġnos": 2492,
      "Ġorig": 2493,
      "Ġ1068": 2494,
      "25": 2495,
      "Ġpostup": 2496,
      "nich": 2497,
      "ento": 2498,
      "Ġpir": 2499,
      "nas": 2500,
      "ult": 2501,
      "Ġricht": 2502,
      "Ġett": 2503,
      "kred": 2504,
      "Ġnavr": 2505,
      "Ġ89": 2506,
      "Ġsprend": 2507,
      "Ġbesch": 2508,
      "lui": 2509,
      "ÏĦÏī": 2510,
      "24": 2511,
      "Ġger": 2512,
      "Ġwir": 2513,
      "Ġaline": 2514,
      "bes": 2515,
      "ÏĢÎµ": 2516,
      "Ġmaks": 2517,
      "vas": 2518,
      "alla": 2519,
      "chod": 2520,
      "Ġbud": 2521,
      "chi": 2522,
      "fahr": 2523,
      "Ġpoliti": 2524,
      "Ġdei": 2525,
      "czy": 2526,
      "zza": 2527,
      "Ġcomunid": 2528,
      "Ġtom": 2529,
      "idir": 2530,
      "jim": 2531,
      "Ġorgani": 2532,
      "Ġtransacties": 2533,
      "Ġsol": 2534,
      "Ð¸ÑĤÐµ": 2535,
      "ien": 2536,
      "imen": 2537,
      "ĠÐ´Ðµ": 2538,
      "ÑĩÐµ": 2539,
      "mine": 2540,
      "Ġdeter": 2541,
      "ilor": 2542,
      "Ġ81": 2543,
      "ao": 2544,
      "Ġcri": 2545,
      "Ġkmo": 2546,
      "ĠÐ¶": 2547,
      "Ġjuni": 2548,
      "reg": 2549,
      "ors": 2550,
      "ais": 2551,
      "Ġutili": 2552,
      "ĠÎ¼ÎµÏĦÎ±": 2553,
      "Ġtegenpar": 2554,
      "Ð±Ð¾": 2555,
      "Ġnation": 2556,
      "ĠÏĢÎ¿": 2557,
      "Ġsel": 2558,
      "rek": 2559,
      "Ġ61": 2560,
      "Ġbei": 2561,
      "Ġminos": 2562,
      "Ġ77": 2563,
      "ĠÂ·": 2564,
      "Ġtegenpartij": 2565,
      "ments": 2566,
      "lid": 2567,
      "Ġkredietrisico": 2568,
      "Ġnaj": 2569,
      "Ġdwar": 2570,
      "uk": 2571,
      "Ġarticolul": 2572,
      "Ġ76": 2573,
      "ÐºÑĤÐ¸": 2574,
      "cs": 2575,
      "Ġjog": 2576,
      "Ġey": 2577,
      "Ġfore": 2578,
      "Ġugy": 2579,
      "nym": 2580,
      "ice": 2581,
      "krediet": 2582,
      "chaf": 2583,
      "oz": 2584,
      "Ġnacional": 2585,
      "Ġ79": 2586,
      "Ġartiklan": 2587,
      "lement": 2588,
      "ivan": 2589,
      "Ġgrund": 2590,
      "Ġ57": 2591,
      "Ġafgew": 2592,
      "jumu": 2593,
      "Ġrepres": 2594,
      "jl": 2595,
      "ikkelde": 2596,
      "ÏģÎ¹Ïĥ": 2597,
      "Ġtegenpartijkrediet": 2598,
      "Ġtegenpartijkredietrisico": 2599,
      "Ġafgewikkelde": 2600,
      "Ġdiret": 2601,
      "itte": 2602,
      "Ġclanku": 2603,
      "ÏĦÎ¹ÎºÎ±": 2604,
      "sky": 2605,
      "Ġurad": 2606,
      "ÑģÐºÐ¸": 2607,
      "jam": 2608,
      "Ġnicht": 2609,
      "Ġoig": 2610,
      "Ġ88": 2611,
      "Ġsov": 2612,
      "otti": 2613,
      "Ġchun": 2614,
      "cke": 2615,
      "Ġcc": 2616,
      "Î¸Î·": 2617,
      "Ġwerden": 2618,
      "Ġjas": 2619,
      "ario": 2620,
      "Ġfar": 2621,
      "Ġprote": 2622,
      "Ġsve": 2623,
      "fik": 2624,
      "ĠÑĢÐµÐ³Ð»Ð°Ð¼ÐµÐ½ÑĤ": 2625,
      "ĠÑģÑĤ": 2626,
      "ĠÐµÐ²": 2627,
      "Ġ2694": 2628,
      "ÎºÎµ": 2629,
      "Ġ78": 2630,
      "ĠÎµÏĢÎ¹ÏĦÏģÎ¿": 2631,
      "los": 2632,
      "ald": 2633,
      "Ġsag": 2634,
      "Ġ69": 2635,
      "Ġkes": 2636,
      "Ġcin": 2637,
      "ÑĪÐµÐ½Ð¸Ðµ": 2638,
      "tio": 2639,
      "Ġtat": 2640,
      "tow": 2641,
      "Ġcerti": 2642,
      "Ġequity": 2643,
      "Ã¸rel": 2644,
      "27": 2645,
      "Ġ86": 2646,
      "Ġspole": 2647,
      "Ġsem": 2648,
      "Ġmai": 2649,
      "Ġzad": 2650,
      "itos": 2651,
      "ĠÐ¸Ð»Ð¸": 2652,
      "ÏĨÏīÎ½": 2653,
      "Ġspa": 2654,
      "Ġ207": 2655,
      "Ġpon": 2656,
      "zie": 2657,
      "Ġez": 2658,
      "etta": 2659,
      "otts": 2660,
      "inta": 2661,
      "Ð±Ð°": 2662,
      "zov": 2663,
      "Ġalebo": 2664,
      "Ġkui": 2665,
      "fel": 2666,
      "06": 2667,
      "ence": 2668,
      "Ġfrom": 2669,
      "erd": 2670,
      "Ġaon": 2671,
      "Ġprzez": 2672,
      "Ġinteres": 2673,
      "ase": 2674,
      "alda": 2675,
      "Ġov": 2676,
      "Ġinvesti": 2677,
      "juma": 2678,
      "Ġako": 2679,
      "Â°": 2680,
      "tev": 2681,
      "Ġstatu": 2682,
      "Ġdep": 2683,
      "Ġsavi": 2684,
      "Ġust": 2685,
      "juci": 2686,
      "Ġned": 2687,
      "nice": 2688,
      "Ġiv": 2689,
      "Ġ64": 2690,
      "tag": 2691,
      "mista": 2692,
      "ÏĪ": 2693,
      "ovi": 2694,
      "Î¹ÎºÎ·ÏĤ": 2695,
      "Ġprocedura": 2696,
      "god": 2697,
      "Ġ58": 2698,
      "Ġnariad": 2699,
      "Ġuredbe": 2700,
      "ling": 2701,
      "ĠÎºÎ±Î½Î¿Î½": 2702,
      "idas": 2703,
      "Ġaw": 2704,
      "anda": 2705,
      "Ġmedle": 2706,
      "Ġtuomio": 2707,
      "Ġkur": 2708,
      "Ġtele": 2709,
      "Ġlai": 2710,
      "Î²Î¿Ïħ": 2711,
      "Ġ0106": 2712,
      "Ġlux": 2713,
      "Ġ1998": 2714,
      "Ġriala": 2715,
      "ÏĥÎµÎ¹ÏĤ": 2716,
      "Ġ83": 2717,
      "Ġry": 2718,
      "Ġeb": 2719,
      "nak": 2720,
      "Ġ72": 2721,
      "pli": 2722,
      "Ġoff": 2723,
      "ĠÎ±ÏģÎ¸ÏģÎ¿": 2724,
      "Ġbru": 2725,
      "Ġricor": 2726,
      "adas": 2727,
      "itu": 2728,
      "Ġattieci": 2729,
      "Î³Î¿": 2730,
      "rente": 2731,
      "enn": 2732,
      "Ġsul": 2733,
      "Ġrecur": 2734,
      "Ġseo": 2735,
      "nja": 2736,
      "Ġrws": 2737,
      "Ġveik": 2738,
      "Ġother": 2739,
      "Ð»Ð¾Ð¶": 2740,
      "Ð»ÐµÐ´": 2741,
      "nom": 2742,
      "ÏĨÎµ": 2743,
      "ĠÐ¸Ð½": 2744,
      "Ġairteagal": 2745,
      "uti": 2746,
      "Ġ68": 2747,
      "Ġvil": 2748,
      "Ġacc": 2749,
      "igh": 2750,
      "Ġ1996": 2751,
      "Ġpristup": 2752,
      "Ġany": 2753,
      "Ġhan": 2754,
      "Ġout": 2755,
      "Ġ67": 2756,
      "kove": 2757,
      "Ġbizotts": 2758,
      "Ġkonven": 2759,
      "used": 2760,
      "Ġee": 2761,
      "uko": 2762,
      "Ġzastup": 2763,
      "alta": 2764,
      "ĠÐµÐ²ÑĢÐ¾": 2765,
      "Ġmr": 2766,
      "rezen": 2767,
      "Ġefter": 2768,
      "Ġnoteik": 2769,
      "ĠÐ¿ÑĢÐ¾Ð¸Ð·": 2770,
      "Ð¼Ð¾": 2771,
      "tri": 2772,
      "Ġeuropai": 2773,
      "Ġpagal": 2774,
      "nad": 2775,
      "rec": 2776,
      "ulu": 2777,
      "cos": 2778,
      "ques": 2779,
      "kona": 2780,
      "Ġfuq": 2781,
      "Ġokto": 2782,
      "Ġalap": 2783,
      "Ġdoor": 2784,
      "ĠtagÄ§": 2785,
      "Ġaset": 2786,
      "ds": 2787,
      "hmen": 2788,
      "inte": 2789,
      "Ġcal": 2790,
      "bol": 2791,
      "Ġleis": 2792,
      "lika": 2793,
      "Ġhat": 2794,
      "Ð¸ÑĤÐ¾": 2795,
      "konom": 2796,
      "Ġorganiza": 2797,
      "Ġcha": 2798,
      "Ġ71": 2799,
      "fat": 2800,
      "nici": 2801,
      "odo": 2802,
      "ladu": 2803,
      "via": 2804,
      "ires": 2805,
      "yl": 2806,
      "Ġtex": 2807,
      "Ġzi": 2808,
      "isla": 2809,
      "Ġsar": 2810,
      "ring": 2811,
      "iten": 2812,
      "taro": 2813,
      "missjoni": 2814,
      "Ä§ra": 2815,
      "Ġprocesso": 2816,
      "Ġcomissa": 2817,
      "Ġsiste": 2818,
      "Ġminosites": 2819,
      "Ġvallal": 2820,
      "kan": 2821,
      "zb": 2822,
      "ism": 2823,
      "izeni": 2824,
      "Ġpodni": 2825,
      "Ġtak": 2826,
      "Ġfejl": 2827,
      "bin": 2828,
      "Ġpanta": 2829,
      "wn": 2830,
      "geri": 2831,
      "Ġgod": 2832,
      "Ġsv": 2833,
      "sty": 2834,
      "ĠoÄ§ra": 2835,
      "atu": 2836,
      "rei": 2837,
      "ket": 2838,
      "iex": 2839,
      "Ġkonania": 2840,
      "Ġcoun": 2841,
      "ĠÐ¿ÑĢÐ°": 2842,
      "Ġproje": 2843,
      "Ġdurch": 2844,
      "Ġbed": 2845,
      "reak": 2846,
      "Ġzij": 2847,
      "Ġ}": 2848,
      "terna": 2849,
      "Ġwhich": 2850,
      "Ġprof": 2851,
      "Ġprie": 2852,
      "Ġluxemb": 2853,
      "plo": 2854,
      "Ġeine": 2855,
      "Ð¿ÐµÐ¸Ñģ": 2856,
      "Ġsection": 2857,
      "Ġ030": 2858,
      "elles": 2859,
      "Ġarticolo": 2860,
      "Ġcir": 2861,
      "Ġinde": 2862,
      "Ġzd": 2863,
      "mai": 2864,
      "Ġkam": 2865,
      "ĠÐµÐ²ÑĢÐ¾Ð¿ÐµÐ¸Ñģ": 2866,
      "Ġ{": 2867,
      "pal": 2868,
      "turi": 2869,
      "hold": 2870,
      "Ð¿Ð°": 2871,
      "Ġqui": 2872,
      "moni": 2873,
      "lor": 2874,
      "Ġhas": 2875,
      "adi": 2876,
      "Ġregulamentul": 2877,
      "Ġpes": 2878,
      "Ġdistri": 2879,
      "cijos": 2880,
      "Ġ2021": 2881,
      "vljen": 2882,
      "ĠÐ¿Ð°ÑĢÐ°": 2883,
      "reb": 2884,
      "mata": 2885,
      "Ġdocu": 2886,
      "18": 2887,
      "jac": 2888,
      "ĠÏĦÎ¿Î½": 2889,
      "seg": 2890,
      "44": 2891,
      "Ġgemenska": 2892,
      "han": 2893,
      "rag": 2894,
      "Ġdnia": 2895,
      "cja": 2896,
      "Ġobje": 2897,
      "Ġcap": 2898,
      "Î¼Î¿Ïħ": 2899,
      "break": 2900,
      "Ġsti": 2901,
      "nosci": 2902,
      "Ġcomissao": 2903,
      "Ġmaterial": 2904,
      "vne": 2905,
      "66": 2906,
      "Ġvu": 2907,
      "amh": 2908,
      "Ġ110": 2909,
      "chaft": 2910,
      "Ġeh": 2911,
      "Ġmog": 2912,
      "Ġ148": 2913,
      "Ġcondi": 2914,
      "Ġmel": 2915,
      "Ġlisa": 2916,
      "Ġkomuni": 2917,
      "ĠÏĦÎ¿ÏħÏĤ": 2918,
      "Ġqual": 2919,
      "ppen": 2920,
      "Ġdy": 2921,
      "39": 2922,
      "Ġkr": 2923,
      "tori": 2924,
      "Ġvagy": 2925,
      "Ð¼Ð¸": 2926,
      "Î¼Î±ÏĦÎ±": 2927,
      "ĠÑĩÐµ": 2928,
      "Ġrizeni": 2929,
      "cin": 2930,
      "Ġkoje": 2931,
      "ĠÐ¿Ð°ÑĢÐ°Ð³ÑĢÐ°": 2932,
      "usel": 2933,
      "Ġods": 2934,
      "ĠÎ¿ÏĢÎ¿": 2935,
      "Ġcommuna": 2936,
      "Ġappro": 2937,
      "Ġing": 2938,
      "leg": 2939,
      "Ġmaidir": 2940,
      "Ġcam": 2941,
      "Ġkaip": 2942,
      "Î±Î¹": 2943,
      "tid": 2944,
      "Ġesita": 2945,
      "hl": 2946,
      "Ġ0086": 2947,
      "ĠeuropÃ¦": 2948,
      "Ġznam": 2949,
      "Ġpredmet": 2950,
      "Ġcpc": 2951,
      "osto": 2952,
      "enda": 2953,
      "Ġmille": 2954,
      "Ġcui": 2955,
      "bb": 2956,
      "Î´Î±": 2957,
      "Ġform": 2958,
      "Ġeuropea": 2959,
      "Ð´Ñĥ": 2960,
      "38": 2961,
      "rod": 2962,
      "arta": 2963,
      "ira": 2964,
      "Ġhoof": 2965,
      "Ġjuli": 2966,
      "Ġ220": 2967,
      "ÏĦÎ·ÏĦÎ±": 2968,
      "Ġmillio": 2969,
      "ison": 2970,
      "alo": 2971,
      "uses": 2972,
      "igen": 2973,
      "Ġgran": 2974,
      "ĠeuropÃ¦iske": 2975,
      "Ġkohd": 2976,
      "Ġmedlems": 2977,
      "ert": 2978,
      "Ġozna": 2979,
      "Ġpag": 2980,
      "Ġfejlett": 2981,
      "Ġtemel": 2982,
      "jer": 2983,
      "uje": 2984,
      "oms": 2985,
      "ony": 2986,
      "59": 2987,
      "Ġsmer": 2988,
      "Î´Î·": 2989,
      "ĠÐºÐ¾Ð¼Ð¸Ñģ": 2990,
      "vien": 2991,
      "57": 2992,
      "ĠÐ»": 2993,
      "Ġare": 2994,
      "vol": 2995,
      "nung": 2996,
      "plat": 2997,
      "au": 2998,
      "Ġinterpre": 2999,
      "Ð½Ð°ÑĤÐ°": 3000,
      "enden": 3001,
      "unda": 3002,
      "Ġskar": 3003,
      "oi": 3004,
      "eld": 3005,
      "53": 3006,
      "Ġvyrob": 3007,
      "ÑħÐ¾": 3008,
      "kter": 3009,
      "Ġoraz": 3010,
      "ĠÐºÐ¾Ð¼Ð¸ÑģÐ¸Ñı": 3011,
      "ores": 3012,
      "Ġodlu": 3013,
      "Ġpage": 3014,
      "zbe": 3015,
      "Ġset": 3016,
      "Ġmeta": 3017,
      "isk": 3018,
      "uda": 3019,
      "igu": 3020,
      "Ġklag": 3021,
      "Ġandra": 3022,
      "ric": 3023,
      "Ġ197": 3024,
      "ogra": 3025,
      "Ġkummissjoni": 3026,
      "vanje": 3027,
      "ÑĩÐ¸": 3028,
      "Ã¦g": 3029,
      "Ġ66": 3030,
      "Ġposi": 3031,
      "embre": 3032,
      "lit": 3033,
      "atul": 3034,
      "tului": 3035,
      "Ġstru": 3036,
      "Ġsolici": 3037,
      "ilo": 3038,
      "Ġstati": 3039,
      "nego": 3040,
      "stvi": 3041,
      "imh": 3042,
      "vate": 3043,
      "Ġregolament": 3044,
      "Ġanex": 3045,
      "ÐºÐ²Ð°": 3046,
      "Ġrendelet": 3047,
      "Ġklas": 3048,
      "Ġworden": 3049,
      "Ġlis": 3050,
      "Ġunjoni": 3051,
      "iej": 3052,
      "Ġregist": 3053,
      "Ġsektor": 3054,
      "Î¸ÎµÎ¹": 3055,
      "ĠÏĥÏĩÎµ": 3056,
      "Ġgenom": 3057,
      "ĠÏĥÏħÎ¼ÏĨÏīÎ½": 3058,
      "Ġeconom": 3059,
      "else": 3060,
      "Ġ269": 3061,
      "Ġbro": 3062,
      "zio": 3063,
      "kog": 3064,
      "Ġtan": 3065,
      "Ġochran": 3066,
      "let": 3067,
      "Ġlig": 3068,
      "Ġtul": 3069,
      "tens": 3070,
      "Ã¦l": 3071,
      "kezd": 3072,
      "Ġdefini": 3073,
      "cat": 3074,
      "ÏģÎ¼Î¿": 3075,
      "Ġregula": 3076,
      "Ġewropea": 3077,
      "jumi": 3078,
      "cent": 3079,
      "pingu": 3080,
      "gas": 3081,
      "Ġji": 3082,
      "lles": 3083,
      "52": 3084,
      "Ġmaj": 3085,
      "tei": 3086,
      "Ġsopim": 3087,
      "Ġvec": 3088,
      "Ġdalib": 3089,
      "Ġlic": 3090,
      "Ġradets": 3091,
      "Ġconsider": 3092,
      "Ġneuv": 3093,
      "ybos": 3094,
      "ĠÎ´ÎµÎ½": 3095,
      "Ġmaara": 3096,
      "dende": 3097,
      "ÏĢÎ¿Î¹Î·": 3098,
      "Î¹Î½": 3099,
      "Ġwo": 3100,
      "Ġtir": 3101,
      "atta": 3102,
      "Ġskladu": 3103,
      "ÏģÏīÎ½": 3104,
      "Ġnoti": 3105,
      "mist": 3106,
      "ĠÐ¿Ð°ÑĢÐ°Ð³ÑĢÐ°ÑĦ": 3107,
      "ac": 3108,
      "Ġ1994": 3109,
      "ars": 3110,
      "mach": 3111,
      "Ġ82": 3112,
      "ono": 3113,
      "bile": 3114,
      "ĠÐ¾Ð±Ñī": 3115,
      "Ġsr": 3116,
      "ital": 3117,
      "Ġrozhodnuti": 3118,
      "Ġeuropejsk": 3119,
      "ĠÐ¼Ðµ": 3120,
      "ĠÎºÎ±Î½Î¿Î½Î¹Ïĥ": 3121,
      "Ġgy": 3122,
      "ĠÎ´Î·": 3123,
      "05": 3124,
      "ures": 3125,
      "anto": 3126,
      "ĠÎ±Î»": 3127,
      "Ġadop": 3128,
      "omh": 3129,
      "owy": 3130,
      "Ġeut": 3131,
      "Ġvse": 3132,
      "Ġ62": 3133,
      "Ġzo": 3134,
      "Ġlem": 3135,
      "pus": 3136,
      "jace": 3137,
      "Ġbeslut": 3138,
      "enu": 3139,
      "Ġsum": 3140,
      "Ġenligt": 3141,
      "Ġkohta": 3142,
      "Ġjanu": 3143,
      "Ġfasts": 3144,
      "ÎºÎ±": 3145,
      "itus": 3146,
      "Ġ1515": 3147,
      "Ġimporta": 3148,
      "ÑģÑĤÐ¸": 3149,
      "nolog": 3150,
      "gende": 3151,
      "Ð²ÐµÑĤ": 3152,
      "jev": 3153,
      "Ġdisposi": 3154,
      "niho": 3155,
      "Ġliidu": 3156,
      "Ġkontra": 3157,
      "hen": 3158,
      "Ġfir": 3159,
      "ĠÐºÐ¾Ð¸ÑĤÐ¾": 3160,
      "Ġgegen": 3161,
      "Ġelo": 3162,
      "maan": 3163,
      "eres": 3164,
      "Ġgemeins": 3165,
      "ĠÑģÐ°": 3166,
      "Ġosta": 3167,
      "Ġvastu": 3168,
      "Ġtot": 3169,
      "ĠâĪ": 3170,
      "ĠÐ¼Ð°": 3171,
      "odu": 3172,
      "Ġstk": 3173,
      "42": 3174,
      "iel": 3175,
      "ĠÐ¶Ð°Ð»": 3176,
      "Ġlan": 3177,
      "Ġjez": 3178,
      "Ġprocedure": 3179,
      "ems": 3180,
      "Ġskup": 3181,
      "Ð½Ð¾ÑĤÐ¾": 3182,
      "Ð²ÑĬÑĢ": 3183,
      "Ġseptember": 3184,
      "teen": 3185,
      "Ġcur": 3186,
      "Ġsat": 3187,
      "als": 3188,
      "esto": 3189,
      "Ġyhteiso": 3190,
      "Ġuhend": 3191,
      "Ġspo": 3192,
      "Ġbg": 3193,
      "idos": 3194,
      "enas": 3195,
      "ĠÏĦÎµ": 3196,
      "Ġlen": 3197,
      "Ġamen": 3198,
      "36": 3199,
      "Ġdirectiva": 3200,
      "Ġtam": 3201,
      "Ġtaik": 3202,
      "Ĥ¬": 3203,
      "Ġsavieni": 3204,
      "atud": 3205,
      "uss": 3206,
      "isao": 3207,
      "Ġfebru": 3208,
      "ĠÎ¿ÏĦÎ¹": 3209,
      "Ġkell": 3210,
      "ya": 3211,
      "Ġodst": 3212,
      "Ġvs": 3213,
      "lichen": 3214,
      "zt": 3215,
      "Ġatbil": 3216,
      "meny": 3217,
      "Ġnah": 3218,
      "Ġstanov": 3219,
      "king": 3220,
      "Ġkw": 3221,
      "tne": 3222,
      "Ġdecizjoni": 3223,
      "ÑģÑĤÐ¾": 3224,
      "Ġkir": 3225,
      "lasti": 3226,
      "Ġvije": 3227,
      "Ġkans": 3228,
      "Ġeuropese": 3229,
      "Ġsenten": 3230,
      "ides": 3231,
      "Ġents": 3232,
      "bez": 3233,
      "Ġgov": 3234,
      "cal": 3235,
      "ents": 3236,
      "Ġostat": 3237,
      "ĠÏĢÏģÎ¿ÏĥÏĨ": 3238,
      "hul": 3239,
      "Ġcred": 3240,
      "ÏģÎ¹Î¿Ïħ": 3241,
      "ÑĬÑĢÐ¶Ð°": 3242,
      "Ġvalo": 3243,
      "ema": 3244,
      "atr": 3245,
      "Ġsitua": 3246,
      "ecu": 3247,
      "Ġwaar": 3248,
      "Ġportu": 3249,
      "stra": 3250,
      "Ġbase": 3251,
      "Ġprivind": 3252,
      "Ġtermin": 3253,
      "udicial": 3254,
      "imu": 3255,
      "ĠâĤ¬": 3256,
      "mentos": 3257,
      "ÑĩÐ°": 3258,
      "Ġuh": 3259,
      "ospod": 3260,
      "Ġvr": 3261,
      "Ġcomo": 3262,
      "Ġpriem": 3263,
      "Ġucast": 3264,
      "Ġpresid": 3265,
      "enih": 3266,
      "uj": 3267,
      "onn": 3268,
      "ĠÎºÎ±Î¸": 3269,
      "Ġanal": 3270,
      "inda": 3271,
      "ÎµÏĦÎ±Î¹": 3272,
      "Ġekonom": 3273,
      "Ġprost": 3274,
      "ule": 3275,
      "Ð»Ñĥ": 3276,
      "itas": 3277,
      "Ġdirective": 3278,
      "Ġgcom": 3279,
      "Ġtol": 3280,
      "omas": 3281,
      "ĠÎ¸Îµ": 3282,
      "Ġdemand": 3283,
      "Ġsy": 3284,
      "Ð¾Ð±": 3285,
      "Ġeiner": 3286,
      "ipo": 3287,
      "Ġrest": 3288,
      "Ġosa": 3289,
      "Ġrecurso": 3290,
      "33": 3291,
      "erea": 3292,
      "Ġ1993": 3293,
      "vio": 3294,
      "ische": 3295,
      "Ġlat": 3296,
      "Ġped": 3297,
      "Ġobliga": 3298,
      "Î»Î¿Î³": 3299,
      "staat": 3300,
      "Ġnarizeni": 3301,
      "Ġ2645": 3302,
      "ĠÎ½Î¿": 3303,
      "Ð³Ð¸": 3304,
      "Ġcompet": 3305,
      "ÅĤow": 3306,
      "Ġvzor": 3307,
      "uto": 3308,
      "tera": 3309,
      "Ġpin": 3310,
      "Ġstraipsnio": 3311,
      "Ġapril": 3312,
      "Ġsistema": 3313,
      "Ġtun": 3314,
      "Ġbal": 3315,
      "Ġlegisla": 3316,
      "ivat": 3317,
      "Ġram": 3318,
      "Ġforma": 3319,
      "Ġnefinan": 3320,
      "ĠÎ»Î¿": 3321,
      "fuhr": 3322,
      "Ġasso": 3323,
      "Ð»Ñı": 3324,
      "Ġrikor": 3325,
      "Ġacord": 3326,
      "Ġtik": 3327,
      "Ġsvo": 3328,
      "Ġaj": 3329,
      "ukogu": 3330,
      "Ġdohod": 3331,
      "Ġbl": 3332,
      "Ġtoo": 3333,
      "Ġpros": 3334,
      "ÅĤu": 3335,
      "Ġcla": 3336,
      "ĠÐ¿ÑĢÐ¾Ð¸Ð·Ð²Ð¾": 3337,
      "Ġstar": 3338,
      "Ġposte": 3339,
      "cje": 3340,
      "Ġky": 3341,
      "itari": 3342,
      "Ġmerc": 3343,
      "Ġbekezd": 3344,
      "idade": 3345,
      "Ġcommissie": 3346,
      "anta": 3347,
      "inas": 3348,
      "Ġpagr": 3349,
      "Ġzw": 3350,
      "hov": 3351,
      "Ġjin": 3352,
      "umping": 3353,
      "con": 3354,
      "Î¾Î·": 3355,
      "Ġbizottsag": 3356,
      "teil": 3357,
      "linie": 3358,
      "Î¼ÎµÎ½Î¿": 3359,
      "achta": 3360,
      "ĠÑĤÐµ": 3361,
      "Ġconseil": 3362,
      "Ġsobre": 3363,
      "Ġnusta": 3364,
      "Ġmor": 3365,
      "sts": 3366,
      "Ġupora": 3367,
      "Ġcy": 3368,
      "Ġtuomioistu": 3369,
      "Ġhoofde": 3370,
      "ette": 3371,
      "itor": 3372,
      "kes": 3373,
      "Ġunii": 3374,
      "Ġsistem": 3375,
      "Ġnaspro": 3376,
      "Ġterri": 3377,
      "stell": 3378,
      "Ġfer": 3379,
      "the": 3380,
      "stva": 3381,
      "eniu": 3382,
      "ĠÎµÎ½Ïī": 3383,
      "Ġwar": 3384,
      "Ð¿Ð¸": 3385,
      "Ġstranka": 3386,
      "rin": 3387,
      "Ġsajung": 3388,
      "Ġsup": 3389,
      "Ġ020": 3390,
      "Î´Î¹ÎºÎ±Ïĥ": 3391,
      "Ġdass": 3392,
      "03": 3393,
      "Î¹ÎºÏīÎ½": 3394,
      "ĠÐºÐ°ÑĤÐ¾": 3395,
      "bior": 3396,
      "tett": 3397,
      "Ġrap": 3398,
      "Ġkov": 3399,
      "Ġteks": 3400,
      "Ġeuipo": 3401,
      "ĠÎ±Î¹": 3402,
      "Ġstav": 3403,
      "47": 3404,
      "Ġsegu": 3405,
      "erin": 3406,
      "tioner": 3407,
      "Ġgeri": 3408,
      "Ġtab": 3409,
      "Ġniso": 3410,
      "Ġmt": 3411,
      "Ġetre": 3412,
      "osci": 3413,
      "Ġjel": 3414,
      "Ġseka": 3415,
      "Ġaby": 3416,
      "Ġcomunidades": 3417,
      "klju": 3418,
      "Ġjasen": 3419,
      "Ã¦t": 3420,
      "Ġkaz": 3421,
      "isto": 3422,
      "Ġling": 3423,
      "Ġproizvod": 3424,
      "Ġnefinancne": 3425,
      "Ġpredlo": 3426,
      "mesri": 3427,
      "ular": 3428,
      "Ġtod": 3429,
      "Ġregulamento": 3430,
      "unta": 3431,
      "stal": 3432,
      "Ġasia": 3433,
      "gg": 3434,
      "Ġmarca": 3435,
      "Ġreik": 3436,
      "oston": 3437,
      "Ġlakos": 3438,
      "Ġpub": 3439,
      "Ġbis": 3440,
      "58": 3441,
      "ÅĤacz": 3442,
      "Ġverzo": 3443,
      "nov": 3444,
      "Ġnap": 3445,
      "Ġmitgli": 3446,
      "Ġhr": 3447,
      "skych": 3448,
      "Ġkons": 3449,
      "unii": 3450,
      "peres": 3451,
      "tionen": 3452,
      "uts": 3453,
      "qa": 3454,
      "stav": 3455,
      "Ġsags": 3456,
      "Ġyra": 3457,
      "Ġpunkta": 3458,
      "Ġktere": 3459,
      "ĠÐ¿Ð¾Ð´": 3460,
      "postavljen": 3461,
      "stwa": 3462,
      "Ġsocial": 3463,
      "ked": 3464,
      "miseks": 3465,
      "emi": 3466,
      "rep": 3467,
      "Î»ÏīÎ½": 3468,
      "ĠÎºÏģÎ±": 3469,
      "Ġpt": 3470,
      "Ġkod": 3471,
      "Ġnoukogu": 3472,
      "Ġsim": 3473,
      "igo": 3474,
      "ĠÏĥÏĦÎ¹": 3475,
      "ef": 3476,
      "kana": 3477,
      "Ġlist": 3478,
      "Ġari": 3479,
      "ĠÑģÑĬÑİ": 3480,
      "Ġyhteisojen": 3481,
      "ÏģÎµÎ¹": 3482,
      "Ġtut": 3483,
      "ciones": 3484,
      "encia": 3485,
      "Î¹Î¿Î½": 3486,
      "Ġwird": 3487,
      "Ġhod": 3488,
      "Ġprip": 3489,
      "ture": 3490,
      "Ġalineatul": 3491,
      "vs": 3492,
      "Î»ÎµÎ¹": 3493,
      "luse": 3494,
      "Ġzijn": 3495,
      "chtai": 3496,
      "nied": 3497,
      "ĠâĢĲ": 3498,
      "Ġpers": 3499,
      "Ġsajungos": 3500,
      "ÑģÑĤÐ°Ð²": 3501,
      "ĠÐµÐ²ÑĢÐ¾Ð¿ÐµÐ¸ÑģÐºÐ¸": 3502,
      "Ġnational": 3503,
      "Ġliikmesri": 3504,
      "sak": 3505,
      "Ġrichtlinie": 3506,
      "26": 3507,
      "hof": 3508,
      "Ġces": 3509,
      "zel": 3510,
      "Ġans": 3511,
      "ÏĦÎ¹ÎºÎ¿": 3512,
      "oti": 3513,
      "asok": 3514,
      "nje": 3515,
      "fice": 3516,
      "28": 3517,
      "Ġdirettiva": 3518,
      "ÏĦÎµÏĤ": 3519,
      "Ġits": 3520,
      "Ġbetre": 3521,
      "jans": 3522,
      "ÏĥÎµÏīÏĤ": 3523,
      "Ġpodla": 3524,
      "Ġsind": 3525,
      "Ġkeh": 3526,
      "Ġsocie": 3527,
      "kam": 3528,
      "Ġunionin": 3529,
      "04": 3530,
      "plac": 3531,
      "Ġjud": 3532,
      "imal": 3533,
      "Ġfre": 3534,
      "zor": 3535,
      "Ġaug": 3536,
      "Ġzve": 3537,
      "Ġizpostavljen": 3538,
      "Ġeli": 3539,
      "Ġreglamento": 3540,
      "Ġnru": 3541,
      "Ġcomunita": 3542,
      "Ġkomise": 3543,
      "Ġret": 3544,
      "zzi": 3545,
      "ospodar": 3546,
      "erna": 3547,
      "Ġprejud": 3548,
      "Ġavo": 3549,
      "posi": 3550,
      "Ġparagrap": 3551,
      "idi": 3552,
      "Ġren": 3553,
      "Ġmuut": 3554,
      "anych": 3555,
      "Ġmax": 3556,
      "heid": 3557,
      "Ġkateg": 3558,
      "Ġven": 3559,
      "Ġbene": 3560,
      "uc": 3561,
      "Ġtule": 3562,
      "Ġsc": 3563,
      "valt": 3564,
      "Ġprodotti": 3565,
      "tve": 3566,
      "niu": 3567,
      "Ġpagebreak": 3568,
      "ez": 3569,
      "ai": 3570,
      "Ġselle": 3571,
      "Ġobve": 3572,
      "ĠÐ¿ÑĢÐ¸Ð»Ð¾Ð¶": 3573,
      "zer": 3574,
      "gia": 3575,
      "Ġbelgi": 3576,
      "Ġtana": 3577,
      "Ġrig": 3578,
      "ritt": 3579,
      "Ġenti": 3580,
      "ĠÐ¾ÑģÐ½Ð¾": 3581,
      "Ġpostepow": 3582,
      "ÏĦÎµÎ¹": 3583,
      "Ġdecember": 3584,
      "cho": 3585,
      "Ġcos": 3586,
      "arbe": 3587,
      "ÑģÐºÐ°": 3588,
      "atko": 3589,
      "Ġras": 3590,
      "satz": 3591,
      "oloc": 3592,
      "020": 3593,
      "ÏĥÏĦÎ·": 3594,
      "51": 3595,
      "Ġgre": 3596,
      "vus": 3597,
      "Ġvet": 3598,
      "Ġsee": 3599,
      "Ġhis": 3600,
      "vall": 3601,
      "sam": 3602,
      "41": 3603,
      "Ġhave": 3604,
      "delse": 3605,
      "redni": 3606,
      "Ġzaht": 3607,
      "71": 3608,
      "ĠÏĥÏĦÎ¹ÏĤ": 3609,
      "Ġkasuta": 3610,
      "Ġpog": 3611,
      "Ġapri": 3612,
      "ĠÑĦ": 3613,
      "inni": 3614,
      "Ġfunk": 3615,
      "cita": 3616,
      "Ġparlament": 3617,
      "elho": 3618,
      "Ġcond": 3619,
      "32": 3620,
      "lar": 3621,
      "Ġpomo": 3622,
      "Ġprodut": 3623,
      "vaa": 3624,
      "Ġdecisao": 3625,
      "kych": 3626,
      "cation": 3627,
      "Ġhal": 3628,
      "iki": 3629,
      "Ġkaw": 3630,
      "Ġprzedsie": 3631,
      "ss": 3632,
      "Ġconf": 3633,
      "zien": 3634,
      "zyk": 3635,
      "Ġeel": 3636,
      "Ġule": 3637,
      "Ġfinans": 3638,
      "Ġkuns": 3639,
      "Ġend": 3640,
      "Ġplat": 3641,
      "Ġbre": 3642,
      "Ġbiro": 3643,
      "ÐµÐ½Ð¸Ñı": 3644,
      "Ġzus": 3645,
      "Ġbut": 3646,
      "Ġpap": 3647,
      "iola": 3648,
      "Ġens": 3649,
      "mien": 3650,
      "Ġfig": 3651,
      "Ġregistra": 3652,
      "ody": 3653,
      "Î³ÏģÎ±ÏĨÎ¿": 3654,
      "pter": 3655,
      "Ġconta": 3656,
      "Ġsok": 3657,
      "ĠsagsÃ¸": 3658,
      "Ġclas": 3659,
      "ÑĨÐ¸Ð¸": 3660,
      "ĠÐ¾ÑĤÐ½Ð¾": 3661,
      "Ġees": 3662,
      "Ġstato": 3663,
      "Ġcod": 3664,
      "Ġpodle": 3665,
      "Ġcita": 3666,
      "Ġskall": 3667,
      "Ġinternational": 3668,
      "cheid": 3669,
      "ÏĦÎ¹ÎºÎ·": 3670,
      "minen": 3671,
      "ÑīÐµ": 3672,
      "Î»Î¹Î¿Ïħ": 3673,
      "Ġtras": 3674,
      "chappen": 3675,
      "Ġbor": 3676,
      "Ġpouzi": 3677,
      "Ġpublic": 3678,
      "yndig": 3679,
      "Ġmitglied": 3680,
      "jonali": 3681,
      "utes": 3682,
      "Ġsavienibas": 3683,
      "tsio": 3684,
      "Ġprzedsiebior": 3685,
      "Ġang": 3686,
      "Ġcan": 3687,
      "trag": 3688,
      "Ã¦lles": 3689,
      "08": 3690,
      "uja": 3691,
      "Ġspora": 3692,
      "inio": 3693,
      "nut": 3694,
      "Ġpristop": 3695,
      "nek": 3696,
      "Ġnaved": 3697,
      "Ġtari": 3698,
      "Ġamely": 3699,
      "ĠÐ´ÑĢÑĥ": 3700,
      "ĠÑĨ": 3701,
      "Ġtranspor": 3702,
      "ÐµÐ½Ð°": 3703,
      "Ġrecor": 3704,
      "Ġdetta": 3705,
      "Ġrapp": 3706,
      "Î¿Î½ÏĦÎ±Î¹": 3707,
      "Ġeljar": 3708,
      "Ġprotist": 3709,
      "Ġsil": 3710,
      "Î½Î±Î¹": 3711,
      "Î¼Î±ÏĦÎ¿ÏĤ": 3712,
      "ĠfÃ¦lles": 3713,
      "ĠÐ³Ð¾": 3714,
      "Ġ040": 3715,
      "Ġeng": 3716,
      "klar": 3717,
      "Ġrespon": 3718,
      "Ġproduc": 3719,
      "Ġrespe": 3720,
      "Ġkommissionens": 3721,
      "Ġtek": 3722,
      "Ġpiem": 3723,
      "unto": 3724,
      "Ġtid": 3725,
      "Ġtax": 3726,
      "nega": 3727,
      "Ġzam": 3728,
      "Ġrequer": 3729,
      "Ġdispozi": 3730,
      "Ġnasprotne": 3731,
      "lud": 3732,
      "Ġfac": 3733,
      "Ġsaa": 3734,
      "eren": 3735,
      "rol": 3736,
      "Ġoffici": 3737,
      "hall": 3738,
      "pare": 3739,
      "Ġâī": 3740,
      "zej": 3741,
      "testa": 3742,
      "Ġprotistrany": 3743,
      "omis": 3744,
      "ĠÎµÎ¹Î½Î±Î¹": 3745,
      "onder": 3746,
      "Ġfounda": 3747,
      "jeni": 3748,
      "Ġ1992": 3749,
      "iec": 3750,
      "Ġkopi": 3751,
      "utus": 3752,
      "ÅĤy": 3753,
      "rov": 3754,
      "Ġfoundation": 3755,
      "Ġpy": 3756,
      "Ġarbe": 3757,
      "lij": 3758,
      "Ġcausa": 3759,
      "Ġveg": 3760,
      "hre": 3761,
      "Ġconselho": 3762,
      "ĠÎµÏĨÎ±": 3763,
      "Ġclanak": 3764,
      "Ġjasenval": 3765,
      "Ġbuti": 3766,
      "iaz": 3767,
      "ĠÎ´Îµ": 3768,
      "Ġkompet": 3769,
      "Ġaccord": 3770,
      "jene": 3771,
      "Ġgla": 3772,
      "lis": 3773,
      "ksa": 3774,
      "Ġmenet": 3775,
      "bet": 3776,
      "09": 3777,
      "Ġstabili": 3778,
      "Ġ300": 3779,
      "erne": 3780,
      "Ġmus": 3781,
      "rai": 3782,
      "teh": 3783,
      "Ġkredy": 3784,
      "arii": 3785,
      "Ġappel": 3786,
      "Ġ999": 3787,
      "ones": 3788,
      "kul": 3789,
      "ĠÏĥÎ·": 3790,
      "Ġokres": 3791,
      "Ġnavrh": 3792,
      "Ġpont": 3793,
      "hang": 3794,
      "Ġindivid": 3795,
      "Î¹ÎºÎ¿Ïħ": 3796,
      "Ġeuropeenne": 3797,
      "Ġsont": 3798,
      "iny": 3799,
      "ib": 3800,
      "ĠÃ": 3801,
      "Ġvla": 3802,
      "jd": 3803,
      "esole": 3804,
      "fter": 3805,
      "vand": 3806,
      "Ġmuud": 3807,
      "ĠÏĥÏħÎ¼Î²Î¿Ïħ": 3808,
      "ĠÎµÏĨÎ±ÏģÎ¼Î¿": 3809,
      "nic": 3810,
      "Ġrin": 3811,
      "Ð½Ð¸Ðµ": 3812,
      "Ġopatr": 3813,
      "avan": 3814,
      "kou": 3815,
      "Ġbila": 3816,
      "Ġbyt": 3817,
      "ĠÎµÏĢÎ¹ÏĦÏģÎ¿ÏĢÎ·": 3818,
      "ÏģÎ¹Î¿": 3819,
      "Ġly": 3820,
      "owe": 3821,
      "aliza": 3822,
      "tta": 3823,
      "ordening": 3824,
      "Ġlena": 3825,
      "Ġfinal": 3826,
      "Ġtin": 3827,
      "85": 3828,
      "ĠÐµÐ²ÑĢÐ¾Ð¿ÐµÐ¸ÑģÐºÐ¸Ñı": 3829,
      "Ġuniunii": 3830,
      "Ġina": 3831,
      "Ġzalobky": 3832,
      "zba": 3833,
      "Ġbank": 3834,
      "Ġette": 3835,
      "Ġess": 3836,
      "Ġdra": 3837,
      "esen": 3838,
      "ÏĥÎ¿": 3839,
      "030": 3840,
      "Ġiran": 3841,
      "walt": 3842,
      "Ġjoka": 3843,
      "zg": 3844,
      "liche": 3845,
      "Ġtiesi": 3846,
      "Ġkunsill": 3847,
      "gÃ¸rel": 3848,
      "Ġmelle": 3849,
      "Ġodlo": 3850,
      "iu": 3851,
      "Ġ1177": 3852,
      "tut": 3853,
      "Ġsoci": 3854,
      "Ġcaso": 3855,
      "ffic": 3856,
      "Ġpur": 3857,
      "Ġgali": 3858,
      "Ġpostop": 3859,
      "cii": 3860,
      "Ġeval": 3861,
      "Ġparagrafo": 3862,
      "ÑīÐ°": 3863,
      "Ð»Ñİ": 3864,
      "Ġkawza": 3865,
      "vimo": 3866,
      "Ġ080": 3867,
      "Ġterm": 3868,
      "Ġcus": 3869,
      "chten": 3870,
      "Ġmrw": 3871,
      "opera": 3872,
      "Ġkla": 3873,
      "uza": 3874,
      "ren": 3875,
      "rody": 3876,
      "Ġsamt": 3877,
      "Ġpropri": 3878,
      "ÏĨÎ·": 3879,
      "uer": 3880,
      "Ġveci": 3881,
      "ĠfÃ¸": 3882,
      "Ġmembri": 3883,
      "Ġegyeb": 3884,
      "umo": 3885,
      "Ġkontrol": 3886,
      "ffici": 3887,
      "ume": 3888,
      "Ġosob": 3889,
      "Ġfabri": 3890,
      "ÏĩÏħ": 3891,
      "owa": 3892,
      "Ġoikeuden": 3893,
      "Ġzade": 3894,
      "ÏĢÎµÎ¹": 3895,
      "tate": 3896,
      "Ġviz": 3897,
      "ĠÎµÎ³": 3898,
      "ĠÐ»Ð¸": 3899,
      "Ġzem": 3900,
      "Ġpropor": 3901,
      "ĠÎ¶": 3902,
      "Ġeurops": 3903,
      "Ġpet": 3904,
      "Ð¿ÑĢÐ°": 3905,
      "Ġhor": 3906,
      "isie": 3907,
      "0000": 3908,
      "Ġjuris": 3909,
      "skih": 3910,
      "otte": 3911,
      "ÏĥÏī": 3912,
      "Ġtim": 3913,
      "Ġnella": 3914,
      "Ġpodje": 3915,
      "Ġprislus": 3916,
      "Ġprezen": 3917,
      "Ġvin": 3918,
      "sili": 3919,
      "ap": 3920,
      "Ġzalo": 3921,
      "Ġnl": 3922,
      "kus": 3923,
      "odi": 3924,
      "Ġconstitu": 3925,
      "itud": 3926,
      "Ġzakon": 3927,
      "ÑĢÑı": 3928,
      "sza": 3929,
      "Ġsodis": 3930,
      "Ġlv": 3931,
      "tott": 3932,
      "Ġkayt": 3933,
      "54": 3934,
      "ess": 3935,
      "Ġproste": 3936,
      "Ġrozporzadzenia": 3937,
      "anai": 3938,
      "Ġrecla": 3939,
      "ĠÐ¿ÑĢÐ¾Ð¸Ð·Ð²Ð¾Ð´": 3940,
      "Ġdenne": 3941,
      "klu": 3942,
      "Ġucin": 3943,
      "ovane": 3944,
      "Ġekspor": 3945,
      "platne": 3946,
      "Î³ÏīÎ³": 3947,
      "tear": 3948,
      "Ġczes": 3949,
      "lige": 3950,
      "Ġconsig": 3951,
      "Î»Î¿Ïħ": 3952,
      "Ġtreba": 3953,
      "hti": 3954,
      "Ġsho": 3955,
      "Ġkuin": 3956,
      "tivos": 3957,
      "fs": 3958,
      "Ġrialachan": 3959,
      "Ġble": 3960,
      "ÏģÎ¹Î±": 3961,
      "ĠÎ¹Ïĥ": 3962,
      "jiem": 3963,
      "ÏĥÎµÏīÎ½": 3964,
      "Ġjul": 3965,
      "ĠÐ¼Ð¾": 3966,
      "Ġlepingu": 3967,
      "ĠÎ´Î¹ÎºÎ±Ïĥ": 3968,
      "eft": 3969,
      "Ġchar": 3970,
      "Ġkaesole": 3971,
      "Ġleid": 3972,
      "Ġunione": 3973,
      "Ġoli": 3974,
      "Ġliq": 3975,
      "ĠÏĩÏģÎ·": 3976,
      "Ġpism": 3977,
      "ÑĢÐ°Ð½Ð¸": 3978,
      "Ġgam": 3979,
      "bud": 3980,
      "Ġevrop": 3981,
      "lare": 3982,
      "ales": 3983,
      "ÏĦÎ¿Ïħ": 3984,
      "urnal": 3985,
      "Ġbezod": 3986,
      "Ġrazlo": 3987,
      "titu": 3988,
      "iniai": 3989,
      "ĠÏĥÏĦÎ±": 3990,
      "tai": 3991,
      "omes": 3992,
      "vanja": 3993,
      "Ġref": 3994,
      "Ġkomissio": 3995,
      "Ġreglamen": 3996,
      "02": 3997,
      "rak": 3998,
      "Ġamb": 3999,
      "ĠÐ´ÑĬÑĢÐ¶Ð°": 4000,
      "01": 4001,
      "entan": 4002,
      "Ġnecess": 4003,
      "Ġkv": 4004,
      "Ġaffa": 4005,
      "Î½Î·": 4006,
      "ĠÐ²ÑĬÐ·": 4007,
      "Ġhtt": 4008,
      "Ġizroci": 4009,
      "Ġtarko": 4010,
      "hane": 4011,
      "Ġkot": 4012,
      "Ġgel": 4013,
      "kset": 4014,
      "ĠÐºÐ¾Ð¼Ð¸ÑģÐ¸ÑıÑĤÐ°": 4015,
      "emu": 4016,
      "rity": 4017,
      "Ġmani": 4018,
      "Î´Î¹Î±": 4019,
      "Ġanvend": 4020,
      "cios": 4021,
      "temmel": 4022,
      "Ġresp": 4023,
      "Ġizrocitve": 4024,
      "Ġhol": 4025,
      "Ġannet": 4026,
      "Ġverfahr": 4027,
      "Ġuprav": 4028,
      "Ġprejudicial": 4029,
      "Ġdodanie": 4030,
      "iro": 4031,
      "orti": 4032,
      "Ġcum": 4033,
      "Ġcomision": 4034,
      "gericht": 4035,
      "kend": 4036,
      "ĠÑĢÐµÑĪÐµÐ½Ð¸Ðµ": 4037,
      "koll": 4038,
      "Ġeuropene": 4039,
      "Ð½Ð¸Ðº": 4040,
      "telor": 4041,
      "Ġbezodplatne": 4042,
      "Ġpana": 4043,
      "af": 4044,
      "Ð¿ÑĬÐ»": 4045,
      "orpa": 4046,
      "Ġstandard": 4047,
      "Ġdesig": 4048,
      "ĠÑģÐ»ÐµÐ´": 4049,
      "Ġpodjetij": 4050,
      "etu": 4051,
      "Ġminister": 4052,
      "Ġneplac": 4053,
      "elem": 4054,
      "Ġanne": 4055,
      "Ġintro": 4056,
      "Ġdotyczy": 4057,
      "Ġae": 4058,
      "ÏĨÎ¿ÏģÎ±": 4059,
      "embra": 4060,
      "Ġslov": 4061,
      "Ġlaw": 4062,
      "Ġnim": 4063,
      "atok": 4064,
      "Ġestado": 4065,
      "Ġoffent": 4066,
      "Ġraad": 4067,
      "Ġeuropeia": 4068,
      "Ä§a": 4069,
      "ĠÎ´Î·Î¼Î¿": 4070,
      "br": 4071,
      "ĠÎµÎ¼": 4072,
      "Ġgemeens": 4073,
      "040": 4074,
      "Ġrev": 4075,
      "Ġbri": 4076,
      "Ġharmon": 4077,
      "Ġhataro": 4078,
      "Ġpare": 4079,
      "ÏģÎ¹Î¸": 4080,
      "Ġinformation": 4081,
      "ĠÎ¸Î±": 4082,
      "ĠÎ¿ÏĢÎ¿Î¹Î±": 4083,
      "Ġgemeinschaf": 4084,
      "ĠÐ¾Ð¿": 4085,
      "Ġneplacane": 4086,
      "zbeni": 4087,
      "izza": 4088,
      "bro": 4089,
      "Ġvys": 4090,
      "Ð¾ÑĢ": 4091,
      "nan": 4092,
      "Ġcm": 4093,
      "ÑĢÐ°Ð½Ðµ": 4094,
      "ivil": 4095,
      "Ġstu": 4096,
      "pes": 4097,
      "ola": 4098,
      "Ð»Ð°Ð³Ð°": 4099,
      "osow": 4100,
      "Ġexecu": 4101,
      "tivas": 4102,
      "Ġrelativa": 4103,
      "Ġandre": 4104,
      "Ġkohalda": 4105,
      "Ġposky": 4106,
      "Ġprasita": 4107,
      "ĠÏĢÎ±ÏģÎ±Î³ÏģÎ±ÏĨÎ¿": 4108,
      "kaz": 4109,
      "Ġmedlemssta": 4110,
      "Ġbendri": 4111,
      "kiu": 4112,
      "Ġsky": 4113,
      "Ġbund": 4114,
      "Ġwie": 4115,
      "veni": 4116,
      "ĠÎ¼Î·": 4117,
      "Ġlik": 4118,
      "sou": 4119,
      "ihin": 4120,
      "ier": 4121,
      "Ġcpz": 4122,
      "Ð´Ð°ÑĤÐµÐ»": 4123,
      "ÏĥÎ¹Î±": 4124,
      "63": 4125,
      "Ġheeft": 4126,
      "Ġpartie": 4127,
      "itear": 4128,
      "ota": 4129,
      "otka": 4130,
      "Ġtull": 4131,
      "Ġparagraphe": 4132,
      "Ġsusitari": 4133,
      "Ġâī¤": 4134,
      "oja": 4135,
      "Ġetat": 4136,
      "Ġwho": 4137,
      "Ġ107": 4138,
      "staw": 4139,
      "Ġsos": 4140,
      "Ġcode": 4141,
      "ĠâĢ¢": 4142,
      "edi": 4143,
      "ÑĬÐ¼": 4144,
      "utu": 4145,
      "tely": 4146,
      "Ġservices": 4147,
      "cun": 4148,
      "lyhane": 4149,
      "Ġjest": 4150,
      "ĠÐ¿ÑĢÐ¾Ð¸Ð·Ð²Ð¾Ð´ÑģÑĤÐ²Ð¾": 4151,
      "Ġoktober": 4152,
      "Ġhage": 4153,
      "ÑĨÐ¸Ð¾": 4154,
      "Ġviola": 4155,
      "Ġmag": 4156,
      "kai": 4157,
      "Ġtarybos": 4158,
      "Ġnaud": 4159,
      "keit": 4160,
      "ĠÐµÐ¾": 4161,
      "Ġconsiglio": 4162,
      "ĠÎµÎ½Î±": 4163,
      "Ġdefin": 4164,
      "ĠgÄ§andhom": 4165,
      "Ġobra": 4166,
      "Ġ500": 4167,
      "Ġjurid": 4168,
      "Ġcrr": 4169,
      "Ġstro": 4170,
      "Ġbero": 4171,
      "vec": 4172,
      "Ġtyka": 4173,
      "ĠÐ²Ðµ": 4174,
      "itate": 4175,
      "Ġkomisjon": 4176,
      "ÏģÎ¿Î½": 4177,
      "nieg": 4178,
      "Ð¶Ð´Ð°": 4179,
      "ÑĤÑĥ": 4180,
      "een": 4181,
      "Ġone": 4182,
      "Ġsaskana": 4183,
      "Ġzm": 4184,
      "kis": 4185,
      "Ġspor": 4186,
      "Ġproposta": 4187,
      "Ġdrzave": 4188,
      "Ġlill": 4189,
      "Ġposeb": 4190,
      "ĠÑĩÐ°": 4191,
      "vers": 4192,
      "erci": 4193,
      "Ġacces": 4194,
      "Ġvonatko": 4195,
      "Ġneuvoston": 4196,
      "tand": 4197,
      "Ġabs": 4198,
      "ĠÑģÑĤÐ¾": 4199,
      "zzjonali": 4200,
      "cet": 4201,
      "Ġslo": 4202,
      "ceni": 4203,
      "Ġprava": 4204,
      "Ġvalja": 4205,
      "Ġrem": 4206,
      "Ġsaisti": 4207,
      "Ġneg": 4208,
      "Ġpove": 4209,
      "Ġrepublica": 4210,
      "towe": 4211,
      "Î¼ÎµÎ½ÏīÎ½": 4212,
      "Ġsept": 4213,
      "isation": 4214,
      "fÃ¸r": 4215,
      "Ġadvokat": 4216,
      "Ġnezlyhane": 4217,
      "liku": 4218,
      "Ġperus": 4219,
      "ÐºÑĤÐ¾": 4220,
      "lov": 4221,
      "Ġzz": 4222,
      "Ġvien": 4223,
      "Ġawtor": 4224,
      "etz": 4225,
      "Ġbhe": 4226,
      "ĠÏĢÏģÏī": 4227,
      "Ġkif": 4228,
      "alt": 4229,
      "esz": 4230,
      "Ġmeet": 4231,
      "Î¹ÎºÎ±": 4232,
      "ias": 4233,
      "Ġdz": 4234,
      "ÏĩÎ·": 4235,
      "Ġoigus": 4236,
      "pov": 4237,
      "ong": 4238,
      "Ġnovember": 4239,
      "Ġexp": 4240,
      "Ġjal": 4241,
      "Ġbus": 4242,
      "55": 4243,
      "Ġword": 4244,
      "Ġain": 4245,
      "Ġdien": 4246,
      "erim": 4247,
      "Ġcontin": 4248,
      "Ġmhu": 4249,
      "ĠÎ´Î¹": 4250,
      "Ġjkun": 4251,
      "das": 4252,
      "enza": 4253,
      "ĠÎ±ÏģÎ¹Î¸": 4254,
      "vista": 4255,
      "Ġaud": 4256,
      "cel": 4257,
      "Ġverordening": 4258,
      "gor": 4259,
      "ĠÑĤÐ°": 4260,
      "Ġcad": 4261,
      "stw": 4262,
      "not": 4263,
      "teur": 4264,
      "ÑģÑĤÐ²Ð°": 4265,
      "Ġjako": 4266,
      "Ġdoms": 4267,
      "tanto": 4268,
      "ybes": 4269,
      "Ġniz": 4270,
      "Ġtillam": 4271,
      "itse": 4272,
      "ningar": 4273,
      "Ġhin": 4274,
      "Ä±": 4275,
      "Ġliit": 4276,
      "kim": 4277,
      "ward": 4278,
      "Ġkosten": 4279,
      "ekk": 4280,
      "Ġskarza": 4281,
      "Ġlam": 4282,
      "ree": 4283,
      "Ġsell": 4284,
      "Ġartikla": 4285,
      "Ġmad": 4286,
      "lighet": 4287,
      "ĠÎ¿Ïħ": 4288,
      "Ġvonatkozo": 4289,
      "dra": 4290,
      "Ġewg": 4291,
      "Ġustan": 4292,
      "Ġjotka": 4293,
      "kayn": 4294,
      "Ġuniao": 4295,
      "bbli": 4296,
      "iul": 4297,
      "Ġotsus": 4298,
      "Ġtoze": 4299,
      "Ġdosta": 4300,
      "oria": 4301,
      "zem": 4302,
      "ally": 4303,
      "Ġseura": 4304,
      "stand": 4305,
      "Ġconven": 4306,
      "Ġcounty": 4307,
      "pf": 4308,
      "Ġdic": 4309,
      "ĠÎ±Ïĥ": 4310,
      "ĠÐ´Ð¸": 4311,
      "icoes": 4312,
      "ulas": 4313,
      "Ġdetermin": 4314,
      "Ġfaoi": 4315,
      "Ġcomunitari": 4316,
      "Ġcs": 4317,
      "46": 4318,
      "endo": 4319,
      "wij": 4320,
      "Ġtrata": 4321,
      "Ġinvo": 4322,
      "ph": 4323,
      "ÐºÐ»Ñİ": 4324,
      "Ġkomite": 4325,
      "nou": 4326,
      "ye": 4327,
      "35": 4328,
      "Ġparlamento": 4329,
      "Ġteata": 4330,
      "Ġdirektiiv": 4331,
      "Ġton": 4332,
      "Î´Îµ": 4333,
      "Ġsuper": 4334,
      "Ġpateik": 4335,
      "Ġfri": 4336,
      "Ġtrebu": 4337,
      "nit": 4338,
      "Ġsmernice": 4339,
      "Ġcho": 4340,
      "kre": 4341,
      "Ð¾ÑĤ": 4342,
      "Ġpelo": 4343,
      "Ġbilag": 4344,
      "Î´Î¹": 4345,
      "Ġprocess": 4346,
      "Î»Ïħ": 4347,
      "nieci": 4348,
      "ffer": 4349,
      "Î½Ïī": 4350,
      "eten": 4351,
      "ĠÎ±ÏĢÎ±": 4352,
      "Ġadres": 4353,
      "osanas": 4354,
      "Ġsoud": 4355,
      "ĠÏĢÏģÎ¿Î¹Î¿Î½": 4356,
      "ÏħÎ½Î±": 4357,
      "tande": 4358,
      "Ġhl": 4359,
      "hol": 4360,
      "ÑĢÐ°Ð½": 4361,
      "Ġlin": 4362,
      "Ġpadomes": 4363,
      "Ġusa": 4364,
      "Ġveri": 4365,
      "Ġzrus": 4366,
      "Ġpil": 4367,
      "Ġhad": 4368,
      "Ġelektron": 4369,
      "Ġfund": 4370,
      "Ġzaklad": 4371,
      "Ġsecu": 4372,
      "ĠÐ±Ñĥ": 4373,
      "ple": 4374,
      "ÏĪÎ·": 4375,
      "gang": 4376,
      "Ġattieciba": 4377,
      "Ġkyse": 4378,
      "Ġprasi": 4379,
      "Ġprovid": 4380,
      "atori": 4381,
      "Ġcase": 4382,
      "Ġvallalkoz": 4383,
      "Ġkonkur": 4384,
      "ÏĦÎ¹ÎºÏīÎ½": 4385,
      "niku": 4386,
      "Ġdev": 4387,
      "gyi": 4388,
      "Ġnationale": 4389,
      "Ġconsili": 4390,
      "alati": 4391,
      "Ġvijeca": 4392,
      "Ġemplo": 4393,
      "Ġpublica": 4394,
      "Ġpaato": 4395,
      "Ġinne": 4396,
      "chtshof": 4397,
      "Ġnustaty": 4398,
      "ĠÐ¶Ð°Ð»Ð±Ð¾": 4399,
      "Ġbundes": 4400,
      "ĠÐ¶Ð°Ð»Ð±Ð¾Ð¿Ð¾": 4401,
      "Ġfors": 4402,
      "irea": 4403,
      "Ġparlamenta": 4404,
      "Ġdruzbe": 4405,
      "ĠÐ¿ÑĢÐ¸Ð»Ð¾Ð¶ÐµÐ½Ð¸Ðµ": 4406,
      "liu": 4407,
      "Ġannul": 4408,
      "Ġmitgliedstaat": 4409,
      "Ġpaa": 4410,
      "anak": 4411,
      "ÑģÑĤÐ²Ð¸": 4412,
      "bbili": 4413,
      "fen": 4414,
      "ĠfÃ¦llesska": 4415,
      "Ġlag": 4416,
      "orda": 4417,
      "ĠÏĤ": 4418,
      "aty": 4419,
      "Ġlah": 4420,
      "tale": 4421,
      "Ġgaranti": 4422,
      "tatud": 4423,
      "zene": 4424,
      "Ġdalibval": 4425,
      "hoz": 4426,
      "Ġreclaman": 4427,
      "atre": 4428,
      "Ġkoja": 4429,
      "Ġspre": 4430,
      "Ġtoot": 4431,
      "07": 4432,
      "Ġtf": 4433,
      "Ġdotycza": 4434,
      "Ġoi": 4435,
      "ÏĥÎµÎ¹": 4436,
      "aria": 4437,
      "misesta": 4438,
      "nin": 4439,
      "Ġindustrija": 4440,
      "forder": 4441,
      "Ġadded": 4442,
      "Ġace": 4443,
      "unu": 4444,
      "ovani": 4445,
      "Ġizman": 4446,
      "ĠÎ´Î¹Î±Î´Î¹ÎºÎ±Ïĥ": 4447,
      "ijk": 4448,
      "Ġbylo": 4449,
      "ÅĤo": 4450,
      "igt": 4451,
      "wend": 4452,
      "mha": 4453,
      "jena": 4454,
      "Ġdeve": 4455,
      "ited": 4456,
      "Ġmid": 4457,
      "ÏĦÏħ": 4458,
      "Ġoper": 4459,
      "Ġcil": 4460,
      "bia": 4461,
      "Ġmd": 4462,
      "Ġspolecen": 4463,
      "Ġsor": 4464,
      "zion": 4465,
      "Ġsono": 4466,
      "Ġmhux": 4467,
      "vati": 4468,
      "ÅĤad": 4469,
      "Ġmotor": 4470,
      "Ġcrm": 4471,
      "Ġizpostavljenosti": 4472,
      "Ġrod": 4473,
      "lass": 4474,
      "Ġexcep": 4475,
      "ÑĢÐµÐ´Ðµ": 4476,
      "ÐºÑģ": 4477,
      "Ġryzy": 4478,
      "enem": 4479,
      "Ġalleg": 4480,
      "Ġmodifica": 4481,
      "aks": 4482,
      "Ġustanov": 4483,
      "Ġpartes": 4484,
      "ĠÎ´Î¹Î±ÏĦÎ±": 4485,
      "Ġrepublika": 4486,
      "Ġpovin": 4487,
      "Ġsred": 4488,
      "Ġent": 4489,
      "Ġpartijiet": 4490,
      "zitel": 4491,
      "Ġfinanz": 4492,
      "Ġdate": 4493,
      "ĠgÄ§andu": 4494,
      "Î²Î±Î»": 4495,
      "pol": 4496,
      "last": 4497,
      "zena": 4498,
      "ordnung": 4499,
      "Ġberoep": 4500,
      "Ġskont": 4501,
      "Ġpier": 4502,
      "Ġpasla": 4503,
      "Ġdhe": 4504,
      "sahu": 4505,
      "neni": 4506,
      "Ġmoze": 4507,
      "Ġkuriu": 4508,
      "Ġtoimi": 4509,
      "ranic": 4510,
      "Ġwsp": 4511,
      "telse": 4512,
      "ises": 4513,
      "uh": 4514,
      "Ġfteh": 4515,
      "Ġzgod": 4516,
      "Ġyhteison": 4517,
      "Ġfelperes": 4518,
      "Ġpravi": 4519,
      "rij": 4520,
      "Ġabl": 4521,
      "Ġbyla": 4522,
      "Ġftehim": 4523,
      "fore": 4524,
      "wierd": 4525,
      "Ġfost": 4526,
      "ĠÎ±ÏĢÎ¿ÏĨÎ±": 4527,
      "cij": 4528,
      "Ġeeg": 4529,
      "tua": 4530,
      "Ġdalies": 4531,
      "ÏģÎ¹Î¶": 4532,
      "Ġkomisije": 4533,
      "Ġdez": 4534,
      "paa": 4535,
      "enske": 4536,
      "Ġpela": 4537,
      "ĠÐºÐ¾Ð½": 4538,
      "Ġgb": 4539,
      "mati": 4540,
      "98": 4541,
      "ÑĢÐ°Ð·": 4542,
      "Ġrozs": 4543,
      "cina": 4544,
      "Ġboard": 4545,
      "Ġeljaras": 4546,
      "ria": 4547,
      "Î¼Î²Î±": 4548,
      "Ġparlamentu": 4549,
      "Ġorigin": 4550,
      "Ġbetreff": 4551,
      "ĠvÃ¦": 4552,
      "vani": 4553,
      "ised": 4554,
      "Ð²Ð¸ÑĤÐµ": 4555,
      "ledu": 4556,
      "posto": 4557,
      "Ġgennem": 4558,
      "Ġ101": 4559,
      "Ġusta": 4560,
      "64": 4561,
      "vaz": 4562,
      "enim": 4563,
      "cyj": 4564,
      "Î»Ïī": 4565,
      "xe": 4566,
      "Ġrikorr": 4567,
      "Ġpom": 4568,
      "Ġtit": 4569,
      "Ġbef": 4570,
      "ĠÐµÑģ": 4571,
      "Ġtym": 4572,
      "Ġbek": 4573,
      "Ġpripade": 4574,
      "inis": 4575,
      "tov": 4576,
      "ĠbÄ§": 4577,
      "ÏĦÎ¹ÎºÎ·ÏĤ": 4578,
      "Ġclena": 4579,
      "Ġoikeudenkayn": 4580,
      "ied": 4581,
      "ters": 4582,
      "Ġkomisji": 4583,
      "pana": 4584,
      "tasi": 4585,
      "maks": 4586,
      "cheidung": 4587,
      "Ġcomisie": 4588,
      "Ġoikeus": 4589,
      "tual": 4590,
      "jai": 4591,
      "Ġgli": 4592,
      "Ġnale": 4593,
      "Ð±Ð¸": 4594,
      "estion": 4595,
      "ÎµÏģÎ³": 4596,
      "Ġargumen": 4597,
      "Ġdecy": 4598,
      "dade": 4599,
      "Ġpel": 4600,
      "ual": 4601,
      "Ġast": 4602,
      "Ġakti": 4603,
      "Î¸ÎµÏĥÎ·": 4604,
      "Ġclanek": 4605,
      "Ġani": 4606,
      "Ġlakossag": 4607,
      "ĠÎ¼Î±": 4608,
      "Ġcomisia": 4609,
      "Ġwordt": 4610,
      "Ġred": 4611,
      "Ġeuropean": 4612,
      "Ġbra": 4613,
      "Î¼ÎµÎ½Î±": 4614,
      "kra": 4615,
      "Ġprec": 4616,
      "Ġproizv": 4617,
      "uru": 4618,
      "Ġkasit": 4619,
      "Ġtoho": 4620,
      "ÑĢÐºÐ¸": 4621,
      "ĠsagsÃ¸ger": 4622,
      "Ġkil": 4623,
      "Ġapres": 4624,
      "stvo": 4625,
      "ivi": 4626,
      "Ġgeogra": 4627,
      "Ġgemein": 4628,
      "Ġkohdan": 4629,
      "ester": 4630,
      "Ġgh": 4631,
      "nt": 4632,
      "menet": 4633,
      "Ġpagrind": 4634,
      "govor": 4635,
      "Ġtribunale": 4636,
      "Ġpaivan": 4637,
      "Ġdaly": 4638,
      "Ġph": 4639,
      "ein": 4640,
      "Ġvara": 4641,
      "ÏģÏħ": 4642,
      "Ġsubstan": 4643,
      "Ġhel": 4644,
      "Ġskir": 4645,
      "Ġreglement": 4646,
      "Ġiesta": 4647,
      "Ġmun": 4648,
      "Ġefec": 4649,
      "Ð²Ð°ÑĤ": 4650,
      "gos": 4651,
      "Ġautorita": 4652,
      "Ġconsidera": 4653,
      "Ġvestnik": 4654,
      "asz": 4655,
      "Ġtaman": 4656,
      "Ġeuropejskiej": 4657,
      "ĠgÄ§andha": 4658,
      "Ġcentral": 4659,
      "Ġeven": 4660,
      "onka": 4661,
      "Ġproba": 4662,
      "rs": 4663,
      "Ġplus": 4664,
      "Ġthere": 4665,
      "Ġobdo": 4666,
      "rony": 4667,
      "duc": 4668,
      "Ġarticulo": 4669,
      "Ġcomh": 4670,
      "tivita": 4671,
      "Ġiso": 4672,
      "Ġkie": 4673,
      "Ġverej": 4674,
      "Ġhall": 4675,
      "Ġfall": 4676,
      "chain": 4677,
      "lede": 4678,
      "ĠÏĨ": 4679,
      "Ġmaaruse": 4680,
      "usten": 4681,
      "Ġasetuksen": 4682,
      "Ð²Ð°Ð½ÐµÑĤÐ¾": 4683,
      "Ġsvar": 4684,
      "Ġtransport": 4685,
      "ÑıÑĤ": 4686,
      "Ġsprawie": 4687,
      "elor": 4688,
      "ĠÎµÎµ": 4689,
      "Ġkomisjoni": 4690,
      "dt": 4691,
      "gie": 4692,
      "Ġses": 4693,
      "Ġinterpreta": 4694,
      "tina": 4695,
      "78": 4696,
      "Ġdecyz": 4697,
      "sem": 4698,
      "Ġdrugi": 4699,
      "dor": 4700,
      "andus": 4701,
      "Ġ112": 4702,
      "Ġnorma": 4703,
      "Ġvallalkozasok": 4704,
      "vek": 4705,
      "Ġbon": 4706,
      "Ġ108": 4707,
      "Ġdefend": 4708,
      "elta": 4709,
      "jih": 4710,
      "over": 4711,
      "olla": 4712,
      "Ġenc": 4713,
      "Ġasja": 4714,
      "Ġsia": 4715,
      "Ġcauza": 4716,
      "Ġbrux": 4717,
      "Ġlap": 4718,
      "ÐºÐ°ÑĤÐ°": 4719,
      "lusi": 4720,
      "moniza": 4721,
      "erings": 4722,
      "stu": 4723,
      "Ġkraj": 4724,
      "Ġrates": 4725,
      "Ġuvedene": 4726,
      "Ġstrona": 4727,
      "ÑĦÐ¸ÑĨÐ¸": 4728,
      "zett": 4729,
      "ĠÐºÑĬÐ¼": 4730,
      "inu": 4731,
      "kuuta": 4732,
      "Ġpostepowania": 4733,
      "Ġminta": 4734,
      "Ġoprav": 4735,
      "Ġorder": 4736,
      "Ġsuh": 4737,
      "zul": 4738,
      "asto": 4739,
      "Ġreco": 4740,
      "Ġ870": 4741,
      "anoma": 4742,
      "Ġkapita": 4743,
      "ugos": 4744,
      "peci": 4745,
      "Ġfeidh": 4746,
      "ÐµÑĤÐ¾": 4747,
      "ater": 4748,
      "Ġassocia": 4749,
      "ns": 4750,
      "Ġodloc": 4751,
      "Ġuffic": 4752,
      "alu": 4753,
      "ete": 4754,
      "ÑģÑĤÐ¾Ñı": 4755,
      "Ġwni": 4756,
      "Ġvers": 4757,
      "Ġmj": 4758,
      "ĠÎµÏģÎ³": 4759,
      "Ġtechni": 4760,
      "ÏĥÏĦÎ±": 4761,
      "Ġthan": 4762,
      "oden": 4763,
      "Ġhttp": 4764,
      "ÑīÐ¸": 4765,
      "lem": 4766,
      "Ð¶Ðµ": 4767,
      "Ġsubsid": 4768,
      "Ġirany": 4769,
      "kalpo": 4770,
      "Ġkorpora": 4771,
      "oks": 4772,
      "omha": 4773,
      "Ġkredytowe": 4774,
      "ame": 4775,
      "Ġrespec": 4776,
      "Ġspolecenstvi": 4777,
      "vola": 4778,
      "artha": 4779,
      "Ġavtal": 4780,
      "py": 4781,
      "Ġpartici": 4782,
      "tav": 4783,
      "Ġ120": 4784,
      "Ġvalsts": 4785,
      "Ġcommuni": 4786,
      "oj": 4787,
      "Ð¸Ð½Ð¾ÑģÑĤ": 4788,
      "ĠÑģÑĬÐ¾ÑĤ": 4789,
      "Ġzosta": 4790,
      "Ġlicen": 4791,
      "Ġunio": 4792,
      "Ġabsatz": 4793,
      "ĠÐ¾ÑģÐ½Ð¾Ð²Ð°": 4794,
      "nat": 4795,
      "Ġcikke": 4796,
      "von": 4797,
      "atos": 4798,
      "Ġdistrict": 4799,
      "Ġosim": 4800,
      "ĠÑģÑĬÑİÐ·": 4801,
      "Ġinom": 4802,
      "Ġvalst": 4803,
      "Ġaiz": 4804,
      "ossa": 4805,
      "ĠafgÃ¸rel": 4806,
      "bel": 4807,
      "ĠÑĩÐ°ÑģÑĤ": 4808,
      "Ġchur": 4809,
      "tribu": 4810,
      "imma": 4811,
      "Ġcivil": 4812,
      "Ġvelik": 4813,
      "koli": 4814,
      "Ġdodat": 4815,
      "into": 4816,
      "rig": 4817,
      "Ġoma": 4818,
      "ÏĨÎ±Ïĥ": 4819,
      "Ġvaa": 4820,
      "ÎµÏīÏĤ": 4821,
      "uju": 4822,
      "62": 4823,
      "tere": 4824,
      "ĠÏĢÎ»Î·": 4825,
      "ĠzaÅĤacz": 4826,
      "Ġnurody": 4827,
      "Ġnom": 4828,
      "Ġpunkt": 4829,
      "Ġmain": 4830,
      "Ġaffaire": 4831,
      "ww": 4832,
      "Ġrepub": 4833,
      "Ġclanok": 4834,
      "Ġzak": 4835,
      "Ġlaik": 4836,
      "ikke": 4837,
      "Ġdla": 4838,
      "Ġchu": 4839,
      "Ġelect": 4840,
      "Ġbhfu": 4841,
      "mete": 4842,
      "Ġgroup": 4843,
      "bos": 4844,
      "Ġtuo": 4845,
      "Ġtag": 4846,
      "Ġhageja": 4847,
      "lementa": 4848,
      "Ġ2093": 4849,
      "060": 4850,
      "ĠÎºÏħ": 4851,
      "ules": 4852,
      "mark": 4853,
      "Ä§u": 4854,
      "Ġmiz": 4855,
      "Ġappe": 4856,
      "ĠÑģÑĬÐ¾ÑĤÐ²ÐµÑĤ": 4857,
      "Ġliber": 4858,
      "Ġeing": 4859,
      "bs": 4860,
      "ÐºÑĥ": 4861,
      "Ġproper": 4862,
      "Ġkoos": 4863,
      "Ġqorti": 4864,
      "Ġzakla": 4865,
      "Ġdomstol": 4866,
      "kais": 4867,
      "pend": 4868,
      "Ġsens": 4869,
      "Ġbhfuil": 4870,
      "Ġkep": 4871,
      "ĠoÄ§rajn": 4872,
      "Ġapplika": 4873,
      "vatal": 4874,
      "Ġdieser": 4875,
      "gem": 4876,
      "Ġricorrente": 4877,
      "Ġrece": 4878,
      "Ġrub": 4879,
      "Ġzaak": 4880,
      "Ġrendelke": 4881,
      "Ġuda": 4882,
      "Ġjarg": 4883,
      "Ġmul": 4884,
      "Ġkay": 4885,
      "Ġont": 4886,
      "Ġmateria": 4887,
      "Ġcen": 4888,
      "dic": 4889,
      "eku": 4890,
      "Ġchem": 4891,
      "ĠÐ¾Ð¿ÑĢÐµÐ´Ðµ": 4892,
      "Ġtha": 4893,
      "Ġprocedi": 4894,
      "ĠÐ±ÑĥÐºÐ²Ð°": 4895,
      "ĠÑģÐ¸": 4896,
      "ĠÏħÏĢÎ·": 4897,
      "92": 4898,
      "Ġturi": 4899,
      "poli": 4900,
      "Ġvzo": 4901,
      "isione": 4902,
      "vision": 4903,
      "ÎºÏģÎ¹": 4904,
      "Ġconten": 4905,
      "Ġeuropskej": 4906,
      "ons": 4907,
      "Ġverzoek": 4908,
      "Ġresponsa": 4909,
      "Ġvie": 4910,
      "tettu": 4911,
      "Ġ1985": 4912,
      "kum": 4913,
      "Ġovat": 4914,
      "Ġprincipal": 4915,
      "puol": 4916,
      "ĠfÃ¸l": 4917,
      "low": 4918,
      "050": 4919,
      "riften": 4920,
      "ÑĢÑĬ": 4921,
      "uksia": 4922,
      "ÏĩÎ¿": 4923,
      "tanti": 4924,
      "Ġnep": 4925,
      "ÑĨÐ°": 4926,
      "Ġservice": 4927,
      "kami": 4928,
      "Ġomfat": 4929,
      "zym": 4930,
      "Ġsunt": 4931,
      "Ġartikkel": 4932,
      "skom": 4933,
      "Ġcontrol": 4934,
      "Ġpakalpo": 4935,
      "Ġnariadenia": 4936,
      "wor": 4937,
      "100": 4938,
      "Ġ1991": 4939,
      "Ġeurat": 4940,
      "Ġtay": 4941,
      "Ġpunk": 4942,
      "Ġfunda": 4943,
      "Ġxx": 4944,
      "bed": 4945,
      "Ġimport": 4946,
      "Ġnin": 4947,
      "idades": 4948,
      "Ġeffet": 4949,
      "ĠÎ²Î±Ïĥ": 4950,
      "ĠÃ°": 4951,
      "Ġ150": 4952,
      "Ġszolo": 4953,
      "Ġrecht": 4954,
      "quer": 4955,
      "amar": 4956,
      "Ġkorporacie": 4957,
      "Ġmembre": 4958,
      "ĠÑħ": 4959,
      "faidh": 4960,
      "ĠÏĢÎ±ÏģÎ±Î³ÏģÎ±ÏĨÎ¿ÏĤ": 4961,
      "Ġsab": 4962,
      "Ġodnos": 4963,
      "jestel": 4964,
      "ĠÏĢÏģÎ±": 4965,
      "usega": 4966,
      "ĠÐ¿Ð¾ÑģÐ¾": 4967,
      "Ġbutu": 4968,
      "Ġpossi": 4969,
      "Ġaos": 4970,
      "Ġ3184": 4971,
      "Ġestados": 4972,
      "umiem": 4973,
      "eret": 4974,
      "Ġpeti": 4975,
      "Ġham": 4976,
      "tives": 4977,
      "Ġfaci": 4978,
      "Î¹Î¿Ïħ": 4979,
      "Ġsubse": 4980,
      "uz": 4981,
      "owych": 4982,
      "Ġstatisti": 4983,
      "Ġ103": 4984,
      "Ġperuste": 4985,
      "aa": 4986,
      "kommen": 4987,
      "vna": 4988,
      "ÑĥÐ±": 4989,
      "Ġdeleg": 4990,
      "Ġktory": 4991,
      "ĠÐ¶Ð°Ð»Ð±Ð¾Ð¿Ð¾Ð´Ð°ÑĤÐµÐ»": 4992,
      "Ġtotal": 4993,
      "Ġemis": 4994,
      "Ġuffici": 4995,
      "Ġati": 4996,
      "Ġsusij": 4997,
      "Ġpran": 4998,
      "Ġacordo": 4999,
      "Ġjan": 5000,
      "Ġdepart": 5001,
      "Ġpaivana": 5002,
      "vos": 5003,
      "Ġkaik": 5004,
      "Ġvastaa": 5005,
      "Ġsprav": 5006,
      "nam": 5007,
      "Ġtarif": 5008,
      "Ġ2022": 5009,
      "ĠÏĦÏģÎ¿": 5010,
      "Ġisla": 5011,
      "Ġmine": 5012,
      "Ġclanka": 5013,
      "Ġasunto": 5014,
      "Ġrechtssa": 5015,
      "ĠÏĩÏī": 5016,
      "Ġmik": 5017,
      "mittel": 5018,
      "Ġanexa": 5019,
      "Ġdenna": 5020,
      "imisi": 5021,
      "Ġunei": 5022,
      "ĠÎ±Î¹ÏĦÎ·": 5023,
      "otto": 5024,
      "ÐµÐ½Ð¸ÐµÑĤÐ¾": 5025,
      "Ġpia": 5026,
      "Ġvzorec": 5027,
      "95": 5028,
      "erk": 5029,
      "mena": 5030,
      "9300": 5031,
      "Ġagre": 5032,
      "vaks": 5033,
      "Ġdokumen": 5034,
      "under": 5035,
      "Ġfond": 5036,
      "iego": 5037,
      "Ġessere": 5038,
      "ÏĢÎ·ÏĤ": 5039,
      "ÑģÐµ": 5040,
      "Ġtea": 5041,
      "ÏĦÎ¹ÎºÎµÏĤ": 5042,
      "Ġapplication": 5043,
      "Ġverb": 5044,
      "rast": 5045,
      "Ġpotreb": 5046,
      "Ġkomission": 5047,
      "Ġjoh": 5048,
      "luss": 5049,
      "Ġdeuts": 5050,
      "Ġfebruar": 5051,
      "Ġmusi": 5052,
      "Ġhom": 5053,
      "Ġjazyk": 5054,
      "Ġdegli": 5055,
      "Ġprieks": 5056,
      "Ġedu": 5057,
      "tova": 5058,
      "Ġreprezen": 5059,
      "bit": 5060,
      "Ġyle": 5061,
      "Ġfeder": 5062,
      "meti": 5063,
      "aza": 5064,
      "Ġlieta": 5065,
      "Ġbirosag": 5066,
      "iejs": 5067,
      "Ġjeji": 5068,
      "hic": 5069,
      "para": 5070,
      "Ġlk": 5071,
      "Ġdeze": 5072,
      "Ġrozsud": 5073,
      "Ġmembru": 5074,
      "egu": 5075,
      "imenp": 5076,
      "Ġ210": 5077,
      "arac": 5078,
      "zam": 5079,
      "hm": 5080,
      "kty": 5081,
      "Ġnam": 5082,
      "Ġforsta": 5083,
      "Ġpresta": 5084,
      "Ġjsou": 5085,
      "Ġ118": 5086,
      "Ġtuzitel": 5087,
      "ittaa": 5088,
      "Ġpremi": 5089,
      "wad": 5090,
      "Ġmedi": 5091,
      "car": 5092,
      "Ġsich": 5093,
      "Ġfrem": 5094,
      "ving": 5095,
      "mato": 5096,
      "Ġofici": 5097,
      "Ġeinem": 5098,
      "Ġuhenduse": 5099,
      "voll": 5100,
      "Ġproved": 5101,
      "tom": 5102,
      "Ġlug": 5103,
      "gestel": 5104,
      "isty": 5105,
      "Ġdid": 5106,
      "edes": 5107,
      "hlas": 5108,
      "pta": 5109,
      "Ġbeen": 5110,
      "oli": 5111,
      "ÎºÎ·": 5112,
      "ilt": 5113,
      "Ġcentr": 5114,
      "ÏģÎ¿ÏĤ": 5115,
      "Ġhold": 5116,
      "Ġtechnolog": 5117,
      "ness": 5118,
      "Ġbul": 5119,
      "yba": 5120,
      "Ġantid": 5121,
      "Ġkli": 5122,
      "Ġcue": 5123,
      "Ġtali": 5124,
      "Ġpkt": 5125,
      "Ġvzorka": 5126,
      "Î¼Î¿ÏĤ": 5127,
      "jni": 5128,
      "Ġzasad": 5129,
      "hel": 5130,
      "Ġgemenskaper": 5131,
      "enych": 5132,
      "ĠÎ¿Î´Î·": 5133,
      "zott": 5134,
      "Ġseuraa": 5135,
      "mann": 5136,
      "ĠÏīÏĤ": 5137,
      "ting": 5138,
      "Ġnje": 5139,
      "Ġdig": 5140,
      "owego": 5141,
      "Ġnagy": 5142,
      "lara": 5143,
      "Ġfat": 5144,
      "Ġple": 5145,
      "Ġwur": 5146,
      "Ġparties": 5147,
      "ÏģÎµÏĢÎµÎ¹": 5148,
      "Ġratte": 5149,
      "Ġcq": 5150,
      "imiento": 5151,
      "vak": 5152,
      "Ġkategori": 5153,
      "ĠÏĢÏģÎ¿ÏĥÏĨÎµÏħ": 5154,
      "Ġpodnikov": 5155,
      "kku": 5156,
      "Ġwspol": 5157,
      "Ġsluz": 5158,
      "voz": 5159,
      "Ġkus": 5160,
      "Ã¦nd": 5161,
      "Ġconsiliului": 5162,
      "janje": 5163,
      "Ġairi": 5164,
      "Ġnoud": 5165,
      "Ð²Ð½Ð¸": 5166,
      "Ġvig": 5167,
      "andet": 5168,
      "ikka": 5169,
      "juce": 5170,
      "Ġ549300": 5171,
      "ili": 5172,
      "maa": 5173,
      "Ġwor": 5174,
      "Ġ106": 5175,
      "gha": 5176,
      "Ġdrzava": 5177,
      "Ġhivatal": 5178,
      "Ġmodel": 5179,
      "tiile": 5180,
      "ĠÏĢÎ»Î±": 5181,
      "ÏĢÏģÎ¿": 5182,
      "vin": 5183,
      "tetaan": 5184,
      "Ġkann": 5185,
      "ĠÎ±ÏĢÎ¿ÏĨÎ±ÏĥÎ·": 5186,
      "zal": 5187,
      "Ġparter": 5188,
      "Ġamministra": 5189,
      "anju": 5190,
      "jela": 5191,
      "iter": 5192,
      "Ġmegha": 5193,
      "ijos": 5194,
      "Ġpriim": 5195,
      "Ġstruktu": 5196,
      "ruc": 5197,
      "arod": 5198,
      "Ġbio": 5199,
      "Ġpants": 5200,
      "zeti": 5201,
      "ederland": 5202,
      "Ġvad": 5203,
      "amas": 5204,
      "Ġdescri": 5205,
      "kien": 5206,
      "skim": 5207,
      "Ġball": 5208,
      "Ġpared": 5209,
      "ress": 5210,
      "kap": 5211,
      "cias": 5212,
      "schriften": 5213,
      "Ġurzed": 5214,
      "Ġmedic": 5215,
      "ĠÎ±ÏĢÎ¿ÏĨÎ±Ïĥ": 5216,
      "Ġryzyko": 5217,
      "Ġpenzu": 5218,
      "Ġutvr": 5219,
      "Ġpow": 5220,
      "vere": 5221,
      "berg": 5222,
      "81": 5223,
      "Ġlop": 5224,
      "Ġsprendima": 5225,
      "Ġbestim": 5226,
      "ĠÐ³Ð¾Ð´Ð¸": 5227,
      "Ġmembres": 5228,
      "heter": 5229,
      "Ġdiese": 5230,
      "Ġip": 5231,
      "Ġdarbi": 5232,
      "Ġye": 5233,
      "Ġmukaisesti": 5234,
      "Ġtrade": 5235,
      "tum": 5236,
      "ety": 5237,
      "Ġinn": 5238,
      "Ġavec": 5239,
      "Ġtorven": 5240,
      "Ġfog": 5241,
      "Ġflu": 5242,
      "misen": 5243,
      "Î¼Î±ÏĦÏīÎ½": 5244,
      "Ġtiek": 5245,
      "Î½ÏīÎ½": 5246,
      "Ġallegato": 5247,
      "latt": 5248,
      "atte": 5249,
      "tima": 5250,
      "Ġwww": 5251,
      "Î³Î¿Ïħ": 5252,
      "Ġeuratom": 5253,
      "ÐµÐ·": 5254,
      "fication": 5255,
      "Ġgemeinschaften": 5256,
      "garder": 5257,
      "Ġvii": 5258,
      "Ġbha": 5259,
      "Ġindica": 5260,
      "Ġposto": 5261,
      "Ġdemandante": 5262,
      "Ġpost": 5263,
      "Ġsua": 5264,
      "Ġkai": 5265,
      "ĠÑĤÐ¾Ð²Ð°": 5266,
      "tare": 5267,
      "Ġeines": 5268,
      "Ġnapredni": 5269,
      "cim": 5270,
      "Ġcomite": 5271,
      "Ġstor": 5272,
      "Ġgall": 5273,
      "Ġdirektive": 5274,
      "Ġetats": 5275,
      "67": 5276,
      "isiin": 5277,
      "Ġkura": 5278,
      "aro": 5279,
      "Ġpenzugyi": 5280,
      "Ġopatreni": 5281,
      "Ġnuo": 5282,
      "ĠÐ¾ÑĤÐ½Ð¾ÑģÐ½Ð¾": 5283,
      "Ġbiex": 5284,
      "Ġrechtssache": 5285,
      "Ġnende": 5286,
      "Ġpubbli": 5287,
      "Ġsna": 5288,
      "Ġpokroci": 5289,
      "Ġtime": 5290,
      "Ġpamat": 5291,
      "Ġeviden": 5292,
      "etud": 5293,
      "Ġkako": 5294,
      "ciw": 5295,
      "ĠÎºÎ±Î½Î¿Î½Î¹ÏĥÎ¼Î¿Ïħ": 5296,
      "Ġverte": 5297,
      "Ð´Ð¾": 5298,
      "jande": 5299,
      "Ġricorso": 5300,
      "tiei": 5301,
      "lagt": 5302,
      "Ġbeslu": 5303,
      "produ": 5304,
      "Ġrepresentan": 5305,
      "paci": 5306,
      "Ġbijlage": 5307,
      "Ġiznem": 5308,
      "Ġ2575": 5309,
      "Ġkozos": 5310,
      "ĠÏħÏĢÎ·ÏģÎµ": 5311,
      "89": 5312,
      "ÏĦÎ·ÏĦÎ±ÏĤ": 5313,
      "Ġkomisia": 5314,
      "Ġdemande": 5315,
      "Ġuse": 5316,
      "Ġcorte": 5317,
      "Ġhuwa": 5318,
      "Ġtes": 5319,
      "Ġuredba": 5320,
      "nel": 5321,
      "lusion": 5322,
      "alais": 5323,
      "nymi": 5324,
      "ĠÎ»Î¿Î³Ïī": 5325,
      "Ġpay": 5326,
      "ellen": 5327,
      "Ġcomisiei": 5328,
      "Ġpokrocily": 5329,
      "osios": 5330,
      "Ġhely": 5331,
      "Ġ102": 5332,
      "gangs": 5333,
      "Ġelt": 5334,
      "Ġkontroll": 5335,
      "ensa": 5336,
      "Ġtrebuie": 5337,
      "utz": 5338,
      "Ġoffice": 5339,
      "Ġtiesas": 5340,
      "ceerde": 5341,
      "inimo": 5342,
      "Ġvalam": 5343,
      "Ġunions": 5344,
      "Ġima": 5345,
      "Ġdia": 5346,
      "Ġjezik": 5347,
      "Ġbv": 5348,
      "Ġvelikih": 5349,
      "Ġgemenskapernas": 5350,
      "Ġbruxelles": 5351,
      "det": 5352,
      "Ġautres": 5353,
      "Ġ050": 5354,
      "Ġjigi": 5355,
      "Ġmembro": 5356,
      "rata": 5357,
      "tit": 5358,
      "Ġaontais": 5359,
      "jegy": 5360,
      "mot": 5361,
      "bles": 5362,
      "Ġtaip": 5363,
      "Ġmc": 5364,
      "zas": 5365,
      "ĠÑĦÐ¸": 5366,
      "Ġkro": 5367,
      "Ġtjans": 5368,
      "ider": 5369,
      "56": 5370,
      "Ġkao": 5371,
      "rilor": 5372,
      "Ġelementa": 5373,
      "unde": 5374,
      "Ġyks": 5375,
      "col": 5376,
      "Ġglo": 5377,
      "teria": 5378,
      "Ġjanuar": 5379,
      "ĠÎµÎ¹Ïĥ": 5380,
      "erei": 5381,
      "Ġbli": 5382,
      "inat": 5383,
      "Ġteises": 5384,
      "Ġrecorrente": 5385,
      "Ġ104": 5386,
      "Ġinclud": 5387,
      "Ġtieto": 5388,
      "rans": 5389,
      "omi": 5390,
      "Ġjekk": 5391,
      "sm": 5392,
      "Ġnivel": 5393,
      "Ġbestimm": 5394,
      "Ġamended": 5395,
      "Ġzajed": 5396,
      "Ġsvi": 5397,
      "zon": 5398,
      "Ġliitty": 5399,
      "Ġsyn": 5400,
      "Ġety": 5401,
      "Ġgere": 5402,
      "aniu": 5403,
      "ÑģÑĤÐ²": 5404,
      "Ġvelkych": 5405,
      "Ġluxemburg": 5406,
      "Ġmegalla": 5407,
      "Ġmade": 5408,
      "200": 5409,
      "Î½Î¿Î¼": 5410,
      "jums": 5411,
      "Ġzaklade": 5412,
      "Ġprev": 5413,
      "Ġvastaan": 5414,
      "tif": 5415,
      "xxi": 5416,
      "Ġdisp": 5417,
      "Ġtru": 5418,
      "Ġintre": 5419,
      "Ġrestri": 5420,
      "oriza": 5421,
      "Ġaltal": 5422,
      "Ġfinanciele": 5423,
      "ÅĤas": 5424,
      "Ġdeclara": 5425,
      "Ġnahra": 5426,
      "gifter": 5427,
      "Ġenergi": 5428,
      "Ġsentenza": 5429,
      "Ġtavar": 5430,
      "Ġtowar": 5431,
      "Ġmyndig": 5432,
      "niejs": 5433,
      "Ġduvod": 5434,
      "jeva": 5435,
      "Ġigy": 5436,
      "Ð³Ñĥ": 5437,
      "imenpite": 5438,
      "kning": 5439,
      "Ġspp": 5440,
      "Ġdeel": 5441,
      "Ġnej": 5442,
      "Ġostatni": 5443,
      "Ġgas": 5444,
      "Ġodvola": 5445,
      "dev": 5446,
      "Ġgeavan": 5447,
      "Ġgeavanceerde": 5448,
      "Ġzum": 5449,
      "Ġkaub": 5450,
      "vedi": 5451,
      "Ġportugal": 5452,
      "Ġcommer": 5453,
      "isch": 5454,
      "Ġcast": 5455,
      "lation": 5456,
      "Ġsrod": 5457,
      "cich": 5458,
      "Ġformu": 5459,
      "ksia": 5460,
      "ĠÏĢÏģÏīÏĦÎ¿": 5461,
      "ÏĢÎ¿Ïħ": 5462,
      "udell": 5463,
      "Ġkost": 5464,
      "Ġprocedimiento": 5465,
      "Ġauto": 5466,
      "Ġunionens": 5467,
      "Ð½Ð¾ÑģÑĤÑĤÐ°": 5468,
      "hem": 5469,
      "inia": 5470,
      "Ġ320": 5471,
      "69": 5472,
      "Ġpolo": 5473,
      "Ġsao": 5474,
      "Ġ368": 5475,
      "Ġtaot": 5476,
      "Ġregel": 5477,
      "Ġpies": 5478,
      "Ġmais": 5479,
      "ÏĢÏĦÏī": 5480,
      "Ġentra": 5481,
      "heden": 5482,
      "miny": 5483,
      "Ġkotele": 5484,
      "Ġagenti": 5485,
      "Ġdecisione": 5486,
      "ÑĩÐµÐ½Ð¸": 5487,
      "Ġete": 5488,
      "Ġvehic": 5489,
      "Ġsg": 5490,
      "Ġscc": 5491,
      "ĠÎ²Î±": 5492,
      "ĠÎ¼Î¿": 5493,
      "edera": 5494,
      "Ġnederland": 5495,
      "oro": 5496,
      "ĠÑģÑĬÐ´": 5497,
      "ĠÏĢÏģÎµÏĢÎµÎ¹": 5498,
      "Ġcateg": 5499,
      "Ġbrus": 5500,
      "Ġzahtjev": 5501,
      "Ġjuri": 5502,
      "Ġizmanto": 5503,
      "Ġela": 5504,
      "ĠÎµÏħÏģÏīÏĢÎ±Î¹ÎºÎ·ÏĤ": 5505,
      "Ġverordnung": 5506,
      "Ġprito": 5507,
      "zar": 5508,
      "ĠÐ´Ð¸ÑĢÐµ": 5509,
      "Ġpreli": 5510,
      "intaan": 5511,
      "Ġinfrast": 5512,
      "Ġmitgliedstaaten": 5513,
      "Ġanula": 5514,
      "Î¼ÎµÎ½Î·": 5515,
      "Ġfit": 5516,
      "ÑĬÑĤ": 5517,
      "Ġdomici": 5518,
      "nica": 5519,
      "Ġnakla": 5520,
      "Ġeuropee": 5521,
      "Ġcompany": 5522,
      "Ġhla": 5523,
      "Ġkomisja": 5524,
      "kih": 5525,
      "Ġvlast": 5526,
      "line": 5527,
      "Ġziv": 5528,
      "Ġtasa": 5529,
      "Ġtej": 5530,
      "jud": 5531,
      "Ġmedidas": 5532,
      "vim": 5533,
      "ĠÏĢÎµÏģÎ¹Î¿": 5534,
      "oto": 5535,
      "forma": 5536,
      "tets": 5537,
      "vlja": 5538,
      "Ġdumping": 5539,
      "Ġamts": 5540,
      "Ġaddi": 5541,
      "ÅĤon": 5542,
      "Ġproduktu": 5543,
      "pek": 5544,
      "ĠÎµÎ¼ÏĢÎ¿": 5545,
      "Ð²ÑĢÐ¸": 5546,
      "Ġled": 5547,
      "Ġinterven": 5548,
      "Ġscho": 5549,
      "Ġdhean": 5550,
      "Ġsamo": 5551,
      "ÏĩÎ¿ÏħÎ½": 5552,
      "Ġnime": 5553,
      "yen": 5554,
      "Ġgminy": 5555,
      "Ġpodat": 5556,
      "Ġ540": 5557,
      "Ġhuma": 5558,
      "Ġdop": 5559,
      "Ġitalia": 5560,
      "Ġtres": 5561,
      "cno": 5562,
      "Ġservizzi": 5563,
      "ĠÎ¿Î´Î·Î³": 5564,
      "Ġsty": 5565,
      "Ð¿ÑĢÐ¸": 5566,
      "Ġapl": 5567,
      "Ġupra": 5568,
      "Ġlingua": 5569,
      "Ġloike": 5570,
      "Ġporus": 5571,
      "Ġ0094": 5572,
      "48": 5573,
      "Ġpb": 5574,
      "taal": 5575,
      "Ġias": 5576,
      "Ð¼Ð²ÑĢÐ¸": 5577,
      "Ġuplat": 5578,
      "vn": 5579,
      "Ġnatur": 5580,
      "ĠÐ½Ð¾": 5581,
      "kie": 5582,
      "Ġmarch": 5583,
      "olt": 5584,
      "Ġucastnici": 5585,
      "Ġmyos": 5586,
      "Ġjasenvaltio": 5587,
      "Ġvajad": 5588,
      "kod": 5589,
      "Ġhenk": 5590,
      "ĠÎ¼ÏĢÎ¿": 5591,
      "kia": 5592,
      "Ġdohody": 5593,
      "zibas": 5594,
      "bilita": 5595,
      "kaan": 5596,
      "ĠÐ¿Ðµ": 5597,
      "Ġveic": 5598,
      "Ġatsa": 5599,
      "ĠÎµÎ½ÏīÏĥÎ·ÏĤ": 5600,
      "Ġsaan": 5601,
      "kati": 5602,
      "znam": 5603,
      "Ġinten": 5604,
      "Ġuklju": 5605,
      "ijas": 5606,
      "Î´Î¹Î¿": 5607,
      "irt": 5608,
      "ĠÂ°": 5609,
      "ĠfÃ¸r": 5610,
      "iocht": 5611,
      "Ġzalov": 5612,
      "Ġmaja": 5613,
      "Ġpec": 5614,
      "Î»ÎµÏħ": 5615,
      "Ġprime": 5616,
      "Ġjeho": 5617,
      "Ġsecre": 5618,
      "Ä§ti": 5619,
      "Ġerity": 5620,
      "Ġevalua": 5621,
      "fÃ¸rel": 5622,
      "ĠÏĥÏħÎ¼Î²Î¿ÏħÎ»Î¹Î¿Ïħ": 5623,
      "ĠÏĥÏĩÎµÏĦÎ¹ÎºÎ±": 5624,
      "Ġchild": 5625,
      "Ġjedna": 5626,
      "can": 5627,
      "Ġtah": 5628,
      "Ġeuropeias": 5629,
      "Ġpodpor": 5630,
      "Ġhenhold": 5631,
      "Ġhodno": 5632,
      "tain": 5633,
      "Ġprecu": 5634,
      "Ġpm": 5635,
      "nah": 5636,
      "Ġvam": 5637,
      "onej": 5638,
      "Ġ$": 5639,
      "plig": 5640,
      "rekty": 5641,
      "Ġreikala": 5642,
      "Ġrecours": 5643,
      "Ġlidz": 5644,
      "Ġzahte": 5645,
      "Ġmio": 5646,
      "Ġstraipsnis": 5647,
      "Ġmotiv": 5648,
      "fall": 5649,
      "erung": 5650,
      "embro": 5651,
      "ĠÐ¾Ð²": 5652,
      "Ġcomple": 5653,
      "Ġteise": 5654,
      "Ġ1488": 5655,
      "ĠÎ³Îµ": 5656,
      "ÏģÏĦÎ·": 5657,
      "Ġvoida": 5658,
      "Ġsein": 5659,
      "Ġpersonal": 5660,
      "Ġfinansi": 5661,
      "Ġuv": 5662,
      "Ġzgodnie": 5663,
      "Ġ!": 5664,
      "reÄĳ": 5665,
      "Ġnepri": 5666,
      "Ġexporta": 5667,
      "Ä§Ä§": 5668,
      "Ġsusta": 5669,
      "Ġlimita": 5670,
      "Ġiznemot": 5671,
      "Ġsopimuksen": 5672,
      "Ġvisu": 5673,
      "ĠpoÅĤ": 5674,
      "Ġrikorrenti": 5675,
      "Ġanim": 5676,
      "Î¼Î²": 5677,
      "ilu": 5678,
      "fy": 5679,
      "eros": 5680,
      "Ġnorm": 5681,
      "Ġdruge": 5682,
      "Ġ600": 5683,
      "Ġaktiv": 5684,
      "pose": 5685,
      "Ġbehand": 5686,
      "ĠtagÄ§hom": 5687,
      "Ð²ÐµÑĤÐ°": 5688,
      "ĠÎºÎ±Î¸Îµ": 5689,
      "Ġrah": 5690,
      "Ġkone": 5691,
      "chte": 5692,
      "Ġ250": 5693,
      "kost": 5694,
      "Ġdepartment": 5695,
      "Ġdrep": 5696,
      "igura": 5697,
      "Ġcet": 5698,
      "vanju": 5699,
      "lade": 5700,
      "Ġobe": 5701,
      "Ġgovern": 5702,
      "Ġrsp": 5703,
      "Ġpasak": 5704,
      "Ġtais": 5705,
      "Ġmore": 5706,
      "hin": 5707,
      "vky": 5708,
      "ÏĦÎ¿ÏħÏĤ": 5709,
      "Ġuslu": 5710,
      "adu": 5711,
      "Ã¸rende": 5712,
      "ÏĨÎ¿Ïģ": 5713,
      "cow": 5714,
      "tsioon": 5715,
      "Ð½ÐµÑĤÐ¾": 5716,
      "Ġtos": 5717,
      "Ġagency": 5718,
      "Ġprima": 5719,
      "halt": 5720,
      "ĠfÃ¦llesskaber": 5721,
      "eng": 5722,
      "Ġclankom": 5723,
      "alis": 5724,
      "Ġkaup": 5725,
      "ĠÐ¾Ñģ": 5726,
      "gua": 5727,
      "ĠÎ±ÏģÏĩ": 5728,
      "43": 5729,
      "Ġensimma": 5730,
      "Ġkaesoleva": 5731,
      "uty": 5732,
      "Ġmoz": 5733,
      "Ġobchod": 5734,
      "fied": 5735,
      "Î»ÎµÏĤ": 5736,
      "Ġeach": 5737,
      "Ġbendrijos": 5738,
      "Ġaga": 5739,
      "Ġcarac": 5740,
      "Ġista": 5741,
      "Ġquestion": 5742,
      "Ġdta": 5743,
      "Ġbem": 5744,
      "Ġconcern": 5745,
      "ĠafgÃ¸relse": 5746,
      "eks": 5747,
      "ĠÎ¹ÏĥÏĩÏħ": 5748,
      "Ð¿Ð¾Ð·Ð¸": 5749,
      "Ġcontribu": 5750,
      "Ġprekiu": 5751,
      "Î¼ÎµÎ¹": 5752,
      "ÑħÐ¾Ð´": 5753,
      "Ġjonka": 5754,
      "bele": 5755,
      "Ġkoord": 5756,
      "Ġattivita": 5757,
      "Ġkral": 5758,
      "Ġprimer": 5759,
      "Ġ1989": 5760,
      "mod": 5761,
      "ÑĨÐµ": 5762,
      "Ġactiv": 5763,
      "reich": 5764,
      "Ġ340": 5765,
      "Ġtiks": 5766,
      "Ġzalobkyne": 5767,
      "Ġspoloc": 5768,
      "Ġogget": 5769,
      "Ġaplicare": 5770,
      "ĠtagÄ§ha": 5771,
      "fie": 5772,
      "Ġwill": 5773,
      "Ġsku": 5774,
      "Ġfest": 5775,
      "gesteld": 5776,
      "Ġkriteri": 5777,
      "ÑĨÐ¸Ð°Ð»": 5778,
      "fol": 5779,
      "Ġdrug": 5780,
      "Ġsokanden": 5781,
      "ĠÎ´Î¹ÎºÎ±Î¹": 5782,
      "Ġresolu": 5783,
      "Ġcham": 5784,
      "Ġfinance": 5785,
      "37": 5786,
      "sten": 5787,
      "esa": 5788,
      "Ġsveta": 5789,
      "ĠÏĥÏĦÎ¿Î¹": 5790,
      "Ġawtorita": 5791,
      "Ġdolo": 5792,
      "ÑģÑĤÐ²Ð¸Ðµ": 5793,
      "hairle": 5794,
      "Ġdevel": 5795,
      "Ġkrav": 5796,
      "ĠÎµÏĢÎ¹ÏĦÏģÎ¿ÏĢÎ·ÏĤ": 5797,
      "Ġmuni": 5798,
      "Ġgema": 5799,
      "ffen": 5800,
      "ati": 5801,
      "ikide": 5802,
      "91": 5803,
      "Ġvot": 5804,
      "Ġide": 5805,
      "imisiun": 5806,
      "Ġmora": 5807,
      "Ġdalla": 5808,
      "Ġ400": 5809,
      "ĠÑģÑĬÐ²ÐµÑĤÐ°": 5810,
      "ĠÏĢÏģÎ¿ÏĤ": 5811,
      "ster": 5812,
      "zata": 5813,
      "ory": 5814,
      "Ġcontre": 5815,
      "Ġrozporzadzenie": 5816,
      "taz": 5817,
      "Ġtest": 5818,
      "udu": 5819,
      "chter": 5820,
      "cil": 5821,
      "Ġaktu": 5822,
      "Ġmust": 5823,
      "cnosti": 5824,
      "Ġzen": 5825,
      "Ġdess": 5826,
      "lji": 5827,
      "Ġ721": 5828,
      "Ġorganis": 5829,
      "imes": 5830,
      "cata": 5831,
      "Ġtred": 5832,
      "Ġistati": 5833,
      "Ġperiodo": 5834,
      "Ġsou": 5835,
      "ĠÎºÎ¿Î¹Î½Î¿ÏĦÎ·": 5836,
      "Ġyh": 5837,
      "87": 5838,
      "zta": 5839,
      "Ġslsc": 5840,
      "ĠÏĥÏĦÎ¿Î½": 5841,
      "Ġelementaire": 5842,
      "tiin": 5843,
      "Ġ180": 5844,
      "Ġvalsty": 5845,
      "versi": 5846,
      "Ġvia": 5847,
      "Ġobjet": 5848,
      "Ġ380": 5849,
      "Ġinformacija": 5850,
      "Ġodbor": 5851,
      "Ġtfue": 5852,
      "Ġint": 5853,
      "prin": 5854,
      "Ġmsp": 5855,
      "Ġnell": 5856,
      "Ġkonkre": 5857,
      "ĠÎ´Î¹ÎºÎ±ÏĥÏĦÎ·": 5858,
      "jima": 5859,
      "aru": 5860,
      "ĠÏĢÏģÎ¿Î²": 5861,
      "Ġdk": 5862,
      "Ġcome": 5863,
      "Ġmukaan": 5864,
      "ĠczÅĤon": 5865,
      "Ġcommunautes": 5866,
      "Ġmuu": 5867,
      "vant": 5868,
      "Ġpresident": 5869,
      "Ġcoopera": 5870,
      "cem": 5871,
      "Î¼ÎµÎ½Î¿Ïħ": 5872,
      "area": 5873,
      "isuus": 5874,
      "Ġara": 5875,
      "ells": 5876,
      "ruktu": 5877,
      "Ġ136": 5878,
      "eding": 5879,
      "ĠÐ¿ÑĢÐ¸Ð»Ð°Ð³Ð°": 5880,
      "Ġcn": 5881,
      "Ġverfahrens": 5882,
      "Ġæ": 5883,
      "Ġmembros": 5884,
      "Ġintez": 5885,
      "Ġpozosta": 5886,
      "ried": 5887,
      "ies": 5888,
      "Ġgenerali": 5889,
      "Ġbekezdese": 5890,
      "Ġcredit": 5891,
      "cej": 5892,
      "Ġczesc": 5893,
      "Ġ130": 5894,
      "Ġkasitle": 5895,
      "Ġtanac": 5896,
      "ĠÏħÏĢÎµ": 5897,
      "Ġpiel": 5898,
      "Ġdyrekty": 5899,
      "qas": 5900,
      "Ġpostupka": 5901,
      "nahmen": 5902,
      "Ġdirekty": 5903,
      "Ġwere": 5904,
      "96": 5905,
      "Ġmention": 5906,
      "Ġcolle": 5907,
      "Ġpokud": 5908,
      "yta": 5909,
      "Ġtunn": 5910,
      "wana": 5911,
      "ail": 5912,
      "bari": 5913,
      "Ġsupp": 5914,
      "Ġpedido": 5915,
      "ÑĩÐ½Ð¸": 5916,
      "blica": 5917,
      "Ġpron": 5918,
      "enje": 5919,
      "Ġpita": 5920,
      "Ġsavo": 5921,
      "Ġpoint": 5922,
      "ija": 5923,
      "bora": 5924,
      "Ð¿ÑĬÐ»Ð½": 5925,
      "Ġeorpa": 5926,
      "Ġafter": 5927,
      "Ġpontja": 5928,
      "ton": 5929,
      "Ġterritor": 5930,
      "Ġion": 5931,
      "Ġpravo": 5932,
      "Ġchapter": 5933,
      "Ġprimjen": 5934,
      "heder": 5935,
      "lys": 5936,
      "Ġhija": 5937,
      "Ġgew": 5938,
      "Ġfram": 5939,
      "Ġprejudici": 5940,
      "waltungs": 5941,
      "Ġbyloje": 5942,
      "Ġtip": 5943,
      "Ġinternation": 5944,
      "Ġdistribu": 5945,
      "Ġakt": 5946,
      "Ġilmo": 5947,
      "ÑĤÐ¸Ð²": 5948,
      "Ġpunto": 5949,
      "Ġdispositi": 5950,
      "emm": 5951,
      "ogen": 5952,
      "inter": 5953,
      "Ġanga": 5954,
      "allinen": 5955,
      "Ġmellan": 5956,
      "Ġblev": 5957,
      "Ġproizvoda": 5958,
      "ĠâĢĺ": 5959,
      "Ġvapaa": 5960,
      "kiem": 5961,
      "edel": 5962,
      "anstal": 5963,
      "Ġstell": 5964,
      "ĠÃ¸": 5965,
      "Ġproble": 5966,
      "dien": 5967,
      "Ġhof": 5968,
      "niomha": 5969,
      "Ġharmoniza": 5970,
      "Ġsik": 5971,
      "Ġ0000": 5972,
      "Ġext": 5973,
      "Ġpaga": 5974,
      "Ġrx": 5975,
      "Ġbestam": 5976,
      "Ġrubri": 5977,
      "Ġsrl": 5978,
      "Ġsva": 5979,
      "Ġzaloba": 5980,
      "kken": 5981,
      "Ġauthor": 5982,
      "alas": 5983,
      "Ġprodutos": 5984,
      "Ġpunkti": 5985,
      "Ġzwe": 5986,
      "emis": 5987,
      "itve": 5988,
      "ãĥ": 5989,
      "Ġep": 5990,
      "Ġproducen": 5991,
      "tee": 5992,
      "ĠÑģÐ»Ñĥ": 5993,
      "spr": 5994,
      "Ġsecuri": 5995,
      "ĠtaÄ§": 5996,
      "Ġregulas": 5997,
      "Ġ140": 5998,
      "ĠÐ¿ÑĢÐµÐ´Ð²Ð¸": 5999,
      "tall": 6000,
      "ÏĥÎ¿Î½": 6001,
      "iochtai": 6002,
      "Ġfoljande": 6003,
      "Ġtiesibu": 6004,
      "Ġnac": 6005,
      "Î¼Î±ÏĦÎ¿": 6006,
      "Ġjigu": 6007,
      "Ġdocument": 6008,
      "Ġkantaja": 6009,
      "ĠÏĢÏģÎ¿ÏĥÏĨÏħ": 6010,
      "Äĳu": 6011,
      "yd": 6012,
      "fon": 6013,
      "Ġwnios": 6014,
      "Ġ1931": 6015,
      "Ġstop": 6016,
      "ÑĤÐ½Ð¸": 6017,
      "Ġprior": 6018,
      "Ġacti": 6019,
      "tata": 6020,
      "Ġzabez": 6021,
      "blja": 6022,
      "Ġtrq": 6023,
      "Ġmillega": 6024,
      "Ġidir": 6025,
      "Ġteen": 6026,
      "bai": 6027,
      "Ġbla": 6028,
      "feri": 6029,
      "Ġrappor": 6030,
      "ĠeÃ¸": 6031,
      "Ġutil": 6032,
      "Ġsali": 6033,
      "cto": 6034,
      "Ġrelativo": 6035,
      "esek": 6036,
      "Ġjor": 6037,
      "Ġeinen": 6038,
      "ĠÏĦÏģÎ¿ÏĢÎ¿": 6039,
      "Ġanali": 6040,
      "zati": 6041,
      "sopim": 6042,
      "Ġnego": 6043,
      "unk": 6044,
      "ĠÐ¿ÑĢÐ¾Ð´Ñĥ": 6045,
      "Ġiar": 6046,
      "Ġoss": 6047,
      "ÑĤÐµÐ»Ð½Ð¾": 6048,
      "ĠÑģÑĤÑĢ": 6049,
      "amine": 6050,
      "Ġcikk": 6051,
      "tok": 6052,
      "Ġessa": 6053,
      "sko": 6054,
      "Ġsuch": 6055,
      "ĠÐ±ÑĬ": 6056,
      "tanut": 6057,
      "Ġktorym": 6058,
      "Ġime": 6059,
      "acha": 6060,
      "ziaÅĤ": 6061,
      "mid": 6062,
      "Ġdessa": 6063,
      "Ġact": 6064,
      "jala": 6065,
      "Ġich": 6066,
      "Ġdecembra": 6067,
      "Ġvlo": 6068,
      "Î¼Î¹": 6069,
      "Ġsena": 6070,
      "Ġrequerante": 6071,
      "Î¾Îµ": 6072,
      "Ġjustice": 6073,
      "Î¾Ïħ": 6074,
      "Ġesinda": 6075,
      "Ġhvis": 6076,
      "Ġramci": 6077,
      "ĠÐ¿ÑĢÐ¾Ð¸Ð·Ð²Ð¾Ð´ÑģÑĤÐ²Ð¾ÑĤÐ¾": 6078,
      "Ġfrance": 6079,
      "oc": 6080,
      "eset": 6081,
      "Ġstrony": 6082,
      "zuma": 6083,
      "Ġrepresenta": 6084,
      "ĠÑĥÑģ": 6085,
      "cati": 6086,
      "Ġbendro": 6087,
      "isko": 6088,
      "teno": 6089,
      "Ġcette": 6090,
      "tamise": 6091,
      "Ġmol": 6092,
      "Ġuks": 6093,
      "Ð³Ð¾Ð²Ð¾": 6094,
      "Ġsid": 6095,
      "Ġloik": 6096,
      "Ġosalta": 6097,
      "Ġeile": 6098,
      "asu": 6099,
      "ukset": 6100,
      "Ġsabiex": 6101,
      "inne": 6102,
      "ÑĢÐ³Ð°": 6103,
      "Ġuld": 6104,
      "Ġperiod": 6105,
      "sed": 6106,
      "Ġeer": 6107,
      "ymas": 6108,
      "bam": 6109,
      "Ġves": 6110,
      "ĠbÄ§ala": 6111,
      "ÅĤe": 6112,
      "Ġtale": 6113,
      "Î¹ÎºÎµÏĤ": 6114,
      "Ġizda": 6115,
      "Ġsella": 6116,
      "niecibas": 6117,
      "Ġsera": 6118,
      "ÑģÑĤÐ°Ð½Ð¾": 6119,
      "Ġdetermina": 6120,
      "Ġtekin": 6121,
      "Ġtratta": 6122,
      "Ġnumero": 6123,
      "Ġokvir": 6124,
      "Ġzmi": 6125,
      "tete": 6126,
      "Ġkval": 6127,
      "Ġizra": 6128,
      "Ġsuhtes": 6129,
      "jumiem": 6130,
      "ĠÂ±": 6131,
      "ired": 6132,
      "ÏĦÏģÎ±": 6133,
      "Ġjista": 6134,
      "Ġvallalatok": 6135,
      "Ġstup": 6136,
      "Ġbetra": 6137,
      "Ġeuropeennes": 6138,
      "Ġjine": 6139,
      "Ġjak": 6140,
      "Î²Î±Î»Î»Î¿": 6141,
      "Ġfie": 6142,
      "jate": 6143,
      "Ġentscheidung": 6144,
      "anne": 6145,
      "Ġprofes": 6146,
      "eritud": 6147,
      "Ġbere": 6148,
      "Ġdeb": 6149,
      "Ġalue": 6150,
      "Ġarticolului": 6151,
      "Ġpalvel": 6152,
      "arios": 6153,
      "Ġvoz": 6154,
      "Ġappli": 6155,
      "Ġrepublik": 6156,
      "Ġappellan": 6157,
      "ovych": 6158,
      "Ġpresidente": 6159,
      "ĠmaÃŁ": 6160,
      "anstalt": 6161,
      "Ġtel": 6162,
      "zija": 6163,
      "bod": 6164,
      "Ġnega": 6165,
      "Ġjat": 6166,
      "Ġkoll": 6167,
      "dro": 6168,
      "yti": 6169,
      "ĠÎµÏĩÎµÎ¹": 6170,
      "ĠÎ¿ÏĢÎ¿Î¹": 6171,
      "Ġfejn": 6172,
      "Ġvedr": 6173,
      "ĠÎ´ÏħÎ½Î±": 6174,
      "Ġdestina": 6175,
      "Ġobvez": 6176,
      "burg": 6177,
      "Ġkull": 6178,
      "Ġproperty": 6179,
      "Ġih": 6180,
      "Ġmember": 6181,
      "Ġvykona": 6182,
      "ÏĦÎ·ÏĤ": 6183,
      "Ġ620": 6184,
      "itev": 6185,
      "Ġindic": 6186,
      "Ġohim": 6187,
      "zila": 6188,
      "Ġjejich": 6189,
      "Ġpus": 6190,
      "Ġefe": 6191,
      "Ġ145": 6192,
      "Ġgerman": 6193,
      "ĠÐ¾ÑĢÐ³Ð°": 6194,
      "Ġreal": 6195,
      "Ġpresenta": 6196,
      "ĠÐ´Ð¸ÑĢÐµÐºÑĤÐ¸": 6197,
      "Ġ3049": 6198,
      "Ġkomisijos": 6199,
      "ÎºÎµÏħ": 6200,
      "ĠÏĦÎ¼Î·": 6201,
      "Ġpravid": 6202,
      "Ġniiden": 6203,
      "Ġws": 6204,
      "Ġatitin": 6205,
      "Ġuimh": 6206,
      "geleg": 6207,
      "ĠczÅĤonkow": 6208,
      "Ġ720": 6209,
      "Ġdoit": 6210,
      "Ġtieg": 6211,
      "Ġdawn": 6212,
      "mene": 6213,
      "Ġovereen": 6214,
      "Ġhyvaks": 6215,
      "astus": 6216,
      "ĠÏĢÎ±ÏģÎµ": 6217,
      "cna": 6218,
      "Ġkanta": 6219,
      "Ġgaran": 6220,
      "onna": 6221,
      "ĠÐ¼Ð°ÑĢ": 6222,
      "pore": 6223,
      "enja": 6224,
      "Ġ113": 6225,
      "Ġannu": 6226,
      "forordning": 6227,
      "ÑĦÐµ": 6228,
      "Ġanti": 6229,
      "Ġspos": 6230,
      "misel": 6231,
      "110": 6232,
      "Ġmetoda": 6233,
      "lijn": 6234,
      "Ġsubsection": 6235,
      "Ġdik": 6236,
      "Ġ3047": 6237,
      "Ġacqu": 6238,
      "ika": 6239,
      "Ġettepan": 6240,
      "ĠÐ¿ÑĬÑĢ": 6241,
      "Ġrazo": 6242,
      "tetta": 6243,
      "Ð°Ð»ÐµÐ½": 6244,
      "Ġagri": 6245,
      "Ġrek": 6246,
      "Ġautoma": 6247,
      "usis": 6248,
      "Ġbilo": 6249,
      "Ġservicos": 6250,
      "Ġmort": 6251,
      "Ġiranyel": 6252,
      "Ġodred": 6253,
      "Ġjournal": 6254,
      "ÑĨÐ¸ÑıÑĤÐ°": 6255,
      "Ġhatarozat": 6256,
      "Ġeuropeas": 6257,
      "ÏĦÎµÎ»Îµ": 6258,
      "Ġvoib": 6259,
      "Ġkuru": 6260,
      "Ð½Ð°Ð»": 6261,
      "adus": 6262,
      "heit": 6263,
      "ĠÄ§iel": 6264,
      "Ġdzien": 6265,
      "orie": 6266,
      "Ġatgarder": 6267,
      "pil": 6268,
      "Ġfelle": 6269,
      "070": 6270,
      "Ġbad": 6271,
      "Î¸Î·ÎºÎµ": 6272,
      "Ġtesti": 6273,
      "Ġmana": 6274,
      "licht": 6275,
      "xy": 6276,
      "Ġvalmis": 6277,
      "65": 6278,
      "sowe": 6279,
      "pej": 6280,
      "ĠÑģÑĤÐ¾Ð¸Ð½Ð¾ÑģÑĤ": 6281,
      "Ġtvr": 6282,
      "Î¼ÏīÎ½": 6283,
      "Ġkapital": 6284,
      "nahme": 6285,
      "Ġedell": 6286,
      "Ġigyvend": 6287,
      "Ġwit": 6288,
      "tante": 6289,
      "Ġvyk": 6290,
      "ĠÐ²ÑĬÐ²": 6291,
      "Ġdale": 6292,
      "aran": 6293,
      "ĠÐ¾ÑĦÐ¸ÑĨÐ¸": 6294,
      "Ġulo": 6295,
      "ĠâĪĴ": 6296,
      "Ġtalo": 6297,
      "Ġdatum": 6298,
      "Ġasian": 6299,
      "Ġwould": 6300,
      "Ġpala": 6301,
      "Ġissky": 6302,
      "Ġ3144": 6303,
      "Ð·Ðµ": 6304,
      "Ġredu": 6305,
      "Ġintegra": 6306,
      "Ġstaat": 6307,
      "Ġpravni": 6308,
      "Ġkopienas": 6309,
      "Ġaction": 6310,
      "Ġisskyrus": 6311,
      "Ð²Ð¸Ñı": 6312,
      "Ġmir": 6313,
      "83": 6314,
      "Ġdirektiivi": 6315,
      "wir": 6316,
      "now": 6317,
      "Ġzavaz": 6318,
      "Ġchomh": 6319,
      "zuje": 6320,
      "Ġdirektiva": 6321,
      "ĠÎ¼ÎµÏĦÎ±Î¾Ïħ": 6322,
      "ymo": 6323,
      "Ġ160": 6324,
      "Ġapel": 6325,
      "ugh": 6326,
      "82": 6327,
      "Ġbord": 6328,
      "oir": 6329,
      "ĠÑģÐ¿Ð¾": 6330,
      "Ġczy": 6331,
      "ĠÏĥÏħÎ¼ÏĨÏīÎ½Î±": 6332,
      "Ġquanto": 6333,
      "Ġsowie": 6334,
      "Ġitalien": 6335,
      "grund": 6336,
      "Ġ060": 6337,
      "nd": 6338,
      "Ġanhang": 6339,
      "Ġlqa": 6340,
      "cuje": 6341,
      "vit": 6342,
      "etke": 6343,
      "Ġgospodar": 6344,
      "Ġmedlemsstater": 6345,
      "yty": 6346,
      "Ġyhd": 6347,
      "Ġschool": 6348,
      "Ġposta": 6349,
      "Ġevrops": 6350,
      "Ġnuosta": 6351,
      "oa": 6352,
      "Ġamo": 6353,
      "Ġprovided": 6354,
      "Ġ125": 6355,
      "Ġapro": 6356,
      "Ġxi": 6357,
      "ffe": 6358,
      "Ġnariadenie": 6359,
      "Ġbir": 6360,
      "Ġsaly": 6361,
      "Ġvalstybes": 6362,
      "ĠÑģÐ¿Ðµ": 6363,
      "Ġprotokoll": 6364,
      "mm": 6365,
      "Ġnew": 6366,
      "ĠtiegÄ§u": 6367,
      "fritt": 6368,
      "Ġrecord": 6369,
      "zig": 6370,
      "cneho": 6371,
      "oth": 6372,
      "sagi": 6373,
      "Ġlq": 6374,
      "ÑĢÐµÑĪ": 6375,
      "Ð´ÑĬÐ»": 6376,
      "Ġtkun": 6377,
      "bon": 6378,
      "ĠÑİ": 6379,
      "Ġdalis": 6380,
      "ĶĢ": 6381,
      "Ġroku": 6382,
      "Ġ520": 6383,
      "juje": 6384,
      "zir": 6385,
      "Ġzastop": 6386,
      "Ġkita": 6387,
      "Ġvise": 6388,
      "ĠÏĢÎ»Î±Î¹Ïĥ": 6389,
      "Ġvalamint": 6390,
      "emp": 6391,
      "Ġ1519": 6392,
      "Ġ388": 6393,
      "Ġay": 6394,
      "alita": 6395,
      "Ġpiemero": 6396,
      "Ġregistr": 6397,
      "pc": 6398,
      "Ġhandel": 6399,
      "Ġiste": 6400,
      "Ġjung": 6401,
      "Ġquali": 6402,
      "Ġpuhul": 6403,
      "Î³Îº": 6404,
      "Ġdrzav": 6405,
      "ĠÄ§ieles": 6406,
      "jacych": 6407,
      "Ġaceste": 6408,
      "ÑĢÐµÐ´Ð¸": 6409,
      "Ġdomanda": 6410,
      "Ġmati": 6411,
      "Ġmercado": 6412,
      "Ġoblasti": 6413,
      "zak": 6414,
      "Î³Î±": 6415,
      "ÏīÏĥÎ·": 6416,
      "Ġgemeenschappen": 6417,
      "Ġstosow": 6418,
      "Ġsatesta": 6419,
      "ĠwÅĤas": 6420,
      "kola": 6421,
      "ĠÎºÎ±Î¸Î¿": 6422,
      "uli": 6423,
      "Ġgan": 6424,
      "Ð¶Ð¸": 6425,
      "gio": 6426,
      "jacy": 6427,
      "ei": 6428,
      "ÑĥÐ±Ð»Ð¸": 6429,
      "veau": 6430,
      "Ġmegfel": 6431,
      "Ġbestammel": 6432,
      "Ġtalan": 6433,
      "Ġgene": 6434,
      "machtig": 6435,
      "Ġalinea": 6436,
      "tir": 6437,
      "Ġinstancia": 6438,
      "tettava": 6439,
      "ĠÐ´Ð¸ÑĢÐµÐºÑĤÐ¸Ð²Ð°": 6440,
      "Ġodvet": 6441,
      "ÑĨÐµÐ½": 6442,
      "pisu": 6443,
      "Ġskarzaca": 6444,
      "gus": 6445,
      "cus": 6446,
      "Ġ1987": 6447,
      "Ġdof": 6448,
      "Ġtidende": 6449,
      "Ġ2691": 6450,
      "Ġtillamp": 6451,
      "feren": 6452,
      "Ġade": 6453,
      "eki": 6454,
      "Ġnomen": 6455,
      "Î¿Îº": 6456,
      "voj": 6457,
      "ĠÎ³ÏģÎ±": 6458,
      "Ġ850": 6459,
      "Ġimo": 6460,
      "Ġzona": 6461,
      "Ġfix": 6462,
      "atsio": 6463,
      "Ġtac": 6464,
      "Ġnosa": 6465,
      "Ġurspr": 6466,
      "Ġting": 6467,
      "Ġkapitel": 6468,
      "rift": 6469,
      "Ġome": 6470,
      "ĠÏħÏĢÎ¿Î¸ÎµÏĥÎ·": 6471,
      "Ġlip": 6472,
      "Ġpunktu": 6473,
      "Ġig": 6474,
      "ĠÎ±Îº": 6475,
      "ĠutvrÄĳ": 6476,
      "Ġempres": 6477,
      "ĠÎ»Î±": 6478,
      "Ġtoto": 6479,
      "Ġclanica": 6480,
      "Ġdisponi": 6481,
      "ĠÃ¦nd": 6482,
      "Ġfal": 6483,
      "Ġrada": 6484,
      "Ġjurnal": 6485,
      "Ġduz": 6486,
      "joitta": 6487,
      "Ġrn": 6488,
      "stolen": 6489,
      "ĠÐ³Ð¾Ð´Ð¸Ð½Ð°": 6490,
      "Ġihr": 6491,
      "bility": 6492,
      "Ġange": 6493,
      "bied": 6494,
      "ĠÎ³ÎµÎ½": 6495,
      "ĠÎ±ÏģÎ¸ÏģÎ¿Ïħ": 6496,
      "Ġdokumenta": 6497,
      "Ġfelleb": 6498,
      "ineann": 6499,
      "Ġdaw": 6500,
      "mek": 6501,
      "Ġconformitate": 6502,
      "Ġpries": 6503,
      "Ġisi": 6504,
      "noots": 6505,
      "iseen": 6506,
      "ÑīÐ¾": 6507,
      "ÏĦÎ¹Ïĥ": 6508,
      "jez": 6509,
      "ÏģÎ¿ÏħÏĤ": 6510,
      "Ġpiir": 6511,
      "ĠgemaÃŁ": 6512,
      "Ġtoimenpite": 6513,
      "ĠÎ´Î¹Î¿": 6514,
      "oga": 6515,
      "Ġznamka": 6516,
      "ÑıÐ²Ð°Ð½Ðµ": 6517,
      "Ġminim": 6518,
      "Ġsous": 6519,
      "Ġegt": 6520,
      "Ġtullfritt": 6521,
      "Ġgemeinde": 6522,
      "Ð½Ð°Ð½": 6523,
      "innen": 6524,
      "Ġluxembo": 6525,
      "Ġmerk": 6526,
      "Ġzb": 6527,
      "och": 6528,
      "spar": 6529,
      "ustus": 6530,
      "Ġant": 6531,
      "Ġstabbili": 6532,
      "Ġsporaz": 6533,
      "gata": 6534,
      "stall": 6535,
      "Ġspani": 6536,
      "Ġtuomioistuimen": 6537,
      "Ġafs": 6538,
      "Ġforen": 6539,
      "organ": 6540,
      "Ġrapprezen": 6541,
      "Ġenlighet": 6542,
      "Ġsalys": 6543,
      "unea": 6544,
      "ĠÐ´ÐµÐ»Ð¾": 6545,
      "Ġkn": 6546,
      "Ġobbli": 6547,
      "bina": 6548,
      "dad": 6549,
      "Ġodob": 6550,
      "Ġcazul": 6551,
      "icke": 6552,
      "ribu": 6553,
      "ulla": 6554,
      "Ġutiliza": 6555,
      "Ġspecific": 6556,
      "pit": 6557,
      "sek": 6558,
      "jevi": 6559,
      "Ġvelvo": 6560,
      "Ġuradni": 6561,
      "Ġodpow": 6562,
      "tus": 6563,
      "ĠÐ¿ÑĢÐµÐ´ÑģÑĤÐ°": 6564,
      "Ġesitatud": 6565,
      "ĠgennemfÃ¸rel": 6566,
      "Ġcorpora": 6567,
      "glas": 6568,
      "ĠÏĥÏħÎ½Îµ": 6569,
      "Ġestabele": 6570,
      "niedz": 6571,
      "Ġktorych": 6572,
      "osc": 6573,
      "Ġwenn": 6574,
      "Ġnei": 6575,
      "Ġpodniky": 6576,
      "Ġautoriza": 6577,
      "uzi": 6578,
      "Ġkozosseg": 6579,
      "Ġjit": 6580,
      "Ġrichtlijn": 6581,
      "Ġvennoots": 6582,
      "Ġeyvl": 6583,
      "Ġbuvo": 6584,
      "Ġtype": 6585,
      "Ġpostopka": 6586,
      "ÎµÎ¹Î±": 6587,
      "erte": 6588,
      "ÑĩÐºÐ°": 6589,
      "73": 6590,
      "ĠÎ±Î½ÏĦÎ¹": 6591,
      "timo": 6592,
      "Ġufficjali": 6593,
      "ham": 6594,
      "vaju": 6595,
      "080": 6596,
      "Ġovereenkom": 6597,
      "Ġtair": 6598,
      "Ġcis": 6599,
      "Ġnyel": 6600,
      "Ġoverens": 6601,
      "imus": 6602,
      "Ġfru": 6603,
      "Ġaval": 6604,
      "erva": 6605,
      "Ġreferen": 6606,
      "Ġpret": 6607,
      "Ġequi": 6608,
      "Ġ105": 6609,
      "jus": 6610,
      "Ġ3685": 6611,
      "Ġbetreffende": 6612,
      "onta": 6613,
      "cjali": 6614,
      "Ġdv": 6615,
      "Ġsporazuma": 6616,
      "Ġjuridi": 6617,
      "Ġiom": 6618,
      "Ġ611": 6619,
      "Ġvarer": 6620,
      "iochta": 6621,
      "kke": 6622,
      "Ġhos": 6623,
      "Ġazon": 6624,
      "ĠÎµÏĢÎ¹ÏĩÎµÎ¹": 6625,
      "Ġjurnalul": 6626,
      "88": 6627,
      "Ġcomer": 6628,
      "ĠÐ¸Ð·Ð¸Ñģ": 6629,
      "Ġizdev": 6630,
      "Ġvnut": 6631,
      "ĠÐ´Ð°Ð½": 6632,
      "Ġhivatalos": 6633,
      "ĠÑĢÐµÐ´": 6634,
      "Ġiniti": 6635,
      "Ġapela": 6636,
      "Ġprije": 6637,
      "jec": 6638,
      "Ġtanacsi": 6639,
      "Ġprevis": 6640,
      "ĠÐµÐºÑģ": 6641,
      "wel": 6642,
      "Ġcontrac": 6643,
      "upra": 6644,
      "Ġanexo": 6645,
      "Ġalo": 6646,
      "Ð»Ð·": 6647,
      "Ġkollha": 6648,
      "onych": 6649,
      "Ġprzypad": 6650,
      "Ġtozeca": 6651,
      "Ġnord": 6652,
      "Ġkuulu": 6653,
      "Ð¾ÑĢÐ¼Ð°": 6654,
      "Ġirland": 6655,
      "Ġrigward": 6656,
      "Ã¦ldende": 6657,
      "Ġpake": 6658,
      "biet": 6659,
      "ila": 6660,
      "owej": 6661,
      "Ġuznem": 6662,
      "Ġellen": 6663,
      "Ġvaluta": 6664,
      "Ġmarg": 6665,
      "richt": 6666,
      "Ġdim": 6667,
      "Ġdoda": 6668,
      "Ġmanu": 6669,
      "omet": 6670,
      "Ġiga": 6671,
      "ystem": 6672,
      "ĠÐ±Ð¸": 6673,
      "Ġufficiale": 6674,
      "sas": 6675,
      "gement": 6676,
      "ĠÐ½Ð°ÑģÑĤÐ¾Ñı": 6677,
      "ijke": 6678,
      "ÏĢÏģÎ¿ÏĥÏī": 6679,
      "Ġgadi": 6680,
      "kenek": 6681,
      "Ġmars": 6682,
      "tte": 6683,
      "Ġhvor": 6684,
      "ĠÎ¶Î·": 6685,
      "Ġmeddel": 6686,
      "Ġnalo": 6687,
      "blatt": 6688,
      "ĠÎ±ÏħÏĦÎ¿": 6689,
      "Ġprincipali": 6690,
      "Ġbefore": 6691,
      "mais": 6692,
      "kkor": 6693,
      "acht": 6694,
      "Ġrecurs": 6695,
      "Ġsing": 6696,
      "Ġrechtsan": 6697,
      "care": 6698,
      "ÏĥÎ¹Î±ÏĤ": 6699,
      "Ġtemelju": 6700,
      "vik": 6701,
      "Ġsio": 6702,
      "Ġvri": 6703,
      "lep": 6704,
      "Î¸Î·Îº": 6705,
      "Ġsutar": 6706,
      "Ġlemumu": 6707,
      "haj": 6708,
      "ore": 6709,
      "Ġtako": 6710,
      "001": 6711,
      "Ġshe": 6712,
      "lata": 6713,
      "vning": 6714,
      "Ġnagyvall": 6715,
      "ksam": 6716,
      "Ġkind": 6717,
      "rz": 6718,
      "Ġnije": 6719,
      "ĠÏĢÏģÎ¿ÏĥÏī": 6720,
      "Ġprelimin": 6721,
      "Ã¸d": 6722,
      "guma": 6723,
      "61": 6724,
      "Ġieskin": 6725,
      "ulos": 6726,
      "ĠÐ²ÐºÐ»Ñİ": 6727,
      "ĠÎµÏĢÎ¹ÏĩÎµÎ¹ÏģÎ·": 6728,
      "Ġantidumping": 6729,
      "Ġvni": 6730,
      "rÃ¦": 6731,
      "aselt": 6732,
      "Ġmig": 6733,
      "ekpro": 6734,
      "esenek": 6735,
      "gd": 6736,
      "Ġprocedur": 6737,
      "Ġarg": 6738,
      "Ġrum": 6739,
      "ÑĢÐ°Ð½Ð°": 6740,
      "Ġ1666": 6741,
      "Ġ440": 6742,
      "gue": 6743,
      "Ġ129": 6744,
      "Ġacest": 6745,
      "Ġsnieg": 6746,
      "Ġ1734": 6747,
      "Ġresz": 6748,
      "Ġmeghataro": 6749,
      "zs": 6750,
      "Î±Î³ÏīÎ³": 6751,
      "Ġpoly": 6752,
      "Ġnalezy": 6753,
      "ney": 6754,
      "Ġsteekpro": 6755,
      "Ġkah": 6756,
      "Ġprostred": 6757,
      "ÎºÏģÎ±": 6758,
      "Ġintrodu": 6759,
      "Ġpotre": 6760,
      "obe": 6761,
      "Ġgerichtshof": 6762,
      "ish": 6763,
      "ĠÏħÏĢÎ·ÏģÎµÏĥÎ¹": 6764,
      "Ġkole": 6765,
      "Ġevidence": 6766,
      "niesi": 6767,
      "eles": 6768,
      "Ġesporta": 6769,
      "Ġmedzia": 6770,
      "Î½ÏĦÎ±Î¹": 6771,
      "lijke": 6772,
      "ĠeÃ¸f": 6773,
      "Ġsteekproef": 6774,
      "Ġznamky": 6775,
      "rati": 6776,
      "kaita": 6777,
      "oveho": 6778,
      "kle": 6779,
      "ÑģÑĤÐ½Ð¸Ðº": 6780,
      "Ġsposob": 6781,
      "ĠÐ¾ÑĦÐ¸ÑĨÐ¸Ð°Ð»ÐµÐ½": 6782,
      "090": 6783,
      "feu": 6784,
      "rest": 6785,
      "row": 6786,
      "Ġklage": 6787,
      "mos": 6788,
      "Ġseotud": 6789,
      "strada": 6790,
      "Ġipp": 6791,
      "Ġstandar": 6792,
      "Ġtanacs": 6793,
      "isne": 6794,
      "Ġdienst": 6795,
      "itori": 6796,
      "Ġseu": 6797,
      "Ġpasta": 6798,
      "ĠÏĢÎµÏģÎ¹ÏĢÏĦÏī": 6799,
      "ÐµÐ½Ð¸ÑĤÐµ": 6800,
      "Ġgazz": 6801,
      "wali": 6802,
      "eltu": 6803,
      "Ġatstova": 6804,
      "Ġjossa": 6805,
      "Ġconfor": 6806,
      "Ġarv": 6807,
      "itettu": 6808,
      "zeug": 6809,
      "ĠÐµÐ·Ð¸": 6810,
      "ender": 6811,
      "Ġkuul": 6812,
      "Ġunui": 6813,
      "Ġocena": 6814,
      "Ġlors": 6815,
      "Ġphar": 6816,
      "Ġprincipa": 6817,
      "jmu": 6818,
      "Ġfederal": 6819,
      "woord": 6820,
      "cima": 6821,
      "xi": 6822,
      "Ġkaytto": 6823,
      "79": 6824,
      "Ġalg": 6825,
      "Ġtorvenys": 6826,
      "Ġada": 6827,
      "Ġsed": 6828,
      "Ġmind": 6829,
      "beg": 6830,
      "Ġkre": 6831,
      "Ġdirektiivin": 6832,
      "120": 6833,
      "Ġio": 6834,
      "ÑĤÐµÐ»Ð¸": 6835,
      "Ġ109": 6836,
      "mus": 6837,
      "Ġotsuse": 6838,
      "pras": 6839,
      "Ġmarked": 6840,
      "Ġregional": 6841,
      "ÏĦÎ¹ÎºÎ¿Ïħ": 6842,
      "fog": 6843,
      "Ġlabor": 6844,
      "Ġcontract": 6845,
      "Ġvyd": 6846,
      "arol": 6847,
      "Ġfeidhme": 6848,
      "Ġclanice": 6849,
      "Ġpasiul": 6850,
      "Ġ2549": 6851,
      "Ġ2552": 6852,
      "Ġkiti": 6853,
      "Ġfinancne": 6854,
      "iger": 6855,
      "ÑĩÐºÐ¸": 6856,
      "perat": 6857,
      "Ġmunici": 6858,
      "gÄ§u": 6859,
      "itetaan": 6860,
      "Î³ÏīÎ½": 6861,
      "Ġzavar": 6862,
      "Ġlettera": 6863,
      "Ġsolicitor": 6864,
      "Ġappropri": 6865,
      "Ġhmot": 6866,
      "Ġapie": 6867,
      "kova": 6868,
      "Ġvoidaan": 6869,
      "Ġcircu": 6870,
      "jimo": 6871,
      "biu": 6872,
      "Ġklagerin": 6873,
      "Ġpanaik": 6874,
      "Ġstwierd": 6875,
      "Ġsoula": 6876,
      "Ġoplys": 6877,
      "Ġodniesi": 6878,
      "ily": 6879,
      "Ġcele": 6880,
      "jna": 6881,
      "Î»Î±Î¼Î²Î±": 6882,
      "Ġtuh": 6883,
      "Ġmetod": 6884,
      "hdoll": 6885,
      "Ġrequired": 6886,
      "ĠÑģÑĤÑĢÐ°Ð½Ð¸": 6887,
      "ĠÎ±ÏĢ": 6888,
      "Ġcand": 6889,
      "ĠÑĢÐ¸": 6890,
      "ÑģÐ°": 6891,
      "Ġkepvis": 6892,
      "Ġgazzetta": 6893,
      "Ġdalibvalsti": 6894,
      "Ġoba": 6895,
      "Ġkvali": 6896,
      "ligen": 6897,
      "Ġvizs": 6898,
      "tak": 6899,
      "inst": 6900,
      "ÐºÑĤ": 6901,
      "Ġuro": 6902,
      "Ġauch": 6903,
      "uvod": 6904,
      "Ġehs": 6905,
      "Ġgc": 6906,
      "Ġgerecht": 6907,
      "Ġaktar": 6908,
      "Ġ234": 6909,
      "arakter": 6910,
      "Ġnagyvallalati": 6911,
      "hn": 6912,
      "valta": 6913,
      "Ġjipp": 6914,
      "ĠÐ²ÐµÑģÑĤÐ½Ð¸Ðº": 6915,
      "Ġsusijusi": 6916,
      "Ġalterna": 6917,
      "Ġvzta": 6918,
      "delen": 6919,
      "Ġminist": 6920,
      "cker": 6921,
      "kostninger": 6922,
      "ĠfÃ¸lgende": 6923,
      "ÏĥÎºÎµÏħ": 6924,
      "Ġkode": 6925,
      "Ġparlement": 6926,
      "pati": 6927,
      "ostus": 6928,
      "Ġsuc": 6929,
      "Ġvast": 6930,
      "Ġluxembourg": 6931,
      "Ġsouladu": 6932,
      "Ġannexe": 6933,
      "Ġtorvenyszek": 6934,
      "anim": 6935,
      "Ġaff": 6936,
      "olgal": 6937,
      "Ġvertrag": 6938,
      "rul": 6939,
      "Ġstaty": 6940,
      "Ġtraite": 6941,
      "chy": 6942,
      "baly": 6943,
      "ĠÎ±Î»Î»Î±": 6944,
      "czenia": 6945,
      "nehmen": 6946,
      "inius": 6947,
      "Ġarvio": 6948,
      "cze": 6949,
      "Ġpodob": 6950,
      "Ġ390": 6951,
      "vieno": 6952,
      "ommen": 6953,
      "tail": 6954,
      "iau": 6955,
      "76": 6956,
      "Ġcertific": 6957,
      "Ġzadeva": 6958,
      "jska": 6959,
      "Ġelle": 6960,
      "aneho": 6961,
      "anza": 6962,
      "Ġtrhu": 6963,
      "arna": 6964,
      "Ġallo": 6965,
      "Ġanvand": 6966,
      "jicich": 6967,
      "Ġkamer": 6968,
      "Ġpunt": 6969,
      "Ġexam": 6970,
      "Ġsovelta": 6971,
      "cijo": 6972,
      "Ġfores": 6973,
      "Ġprzedsiebiorstw": 6974,
      "semmi": 6975,
      "Ġhuomio": 6976,
      "Ġpraw": 6977,
      "Ġkorral": 6978,
      "tha": 6979,
      "Ġgcas": 6980,
      "ĠÏĢÏģÎ¿Î²Î»Îµ": 6981,
      "ĠÐµÐ·Ð¸Ðº": 6982,
      "cola": 6983,
      "Î¿ÏħÎ½ÏĦÎ±Î¹": 6984,
      "Ġkraft": 6985,
      "ingu": 6986,
      "olas": 6987,
      "if": 6988,
      "Ġkis": 6989,
      "Ġresulta": 6990,
      "jom": 6991,
      "Ġsav": 6992,
      "Ġodwo": 6993,
      "aras": 6994,
      "Î¹ÏīÎ½": 6995,
      "Ġagric": 6996,
      "zgled": 6997,
      "teurs": 6998,
      "Ġcasti": 6999,
      "eneho": 7000,
      "nor": 7001,
      "antes": 7002,
      "Ġkulon": 7003,
      "Ġlpp": 7004,
      "9900": 7005,
      "Ġnich": 7006,
      "nud": 7007,
      "Ġ1990": 7008,
      "jot": 7009,
      "ĠÎ±Î¾": 7010,
      "Ġfinanzi": 7011,
      "Ġamtsblatt": 7012,
      "satt": 7013,
      "Ġhid": 7014,
      "pareigo": 7015,
      "Ġliitte": 7016,
      "Ġcitadi": 7017,
      "znacz": 7018,
      "Ġprodukter": 7019,
      "Ġagreement": 7020,
      "Ġhum": 7021,
      "ÑīÐ¸Ñı": 7022,
      "Ġsluzby": 7023,
      "Ġpredpis": 7024,
      "Ġsw": 7025,
      "Ġjik": 7026,
      "Ġsocieta": 7027,
      "Ġacorda": 7028,
      "orsza": 7029,
      "Ġaustri": 7030,
      "Ġbhfe": 7031,
      "Ġieg": 7032,
      "otri": 7033,
      "Ġjusticia": 7034,
      "liczenia": 7035,
      "Ġspan": 7036,
      "Ġluft": 7037,
      "zn": 7038,
      "Ġratts": 7039,
      "Ġ260": 7040,
      "Ġefectu": 7041,
      "Ġkuu": 7042,
      "leich": 7043,
      "Ġprotiv": 7044,
      "materi": 7045,
      "gne": 7046,
      "Ġnummer": 7047,
      "terior": 7048,
      "Î³Î³": 7049,
      "Î¸Ïħ": 7050,
      "fr": 7051,
      "ĠÑĦÐ¸Ð½Ð°Ð½": 7052,
      "Ġprotokol": 7053,
      "Ġskupnosti": 7054,
      "gev": 7055,
      "Ġpodana": 7056,
      "Ġsigur": 7057,
      "Ġzakres": 7058,
      "vita": 7059,
      "Ġregime": 7060,
      "Ġalusel": 7061,
      "gsmal": 7062,
      "Ġbestemmel": 7063,
      "Ġ1506": 7064,
      "jske": 7065,
      "Ġostalo": 7066,
      "ĠprÃ¦": 7067,
      "ÏĦÎ±ÏĤ": 7068,
      "deling": 7069,
      "Ġbonitet": 7070,
      "Ġsarsk": 7071,
      "Ġpass": 7072,
      "Ġgor": 7073,
      "arch": 7074,
      "kseen": 7075,
      "Ġnv": 7076,
      "Ġconstru": 7077,
      "Ġ330": 7078,
      "uw": 7079,
      "ijo": 7080,
      "Ġkeel": 7081,
      "ÑģÐ»ÐµÐ´": 7082,
      "arias": 7083,
      "Ġmass": 7084,
      "ujtott": 7085,
      "Ġfos": 7086,
      "Ġfiz": 7087,
      "Ġzel": 7088,
      "veis": 7089,
      "Ġdist": 7090,
      "Ġiek": 7091,
      "sao": 7092,
      "anej": 7093,
      "Ġeti": 7094,
      "izvel": 7095,
      "Ġolisi": 7096,
      "Ġdall": 7097,
      "Ġregulament": 7098,
      "Ġlimited": 7099,
      "Ġiranyelv": 7100,
      "jimu": 7101,
      "Ġofficiel": 7102,
      "ÏģÎµÏĤ": 7103,
      "Ġ170": 7104,
      "ĠÎµÏĢÎ¹Ïĥ": 7105,
      "ange": 7106,
      "lion": 7107,
      "Î¸Î½": 7108,
      "Ġpracov": 7109,
      "Ġ1639": 7110,
      "Ġasiassa": 7111,
      "Ġtrosk": 7112,
      "Ġkomisijas": 7113,
      "meni": 7114,
      "ĠÎ¿ÏĢ": 7115,
      "Ġradi": 7116,
      "pt": 7117,
      "Ġattor": 7118,
      "Ġfinancni": 7119,
      "cujuci": 7120,
      "Ġpruf": 7121,
      "Ġvennootschappen": 7122,
      "Ġpriloga": 7123,
      "Ġbejn": 7124,
      "Ġsuur": 7125,
      "Ġotaz": 7126,
      "ologa": 7127,
      "tantoon": 7128,
      "Ġfede": 7129,
      "Ġkomunita": 7130,
      "ÑĤÐµÐ½": 7131,
      "Ġogranic": 7132,
      "Ġcikkenek": 7133,
      "Ġkanne": 7134,
      "Ġszam": 7135,
      "ÑģÐºÐ¾": 7136,
      "nyi": 7137,
      "Ġreas": 7138,
      "Ġmaterjal": 7139,
      "Ġ114": 7140,
      "ÏģÎµÏħ": 7141,
      "Ġrelative": 7142,
      "ants": 7143,
      "tec": 7144,
      "Ġwil": 7145,
      "idad": 7146,
      "Ġkohdassa": 7147,
      "Ġrevi": 7148,
      "Ġpodsta": 7149,
      "Ġatsizvel": 7150,
      "my": 7151,
      "Ġlapja": 7152,
      "Î»Î¹Ïĥ": 7153,
      "Ġvegre": 7154,
      "Ġdoloc": 7155,
      "Ġteil": 7156,
      "Ġsadu": 7157,
      "Ġdispositions": 7158,
      "Ġsubsidi": 7159,
      "Ġlini": 7160,
      "fal": 7161,
      "ĠÎ±Î³Î¿": 7162,
      "ÑģÑı": 7163,
      "ĠÐ¿Ð°Ð·Ð°": 7164,
      "jumus": 7165,
      "Ġlista": 7166,
      "Ġjude": 7167,
      "hoza": 7168,
      "Ġmasuri": 7169,
      "Ġtransfer": 7170,
      "Ġgrote": 7171,
      "Ġespeci": 7172,
      "Ġcatre": 7173,
      "Ġpienem": 7174,
      "Ġdecizie": 7175,
      "urgo": 7176,
      "ctos": 7177,
      "Ġture": 7178,
      "ĠÏĩÎ±": 7179,
      "Ġbenefici": 7180,
      "kkino": 7181,
      "Ġstavka": 7182,
      "Ġdireito": 7183,
      "Ġsystemu": 7184,
      "skega": 7185,
      "Ġdeutsch": 7186,
      "sÃ¸": 7187,
      "huje": 7188,
      "Ġdruga": 7189,
      "utatud": 7190,
      "Ġmedlemsstat": 7191,
      "bruik": 7192,
      "Ġvaatim": 7193,
      "blika": 7194,
      "jati": 7195,
      "Ġkokku": 7196,
      "Ġraho": 7197,
      "Ġktera": 7198,
      "ĠÏĢÎ¿ÏĥÎ¿": 7199,
      "cit": 7200,
      "Ġdroit": 7201,
      "Ġpropos": 7202,
      "ĠÎµÎ¾Î¿": 7203,
      "Ġmida": 7204,
      "Ġprzedsiebiorstwa": 7205,
      "Ġdalsi": 7206,
      "Ġchi": 7207,
      "Ġlang": 7208,
      "Ġprovision": 7209,
      "ovat": 7210,
      "ams": 7211,
      "ÎºÏĦÎ·": 7212,
      "Ġpea": 7213,
      "Ġdus": 7214,
      "Ġapaks": 7215,
      "Ġneed": 7216,
      "nement": 7217,
      "Ġpis": 7218,
      "Ġprograma": 7219,
      "Ġ350": 7220,
      "Ġhospodar": 7221,
      "Ġsvoje": 7222,
      "Ġfrances": 7223,
      "Ġrak": 7224,
      "bij": 7225,
      "Ġsyste": 7226,
      "Ġinclu": 7227,
      "Ġaven": 7228,
      "Ġokol": 7229,
      "bank": 7230,
      "Ġjudge": 7231,
      "ÏĥÎ¹Î¼Î¿": 7232,
      "Ġea": 7233,
      "ĠÐ¿ÑĢÐµÐ´Ð²Ð¸Ð´": 7234,
      "Ġconsta": 7235,
      "Ġcaracter": 7236,
      "Ġsek": 7237,
      "Ġprodukt": 7238,
      "Ġarty": 7239,
      "Ġidentifika": 7240,
      "Ġclassi": 7241,
      "Ġaine": 7242,
      "Ġproceso": 7243,
      "Ġnome": 7244,
      "Ġinklu": 7245,
      "Ġtapa": 7246,
      "Ġ117": 7247,
      "ĠÑģÑĬÐ³Ð»Ð°": 7248,
      "Ġrappres": 7249,
      "Ġnormal": 7250,
      "Ġ730": 7251,
      "osal": 7252,
      "Ġpriloha": 7253,
      "bere": 7254,
      "tiki": 7255,
      "ĠÎ±ÏĨÎ¿ÏģÎ±": 7256,
      "Ġaparta": 7257,
      "oniu": 7258,
      "Ġ218": 7259,
      "Ġpanstwa": 7260,
      "Ġdheanamh": 7261,
      "Î½Î¿ÏĤ": 7262,
      "Ġoplysninger": 7263,
      "Ġnaste": 7264,
      "char": 7265,
      "cole": 7266,
      "Ġconditions": 7267,
      "Ġpartea": 7268,
      "zw": 7269,
      "Ġexisten": 7270,
      "Ġombud": 7271,
      "Ġspeciali": 7272,
      "Ġbegr": 7273,
      "vog": 7274,
      "Ġdirit": 7275,
      "ĠÐ¸ÑģÐºÐ°": 7276,
      "Ġtigi": 7277,
      "Ġsala": 7278,
      "ix": 7279,
      "Ġsios": 7280,
      "Ġtohoto": 7281,
      "Ġmizuri": 7282,
      "Ġnarus": 7283,
      "waz": 7284,
      "Î»Î»Î±": 7285,
      "Ð¿Ñĥ": 7286,
      "Ġhandels": 7287,
      "uksessa": 7288,
      "Ġanta": 7289,
      "Ġryb": 7290,
      "Ġconsejo": 7291,
      "Ġavocat": 7292,
      "Ġdot": 7293,
      "Ġpogla": 7294,
      "tech": 7295,
      "Ġobser": 7296,
      "Ġplc": 7297,
      "zionale": 7298,
      "Ġdere": 7299,
      "tamente": 7300,
      "mental": 7301,
      "Ġusk": 7302,
      "Ġadministrative": 7303,
      "Ġpriemones": 7304,
      "Ġill": 7305,
      "Ġzug": 7306,
      "Ġmaarus": 7307,
      "okat": 7308,
      "gelse": 7309,
      "Ġarna": 7310,
      "nyt": 7311,
      "Ġhuomioon": 7312,
      "Ġcli": 7313,
      "Ġdespes": 7314,
      "ĠÏĨÎ¿": 7315,
      "nemu": 7316,
      "stait": 7317,
      "Ġwart": 7318,
      "miseksi": 7319,
      "Ġprzedstaw": 7320,
      "Ġartyku": 7321,
      "Ġiec": 7322,
      "lac": 7323,
      "talmaz": 7324,
      "standig": 7325,
      "Î¼Î²ÏģÎ¹Î¿Ïħ": 7326,
      "isiunta": 7327,
      "arie": 7328,
      "Ġdub": 7329,
      "Ġwara": 7330,
      "Ġori": 7331,
      "ziu": 7332,
      "Ġlain": 7333,
      "lieÃŁ": 7334,
      "ĠÎ¿ÏģÎ¹Ïĥ": 7335,
      "ÏĥÏĦÎµ": 7336,
      "Ġkonf": 7337,
      "hreir": 7338,
      "Ġoly": 7339,
      "isessa": 7340,
      "Ġewropew": 7341,
      "tsi": 7342,
      "dik": 7343,
      "iras": 7344,
      "Ġteismo": 7345,
      "Ġgcomhreir": 7346,
      "ims": 7347,
      "Ġresul": 7348,
      "jr": 7349,
      "Ġnit": 7350,
      "Ġoffic": 7351,
      "ÑħÐ¾Ð´Ð¸": 7352,
      "Ġmezi": 7353,
      "ÎºÎµÎ¹": 7354,
      "Ġkerel": 7355,
      "Ġnazzjonali": 7356,
      "Ġlabi": 7357,
      "tala": 7358,
      "uze": 7359,
      "Î´ÎµÎ¹": 7360,
      "Ġvegrehaj": 7361,
      "Ġvykon": 7362,
      "Ġked": 7363,
      "kka": 7364,
      "Ġpartij": 7365,
      "alacha": 7366,
      "Ġeft": 7367,
      "Ġeigen": 7368,
      "Ġdaug": 7369,
      "Ġsprawa": 7370,
      "Ġobsahu": 7371,
      "hou": 7372,
      "Ġmulti": 7373,
      "chafts": 7374,
      "lude": 7375,
      "ĠÐ¸Ð·Ð¸ÑģÐºÐ²Ð°": 7376,
      "aly": 7377,
      "Ġkovetke": 7378,
      "Ġrue": 7379,
      "Ġinfrastruktu": 7380,
      "Ġkm": 7381,
      "Ġduomen": 7382,
      "Ġkiek": 7383,
      "Ġprocedimento": 7384,
      "Ġ156": 7385,
      "Ġokresl": 7386,
      "Ġfinancov": 7387,
      "Ġrespubli": 7388,
      "prowad": 7389,
      "Ġfour": 7390,
      "Ġfellebbe": 7391,
      "Ġeerste": 7392,
      "Ġmellekl": 7393,
      "sav": 7394,
      "ĠÑģÑĤÐ°": 7395,
      "Ġ133": 7396,
      "Ġ230": 7397,
      "ellschaft": 7398,
      "edo": 7399,
      "Ġliqu": 7400,
      "ÐºÐ»Ð°": 7401,
      "vollmachtig": 7402,
      "Ġpaj": 7403,
      "Ġlistop": 7404,
      "Ġdri": 7405,
      "tary": 7406,
      "Ġtagal": 7407,
      "Ġelu": 7408,
      "Ġsensi": 7409,
      "vane": 7410,
      "Ġwyd": 7411,
      "osu": 7412,
      "idhm": 7413,
      "Ġost": 7414,
      "Ġdecyzji": 7415,
      "muni": 7416,
      "ÏĢÎ¹": 7417,
      "Î»Î¿Î³Î·": 7418,
      "Ġtaytantoon": 7419,
      "Ġ640": 7420,
      "skem": 7421,
      "Ġsector": 7422,
      "Ġdomstolen": 7423,
      "Ġmotivi": 7424,
      "spra": 7425,
      "Ġsprendimas": 7426,
      "Î´Ïħ": 7427,
      "Ġordin": 7428,
      "Ġbonitetna": 7429,
      "Ġxe": 7430,
      "Ġverwaltungs": 7431,
      "Ġmand": 7432,
      "uten": 7433,
      "Ġkop": 7434,
      "set": 7435,
      "72": 7436,
      "ÏĦÎ±Î½": 7437,
      "Ġieskov": 7438,
      "Î¾ÎµÎ¹ÏĤ": 7439,
      "embrie": 7440,
      "Ġriad": 7441,
      "kach": 7442,
      "Ġharmonis": 7443,
      "chapter": 7444,
      "Ġjei": 7445,
      "Î²Î¿": 7446,
      "vÃ¦r": 7447,
      "Ġteik": 7448,
      "ĠÎ´ÏģÎ±": 7449,
      "Ġstre": 7450,
      "Ġtote": 7451,
      "Ġkwal": 7452,
      "Ġ123": 7453,
      "Ġsubchapter": 7454,
      "ath": 7455,
      "ply": 7456,
      "tada": 7457,
      "inys": 7458,
      "Ġsaad": 7459,
      "Ġski": 7460,
      "Ġutan": 7461,
      "Ġregi": 7462,
      "Ġwhen": 7463,
      "Ġspecifika": 7464,
      "Ġpovol": 7465,
      "Ġbol": 7466,
      "heten": 7467,
      "Ġtrava": 7468,
      "rza": 7469,
      "Ġ1271": 7470,
      "Ġproduits": 7471,
      "Ġpohj": 7472,
      "Ġambito": 7473,
      "istan": 7474,
      "amos": 7475,
      "ĠÐ¶Ð°Ð»Ð±Ð°": 7476,
      "mazzjoni": 7477,
      "Ġ211": 7478,
      "Ġvera": 7479,
      "ĠÐ¸Ð½ÑĦ": 7480,
      "ĠÐºÑĢÐµÐ´Ð¸": 7481,
      "itol": 7482,
      "Ġvyrobky": 7483,
      "Ġszcz": 7484,
      "cych": 7485,
      "Ġvred": 7486,
      "Ġvoimal": 7487,
      "Ġodpowied": 7488,
      "tica": 7489,
      "cies": 7490,
      "ĠczÅĤonkowsk": 7491,
      "Ġvabari": 7492,
      "Î»Î»Î·": 7493,
      "klara": 7494,
      "Ġetabl": 7495,
      "Ġdzi": 7496,
      "Ð¿ÑĬÐ»Ð½ÐµÐ½Ð¸Ðµ": 7497,
      "Ġdala": 7498,
      "Ġkomisie": 7499,
      "ĠÐºÐ¾Ñı": 7500,
      "ÏĩÏģÎµ": 7501,
      "Ã¸j": 7502,
      "Ġ1042": 7503,
      "Ġclenske": 7504,
      "Ġinterne": 7505,
      "alth": 7506,
      "ondere": 7507,
      "Ġamount": 7508,
      "Ġairge": 7509,
      "still": 7510,
      "ÑĨÐ¸Ð°Ð»Ð½Ð¾": 7511,
      "opp": 7512,
      "Ġapplikazzjoni": 7513,
      "olle": 7514,
      "iltig": 7515,
      "Ġpaatoksen": 7516,
      "did": 7517,
      "Ð¿ÑĢÐ°Ð²": 7518,
      "rac": 7519,
      "Ġstud": 7520,
      "Ġvend": 7521,
      "Ġlietas": 7522,
      "aga": 7523,
      "kkum": 7524,
      "Ġtutkim": 7525,
      "ĠÏĢÎ±ÏģÎ¿Ïħ": 7526,
      "Ġinden": 7527,
      "Ġpozy": 7528,
      "ĠÏĥÏħÎ½Î¿": 7529,
      "Ġneu": 7530,
      "yste": 7531,
      "Ġ239": 7532,
      "Î¼ÎµÎ½ÎµÏĤ": 7533,
      "Ġbestammelser": 7534,
      "tuksen": 7535,
      "Ð¿Ð¾Ð»Ð·": 7536,
      "Ġsli": 7537,
      "hver": 7538,
      "erede": 7539,
      "atlan": 7540,
      "ĠÎ¿ÏĢÎ¿Î¹Î¿": 7541,
      "ĠÐºÐ¾ÑıÑĤÐ¾": 7542,
      "Ġktora": 7543,
      "Ġteataja": 7544,
      "Ġatbilde": 7545,
      "Ġks": 7546,
      "ghaidh": 7547,
      "Ġattorney": 7548,
      "lagen": 7549,
      "Ġdiffer": 7550,
      "Ġmarknad": 7551,
      "Ġhaghaidh": 7552,
      "Ġoffentlig": 7553,
      "Ġjp": 7554,
      "indo": 7555,
      "Ġdostawy": 7556,
      "Ġ610": 7557,
      "Ġdrit": 7558,
      "Ġustanoveni": 7559,
      "tex": 7560,
      "icia": 7561,
      "Ġzdrav": 7562,
      "Ġpiena": 7563,
      "Ġalimenta": 7564,
      "ĠÎµÎ¾Î±Î¹": 7565,
      "Ġbur": 7566,
      "Ġprzeciw": 7567,
      "vier": 7568,
      "Ġrazen": 7569,
      "ĠÎ¿Î¹ÎºÎ¿": 7570,
      "Î¼Î±Î½": 7571,
      "Ġ115": 7572,
      "imis": 7573,
      "Ġdespesas": 7574,
      "Ġactivi": 7575,
      "Ġviii": 7576,
      "ĠvedrÃ¸rende": 7577,
      "poste": 7578,
      "Ġhatal": 7579,
      "minal": 7580,
      "Ġmic": 7581,
      "Ġ1977": 7582,
      "ĠÐ´ÑĢÑĥÐ³Ð¸": 7583,
      "Ġjir": 7584,
      "Ġfinanzjar": 7585,
      "ĠÎµÏħ": 7586,
      "Ġanaly": 7587,
      "fikat": 7588,
      "Ġlog": 7589,
      "ĠÑģÑĢÐµÐ´": 7590,
      "Ġvedjegy": 7591,
      "Ġdol": 7592,
      "muka": 7593,
      "Ġlitra": 7594,
      "Ġpresent": 7595,
      "Ġeuropskog": 7596,
      "Ġ480": 7597,
      "owania": 7598,
      "Ġspolo": 7599,
      "ĠÏħÏĢÎ±": 7600,
      "ĠÏĢÎ»Î±Î¹ÏĥÎ¹Î¿": 7601,
      "Ġvalor": 7602,
      "Ġgenomfor": 7603,
      "Ġastfel": 7604,
      "java": 7605,
      "Ġsuq": 7606,
      "Ġ119": 7607,
      "Ġmesures": 7608,
      "Ġtolli": 7609,
      "Ġ141": 7610,
      "Ġbeschik": 7611,
      "Ġopis": 7612,
      "Ġpartir": 7613,
      "Ġdides": 7614,
      "Ġeuropeo": 7615,
      "Ġdokument": 7616,
      "Ġizv": 7617,
      "ÑģÑĤÑĢÐ°": 7618,
      "Ġbeny": 7619,
      "jski": 7620,
      "Ġviet": 7621,
      "Ġvida": 7622,
      "Ġreport": 7623,
      "Ġannetun": 7624,
      "Ġtvar": 7625,
      "isce": 7626,
      "Ġpaze": 7627,
      "Ġpartile": 7628,
      "Ġaceasta": 7629,
      "Ġzy": 7630,
      "ĠÏħÏĢÎ¿ÏĩÏģÎµ": 7631,
      "Ġsaksa": 7632,
      "Ġsuivan": 7633,
      "Î»Î¿ÏĤ": 7634,
      "ckych": 7635,
      "Ġrezulta": 7636,
      "Ġapsa": 7637,
      "ÑĢÐµÐ½": 7638,
      "ĠÎµÎ¾Îµ": 7639,
      "Ġneza": 7640,
      "Ġspol": 7641,
      "taria": 7642,
      "Ġdziennik": 7643,
      "oru": 7644,
      "Ġisland": 7645,
      "Ġ138": 7646,
      "Ġperio": 7647,
      "Ġminis": 7648,
      "jarjestel": 7649,
      "tilor": 7650,
      "150": 7651,
      "ceg": 7652,
      "anstaltninger": 7653,
      "Ġforme": 7654,
      "Ġrok": 7655,
      "Ġszem": 7656,
      "ram": 7657,
      "Ġanche": 7658,
      "hez": 7659,
      "Ġunionen": 7660,
      "Ġsir": 7661,
      "niejszym": 7662,
      "Ġinteg": 7663,
      "Ġproceduri": 7664,
      "Ġautorite": 7665,
      "Ġlegal": 7666,
      "Ġcommunaute": 7667,
      "Ġtuleb": 7668,
      "position": 7669,
      "ugi": 7670,
      "Ġrozliczenia": 7671,
      "itar": 7672,
      "niej": 7673,
      "Ġquanti": 7674,
      "cjal": 7675,
      "Ġprosin": 7676,
      "Ġkohaselt": 7677,
      "Ġfle": 7678,
      "ĠÎ¿ÏģÎ³": 7679,
      "Ġ190": 7680,
      "Ð²ÐµÐ½": 7681,
      "Ġurzedowy": 7682,
      "yer": 7683,
      "Ġjav": 7684,
      "Ġcommunauta": 7685,
      "Ġrepubblika": 7686,
      "Ġconclu": 7687,
      "Ġreci": 7688,
      "Ġbaza": 7689,
      "Ġpuses": 7690,
      "adais": 7691,
      "Ġkina": 7692,
      "Ġkreditna": 7693,
      "Ġtalba": 7694,
      "Ġwaren": 7695,
      "inos": 7696,
      "Ġiesnied": 7697,
      "ĠÐºÐ°ÐºÑĤÐ¾": 7698,
      "Ġfedera": 7699,
      "fug": 7700,
      "Ġmahdoll": 7701,
      "Ġindividu": 7702,
      "Ġlahko": 7703,
      "ÏĩÏī": 7704,
      "Ġgurnal": 7705,
      "Ġlou": 7706,
      "mad": 7707,
      "Ġyrity": 7708,
      "entra": 7709,
      "Ġkanssa": 7710,
      "Ġteto": 7711,
      "Ġnodros": 7712,
      "Ġligi": 7713,
      "bie": 7714,
      "Ġforsk": 7715,
      "Ġanmod": 7716,
      "nieki": 7717,
      "Ġmsc": 7718,
      "Ġcadrul": 7719,
      "Ġ410": 7720,
      "stig": 7721,
      "Ġonly": 7722,
      "orszag": 7723,
      "Ġuradny": 7724,
      "Ġtuzitelj": 7725,
      "ÎµÎ»": 7726,
      "ĠtaÄ§t": 7727,
      "sÃ¦t": 7728,
      "bila": 7729,
      "Ġnag": 7730,
      "fte": 7731,
      "mok": 7732,
      "ned": 7733,
      "Ġatti": 7734,
      "Ġstrate": 7735,
      "tou": 7736,
      "Ġpowi": 7737,
      "Ġktery": 7738,
      "180": 7739,
      "menetluse": 7740,
      "Ġmeri": 7741,
      "Ġterminem": 7742,
      "Ġvaloda": 7743,
      "Ġkalba": 7744,
      "Ġgemeenscha": 7745,
      "Ġ310": 7746,
      "Ġsecon": 7747,
      "lais": 7748,
      "ĠÎµÎ¿Îº": 7749,
      "dz": 7750,
      "Ġprincipi": 7751,
      "Ġtiesvedi": 7752,
      "ldig": 7753,
      "Ġissu": 7754,
      "Ġprescri": 7755,
      "Ġangi": 7756,
      "Ġisipareigo": 7757,
      "ctu": 7758,
      "Ġ121": 7759,
      "iner": 7760,
      "Ġfinansu": 7761,
      "bran": 7762,
      "Ġpopis": 7763,
      "Ġdaca": 7764,
      "Ġensimmaisen": 7765,
      "Ġrequire": 7766,
      "Ð¿Ð¸ÑĤÐ°": 7767,
      "ãĤ": 7768,
      "ammen": 7769,
      "Ġkesk": 7770,
      "Ġ090": 7771,
      "vasta": 7772,
      "Î±ÏĤ": 7773,
      "Ġstatus": 7774,
      "ÏĢÎ¹Ïĥ": 7775,
      "vens": 7776,
      "Ġdoes": 7777,
      "Ġdenom": 7778,
      "Ġcheart": 7779,
      "Ġzg": 7780,
      "Ġtocka": 7781,
      "Ġket": 7782,
      "Ġsicher": 7783,
      "Ġkoneal": 7784,
      "Ġodniesieniu": 7785,
      "Ġmethod": 7786,
      "Î»Î±Ïĥ": 7787,
      "Ġlever": 7788,
      "Ġvaid": 7789,
      "Ġleag": 7790,
      "Ġkehtesta": 7791,
      "Ġkommer": 7792,
      "Ġdevelop": 7793,
      "Ġhans": 7794,
      "tage": 7795,
      "otus": 7796,
      "Ã¸b": 7797,
      "ea": 7798,
      "aring": 7799,
      "Ġukoll": 7800,
      "Ġdefendant": 7801,
      "Ġresiden": 7802,
      "Ġokviru": 7803,
      "Ġtrial": 7804,
      "Ġizved": 7805,
      "Ġkoncent": 7806,
      "mh": 7807,
      "vom": 7808,
      "Ġpozniejszym": 7809,
      "waar": 7810,
      "cea": 7811,
      "210": 7812,
      "nosc": 7813,
      "Ġsatestatud": 7814,
      "Ġrus": 7815,
      "Ġsak": 7816,
      "Ġperusta": 7817,
      "Ġmehr": 7818,
      "Ġlitera": 7819,
      "ĠÐ¸Ð·Ð¿Ð¾Ð»Ð·": 7820,
      "Ġpunc": 7821,
      "Ġsuda": 7822,
      "Ġdepos": 7823,
      "Î³Î·ÏĤ": 7824,
      "cul": 7825,
      "Ġpapild": 7826,
      "Î¹ÎµÏĤ": 7827,
      "Ġrazlog": 7828,
      "ÏĢÎ¿Î¹Î·ÏĥÎ·": 7829,
      "ĠÑģÑĬÐ³Ð»Ð°ÑģÐ½Ð¾": 7830,
      "Ġjej": 7831,
      "Ġelso": 7832,
      "ĠÎµÏĩÎ¿ÏħÎ½": 7833,
      "ĠÎºÎµ": 7834,
      "Ġvastavalt": 7835,
      "Ġdirect": 7836,
      "Ġmenetlus": 7837,
      "Ġkaubamar": 7838,
      "Ġuw": 7839,
      "ĠÎµÎºÏĢÏģÎ¿ÏĥÏī": 7840,
      "Ġconcernant": 7841,
      "Ġcommit": 7842,
      "Ġeuropska": 7843,
      "ÑĨÐ¸Ð¾Ð½": 7844,
      "Ġfigura": 7845,
      "Ġcre": 7846,
      "Ġuredni": 7847,
      "Ġgcomhairle": 7848,
      "Ġistat": 7849,
      "Ð¼ÐµÑĢ": 7850,
      "zol": 7851,
      "ziale": 7852,
      "Ġmh": 7853,
      "Ġispej": 7854,
      "Ġstavak": 7855,
      "Ġparticipa": 7856,
      "Ġtoh": 7857,
      "Ġinterno": 7858,
      "Ġ135": 7859,
      "Ġgaller": 7860,
      "Ġatc": 7861,
      "anih": 7862,
      "Ġvod": 7863,
      "tupa": 7864,
      "pel": 7865,
      "Ġforni": 7866,
      "Ġpode": 7867,
      "ĠÏĢÏģÎ¿ÏĥÏĨÎµÏħÎ³Î¿Ïħ": 7868,
      "Ġlokal": 7869,
      "Ġinstitution": 7870,
      "Ġtuhista": 7871,
      "Ġedi": 7872,
      "hether": 7873,
      "Ġsha": 7874,
      "verfahr": 7875,
      "Ġorigine": 7876,
      "Ġapartado": 7877,
      "Ġstod": 7878,
      "tuks": 7879,
      "Ġbasis": 7880,
      "zeb": 7881,
      "Ġanness": 7882,
      "Ġcondu": 7883,
      "ense": 7884,
      "Ġ3185": 7885,
      "tario": 7886,
      "Ġprepara": 7887,
      "Ġformal": 7888,
      "Ġofficiella": 7889,
      "Ġwhether": 7890,
      "ytta": 7891,
      "Ġrepubliken": 7892,
      "Ġsei": 7893,
      "Ġkwo": 7894,
      "Ġasmen": 7895,
      "ctions": 7896,
      "ĠÐ´ÑĬÑĢÐ¶Ð°Ð²Ð°": 7897,
      "pris": 7898,
      "Ġtorteno": 7899,
      "Ġochranne": 7900,
      "Ġdette": 7901,
      "itat": 7902,
      "Ġ3703": 7903,
      "Ġvestnes": 7904,
      "Ġ171": 7905,
      "Ġprzedstawici": 7906,
      "Ġistitu": 7907,
      "Ġmonitor": 7908,
      "komite": 7909,
      "eket": 7910,
      "ĠÐ±Ð°": 7911,
      "Ġairgeadais": 7912,
      "Ġdean": 7913,
      "Ġaa": 7914,
      "noj": 7915,
      "Ð¿Ð»Ð°": 7916,
      "Ġaplicacao": 7917,
      "cso": 7918,
      "Ġkl": 7919,
      "Ġyear": 7920,
      "Ġdarba": 7921,
      "Ġstarp": 7922,
      "Ġatbilst": 7923,
      "Ġeducation": 7924,
      "ĠÎµÏĢÎ¹ÏĥÎ·": 7925,
      "cilo": 7926,
      "âĶĢ": 7927,
      "Ġsodisce": 7928,
      "Ġbudget": 7929,
      "ĠsagsÃ¸geren": 7930,
      "etti": 7931,
      "ĠÎ±Î³Î¿ÏģÎ±": 7932,
      "130": 7933,
      "Ġnasled": 7934,
      "Ġran": 7935,
      "Ġvirks": 7936,
      "Ġsaledes": 7937,
      "Ġbun": 7938,
      "tena": 7939,
      "Ġnodok": 7940,
      "Ġzwiaz": 7941,
      "Ġevropska": 7942,
      "pru": 7943,
      "Ġmegfelelo": 7944,
      "ĠÏĢÎ±ÏģÎ±ÏģÏĦÎ·": 7945,
      "Ġms": 7946,
      "Ġurma": 7947,
      "Ġbearta": 7948,
      "recht": 7949,
      "Ġkuning": 7950,
      "Ġvseobe": 7951,
      "onds": 7952,
      "ciji": 7953,
      "Ġodluke": 7954,
      "ĠÑĤÐ¾ÑĩÐºÐ°": 7955,
      "Ġpreced": 7956,
      "Ġvare": 7957,
      "Ġbod": 7958,
      "ements": 7959,
      "Ġstri": 7960,
      "Ġfail": 7961,
      "ĠÐºÐ°Ð¿Ð¸ÑĤÐ°": 7962,
      "Ġcomunidade": 7963,
      "tieb": 7964,
      "wendung": 7965,
      "Ġtova": 7966,
      "ĠÏĢÎ»Î·ÏģÎ¿": 7967,
      "ĠÎ±Î½Î±ÏĨÎµ": 7968,
      "cev": 7969,
      "Ġ722": 7970,
      "Ġukra": 7971,
      "htu": 7972,
      "Ġispejjez": 7973,
      "Ġatbal": 7974,
      "Ġath": 7975,
      "Ġpuud": 7976,
      "Ġsame": 7977,
      "tend": 7978,
      "Ġ126": 7979,
      "Ġstabil": 7980,
      "Ġslobod": 7981,
      "Ġ529900": 7982,
      "Ġieskove": 7983,
      "Ġukljucujuci": 7984,
      "Ġprzypadku": 7985,
      "ÐºÐ¸ÑĤÐµ": 7986,
      "Ġpomoci": 7987,
      "palvel": 7988,
      "Ġalte": 7989,
      "Ġ111": 7990,
      "Ġodstav": 7991,
      "Ġkry": 7992,
      "Ġprezentul": 7993,
      "Ġinici": 7994,
      "Ġpade": 7995,
      "Ġbesl": 7996,
      "Ġostatne": 7997,
      "roni": 7998,
      "Ġgege": 7999,
      "Ġkolm": 8000,
      "Ġinvestiga": 8001,
      "Ġehdo": 8002,
      "velse": 8003,
      "Ġrule": 8004,
      "non": 8005,
      "Ġglede": 8006,
      "Ġnimetatud": 8007,
      "Ġyr": 8008,
      "Ġsopimus": 8009,
      "Ġss": 8010,
      "Ġszerint": 8011,
      "ĠÎ´Î¹Îµ": 8012,
      "Ġsociete": 8013,
      "fur": 8014,
      "zzo": 8015,
      "lier": 8016,
      "Ġlimba": 8017,
      "dru": 8018,
      "Ġschen": 8019,
      "Ġps": 8020,
      "Ġmodific": 8021,
      "Ġfait": 8022,
      "Ġmaterialu": 8023,
      "ĠÎ½Î¿Î¼Î¿": 8024,
      "Ġnur": 8025,
      "ulle": 8026,
      "hail": 8027,
      "Ġzastupeni": 8028,
      "roje": 8029,
      "Ġobiec": 8030,
      "Ġintra": 8031,
      "Ġdesigna": 8032,
      "ĠÐµÐºÑģÐ¿Ð¾Ð·Ð¸": 8033,
      "Ġhealth": 8034,
      "Ġrozhodnutie": 8035,
      "Î¶ÎµÎ¹": 8036,
      "Ġatstovauja": 8037,
      "ĠÐ¼Ð¸": 8038,
      "tobre": 8039,
      "Ġmary": 8040,
      "Ġtaga": 8041,
      "Ġslova": 8042,
      "Ġtrz": 8043,
      "Ġtemperat": 8044,
      "yyn": 8045,
      "Ġszolgal": 8046,
      "ĠÏĥÏħÎ½Î±": 8047,
      "gh": 8048,
      "Ġwel": 8049,
      "Ġcompetente": 8050,
      "Ġblz": 8051,
      "nowi": 8052,
      "tti": 8053,
      "ĠfÃ¸rste": 8054,
      "Ġ134": 8055,
      "Ġsolicita": 8056,
      "Î¼ÎµÏģÎ¹": 8057,
      "Ġpeut": 8058,
      "Ġextra": 8059,
      "Ġfakti": 8060,
      "Ġfid": 8061,
      "ating": 8062,
      "Ġprimera": 8063,
      "Ġveterin": 8064,
      "ĠÐ°ÐºÑĤÐ¸": 8065,
      "Ġsusitarimo": 8066,
      "klada": 8067,
      "tine": 8068,
      "Ġbuch": 8069,
      "rade": 8070,
      "Ġsezione": 8071,
      "Ġalapjan": 8072,
      "ÏĦÎ¿ÏħÎ½": 8073,
      "Ġprasitaja": 8074,
      "lom": 8075,
      "Ġkonsta": 8076,
      "Ġbinnen": 8077,
      "nuti": 8078,
      "Ġazt": 8079,
      "Ġinternet": 8080,
      "Ġiespe": 8081,
      "Ġstrane": 8082,
      "Ġtratado": 8083,
      "ĠstÃ¸": 8084,
      "Ġdjel": 8085,
      "jest": 8086,
      "pul": 8087,
      "Ġpriprav": 8088,
      "Ġedusta": 8089,
      "vasti": 8090,
      "Ġml": 8091,
      "taget": 8092,
      "asagi": 8093,
      "Ġprimo": 8094,
      "ĠodreÄĳ": 8095,
      "Ġcoord": 8096,
      "Ġdoma": 8097,
      "Ġlov": 8098,
      "ÏĦÎ±ÏĥÎ·": 8099,
      "tevot": 8100,
      "Ġkel": 8101,
      "Ġ139": 8102,
      "Ġiss": 8103,
      "Ġodpov": 8104,
      "Ġgestion": 8105,
      "Ġzamest": 8106,
      "Ġilma": 8107,
      "Ġestabl": 8108,
      "Ġassociation": 8109,
      "Ġkomunika": 8110,
      "wan": 8111,
      "Ġsovelle": 8112,
      "Ġrikors": 8113,
      "tire": 8114,
      "Ġ131": 8115,
      "alio": 8116,
      "Ġelektro": 8117,
      "embri": 8118,
      "Ġvald": 8119,
      "Ġuht": 8120,
      "Î²Î±Ïĥ": 8121,
      "ĠÎµÏĨÎ±ÏģÎ¼Î¿Î³Î·": 8122,
      "Ġreino": 8123,
      "Ġradio": 8124,
      "Ġeuropeu": 8125,
      "Ġvahem": 8126,
      "Ġmone": 8127,
      "Ġizd": 8128,
      "cius": 8129,
      "Ġ124": 8130,
      "Ġ175": 8131,
      "Ġ1988": 8132,
      "Ġtheir": 8133,
      "ĠÐ³Ð»Ð°": 8134,
      "Ġniniejs": 8135,
      "Î½Î¿Ïħ": 8136,
      "ged": 8137,
      "Ġincluding": 8138,
      "Ġues": 8139,
      "eta": 8140,
      "Ġpesso": 8141,
      "Ġjam": 8142,
      "Ġpogod": 8143,
      "Ġpajji": 8144,
      "band": 8145,
      "Ġtold": 8146,
      "Ġdello": 8147,
      "Ð·Ð½Ð°": 8148,
      "rez": 8149,
      "Ġdiskri": 8150,
      "Ġsoll": 8151,
      "Ġvrijed": 8152,
      "Ġalso": 8153,
      "Ġoficialais": 8154,
      "Ġsn": 8155,
      "Ġchambre": 8156,
      "Ġ2711": 8157,
      "ĠÎ¿ÏĢÏīÏĤ": 8158,
      "Ġline": 8159,
      "Ġvestnesis": 8160,
      "Ġdniu": 8161,
      "Ġgebruik": 8162,
      "Ġ155": 8163,
      "ĠÑģÑĬÐ´Ðµ": 8164,
      "Ġnarod": 8165,
      "Ġoktobra": 8166,
      "Ġnera": 8167,
      "Ġzod": 8168,
      "Ġpreth": 8169,
      "pula": 8170,
      "Ġzakona": 8171,
      "Ġprzepis": 8172,
      "Ġrapport": 8173,
      "Ġimpli": 8174,
      "Ġdisse": 8175,
      "Ġatve": 8176,
      "cid": 8177,
      "Ġtoostus": 8178,
      "Ġspese": 8179,
      "Ġrow": 8180,
      "Ġzusammen": 8181,
      "Ġisten": 8182,
      "ĠÑĨÐµ": 8183,
      "Ġaizs": 8184,
      "Ġisiku": 8185,
      "Ġintezked": 8186,
      "Ġfhe": 8187,
      "Ġ116": 8188,
      "Ġalt": 8189,
      "Ġespan": 8190,
      "Ġexpor": 8191,
      "Ġaer": 8192,
      "Ġkvo": 8193,
      "Ġomkostninger": 8194,
      "Ġtito": 8195,
      "Ġtekem": 8196,
      "Ġcheltu": 8197,
      "ÎºÎ¿Î»Î¿Ïħ": 8198,
      "Ġpriimti": 8199,
      "jara": 8200,
      "Ġvic": 8201,
      "Ġpren": 8202,
      "Ġ151": 8203,
      "Ġacco": 8204,
      "Ġzast": 8205,
      "ĠÑģÐ»ÐµÐ´Ð²Ð°": 8206,
      "Ġkansall": 8207,
      "gram": 8208,
      "ĠÏĥÎµÏīÏĤ": 8209,
      "Ġkonnen": 8210,
      "ĠÑģÑĬÑİÐ·Ð°": 8211,
      "Ġbehor": 8212,
      "ĠÏĩÏģÎ·ÏĥÎ¹Î¼Î¿": 8213,
      "Ġupu": 8214,
      "Ġcorporation": 8215,
      "Ġsajd": 8216,
      "Ġstrany": 8217,
      "Ġlehti": 8218,
      "Ġinformaci": 8219,
      "Ġpaatos": 8220,
      "ĠÏī": 8221,
      "Ġezen": 8222,
      "uris": 8223,
      "Ġinformazzjoni": 8224,
      "Ġå": 8225,
      "Ġperme": 8226,
      "Ġprovin": 8227,
      "Ġsluca": 8228,
      "wod": 8229,
      "Ġwp": 8230,
      "Ġvirallinen": 8231,
      "Ð²ÐµÐ½Ð¾": 8232,
      "Ġtus": 8233,
      "matta": 8234,
      "Ġmarkt": 8235,
      "tifika": 8236,
      "Ġsisal": 8237,
      "Ġreclamanta": 8238,
      "Ġkand": 8239,
      "Ġ630": 8240,
      "Ġfaststall": 8241,
      "kohd": 8242,
      "Ġkontrolli": 8243,
      "ÎºÏģÎ±ÏĦ": 8244,
      "Ġcomunica": 8245,
      "ĠÎ±ÏĥÏĨÎ±": 8246,
      "Ġmeas": 8247,
      "Ġtermos": 8248,
      "Ġpamato": 8249,
      "Ġifrs": 8250,
      "Ġadministrativ": 8251,
      "Ð¼ÐµÐ½ÑĤÐ¸": 8252,
      "Î³ÏģÎ±Î¼": 8253,
      "riga": 8254,
      "Ġproce": 8255,
      "Ġdritt": 8256,
      "Ġtidning": 8257,
      "instan": 8258,
      "Ġjist": 8259,
      "Ġcompensa": 8260,
      "Ġbid": 8261,
      "Î²Î±ÏĥÎ·": 8262,
      "ev": 8263,
      "Ġvra": 8264,
      "Ġpodro": 8265,
      "Ġzwischen": 8266,
      "Ġbetal": 8267,
      "Ġstranki": 8268,
      "lÃ¦g": 8269,
      "inger": 8270,
      "ĠÐ¾ÑĤÐ²ÐµÑĤ": 8271,
      "Ġqualquer": 8272,
      "zeich": 8273,
      "bur": 8274,
      "teta": 8275,
      "Ġkuni": 8276,
      "ĠgÄ§at": 8277,
      "rede": 8278,
      "Ġparstav": 8279,
      "upp": 8280,
      "Ġreali": 8281,
      "maar": 8282,
      "Ġ560": 8283,
      "Ġprodus": 8284,
      "reda": 8285,
      "Ġzavr": 8286,
      "Ġrol": 8287,
      "Ġprzeciwko": 8288,
      "Ġlast": 8289,
      "ctie": 8290,
      "Ġtogra": 8291,
      "Ġemploye": 8292,
      "Ġexpres": 8293,
      "Ġleur": 8294,
      "temmelse": 8295,
      "Ġmogu": 8296,
      "Ġverein": 8297,
      "Ġerforder": 8298,
      "Ġjednot": 8299,
      "Ġconformement": 8300,
      "Ġsele": 8301,
      "Ġ700": 8302,
      "Ġeffec": 8303,
      "Ġnalozi": 8304,
      "ĠÎµÏħÏģÏīÏĢÎ±Î¹ÎºÏīÎ½": 8305,
      "gna": 8306,
      "Ġalum": 8307,
      "Ġperman": 8308,
      "owiaz": 8309,
      "Ġprethod": 8310,
      "arbi": 8311,
      "Ġarbit": 8312,
      "Ġhabe": 8313,
      "Ġholding": 8314,
      "Ġzob": 8315,
      "tent": 8316,
      "ĠmaÃŁnahmen": 8317,
      "vard": 8318,
      "Ġrs": 8319,
      "Ġbrussel": 8320,
      "fyl": 8321,
      "Î»Î¹Î¿": 8322,
      "ikuma": 8323,
      "ĠÎ±Î»Î¹": 8324,
      "gues": 8325,
      "Ġperiode": 8326,
      "Ġainsi": 8327,
      "Ð¿Ð¸Ñģ": 8328,
      "ÑģÑĤÐ¸ÑĤÑĥ": 8329,
      "Ġurteil": 8330,
      "sent": 8331,
      "ymi": 8332,
      "Ġklassi": 8333,
      "Ġingatlan": 8334,
      "Ġlingwa": 8335,
      "Ġ1234": 8336,
      "Ġconcerne": 8337,
      "Ġduzych": 8338,
      "fÃ¸": 8339,
      "sopimuksen": 8340,
      "Ġfedezett": 8341,
      "Ġimpug": 8342,
      "Ġforb": 8343,
      "Ġvece": 8344,
      "ĠÎ·Î¼Îµ": 8345,
      "Ġvora": 8346,
      "Ġpredsta": 8347,
      "Ġapresenta": 8348,
      "Ġkonkret": 8349,
      "fier": 8350,
      "vot": 8351,
      "Ġmedida": 8352,
      "Ġtarto": 8353,
      "tieblad": 8354,
      "klas": 8355,
      "bilite": 8356,
      "Ġjornal": 8357,
      "Ġagent": 8358,
      "Ġkummer": 8359,
      "Ġvertegen": 8360,
      "Ġniveau": 8361,
      "tej": 8362,
      "Ġinto": 8363,
      "Ġvsech": 8364,
      "klo": 8365,
      "Ġpronun": 8366,
      "Ġautre": 8367,
      "ĠÎ±ÏĢÎ±Î¹": 8368,
      "Ġdawk": 8369,
      "Ġindustria": 8370,
      "jeti": 8371,
      "ĠgÄ§ad": 8372,
      "ĠÐ¿ÑĢÐµÐ´Ð¾": 8373,
      "Ġ122": 8374,
      "Ġ142": 8375,
      "ĠÏĢÎ±ÏģÎ¿": 8376,
      "Ġpovinnosti": 8377,
      "Ġpermezz": 8378,
      "Ġriig": 8379,
      "enen": 8380,
      "Ġava": 8381,
      "joj": 8382,
      "Ġ347": 8383,
      "amo": 8384,
      "bben": 8385,
      "aja": 8386,
      "diem": 8387,
      "dis": 8388,
      "Ġcqs": 8389,
      "Ġsolu": 8390,
      "Î»Î¹ÎºÎ·": 8391,
      "Ġprom": 8392,
      "Ġlei": 8393,
      "Î¸Î¿ÏħÎ½": 8394,
      "Ġneat": 8395,
      "Ġgenerale": 8396,
      "teck": 8397,
      "iew": 8398,
      "Ġsplos": 8399,
      "Ġinstrumen": 8400,
      "Ġ2205": 8401,
      "ciais": 8402,
      "uno": 8403,
      "Ġavdel": 8404,
      "amen": 8405,
      "leist": 8406,
      "log": 8407,
      "Ġaccess": 8408,
      "telme": 8409,
      "ĠÎºÎ¿Î¹Î½Î¿ÏĦÎ·ÏĦÏīÎ½": 8410,
      "gget": 8411,
      "leges": 8412,
      "ĠdziaÅĤ": 8413,
      "ÑĤÐµÐ»Ð½Ð¸": 8414,
      "Ġwi": 8415,
      "Ġ267": 8416,
      "Ġ263": 8417,
      "Ġwyro": 8418,
      "Ġunivers": 8419,
      "zdasagi": 8420,
      "mio": 8421,
      "190": 8422,
      "Ġming": 8423,
      "Ġinstitucie": 8424,
      "Ġ165": 8425,
      "Ġmarche": 8426,
      "Ġprijed": 8427,
      "telle": 8428,
      "Ġelementi": 8429,
      "Ġleidinys": 8430,
      "tile": 8431,
      "Ġanderen": 8432,
      "gend": 8433,
      "nisse": 8434,
      "ĠÐ¸Ð½ÑĦÐ¾ÑĢÐ¼Ð°": 8435,
      "Ġeventu": 8436,
      "Ġtjanster": 8437,
      "Ġrag": 8438,
      "goto": 8439,
      "ĠÎµÏĢÎ±": 8440,
      "Ġvaldy": 8441,
      "Ġtransak": 8442,
      "Ġcit": 8443,
      "Ġmcg": 8444,
      "ĠÑģÑĬÑģÑĤÐ°Ð²": 8445,
      "pens": 8446,
      "Ġlocal": 8447,
      "Ġtemeljni": 8448,
      "otsuse": 8449,
      "Ġcorres": 8450,
      "itolu": 8451,
      "Ġossz": 8452,
      "ĠÑģÑĬÐ¾ÑĤÐ²ÐµÑĤÑģÑĤÐ²Ð¸Ðµ": 8453,
      "Ġmercato": 8454,
      "Ġbekezdesenek": 8455,
      "ÏĦÎµÎ»ÎµÏĥ": 8456,
      "Ġmechan": 8457,
      "Ġindem": 8458,
      "Ġverzoeks": 8459,
      "lim": 8460,
      "ĠmagÄ§": 8461,
      "Ġapelia": 8462,
      "erii": 8463,
      "Ġleith": 8464,
      "iva": 8465,
      "onia": 8466,
      "Ġmuude": 8467,
      "Ġhaar": 8468,
      "Ġliv": 8469,
      "Ġkohtuasi": 8470,
      "Ġpays": 8471,
      "Ġappell": 8472,
      "Ġchemic": 8473,
      "Ġdeux": 8474,
      "Ġugovor": 8475,
      "Ġindividual": 8476,
      "Ġsuor": 8477,
      "embru": 8478,
      "Ġ182": 8479,
      "ĠgÄ§as": 8480,
      "Ġolyan": 8481,
      "erior": 8482,
      "bus": 8483,
      "cki": 8484,
      "tijiet": 8485,
      "Ġinformations": 8486,
      "Ġmcc": 8487,
      "Ġgemeinschaft": 8488,
      "Ġryn": 8489,
      "ĠÎµÎ»Îµ": 8490,
      "Ġplo": 8491,
      "Ġenna": 8492,
      "Ġoficialusis": 8493,
      "Ġcommunity": 8494,
      "Ġsla": 8495,
      "Ġenergie": 8496,
      "Ġdit": 8497,
      "tasa": 8498,
      "Ġnoli": 8499,
      "ĠÏĥÏħÎ¼ÏĨÏīÎ½Î¹Î±ÏĤ": 8500,
      "tiilor": 8501,
      "Ġtoate": 8502,
      "ĠÐ·Ð°Ð´ÑĬÐ»": 8503,
      "Ġipas": 8504,
      "Ġnasta": 8505,
      "Ġarrest": 8506,
      "Ġavs": 8507,
      "Ġgesch": 8508,
      "Ġdieses": 8509,
      "Ġcinnosti": 8510,
      "Ġtipo": 8511,
      "Ġjogala": 8512,
      "Ġcle": 8513,
      "Ġjord": 8514,
      "alne": 8515,
      "Î³ÏģÎ±ÏĨ": 8516,
      "tarea": 8517,
      "Ġmodos": 8518,
      "ĠÎµÏģÎ³Î±Ïĥ": 8519,
      "Ġ261": 8520,
      "Ġine": 8521,
      "elu": 8522,
      "Ġnjih": 8523,
      "Ġtexas": 8524,
      "tara": 8525,
      "Ġbeschluss": 8526,
      "Ġcomme": 8527,
      "stre": 8528,
      "Ġjih": 8529,
      "Ġprivi": 8530,
      "Ġ270": 8531,
      "Ġforfar": 8532,
      "Ġpozicija": 8533,
      "Ġjustica": 8534,
      "Ġrendelkezes": 8535,
      "Ġschval": 8536,
      "Ġzaj": 8537,
      "Ġnovembra": 8538,
      "Ġoverenss": 8539,
      "Ġtuomioistuin": 8540,
      "Ġpodlagi": 8541,
      "antis": 8542,
      "Ġprog": 8543,
      "pool": 8544,
      "cionais": 8545,
      "ljanje": 8546,
      "Ġdurante": 8547,
      "Ġtista": 8548,
      "Ġforhand": 8549,
      "meid": 8550,
      "Ġatitinka": 8551,
      "Ġinvest": 8552,
      "Ġforbin": 8553,
      "Ġdarbo": 8554,
      "cra": 8555,
      "Ġach": 8556,
      "Ġposition": 8557,
      "Ġvozid": 8558,
      "niki": 8559,
      "Ġpodmin": 8560,
      "Ġsco": 8561,
      "Ġotta": 8562,
      "Ġedel": 8563,
      "Ġmaryland": 8564,
      "ÏģÎµÎ¹ÏĦÎ±Î¹": 8565,
      "Ġkin": 8566,
      "ĠÐ¿ÑĢÐ°Ð²Ð¾": 8567,
      "ĠÐ¿ÑĢÐ°Ð²Ð¸": 8568,
      "Ġsmis": 8569,
      "anz": 8570,
      "Ġobraz": 8571,
      "Ġ209": 8572,
      "kehr": 8573,
      "âĶĢâĶĢ": 8574,
      "Ġzarad": 8575,
      "Ġfoi": 8576,
      "ĠÑĤÑĢÐµ": 8577,
      "Ġkoska": 8578,
      "Ġmediante": 8579,
      "jav": 8580,
      "Ġix": 8581,
      "Ġvaik": 8582,
      "Ġpristo": 8583,
      "Ġplas": 8584,
      "Ġosoba": 8585,
      "Ġaplic": 8586,
      "Ġgri": 8587,
      "Ġdestin": 8588,
      "cene": 8589,
      "ĠâĪĨ": 8590,
      "flu": 8591,
      "nji": 8592,
      "Ġszabaly": 8593,
      "jama": 8594,
      "cam": 8595,
      "Ġjargmis": 8596,
      "bad": 8597,
      "Ġjun": 8598,
      "Ġeri": 8599,
      "Ġmang": 8600,
      "Ġdisc": 8601,
      "ander": 8602,
      "konna": 8603,
      "hozatal": 8604,
      "Ġcomunitario": 8605,
      "Ġsasta": 8606,
      "cetne": 8607,
      "Ġhens": 8608,
      "ĠÏĥÏĦÎ¿Î¹ÏĩÎµÎ¹": 8609,
      "tige": 8610,
      "vesse": 8611,
      "Ġzin": 8612,
      "Ġthey": 8613,
      "Ġamer": 8614,
      "Ġseda": 8615,
      "Ġniefinan": 8616,
      "Ġtaisy": 8617,
      "Ġossze": 8618,
      "Ġpunere": 8619,
      "Ġevropskeho": 8620,
      "tani": 8621,
      "ĠÏĢÎµÏģÎ¹ÏĢÏĦÏīÏĥÎ·": 8622,
      "Ġprova": 8623,
      "Ġ178": 8624,
      "ĠÐ¸Ð½ÑģÑĤÐ¸ÑĤÑĥ": 8625,
      "Ġzakladny": 8626,
      "Ġmunicipal": 8627,
      "czne": 8628,
      "eller": 8629,
      "Ġconsum": 8630,
      "Ġrakend": 8631,
      "Ġlaiko": 8632,
      "bart": 8633,
      "Ġprakti": 8634,
      "Ġefta": 8635,
      "Ġverfahren": 8636,
      "Ġpantu": 8637,
      "Ġorgany": 8638,
      "kulud": 8639,
      "dam": 8640,
      "Ġpirma": 8641,
      "Ġpuol": 8642,
      "nar": 8643,
      "Ġdane": 8644,
      "ĠÐ²ÑģÐ¸": 8645,
      "Ġzeit": 8646,
      "Ġeffe": 8647,
      "jk": 8648,
      "ĠÐ½Ð°ÑĢÑĥ": 8649,
      "ÑĨÐ¸Ð¾Ð½Ð°Ð»": 8650,
      "Ġimpos": 8651,
      "Ġlot": 8652,
      "Ġapre": 8653,
      "iros": 8654,
      "Ġvez": 8655,
      "ĠÐ¼ÐµÐ¶": 8656,
      "tetes": 8657,
      "ĠÏĢÎ±ÏģÎ¿Î½": 8658,
      "graitear": 8659,
      "ĠÑĢÐ°Ð·Ð¿Ð¾": 8660,
      "tys": 8661,
      "Ġunios": 8662,
      "Ġnacin": 8663,
      "ĠpozostaÅĤe": 8664,
      "ĠgennemfÃ¸relses": 8665,
      "Ġbesliss": 8666,
      "Ġtoet": 8667,
      "Ġsaja": 8668,
      "Ġsaid": 8669,
      "Ġspln": 8670,
      "Ġposlov": 8671,
      "Ġpic": 8672,
      "asti": 8673,
      "Ġuskla": 8674,
      "oled": 8675,
      "Ġbos": 8676,
      "Ġwat": 8677,
      "Ġertelme": 8678,
      "Ġcapita": 8679,
      "Ġ1668": 8680,
      "Ġsimi": 8681,
      "ates": 8682,
      "Ġkoko": 8683,
      "Ġusaid": 8684,
      "Ġjednaci": 8685,
      "Ġsito": 8686,
      "jeto": 8687,
      "enne": 8688,
      "Ġbiti": 8689,
      "Ġocen": 8690,
      "Ð±Ð²Ð°": 8691,
      "Ġenergia": 8692,
      "ÑĢÐ»Ð°": 8693,
      "Ġcru": 8694,
      "Ġkkon": 8695,
      "Ġhuv": 8696,
      "Ġhigh": 8697,
      "ĠÐ¾ÑĤÐ¼": 8698,
      "Ġversus": 8699,
      "imise": 8700,
      "Ġclenskych": 8701,
      "Î¿ÏĤ": 8702,
      "inama": 8703,
      "ĠÑĤÑĢÑı": 8704,
      "ĠÑĤÑĢÑıÐ±Ð²Ð°": 8705,
      "Ġcelu": 8706,
      "Ġactiva": 8707,
      "Ġappar": 8708,
      "Ġprincipio": 8709,
      "Ġballstait": 8710,
      "zil": 8711,
      "Ġanges": 8712,
      "jien": 8713,
      "Ġnyelve": 8714,
      "Ġupon": 8715,
      "ĠÎµÏĨÎ·": 8716,
      "esu": 8717,
      "Ġnadzor": 8718,
      "Ġkys": 8719,
      "Ġoikeudell": 8720,
      "Ġrattegangs": 8721,
      "laim": 8722,
      "wahr": 8723,
      "Ġtaj": 8724,
      "Ġuztik": 8725,
      "Ġbheith": 8726,
      "Ð²Ð½Ð¾": 8727,
      "govora": 8728,
      "ĠÐ²ÑģÐ¸ÑĩÐºÐ¸": 8729,
      "bare": 8730,
      "Ġsprendimo": 8731,
      "rd": 8732,
      "Ġfly": 8733,
      "ÏĦÎµÏģ": 8734,
      "ogh": 8735,
      "Ġmetal": 8736,
      "Ġkoskevan": 8737,
      "ÏĥÎ±ÏĤ": 8738,
      "Ġcma": 8739,
      "Ġfelek": 8740,
      "Ġxii": 8741,
      "Ġvigo": 8742,
      "many": 8743,
      "bilta": 8744,
      "Ġniefinansowe": 8745,
      "Ġvahel": 8746,
      "Ġsmlo": 8747,
      "visning": 8748,
      "zod": 8749,
      "Ġegyes": 8750,
      "iskas": 8751,
      "Ġgeral": 8752,
      "Ġvarem": 8753,
      "Ġoverensstemmelse": 8754,
      "Ġforslag": 8755,
      "Ġatla": 8756,
      "ĠgÄ§a": 8757,
      "Ġvcetne": 8758,
      "Ġverti": 8759,
      "Ġzvezi": 8760,
      "umar": 8761,
      "Ġtariff": 8762,
      "Ġsci": 8763,
      "Ġheorpa": 8764,
      "cular": 8765,
      "Ġbilaga": 8766,
      "Ġtiesvedibas": 8767,
      "Ã¦ng": 8768,
      "losti": 8769,
      "ovan": 8770,
      "Ġcij": 8771,
      "Ġexport": 8772,
      "ugu": 8773,
      "Ġexer": 8774,
      "Ġimporto": 8775,
      "iaus": 8776,
      "Ġvnutro": 8777,
      "jacego": 8778,
      "Ġbude": 8779,
      "Ġoperation": 8780,
      "tikieli": 8781,
      "Ġmelleklet": 8782,
      "Ġesim": 8783,
      "Ġvertegenwoord": 8784,
      "Ġzpus": 8785,
      "ĠÎµÏĨÎ·Î¼ÎµÏģÎ¹": 8786,
      "Ġprotection": 8787,
      "Ġweb": 8788,
      "Ġviranoma": 8789,
      "ÏģÎ¹ÏīÎ½": 8790,
      "ging": 8791,
      "Ġ940": 8792,
      "Ġera": 8793,
      "Ġelett": 8794,
      "Ġgenann": 8795,
      "Ð´ÐµÐ»": 8796,
      "Ġcul": 8797,
      "ĠÎ±ÏħÏĦÎ·": 8798,
      "Ġvuo": 8799,
      "raz": 8800,
      "Ġtento": 8801,
      "Ġsale": 8802,
      "Ġoikeudenkayntikieli": 8803,
      "Ġdelega": 8804,
      "Ġaugust": 8805,
      "ziti": 8806,
      "Ġlon": 8807,
      "Ġversch": 8808,
      "Ġfondu": 8809,
      "Ġ575": 8810,
      "Ġsara": 8811,
      "ination": 8812,
      "ĠÏĢÎ»Î·ÏģÎ¿ÏĨÎ¿": 8813,
      "gare": 8814,
      "Ġfuncion": 8815,
      "Ġ128": 8816,
      "ĠÐ²Ð½Ð¾": 8817,
      "ĠÑĦÐ¸Ð½Ð°Ð½ÑģÐ¾": 8818,
      "Ġcriminal": 8819,
      "Ġ161": 8820,
      "vene": 8821,
      "vara": 8822,
      "Ġnn": 8823,
      "Ġvertra": 8824,
      "Ġmem": 8825,
      "kaa": 8826,
      "Ġ550": 8827,
      "Ġappeal": 8828,
      "Ġdeutschland": 8829,
      "Ġmene": 8830,
      "Ġ414": 8831,
      "Ġnovembre": 8832,
      "Ġgrand": 8833,
      "Ġtryb": 8834,
      "Ġorganu": 8835,
      "Ġlakossagi": 8836,
      "dd": 8837,
      "Ġdalibnieki": 8838,
      "Ġdtagraitear": 8839,
      "Ġhagi": 8840,
      "ivent": 8841,
      "Ġtych": 8842,
      "miet": 8843,
      "telu": 8844,
      "jin": 8845,
      "Ġmaterjali": 8846,
      "Ġposkyt": 8847,
      "Ġperso": 8848,
      "fÃ¸rt": 8849,
      "Ġprofession": 8850,
      "Ġvnutrostat": 8851,
      "Ġorsza": 8852,
      "ĠÐ¸Ð·Ð¸ÑģÐºÐ²Ð°Ð½Ð¸Ñı": 8853,
      "Ġeuropeana": 8854,
      "Ġodluka": 8855,
      "dorf": 8856,
      "Ġdepens": 8857,
      "220": 8858,
      "Ġprotok": 8859,
      "Ġjann": 8860,
      "klaring": 8861,
      "Ġgrup": 8862,
      "Ġodd": 8863,
      "Ġnahradu": 8864,
      "Ġpreva": 8865,
      "Ġjezyk": 8866,
      "Ġproducts": 8867,
      "Ġdyrektywy": 8868,
      "Ġgt": 8869,
      "ĠÎ¿ÏģÎ³Î±Î½": 8870,
      "ikas": 8871,
      "Ġvarten": 8872,
      "turile": 8873,
      "Ġros": 8874,
      "Ġminer": 8875,
      "cate": 8876,
      "Ġdisposicoes": 8877,
      "bija": 8878,
      "Ġargumenti": 8879,
      "jusi": 8880,
      "Ġsenatu": 8881,
      "Ġyhteis": 8882,
      "nimi": 8883,
      "nienia": 8884,
      "Ġerte": 8885,
      "hairt": 8886,
      "our": 8887,
      "eseen": 8888,
      "ĠÎ´Î¹ÎºÎ±Î¹Ïī": 8889,
      "Ġmellem": 8890,
      "vallan": 8891,
      "som": 8892,
      "Ġiep": 8893,
      "ĠÑģÑĥ": 8894,
      "Ġfonction": 8895,
      "minister": 8896,
      "esion": 8897,
      "Ġalta": 8898,
      "Ġleping": 8899,
      "Ġnomenkla": 8900,
      "kich": 8901,
      "Ġkuiten": 8902,
      "ĠÑģÑĬÐ´ÐµÐ±": 8903,
      "Ġjelzal": 8904,
      "Ġpartijen": 8905,
      "cju": 8906,
      "Ġkonsulta": 8907,
      "Ġjurisdic": 8908,
      "Ġtego": 8909,
      "ovod": 8910,
      "Ġdiv": 8911,
      "Ġaccep": 8912,
      "Ġrozsahu": 8913,
      "Ġ800": 8914,
      "Ġ1487": 8915,
      "skost": 8916,
      "Ġtied": 8917,
      "cnych": 8918,
      "Ġmaksa": 8919,
      "inak": 8920,
      "Ġbazi": 8921,
      "Ġregistre": 8922,
      "Ġizstrada": 8923,
      "Ġuzu": 8924,
      "Ġtrgov": 8925,
      "Ġihre": 8926,
      "Ġmaterijala": 8927,
      "janja": 8928,
      "Ġsodisca": 8929,
      "tab": 8930,
      "Ġkoskevat": 8931,
      "dus": 8932,
      "zial": 8933,
      "Ġfirst": 8934,
      "ktiv": 8935,
      "Ġpodstaw": 8936,
      "Ġogsa": 8937,
      "Ġpova": 8938,
      "Ġ290": 8939,
      "Ġenter": 8940,
      "Ġvilket": 8941,
      "Ġnak": 8942,
      "Ġtillver": 8943,
      "Ġoutros": 8944,
      "Ġnoliguma": 8945,
      "ÑĤÐµÑĢÐ¸": 8946,
      "Ġamet": 8947,
      "Ġbhfeidhm": 8948,
      "Ġpoolt": 8949,
      "Ġteritori": 8950,
      "Ġincal": 8951,
      "Ġzakresie": 8952,
      "Ġpooled": 8953,
      "ÐµÐ¼Ð²ÑĢÐ¸": 8954,
      "Ġarvesse": 8955,
      "ĠÎµÎºÎ´Î¿": 8956,
      "cny": 8957,
      "uro": 8958,
      "Ġmitte": 8959,
      "Ġ143": 8960,
      "Ġreser": 8961,
      "Ġingatlannal": 8962,
      "Ġproizvodi": 8963,
      "Ġprovad": 8964,
      "Ġgemen": 8965,
      "Ġodluku": 8966,
      "Ġjus": 8967,
      "Ġoikeusas": 8968,
      "Ġapakspun": 8969,
      "Ġsubject": 8970,
      "Ġdocumentbreak": 8971,
      "Ġ157": 8972,
      "ming": 8973,
      "erade": 8974,
      "Ġtudi": 8975,
      "Î¾Î·ÏĤ": 8976,
      "Ġrepublique": 8977,
      "Ġgericht": 8978,
      "chs": 8979,
      "Ġzmlu": 8980,
      "ĠÐ¿Ð¾Ð·Ð¸": 8981,
      "ÐºÐ°Ð·Ð°": 8982,
      "Ġtehni": 8983,
      "esso": 8984,
      "Ġpolitika": 8985,
      "reau": 8986,
      "tot": 8987,
      "elen": 8988,
      "ĠÐ¼ÐµÐ¶Ð´Ñĥ": 8989,
      "Ġado": 8990,
      "Ġochranna": 8991,
      "Ġcfo": 8992,
      "Ġmoju": 8993,
      "Ġemli": 8994,
      "Ġtoote": 8995,
      "Ġhil": 8996,
      "Ġvide": 8997,
      "Ġiranti": 8998,
      "Ġ253": 8999,
      "Ġoffer": 9000,
      "Ġzvej": 9001,
      "ĠÐ¾ÑĤÐ½Ð¾ÑĪÐµÐ½Ð¸Ðµ": 9002,
      "Ġpublicatieblad": 9003,
      "Ġdomicilio": 9004,
      "Ġaso": 9005,
      "ĠÐµÐ¸": 9006,
      "ĠÎ¼ÏĢÎ¿ÏģÎµÎ¹": 9007,
      "ĠÎ±ÏĤ": 9008,
      "Ġprve": 9009,
      "irma": 9010,
      "ĠÎ´Î·Î¼Î¿ÎºÏģÎ±ÏĦ": 9011,
      "Ġkriteria": 9012,
      "Ġsubjekty": 9013,
      "cine": 9014,
      "Ġpaz": 9015,
      "Ġjelzalogh": 9016,
      "Ġeee": 9017,
      "Ġtysk": 9018,
      "Ġjelzaloghitel": 9019,
      "Ġmotiva": 9020,
      "Ġsex": 9021,
      "Ġtyp": 9022,
      "Ġconsiderando": 9023,
      "Ġstuden": 9024,
      "later": 9025,
      "Ġersat": 9026,
      "elijk": 9027,
      "Ġprodott": 9028,
      "Ġbeslissing": 9029,
      "ussa": 9030,
      "Ġfinants": 9031,
      "Ġunternehmen": 9032,
      "Ġkonstru": 9033,
      "Ġeba": 9034,
      "tego": 9035,
      "dering": 9036,
      "wic": 9037,
      "Ġput": 9038,
      "ĠÏĢÏģÎ¿ÏĥÏĨÏħÎ³Î·": 9039,
      "Î»Î¹Î±": 9040,
      "ĠÎ³Î»Ïī": 9041,
      "bets": 9042,
      "Ġanden": 9043,
      "ionn": 9044,
      "Ġvahend": 9045,
      "Ġabkommen": 9046,
      "ĠÎ´Î¹Î±Î´Î¹ÎºÎ±ÏĥÎ¹Î±ÏĤ": 9047,
      "Ġlad": 9048,
      "Ġstates": 9049,
      "Ġ235": 9050,
      "Ġprogramu": 9051,
      "zetes": 9052,
      "ĠÎ¿Î¹ÎºÎ¿Î½Î¿Î¼": 9053,
      "Ġdesign": 9054,
      "saad": 9055,
      "cted": 9056,
      "kata": 9057,
      "cznych": 9058,
      "ÑĩÐµÑģÐºÐ¸": 9059,
      "tede": 9060,
      "ĠartykuÅĤ": 9061,
      "sprak": 9062,
      "Ġdati": 9063,
      "Ġkohtumenetluse": 9064,
      "pplika": 9065,
      "Ġ147": 9066,
      "maara": 9067,
      "ĠsÃ¸": 9068,
      "onne": 9069,
      "Ġtiet": 9070,
      "Ġbenyujtott": 9071,
      "Ġconcur": 9072,
      "omu": 9073,
      "Î¶ÎµÏĦÎ±Î¹": 9074,
      "Ġcertifica": 9075,
      "wia": 9076,
      "Ġplata": 9077,
      "pier": 9078,
      "klag": 9079,
      "Ġprocessu": 9080,
      "sbe": 9081,
      "Ġspeka": 9082,
      "Ġrisk": 9083,
      "Ġglobal": 9084,
      "Ġ3740": 9085,
      "Ġnumber": 9086,
      "Ġdarbibas": 9087,
      "ĠÐºÐ¾ÐµÑĤÐ¾": 9088,
      "konaw": 9089,
      "Ġzari": 9090,
      "Ġvale": 9091,
      "Ġminimal": 9092,
      "registra": 9093,
      "Ġhav": 9094,
      "urance": 9095,
      "Î¼Î¿Î¹": 9096,
      "gens": 9097,
      "Ġsektora": 9098,
      "less": 9099,
      "Ġcomunitaria": 9100,
      "ÑĩÐµÐ½Ð¸Ðµ": 9101,
      "Ġ177": 9102,
      "rani": 9103,
      "Ġameti": 9104,
      "Ġgniomha": 9105,
      "Ġdivision": 9106,
      "mie": 9107,
      "Ġjasenvaltioiden": 9108,
      "Ġelemen": 9109,
      "Ġseptembra": 9110,
      "Ġparagrafu": 9111,
      "ident": 9112,
      "puesto": 9113,
      "regist": 9114,
      "Ġcapital": 9115,
      "Ġgj": 9116,
      "zyst": 9117,
      "ÑĢÐ¸Ð¾": 9118,
      "hasz": 9119,
      "Î½ÎµÎ¹": 9120,
      "hout": 9121,
      "Ġskat": 9122,
      "ĠÎ±Î½ÏĦÎ¹Îº": 9123,
      "rer": 9124,
      "jeta": 9125,
      "Ġ146": 9126,
      "1000": 9127,
      "Ġ132": 9128,
      "Ġizm": 9129,
      "Ġfranca": 9130,
      "Ġhomologa": 9131,
      "etes": 9132,
      "Ġszar": 9133,
      "Ġlais": 9134,
      "ĠÎ±Î¹ÏĦÎ·ÏĥÎ·": 9135,
      "kkorat": 9136,
      "ĠÐ±ÑĬÐ´Ðµ": 9137,
      "eva": 9138,
      "viron": 9139,
      "Ġtrabal": 9140,
      "Ġuwzgled": 9141,
      "Ġdoivent": 9142,
      "Ġplu": 9143,
      "ĠÎ´Î¹Î¿Î¹ÎºÎ·": 9144,
      "Ġcommissioner": 9145,
      "ĠÑĥÑģÐ»Ð¾": 9146,
      "Ġatlid": 9147,
      "Ġcause": 9148,
      "Ġtuotte": 9149,
      "170": 9150,
      "Ġvill": 9151,
      "Ġsaf": 9152,
      "maÃŁ": 9153,
      "ĠÏĥÏħÏĥÏĦÎ·": 9154,
      "turilor": 9155,
      "ĠÑĤÐµÐ·Ð¸": 9156,
      "ĠÐ¼ÐµÑĢÐºÐ¸": 9157,
      "ÏĩÎ±Î½": 9158,
      "ĠÐ²Ð·Ðµ": 9159,
      "Ġmodo": 9160,
      "Ġconden": 9161,
      "Ġhenkil": 9162,
      "Ġsupre": 9163,
      "oh": 9164,
      "ĠÎ´Î±Ïĥ": 9165,
      "ÑģÑĤÐ°Ð½Ð¾Ð²": 9166,
      "ĠÑģÑĤÑĢÐ°Ð½Ð°": 9167,
      "Ġ149": 9168,
      "Ġavtalet": 9169,
      "vimas": 9170,
      "Ġinsta": 9171,
      "umas": 9172,
      "Ġname": 9173,
      "assung": 9174,
      "zyw": 9175,
      "ĠjistgÄ§u": 9176,
      "Ġtecni": 9177,
      "002": 9178,
      "Ġwurde": 9179,
      "Ġbezpec": 9180,
      "Ġabog": 9181,
      "ovanje": 9182,
      "Ġfao": 9183,
      "vajici": 9184,
      "Ġtema": 9185,
      "Ġprivat": 9186,
      "Ġkomunitar": 9187,
      "ump": 9188,
      "Ġiad": 9189,
      "osana": 9190,
      "Ġmanagement": 9191,
      "Ġcity": 9192,
      "Ġsulade": 9193,
      "giudi": 9194,
      "isena": 9195,
      "rister": 9196,
      "tatii": 9197,
      "Ġjunija": 9198,
      "Ġcostas": 9199,
      "Ġpovez": 9200,
      "Ġapella": 9201,
      "Ġlangue": 9202,
      "vys": 9203,
      "Ġszemely": 9204,
      "missi": 9205,
      "Ġtempor": 9206,
      "Ġpowie": 9207,
      "Ġagentu": 9208,
      "Ġprejudic": 9209,
      "ĠÐ¾Ð±ÐµÐ·": 9210,
      "Ġennakkorat": 9211,
      "Ġpromo": 9212,
      "soli": 9213,
      "Ġear": 9214,
      "massa": 9215,
      "ummer": 9216,
      "Ġmarzo": 9217,
      "Ġziad": 9218,
      "stytu": 9219,
      "Ġzasady": 9220,
      "ĠÎµÎ¸Î½": 9221,
      "nict": 9222,
      "toim": 9223,
      "vari": 9224,
      "Ġtijela": 9225,
      "Ð¿ÑĢÐ¾": 9226,
      "Ġmaterias": 9227,
      "ÏĦÎ¿Î½": 9228,
      "itets": 9229,
      "ror": 9230,
      "Ġfh": 9231,
      "Ġvybor": 9232,
      "ĠundersÃ¸": 9233,
      "innan": 9234,
      "Ġdezember": 9235,
      "Ġgeen": 9236,
      "Ġenviron": 9237,
      "kaitant": 9238,
      "Ġposkyto": 9239,
      "Ġtama": 9240,
      "Ġ840": 9241,
      "keen": 9242,
      "ÑħÐ²ÑĬÑĢ": 9243,
      "instans": 9244,
      "Ġtarny": 9245,
      "Ġais": 9246,
      "Ġ1986": 9247,
      "Ġkurios": 9248,
      "ÑĩÐ½Ð¾": 9249,
      "97": 9250,
      "omos": 9251,
      "vaid": 9252,
      "ĠÎ½Îµ": 9253,
      "Ġsuo": 9254,
      "ÏĦÎµÏħ": 9255,
      "Ġprovi": 9256,
      "ining": 9257,
      "tavate": 9258,
      "vez": 9259,
      "Ġaprila": 9260,
      "Ġsuteik": 9261,
      "Ġiskaitant": 9262,
      "ller": 9263,
      "Ġzivot": 9264,
      "Ġtarp": 9265,
      "Ġwykonaw": 9266,
      "tavad": 9267,
      "Ġparast": 9268,
      "lassa": 9269,
      "Ġmhe": 9270,
      "Ġkuriuo": 9271,
      "Ġjen": 9272,
      "zibu": 9273,
      "atz": 9274,
      "Ġuporablja": 9275,
      "Ġskulle": 9276,
      "veg": 9277,
      "ovanja": 9278,
      "Ġavses": 9279,
      "Ġfacili": 9280,
      "Ġmetu": 9281,
      "omoc": 9282,
      "Ġproc": 9283,
      "Ġano": 9284,
      "Ġdokumenti": 9285,
      "nus": 9286,
      "tulo": 9287,
      "ivel": 9288,
      "ÏĥÏĦÎ¿": 9289,
      "ĠÐ¾Ð±ÑīÐ¸Ñı": 9290,
      "Ġterritorio": 9291,
      "ĠÎ±ÎºÏħÏģÏī": 9292,
      "Ġwirts": 9293,
      "Ġaihe": 9294,
      "Ġspolocen": 9295,
      "Ġaltele": 9296,
      "Ġprecum": 9297,
      "Ġsead": 9298,
      "Ð´ÐµÐ½": 9299,
      "Ġdevem": 9300,
      "ĠÐ¿ÑĢÐ¾Ð´ÑĥÐºÑĤÐ¸": 9301,
      "Ġmbe": 9302,
      "Ġparkap": 9303,
      "Ġbeschikking": 9304,
      "tyjen": 9305,
      "Ġsuma": 9306,
      "lassen": 9307,
      "ogu": 9308,
      "Ġzon": 9309,
      "Ġbeca": 9310,
      "Ġucely": 9311,
      "Ġfacilita": 9312,
      "Ġprimeira": 9313,
      "ĠÏĢÏģÎ±Î³": 9314,
      "Ġforanstaltninger": 9315,
      "prog": 9316,
      "Ġettepanek": 9317,
      "Ġattieciga": 9318,
      "Ġic": 9319,
      "ĠÐ¿ÑĢÐ¾ÑĨÐµ": 9320,
      "Ġiero": 9321,
      "Ġtw": 9322,
      "Ġ302": 9323,
      "Ġewwel": 9324,
      "pie": 9325,
      "sasag": 9326,
      "ding": 9327,
      "kro": 9328,
      "ĠÏĢÏģÎ¿Î¹Î¿Î½ÏĦÎ±": 9329,
      "itott": 9330,
      "Ġdirector": 9331,
      "jacej": 9332,
      "tigt": 9333,
      "Ġbegaran": 9334,
      "Ġemlitett": 9335,
      "Ġerhver": 9336,
      "cimento": 9337,
      "semmija": 9338,
      "Ġnen": 9339,
      "Ġhebben": 9340,
      "Ġinclus": 9341,
      "Ġsede": 9342,
      "Ġhim": 9343,
      "Ġbetro": 9344,
      "Ġkuras": 9345,
      "Ġaqu": 9346,
      "ĠÐ±ÐµÐ·": 9347,
      "Ġpriemoniu": 9348,
      "stri": 9349,
      "ÑĢÐ°Ð·Ñĥ": 9350,
      "Ġincom": 9351,
      "Ġgej": 9352,
      "Ġcommunautaire": 9353,
      "chad": 9354,
      "Ġyou": 9355,
      "Ġregler": 9356,
      "Ġgalven": 9357,
      "Ġnepre": 9358,
      "Ġkien": 9359,
      "Ġgad": 9360,
      "Ġsiir": 9361,
      "cite": 9362,
      "Ġuposte": 9363,
      "stwo": 9364,
      "Ġtuzbeni": 9365,
      "Ġkiv": 9366,
      "Ġconformidade": 9367,
      "Ġnationella": 9368,
      "eges": 9369,
      "ÎµÎ¹Î¿": 9370,
      "Ð³Ð»Ðµ": 9371,
      "Ġnoue": 9372,
      "ÅĤos": 9373,
      "Ġdam": 9374,
      "cement": 9375,
      "ford": 9376,
      "Ġeis": 9377,
      "brie": 9378,
      "Ġrepubblica": 9379,
      "Ġunited": 9380,
      "Ġ189": 9381,
      "Ġuden": 9382,
      "Ġalperes": 9383,
[...]
