{
  "version": "1.0",
  "truncation": null,
  "padding": null,
  "added_tokens": [
    {
      "id": 0,
      "content": "<pad>",
      "single_word": false,
      "lstrip": false,
      "rstrip": false,
      "normalized": false,
      "special": true
    },
    {
      "id": 1,
      "content": "<s>",
      "single_word": false,
      "lstrip": false,
      "rstrip": false,
      "normalized": false,
      "special": true
    },
    {
      "id": 2,
      "content": "</s>",
      "single_word": false,
      "lstrip": false,
      "rstrip": false,
      "normalized": false,
      "special": true
    },
    {
      "id": 3,
      "content": "<unk>",
      "single_word": false,
      "lstrip": false,
      "rstrip": false,
      "normalized": false,
      "special": true
    },
    {
      "id": 4,
      "content": "<mask>",
      "single_word": false,
      "lstrip": false,
      "rstrip": false,
      "normalized": false,
      "special": true
    }
  ],
  "normalizer": {
    "type": "Sequence",
    "normalizers": [
      {
        "type": "NFKD"
      },
      {
        "type": "BertNormalizer",
        "clean_text": true,
        "handle_chinese_chars": true,
        "strip_accents": null,
        "lowercase": true
      }
    ]
  },
  "pre_tokenizer": {
    "type": "Sequence",
    "pretokenizers": [
      {
        "type": "BertPreTokenizer"
      },
      {
        "type": "ByteLevel",
        "add_prefix_space": true,
        "trim_offsets": true,
        "use_regex": true
      }
    ]
  },
  "post_processor": {
    "type": "RobertaProcessing",
    "sep": [
      "</s>",
      2
    ],
    "cls": [
      "<s>",
      1
    ],
    "trim_offsets": true,
    "add_prefix_space": true
  },
  "decoder": {
    "type": "ByteLevel",
    "add_prefix_space": true,
    "trim_offsets": true,
    "use_regex": true
  },
  "model": {
    "type": "BPE",
    "dropout": null,
    "unk_token": "<unk>",
    "continuing_subword_prefix": null,
    "end_of_word_suffix": null,
    "fuse_unk": false,
    "vocab": {
      "<pad>": 0,
      "<s>": 1,
      "</s>": 2,
      "<unk>": 3,
      "<mask>": 4,
      "!": 5,
      "\"": 6,
      "#": 7,
      "$": 8,
      "%": 9,
      "&": 10,
      "'": 11,
      "(": 12,
      ")": 13,
      "*": 14,
      "+": 15,
      ",": 16,
      "-": 17,
      ".": 18,
      "/": 19,
      "0": 20,
      "1": 21,
      "2": 22,
      "3": 23,
      "4": 24,
      "5": 25,
      "6": 26,
      "7": 27,
      "8": 28,
      "9": 29,
      ":": 30,
      ";": 31,
      "<": 32,
      "=": 33,
      ">": 34,
      "?": 35,
      "@": 36,
      "[": 37,
      "\\": 38,
      "]": 39,
      "^": 40,
      "_": 41,
      "`": 42,
      "a": 43,
      "b": 44,
      "c": 45,
      "d": 46,
      "e": 47,
      "f": 48,
      "g": 49,
      "h": 50,
      "i": 51,
      "j": 52,
      "k": 53,
      "l": 54,
      "m": 55,
      "n": 56,
      "o": 57,
      "p": 58,
      "q": 59,
      "r": 60,
      "s": 61,
      "t": 62,
      "u": 63,
      "v": 64,
      "w": 65,
      "x": 66,
      "y": 67,
      "z": 68,
      "{": 69,
      "|": 70,
      "}": 71,
      "~": 72,
      "¡": 73,
      "¢": 74,
      "£": 75,
      "¤": 76,
      "¥": 77,
      "¦": 78,
      "§": 79,
      "¨": 80,
      "©": 81,
      "ª": 82,
      "«": 83,
      "¬": 84,
      "®": 85,
      "¯": 86,
      "°": 87,
      "±": 88,
      "²": 89,
      "³": 90,
      "´": 91,
      "µ": 92,
      "¶": 93,
      "·": 94,
      "¸": 95,
      "¹": 96,
      "º": 97,
      "»": 98,
      "¼": 99,
      "½": 100,
      "¾": 101,
      "¿": 102,
      "Â": 103,
      "Ã": 104,
      "Ä": 105,
      "Å": 106,
      "Æ": 107,
      "Ç": 108,
      "É": 109,
      "Ê": 110,
      "Ë": 111,
      "Î": 112,
      "Ï": 113,
      "Ð": 114,
      "Ñ": 115,
      "Ò": 116,
      "Ó": 117,
      "Ô": 118,
      "Õ": 119,
      "Ö": 120,
      "×": 121,
      "Ø": 122,
      "Ù": 123,
      "Ú": 124,
      "Û": 125,
      "ß": 126,
      "à": 127,
      "á": 128,
      "â": 129,
      "ã": 130,
      "ä": 131,
      "å": 132,
      "æ": 133,
      "ç": 134,
      "è": 135,
      "é": 136,
      "ê": 137,
      "ï": 138,
      "ð": 139,
      "Ġ": 140,
      "Ģ": 141,
      "ģ": 142,
      "Ĥ": 143,
      "ĥ": 144,
      "Ħ": 145,
      "ħ": 146,
      "Ĩ": 147,
      "ĩ": 148,
      "Ī": 149,
      "ī": 150,
      "Ĭ": 151,
      "ĭ": 152,
      "Į": 153,
      "į": 154,
      "İ": 155,
      "ı": 156,
      "Ĳ": 157,
      "ĳ": 158,
      "Ĵ": 159,
      "ĵ": 160,
      "Ķ": 161,
      "ķ": 162,
      "ĸ": 163,
      "Ĺ": 164,
      "ĺ": 165,
      "Ļ": 166,
      "ļ": 167,
      "Ľ": 168,
      "ľ": 169,
      "Ŀ": 170,
      "ŀ": 171,
      "Ł": 172,
      "ł": 173,
      "Ń": 174,
      "Ġp": 175,
      "in": 176,
      "Ġs": 177,
      "is": 178,
      "ta": 179,
      "Ġ,": 180,
      "os": 181,
      "Ġn": 182,
      "Ġ.": 183,
      "Ġk": 184,
      "ma": 185,
      "es": 186,
      "Ġa": 187,
      "ik": 188,
      "ri": 189,
      "Ġi": 190,
      "al": 191,
      "re": 192,
      "Ġt": 193,
      "ra": 194,
      "ti": 195,
      "Ġpa": 196,
      "us": 197,
      "mo": 198,
      "Ġd": 199,
      "en": 200,
      "ia": 201,
      "ci": 202,
      "Ġv": 203,
      "Ġb": 204,
      "Ġne": 205,
      "Ġ2": 206,
      "to": 207,
      "Ġ1": 208,
      "Ġir": 209,
      "ja": 210,
      "la": 211,
      "iu": 212,
      "tu": 213,
      "ro": 214,
      "Ġis": 215,
      "io": 216,
      "el": 217,
      "an": 218,
      "Ġ)": 219,
      "Ġg": 220,
      "Ġm": 221,
      "ai": 222,
      "Ġâ": 223,
      "ĠâĢ": 224,
      "te": 225,
      "tin": 226,
      "Ġta": 227,
      "Ġ(": 228,
      "je": 229,
      "ty": 230,
      "mas": 231,
      "jos": 232,
      "Ġsu": 233,
      "ip": 234,
      "uo": 235,
      "Ġe": 236,
      "iko": 237,
      "Ġre": 238,
      "as": 239,
      "im": 240,
      "Ġte": 241,
      "imo": 242,
      "ju": 243,
      "er": 244,
      "ar": 245,
      "Ġko": 246,
      "ie": 247,
      "Ġpri": 248,
      "Ġ20": 249,
      "rin": 250,
      "tra": 251,
      "ir": 252,
      "men": 253,
      "Ġ/": 254,
      "uri": 255,
      "Ġc": 256,
      "ikoma": 257,
      "au": 258,
      "Ġneta": 259,
      "ad": 260,
      "Ġat": 261,
      "ali": 262,
      "Ġnetaikoma": 263,
      "Ġ3": 264,
      "Ġ0": 265,
      "Ġ-": 266,
      "Ġl": 267,
      "id": 268,
      "or": 269,
      "Ġteis": 270,
      "tas": 271,
      "nd": 272,
      "jo": 273,
      "ig": 274,
      "Ġar": 275,
      "Ġ_": 276,
      "Ġpo": 277,
      "do": 278,
      "Ġ:": 279,
      "Ġ|": 280,
      "Ġbu": 281,
      "Ġap": 282,
      "Ġkuri": 283,
      "sn": 284,
      "Ġsp": 285,
      "dy": 286,
      "Ġpag": 287,
      "Ġkad": 288,
      "ms": 289,
      "traip": 290,
      "Ġnu": 291,
      "cijos": 292,
      "mis": 293,
      "traipsn": 294,
      "Ġstraipsn": 295,
      "Ġ5": 296,
      "av": 297,
      "yb": 298,
      "am": 299,
      "Ġin": 300,
      "Ġf": 301,
      "Ġ4": 302,
      "zi": 303,
      "Ġpas": 304,
      "ĠâĢĵ": 305,
      "ima": 306,
      "nk": 307,
      "Ġsk": 308,
      "Ġo": 309,
      "end": 310,
      "Ġprie": 311,
      "imu": 312,
      "Ġto": 313,
      "Ġpro": 314,
      "nt": 315,
      "tos": 316,
      "usi": 317,
      "mon": 318,
      "Ġla": 319,
      "ba": 320,
      "uk": 321,
      "Ġdel": 322,
      "ras": 323,
      "iai": 324,
      "mu": 325,
      "ve": 326,
      "rend": 327,
      "Ġ200": 328,
      "yk": 329,
      "me": 330,
      "Ġeu": 331,
      "Ġz": 332,
      "cija": 333,
      "gu": 334,
      "on": 335,
      "Ġme": 336,
      "Ġpozi": 337,
      "Ġsprend": 338,
      "Ġkai": 339,
      "di": 340,
      "Ġval": 341,
      "Ġreg": 342,
      "Ġy": 343,
      "Ġats": 344,
      "il": 345,
      "Ġ9": 346,
      "isk": 347,
      "ine": 348,
      "ng": 349,
      "Ġbend": 350,
      "lamen": 351,
      "Ġu": 352,
      "aly": 353,
      "Ġr": 354,
      "Ġ6": 355,
      "iek": 356,
      "Ġma": 357,
      "vo": 358,
      "da": 359,
      "Ġ201": 360,
      "Ġna": 361,
      "dz": 362,
      "Ġ8": 363,
      "rek": 364,
      "Ġarba": 365,
      "imas": 366,
      "ant": 367,
      "Ġpagal": 368,
      "Ġ7": 369,
      "mos": 370,
      "Ġnus": 371,
      "teik": 372,
      "Ġreglamen": 373,
      "sty": 374,
      "ien": 375,
      "Ġtik": 376,
      "lo": 377,
      "ka": 378,
      "ika": 379,
      "Ġpozicijos": 380,
      "ija": 381,
      "Ġki": 382,
      "min": 383,
      "Ġbe": 384,
      "unk": 385,
      "cia": 386,
      "ios": 387,
      "de": 388,
      "Ġsusi": 389,
      "Ġstraipsnio": 390,
      "Ġ;": 391,
      "Ġnes": 392,
      "ko": 393,
      "Ġtar": 394,
      "00": 395,
      "Ġsa": 396,
      "Ġvis": 397,
      "reig": 398,
      "Ġyra": 399,
      "tik": 400,
      "Ġkomis": 401,
      "iv": 402,
      "styb": 403,
      "alies": 404,
      "Ġuz": 405,
      "Ġreik": 406,
      "Ġkaip": 407,
      "ks": 408,
      "Ġpunk": 409,
      "Ġmo": 410,
      "Ġnusta": 411,
      "Ġvalstyb": 412,
      "Ġve": 413,
      "oj": 414,
      "Ġju": 415,
      "ur": 416,
      "Ġri": 417,
      "le": 418,
      "ines": 419,
      "Ġj": 420,
      "iz": 421,
      "pa": 422,
      "lin": 423,
      "Ġsan": 424,
      "Ġper": 425,
      "ĠâĢľ": 426,
      "tyv": 427,
      "Ġpra": 428,
      "pos": 429,
      "ĠâĢŀ": 430,
      "ciu": 431,
      "Ġnuro": 432,
      "tus": 433,
      "Ġpateik": 434,
      "ykdy": 435,
      "ijos": 436,
      "tai": 437,
      "Ġ10": 438,
      "ose": 439,
      "ipa": 440,
      "ky": 441,
      "Ġbuti": 442,
      "Ġpir": 443,
      "Ġnuo": 444,
      "Ġes": 445,
      "tar": 446,
      "Ġeuro": 447,
      "Ġgal": 448,
      "Ġveik": 449,
      "Ġnau": 450,
      "Ġh": 451,
      "ch": 452,
      "reigoj": 453,
      "ru": 454,
      "mp": 455,
      "arb": 456,
      "Ġ19": 457,
      "Ġisipa": 458,
      "Ġgali": 459,
      "Ġnr": 460,
      "Ġdi": 461,
      "iniu": 462,
      "mi": 463,
      "tis": 464,
      "aug": 465,
      "Ġkre": 466,
      "Ġisipareigoj": 467,
      "iant": 468,
      "ke": 469,
      "iau": 470,
      "eid": 471,
      "Ġpagrin": 472,
      "ek": 473,
      "Ġal": 474,
      "kai": 475,
      "Ġnustaty": 476,
      "Ġas": 477,
      "Ġver": 478,
      "Ġpat": 479,
      "dito": 480,
      "Ġpriemon": 481,
      "ybos": 482,
      "jung": 483,
      "Ġeuropos": 484,
      "yv": 485,
      "ys": 486,
      "Ġpaz": 487,
      "Ġriz": 488,
      "Ġkredito": 489,
      "Ġisipareigojimu": 490,
      "Ġkomisija": 491,
      "Ġjo": 492,
      "Ġdirek": 493,
      "das": 494,
      "Ġnurody": 495,
      "Ġturi": 496,
      "ing": 497,
      "dori": 498,
      "Ġsandori": 499,
      "ius": 500,
      "Ġby": 501,
      "ykdymo": 502,
      "Ġsav": 503,
      "du": 504,
      "iky": 505,
      "Ġkla": 506,
      "Ġneiv": 507,
      "Ġsajung": 508,
      "inti": 509,
      "Ġje": 510,
      "Ġsiu": 511,
      "Ġiss": 512,
      "Ġrizika": 513,
      "Ġati": 514,
      "Ġnesant": 515,
      "Ġneivykdymo": 516,
      "Ġdalies": 517,
      "Ġtu": 518,
      "Ġdaly": 519,
      "Ġreglamento": 520,
      "Ġ%": 521,
      "elg": 522,
      "rasy": 523,
      "Ġsis": 524,
      "ns": 525,
      "Ġins": 526,
      "Ġ12": 527,
      "tuo": 528,
      "Ġdirektyv": 529,
      "inio": 530,
      "mes": 531,
      "Ġproc": 532,
      "Ġak": 533,
      "Ġnuos": 534,
      "vir": 535,
      "Ġtaip": 536,
      "Ġde": 537,
      "Ġprek": 538,
      "Ġ11": 539,
      "ug": 540,
      "ies": 541,
      "ria": 542,
      "ting": 543,
      "Ġneb": 544,
      "Ġimon": 545,
      "orma": 546,
      "Ġies": 547,
      "Ġsaly": 548,
      "Ġsprendimo": 549,
      "ĠâĢĶ": 550,
      "ves": 551,
      "Ġskir": 552,
      "Ġsio": 553,
      "cio": 554,
      "Ġbuvo": 555,
      "tina": 556,
      "Ġeb": 557,
      "Ġvien": 558,
      "no": 559,
      "na": 560,
      "ku": 561,
      "Ġteises": 562,
      "Ġja": 563,
      "dzia": 564,
      "Ġsajungos": 565,
      "ris": 566,
      "Ġka": 567,
      "inis": 568,
      "tes": 569,
      "riu": 570,
      "Ġtai": 571,
      "Ġdal": 572,
      "Ġnaudo": 573,
      "Ġ00": 574,
      "Ġreikal": 575,
      "Ġth": 576,
      "velg": 577,
      "irb": 578,
      "Ġsusij": 579,
      "uoto": 580,
      "izvelg": 581,
      "Ġrin": 582,
      "Ġw": 583,
      "inan": 584,
      "Ġaps": 585,
      "ter": 586,
      "tikrin": 587,
      "vi": 588,
      "ros": 589,
      "Ġvalstybes": 590,
      "Ġinf": 591,
      "Ġsal": 592,
      "Ġall": 593,
      "Ġgam": 594,
      "Ġatitin": 595,
      "rus": 596,
      "Ġpagrind": 597,
      "mai": 598,
      "Ġig": 599,
      "ji": 600,
      "duk": 601,
      "Ġtok": 602,
      "ties": 603,
      "Ġdid": 604,
      "tari": 605,
      "Ġspe": 606,
      "ina": 607,
      "kes": 608,
      "liu": 609,
      "rijos": 610,
      "Ġspeci": 611,
      "titu": 612,
      "Ġan": 613,
      "Ġkuriu": 614,
      "Ġatsizvelg": 615,
      "Ġproduk": 616,
      "Ġnuosta": 617,
      "Ġsi": 618,
      "ne": 619,
      "ĠâĢĲ": 620,
      "inimo": 621,
      "zia": 622,
      "Ġmeto": 623,
      "Ġ]": 624,
      "aig": 625,
      "Ġ[": 626,
      "rine": 627,
      "Ġeur": 628,
      "Ġleid": 629,
      "Ġ13": 630,
      "Ġteise": 631,
      "ly": 632,
      "Ġpriim": 633,
      "ini": 634,
      "tais": 635,
      "lu": 636,
      "Ġdarb": 637,
      "gumo": 638,
      "Ġinstitu": 639,
      "Ġ15": 640,
      "Ġsavo": 641,
      "Ġsprendima": 642,
      "Ġkiek": 643,
      "Ġbendro": 644,
      "ang": 645,
      "var": 646,
      "Ġpar": 647,
      "por": 648,
      "Ġfinan": 649,
      "Ġof": 650,
      "tines": 651,
      "Ġmaz": 652,
      "Ġbutu": 653,
      "jimo": 654,
      "Ġprasy": 655,
      "del": 656,
      "yje": 657,
      "onal": 658,
      "ems": 659,
      "Ġatve": 660,
      "les": 661,
      "enk": 662,
      "Ġtaiky": 663,
      "Ġpasla": 664,
      "Ġlaiko": 665,
      "Ġsalies": 666,
      "Ġfinans": 667,
      "joje": 668,
      "Ġ50": 669,
      "Ġinforma": 670,
      "Ġsusitari": 671,
      "Ġsta": 672,
      "Ġsiek": 673,
      "grine": 674,
      "Ġissky": 675,
      "Ġisskyrus": 676,
      "dzio": 677,
      "ui": 678,
      "Ġsutar": 679,
      "kos": 680,
      "10": 681,
      "Ġstraipsnis": 682,
      "Ġnuma": 683,
      "Ġapie": 684,
      "Ġ<": 685,
      "aliz": 686,
      "Ġklaus": 687,
      "uomen": 688,
      "avimo": 689,
      "et": 690,
      "Ġjos": 691,
      "Ġ14": 692,
      "nes": 693,
      "iniai": 694,
      "Ġteismas": 695,
      "amos": 696,
      "uoja": 697,
      "Ġtiks": 698,
      "ybe": 699,
      "alio": 700,
      "Ġml": 701,
      "Ġdirektyvos": 702,
      "usis": 703,
      "Ġco": 704,
      "Ġtarybos": 705,
      "Ġnar": 706,
      "Ġkar": 707,
      "Ġsia": 708,
      "va": 709,
      "Ġuztikrin": 710,
      "Ġad": 711,
      "Ġmetodas": 712,
      "ele": 713,
      "Ġpries": 714,
      "tine": 715,
      "ary": 716,
      "Ġteismo": 717,
      "Ġpap": 718,
      "imus": 719,
      "Ġiv": 720,
      "Ġ=": 721,
      "Ġmln": 722,
      "Ġtarp": 723,
      "igu": 724,
      "Ġasmen": 725,
      "Ġtaiko": 726,
      "ybes": 727,
      "Ġ16": 728,
      "cios": 729,
      "Ġdo": 730,
      "Ġjei": 731,
      "Ġista": 732,
      "20": 733,
      "Ġatl": 734,
      "vimo": 735,
      "Ġsiste": 736,
      "Ġpre": 737,
      "Ġture": 738,
      "ingumo": 739,
      "Ġbet": 740,
      "Ġirb": 741,
      "ent": 742,
      "Ġnep": 743,
      "oje": 744,
      "Ġkonk": 745,
      "Ġrem": 746,
      "Ġnares": 747,
      "Ġimoniu": 748,
      "Ġnagrine": 749,
      "cional": 750,
      "Ġ17": 751,
      "elia": 752,
      "Ġkomisijos": 753,
      "Ġda": 754,
      "yvend": 755,
      "ak": 756,
      "rau": 757,
      "Ġnacional": 758,
      "tuoja": 759,
      "den": 760,
      "jek": 761,
      "Ġthe": 762,
      "usia": 763,
      "iki": 764,
      "ziu": 765,
      "Ġmvi": 766,
      "los": 767,
      "Ġpriemones": 768,
      "yba": 769,
      "Ġigyvend": 770,
      "uoti": 771,
      "Ġji": 772,
      "bu": 773,
      "cijas": 774,
      "Ġvar": 775,
      "Ġiesko": 776,
      "ic": 777,
      "Ġneg": 778,
      "Ġreikalav": 779,
      "ul": 780,
      "Ġ18": 781,
      "Ġdalyje": 782,
      "tr": 783,
      "Ġreikia": 784,
      "vad": 785,
      "Ġsandorio": 786,
      "ga": 787,
      "Ġproce": 788,
      "Ġpake": 789,
      "virtin": 790,
      "Ġdalis": 791,
      "toja": 792,
      "Ġnumaty": 793,
      "ejo": 794,
      "Ġtra": 795,
      "tingas": 796,
      "Ġor": 797,
      "Ġnea": 798,
      "Ġaplin": 799,
      "Ġkons": 800,
      "mus": 801,
      "pu": 802,
      "gra": 803,
      "Ġsios": 804,
      "ink": 805,
      "Ġsko": 806,
      "pe": 807,
      "Ġge": 808,
      "Ġ29": 809,
      "Ġ199": 810,
      "Ġ30": 811,
      "Ġteisingumo": 812,
      "Ġsandoriai": 813,
      "laid": 814,
      "aigti": 815,
      "ais": 816,
      "Ġteik": 817,
      "Ġkomp": 818,
      "Ġkal": 819,
      "Ġduomen": 820,
      "si": 821,
      "Ġbendra": 822,
      "ciju": 823,
      "Ġdali": 824,
      "Ġrei": 825,
      "Ġnebaigti": 826,
      "nas": 827,
      "Ġatitinka": 828,
      "Ġapsaug": 829,
      "Ġ21": 830,
      "ei": 831,
      "rija": 832,
      "amu": 833,
      "Ġgin": 834,
      "Ġtais": 835,
      "Ġsiuo": 836,
      "Ġreitingas": 837,
      "iama": 838,
      "cial": 839,
      "Ġsuteik": 840,
      "Ġmedzia": 841,
      "Ġ>": 842,
      "Ġly": 843,
      "dary": 844,
      "imai": 845,
      "Ġbendrijos": 846,
      "Ġ25": 847,
      "Ġskolin": 848,
      "Ġol": 849,
      "res": 850,
      "nc": 851,
      "dic": 852,
      "ib": 853,
      "auja": 854,
      "Ġaisk": 855,
      "tion": 856,
      "Ġmokes": 857,
      "Ġbei": 858,
      "Ġatveju": 859,
      "Ġveiks": 860,
      "iais": 861,
      "Ġtam": 862,
      "dama": 863,
      "tant": 864,
      "ino": 865,
      "trauk": 866,
      "yri": 867,
      "Ġnera": 868,
      "Ġmine": 869,
      "ts": 870,
      "Ġgyv": 871,
      "Ġ23": 872,
      "go": 873,
      "Ġspecializ": 874,
      "Ġch": 875,
      "Ġsub": 876,
      "Ġpunktas": 877,
      "Ġtre": 878,
      "ciau": 879,
      "Ġpla": 880,
      "Ġ90": 881,
      "riaus": 882,
      "Ġvie": 883,
      "Ġprekiu": 884,
      "bl": 885,
      "mui": 886,
      "Ġpirma": 887,
      "Ġskolinimo": 888,
      "istra": 889,
      "Ġspecializuoto": 890,
      "ikos": 891,
      "loje": 892,
      "Ġvertin": 893,
      "Ġpare": 894,
      "Ġse": 895,
      "Ġ22": 896,
      "nau": 897,
      "tiniu": 898,
      "li": 899,
      "Ġkurios": 900,
      "damas": 901,
      "Ġres": 902,
      "tarp": 903,
      "Ġdaug": 904,
      "Ġii": 905,
      "Ġ31": 906,
      "Ġnei": 907,
      "etu": 908,
      "Ġpriimti": 909,
      "elio": 910,
      "Ġjeigu": 911,
      "Ġnare": 912,
      "Ġpr": 913,
      "Ġkita": 914,
      "kir": 915,
      "Ġtol": 916,
      "Ġau": 917,
      "Ġtodel": 918,
      "Ġlaikotarp": 919,
      "Ġtaisyk": 920,
      "Ġsv": 921,
      "Ġpazeid": 922,
      "Ġpranes": 923,
      "Ġiki": 924,
      "Ġso": 925,
      "Ġpazang": 926,
      "val": 927,
      "Ġsus": 928,
      "eliu": 929,
      "Ġbyloje": 930,
      "gos": 931,
      "Ġsprendimas": 932,
      "Ġ26": 933,
      "jus": 934,
      "Ġinformacija": 935,
      "Ġeks": 936,
      "Ġnagrineja": 937,
      "Ġ24": 938,
      "Ġ28": 939,
      "Ġnepa": 940,
      "Ġra": 941,
      "Ġzr": 942,
      "Ġlyg": 943,
      "Ġties": 944,
      "Ġislaid": 945,
      "Ġatsa": 946,
      "Ġvisu": 947,
      "Ġiesk": 948,
      "eb": 949,
      "Ġvy": 950,
      "Ġnurodyta": 951,
      "ran": 952,
      "Ġjis": 953,
      "Ġpaslaug": 954,
      "Ġkur": 955,
      "eng": 956,
      "rio": 957,
      "iems": 958,
      "der": 959,
      "Ġtoliau": 960,
      "Ġsri": 961,
      "las": 962,
      "Ġpara": 963,
      "iskai": 964,
      "gan": 965,
      "Ġimp": 966,
      "Ġex": 967,
      "Ġairb": 968,
      "bo": 969,
      "Ġpazangusis": 970,
      "rinci": 971,
      "ami": 972,
      "Ġsuma": 973,
      "Ġvalstybe": 974,
      "usio": 975,
      "Ġinter": 976,
      "Ġaplink": 977,
      "Ġx": 978,
      "Ġ27": 979,
      "nu": 980,
      "Ġkitos": 981,
      "Ġkurio": 982,
      "ono": 983,
      "ntro": 984,
      "tys": 985,
      "kan": 986,
      "Ġtrans": 987,
      "Ġstraipsnyje": 988,
      "Ġisd": 989,
      "ida": 990,
      "laus": 991,
      "Ġpozicijas": 992,
      "kumen": 993,
      "Ġprinci": 994,
      "Ġdokumen": 995,
      "Ġpreju": 996,
      "Ġcor": 997,
      "Ġprejudic": 998,
      "Ġatsizvelgiant": 999,
      "po": 1000,
      "Ġgalim": 1001,
      "Ġgr": 1002,
      "Ġ\"": 1003,
      "Ġreglamentas": 1004,
      "Ġvyk": 1005,
      "Ġlaik": 1006,
      "Ġkiti": 1007,
      "Ġle": 1008,
      "kel": 1009,
      "porto": 1010,
      "Ġdarbo": 1011,
      "Ġgau": 1012,
      "Ġpunkta": 1013,
      "Ġproces": 1014,
      "Ġpareig": 1015,
      "Ġskai": 1016,
      "Ġnor": 1017,
      "tori": 1018,
      "tan": 1019,
      "Ġmas": 1020,
      "Ġpunkte": 1021,
      "mer": 1022,
      "Ġpriemoniu": 1023,
      "und": 1024,
      "Ġzenk": 1025,
      "Ġlie": 1026,
      "Ġno": 1027,
      "Ġtvar": 1028,
      "Ġnaudoja": 1029,
      "zin": 1030,
      "th": 1031,
      "Ġuk": 1032,
      "Ġgincija": 1033,
      "Ġisvad": 1034,
      "tyje": 1035,
      "Ġsusijusi": 1036,
      "Ġimpor": 1037,
      "Ġkok": 1038,
      "Ġmui": 1039,
      "Ġ2009": 1040,
      "Ġpasiu": 1041,
      "Ġrink": 1042,
      "lia": 1043,
      "Ġen": 1044,
      "Ġnegali": 1045,
      "Ġnustatyta": 1046,
      "Ġturetu": 1047,
      "esn": 1048,
      "vien": 1049,
      "Ġgalima": 1050,
      "ciai": 1051,
      "Ġdirektyva": 1052,
      "Ġlt": 1053,
      "Ġpatvirtin": 1054,
      "Ġkon": 1055,
      "Ġfor": 1056,
      "isti": 1057,
      "Ġorgan": 1058,
      "Ġstraipsni": 1059,
      "Ġsek": 1060,
      "naik": 1061,
      "Ġpakei": 1062,
      "veik": 1063,
      "Ġ000": 1064,
      "Ġbal": 1065,
      "Ġand": 1066,
      "Ġ2004": 1067,
      "Ġkuria": 1068,
      "bos": 1069,
      "ime": 1070,
      "Ġtyri": 1071,
      "usiu": 1072,
      "Ġdien": 1073,
      "Ġcorp": 1074,
      "Ġtiek": 1075,
      "Ġnustatyti": 1076,
      "Ġmetu": 1077,
      "iui": 1078,
      "Ġct": 1079,
      "Ġban": 1080,
      "Ġprocedu": 1081,
      "Ġkil": 1082,
      "Ġtaciau": 1083,
      "Ġek": 1084,
      "toju": 1085,
      "Ġjog": 1086,
      "Ġkri": 1087,
      "Ġkonkre": 1088,
      "Ġpanaik": 1089,
      "Ġkurie": 1090,
      "Ġnariu": 1091,
      "Ġel": 1092,
      "Ġkuriuo": 1093,
      "publ": 1094,
      "Ġter": 1095,
      "Ġsme": 1096,
      "Ġpasiuly": 1097,
      "iog": 1098,
      "eten": 1099,
      "mosios": 1100,
      "Ġsiekiant": 1101,
      "Ġperd": 1102,
      "Ġvalstybiu": 1103,
      "Ġpapil": 1104,
      "Ġgamin": 1105,
      "Ġkonsta": 1106,
      "Ġadmin": 1107,
      "Ġiskai": 1108,
      "Ġantra": 1109,
      "Ġ40": 1110,
      "iantis": 1111,
      "Ġ2006": 1112,
      "Ġparlamen": 1113,
      "Ġrez": 1114,
      "Ġnebu": 1115,
      "Ġtech": 1116,
      "Ġsmec": 1117,
      "vil": 1118,
      "Ġkitu": 1119,
      "Ġkompeten": 1120,
      "ias": 1121,
      "fik": 1122,
      "Ġpripa": 1123,
      "Ġiro": 1124,
      "Ġprogra": 1125,
      "ze": 1126,
      "Ġgra": 1127,
      "Ġapelia": 1128,
      "Ġkiekvien": 1129,
      "Ġsve": 1130,
      "cius": 1131,
      "Ġjung": 1132,
      "Ġrespubl": 1133,
      "Ġadministra": 1134,
      "Ġtur": 1135,
      "Ġtuo": 1136,
      "Ġvies": 1137,
      "vauja": 1138,
      "ce": 1139,
      "Ġbus": 1140,
      "Ġteig": 1141,
      "21": 1142,
      "Ġskund": 1143,
      "Ġapsaugos": 1144,
      "ven": 1145,
      "imui": 1146,
      "Ġ2013": 1147,
      "Ġses": 1148,
      "Ġim": 1149,
      "Ġro": 1150,
      "Ġpazy": 1151,
      "tinio": 1152,
      "Ġvaldy": 1153,
      "muo": 1154,
      "Ġiskaitant": 1155,
      "toje": 1156,
      "Ġsuda": 1157,
      "Ġpras": 1158,
      "Ġ2011": 1159,
      "ugu": 1160,
      "40": 1161,
      "Ġekono": 1162,
      "Ġze": 1163,
      "Ġpaslaugu": 1164,
      "Ġatliek": 1165,
      "jas": 1166,
      "ala": 1167,
      "Ġmen": 1168,
      "Ġkuris": 1169,
      "Ġprejudicini": 1170,
      "30": 1171,
      "Ġatlik": 1172,
      "Ġorganiz": 1173,
      "Ġrug": 1174,
      "Ġpasta": 1175,
      "Ġpriemone": 1176,
      "Ġiste": 1177,
      "be": 1178,
      "Ġdrau": 1179,
      "darb": 1180,
      "inius": 1181,
      "log": 1182,
      "Ġprasyma": 1183,
      "Ġdar": 1184,
      "Ġ2008": 1185,
      "Ġpateikti": 1186,
      "reik": 1187,
      "Ġremiantis": 1188,
      "rez": 1189,
      "Ġpasi": 1190,
      "Ġtr": 1191,
      "Ġveikla": 1192,
      "Ġgru": 1193,
      "Ġsusitarimo": 1194,
      "iri": 1195,
      "tojo": 1196,
      "Ġbendroves": 1197,
      "stes": 1198,
      "Ġ39": 1199,
      "Ġsalys": 1200,
      "iklaus": 1201,
      "dzi": 1202,
      "Ġ+": 1203,
      "Ġkain": 1204,
      "Ġkrite": 1205,
      "inimas": 1206,
      "Ġklausimu": 1207,
      "11": 1208,
      "dos": 1209,
      "imos": 1210,
      "inys": 1211,
      "iams": 1212,
      "Ġpapildo": 1213,
      "Ġatsto": 1214,
      "zes": 1215,
      "Ġapib": 1216,
      "tal": 1217,
      "Ġbyla": 1218,
      "Ġsubjek": 1219,
      "Ġgruo": 1220,
      "Ġgruodzio": 1221,
      "Ġkontro": 1222,
      "ens": 1223,
      "Ġteri": 1224,
      "Ġdu": 1225,
      "Ġtransporto": 1226,
      "mb": 1227,
      "Ġduomenu": 1228,
      "cine": 1229,
      "Ġ100": 1230,
      "ry": 1231,
      "Ġnustato": 1232,
      "Ġfak": 1233,
      "igi": 1234,
      "Ġinstitucijos": 1235,
      "ol": 1236,
      "Ġsaliu": 1237,
      "Ġsudary": 1238,
      "Ġpav": 1239,
      "mone": 1240,
      "Ġ010": 1241,
      "Ġirody": 1242,
      "Ġ2014": 1243,
      "valo": 1244,
      "tuose": 1245,
      "mais": 1246,
      "erg": 1247,
      "Ġistaty": 1248,
      "Ġtiesiog": 1249,
      "Ġneap": 1250,
      "Ġnetu": 1251,
      "Ġpil": 1252,
      "Ġmazmen": 1253,
      "Ġit": 1254,
      "Ġigyvendinimo": 1255,
      "Ġtaikomas": 1256,
      "Ġpad": 1257,
      "tinis": 1258,
      "gas": 1259,
      "Ġ2003": 1260,
      "Ġsaug": 1261,
      "Ġveiklos": 1262,
      "teis": 1263,
      "Ġ35": 1264,
      "Ġ2007": 1265,
      "co": 1266,
      "Ġil": 1267,
      "tau": 1268,
      "Ġtermin": 1269,
      "Ġtaikymo": 1270,
      "Ġvad": 1271,
      "Ġdarbuoto": 1272,
      "ekt": 1273,
      "Ġtaisykles": 1274,
      "viu": 1275,
      "Ġitrauk": 1276,
      "Ġtink": 1277,
      "Ġnumatyta": 1278,
      "Ġpade": 1279,
      "Ġnuostatos": 1280,
      "Ġistaig": 1281,
      "Ġ38": 1282,
      "mokes": 1283,
      "zinti": 1284,
      "jan": 1285,
      "Ġgalio": 1286,
      "Ġvan": 1287,
      "jimas": 1288,
      "Ġ32": 1289,
      "ok": 1290,
      "Ġmoke": 1291,
      "ren": 1292,
      "ver": 1293,
      "Ġreglamenta": 1294,
      "ulta": 1295,
      "ieti": 1296,
      "Ġpagrindinis": 1297,
      "Ġ2012": 1298,
      "Ġofi": 1299,
      "Ġatitink": 1300,
      "tel": 1301,
      "Ġturin": 1302,
      "Ġypa": 1303,
      "Ġtaikoma": 1304,
      "Ġsuk": 1305,
      "Ġbir": 1306,
      "Ġvykdy": 1307,
      "umo": 1308,
      "tams": 1309,
      "truk": 1310,
      "tyti": 1311,
      "Ġab": 1312,
      "Ġag": 1313,
      "Ġprak": 1314,
      "Ġparlamento": 1315,
      "Ġnusp": 1316,
      "Ġprocedura": 1317,
      "inin": 1318,
      "Ġuztikrinti": 1319,
      "Ġpoveik": 1320,
      "Ġpard": 1321,
      "Ġpagris": 1322,
      "Ġjau": 1323,
      "Ġsistema": 1324,
      "Ġgyven": 1325,
      "Ġpal": 1326,
      "Ġelekt": 1327,
      "Ġga": 1328,
      "leid": 1329,
      "Ġieskove": 1330,
      "Ġsutarties": 1331,
      "Ġpazyme": 1332,
      "Ġ33": 1333,
      "Ġisp": 1334,
      "Ġvarto": 1335,
      "Ġpe": 1336,
      "jai": 1337,
      "ipo": 1338,
      "Ġbirz": 1339,
      "Ġproduktu": 1340,
      "Ġpoli": 1341,
      "Ġ34": 1342,
      "Ġ85": 1343,
      "Ġsup": 1344,
      "Ġtaryba": 1345,
      "Ġ?": 1346,
      "Ġverte": 1347,
      "Ġmazmenines": 1348,
      "Ġpriedo": 1349,
      "Ġ0106": 1350,
      "zo": 1351,
      "Ġ2010": 1352,
      "Ġargu": 1353,
      "Ġsude": 1354,
      "dur": 1355,
      "Ġargumen": 1356,
      "Ġire": 1357,
      "ki": 1358,
      "Ġpaskir": 1359,
      "kri": 1360,
      "jima": 1361,
      "Ġpakeiti": 1362,
      "Ġ36": 1363,
      "Ġmedziagu": 1364,
      "Ġatsako": 1365,
      "Ġprivalo": 1366,
      "Ġtechn": 1367,
      "mojo": 1368,
      "cijo": 1369,
      "alu": 1370,
      "se": 1371,
      "Ġba": 1372,
      "land": 1373,
      "Ġ84": 1374,
      "86": 1375,
      "Ġva": 1376,
      "idu": 1377,
      "Ġinves": 1378,
      "tikos": 1379,
      "Ġapskai": 1380,
      "Ġank": 1381,
      "mite": 1382,
      "Ġlais": 1383,
      "damos": 1384,
      "line": 1385,
      "Ġbendradarb": 1386,
      "Ġkas": 1387,
      "uks": 1388,
      "Ġprocedur": 1389,
      "pi": 1390,
      "Ġeeb": 1391,
      "tomis": 1392,
      "Ġ2005": 1393,
      "Ġinstitucija": 1394,
      "tika": 1395,
      "Ġtaigi": 1396,
      "giu": 1397,
      "Ġsudaro": 1398,
      "Ġrugs": 1399,
      "Ġisig": 1400,
      "Ġbendras": 1401,
      "Ġtarptau": 1402,
      "Ġbirzelio": 1403,
      "Ġoficial": 1404,
      "taskai": 1405,
      "rink": 1406,
      "Ġataskai": 1407,
      "Ġnurodo": 1408,
      "ineje": 1409,
      "Ġ01": 1410,
      "iamas": 1411,
      "esne": 1412,
      "Ġ2001": 1413,
      "Ġgalimybe": 1414,
      "Ġpilie": 1415,
      "vu": 1416,
      "ron": 1417,
      "Ġ37": 1418,
      "Ġpanas": 1419,
      "ian": 1420,
      "angi": 1421,
      "Ġsprendimu": 1422,
      "Ġleidzia": 1423,
      "Ġgen": 1424,
      "Ġkadangi": 1425,
      "Ġfinansu": 1426,
      "dzios": 1427,
      "Ġste": 1428,
      "Ġzemes": 1429,
      "Ġviena": 1430,
      "inima": 1431,
      "Ġbau": 1432,
      "Ġdaugiau": 1433,
      "Ġjie": 1434,
      "Ġfirb": 1435,
      "Ġkomite": 1436,
      "Ġdy": 1437,
      "Ġvel": 1438,
      "Ġnen": 1439,
      "Ġpati": 1440,
      "Ġimtis": 1441,
      "Ġkovo": 1442,
      "ista": 1443,
      "ge": 1444,
      "Ġsistemos": 1445,
      "Ġpatikrin": 1446,
      "naudo": 1447,
      "Ġapibrez": 1448,
      "Ġpak": 1449,
      "Ġsvarb": 1450,
      "Ġtarn": 1451,
      "Ġlaiky": 1452,
      "vej": 1453,
      "Ġci": 1454,
      "Ġnors": 1455,
      "toriu": 1456,
      "Ġkilmes": 1457,
      "90": 1458,
      "Ġ2015": 1459,
      "dik": 1460,
      "Ġliepos": 1461,
      "Ġrinkos": 1462,
      "Ġ2016": 1463,
      "esnis": 1464,
      "Ġkei": 1465,
      "cines": 1466,
      "Ġpv": 1467,
      "Ġfo": 1468,
      "Ġ45": 1469,
      "Ġismo": 1470,
      "Ġdv": 1471,
      "riju": 1472,
      "tui": 1473,
      "inka": 1474,
      "Ġ02": 1475,
      "ims": 1476,
      "Ġ2002": 1477,
      "uota": 1478,
      "rius": 1479,
      "iam": 1480,
      "Ġkonstatuoja": 1481,
      "ame": 1482,
      "Ġdalyv": 1483,
      "fika": 1484,
      "Ġnet": 1485,
      "Ġbalan": 1486,
      "ni": 1487,
      "Ġtikru": 1488,
      "Ġpadary": 1489,
      "Ġukio": 1490,
      "Ġapri": 1491,
      "asa": 1492,
      "Ġorganiza": 1493,
      "Ġsioje": 1494,
      "Ġprisk": 1495,
      "Ġ41": 1496,
      "Ġsie": 1497,
      "Ġlab": 1498,
      "tini": 1499,
      "zdz": 1500,
      "Ġinformacijos": 1501,
      "Ġru": 1502,
      "Ġvida": 1503,
      "Ġprojek": 1504,
      "Ġsaras": 1505,
      "Ġ44": 1506,
      "Ġvidaus": 1507,
      "Ġsalis": 1508,
      "Ġcc": 1509,
      "Ġlap": 1510,
      "Ġvok": 1511,
      "uotas": 1512,
      "kelb": 1513,
      "Ġpastraip": 1514,
      "Ġgav": 1515,
      "Ġ43": 1516,
      "Ġimones": 1517,
      "Ġkg": 1518,
      "80": 1519,
      "dimo": 1520,
      "Ġ60": 1521,
      "Ġ99": 1522,
      "Ġjuris": 1523,
      "Ġenerg": 1524,
      "Ġaktu": 1525,
      "imosi": 1526,
      "mines": 1527,
      "Ġpunkto": 1528,
      "Ġpriede": 1529,
      "iklauso": 1530,
      "Ġtinka": 1531,
      "Ġstand": 1532,
      "Ġant": 1533,
      "Ġnacionalines": 1534,
      "Ġkaraly": 1535,
      "tura": 1536,
      "Ġiver": 1537,
      "Ġkuriuos": 1538,
      "oms": 1539,
      "leg": 1540,
      "Ġteisiu": 1541,
      "Ġsau": 1542,
      "ion": 1543,
      "tinama": 1544,
      "Ġkurioje": 1545,
      "Ġvanden": 1546,
      "at": 1547,
      "Ġspecial": 1548,
      "Ġtiksla": 1549,
      "mine": 1550,
      "Ġcr": 1551,
      "Ġgalu": 1552,
      "Ġkompetenting": 1553,
      "Ġ2017": 1554,
      "dai": 1555,
      "Ġveiksmin": 1556,
      "tiems": 1557,
      "Ġser": 1558,
      "Ġ42": 1559,
      "Ġjok": 1560,
      "50": 1561,
      "zas": 1562,
      "isto": 1563,
      "inama": 1564,
      "Ġspalio": 1565,
      "Ġob": 1566,
      "Ġvyriaus": 1567,
      "Ġ54": 1568,
      "yti": 1569,
      "Ġisvada": 1570,
      "Ġgrin": 1571,
      "Ġpanaudo": 1572,
      "so": 1573,
      "Ġstandar": 1574,
      "Ġder": 1575,
      "Ġstraipsniu": 1576,
      "Ġmokesciu": 1577,
      "Ġ'": 1578,
      "Ġnebuvo": 1579,
      "Ġcom": 1580,
      "Ġkonku": 1581,
      "Ġtaikyti": 1582,
      "tt": 1583,
      "fe": 1584,
      "vos": 1585,
      "lyg": 1586,
      "Ġvykdo": 1587,
      "Ġsesv": 1588,
      "Ġaug": 1589,
      "antis": 1590,
      "Ġke": 1591,
      "uma": 1592,
      "Ġskirsn": 1593,
      "Ġpapras": 1594,
      "Ġigalio": 1595,
      "Ġvir": 1596,
      "yn": 1597,
      "istr": 1598,
      "pera": 1599,
      "Ġprieziu": 1600,
      "vai": 1601,
      "Ġsausio": 1602,
      "din": 1603,
      "Ġgaletu": 1604,
      "inga": 1605,
      "Ġ2018": 1606,
      "Ġatz": 1607,
      "qu": 1608,
      "Ġ*": 1609,
      "kanka": 1610,
      "Ġnuoro": 1611,
      "Ġsusije": 1612,
      "Ġproceduros": 1613,
      "Ġvaldzios": 1614,
      "Ġatzvil": 1615,
      "Ġpareisk": 1616,
      "imi": 1617,
      "boj": 1618,
      "tojas": 1619,
      "cijoje": 1620,
      "Ġkalba": 1621,
      "Ġoro": 1622,
      "Ġprekybos": 1623,
      "Ġ46": 1624,
      "Ġinstan": 1625,
      "Ġatzvilgiu": 1626,
      "Ġapmokes": 1627,
      "Ġmatyti": 1628,
      "Ġprodukto": 1629,
      "Ġ49": 1630,
      "Ġsocial": 1631,
      "Ġsutarti": 1632,
      "Ġproceso": 1633,
      "Ġvisa": 1634,
      "Ġ80": 1635,
      "Ġlapkri": 1636,
      "inamas": 1637,
      "liai": 1638,
      "Ġesmes": 1639,
      "Ġnuostatu": 1640,
      "Ġlapkricio": 1641,
      "Ġnusprend": 1642,
      "Ġpirmosios": 1643,
      "Ġgyvu": 1644,
      "aisk": 1645,
      "Ġgegu": 1646,
      "vas": 1647,
      "Ġtvarka": 1648,
      "iausia": 1649,
      "Ġpobu": 1650,
      "turos": 1651,
      "Ġatsaky": 1652,
      "Ġnepri": 1653,
      "Ġtaik": 1654,
      "Ġkartu": 1655,
      "Ġypac": 1656,
      "Ġgeguzes": 1657,
      "ĠÎ": 1658,
      "moje": 1659,
      "Ġ87": 1660,
      "Ġzvej": 1661,
      "ciosios": 1662,
      "Ġlaiv": 1663,
      "Ġvalstybeje": 1664,
      "Ġ91": 1665,
      "Ġdirb": 1666,
      "Ġvado": 1667,
      "usiai": 1668,
      "uotu": 1669,
      "Ġpavy": 1670,
      "000": 1671,
      "Ġpriima": 1672,
      "Ġ52": 1673,
      "Ġklausima": 1674,
      "Ġekspor": 1675,
      "Ġisigalio": 1676,
      "Ġdek": 1677,
      "dyti": 1678,
      "ers": 1679,
      "Ġ48": 1680,
      "Ġreikalavimus": 1681,
      "Ġcon": 1682,
      "Ġrys": 1683,
      "vimas": 1684,
      "Ġivertin": 1685,
      "Ġac": 1686,
      "Ġ96": 1687,
      "Ġmano": 1688,
      "Ġvieno": 1689,
      "cijai": 1690,
      "Ġaplinkybe": 1691,
      "Ġrugsejo": 1692,
      "Ġproto": 1693,
      "Ġpateikta": 1694,
      "isa": 1695,
      "Ġnuomone": 1696,
      "ĠÐ": 1697,
      "Ġdideliu": 1698,
      "avimas": 1699,
      "Ġbylos": 1700,
      "Ġpris": 1701,
      "ls": 1702,
      "Ġreiks": 1703,
      "ingai": 1704,
      "Ġpaslaugos": 1705,
      "Ġatmes": 1706,
      "omis": 1707,
      "Ġatstovauja": 1708,
      "rijai": 1709,
      "Ġgrindzia": 1710,
      "iska": 1711,
      "Ġtikslu": 1712,
      "Ġsuder": 1713,
      "Ġvais": 1714,
      "ps": 1715,
      "22": 1716,
      "Ġtaikomos": 1717,
      "Ġopera": 1718,
      "Ġbalandzio": 1719,
      "Ġ55": 1720,
      "Ġita": 1721,
      "Ġ47": 1722,
      "Ġtokio": 1723,
      "Ġtokiu": 1724,
      "ca": 1725,
      "dziu": 1726,
      "Ġsusijusiu": 1727,
      "Ġus": 1728,
      "Ġ51": 1729,
      "jimosi": 1730,
      "lio": 1731,
      "Ġtokia": 1732,
      "rai": 1733,
      "Ġzal": 1734,
      "Ġteks": 1735,
      "Ġvokieti": 1736,
      "iks": 1737,
      "Ġpraso": 1738,
      "Ġpirmin": 1739,
      "Ġnurodyti": 1740,
      "Ġinteres": 1741,
      "che": 1742,
      "Ġislaidas": 1743,
      "jais": 1744,
      "Ġbendradarbia": 1745,
      "tego": 1746,
      "Ġistek": 1747,
      "Ġuzs": 1748,
      "Ġauto": 1749,
      "Ġcent": 1750,
      "Ġtas": 1751,
      "Ġsiame": 1752,
      "ĠâĢĻ": 1753,
      "Ġmoks": 1754,
      "Ġ95": 1755,
      "Ġprotoko": 1756,
      "Ġlo": 1757,
      "Ġvi": 1758,
      "Ġpatik": 1759,
      "Ġpagalbos": 1760,
      "Ġras": 1761,
      "Ġasmens": 1762,
      "Ġsiekiama": 1763,
      "Ġ2019": 1764,
      "Ġpriezas": 1765,
      "eral": 1766,
      "Ġira": 1767,
      "Ġ56": 1768,
      "Ġkurias": 1769,
      "Ġkainos": 1770,
      "Ġbendrojo": 1771,
      "iame": 1772,
      "Ġ70": 1773,
      "Ġsalygos": 1774,
      "ama": 1775,
      "Ġ2000": 1776,
      "Ġpaskelb": 1777,
      "Ġkomisijai": 1778,
      "Ġpers": 1779,
      "riai": 1780,
      "Ġmotyv": 1781,
      "Ġvai": 1782,
      "Ġsprendime": 1783,
      "for": 1784,
      "Ġpavad": 1785,
      "uotos": 1786,
      "Ġtos": 1787,
      "Ġmenes": 1788,
      "Ġadvo": 1789,
      "Ġsveika": 1790,
      "Ġ07": 1791,
      "Ġ53": 1792,
      "Ġgamyba": 1793,
      "Ġnuostatas": 1794,
      "Ġimporto": 1795,
      "Ġtari": 1796,
      "Ġkatego": 1797,
      "dan": 1798,
      "94": 1799,
      "usios": 1800,
      "Ġpirm": 1801,
      "ho": 1802,
      "Ġprof": 1803,
      "Ġtruk": 1804,
      "ste": 1805,
      "Ġtoks": 1806,
      "Ġvietos": 1807,
      "Ġklasi": 1808,
      "cias": 1809,
      "Ġprade": 1810,
      "liuo": 1811,
      "Ġbendrove": 1812,
      "Ġadvoka": 1813,
      "Ġpl": 1814,
      "Ġprekes": 1815,
      "Ġinvesti": 1816,
      "Ġkeicia": 1817,
      "Ġsusijusios": 1818,
      "Ġjuos": 1819,
      "Ġkonven": 1820,
      "Ġ57": 1821,
      "Ġskirtu": 1822,
      "Ġ0086": 1823,
      "Ġrezulta": 1824,
      "Ġinstancijos": 1825,
      "Ġpramon": 1826,
      "toriaus": 1827,
      "Ġbutin": 1828,
      "Ġrespublikos": 1829,
      "Ġple": 1830,
      "Ġisim": 1831,
      "Ġapriboj": 1832,
      "Ġreglamentu": 1833,
      "ntis": 1834,
      "Ġprincip": 1835,
      "alo": 1836,
      "Ġisdes": 1837,
      "Ġkonkuren": 1838,
      "Ġpoveikio": 1839,
      "Ġmedziagos": 1840,
      "rd": 1841,
      "ara": 1842,
      "Ġieskoves": 1843,
      "Ġsky": 1844,
      "Ġvaldymo": 1845,
      "tijos": 1846,
      "ed": 1847,
      "Ġasmuo": 1848,
      "Ġpranc": 1849,
      "Ġatitik": 1850,
      "Ġpab": 1851,
      "niu": 1852,
      "Ġtiesiogiai": 1853,
      "ble": 1854,
      "Ġbiu": 1855,
      "Ġ92": 1856,
      "Ġst": 1857,
      "Ġieskinio": 1858,
      "Ġ93": 1859,
      "Ġsusijusia": 1860,
      "Ġprancu": 1861,
      "Ġzvejybos": 1862,
      "Ġ05": 1863,
      "tiniai": 1864,
      "Ġatlyg": 1865,
      "Ġsrityje": 1866,
      "inter": 1867,
      "moji": 1868,
      "ingo": 1869,
      "Ġbyline": 1870,
      "tuoti": 1871,
      "Ġpareigu": 1872,
      "Ġ59": 1873,
      "Ġbendros": 1874,
      "Ġvasa": 1875,
      "Ġun": 1876,
      "Ġku": 1877,
      "Ġ2020": 1878,
      "Ġbylinejimosi": 1879,
      "virtina": 1880,
      "Ġforma": 1881,
      "Ġpateikia": 1882,
      "Ġnaudoti": 1883,
      "kas": 1884,
      "ct": 1885,
      "Ġpagalba": 1886,
      "Ġislaidu": 1887,
      "Ġbutina": 1888,
      "tyb": 1889,
      "masis": 1890,
      "Ġiii": 1891,
      "Ġvers": 1892,
      "Ġvertinimo": 1893,
      "Ġvasario": 1894,
      "bil": 1895,
      "Ġkt": 1896,
      "Ġpripaz": 1897,
      "Ġpagrindas": 1898,
      "Ġaplinkybes": 1899,
      "cijoms": 1900,
      "Ġyo": 1901,
      "Ġplo": 1902,
      "Ġregu": 1903,
      "interes": 1904,
      "Ġmar": 1905,
      "Ġneturi": 1906,
      "osios": 1907,
      "Ġatvejais": 1908,
      "Ġnurodytu": 1909,
      "Ġgauti": 1910,
      "Ġagen": 1911,
      "Ġesan": 1912,
      "Ġsuinteres": 1913,
      "Ġneapmui": 1914,
      "ide": 1915,
      "Ġveiksmu": 1916,
      "Ġireng": 1917,
      "Ġteritori": 1918,
      "Ġivai": 1919,
      "Ġpateike": 1920,
      "Ġmineto": 1921,
      "Ġprasymas": 1922,
      "Ġapeliac": 1923,
      "Ġdalys": 1924,
      "Ġzo": 1925,
      "Ġ94": 1926,
      "Ġho": 1927,
      "Ð°": 1928,
      "audo": 1929,
      "Ġles": 1930,
      "inas": 1931,
      "Ġbendrasis": 1932,
      "Ġzu": 1933,
      "Ġnesu": 1934,
      "Ġ1999": 1935,
      "Ġinstituciju": 1936,
      "Ġpraktika": 1937,
      "Ġche": 1938,
      "zu": 1939,
      "Ġkoleg": 1940,
      "Ġele": 1941,
      "Ġpride": 1942,
      "Ġkuriais": 1943,
      "Ġdiena": 1944,
      "Ġkapi": 1945,
      "Ġilg": 1946,
      "Ġ61": 1947,
      "imis": 1948,
      "Ġnareje": 1949,
      "lus": 1950,
      "masi": 1951,
      "Ġatlikti": 1952,
      "Ġgamybos": 1953,
      "Ġsalygas": 1954,
      "ment": 1955,
      "pek": 1956,
      "Ġpakanka": 1957,
      "pes": 1958,
      "it": 1959,
      "Ġee": 1960,
      "Ġlik": 1961,
      "Ġpriedas": 1962,
      "Ġteigia": 1963,
      "Ġgeneral": 1964,
      "Ġpvm": 1965,
      "Ġ65": 1966,
      "Ġkan": 1967,
      "Ġeg": 1968,
      "Ġpirk": 1969,
      "Ġneteis": 1970,
      "Ġrespublika": 1971,
      "Ġlc": 1972,
      "Ġ98": 1973,
      "dant": 1974,
      "Ġprieziuros": 1975,
      "Ġasmenu": 1976,
      "toms": 1977,
      "jame": 1978,
      "Ġdata": 1979,
      "Ġpavyzdz": 1980,
      "Ġvertes": 1981,
      "raus": 1982,
      "iria": 1983,
      "Ġman": 1984,
      "Ġpoziu": 1985,
      "Ġpaslaugas": 1986,
      "Ġ58": 1987,
      "Ġgincijamo": 1988,
      "Ġnuosav": 1989,
      "torius": 1990,
      "Ġklasifik": 1991,
      "ten": 1992,
      "ica": 1993,
      "Ġon": 1994,
      "Ġ73": 1995,
      "Ġ71": 1996,
      "Ġtaikant": 1997,
      "Ġterito": 1998,
      "Ġsusijes": 1999,
      "virs": 2000,
      "nciu": 2001,
      "ejas": 2002,
      "Ġkl": 2003,
      "Ġket": 2004,
      "inkas": 2005,
      "Ġnuostata": 2006,
      "vima": 2007,
      "Ġnek": 2008,
      "Ġisteig": 2009,
      "Ġreglamente": 2010,
      "Ġvisos": 2011,
      "Ġvisuomen": 2012,
      "inta": 2013,
      "Ġdelto": 2014,
      "jimu": 2015,
      "ingu": 2016,
      "Ġkv": 2017,
      "Ġmaziau": 2018,
      "Ġatsak": 2019,
      "Ġreikalavimu": 2020,
      "Ġlietu": 2021,
      "Ġnacionaline": 2022,
      "tojai": 2023,
      "dus": 2024,
      "Ġreikalavimai": 2025,
      "Ġpateiktas": 2026,
      "Ġprofes": 2027,
      "Ġang": 2028,
      "Ġ75": 2029,
      "Ġatsizvelgdama": 2030,
      "Ġkelia": 2031,
      "Ġanaliz": 2032,
      "Ġveliau": 2033,
      "Ġrinko": 2034,
      "sta": 2035,
      "Ġdisk": 2036,
      "Ġgaran": 2037,
      "Ġteismui": 2038,
      "Ġapskaici": 2039,
      "Ġdraudimo": 2040,
      "moke": 2041,
      "Ġpagrindineje": 2042,
      "Î±": 2043,
      "Ġkontroles": 2044,
      "Ġvardu": 2045,
      "Ġ63": 2046,
      "Ġlabai": 2047,
      "Ġ03": 2048,
      "Ġsupran": 2049,
      "Ġvisas": 2050,
      "Ġgre": 2051,
      "Ġ09": 2052,
      "Ġned": 2053,
      "Ġreikalauja": 2054,
      "Ġpateikes": 2055,
      "Ġsas": 2056,
      "Ġpose": 2057,
      "rines": 2058,
      "Ġ06": 2059,
      "Ġdekla": 2060,
      "Ġdes": 2061,
      "Ġvirs": 2062,
      "Ġpanaikinti": 2063,
      "Ġmokescio": 2064,
      "Ġca": 2065,
      "Ġneats": 2066,
      "dis": 2067,
      "Ġnustatytos": 2068,
      "Ġpareng": 2069,
      "miniu": 2070,
      "Ġnepr": 2071,
      "Ġatsi": 2072,
      "za": 2073,
      "Ġ64": 2074,
      "pras": 2075,
      "stymo": 2076,
      "Ġkapita": 2077,
      "Ġ88": 2078,
      "kymo": 2079,
      "Î¿": 2080,
      "deng": 2081,
      "zijos": 2082,
      "Ġisk": 2083,
      "Ġsupranta": 2084,
      "Ġisdesty": 2085,
      "Ġ97": 2086,
      "Ġ81": 2087,
      "Ġuzd": 2088,
      "lis": 2089,
      "Ġnustatytas": 2090,
      "Ġpriesta": 2091,
      "Ġieskini": 2092,
      "Ġatmesti": 2093,
      "ted": 2094,
      "Ġ67": 2095,
      "eg": 2096,
      "ybai": 2097,
      "Ġ04": 2098,
      "Ġ62": 2099,
      "Ġnusprende": 2100,
      "ciuju": 2101,
      "Ġdidesne": 2102,
      "Ġpor": 2103,
      "Ġini": 2104,
      "Ġankstes": 2105,
      "ybiu": 2106,
      "Ġatsisa": 2107,
      "Ġbiudz": 2108,
      "Ġribo": 2109,
      "Ġtarif": 2110,
      "iniais": 2111,
      "dami": 2112,
      "Ġfond": 2113,
      "Ġfe": 2114,
      "Ġ08": 2115,
      "deks": 2116,
      "Ġsalygu": 2117,
      "riniu": 2118,
      "Ġpavyzdziui": 2119,
      "Ġpadeng": 2120,
      "Ġispan": 2121,
      "Ġperziu": 2122,
      "Ġkaralyste": 2123,
      "Ð¸": 2124,
      "ieji": 2125,
      "Ġteritorijoje": 2126,
      "99": 2127,
      "tinimo": 2128,
      "Ġrinka": 2129,
      "Ġauks": 2130,
      "Ġdary": 2131,
      "teg": 2132,
      "Ġnuola": 2133,
      "Ġremdamas": 2134,
      "Ġregistra": 2135,
      "Ġgalia": 2136,
      "Î¹": 2137,
      "Ġigyvendin": 2138,
      "Ġproduktai": 2139,
      "reg": 2140,
      "12": 2141,
      "Ġvieta": 2142,
      "Ġpos": 2143,
      "Ġapsauga": 2144,
      "Ġneapmuitinama": 2145,
      "Ġmaisto": 2146,
      "Ð¾": 2147,
      "Ġpop": 2148,
      "Ġsanty": 2149,
      "tinas": 2150,
      "Ġkonc": 2151,
      "Ġsto": 2152,
      "mun": 2153,
      "Ġvienas": 2154,
      "Ġaplinkybemis": 2155,
      "eles": 2156,
      "Ġnurodytas": 2157,
      "isku": 2158,
      "tojams": 2159,
      "Ġapima": 2160,
      "auti": 2161,
      "Ġlic": 2162,
      "Ġnurodytos": 2163,
      "Ġisvados": 2164,
      "Ġ72": 2165,
      "Ġska": 2166,
      "fi": 2167,
      "Ġ76": 2168,
      "Ġapim": 2169,
      "Ġmin": 2170,
      "rie": 2171,
      "pti": 2172,
      "Ðµ": 2173,
      "Ġjam": 2174,
      "Ġuztikrintos": 2175,
      "Ġkriterijai": 2176,
      "Ġpaja": 2177,
      "Ġsil": 2178,
      "Ġpriva": 2179,
      "Ġsunk": 2180,
      "sa": 2181,
      "porc": 2182,
      "Ġ66": 2183,
      "Ġpatir": 2184,
      "Ġgalimybes": 2185,
      "Ġaiskiai": 2186,
      "ena": 2187,
      "nti": 2188,
      "gomis": 2189,
      "Ġatitinkama": 2190,
      "Ġvisiskai": 2191,
      "Ġrizikos": 2192,
      "Ġ83": 2193,
      "Ġlaikotarpi": 2194,
      "oji": 2195,
      "Ġirang": 2196,
      "rand": 2197,
      "Ġpel": 2198,
      "Ġsveikatos": 2199,
      "Ġkaina": 2200,
      "Ġpagrindu": 2201,
      "Ġnuk": 2202,
      "ncia": 2203,
      "Ġkalb": 2204,
      "uro": 2205,
      "Ġelemen": 2206,
      "Ġvidu": 2207,
      "Ġfunk": 2208,
      "Ġketvir": 2209,
      "Ġ74": 2210,
      "ck": 2211,
      "Ġprasymo": 2212,
      "Ġ89": 2213,
      "Ġhtt": 2214,
      "Ġsantyk": 2215,
      "Ġimone": 2216,
      "Ġdidesnis": 2217,
      "Ġrinkoje": 2218,
      "Ġhipo": 2219,
      "Ġstatus": 2220,
      "Ġdarbuotoju": 2221,
      "avima": 2222,
      "Ġ198": 2223,
      "tua": 2224,
      "iden": 2225,
      "graf": 2226,
      "Ġtokios": 2227,
      "mpingo": 2228,
      "iskia": 2229,
      "01": 2230,
      "Ġjame": 2231,
      "Ġlicen": 2232,
      "Ġ68": 2233,
      "Ġpaly": 2234,
      "Ġmases": 2235,
      "ingas": 2236,
      "Ġeksp": 2237,
      "Ġzy": 2238,
      "Ġpaaisk": 2239,
      "Ġissam": 2240,
      "Ġvisi": 2241,
      "Ġdalimi": 2242,
      "Ġskirti": 2243,
      "Ġhipote": 2244,
      "Ġistaigos": 2245,
      "Ġklasifikuoja": 2246,
      "ciniu": 2247,
      "nai": 2248,
      "Ġpareiks": 2249,
      "Ġpunktuose": 2250,
      "Ġskundzia": 2251,
      "Ġsmer": 2252,
      "met": 2253,
      "Ġbo": 2254,
      "Ġsitua": 2255,
      "Ġbudu": 2256,
      "Ġitvirtin": 2257,
      "Ġvykdyti": 2258,
      "Ġsalyga": 2259,
      "Ġskyri": 2260,
      "osius": 2261,
      "Ġeta": 2262,
      "Ġtaisykliu": 2263,
      "Ġkomer": 2264,
      "Ġleidinys": 2265,
      "Ġivyk": 2266,
      "Ġef": 2267,
      "Ġjai": 2268,
      "Ġdienos": 2269,
      "Ġ86": 2270,
      "Ġkompens": 2271,
      "Ġpove": 2272,
      "Ġpoveiki": 2273,
      "Ġpriem": 2274,
      "Ġnustatytu": 2275,
      "Ġkuriame": 2276,
      "Ġteikti": 2277,
      "Ġjuo": 2278,
      "Ġaprasy": 2279,
      "Ġatitinkan": 2280,
      "resti": 2281,
      "Ġnumato": 2282,
      "Ġkel": 2283,
      "Ġturejo": 2284,
      "Ġmineta": 2285,
      "Ġenergijos": 2286,
      "zy": 2287,
      "Ġ69": 2288,
      "Ġtikrin": 2289,
      "Ġsajunga": 2290,
      "Ġzenklo": 2291,
      "Ġminis": 2292,
      "til": 2293,
      "eto": 2294,
      "Ġital": 2295,
      "Ġduomenis": 2296,
      "Ġleng": 2297,
      "qui": 2298,
      "Ġzon": 2299,
      "ith": 2300,
      "Ġelektron": 2301,
      "Ġlaikotarpiu": 2302,
      "iga": 2303,
      "Ġaktus": 2304,
      "13": 2305,
      "lai": 2306,
      "Ġsutartis": 2307,
      "Ġoficialusis": 2308,
      "Ġpunktai": 2309,
      "Ġ77": 2310,
      "02": 2311,
      "Ġkuriomis": 2312,
      "Ġsaskai": 2313,
      "Ġ78": 2314,
      "Ġtri": 2315,
      "iniams": 2316,
      "bar": 2317,
      "rt": 2318,
      "Ġreglamentuoja": 2319,
      "tic": 2320,
      "Ġtele": 2321,
      "Ġtikslas": 2322,
      "Ġpasiek": 2323,
      "Ġpripazin": 2324,
      "Ġsaugo": 2325,
      "inos": 2326,
      "pru": 2327,
      "Ġpunktus": 2328,
      "liniu": 2329,
      "Ġpus": 2330,
      "riz": 2331,
      "Ġsumoke": 2332,
      "Ġbut": 2333,
      "avo": 2334,
      "Ġdvie": 2335,
      "Ġfiz": 2336,
      "Ġduomenys": 2337,
      "Ġpriklauso": 2338,
      "nolog": 2339,
      "Ġ79": 2340,
      "Ġpobudzio": 2341,
      "Ġbent": 2342,
      "Ġnegalima": 2343,
      "Ġkuriems": 2344,
      "Ġnaudojimo": 2345,
      "Ġatsakom": 2346,
      "entra": 2347,
      "Ġmetus": 2348,
      "inyje": 2349,
      "Ġprita": 2350,
      "Ġtrecia": 2351,
      "Ġgo": 2352,
      "Ġbandy": 2353,
      "Ġkiekviena": 2354,
      "Ġaus": 2355,
      "Ġpopie": 2356,
      "tifik": 2357,
      "Ġnuoroda": 2358,
      "momis": 2359,
      "Ġobjek": 2360,
      "doro": 2361,
      "Ġsusitarima": 2362,
      "ivai": 2363,
      "Ġdidzia": 2364,
      "Ġpakeicia": 2365,
      "bas": 2366,
      "eno": 2367,
      "chan": 2368,
      "Ġaso": 2369,
      "nagrine": 2370,
      "Ġvalstybese": 2371,
      "Ġisv": 2372,
      "15": 2373,
      "derland": 2374,
      "Ġsektoriu": 2375,
      "Ġatsizvelgti": 2376,
      "tek": 2377,
      "tavimo": 2378,
      "Ġregulia": 2379,
      "tinai": 2380,
      "tumo": 2381,
      "Ġdeklara": 2382,
      "Ġpolitikos": 2383,
      "Ġatitinkamai": 2384,
      "Ġpagam": 2385,
      "ĠÂ": 2386,
      "Ġav": 2387,
      "Ġprogramos": 2388,
      "Ġmm": 2389,
      "Ġkolegija": 2390,
      "Ġindi": 2391,
      "Ġnurode": 2392,
      "Ġpagrindines": 2393,
      "ĠâĪ": 2394,
      "Ġistekliu": 2395,
      "pruden": 2396,
      "Ġpadid": 2397,
      "Ġ2021": 2398,
      "Ġantro": 2399,
      "Ġsuteikti": 2400,
      "mul": 2401,
      "muju": 2402,
      "Ġ0094": 2403,
      "Ġpriskiri": 2404,
      "Ġjurispruden": 2405,
      "jams": 2406,
      "Ġnutar": 2407,
      "Ġkapitalo": 2408,
      "Ġpu": 2409,
      "Ġleidimas": 2410,
      "Ġsaugumo": 2411,
      "Ġreng": 2412,
      "Ġanks": 2413,
      "Ġpalyg": 2414,
      "Ġisvar": 2415,
      "tab": 2416,
      "tinu": 2417,
      "Ġtaikomi": 2418,
      "ojo": 2419,
      "Ġvez": 2420,
      "inaudo": 2421,
      "07": 2422,
      "Ġigyvendinti": 2423,
      "voje": 2424,
      "Ġpagrindo": 2425,
      "Ġvertinimas": 2426,
      "Ġregio": 2427,
      "Ġkitas": 2428,
      "Ġreiketu": 2429,
      "Ġtechnolog": 2430,
      "sis": 2431,
      "mojoje": 2432,
      "Ġpasku": 2433,
      "Ġjude": 2434,
      "Ġakivai": 2435,
      "Ġatskai": 2436,
      "Ġistaigu": 2437,
      "Ġger": 2438,
      "aru": 2439,
      "Ġgincijama": 2440,
      "Ġjurisdik": 2441,
      "Ġdan": 2442,
      "iamos": 2443,
      "Ġbendradarbiavimo": 2444,
      "Ġ&": 2445,
      "Ġpada": 2446,
      "jama": 2447,
      "Ġmechan": 2448,
      "Ġsiuos": 2449,
      "Ġeee": 2450,
      "Ġipa": 2451,
      "Ð½": 2452,
      "Ġisnagrine": 2453,
      "Ġproporc": 2454,
      "Ġturto": 2455,
      "Ġsektoriaus": 2456,
      "eju": 2457,
      "Ġhe": 2458,
      "Ġprograma": 2459,
      "Ġsudetyje": 2460,
      "Ġgrupes": 2461,
      "tip": 2462,
      "Ġ82": 2463,
      "nauj": 2464,
      "Ġskirta": 2465,
      "Ġtarnybos": 2466,
      "Ġsusitarimas": 2467,
      "Ġny": 2468,
      "Ġkonkur": 2469,
      "enos": 2470,
      "Ġcuk": 2471,
      "Ġdabar": 2472,
      "iste": 2473,
      "Ġbelg": 2474,
      "renc": 2475,
      "Ġgrupe": 2476,
      "Ġkiekis": 2477,
      "Ġpareiga": 2478,
      "14": 2479,
      "Ġatitinkamu": 2480,
      "Ġatski": 2481,
      "Ġasmenims": 2482,
      "Ġmuitines": 2483,
      "yla": 2484,
      "laiky": 2485,
      "Ġkalbant": 2486,
      "Ġzino": 2487,
      "Ġatnauj": 2488,
      "Ġnorma": 2489,
      "Ġtikra": 2490,
      "Ġhipotekos": 2491,
      "Ġdalyk": 2492,
      "Ġdaro": 2493,
      "Ġpramones": 2494,
      "Ġbio": 2495,
      "19": 2496,
      "Ġprincipo": 2497,
      "23": 2498,
      "Ġeksporto": 2499,
      "ign": 2500,
      "cu": 2501,
      "komen": 2502,
      "Ġdeg": 2503,
      "Ġasocia": 2504,
      "Ġtiesu": 2505,
      "uju": 2506,
      "Ġsuprantama": 2507,
      "ams": 2508,
      "Ġhttp": 2509,
      "Ġnepriklauso": 2510,
      "alai": 2511,
      "ieno": 2512,
      "Ġnauja": 2513,
      "Ġpart": 2514,
      "Ġnarese": 2515,
      "tinka": 2516,
      "iza": 2517,
      "Ġkn": 2518,
      "Ġpadeti": 2519,
      "Ġdokumentu": 2520,
      "Ġrekomen": 2521,
      "Ġpazeidimo": 2522,
      "tifika": 2523,
      "Ġsubs": 2524,
      "Ġaplinkos": 2525,
      "Ġpasirink": 2526,
      "Ġtyrimo": 2527,
      "Ġkin": 2528,
      "Ġwh": 2529,
      "Ġistatymo": 2530,
      "aus": 2531,
      "lius": 2532,
      "tinius": 2533,
      "Ġsavoka": 2534,
      "tinti": 2535,
      "kla": 2536,
      "rijus": 2537,
      "Ġmon": 2538,
      "Ġsiulo": 2539,
      "gai": 2540,
      "Ġuzsien": 2541,
      "tingu": 2542,
      "moms": 2543,
      "Ġaspek": 2544,
      "Ġkonvencijos": 2545,
      "Ġwor": 2546,
      "Ġlaikotarpio": 2547,
      "Ġkvo": 2548,
      "Ġklaid": 2549,
      "Ġkele": 2550,
      "Ġtes": 2551,
      "tional": 2552,
      "Ġlu": 2553,
      "Ġpirmiausia": 2554,
      "Ġsalygomis": 2555,
      "Ġgyvunu": 2556,
      "Ġnutrauk": 2557,
      "Ġvyriausybes": 2558,
      "Ġrusi": 2559,
      "03": 2560,
      "Ġpagrindiniu": 2561,
      "Ġtikruju": 2562,
      "ikal": 2563,
      "Ġyou": 2564,
      "Ġmis": 2565,
      "ces": 2566,
      "Ġkito": 2567,
      "Ġai": 2568,
      "Ġsriti": 2569,
      "Ġteismu": 2570,
      "cien": 2571,
      "Ġperkel": 2572,
      "pro": 2573,
      "Ġkuriai": 2574,
      "Ġzalos": 2575,
      "04": 2576,
      "iomis": 2577,
      "Ġinterne": 2578,
      "Ġstruk": 2579,
      "Ġnyderland": 2580,
      "rimin": 2581,
      "Ġasmenys": 2582,
      "Ġskaicius": 2583,
      "Ġfa": 2584,
      "tions": 2585,
      "oti": 2586,
      "Ġislaidos": 2587,
      "ncios": 2588,
      "Ġfinansines": 2589,
      "Ġpin": 2590,
      "Ġ197": 2591,
      "Ġkomiteto": 2592,
      "Ġmu": 2593,
      "Ġpastraipa": 2594,
      "Ġnevirs": 2595,
      "intas": 2596,
      "24": 2597,
      "Ġpriimta": 2598,
      "cioji": 2599,
      "Ġpaje": 2600,
      "Ġsustab": 2601,
      "Ġprieme": 2602,
      "ÑĢ": 2603,
      "08": 2604,
      "Ġneig": 2605,
      "Ġelektros": 2606,
      "Ġsanau": 2607,
      "Ġnacionaliniu": 2608,
      "Ġpramone": 2609,
      "amas": 2610,
      "Ġkro": 2611,
      "Ġperdirb": 2612,
      "Ġvalstybems": 2613,
      "Ġtru": 2614,
      "elis": 2615,
      "Ġkriterijus": 2616,
      "Ġdis": 2617,
      "Ġsudaryti": 2618,
      "Ġie": 2619,
      "Ġprimin": 2620,
      "Ġatitinkamos": 2621,
      "Ġvisus": 2622,
      "inamos": 2623,
      "16": 2624,
      "Ġvokietijos": 2625,
      "Ġgai": 2626,
      "Ġec": 2627,
      "era": 2628,
      "Ġinicia": 2629,
      "leidzia": 2630,
      "Ġireg": 2631,
      "Ġzala": 2632,
      "Ġpavo": 2633,
      "inamu": 2634,
      "Ġnereik": 2635,
      "Ġpere": 2636,
      "Ġmes": 2637,
      "Ġzmon": 2638,
      "Ġmil": 2639,
      "Ġisto": 2640,
      "Ġkitoje": 2641,
      "Ġatsk": 2642,
      "Ġieskinys": 2643,
      "Ġtureti": 2644,
      "Ġstra": 2645,
      "vimu": 2646,
      "Ġparamos": 2647,
      "Ġfr": 2648,
      "Ġkyla": 2649,
      "iniam": 2650,
      "Ġdaz": 2651,
      "Ġkodeks": 2652,
      "Ġpasinaudo": 2653,
      "ave": 2654,
      "93": 2655,
      "Ġtyrimu": 2656,
      "Ġsuteikta": 2657,
      "Ġlaikantis": 2658,
      "Ġgeo": 2659,
      "Ġsusipa": 2660,
      "fa": 2661,
      "Ġtreciuju": 2662,
      "Ġivykdy": 2663,
      "Ġam": 2664,
      "Ġbrius": 2665,
      "Ġpakankamai": 2666,
      "gen": 2667,
      "Ġli": 2668,
      "Ġpateis": 2669,
      "Ġkokybes": 2670,
      "Ġskirstymo": 2671,
      "Ġliu": 2672,
      "Ġzmo": 2673,
      "Ġdraudzia": 2674,
      "Ġneati": 2675,
      "Ġaktai": 2676,
      "Ġsusijusio": 2677,
      "Ġlent": 2678,
      "Ġbendriju": 2679,
      "Ġleidziama": 2680,
      "Ġgamintojo": 2681,
      "Ġmeta": 2682,
      "Ġanti": 2683,
      "tinos": 2684,
      "Ġekonom": 2685,
      "Ġtikslais": 2686,
      "timo": 2687,
      "Ġsche": 2688,
      "Ġkonsulta": 2689,
      "Ġbendru": 2690,
      "Ġequi": 2691,
      "Ġiras": 2692,
      "Ġpapunk": 2693,
      "tro": 2694,
      "anciu": 2695,
      "usimas": 2696,
      "Ġpazeidimu": 2697,
      "rijoje": 2698,
      "aliu": 2699,
      "Ġstu": 2700,
      "noma": 2701,
      "Ġirodymu": 2702,
      "Ġpriimtas": 2703,
      "Ġpardavimo": 2704,
      "Ġchar": 2705,
      "uojama": 2706,
      "Ġnetaiko": 2707,
      "rato": 2708,
      "jam": 2709,
      "Ġnarems": 2710,
      "Ġkonkreciai": 2711,
      "Ġkodas": 2712,
      "Ġmuitu": 2713,
      "Ġgaliausiai": 2714,
      "Ġpasiulymas": 2715,
      "Ġfil": 2716,
      "Ġthis": 2717,
      "Ġsarasa": 2718,
      "Ġequity": 2719,
      "uojant": 2720,
      "Ġpoveikis": 2721,
      "tmen": 2722,
      "Ġpenk": 2723,
      "Ġviso": 2724,
      "17": 2725,
      "ciais": 2726,
      "Ġpagrindinio": 2727,
      "Ġreiskia": 2728,
      "Ġprincipa": 2729,
      "rom": 2730,
      "taria": 2731,
      "bes": 2732,
      "tru": 2733,
      "Ġori": 2734,
      "Ġfra": 2735,
      "Ġima": 2736,
      "Ġkuriam": 2737,
      "Ġpagrindine": 2738,
      "Ġeksportuoja": 2739,
      "zio": 2740,
      "Ġgrei": 2741,
      "Ġkonkurencijos": 2742,
      "Ġpakeisti": 2743,
      "25": 2744,
      "Ġgaliojan": 2745,
      "ut": 2746,
      "Ġadres": 2747,
      "Ġrusiu": 2748,
      "Ġwith": 2749,
      "ard": 2750,
      "Ġpavadinimas": 2751,
      "Ġbendrosios": 2752,
      "iju": 2753,
      "Ġvyriausybe": 2754,
      "Ġzenklas": 2755,
      "tiskai": 2756,
      "18": 2757,
      "Ġtvirtina": 2758,
      "Ġneis": 2759,
      "Ġpabaig": 2760,
      "Ĥ¬": 2761,
      "Ġpen": 2762,
      "Ġpasal": 2763,
      "Ġdirekty": 2764,
      "ÑĤ": 2765,
      "Ġstraipsniai": 2766,
      "Ġnepag": 2767,
      "Ġuos": 2768,
      "Ġskiri": 2769,
      "Ġskirtos": 2770,
      "ale": 2771,
      "ÏĦ": 2772,
      "tur": 2773,
      "Ġjungtine": 2774,
      "uoju": 2775,
      "Ġnustatant": 2776,
      "Ġprotokolo": 2777,
      "Ġdalyse": 2778,
      "Ġgyn": 2779,
      "Ġeil": 2780,
      "Ġregion": 2781,
      "Ġsh": 2782,
      "Ġsusijusius": 2783,
      "Ġbaig": 2784,
      "rid": 2785,
      "Ġistaiga": 2786,
      "Ġpripazinti": 2787,
      "Ġgamintoju": 2788,
      "meta": 2789,
      "Ġgele": 2790,
      "tiniais": 2791,
      "Ġipras": 2792,
      "Ġparaiska": 2793,
      "Ġiniciatyv": 2794,
      "Ġklausimas": 2795,
      "Ġproduktas": 2796,
      "Ġnevirsija": 2797,
      "Ġuniv": 2798,
      "Ġkurioms": 2799,
      "Ġfi": 2800,
      "iami": 2801,
      "ph": 2802,
      "inimu": 2803,
      "Ġlaikin": 2804,
      "Ġklausimus": 2805,
      "Ġtinkamai": 2806,
      "lsc": 2807,
      "Ġekonomines": 2808,
      "Ġviesojo": 2809,
      "minio": 2810,
      "od": 2811,
      "miu": 2812,
      "Ġskirting": 2813,
      "Ġcivil": 2814,
      "Ġkvali": 2815,
      "Ġkol": 2816,
      "05": 2817,
      "up": 2818,
      "Ġpagrinda": 2819,
      "Ġnekil": 2820,
      "Ġlaikoma": 2821,
      "Ġdaliu": 2822,
      "Ġslsc": 2823,
      "lau": 2824,
      "nis": 2825,
      "Ġcomp": 2826,
      "Ġegz": 2827,
      "Ġjungtines": 2828,
      "Ġteikimo": 2829,
      "Ġskirtas": 2830,
      "Ġpriemimo": 2831,
      "Ġzuv": 2832,
      "nio": 2833,
      "Ġkontrole": 2834,
      "ĠâĪĴ": 2835,
      "Ġkaralystes": 2836,
      "avimu": 2837,
      "Ġnagrinejamu": 2838,
      "Ġkeliu": 2839,
      "dera": 2840,
      "Ġpasiulymo": 2841,
      "Ġkompetentingos": 2842,
      "ingos": 2843,
      "tosios": 2844,
      "33": 2845,
      "dziai": 2846,
      "Ġpriklaus": 2847,
      "Ġneatsizvelg": 2848,
      "Ġjurisprudencija": 2849,
      "Ġiregistr": 2850,
      "Ġreikalaujama": 2851,
      "Ġtip": 2852,
      "Ġatstovaujama": 2853,
      "Ġnukry": 2854,
      "Ġiden": 2855,
      "Ġisvardy": 2856,
      "Ġpt": 2857,
      "ĠâĤ¬": 2858,
      "oliu": 2859,
      "Ġakto": 2860,
      "Ġdirektyvoje": 2861,
      "Ġpatvirtinimo": 2862,
      "Ġjas": 2863,
      "slin": 2864,
      "Ġsukur": 2865,
      "Ġplu": 2866,
      "Ġtaisykle": 2867,
      "Ġmetai": 2868,
      "Ġteisme": 2869,
      "Ġsumos": 2870,
      "Ġlygia": 2871,
      "lose": 2872,
      "Ġnenuro": 2873,
      "man": 2874,
      "pju": 2875,
      "Ġproble": 2876,
      "iskas": 2877,
      "Ġargumentai": 2878,
      "Ġkainu": 2879,
      "Ġveikimo": 2880,
      "Ġsaugos": 2881,
      "jant": 2882,
      "Ġtreciosios": 2883,
      "Ġporeik": 2884,
      "Î½": 2885,
      "Ġpazymeti": 2886,
      "Ġnagrinejama": 2887,
      "Ġneture": 2888,
      "elb": 2889,
      "Ġnekilno": 2890,
      "Ñģ": 2891,
      "Ġvienos": 2892,
      "Ġ104": 2893,
      "Ġsak": 2894,
      "elyje": 2895,
      "dymo": 2896,
      "Ġrezoliu": 2897,
      "Ġkelio": 2898,
      "cijomis": 2899,
      "Ġbutent": 2900,
      "Ġtvirtin": 2901,
      "Ġsubsid": 2902,
      "Ġpajegu": 2903,
      "Ġkarta": 2904,
      "Ġtipo": 2905,
      "Ġlem": 2906,
      "intu": 2907,
      "Ġgrindziamas": 2908,
      "rant": 2909,
      "Ġnumatytos": 2910,
      "teri": 2911,
      "Ġnebutu": 2912,
      "Ġvarik": 2913,
      "Ġparama": 2914,
      "Ġsias": 2915,
      "lauk": 2916,
      "Ġsusitarimu": 2917,
      "Ġvisuomenes": 2918,
      "Ġivertinti": 2919,
      "yvar": 2920,
      "Ġsertifika": 2921,
      "Ġinstitucijoms": 2922,
      "Ġataskaita": 2923,
      "Ġjokiu": 2924,
      "Ġmokejimo": 2925,
      "Ġvil": 2926,
      "Ġmort": 2927,
      "Ġkoncentra": 2928,
      "des": 2929,
      "vez": 2930,
      "Ġrekomenda": 2931,
      "inami": 2932,
      "Ġneteise": 2933,
      "Ġprireik": 2934,
      "amus": 2935,
      "muoju": 2936,
      "Ġnumatytas": 2937,
      "06": 2938,
      "Ġteisinis": 2939,
      "Ġpakeis": 2940,
      "Ġtarnyba": 2941,
      "Ġtvarkos": 2942,
      "Ġpareigos": 2943,
      "Ġsien": 2944,
      "Ġkitaip": 2945,
      "Ġpadare": 2946,
      "Ġvadovauja": 2947,
      "ininky": 2948,
      "Ġapyvar": 2949,
      "Ġbiudzeto": 2950,
      "Ġ!": 2951,
      "Ġbaudzia": 2952,
      "Ġveng": 2953,
      "Ġbendroviu": 2954,
      "Ġleidimo": 2955,
      "Ġstrateg": 2956,
      "Ġvid": 2957,
      "vyk": 2958,
      "dimas": 2959,
      "Ġuztikrina": 2960,
      "Ġkonf": 2961,
      "Ġiso": 2962,
      "Ġapdoro": 2963,
      "Ġatsisaky": 2964,
      "Ġaust": 2965,
      "Ġnt": 2966,
      "Ġtoki": 2967,
      "Ġsalims": 2968,
      "alios": 2969,
      "bi": 2970,
      "Ġsusijusias": 2971,
      "Ġvertyb": 2972,
      "Ġimo": 2973,
      "pc": 2974,
      "Ġdaryti": 2975,
      "Ġskry": 2976,
      "roje": 2977,
      "Ġnuosavybes": 2978,
      "Ġskyrius": 2979,
      "Ġatskir": 2980,
      "Ġdvieju": 2981,
      "Ġcas": 2982,
      "Ġvartotoju": 2983,
      "Ġsupa": 2984,
      "Ġslo": 2985,
      "Ġgalejo": 2986,
      "Ġpriemonemis": 2987,
      "Ġprincipas": 2988,
      "Ġprasymu": 2989,
      "vidu": 2990,
      "Ġprisi": 2991,
      "cion": 2992,
      "Ġpateiktu": 2993,
      "Ġpatikslin": 2994,
      "ada": 2995,
      "Ġltd": 2996,
      "inant": 2997,
      "Ġleidima": 2998,
      "Ġapibrezta": 2999,
      "Ġminetos": 3000,
      "teisti": 3001,
      "Ġpluos": 3002,
      "Ġvietoje": 3003,
      "Ġpacios": 3004,
      "Ġvaiz": 3005,
      "Ġskundo": 3006,
      "sti": 3007,
      "Ġskelb": 3008,
      "Ġsvar": 3009,
      "Ġesant": 3010,
      "umas": 3011,
      "Ġskiria": 3012,
      "Ġreikalavimas": 3013,
      "Ġlai": 3014,
      "Ġzenklu": 3015,
      "Ġsprendimus": 3016,
      "Ġvandens": 3017,
      "Ġlygmen": 3018,
      "Ġgeograf": 3019,
      "Ġmechaniz": 3020,
      "Ġdalyvauja": 3021,
      "tri": 3022,
      "ear": 3023,
      "rodo": 3024,
      "Ġremdamasi": 3025,
      "Ġpozicijoje": 3026,
      "Ġaf": 3027,
      "Ġtarpus": 3028,
      "Ġregistr": 3029,
      "Ġbuve": 3030,
      "st": 3031,
      "Ġtyrima": 3032,
      "29": 3033,
      "Ġpanaudotu": 3034,
      "Ġmazesne": 3035,
      "Ġpriteisti": 3036,
      "Ġnaujo": 3037,
      "Ïģ": 3038,
      "Ġstatis": 3039,
      "Ġkuriose": 3040,
      "Ġ1998": 3041,
      "Ġantai": 3042,
      "rdt": 3043,
      "ii": 3044,
      "Ġvrdt": 3045,
      "Ġmazesnis": 3046,
      "Ġprates": 3047,
      "ner": 3048,
      "Ġneties": 3049,
      "Ġantras": 3050,
      "Ġlenk": 3051,
      "Ġinfor": 3052,
      "zino": 3053,
      "Ġprincipu": 3054,
      "tvar": 3055,
      "Ġpol": 3056,
      "Ġjiems": 3057,
      "Ġmetais": 3058,
      "Ġneu": 3059,
      "Ġimportuoja": 3060,
      "Ġjus": 3061,
      "vejo": 3062,
      "Ġnaudojami": 3063,
      "Ġelg": 3064,
      "Ġterminas": 3065,
      "Ġnegal": 3066,
      "Ġnepas": 3067,
      "Ġnekilnoja": 3068,
      "Ġdienu": 3069,
      "Ġfinansine": 3070,
      "Ġmed": 3071,
      "Ġnepagris": 3072,
      "leisti": 3073,
      "Ġanalize": 3074,
      "Ġpatikrinti": 3075,
      "cha": 3076,
      "Ġoficialia": 3077,
      "Ġduju": 3078,
      "Ġindividu": 3079,
      "Ġkompensa": 3080,
      "gi": 3081,
      "Ġskundziamo": 3082,
      "Ġlaikomas": 3083,
      "Ġsalyje": 3084,
      "Ġpasirasy": 3085,
      "iskos": 3086,
      "Ġnetiesiog": 3087,
      "Ġpasek": 3088,
      "Ġsusitarian": 3089,
      "Ġvykdymo": 3090,
      "Ġisveng": 3091,
      "Ġsajungoje": 3092,
      "Ġhu": 3093,
      "Ġgu": 3094,
      "alaik": 3095,
      "cinio": 3096,
      "Ġkuo": 3097,
      "34": 3098,
      "Ġgro": 3099,
      "Ġpasik": 3100,
      "ncio": 3101,
      "Ġfinansiniu": 3102,
      "Ġpranesimo": 3103,
      "Ġleisti": 3104,
      "ding": 3105,
      "cht": 3106,
      "gin": 3107,
      "Ġrus": 3108,
      "Ġnaudotis": 3109,
      "Ġorganizacijos": 3110,
      "toji": 3111,
      "laiv": 3112,
      "ioms": 3113,
      "Ġverslo": 3114,
      "Ġreiksmin": 3115,
      "anks": 3116,
      "26": 3117,
      "Ġinfras": 3118,
      "par": 3119,
      "Ġreikalavima": 3120,
      "Ġgaranti": 3121,
      "Ġatg": 3122,
      "Ġid": 3123,
      "tiprin": 3124,
      "Ġkomitetas": 3125,
      "Ġkaltin": 3126,
      "Ġpazeidima": 3127,
      "jusi": 3128,
      "Ġskyriu": 3129,
      "Ġplan": 3130,
      "dels": 3131,
      "guma": 3132,
      "Ġtarptautines": 3133,
      "eji": 3134,
      "Îµ": 3135,
      "Ġnustatan": 3136,
      "Ġgaliojimo": 3137,
      "jimai": 3138,
      "Ġprireikus": 3139,
      "Ġgraik": 3140,
      "Ġthat": 3141,
      "nte": 3142,
      "tor": 3143,
      "Ġefek": 3144,
      "Ġkau": 3145,
      "su": 3146,
      "Ġtinkamu": 3147,
      "Ġpvz": 3148,
      "isko": 3149,
      "Ġph": 3150,
      "Ġpritaiky": 3151,
      "Ġpriezasciu": 3152,
      "Ġatra": 3153,
      "Ġportu": 3154,
      "zija": 3155,
      "Ġnustatymo": 3156,
      "Ġrugpju": 3157,
      "Ġrodik": 3158,
      "Ġry": 3159,
      "Ġpirkimo": 3160,
      "Ġatsakove": 3161,
      "Ġveiksn": 3162,
      "Ġantide": 3163,
      "Ġet": 3164,
      "09": 3165,
      "Ġprancuzijos": 3166,
      "Ġproduktams": 3167,
      "inu": 3168,
      "Ġnepriim": 3169,
      "0000": 3170,
      "pus": 3171,
      "Ġkuriuose": 3172,
      "Ġfrom": 3173,
      "Ġapmokestin": 3174,
      "Ġqu": 3175,
      "Ġniek": 3176,
      "Ġlygio": 3177,
      "igimo": 3178,
      "Ġinfrastruk": 3179,
      "Ġdydzio": 3180,
      "iasi": 3181,
      "leidimo": 3182,
      "Ġtarpusav": 3183,
      "Ġadvokato": 3184,
      "ibu": 3185,
      "Ġrugpjucio": 3186,
      "Ġisduo": 3187,
      "Ġgeri": 3188,
      "Ġantidempingo": 3189,
      "Ġbendradarbiau": 3190,
      "Ġkinijos": 3191,
      "Ġrasy": 3192,
      "Ġbylose": 3193,
      "Ġlaivu": 3194,
      "Ġur": 3195,
      "Ġ220": 3196,
      "Ġgy": 3197,
      "Ġminima": 3198,
      "Ġskyriaus": 3199,
      "Ġpaten": 3200,
      "ano": 3201,
      "Ġitalijos": 3202,
      "ank": 3203,
      "Ġskirsnis": 3204,
      "Ġnuosto": 3205,
      "Ġnyderlandu": 3206,
      "Ġitakos": 3207,
      "Ġnepateik": 3208,
      "Ġpasau": 3209,
      "Ġkreip": 3210,
      "Ġatliekant": 3211,
      "Ġpirmininkas": 3212,
      "istu": 3213,
      "mesi": 3214,
      "27": 3215,
      "timi": 3216,
      "ft": 3217,
      "jimui": 3218,
      "Ġsiomis": 3219,
      "ukan": 3220,
      "Ġekonomikos": 3221,
      "Ġistatymu": 3222,
      "Ġsumazin": 3223,
      "Ġten": 3224,
      "Ġnustatoma": 3225,
      "Ġsch": 3226,
      "Ġsutarciu": 3227,
      "Ġnepais": 3228,
      "uotojo": 3229,
      "meris": 3230,
      "Ġtoje": 3231,
      "Ġlaikotarpis": 3232,
      "ila": 3233,
      "Ġsurink": 3234,
      "Ġkeleiv": 3235,
      "Ġnagrineti": 3236,
      "Ġpauks": 3237,
      "Ġiranga": 3238,
      "uojamas": 3239,
      "Ġapeliacine": 3240,
      "igra": 3241,
      "Ġ~": 3242,
      "Ġkategorija": 3243,
      "Ġbes": 3244,
      "ininku": 3245,
      "Ġproduktus": 3246,
      "Ġare": 3247,
      "anti": 3248,
      "Ġlesu": 3249,
      "Ġsank": 3250,
      "ersi": 3251,
      "Ġskunda": 3252,
      "tam": 3253,
      "Ġmedziaga": 3254,
      "Ġkompetentinga": 3255,
      "Ġpakeitimais": 3256,
      "Ġseimos": 3257,
      "Ġsubjektu": 3258,
      "Ġpaties": 3259,
      "Ġuzsienio": 3260,
      "Ġatme": 3261,
      "Ġkokia": 3262,
      "Ġdeleg": 3263,
      "jaus": 3264,
      "Ġpanaikinimo": 3265,
      "Ġsavai": 3266,
      "Ġteikia": 3267,
      "Ġklausimo": 3268,
      "Ġ040": 3269,
      "amosios": 3270,
      "Ġpalukan": 3271,
      "Ġirodyti": 3272,
      "Ġkeiciamas": 3273,
      "Ġ030": 3274,
      "Ġce": 3275,
      "Ġzenkla": 3276,
      "Ġremtis": 3277,
      "Ġtinkama": 3278,
      "fo": 3279,
      "Ġprieda": 3280,
      "Ġstebe": 3281,
      "alus": 3282,
      "Ġprasme": 3283,
      "Ġsusipazinti": 3284,
      "Ġkonstatuojamojoje": 3285,
      "Ġpriestarau": 3286,
      "31": 3287,
      "Ġperdavimo": 3288,
      "Ġerd": 3289,
      "Ġkontroliuo": 3290,
      "Ġorlaiv": 3291,
      "Ġlauk": 3292,
      "ures": 3293,
      "Ġportug": 3294,
      "Ġsistemu": 3295,
      "Ġleidinyje": 3296,
      "Ġisiste": 3297,
      "Ġpaprastai": 3298,
      "wa": 3299,
      "Ġjurid": 3300,
      "Ġtrukme": 3301,
      "Ġtenk": 3302,
      "Ġnurodoma": 3303,
      "Ġvertus": 3304,
      "ziant": 3305,
      "Ġuztikrinimo": 3306,
      "Ġisigalioja": 3307,
      "Ġpatenk": 3308,
      "Ġpatvirtina": 3309,
      "ori": 3310,
      "Ġrx": 3311,
      "Ġskaitmen": 3312,
      "one": 3313,
      "Ġvykdant": 3314,
      "Ġisaisk": 3315,
      "Ġdvi": 3316,
      "Ġ107": 3317,
      "intos": 3318,
      "Ġpapildoma": 3319,
      "nos": 3320,
      "ibaig": 3321,
      "Ġpozicija": 3322,
      "Ġpolitika": 3323,
      "Ġnaudojant": 3324,
      "Ġpastabas": 3325,
      "Ġkr": 3326,
      "Ġate": 3327,
      "Ġvertinima": 3328,
      "Ġklas": 3329,
      "Ġcukraus": 3330,
      "Ġpunktu": 3331,
      "Ġapibu": 3332,
      "aldy": 3333,
      "he": 3334,
      "Ġieskovas": 3335,
      "Ġkoor": 3336,
      "Ġginc": 3337,
      "Ġdra": 3338,
      "Î¿Ï": 3339,
      "Ġpajamu": 3340,
      "Ġkonkreciu": 3341,
      "Ġpateikimo": 3342,
      "tyse": 3343,
      "Ġfinansavimo": 3344,
      "Ġpaskirties": 3345,
      "Ġnauju": 3346,
      "Ġatsakyti": 3347,
      "ininkystes": 3348,
      "Ġimportuo": 3349,
      "tuju": 3350,
      "Ġgelez": 3351,
      "Ġpazeidimas": 3352,
      "Ġaplinkybiu": 3353,
      "pil": 3354,
      "Ġatk": 3355,
      "Ġpasiekti": 3356,
      "yg": 3357,
      "riais": 3358,
      "rezia": 3359,
      "umu": 3360,
      "Ġdidziausia": 3361,
      "Ġtrump": 3362,
      "tros": 3363,
      "Ġpozicijai": 3364,
      "Ġpripazista": 3365,
      "Ġbank": 3366,
      "Ġtapa": 3367,
      "Ġnusikal": 3368,
      "Ġatitinkamas": 3369,
      "Ġbg": 3370,
      "Ġaud": 3371,
      "Ġoficialiajame": 3372,
      "Ġ101": 3373,
      "Ġreguliavimo": 3374,
      "Ġautoma": 3375,
      "Ġklien": 3376,
      "Ġkonstatuojamosios": 3377,
      "Ġnumeris": 3378,
      "Ġpaskelbimo": 3379,
      "Ġvokietija": 3380,
      "bs": 3381,
      "Ġimonems": 3382,
      "reigo": 3383,
      "int": 3384,
      "Ġpasko": 3385,
      "Ġmedic": 3386,
      "Ġispanijos": 3387,
      "van": 3388,
      "Ġtemp": 3389,
      "Ġbaudos": 3390,
      "Ġteisine": 3391,
      "Ġtokie": 3392,
      "ciavimo": 3393,
      "Ġstraipsnius": 3394,
      "Ġlaikomasi": 3395,
      "Ġty": 3396,
      "Ġnedels": 3397,
      "lines": 3398,
      "jimus": 3399,
      "Ġmok": 3400,
      "cinis": 3401,
      "Ġprad": 3402,
      "tybes": 3403,
      "iaus": 3404,
      "ido": 3405,
      "ther": 3406,
      "luo": 3407,
      "Ġperduo": 3408,
      "Ġakivaiz": 3409,
      "Ð»": 3410,
      "Ġlygiaver": 3411,
      "Ġpirmiau": 3412,
      "Ġkitus": 3413,
      "ystes": 3414,
      "Ġlietuviu": 3415,
      "Ġlentele": 3416,
      "Ġlengva": 3417,
      "Ġbr": 3418,
      "ikai": 3419,
      "Ġformos": 3420,
      "Ġmoky": 3421,
      "vel": 3422,
      "Ġbul": 3423,
      "Ġspecialusis": 3424,
      "Ġpriestara": 3425,
      "inko": 3426,
      "Ġ020": 3427,
      "Ġnustatomos": 3428,
      "Ġpalyginti": 3429,
      "Ġploks": 3430,
      "Ġnurodytus": 3431,
      "Ġlig": 3432,
      "Ġasociacijos": 3433,
      "ona": 3434,
      "riams": 3435,
      "Ġgb": 3436,
      "Ġsveica": 3437,
      "Ġuniversi": 3438,
      "Ġtada": 3439,
      "Ġisdestyta": 3440,
      "Ġpasiulyma": 3441,
      "ds": 3442,
      "Ġtaikymas": 3443,
      "Ġvalstybei": 3444,
      "Ġapeliacinio": 3445,
      "Ġgrazin": 3446,
      "ite": 3447,
      "taus": 3448,
      "Ġnumatyti": 3449,
      "Ġsumazinti": 3450,
      "Ġasmeniui": 3451,
      "Ġsocialines": 3452,
      "Ġnacionalinis": 3453,
      "60": 3454,
      "Ġbendrija": 3455,
      "Ġobjektyv": 3456,
      "Ġaugalu": 3457,
      "Ġkodekso": 3458,
      "Ġstraipsniuose": 3459,
      "Ġelges": 3460,
      "rint": 3461,
      "Ġteritorijos": 3462,
      "Ġpranesa": 3463,
      "aky": 3464,
      "Ġdie": 3465,
      "tiko": 3466,
      "Ġitais": 3467,
      "Ġpaciu": 3468,
      "Ġop": 3469,
      "Ġsg": 3470,
      "lek": 3471,
      "mosi": 3472,
      "Ġthes": 3473,
      "Ġdiskrimin": 3474,
      "Ġchartijos": 3475,
      "Ġteksti": 3476,
      "nce": 3477,
      "Ġmaster": 3478,
      "Ġsufor": 3479,
      "Ġsvarbus": 3480,
      "Ġpasinaudoti": 3481,
      "toriai": 3482,
      "Ġpanasus": 3483,
      "Ġalie": 3484,
      "Ġteisines": 3485,
      "Ġanksciau": 3486,
      "loa": 3487,
      "Ġmeg": 3488,
      "enta": 3489,
      "Ġisigaliojimo": 3490,
      "Ġagentura": 3491,
      "iniame": 3492,
      "mar": 3493,
      "Ġinvesticiju": 3494,
      "idro": 3495,
      "Ġ1994": 3496,
      "Ġpats": 3497,
      "Ġnl": 3498,
      "Ġsiam": 3499,
      "eli": 3500,
      "Ġdalyvauti": 3501,
      "Ġq": 3502,
      "Ġnaudojimas": 3503,
      "munika": 3504,
      "Ġstaty": 3505,
      "Ġyour": 3506,
      "Ġdidele": 3507,
      "reak": 3508,
      "Ġprievo": 3509,
      "Ġpirmojo": 3510,
      "esni": 3511,
      "Ġpriesingai": 3512,
      "Ġklaida": 3513,
      "efi": 3514,
      "Ġveiksmus": 3515,
      "ins": 3516,
      "Ġatsakomybe": 3517,
      "Ġlaivo": 3518,
      "Ġmase": 3519,
      "ijoje": 3520,
      "Ġdalykas": 3521,
      "jes": 3522,
      "Ġwe": 3523,
      "Ġsumaz": 3524,
      "para": 3525,
      "ores": 3526,
      "ww": 3527,
      "Ġnuomon": 3528,
      "Ġpasibaig": 3529,
      "Ġpletros": 3530,
      "Ġatstovaujamos": 3531,
      "Ġsiais": 3532,
      "Ġpatron": 3533,
      "Ġkam": 3534,
      "Ġlaisve": 3535,
      "Ġsritis": 3536,
      "Ġpozy": 3537,
      "Ġabejo": 3538,
      "Ġnustatytus": 3539,
      "Ġeksploa": 3540,
      "Ġpriminti": 3541,
      "Ġaiskinti": 3542,
      "Ġdokumentus": 3543,
      "Ġminetas": 3544,
      "Ġgelezink": 3545,
      "Ġkonstatuoti": 3546,
      "Ġnegu": 3547,
      "we": 3548,
      "vid": 3549,
      "yste": 3550,
      "Ġmodel": 3551,
      "piu": 3552,
      "pon": 3553,
      "Ġbriuselyje": 3554,
      "Ġpastraipoje": 3555,
      "Ġprivalomas": 3556,
      "35": 3557,
      "Ġmedi": 3558,
      "Ġtokiomis": 3559,
      "Ġkitais": 3560,
      "Ġprekyba": 3561,
      "Ġeilu": 3562,
      "Ġregistracijos": 3563,
      "cioje": 3564,
      "Ġatsar": 3565,
      "Ġvisose": 3566,
      "Ġfedera": 3567,
      "ff": 3568,
      "Ġsvie": 3569,
      "Ġlin": 3570,
      "Ġgincijamas": 3571,
      "Ġ207": 3572,
      "Ġcpc": 3573,
      "Ġviene": 3574,
      "38": 3575,
      "Ġkiekvienos": 3576,
      "Ġsvies": 3577,
      "28": 3578,
      "Ġrastu": 3579,
      "Ġpateiktos": 3580,
      "Ġapribojimu": 3581,
      "Ġpastraipos": 3582,
      "Ġmt": 3583,
      "Ġpadengti": 3584,
      "riniai": 3585,
      "37": 3586,
      "39": 3587,
      "Ġisanks": 3588,
      "Ġdydis": 3589,
      "Ġuzduo": 3590,
      "Ġeksper": 3591,
      "Ġataskaitos": 3592,
      "Ġpens": 3593,
      "Â°": 3594,
      "Ġkiekio": 3595,
      "Ġgrand": 3596,
      "Ġinc": 3597,
      "Ġpoky": 3598,
      "Ġpriskir": 3599,
      "Ġtikro": 3600,
      "Ġpoziuriu": 3601,
      "Ġatlieku": 3602,
      "ree": 3603,
      "Ġketu": 3604,
      "tive": 3605,
      "idas": 3606,
      "Ð²": 3607,
      "ike": 3608,
      "Ġkriteriju": 3609,
      "Ġben": 3610,
      "mams": 3611,
      "Ġpaze": 3612,
      "Ġskaiciu": 3613,
      "Ġtikslus": 3614,
      "Ġprocen": 3615,
      "ben": 3616,
      "Ġ300": 3617,
      "Ġpagristas": 3618,
      "ciams": 3619,
      "Ġgraz": 3620,
      "Ġsuteikia": 3621,
      "Ġremdamasis": 3622,
      "teris": 3623,
      "op": 3624,
      "Ġleidimu": 3625,
      "Ġskaid": 3626,
      "sto": 3627,
      "Ġfin": 3628,
      "vis": 3629,
      "Ġprotes": 3630,
      "Ġteritorija": 3631,
      "Ġ112": 3632,
      "Ġnaudojamas": 3633,
      "esnes": 3634,
      "Ġpateikiama": 3635,
      "Ġatitikties": 3636,
      "Ġtal": 3637,
      "Ġatitikti": 3638,
      "Ġwww": 3639,
      "Ġlabiau": 3640,
      "Ġkul": 3641,
      "cho": 3642,
      "pp": 3643,
      "Ġgalutinis": 3644,
      "Ġisnas": 3645,
      "Ġitraukti": 3646,
      "ciam": 3647,
      "Ġ\\": 3648,
      "Ġpradeti": 3649,
      "Ġjuru": 3650,
      "pin": 3651,
      "eficien": 3652,
      "Ġkoeficien": 3653,
      "Î·": 3654,
      "Ġcy": 3655,
      "Ġminetu": 3656,
      "Ġinform": 3657,
      "Ġmenesiu": 3658,
      "Ġnuostatomis": 3659,
      "Ġ196": 3660,
      "ler": 3661,
      "Ġtarnau": 3662,
      "miems": 3663,
      "Ġtechnines": 3664,
      "Ġpelno": 3665,
      "Ġkieki": 3666,
      "Ġeurope": 3667,
      "amuju": 3668,
      "Ġaudito": 3669,
      "Ġ080": 3670,
      "Ġreiksme": 3671,
      "Ġgim": 3672,
      "Ġpateiktus": 3673,
      "Ġnepaisant": 3674,
      "Ġnas": 3675,
      "Ġrysio": 3676,
      "Ġha": 3677,
      "Ġrusis": 3678,
      "Ġvartoja": 3679,
      "Ġpabaigos": 3680,
      "reto": 3681,
      "Ġrinkai": 3682,
      "Ġpadaryta": 3683,
      "Ġsusitik": 3684,
      "Ġ115": 3685,
      "Ġtranspor": 3686,
      "Ġ1997": 3687,
      "Ġviesuju": 3688,
      "Ġgero": 3689,
      "Ġministe": 3690,
      "Ġpatronuoja": 3691,
      "Ġmal": 3692,
      "Ġjudejimo": 3693,
      "dien": 3694,
      "Ġmy": 3695,
      "Ġturtu": 3696,
      "dav": 3697,
      "Ġxx": 3698,
      "Ġpareigas": 3699,
      "Ġasign": 3700,
      "Ġvadovaujantis": 3701,
      "36": 3702,
      "Ġinstitucijai": 3703,
      "Ġadministracine": 3704,
      "Ġatrank": 3705,
      "Ġdempingo": 3706,
      "Ġnetaikomas": 3707,
      "Ġ1996": 3708,
      "Ġsubjektai": 3709,
      "Ġpazeidzia": 3710,
      "Ġpareiksti": 3711,
      "vin": 3712,
      "Ġgar": 3713,
      "forma": 3714,
      "Ġ125": 3715,
      "Ġaktuose": 3716,
      "Ġpala": 3717,
      "Ġvam": 3718,
      "Ġpinigu": 3719,
      "Ġinas": 3720,
      "Ġnaujas": 3721,
      "Ġargumentus": 3722,
      "Ġprasoma": 3723,
      "hol": 3724,
      "Ġeuipo": 3725,
      "Ġgavo": 3726,
      "ĠâĢĿ": 3727,
      "Ġlaisves": 3728,
      "Ġzuvu": 3729,
      "Ġapmokestina": 3730,
      "Ġidentifik": 3731,
      "Ġklausimai": 3732,
      "Ġvo": 3733,
      "Ġprielaid": 3734,
      "Ġprocesas": 3735,
      "Ġperk": 3736,
      "Ġjokios": 3737,
      "Ġvykdoma": 3738,
      "Ġlaikytis": 3739,
      "Ġpavar": 3740,
      "reip": 3741,
      "Ġvadov": 3742,
      "rinio": 3743,
      "zdziai": 3744,
      "Ġismeta": 3745,
      "Ġ2022": 3746,
      "Ġtekstiles": 3747,
      "Ġveze": 3748,
      "Ġaktyv": 3749,
      "inei": 3750,
      "dzius": 3751,
      "ges": 3752,
      "ciomis": 3753,
      "44": 3754,
      "Ġpartner": 3755,
      "Ġdeklaracija": 3756,
      "tasis": 3757,
      "em": 3758,
      "lan": 3759,
      "Ġportugali": 3760,
      "Ġrysiu": 3761,
      "Ġlaika": 3762,
      "Ġpakar": 3763,
      "Ġismokos": 3764,
      "Ġduomenimis": 3765,
      "ininkas": 3766,
      "Ġatide": 3767,
      "Ġdiza": 3768,
      "Ġrajo": 3769,
      "gaus": 3770,
      "Ġnagrinejamos": 3771,
      "Ġzalia": 3772,
      "ÅĤ": 3773,
      "Ġdarzo": 3774,
      "jamas": 3775,
      "kse": 3776,
      "Ġweb": 3777,
      "Ġjoje": 3778,
      "Ġivairiu": 3779,
      "igh": 3780,
      "reng": 3781,
      "Ġstebes": 3782,
      "Ġgrie": 3783,
      "Ġtermino": 3784,
      "Ġuzb": 3785,
      "pozi": 3786,
      "yl": 3787,
      "Ġpadarytais": 3788,
      "ieciu": 3789,
      "Ġpranesima": 3790,
      "uotes": 3791,
      "Ġkor": 3792,
      "Ġaprasymas": 3793,
      "Ġaktas": 3794,
      "Ġjoms": 3795,
      "arank": 3796,
      "Ġpie": 3797,
      "Ġpatvirtinti": 3798,
      "Ġlygi": 3799,
      "Ġbendrijoje": 3800,
      "cioms": 3801,
      "Ġsin": 3802,
      "Ġalko": 3803,
      "Ġapribo": 3804,
      "Ġsiekia": 3805,
      "Ġ#": 3806,
      "Ġproporcingumo": 3807,
      "Ġpik": 3808,
      "Ġsujung": 3809,
      "Ġapmokestinimo": 3810,
      "Ġirasy": 3811,
      "Ġisduoti": 3812,
      "Ġ108": 3813,
      "imta": 3814,
      "tino": 3815,
      "kti": 3816,
      "Ġpasikei": 3817,
      "Ġapara": 3818,
      "Ġdaugiausia": 3819,
      "Ġmuito": 3820,
      "zimas": 3821,
      "Ġhr": 3822,
      "lios": 3823,
      "Ġtikslo": 3824,
      "Ġprietais": 3825,
      "Ġsavarank": 3826,
      "Ġpapildomas": 3827,
      "Ġkoordin": 3828,
      "Ġtiekimo": 3829,
      "Ġ1995": 3830,
      "Ïĥ": 3831,
      "yboje": 3832,
      "Ġkonvencija": 3833,
      "ĠÕ": 3834,
      "Ġnumatytu": 3835,
      "bra": 3836,
      "Ġpagrista": 3837,
      "Ġlaikino": 3838,
      "ans": 3839,
      "Ġatvejus": 3840,
      "Ġkategorijos": 3841,
      "Ġtikslin": 3842,
      "Ġkiekvieno": 3843,
      "Ġsiaures": 3844,
      "Ġpadaryti": 3845,
      "Ġveiksmai": 3846,
      "Ġderyb": 3847,
      "Ġvaik": 3848,
      "Ġparlamentas": 3849,
      "Ġnemo": 3850,
      "uojami": 3851,
      "Ġpagrindai": 3852,
      "Ġspecif": 3853,
      "Ġeksportuo": 3854,
      "mbh": 3855,
      "Ġfaktines": 3856,
      "tavo": 3857,
      "Ġworks": 3858,
      "Ġyear": 3859,
      "Ġ500": 3860,
      "Ġklausimais": 3861,
      "Ġlaikomi": 3862,
      "Ġnaudojamos": 3863,
      "Ġnustatomas": 3864,
      "Ġvisiems": 3865,
      "nus": 3866,
      "Ġlaikyti": 3867,
      "Ġadministracines": 3868,
      "Ġatvyk": 3869,
      "Ġtermina": 3870,
      "Ġspecifika": 3871,
      "teks": 3872,
      "Ġzmogaus": 3873,
      "Ġtir": 3874,
      "Ġbauda": 3875,
      "Ġmais": 3876,
      "Ġmanau": 3877,
      "Ġisnagrineti": 3878,
      "Ġ105": 3879,
      "Ġgmbh": 3880,
      "Ġsvarbu": 3881,
      "Ġkitai": 3882,
      "ijo": 3883,
      "Ġnegalio": 3884,
      "Ġdk": 3885,
      "Ġrusies": 3886,
      "ijai": 3887,
      "Ġisreik": 3888,
      "Ġkitomis": 3889,
      "45": 3890,
      "Ġisores": 3891,
      "Ġskil": 3892,
      "Ġkliu": 3893,
      "Ġvandenys": 3894,
      "inemis": 3895,
      "ction": 3896,
      "Ġpazymetina": 3897,
      "Ġekonomine": 3898,
      "teles": 3899,
      "Ġlib": 3900,
      "tinei": 3901,
      "Ġpriedu": 3902,
      "Ġigyvendinant": 3903,
      "un": 3904,
      "95": 3905,
      "Ġplieno": 3906,
      "kyri": 3907,
      "Ġintel": 3908,
      "Ġauk": 3909,
      "mber": 3910,
      "Ġnuomones": 3911,
      "Ġos": 3912,
      "Ġviesosios": 3913,
      "ymo": 3914,
      "Ġskirsnio": 3915,
      "Ġtekstas": 3916,
      "rasti": 3917,
      "Ġveikian": 3918,
      "Ġteisiniu": 3919,
      "Ġund": 3920,
      "Ġismoku": 3921,
      "ber": 3922,
      "Ġbud": 3923,
      "Ġpieno": 3924,
      "Ġatsira": 3925,
      "Ġzin": 3926,
      "Ġisvengti": 3927,
      "Ġpilieciu": 3928,
      "Ġatrodo": 3929,
      "Ġpapildomu": 3930,
      "Ġtaikomu": 3931,
      "Ġcons": 3932,
      "Ġpripazinimo": 3933,
      "Ġdydi": 3934,
      "46": 3935,
      "Ġcan": 3936,
      "Ġefektyv": 3937,
      "ws": 3938,
      "Ġmateri": 3939,
      "Ġsprendimai": 3940,
      "Ġcar": 3941,
      "mio": 3942,
      "Ġapsaugoti": 3943,
      "Ġ106": 3944,
      "Ġgry": 3945,
      "Ġatsakomybes": 3946,
      "Ġrezoliucine": 3947,
      "Ðº": 3948,
      "Ġcz": 3949,
      "Ġparu": 3950,
      "Ġsen": 3951,
      "Ġsubjektas": 3952,
      "Ġsudarymo": 3953,
      "maja": 3954,
      "47": 3955,
      "Ġpranesimas": 3956,
      "asi": 3957,
      "Ġsvedi": 3958,
      "ved": 3959,
      "Ġipareigoj": 3960,
      "Ġtris": 3961,
      "Ġgeneralinis": 3962,
      "Ġnume": 3963,
      "Ġpriedel": 3964,
      "Ġsul": 3965,
      "ture": 3966,
      "Ġdokumentai": 3967,
      "Ġinterna": 3968,
      "Ġangl": 3969,
      "Ġsarasas": 3970,
      "vy": 3971,
      "Ġbendrai": 3972,
      "Ġmoksliniu": 3973,
      "Ġnepakanka": 3974,
      "Ġirangos": 3975,
      "Ġsumoketi": 3976,
      "Ġgauna": 3977,
      "Ġsektoriuje": 3978,
      "Ġpost": 3979,
      "Ġproceduras": 3980,
      "Ġivez": 3981,
      "Ġbuv": 3982,
      "Ġteisinio": 3983,
      "onen": 3984,
      "om": 3985,
      "mbur": 3986,
      "Ġinteresu": 3987,
      "Ġdiv": 3988,
      "Ġmokestis": 3989,
      "Ġpasto": 3990,
      "Ġpareiske": 3991,
      "Ġprekems": 3992,
      "Ġtaria": 3993,
      "Ġtarpusavio": 3994,
      "Ġpareigunu": 3995,
      "Ġatsizvelgiama": 3996,
      "Ġkrov": 3997,
      "Ġmokslin": 3998,
      "Ġdiskre": 3999,
      "ric": 4000,
      "Ġsrities": 4001,
      "mobil": 4002,
      "Ġmus": 4003,
      "Ġcm": 4004,
      "lar": 4005,
      "Ġkonfiden": 4006,
      "Ġstabil": 4007,
      "Ġvak": 4008,
      "58": 4009,
      "Ġparduo": 4010,
      "inus": 4011,
      "Ġik": 4012,
      "sc": 4013,
      "Ġjurisdikcija": 4014,
      "Ġpoziurio": 4015,
      "Ġpatek": 4016,
      "Ġtinklo": 4017,
      "ciojo": 4018,
      "Ġuzmokes": 4019,
      "Ġdokumentais": 4020,
      "Ġpreven": 4021,
      "Ġlygmeniu": 4022,
      "Ġdatos": 4023,
      "Ġislaiky": 4024,
      "Ġdarbdav": 4025,
      "Ġplauk": 4026,
      "Ġmazia": 4027,
      "Ġair": 4028,
      "Ġprancuzija": 4029,
      "Ġtau": 4030,
      "terin": 4031,
      "tybe": 4032,
      "ijas": 4033,
      "Ġmomen": 4034,
      "ries": 4035,
      "tinemis": 4036,
      "Ġvirsija": 4037,
      "Ġteikiama": 4038,
      "ksembur": 4039,
      "Ġlv": 4040,
      "Ġpazymejo": 4041,
      "ferenc": 4042,
      "Ġtie": 4043,
      "Ġsep": 4044,
      "Ġzymen": 4045,
      "nal": 4046,
      "Ġtike": 4047,
      "Ġreal": 4048,
      "taty": 4049,
      "Ġpraktikos": 4050,
      "Ġtarybai": 4051,
      "Ġiz": 4052,
      "Ġkompetencija": 4053,
      "Ġnuspresti": 4054,
      "Ġliuksembur": 4055,
      "Ġdirbiniai": 4056,
      "Ġgyventi": 4057,
      "Ġzuvininkystes": 4058,
      "Ġsituacija": 4059,
      "iuose": 4060,
      "Ġnagrinejamas": 4061,
      "Ġrekla": 4062,
      "Ġtikros": 4063,
      "rumo": 4064,
      "Ġneuz": 4065,
      "Ġsku": 4066,
      "Ġsaliai": 4067,
      "41": 4068,
      "Ġkoks": 4069,
      "Ġthesis": 4070,
      "Ġpirmaji": 4071,
      "Ġparuos": 4072,
      "Ġsuinteresuotos": 4073,
      "Ġantros": 4074,
      "ebreak": 4075,
      "Ġpagebreak": 4076,
      "Ġnorint": 4077,
      "Ġprojekto": 4078,
      "Ġprieziura": 4079,
      "Ġlietuvos": 4080,
      "Ġbanku": 4081,
      "iskumo": 4082,
      "Ġnormos": 4083,
      "Ġzmoniu": 4084,
      "Ġteisetu": 4085,
      "Ġzod": 4086,
      "Ġkop": 4087,
      "Ġpriori": 4088,
      "Ġgamintojai": 4089,
      "Ġkolek": 4090,
      "Ġneturetu": 4091,
      "Ġmany": 4092,
      "Ġmenesius": 4093,
      "Ġidarb": 4094,
      "Ġpm": 4095,
      "ice": 4096,
      "ell": 4097,
      "Ġanalo": 4098,
      "Ġkry": 4099,
      "Ġigy": 4100,
      "Ġavia": 4101,
      "Ġbrand": 4102,
      "ancios": 4103,
      "zeid": 4104,
      "Ġ1993": 4105,
      "tasi": 4106,
      "Ġvaliu": 4107,
      "lik": 4108,
      "Ġpertvar": 4109,
      "Ġ0001": 4110,
      "Ġpacia": 4111,
      "Ġimanoma": 4112,
      "Ġkarto": 4113,
      "Ġskatinti": 4114,
      "Ġdraudziama": 4115,
      "Ġreikalavimo": 4116,
      "Ġnaujos": 4117,
      "tre": 4118,
      "pas": 4119,
      "Ġieskovo": 4120,
      "Ġfondo": 4121,
      "32": 4122,
      "ÏĢ": 4123,
      "Ġmokymo": 4124,
      "Ġkonkurso": 4125,
      "Ġiregistruoti": 4126,
      "Ġsuteikiama": 4127,
      "Ġpasiulymu": 4128,
      "Ġekonomin": 4129,
      "Ġstatusa": 4130,
      "Ġprekiau": 4131,
      "Ġurl": 4132,
      "Ġnaudojama": 4133,
      "Ġskirsnyje": 4134,
      "Ġcek": 4135,
      "Ġprieg": 4136,
      "Ġatskirai": 4137,
      "Ġ102": 4138,
      "timas": 4139,
      "Ġatlieka": 4140,
      "tineje": 4141,
      "Ġiniciatyva": 4142,
      "Ġnukrypti": 4143,
      "Ġformul": 4144,
      "Ġisipareigojimai": 4145,
      "Ġperkan": 4146,
      "Ġteiseje": 4147,
      "Ġvienodo": 4148,
      "Ġvaisiu": 4149,
      "Ġsla": 4150,
      "Ġveiksminga": 4151,
      "Ġinternational": 4152,
      "Ġsrau": 4153,
      "pl": 4154,
      "Ġnustate": 4155,
      "91": 4156,
      "Ġstiprin": 4157,
      "Ġatsizvelgdamas": 4158,
      "Ġpagristi": 4159,
      "Ġorganizacija": 4160,
      "77": 4161,
      "Ġdiskrimina": 4162,
      "Ġabie": 4163,
      "tv": 4164,
      "Ġ103": 4165,
      "ich": 4166,
      "Ġnema": 4167,
      "Ġalyv": 4168,
      "Ġmokesti": 4169,
      "Ġnuorodos": 4170,
      "Ġsiai": 4171,
      "kal": 4172,
      "terna": 4173,
      "Ġgrindziama": 4174,
      "Ġnatur": 4175,
      "Ġstatuso": 4176,
      "Ġez": 4177,
      "Ġpakeitimo": 4178,
      "Ġtarptautiniu": 4179,
      "Ġlaikotarpiui": 4180,
      "Ġitalija": 4181,
      "Ġsutik": 4182,
      "Ġturtas": 4183,
      "Ġ1992": 4184,
      "Ġrieb": 4185,
      "Ġketvirta": 4186,
      "Ġtikras": 4187,
      "Ġpadetis": 4188,
      "Ġvair": 4189,
      "Ġgriez": 4190,
      "Ġrank": 4191,
      "Ġdraud": 4192,
      "Ġpazymi": 4193,
      "Ġkilo": 4194,
      "Ġveis": 4195,
      "Ġegzis": 4196,
      "55": 4197,
      "Ġstik": 4198,
      "Ġbelgijos": 4199,
      "ntys": 4200,
      "Ġpapildomos": 4201,
      "Ġmoka": 4202,
      "Ġaktais": 4203,
      "Ġgamintojas": 4204,
      "Ġmokslo": 4205,
      "Ġer": 4206,
      "Ġinteg": 4207,
      "Ġnepazeid": 4208,
      "Ġgeneralinio": 4209,
      "Ġtechniniu": 4210,
      "Ġgres": 4211,
      "Ġanalog": 4212,
      "Ġmies": 4213,
      "Ġsukuri": 4214,
      "Ġveiklai": 4215,
      "Ġtuos": 4216,
      "Ġpagrindiniai": 4217,
      "Ġissaug": 4218,
      "Ġnurodyto": 4219,
      "Ġreda": 4220,
      "Ġschema": 4221,
      "Ġjais": 4222,
      "inamojo": 4223,
      "Ġagenturos": 4224,
      "Ġnegalejo": 4225,
      "Ġdarbuotojai": 4226,
      "Ġilgalaik": 4227,
      "Ġmetoda": 4228,
      "Ġrinku": 4229,
      "Ġvykdan": 4230,
      "Ġtame": 4231,
      "Ġdaugiame": 4232,
      "uojamos": 4233,
      "Ġnesa": 4234,
      "Ġservi": 4235,
      "Ġgaires": 4236,
      "Ġ}": 4237,
      "tnau": 4238,
      "Ġnot": 4239,
      "Ġpobudi": 4240,
      "ana": 4241,
      "nia": 4242,
      "Ġpriskiriamu": 4243,
      "Ġelektroniniu": 4244,
      "Ġtaikyma": 4245,
      "and": 4246,
      "Ġjurisdikcijos": 4247,
      "Ġ{": 4248,
      "Ġpaveik": 4249,
      "Ġpastabos": 4250,
      "Ġaiskinamas": 4251,
      "Ġperziuros": 4252,
      "ny": 4253,
      "Ġgaminiu": 4254,
      "Ġgincijamame": 4255,
      "Ġnarei": 4256,
      "fon": 4257,
      "Ġisplauk": 4258,
      "Ġbri": 4259,
      "Ġstatybos": 4260,
      "Ġviz": 4261,
      "Ġbaz": 4262,
      "dyta": 4263,
      "Ġkonkurencija": 4264,
      "Ġsug": 4265,
      "Ġnenuma": 4266,
      "Ġkvalifik": 4267,
      "Ġteisingai": 4268,
      "Ġapibud": 4269,
      "Ġnorve": 4270,
      "Ġremiasi": 4271,
      "Ġnesusi": 4272,
      "Ġskaicia": 4273,
      "zima": 4274,
      "Ġneat": 4275,
      "Ġapskri": 4276,
      "valstyb": 4277,
      "osto": 4278,
      "Ġnagrinejant": 4279,
      "Ġprogramu": 4280,
      "Ġchara": 4281,
      "Ġalterna": 4282,
      "Ġtokius": 4283,
      "geri": 4284,
      "Ġveikia": 4285,
      "tiz": 4286,
      "Ġ110": 4287,
      "ejus": 4288,
      "nel": 4289,
      "Ġher": 4290,
      "Ġwil": 4291,
      "Ġisnasoje": 4292,
      "Ġgynyba": 4293,
      "Ġpiktnau": 4294,
      "Ġjokio": 4295,
      "Ġlenkijos": 4296,
      "ha": 4297,
      "Ġanglu": 4298,
      "Ġaiskinama": 4299,
      "ĠâĢ¢": 4300,
      "uose": 4301,
      "red": 4302,
      "Ġpersonal": 4303,
      "Ġsc": 4304,
      "Ġtaikytina": 4305,
      "Ġvii": 4306,
      "rinis": 4307,
      "Ġautomobil": 4308,
      "Ġklasifikuojamu": 4309,
      "Ġfinansinio": 4310,
      "Ġbar": 4311,
      "Ġpaslauga": 4312,
      "Ġspresti": 4313,
      "Ġpavyz": 4314,
      "Ġsavinin": 4315,
      "tike": 4316,
      "nius": 4317,
      "Ġparas": 4318,
      "Ġnetaiky": 4319,
      "Ġinte": 4320,
      "Ġdir": 4321,
      "Ġrezultatu": 4322,
      "Ġkompetencijos": 4323,
      "Ġatitinkamo": 4324,
      "Ġsustabdyti": 4325,
      "janciu": 4326,
      "Ġintelek": 4327,
      "dd": 4328,
      "ietimo": 4329,
      "Ġinfrastrukturos": 4330,
      "Ġaplinkai": 4331,
      "Ġypating": 4332,
      "Ġmag": 4333,
      "Ġnaudos": 4334,
      "Ġizo": 4335,
      "Ġwa": 4336,
      "snis": 4337,
      "kles": 4338,
      "Ġsiekdama": 4339,
      "Ġismoka": 4340,
      "roma": 4341,
      "Ð´": 4342,
      "Ġsavokos": 4343,
      "Ġnagrinejima": 4344,
      "85": 4345,
      "Ġkompiu": 4346,
      "Ġprepara": 4347,
      "Ġkvalifika": 4348,
      "ene": 4349,
      "Ġvynas": 4350,
      "Ġstruktura": 4351,
      "Ġeis": 4352,
      "Ġneima": 4353,
      "Ġneatsizvelgiant": 4354,
      "Ġribu": 4355,
      "cy": 4356,
      "Ġkos": 4357,
      "Ġvyks": 4358,
      "Ġip": 4359,
      "Ġdokumento": 4360,
      "Ġdaroma": 4361,
      "Ġsol": 4362,
      "Ġvertinant": 4363,
      "Ġistatymas": 4364,
      "Ġpareikstas": 4365,
      "sk": 4366,
      "um": 4367,
      "Ġprodu": 4368,
      "Ġspor": 4369,
      "Ġapimti": 4370,
      "Ġtoles": 4371,
      "Ġsrityse": 4372,
      "Ġtikri": 4373,
      "Ġlygis": 4374,
      "Ġlaip": 4375,
      "Ġcn": 4376,
      "Ġtran": 4377,
      "Ġverp": 4378,
      "Ġvieto": 4379,
      "Ġapeliacines": 4380,
      "kolog": 4381,
      "Ġproceduru": 4382,
      "Ġaptari": 4383,
      "Îº": 4384,
      "Ġregis": 4385,
      "Ġbuvimo": 4386,
      "43": 4387,
      "Ġmik": 4388,
      "cts": 4389,
      "erta": 4390,
      "Ġspal": 4391,
      "Ġgraikijos": 4392,
      "Ġpluostu": 4393,
      "kar": 4394,
      "cl": 4395,
      "ides": 4396,
      "Ġza": 4397,
      "Ġnegin": 4398,
      "Ġprielaida": 4399,
      "Ġ120": 4400,
      "Ġispanija": 4401,
      "Ġsalimis": 4402,
      "Ġpakeiciamas": 4403,
      "Ġtempera": 4404,
      "Ġnenus": 4405,
      "kus": 4406,
      "tojui": 4407,
      "Ġbra": 4408,
      "70": 4409,
      "Ġatmete": 4410,
      "Ġaustrijos": 4411,
      "Ġpastabu": 4412,
      "Ġveiksmingai": 4413,
      "Ġvalan": 4414,
      "Ġparaiskos": 4415,
      "Ġkolektyv": 4416,
      "Ġkra": 4417,
      "esi": 4418,
      "Ġinterneto": 4419,
      "Ġpateikiamas": 4420,
      "Ġbas": 4421,
      "Ġpateikusio": 4422,
      "Ġpriimant": 4423,
      "Ġapskaitos": 4424,
      "Ġtvarky": 4425,
      "Ġsave": 4426,
      "Ġkitok": 4427,
      "Ġvaistu": 4428,
      "Ġpriorite": 4429,
      "98": 4430,
      "Ġderinimo": 4431,
      "kle": 4432,
      "Ġskundas": 4433,
      "fen": 4434,
      "uote": 4435,
      "arma": 4436,
      "Ġredak": 4437,
      "Ġkaino": 4438,
      "Ġcivilines": 4439,
      "Ġstr": 4440,
      "Ġparo": 4441,
      "ĠÃ": 4442,
      "Ġfaktiskai": 4443,
      "Ġdraudimas": 4444,
      "Ġneda": 4445,
      "Ġcia": 4446,
      "Ġpavid": 4447,
      "Ġapeliante": 4448,
      "Ġrea": 4449,
      "Ġteike": 4450,
      "Ġnela": 4451,
      "Ġpaslaugomis": 4452,
      "Ġgaminiai": 4453,
      "Ġnustatyto": 4454,
      "Ġnesazin": 4455,
      "Ġfer": 4456,
      "Ġrezultatus": 4457,
      "Ġsteigimo": 4458,
      "Ġsukurti": 4459,
      "Ġ5493": 4460,
      "Ġpakarto": 4461,
      "Ġperduoti": 4462,
      "Ġnuose": 4463,
      "Ġlank": 4464,
      "Ġkonfidencial": 4465,
      "doma": 4466,
      "trai": 4467,
      "mit": 4468,
      "Ġuzbaig": 4469,
      "ep": 4470,
      "56": 4471,
      "Ġnesuder": 4472,
      "Ġprojektu": 4473,
      "lor": 4474,
      "Ġgaun": 4475,
      "Ġkolegijos": 4476,
      "Ġisly": 4477,
      "Ġsaus": 4478,
      "Ġsuinteresuotu": 4479,
      "Ġgalin": 4480,
      "Ġakivaizdziai": 4481,
      "Ġpakeistas": 4482,
      "Ġblo": 4483,
      "Ġprincipus": 4484,
      "ton": 4485,
      "Ġsho": 4486,
      "Ġsubjekto": 4487,
      "ieka": 4488,
      "kijos": 4489,
      "vers": 4490,
      "Ġmaterial": 4491,
      "Ġgrazinti": 4492,
      "Ġpateikto": 4493,
      "Ġisskir": 4494,
      "Ġnutarties": 4495,
      "Ġnekilnojamuoju": 4496,
      "Ġvartojimo": 4497,
      "Ġatliekamas": 4498,
      "Ġpatvirtino": 4499,
      "Ġsiau": 4500,
      "Ġitvirtinta": 4501,
      "Ġsupapras": 4502,
      "Ġblog": 4503,
      "Ġanksto": 4504,
      "Ġcheminiu": 4505,
      "Ġpalukanu": 4506,
      "Ġantrojo": 4507,
      "Ġtuomet": 4508,
      "damasi": 4509,
      "feren": 4510,
      "dies": 4511,
      "Ġeuru": 4512,
      "Ġvienu": 4513,
      "siju": 4514,
      "Ġlang": 4515,
      "Ġpagaminti": 4516,
      "Ġalternatyv": 4517,
      "Ġpazeide": 4518,
      "Ġiskra": 4519,
      "Ġapel": 4520,
      "dar": 4521,
      "Ġvaid": 4522,
      "Ġnuolat": 4523,
      "dida": 4524,
      "Ġneatitinka": 4525,
      "Ġ118": 4526,
      "Ġeurato": 4527,
      "Ġ136": 4528,
      "Ġmi": 4529,
      "Ġitaka": 4530,
      "Ġpriemonems": 4531,
      "Ġlaikinai": 4532,
      "Ġpirmasis": 4533,
      "Ġukra": 4534,
      "Ġatsau": 4535,
      "Ġsusis": 4536,
      "Ġaptaria": 4537,
      "Ġformu": 4538,
      "Ġwo": 4539,
      "Ġreiksmes": 4540,
      "Ġjp": 4541,
      "Ġnacionalinio": 4542,
      "Ġoks": 4543,
      "Ġkoreg": 4544,
      "Ġorganizavimo": 4545,
      "Ġpripazino": 4546,
      "Î»": 4547,
      "esnio": 4548,
      "Ġ549300": 4549,
      "Ġskyriuje": 4550,
      "inink": 4551,
      "Ġneleidzia": 4552,
      "Ġapribojimai": 4553,
      "vus": 4554,
      "Ġnaud": 4555,
      "Ġskiriasi": 4556,
      "Ġkitiems": 4557,
      "Ġatosto": 4558,
      "Ġbulga": 4559,
      "Ġapimtis": 4560,
      "urg": 4561,
      "Ġtikslai": 4562,
      "ziaus": 4563,
      "Ġismokas": 4564,
      "Ġpauksciu": 4565,
      "mic": 4566,
      "Ġduk": 4567,
      "Ġsandoriu": 4568,
      "Ġriba": 4569,
      "Ġpatal": 4570,
      "Ġide": 4571,
      "Ġrezultatai": 4572,
      "Ġtechnine": 4573,
      "Ġnusisto": 4574,
      "Ġirenginiu": 4575,
      "rizon": 4576,
      "Ġhave": 4577,
      "Ġadministravimo": 4578,
      "Ġspecialiu": 4579,
      "71": 4580,
      "Ġkokiu": 4581,
      "Ġpavirs": 4582,
      "Ġatrink": 4583,
      "49": 4584,
      "Ġtranzi": 4585,
      "Ġsveicarijos": 4586,
      "Ġanalizes": 4587,
      "Ġpriskiria": 4588,
      "cie": 4589,
      "Ġber": 4590,
      "kams": 4591,
      "Ġreikalauti": 4592,
      "Ġbendraja": 4593,
      "Ġsistemoje": 4594,
      "Ġdarba": 4595,
      "Ġters": 4596,
      "Ġcharak": 4597,
      "vn": 4598,
      "88": 4599,
      "Ġpaslaugoms": 4600,
      "Ġ109": 4601,
      "66": 4602,
      "Ġlaikomos": 4603,
      "Ġpako": 4604,
      "Ġvezimo": 4605,
      "Ġveterin": 4606,
      "Ġneapmokes": 4607,
      "Ġadvokatu": 4608,
      "Ġecb": 4609,
      "Ġarbi": 4610,
      "raso": 4611,
      "reti": 4612,
      "Ġpastaba": 4613,
      "Ġpakeitimu": 4614,
      "42": 4615,
      "Ġother": 4616,
      "damosi": 4617,
      "Ġatleid": 4618,
      "Ġpadengia": 4619,
      "Ġegzistuoja": 4620,
      "Ġgaminti": 4621,
      "Ġneturin": 4622,
      "jusios": 4623,
      "Ġprekybai": 4624,
      "57": 4625,
      "dro": 4626,
      "Ġinvestuo": 4627,
      "Ġhorizon": 4628,
      "wer": 4629,
      "Ġdarytina": 4630,
      "Ġisipareigojimus": 4631,
      "Ġatsakinga": 4632,
      "Ġkonstatuojamoji": 4633,
      "usius": 4634,
      "Ġsuderinamu": 4635,
      "Ġsaskaita": 4636,
      "ribo": 4637,
      "Ġdokumenta": 4638,
      "Ġalkohol": 4639,
      "Ġviesa": 4640,
      "Ġ150": 4641,
      "Ġbanko": 4642,
      "igos": 4643,
      "Ġregionu": 4644,
      "ejui": 4645,
      "Ġkandida": 4646,
      "Ġsukelia": 4647,
      "Ġnusprendzia": 4648,
      "Ġskaici": 4649,
      "Ġvysty": 4650,
      "Ġgroup": 4651,
      "Ġneprivalo": 4652,
      "sos": 4653,
      "Ġrodo": 4654,
      "Ġatsizvelgta": 4655,
      "Ġipareigo": 4656,
      "Ġsudaryta": 4657,
      "sion": 4658,
      "Ġpreke": 4659,
      "Ġvidur": 4660,
      "Ġapeliacinis": 4661,
      "Ġdia": 4662,
      "tinumo": 4663,
      "Ġskatin": 4664,
      "Ġsusitarime": 4665,
      "Ġklr": 4666,
      "Ġzz": 4667,
      "tinamas": 4668,
      "Ġsubpozi": 4669,
      "Ġaukscia": 4670,
      "Ġkomunika": 4671,
      "Ġatsisakyti": 4672,
      "Ġpirmoji": 4673,
      "Ġpres": 4674,
      "ied": 4675,
      "ova": 4676,
      "Ġpateikiami": 4677,
      "Ġsl": 4678,
      "Ġsim": 4679,
      "tare": 4680,
      "Ġrumun": 4681,
      "Ġup": 4682,
      "Ġsubjektams": 4683,
      "Ġsuz": 4684,
      "Ġapibrezti": 4685,
      "Ġsusisiek": 4686,
      "Ġnorveg": 4687,
      "tiniam": 4688,
      "Ġivykdyti": 4689,
      "Ġpagalb": 4690,
      "nuo": 4691,
      "Ġzi": 4692,
      "Ġissp": 4693,
      "Ġsuvar": 4694,
      "Ġissiu": 4695,
      "Ġakciju": 4696,
      "Ġjungtiniu": 4697,
      "Ġtarpvalstyb": 4698,
      "48": 4699,
      "inems": 4700,
      "Ġsanaudu": 4701,
      "Ġpasibaigus": 4702,
      "ring": 4703,
      "Ġkoncentracija": 4704,
      "Ġatvir": 4705,
      "Ïī": 4706,
      "Ġnore": 4707,
      "Ġjuros": 4708,
      "Ġnam": 4709,
      "Ġsudare": 4710,
      "vie": 4711,
      "Ġpirmos": 4712,
      "ap": 4713,
      "Ġgyvena": 4714,
      "Ġpriezastis": 4715,
      "eliai": 4716,
      "Ġlygiu": 4717,
      "Ġisigi": 4718,
      "Ġuniversity": 4719,
      "Ġhidro": 4720,
      "Ġpradziu": 4721,
      "Ġisteigta": 4722,
      "Ġisdavimo": 4723,
      "Ġkainas": 4724,
      "Ġfinal": 4725,
      "Ġdarbuotojams": 4726,
      "Ġisisteig": 4727,
      "Ġneivykdy": 4728,
      "Ġenerge": 4729,
      "Ġvelia": 4730,
      "Ġkokios": 4731,
      "Ġapibrezia": 4732,
      "Ġpirmoje": 4733,
      "Ġlicencija": 4734,
      "Ġcharakteris": 4735,
      "Ġspeciali": 4736,
      "Ġpubl": 4737,
      "Ġkompiute": 4738,
      "Ġkitoms": 4739,
      "Ġpardav": 4740,
      "usias": 4741,
      "Ġneimanoma": 4742,
      "Ġpagristu": 4743,
      "Ġpilietybes": 4744,
      "Ġland": 4745,
      "Ġgalioja": 4746,
      "Ġmore": 4747,
      "Ġposedi": 4748,
      "Ġnere": 4749,
      "Ġdalyvavimo": 4750,
      "imti": 4751,
      "Ġsusigra": 4752,
      "Ġep": 4753,
      "unt": 4754,
      "Ġtarifu": 4755,
      "Ġ210": 4756,
      "Ġlaiku": 4757,
      "dyje": 4758,
      "Ġgave": 4759,
      "ss": 4760,
      "Õ¡": 4761,
      "Ġaspektu": 4762,
      "Ġturintys": 4763,
      "Ġintegr": 4764,
      "Ġnesi": 4765,
      "Ġpriimtu": 4766,
      "Ġaiskinimo": 4767,
      "Ġspp": 4768,
      "Ġakc": 4769,
      "ente": 4770,
      "Ġindeks": 4771,
      "kite": 4772,
      "Ġhol": 4773,
      "timu": 4774,
      "Ġbendruju": 4775,
      "Ġarbitra": 4776,
      "all": 4777,
      "mand": 4778,
      "Ġskers": 4779,
      "Ġkonteks": 4780,
      "Ġigaliojimai": 4781,
      "62": 4782,
      "Ġprieglo": 4783,
      "teliu": 4784,
      "jamos": 4785,
      "Ġsukel": 4786,
      "Ġbutinas": 4787,
      "tato": 4788,
      "Ġpadar": 4789,
      "Ġdokumentas": 4790,
      "Ġesmin": 4791,
      "Ġseng": 4792,
      "Ġtokias": 4793,
      "Ġtikslams": 4794,
      "Ġistais": 4795,
      "Ġmedienos": 4796,
      "iamasi": 4797,
      "51": 4798,
      "Ġorigin": 4799,
      "Ġsviezi": 4800,
      "Ġzvejo": 4801,
      "Ġtyrimas": 4802,
      "Ġirodymus": 4803,
      "Ġstruktu": 4804,
      "Ġprincipai": 4805,
      "Ġteismine": 4806,
      "Ġtikrai": 4807,
      "ĠÂ·": 4808,
      "difik": 4809,
      "Ġisla": 4810,
      "Ġvisoms": 4811,
      "Ġwas": 4812,
      "cc": 4813,
      "ish": 4814,
      "Ġkriterija": 4815,
      "Ġisimtis": 4816,
      "Ġkokybe": 4817,
      "Ġprocesa": 4818,
      "Ġpopieriu": 4819,
      "Ġpaskirti": 4820,
      "Ġpridetines": 4821,
      "Ġatlyginimo": 4822,
      "tarti": 4823,
      "Ġ138": 4824,
      "Ġpatvirtinta": 4825,
      "Ġmasinos": 4826,
      "Ġdideles": 4827,
      "miskai": 4828,
      "Ġteige": 4829,
      "Ġintegra": 4830,
      "ingi": 4831,
      "Ġatlikus": 4832,
      "Ġnamu": 4833,
      "Ġpirmininko": 4834,
      "antys": 4835,
      "Ġnomen": 4836,
      "Ġatsirand": 4837,
      "Ġatitinkancios": 4838,
      "Ġargumentu": 4839,
      "Ġnusistovej": 4840,
      "cij": 4841,
      "Ġem": 4842,
      "Ġpalik": 4843,
      "Ġturinciu": 4844,
      "Ġtrecios": 4845,
      "Ġgauta": 4846,
      "54": 4847,
      "ciniai": 4848,
      "Ġdau": 4849,
      "Ġpilieciams": 4850,
      "Ġiskraip": 4851,
      "Ġkomponen": 4852,
      "ÏĤ": 4853,
      "Ġnomenkla": 4854,
      "Ġnereikia": 4855,
      "Ġkonstatuo": 4856,
      "Ġpatais": 4857,
      "Ġigu": 4858,
      "Ġzmog": 4859,
      "Ġprisijung": 4860,
      "goms": 4861,
      "Ġtinklu": 4862,
      "Ġatmestas": 4863,
      "Ġ114": 4864,
      "Ġisi": 4865,
      "Ġnaf": 4866,
      "Ġbutinu": 4867,
      "Ġsengeno": 4868,
      "Ġapk": 4869,
      "Ġkonstatavo": 4870,
      "terp": 4871,
      "Ġapd": 4872,
      "Ġpaty": 4873,
      "Ġgyvenimo": 4874,
      "Ġuzkir": 4875,
      "200": 4876,
      "Ġskiriama": 4877,
      "Ġginco": 4878,
      "Ġpaskirsty": 4879,
      "menu": 4880,
      "Ġpranesta": 4881,
      "Ġnariai": 4882,
      "Ġinteresus": 4883,
      "Ġtarnautoju": 4884,
      "Ġpadide": 4885,
      "Ġcentrines": 4886,
      "menys": 4887,
      "Ġekonominiu": 4888,
      "Ġkomercines": 4889,
      "Ġinterven": 4890,
      "tija": 4891,
      "Ġivairi": 4892,
      "Ġslova": 4893,
      "Ġkonkrecios": 4894,
      "Ġskvn": 4895,
      "Ġsanaudos": 4896,
      "linio": 4897,
      "Ġvisais": 4898,
      "Ġindel": 4899,
      "Ġteigimu": 4900,
      "Ġsutartyje": 4901,
      "Ġprojekta": 4902,
      "Ġmedicinos": 4903,
      "Ġkiekvienas": 4904,
      "Ġ116": 4905,
      "Ġkonsul": 4906,
      "Ġcre": 4907,
      "Ġbls": 4908,
      "Ġnustatymas": 4909,
      "Ġela": 4910,
      "Ġpapunktis": 4911,
      "Ġsaugoma": 4912,
      "Ġigaliojimus": 4913,
      "Ġlaikinojo": 4914,
      "Ġtribu": 4915,
      "Ġ178": 4916,
      "Ġkonkurenc": 4917,
      "Ġsec": 4918,
      "Ġvisuo": 4919,
      "Ġdukte": 4920,
      "Ġpensiju": 4921,
      "Ġnedisk": 4922,
      "Ġpatenka": 4923,
      "Ġindus": 4924,
      "Ġnebe": 4925,
      "Ġtechnologiju": 4926,
      "tiku": 4927,
      "Ġsienu": 4928,
      "Ġintelektines": 4929,
      "Ġkaimo": 4930,
      "Ġsusitarimus": 4931,
      "Ġnumatoma": 4932,
      "nams": 4933,
      "Ġfaktu": 4934,
      "Ġ400": 4935,
      "Ġirank": 4936,
      "Ġpriestarauja": 4937,
      "Ġmoketi": 4938,
      "Ġnational": 4939,
      "Ġtiesa": 4940,
      "Ġdarbu": 4941,
      "ero": 4942,
      "tif": 4943,
      "cini": 4944,
      "Ġcik": 4945,
      "Ġsaskaitos": 4946,
      "Ġpama": 4947,
      "Ġnuosek": 4948,
      "Ġkanc": 4949,
      "Ġadresas": 4950,
      "Ġnediskrimin": 4951,
      "Ġtriju": 4952,
      "Ġlabo": 4953,
      "Ġmars": 4954,
      "Ñĥ": 4955,
      "tak": 4956,
      "59": 4957,
      "Ġreikalu": 4958,
      "Ġpadidinti": 4959,
      "Ġperziura": 4960,
      "ita": 4961,
      "Ġnesuteik": 4962,
      "Ġreziden": 4963,
      "ieg": 4964,
      "Ġ117": 4965,
      "aliai": 4966,
      "Ġsloven": 4967,
      "Ġpinig": 4968,
      "Ġapyvarta": 4969,
      "nam": 4970,
      "Ġapskritai": 4971,
      "Ġneper": 4972,
      "Ġrim": 4973,
      "Ġnustatomi": 4974,
      "Ġsveta": 4975,
      "Ġsunku": 4976,
      "Ġtaba": 4977,
      "Ġuzk": 4978,
      "Ġorganizaciju": 4979,
      "Ġlaikas": 4980,
      "per": 4981,
      "tieji": 4982,
      "Ġglau": 4983,
      "Ġsam": 4984,
      "Ġpakeitimai": 4985,
      "Ġpartnerystes": 4986,
      "Ġgyvenamosios": 4987,
      "Ġsocialiniu": 4988,
      "Î¼": 4989,
      "Ġsumaze": 4990,
      "Ġleidejas": 4991,
      "Ġgalimybiu": 4992,
      "Ġneapdoro": 4993,
      "Ġjav": 4994,
      "Ġdiskrecija": 4995,
      "usiems": 4996,
      "Ġairijos": 4997,
      "Ġpereinamojo": 4998,
      "Ġprieiga": 4999,
      "Ġprancuzu": 5000,
      "Ġkitose": 5001,
      "53": 5002,
      "Ġnepris": 5003,
      "iesko": 5004,
      "Ġsuteikimo": 5005,
      "Ġtarsos": 5006,
      "Ġprivaloma": 5007,
      "Ġstandartu": 5008,
      "alaus": 5009,
      "Ġpanasios": 5010,
      "Ġspa": 5011,
      "Ġdomin": 5012,
      "Ġkvotos": 5013,
      "2011": 5014,
      "Ġbendrovei": 5015,
      "cher": 5016,
      "ere": 5017,
      "zel": 5018,
      "Ġteisma": 5019,
      "Ġrib": 5020,
      "Ġteisemis": 5021,
      "Ġposedyje": 5022,
      "Ġnuostatoje": 5023,
      "Ġatliekos": 5024,
      "Ġpranesimu": 5025,
      "imais": 5026,
      "Ġpriside": 5027,
      "Ġtikslui": 5028,
      "Ġzeme": 5029,
      "ons": 5030,
      "Ġekolog": 5031,
      "Ġtinkamas": 5032,
      "Ġnetiesiogiai": 5033,
      "68": 5034,
      "Ġbranduo": 5035,
      "Ġpaskes": 5036,
      "Ġsantrauk": 5037,
      "Ġneto": 5038,
      "Ġdio": 5039,
      "Ġ123": 5040,
      "Ġtrecias": 5041,
      "Ġfaktiniu": 5042,
      "raudzia": 5043,
      "Ġsasa": 5044,
      "Ġlaisvo": 5045,
      "ĠÂ°": 5046,
      "Ġpradzios": 5047,
      "Ġpartne": 5048,
      "Ġreferenc": 5049,
      "Ġ540": 5050,
      "ksi": 5051,
      "Ġess": 5052,
      "uld": 5053,
      "cijose": 5054,
      "mino": 5055,
      "Ġnepateike": 5056,
      "Ġlos": 5057,
      "Ġ127": 5058,
      "Ġapeliant": 5059,
      "Ġturta": 5060,
      "Ġpiktnaudzia": 5061,
      "ukes": 5062,
      "ojimo": 5063,
      "Ġatstov": 5064,
      "Ġvokieciu": 5065,
      "Ġnagrinejimo": 5066,
      "Ġapeliantes": 5067,
      "vimui": 5068,
      "Ġskys": 5069,
      "Ġreikalinga": 5070,
      "brauk": 5071,
      "Ġimonei": 5072,
      "Ġbi": 5073,
      "Ġbandymo": 5074,
      "esta": 5075,
      "Ġbendrovems": 5076,
      "fer": 5077,
      "Ġriboja": 5078,
      "Ġgydy": 5079,
      "Ġneitrauk": 5080,
      "Ġnusikalsta": 5081,
      "Ġiskel": 5082,
      "Ġrezer": 5083,
      "ĠâĢ²": 5084,
      "Ġ267": 5085,
      "Ġbiudze": 5086,
      "Ġlaba": 5087,
      "Ġimasi": 5088,
      "Ġpanaudotos": 5089,
      "Ġkie": 5090,
      "Ġpirkimu": 5091,
      "Ġlaipsn": 5092,
      "Ġnereikal": 5093,
      "wor": 5094,
      "Ġelementu": 5095,
      "renk": 5096,
      "Ġobj": 5097,
      "Ġsaviv": 5098,
      "Ġiraso": 5099,
      "Ġviesai": 5100,
      "Ġdrus": 5101,
      "Ġerdves": 5102,
      "ban": 5103,
      "92": 5104,
      "Ġmel": 5105,
      "Ġato": 5106,
      "Ġnedid": 5107,
      "67": 5108,
      "Ġsaugu": 5109,
      "Ġsign": 5110,
      "Ġpasekmes": 5111,
      "Ġeuratomas": 5112,
      "Ġfu": 5113,
      "Ġsuteiktas": 5114,
      "Ġpastar": 5115,
      "Ġtipas": 5116,
      "Ġastu": 5117,
      "Ġribos": 5118,
      "Õ¸": 5119,
      "Ġdesim": 5120,
      "Ġeismo": 5121,
      "Ġtarptautine": 5122,
      "52": 5123,
      "Ġpranese": 5124,
      "tinems": 5125,
      "Ġpagristai": 5126,
      "Ġkomb": 5127,
      "Ġdeta": 5128,
      "Ġabip": 5129,
      "Ġkovos": 5130,
      "Ġisples": 5131,
      "Ġskirtumas": 5132,
      "Ġklases": 5133,
      "lim": 5134,
      "Ġenergetikos": 5135,
      "Ġpaprase": 5136,
      "Ġvisuomene": 5137,
      "ddb": 5138,
      "istas": 5139,
      "Ġtvarkymo": 5140,
      "Ġelaba": 5141,
      "Ġvddb": 5142,
      "Ġnauda": 5143,
      "Ġreguliuo": 5144,
      "Ġprasyti": 5145,
      "Ġnepaskelb": 5146,
      "tojus": 5147,
      "Ġpakeiciama": 5148,
      "Ġesanciu": 5149,
      "Ġpranesti": 5150,
      "Ġskirtingu": 5151,
      "Ġekstra": 5152,
      "Ġpavel": 5153,
      "Ġteikian": 5154,
      "Ġglo": 5155,
      "Ġcour": 5156,
      "Ġsavybes": 5157,
      "ĠÎ±": 5158,
      "Ġ520": 5159,
      "Ġveiksmingumo": 5160,
      "gericht": 5161,
      "Ġmetil": 5162,
      "ksn": 5163,
      "ĠÎ´": 5164,
      "Ġnebent": 5165,
      "Ġapeliacini": 5166,
      "Ġ600": 5167,
      "ot": 5168,
      "Ġtarnyb": 5169,
      "uan": 5170,
      "Ġplas": 5171,
      "Ġisvardytu": 5172,
      "Ġigyvendinima": 5173,
      "Ġpatikrinimo": 5174,
      "Ġpoten": 5175,
      "Ġpasaru": 5176,
      "Ġuzim": 5177,
      "Ġsumas": 5178,
      "Ġgautu": 5179,
      "Ġ1991": 5180,
      "Ġkonstitu": 5181,
      "ilie": 5182,
      "Ġisbrauk": 5183,
      "vinti": 5184,
      "Ġlicencijos": 5185,
      "Ġdviem": 5186,
      "Ġpoziciju": 5187,
      "Ġkip": 5188,
      "Ġbaus": 5189,
      "Ġsuom": 5190,
      "Ġspau": 5191,
      "Ġpenke": 5192,
      "Ġpriezasties": 5193,
      "Ġnuspres": 5194,
      "Ġvaizdo": 5195,
      "Ġgel": 5196,
      "Ġvadovau": 5197,
      "Ġprieigos": 5198,
      "Ġzona": 5199,
      "wn": 5200,
      "Ġsuformul": 5201,
      "tima": 5202,
      "Ġ113": 5203,
      "Ġpane": 5204,
      "Ġatitinkamus": 5205,
      "muni": 5206,
      "Ġsusitarianciosios": 5207,
      "amuoju": 5208,
      "Ġpadal": 5209,
      "97": 5210,
      "Ġcentra": 5211,
      "Ġmetams": 5212,
      "Ġmaks": 5213,
      "Ġaisku": 5214,
      "Ġgink": 5215,
      "Ġakta": 5216,
      "Ġpaskyri": 5217,
      "Ġamer": 5218,
      "Ġadvokatas": 5219,
      "Ġpirke": 5220,
      "Ġnenumaty": 5221,
      "Ġ250": 5222,
      "Ġpasalinti": 5223,
      "Ġliku": 5224,
      "Ġsvo": 5225,
      "Ġmikro": 5226,
      "alas": 5227,
      "Ġfeder": 5228,
      "liniai": 5229,
      "Ġaiskinimas": 5230,
      "Ġneigia": 5231,
      "Ġjt": 5232,
      "Ġismoke": 5233,
      "Ġgelezinkeliu": 5234,
      "Ġfoto": 5235,
      "Ġatlyginti": 5236,
      "Ġregiono": 5237,
      "Ġkompensacija": 5238,
      "oris": 5239,
      "Ġpalan": 5240,
      "Ġlog": 5241,
      "Ġstebesenos": 5242,
      "Ġ847": 5243,
      "Ġdanijos": 5244,
      "wo": 5245,
      "Ġaviacijos": 5246,
      "Ñı": 5247,
      "81": 5248,
      "mok": 5249,
      "Ġblsk": 5250,
      "Ġelementai": 5251,
      "Ġzinoma": 5252,
      "Ġkroa": 5253,
      "Ġklima": 5254,
      "Ġmokesciai": 5255,
      "Ġhk": 5256,
      "Ġmuitas": 5257,
      "Ġofici": 5258,
      "tiniams": 5259,
      "Ġpriziu": 5260,
      "Ġamziaus": 5261,
      "que": 5262,
      "Ġgarantiju": 5263,
      "Ġgincijamu": 5264,
      "sp": 5265,
      "Ġdvis": 5266,
      "Ġprieglobs": 5267,
      "Ġpranesime": 5268,
      "Ġneprisi": 5269,
      "tvirtin": 5270,
      "Ġantraji": 5271,
      "Ġisiesko": 5272,
      "Ġnav": 5273,
      "ytu": 5274,
      "Ġdepar": 5275,
      "Ġstatu": 5276,
      "Ġvaiko": 5277,
      "Ġteikiamos": 5278,
      "Ġvertinti": 5279,
      "inasi": 5280,
      "Ġbelgija": 5281,
      "Ġmanyti": 5282,
      "ile": 5283,
      "Ïħ": 5284,
      "Ġzing": 5285,
      "ical": 5286,
      "65": 5287,
      "nciosios": 5288,
      "ncias": 5289,
      "Ġ119": 5290,
      "Ġkompetentingu": 5291,
      "mens": 5292,
      "Ġnetinka": 5293,
      "Ġakci": 5294,
      "Ġpakeitimus": 5295,
      "Ġtv": 5296,
      "Ġzenklin": 5297,
      "Ġkiau": 5298,
      "Ġaplinka": 5299,
      "Ġrau": 5300,
      "Ġbuda": 5301,
      "Ġpuse": 5302,
      "ject": 5303,
      "Ġsiuncia": 5304,
      "Ġisvyk": 5305,
      "Ġsti": 5306,
      "Ġsudarytas": 5307,
      "dine": 5308,
      "inku": 5309,
      "Ġpakeitimas": 5310,
      "gh": 5311,
      "Ġmetalu": 5312,
      "Ġcekijos": 5313,
      "Ġgris": 5314,
      "Ġetapu": 5315,
      "Ġlaikinas": 5316,
      "Ġigaliojima": 5317,
      "Ġuzduotis": 5318,
      "Ġkoki": 5319,
      "Ġantrasis": 5320,
      "Ġtikrinimo": 5321,
      "Ġinova": 5322,
      "Ġmol": 5323,
      "Ġbylu": 5324,
      "Ġisklaus": 5325,
      "Ġpakuotes": 5326,
      "Ġpadeties": 5327,
      "Ġsantykiu": 5328,
      "Ġtersalu": 5329,
      "Ġvakaru": 5330,
      "Ġmetodu": 5331,
      "Ġprocese": 5332,
      "Ġprasymus": 5333,
      "Ġdarzoviu": 5334,
      "ters": 5335,
      "87": 5336,
      "Ġneivyk": 5337,
      "Ġ320": 5338,
      "Ġpaleng": 5339,
      "Ġâī": 5340,
      "tee": 5341,
      "Ġwill": 5342,
      "pai": 5343,
      "uros": 5344,
      "Ġkm": 5345,
      "Ġparengti": 5346,
      "Ġapelian": 5347,
      "Ġhy": 5348,
      "Ġbro": 5349,
      "Ġmer": 5350,
      "Ġ620": 5351,
      "amies": 5352,
      "61": 5353,
      "Ġnezino": 5354,
      "Ġesanti": 5355,
      "Ġsvietimo": 5356,
      "Ġbendradarbiavimas": 5357,
      "ij": 5358,
      "onas": 5359,
      "Ġsistemas": 5360,
      "Ġadresa": 5361,
      "Ġisisteigimo": 5362,
      "rs": 5363,
      "Ġpaskolos": 5364,
      "Ġsinte": 5365,
      "Ġabejoniu": 5366,
      "Ġplana": 5367,
      "iski": 5368,
      "Ġ0000": 5369,
      "Ġprieglobscio": 5370,
      "Ġeilute": 5371,
      "Ġ721": 5372,
      "Ġleg": 5373,
      "Ġataskaitoje": 5374,
      "Ġpaskutiniais": 5375,
      "Ġgyvun": 5376,
      "tink": 5377,
      "Ġnarys": 5378,
      "Ġ111": 5379,
      "Ġsertifik": 5380,
      "Ġgalutinio": 5381,
      "Ġprodukta": 5382,
      "Ġmobil": 5383,
      "Ġleis": 5384,
      "trin": 5385,
      "Ġdec": 5386,
      "uru": 5387,
      "Ġ160": 5388,
      "Ġtyrimus": 5389,
      "Ġnaudojima": 5390,
      "Ġfondu": 5391,
      "Ġatrankos": 5392,
      "Ġbund": 5393,
      "Î¿Ïħ": 5394,
      "yno": 5395,
      "Ġpalaiky": 5396,
      "Ġsuderinti": 5397,
      "Ġvaldo": 5398,
      "jau": 5399,
      "Ġgimimo": 5400,
      "ngs": 5401,
      "Ġorienta": 5402,
      "Ġbendradarbiavima": 5403,
      "ning": 5404,
      "Ġdro": 5405,
      "iaisk": 5406,
      "Ġ140": 5407,
      "Ġisduotas": 5408,
      "Ġpajegumu": 5409,
      "Ġmesos": 5410,
      "Ġairija": 5411,
      "Ġpranas": 5412,
      "Ġlikvid": 5413,
      "Ġkategoriju": 5414,
      "Ġperio": 5415,
      "aline": 5416,
      "eti": 5417,
      "Ġcol": 5418,
      "Ġkvad": 5419,
      "Ġtrukmes": 5420,
      "Ġtonu": 5421,
      "Ġmg": 5422,
      "Ġsuzvejo": 5423,
      "ication": 5424,
      "Ġvamz": 5425,
      "Ġnepan": 5426,
      "Ġpanasiu": 5427,
      "lation": 5428,
      "joms": 5429,
      "Ġplano": 5430,
      "Ġsavaime": 5431,
      "Ġgebe": 5432,
      "liams": 5433,
      "Ġsestosios": 5434,
      "usiam": 5435,
      "Ġ130": 5436,
      "Ġcommit": 5437,
      "Ġpritaikytas": 5438,
      "Ġdarant": 5439,
      "Ġmir": 5440,
      "Ġtyrimai": 5441,
      "Ġstandartus": 5442,
      "Ġzodziu": 5443,
      "tiniame": 5444,
      "Ġsiekdamos": 5445,
      "Ġgrupiu": 5446,
      "iniuose": 5447,
      "Ġsleg": 5448,
      "augos": 5449,
      "Ġtero": 5450,
      "vp": 5451,
      "Ġatliktas": 5452,
      "Ġteisetai": 5453,
      "rup": 5454,
      "Ġstab": 5455,
      "83": 5456,
      "tuok": 5457,
      "Ġmemo": 5458,
      "Ġrysys": 5459,
      "Ġrad": 5460,
      "Ġpastab": 5461,
      "Ġaliu": 5462,
      "Ġnagrinejamoje": 5463,
      "Ġpadeda": 5464,
      "Ġpaste": 5465,
      "Ġisplaukia": 5466,
      "Ġvartoti": 5467,
      "Ġvykstant": 5468,
      "Ġteismai": 5469,
      "inai": 5470,
      "Ġoperacijos": 5471,
      "liais": 5472,
      "Ġkarb": 5473,
      "lais": 5474,
      "Ġoff": 5475,
      "Ġalkoholio": 5476,
      "Ġfunkcijas": 5477,
      "Ġieskovei": 5478,
      "Ġpasaky": 5479,
      "Ġproduktais": 5480,
      "antiems": 5481,
      "Ġnurodomas": 5482,
      "Ġtiri": 5483,
      "Ġmokyk": 5484,
      "Ġsveikatai": 5485,
      "Ġdemesi": 5486,
      "Ġpagrindus": 5487,
      "Ġmotyvais": 5488,
      "Ġvaizd": 5489,
      "Ġkomitetui": 5490,
      "Ġeuropa": 5491,
      "Ġterminu": 5492,
      "Ġbiolog": 5493,
      "Ġistekliai": 5494,
      "Ġpareiskejas": 5495,
      "ĠÏĦ": 5496,
      "esu": 5497,
      "esniu": 5498,
      "Ġneprisiimta": 5499,
      "Ġfunkcija": 5500,
      "Ġkodel": 5501,
      "Ġissiaisk": 5502,
      "Ġsker": 5503,
      "Ġtaryboje": 5504,
      "Ġvertybiniu": 5505,
      "Ġinvesticijos": 5506,
      "Ġpaneig": 5507,
      "Ġsandel": 5508,
      "Ġprogramas": 5509,
      "Ġuosto": 5510,
      "Ġpet": 5511,
      "Ġpaskirstymo": 5512,
      "Ġjomis": 5513,
      "Ġpripazinta": 5514,
      "Ġmokejimu": 5515,
      "Ġigaliojimu": 5516,
      "Ġveikti": 5517,
      "Ġkonkretus": 5518,
      "Ġvia": 5519,
      "Ġinspek": 5520,
      "Ġprelim": 5521,
      "Ġvas": 5522,
      "tuvai": 5523,
      "Ġvienin": 5524,
      "Ġ@": 5525,
      "89": 5526,
      "Ġistaigoms": 5527,
      "Ġpi": 5528,
      "Ġatei": 5529,
      "Ġnedelsiant": 5530,
      "Ġgalios": 5531,
      "Ġportugalijos": 5532,
      "Ġsena": 5533,
      "Ġdirektorius": 5534,
      "Ġprotokolas": 5535,
      "Ġgincas": 5536,
      "Ġantroji": 5537,
      "Ġkonstatuojamosiose": 5538,
      "pen": 5539,
      "Ġvisapus": 5540,
      "Ġvirsu": 5541,
      "Ġtikrais": 5542,
      "Ġdarbuotojas": 5543,
      "Ġspaus": 5544,
      "telio": 5545,
      "Ġgarantijos": 5546,
      "bal": 5547,
      "Ġpavarde": 5548,
      "Ġantrastines": 5549,
      "Ġataskaitu": 5550,
      "Ġ135": 5551,
      "Ġkopija": 5552,
      "Ġmarsru": 5553,
      "Ġpavoj": 5554,
      "jancia": 5555,
      "Õ¥": 5556,
      "Ġgautos": 5557,
      "Ġpirmojoje": 5558,
      "Ġneveik": 5559,
      "telis": 5560,
      "inanciu": 5561,
      "Ġsavininkas": 5562,
      "Ġnew": 5563,
      "Ġapskaiciavimo": 5564,
      "ulia": 5565,
      "Ġvertinimu": 5566,
      "idend": 5567,
      "Ġketin": 5568,
      "Ġivezimo": 5569,
      "Ġ1990": 5570,
      "Ġantrastine": 5571,
      "Ġzonos": 5572,
      "iske": 5573,
      "Ġrusijos": 5574,
      "Ġliau": 5575,
      "registr": 5576,
      "Ġpilieciai": 5577,
      "kiu": 5578,
      "Ġmaksima": 5579,
      "tm": 5580,
      "Ġmokescius": 5581,
      "Ġvadinasi": 5582,
      "Ġperkelimo": 5583,
      "Ġ121": 5584,
      "avimui": 5585,
      "ĠÎ¼": 5586,
      "Ġkeleiviu": 5587,
      "Ġvals": 5588,
      "Ġimportas": 5589,
      "Ġsusid": 5590,
      "Ġapimties": 5591,
      "Ġ139": 5592,
      "Ġnormu": 5593,
      "Ġtirp": 5594,
      "Ġlatv": 5595,
      "Ġturinio": 5596,
      "Ġug": 5597,
      "Ġif": 5598,
      "Ġsiuloma": 5599,
      "Ġ126": 5600,
      "Ġsusie": 5601,
      "Ġvisuomenei": 5602,
      "Ġkroviniu": 5603,
      "Ġvizu": 5604,
      "Ġvaldymas": 5605,
      "Ġmodu": 5606,
      "Ġbundes": 5607,
      "Ġintereso": 5608,
      "alines": 5609,
      "Ġsaraso": 5610,
      "9900": 5611,
      "Ġisvadas": 5612,
      "Ġ145": 5613,
      "Ġpriedai": 5614,
      "Ġpatvirtintas": 5615,
      "liosios": 5616,
      "Ġnegincija": 5617,
      "kank": 5618,
      "Ġturinys": 5619,
      "Ġlaisva": 5620,
      "Ġpakeista": 5621,
      "Ġtiria": 5622,
      "Ġvynuo": 5623,
      "ong": 5624,
      "Ġliudi": 5625,
      "Ġneturejo": 5626,
      "Ġdang": 5627,
      "Ġieskoviu": 5628,
      "Ġkinta": 5629,
      "lori": 5630,
      "Ġtrys": 5631,
      "Ġneteisetai": 5632,
      "Ġukis": 5633,
      "Ġ263": 5634,
      "uts": 5635,
      "Ġdideli": 5636,
      "tose": 5637,
      "Ġpager": 5638,
      "Ġ611": 5639,
      "Ġpriskiriamos": 5640,
      "tymo": 5641,
      "Ġdalyvavo": 5642,
      "Ġkeiti": 5643,
      "Ġbis": 5644,
      "Ġgalioti": 5645,
      "ugh": 5646,
      "Ġisigy": 5647,
      "Ġojo": 5648,
      "Ġnutraukti": 5649,
      "Ġbudas": 5650,
      "Ġautono": 5651,
      "Ġsyste": 5652,
      "Ġdvigu": 5653,
      "Ġnuosavu": 5654,
      "Ġpilietybe": 5655,
      "Ġone": 5656,
      "Ġ720": 5657,
      "Ġkredi": 5658,
      "Ð¼": 5659,
      "Ġpraejus": 5660,
      "Ġgincu": 5661,
      "Ġformuluote": 5662,
      "Ġneapmuitina": 5663,
      "Ġteisetumo": 5664,
      "Ġpajamos": 5665,
      "Ġdividend": 5666,
      "Ġsavivaldy": 5667,
      "Ġrusys": 5668,
      "Ġkomercine": 5669,
      "mumo": 5670,
      "est": 5671,
      "Ġgh": 5672,
      "Ġcompan": 5673,
      "Ġriboj": 5674,
      "pt": 5675,
      "Ġkras": 5676,
      "Ġvienoje": 5677,
      "Ġplatu": 5678,
      "Ġnebus": 5679,
      "Ġsutartys": 5680,
      "Ġhel": 5681,
      "Ġkreiptis": 5682,
      "Ġabso": 5683,
      "Ġieskiniu": 5684,
      "Ġvisoje": 5685,
      "Ġpazeidimus": 5686,
      "teliai": 5687,
      "Ġpanaudota": 5688,
      "Ġvartotojams": 5689,
      "Ġtrecioji": 5690,
      "aliojo": 5691,
      "Ġplatin": 5692,
      "Ġapskaiciuoti": 5693,
      "Ġrn": 5694,
      "Ġturima": 5695,
      "Ġgamintojams": 5696,
      "Ġantroje": 5697,
      "Ġgeriau": 5698,
      "Ġliaudies": 5699,
      "Ġlaisvai": 5700,
      "don": 5701,
      "Ġsubsidia": 5702,
      "Ġoperaciju": 5703,
      "Ġrezimas": 5704,
      "Ġklaidu": 5705,
      "Ġsavarankiskai": 5706,
      "iene": 5707,
      "mark": 5708,
      "Ġkainomis": 5709,
      "Ġuzsi": 5710,
      "Ġkombin": 5711,
      "Ġhas": 5712,
      "Ġmastu": 5713,
      "Ġmedziagas": 5714,
      "Ġatitiktu": 5715,
      "Ġmane": 5716,
      "Ġteisek": 5717,
      "Ġanalogija": 5718,
      "Ġmotyvu": 5719,
      "cor": 5720,
      "Ġmasters": 5721,
      "Ġvaisiai": 5722,
      "Ġfiks": 5723,
      "Ġnusistovejusia": 5724,
      "Ġdidziausias": 5725,
      "Ġradi": 5726,
      "Ġsalu": 5727,
      "Ġatskira": 5728,
      "Ġnori": 5729,
      "Ġeurop": 5730,
      "Ġzmonems": 5731,
      "Ġgresme": 5732,
      "96": 5733,
      "Ġfarma": 5734,
      "Ġpleto": 5735,
      "Ġkvota": 5736,
      "Ġmedvil": 5737,
      "ncius": 5738,
      "Ġkab": 5739,
      "Ġpalank": 5740,
      "mann": 5741,
      "dymas": 5742,
      "ments": 5743,
      "fas": 5744,
      "Ġti": 5745,
      "Ġneribo": 5746,
      "Ġkomand": 5747,
      "Ġskolos": 5748,
      "amiems": 5749,
      "Ġpensija": 5750,
      "Ġperdrau": 5751,
      "quis": 5752,
      "Ġtrauk": 5753,
      "Ġpobudis": 5754,
      "ancio": 5755,
      "Ġatsakingas": 5756,
      "Ġgrupei": 5757,
      "endo": 5758,
      "Ġpilietis": 5759,
      "Ġ132": 5760,
      "Ġ122": 5761,
      "Ġcommittee": 5762,
      "Ġkeliones": 5763,
      "Ġstudi": 5764,
      "Ġnustatantis": 5765,
      "Ġplat": 5766,
      "Ġaliejus": 5767,
      "Ġdip": 5768,
      "Ġklasifikuojamos": 5769,
      "Ġrezimo": 5770,
      "Ġteisekuros": 5771,
      "Ġlukes": 5772,
      "Ġsiun": 5773,
      "Ġvykdomas": 5774,
      "oks": 5775,
      "Ġden": 5776,
      "tacijos": 5777,
      "vais": 5778,
      "Ġnedraudzia": 5779,
      "Ġsustiprin": 5780,
      "tikoje": 5781,
      "dziui": 5782,
      "Ġ124": 5783,
      "bulin": 5784,
      "Ġitrauktas": 5785,
      "Ġrefor": 5786,
      "Ġtype": 5787,
      "Ġgairiu": 5788,
      "Ġesama": 5789,
      "Ġteisei": 5790,
      "Ġmetod": 5791,
      "kumo": 5792,
      "Ġremesi": 5793,
      "Ġjuose": 5794,
      "Ġpasekmiu": 5795,
      "Ġnuostoliu": 5796,
      "Ġbaze": 5797,
      "Ġposedzio": 5798,
      "Ġargumentas": 5799,
      "Ġinformuoja": 5800,
      "Ġmatavimo": 5801,
      "Ġpatyre": 5802,
      "Î¹Î±": 5803,
      "Ġartic": 5804,
      "Ġgaben": 5805,
      "Ġidentifikavimo": 5806,
      "Ġuzkirsti": 5807,
      "ure": 5808,
      "Ġ440": 5809,
      "Ġdaliai": 5810,
      "Ġprofesine": 5811,
      "Ġtiksliai": 5812,
      "Ġatskiru": 5813,
      "Ġvaiku": 5814,
      "Ġuzpil": 5815,
      "Ġperdirbimo": 5816,
      "Ġdemes": 5817,
      "Ġnustatanti": 5818,
      "Ġvykdyma": 5819,
      "Ġbendr": 5820,
      "Ġsantrauka": 5821,
      "use": 5822,
      "rang": 5823,
      "Ġfinansuoti": 5824,
      "fin": 5825,
      "Ġkada": 5826,
      "Ġakivaizdu": 5827,
      "Ġsvarba": 5828,
      "Ġuni": 5829,
      "Ġagentu": 5830,
      "Ġkaz": 5831,
      "Ġsali": 5832,
      "Ġbaudu": 5833,
      "Ġgrazinimo": 5834,
      "pir": 5835,
      "Ġprofesines": 5836,
      "Ġadministracinio": 5837,
      "Ġsazin": 5838,
      "Ġtikrus": 5839,
      "Ġsusida": 5840,
      "Ġvalstijos": 5841,
      "Ġirodymai": 5842,
      "Ġpoziuris": 5843,
      "Ġisland": 5844,
      "Ġpapildomai": 5845,
      "Ġ730": 5846,
      "Ġnepra": 5847,
      "Ġsarase": 5848,
      "Ġares": 5849,
      "Ġmazinimo": 5850,
      "Ġgautas": 5851,
      "Ġsekreto": 5852,
      "tent": 5853,
      "Ġbals": 5854,
      "ĠâĢĺ": 5855,
      "63": 5856,
      "Ġtarpine": 5857,
      "Ġlicenciju": 5858,
      "Ġviii": 5859,
      "Ġlith": 5860,
      "Ġzingsnis": 5861,
      "Ġneteisetu": 5862,
      "Ġteigiama": 5863,
      "Ġprieka": 5864,
      "mieji": 5865,
      "Ġ134": 5866,
      "Ġiteik": 5867,
      "Ġsumazejo": 5868,
      "Ġgalvi": 5869,
      "Ġaz": 5870,
      "Ġdera": 5871,
      "mpa": 5872,
      "Ġerdve": 5873,
      "pan": 5874,
      "rauja": 5875,
      "ados": 5876,
      "Ġ141": 5877,
      "Ġklimato": 5878,
      "tras": 5879,
      "Ġstandartines": 5880,
      "Ġmuta": 5881,
      "dys": 5882,
      "Ġprotokola": 5883,
      "Ġtautu": 5884,
      "Ġpasirinkti": 5885,
      "beg": 5886,
      "Ġkir": 5887,
      "003": 5888,
      "Ġklasifika": 5889,
      "Ġmanymu": 5890,
      "Ġuztikrinama": 5891,
      "Ġitraukta": 5892,
      "inguma": 5893,
      "Ġzib": 5894,
      "Ġsome": 5895,
      "Ġnuorodu": 5896,
      "Ġskyrimo": 5897,
      "Ġviduje": 5898,
      "Ġmemorand": 5899,
      "Ġatsauk": 5900,
      "Ġnepazeidziant": 5901,
      "Ġatleidimo": 5902,
      "yven": 5903,
      "Ġbandymu": 5904,
      "Ġteisini": 5905,
      "Ġapribojimas": 5906,
      "styti": 5907,
      "Ġnukryps": 5908,
      "Ġsuteiktos": 5909,
      "ininkams": 5910,
      "Ġkaltinimus": 5911,
      "Ġankstesniu": 5912,
      "Ġjungtinio": 5913,
      "Ġabieju": 5914,
      "Ġbalans": 5915,
      "cs": 5916,
      "stu": 5917,
      "Ġkartelio": 5918,
      "Ġskiltyje": 5919,
      "Ġtinkamumo": 5920,
      "Ġbeveik": 5921,
      "Ġpristaty": 5922,
      "Ġprievole": 5923,
      "Ġgran": 5924,
      "Ġcl": 5925,
      "Ġenergija": 5926,
      "Ġperdirbti": 5927,
      "Ġteleko": 5928,
      "Ġautoriu": 5929,
      "pres": 5930,
      "Ġkilme": 5931,
      "Ġtreciojo": 5932,
      "Ġpatikrinima": 5933,
      "pimo": 5934,
      "cinius": 5935,
      "Ġfinansinis": 5936,
      "Ġtl": 5937,
      "Ġrenk": 5938,
      "Ġprezu": 5939,
      "Ġtokiais": 5940,
      "Ġprezump": 5941,
      "Ġvienetu": 5942,
      "Ġint": 5943,
      "Ġamerikos": 5944,
      "ziai": 5945,
      "75": 5946,
      "Ġlaime": 5947,
      "bai": 5948,
      "Ġatvirks": 5949,
      "Î³": 5950,
      "nelyg": 5951,
      "Ġislaikyti": 5952,
      "Ġjose": 5953,
      "Ġissiaiskinti": 5954,
      "Ġuztikrinimu": 5955,
      "Ġsocialinio": 5956,
      "Ġacquis": 5957,
      "Ġabo": 5958,
      "Ġrs": 5959,
      "Ġpernelyg": 5960,
      "ptu": 5961,
      "Ġtelevi": 5962,
      "vui": 5963,
      "Ġpriek": 5964,
      "Ġpabrezia": 5965,
      "ation": 5966,
      "Ġsulaiky": 5967,
      "ue": 5968,
      "Ġkompetentingoms": 5969,
      "Ġregistracija": 5970,
      "Ġbendroji": 5971,
      "Ġmuitine": 5972,
      "cz": 5973,
      "cto": 5974,
      "Ġ128": 5975,
      "Ġnutari": 5976,
      "Ġnepro": 5977,
      "Ġgavimo": 5978,
      "Ġtarptautinio": 5979,
      "jami": 5980,
      "Ġiterp": 5981,
      "Ġkonstatuojamaja": 5982,
      "Ġsanaudas": 5983,
      "Ġ129": 5984,
      "Ġbru": 5985,
      "Ġvarikliu": 5986,
      "Ġdocu": 5987,
      "Ġprival": 5988,
      "Ġadministraciniu": 5989,
      "Ġissamiai": 5990,
      "Ġgarantija": 5991,
      "Ġout": 5992,
      "Ġdauguma": 5993,
      "ianti": 5994,
      "nn": 5995,
      "Ġvienint": 5996,
      "Ġread": 5997,
      "ymas": 5998,
      "Ġteikiant": 5999,
      "Ġdarbuotojo": 6000,
      "Ġisves": 6001,
      "Ġlithuan": 6002,
      "Ġabsoliu": 6003,
      "Ġpamine": 6004,
      "Ġaudi": 6005,
      "jui": 6006,
      "Ġlaivai": 6007,
      "Ġturio": 6008,
      "Ġvokietijoje": 6009,
      "ancia": 6010,
      "Ġkonser": 6011,
      "Ġkonstruk": 6012,
      "Ġsuprasti": 6013,
      "Ġitraukimo": 6014,
      "Ġpateisinti": 6015,
      "ĠÐ¿": 6016,
      "Ġsalia": 6017,
      "Ġkonsultaciju": 6018,
      "69": 6019,
      "rr": 6020,
      "rinius": 6021,
      "Ġmotyvuoti": 6022,
      "entr": 6023,
      "Ġnepriesta": 6024,
      "Ġpietu": 6025,
      "Ġtampa": 6026,
      "Ġexcl": 6027,
      "Ġelgesio": 6028,
      "minis": 6029,
      "Ġcont": 6030,
      "Ġken": 6031,
      "Ġpasid": 6032,
      "Ġiniciatyvos": 6033,
      "Ġfili": 6034,
      "Ġsar": 6035,
      "Ġwork": 6036,
      "ybems": 6037,
      "ute": 6038,
      "Ġkiekvienu": 6039,
      "vanden": 6040,
      "Ġsusisiekimo": 6041,
      "Ġlengv": 6042,
      "Ġbuveine": 6043,
      "Ġturini": 6044,
      "Ġsektorius": 6045,
      "Ġlaivams": 6046,
      "zai": 6047,
      "isiais": 6048,
      "chts": 6049,
      "Ġsteig": 6050,
      "Ġnesila": 6051,
      "Ġzai": 6052,
      "Ġgamybai": 6053,
      "Ġkalbama": 6054,
      "Ġmono": 6055,
      "Ġtikriems": 6056,
      "wal": 6057,
      "Ġpaska": 6058,
      "Ġtranzito": 6059,
      "ÐµÐ½": 6060,
      "Ġ133": 6061,
      "Ġpsi": 6062,
      "Ġbendrajame": 6063,
      "ales": 6064,
      "Ġeng": 6065,
      "Ġsuzino": 6066,
      "Ġdominuoja": 6067,
      "Ġsiose": 6068,
      "Ġpirmines": 6069,
      "Ġieskovai": 6070,
      "ade": 6071,
      "gumos": 6072,
      "Ġsluo": 6073,
      "Ġdire": 6074,
      "Ġskirtus": 6075,
      "Ġvengrijos": 6076,
      "Ġstojimo": 6077,
      "Ġdzio": 6078,
      "Ġsvedijos": 6079,
      "Ġargumenta": 6080,
      "Ġindo": 6081,
      "tom": 6082,
      "Ġkonces": 6083,
      "Ġppo": 6084,
      "tech": 6085,
      "Ġisteklius": 6086,
      "Ġpertvarkymo": 6087,
      "amb": 6088,
      "Ġprovin": 6089,
      "lig": 6090,
      "Ġvienam": 6091,
      "Ġskrydziu": 6092,
      "dytu": 6093,
      "Ġbando": 6094,
      "truktu": 6095,
      "Ġpasaulio": 6096,
      "Ġkelias": 6097,
      "Ġ148": 6098,
      "Ġasmenis": 6099,
      "Ġlenteles": 6100,
      "Ġnurodytais": 6101,
      "Ġ157": 6102,
      "Ġvaldybos": 6103,
      "Ġvartotojas": 6104,
      "meti": 6105,
      "Ġskaiciaus": 6106,
      "Ġklaidos": 6107,
      "davo": 6108,
      "Ġ218": 6109,
      "produk": 6110,
      "Ġstiklo": 6111,
      "Ġabi": 6112,
      "Ġlini": 6113,
      "Ġegzista": 6114,
      "Ġpotencial": 6115,
      "bomis": 6116,
      "Ġlaks": 6117,
      "Ġvalgo": 6118,
      "Ġ230": 6119,
      "gre": 6120,
      "Ġasmeni": 6121,
      "Ġprog": 6122,
      "Ġatsakymas": 6123,
      "ab": 6124,
      "irup": 6125,
      "gs": 6126,
      "Ġspecialios": 6127,
      "ĠÑģ": 6128,
      "rian": 6129,
      "jusiu": 6130,
      "com": 6131,
      "Ġatsisakymo": 6132,
      "Ġarbitrazo": 6133,
      "Ġapskaiciuojant": 6134,
      "Ġatsizvelges": 6135,
      "Ġnustatancio": 6136,
      "Ġnepal": 6137,
      "pr": 6138,
      "Ġtures": 6139,
      "Ġ147": 6140,
      "tinta": 6141,
      "Ġ137": 6142,
      "Ġsr": 6143,
      "Ġnyderlandai": 6144,
      "Ġ050": 6145,
      "tir": 6146,
      "Ġpatenkinti": 6147,
      "Ġprejudiciniai": 6148,
      "avimai": 6149,
      "umos": 6150,
      "Ġvisai": 6151,
      "Ġpasiras": 6152,
      "Ġteikimas": 6153,
      "Ġatspin": 6154,
      "Ġeuropean": 6155,
      "deg": 6156,
      "Ġapg": 6157,
      "Ġveikloje": 6158,
      "Ġsekre": 6159,
      "Ġkiekyb": 6160,
      "Ġfol": 6161,
      "Ġpakeistos": 6162,
      "Ġwhich": 6163,
      "kiria": 6164,
      "Ġsusitarimai": 6165,
      "Ġpopieriaus": 6166,
      "Ġdrabu": 6167,
      "Ġeilutes": 6168,
      "Ġnereiskia": 6169,
      "Ġvandenyse": 6170,
      "Ġruo": 6171,
      "Ġprivers": 6172,
      "Ġport": 6173,
      "Ġfur": 6174,
      "Ġsudaran": 6175,
      "Ġisple": 6176,
      "Ġradijo": 6177,
      "Ġuzmokescio": 6178,
      "tie": 6179,
      "Ġinfrastruktura": 6180,
      "Ġtradic": 6181,
      "iliu": 6182,
      "Ġtikslinga": 6183,
      "Ġmuitai": 6184,
      "Ġmomentu": 6185,
      "Ġnacionalineje": 6186,
      "Ġpabrez": 6187,
      "tusi": 6188,
      "Ġkalendo": 6189,
      "Ġkny": 6190,
      "ienos": 6191,
      "Ġmesa": 6192,
      "trio": 6193,
      "Ġigaliojimais": 6194,
      "Ġmineral": 6195,
      "Ġminetame": 6196,
      "tuota": 6197,
      "Ġatlan": 6198,
      "Ġistatyma": 6199,
      "Ġ1049": 6200,
      "ctor": 6201,
      "Ġuztikrintas": 6202,
      "sen": 6203,
      "iosios": 6204,
      "Ġstatistikos": 6205,
      "rios": 6206,
      "Ġsite": 6207,
      "Ġzie": 6208,
      "Ġkore": 6209,
      "Ġpk": 6210,
      "Ġapdorojimo": 6211,
      "Ġtinkamos": 6212,
      "Ġkvadra": 6213,
      "Ġunivers": 6214,
      "vio": 6215,
      "Ġturintis": 6216,
      "Ġzur": 6217,
      "Ġpaklaus": 6218,
      "Ġvienodai": 6219,
      "inimui": 6220,
      "olid": 6221,
      "Ġbukle": 6222,
      "Ġsaltiniu": 6223,
      "ĠÎµ": 6224,
      "Ġlike": 6225,
      "gar": 6226,
      "Ġvietu": 6227,
      "Ġdevel": 6228,
      "Ġatitinkamais": 6229,
      "Ġigyvendinimas": 6230,
      "Ġaukstes": 6231,
      "Ġparengia": 6232,
      "Ġteisejai": 6233,
      "Ġapyvartos": 6234,
      "ll": 6235,
      "Ġplatumos": 6236,
      "Ġtariamai": 6237,
      "mento": 6238,
      "Ġkancelia": 6239,
      "eja": 6240,
      "Ġ610": 6241,
      "Ġperkelti": 6242,
      "Ġgera": 6243,
      "sio": 6244,
      "menta": 6245,
      "Ġsur": 6246,
      "Ġsukcia": 6247,
      "tk": 6248,
      "Ġkva": 6249,
      "Ġpacioje": 6250,
      "Ġnuolaid": 6251,
      "pora": 6252,
      "Ġdaugias": 6253,
      "Ġprilyg": 6254,
      "ado": 6255,
      "amieji": 6256,
      "100": 6257,
      "Ġteisinga": 6258,
      "Ġdeklar": 6259,
      "Ġveiksmingu": 6260,
      "euro": 6261,
      "sel": 6262,
      "inau": 6263,
      "alius": 6264,
      "Ġrugstis": 6265,
      "Ġschemos": 6266,
      "Ġdidzio": 6267,
      "Ġ529900": 6268,
      "Ġitrauktos": 6269,
      "Ġmor": 6270,
      "Ġhttps": 6271,
      "zemio": 6272,
      "Ġstrategija": 6273,
      "amp": 6274,
      "ingumas": 6275,
      "ura": 6276,
      "64": 6277,
      "Ġleidimus": 6278,
      "Ġprevencijos": 6279,
      "daug": 6280,
      "Ġkiaus": 6281,
      "Ġvidutines": 6282,
      "Ġnagrinejami": 6283,
      "Ġgeria": 6284,
      "Ġirenginiai": 6285,
      "Ġaudiniai": 6286,
      "zies": 6287,
      "Ġrestruktu": 6288,
      "Ġ143": 6289,
      "Ġlemia": 6290,
      "Ġss": 6291,
      "Ġbiudzetu": 6292,
      "Ġmenesi": 6293,
      "Ġtvarko": 6294,
      "Ġlimi": 6295,
      "Ġatleisti": 6296,
      "Ġnaviga": 6297,
      "uotasis": 6298,
      "ling": 6299,
      "ikosi": 6300,
      "Ġtank": 6301,
      "Ġkoncentracijos": 6302,
      "Ġpakai": 6303,
      "Ġdirbti": 6304,
      "uria": 6305,
      "Ġskrydzio": 6306,
      "Ġsuderinimo": 6307,
      "Ġ131": 6308,
      "Ġsiekti": 6309,
      "romis": 6310,
      "leis": 6311,
      "aldyti": 6312,
      "Ġapskaicia": 6313,
      "ako": 6314,
      "Ġatsitik": 6315,
      "Ġfen": 6316,
      "Ġparlamentui": 6317,
      "Ġanglies": 6318,
      "Ġsiems": 6319,
      "federa": 6320,
      "Ġprievoles": 6321,
      "df": 6322,
      "dina": 6323,
      "Ġlaikosi": 6324,
      "Ġsocialine": 6325,
      "Ġdegalu": 6326,
      "Ġidieg": 6327,
      "Ġnesuk": 6328,
      "Ġautori": 6329,
      "Ġreguliariai": 6330,
      "Ġwho": 6331,
      "Ġsmo": 6332,
      "Ġsudarytos": 6333,
      "ntimo": 6334,
      "dytas": 6335,
      "miniai": 6336,
      "Ġkonkretaus": 6337,
      "tinga": 6338,
      "Ġraso": 6339,
      "Ġcentriniu": 6340,
      "Ġapibre": 6341,
      "Ġnariams": 6342,
      "Ġregistruoti": 6343,
      "Ġpopierius": 6344,
      "diniu": 6345,
      "Ġnumatomas": 6346,
      "ikoje": 6347,
      "Ġindijos": 6348,
      "anor": 6349,
      "Ġekspertu": 6350,
      "Ġwin": 6351,
      "Ġ0207": 6352,
      "mti": 6353,
      "Ġteisiskai": 6354,
      "Ġsalyse": 6355,
      "inamosios": 6356,
      "Ġdioks": 6357,
      "Ġnasta": 6358,
      "Ġorlaiviu": 6359,
      "ost": 6360,
      "Ġkelios": 6361,
      "Ġsusik": 6362,
      "Ġpanaikintas": 6363,
      "Ġatskleid": 6364,
      "Ġsavi": 6365,
      "Ġgaliojanciu": 6366,
      "Ġproblema": 6367,
      "Ġdeuts": 6368,
      "Ġabs": 6369,
      "Ġsutartimi": 6370,
      "Ġautent": 6371,
      "Ġkokio": 6372,
      "rieji": 6373,
      "Ġgeografine": 6374,
      "Ġatstovai": 6375,
      "eros": 6376,
      "Ġreikalavimams": 6377,
      "Ġnuomos": 6378,
      "Ġdidelio": 6379,
      "Ġtelevizijos": 6380,
      "Ġbankro": 6381,
      "Ġsmul": 6382,
      "Ġmarke": 6383,
      "port": 6384,
      "Ġdekre": 6385,
      "Ġtaikytinos": 6386,
      "Ġsumu": 6387,
      "try": 6388,
      "Ġkiekvienam": 6389,
      "Ġlenteleje": 6390,
      "Ġkonkrecias": 6391,
      "Ġisreiksta": 6392,
      "Ġvyno": 6393,
      "Ġleista": 6394,
      "Ġpavoju": 6395,
      "Ġdokumente": 6396,
      "Ġantrosios": 6397,
      "Ġatliekama": 6398,
      "Ġirodo": 6399,
      "Ġms": 6400,
      "Ġnaftos": 6401,
      "Ġpriimtinumo": 6402,
      "avos": 6403,
      "Ġisitik": 6404,
      "Ġpagrindais": 6405,
      "Ġbuveines": 6406,
      "Ġklaidingai": 6407,
      "Ġparduoti": 6408,
      "Ġkorek": 6409,
      "Ġnuolatine": 6410,
      "Õ¡Õ": 6411,
      "Ġpajamas": 6412,
      "Ġnekilnojamojo": 6413,
      "Ġankstesnio": 6414,
      "ciame": 6415,
      "Ġnetik": 6416,
      "Ġneivykde": 6417,
      "Ġatsiranda": 6418,
      "Ġsprendzia": 6419,
      "pol": 6420,
      "Ġpageid": 6421,
      "Ġpraktikoje": 6422,
      "ĠÎº": 6423,
      "zines": 6424,
      "lex": 6425,
      "Ġdeklaracijos": 6426,
      "Ġdalyviu": 6427,
      "Ġcode": 6428,
      "Ġkontak": 6429,
      "Ġuniversite": 6430,
      "tenka": 6431,
      "Ġmak": 6432,
      "uotus": 6433,
      "Ġsavybiu": 6434,
      "ininkai": 6435,
      "Ġvartotojo": 6436,
      "Ġpaskelbta": 6437,
      "Ð·": 6438,
      "Ġneteiseta": 6439,
      "Ġapeliacineje": 6440,
      "Ġpriskiriami": 6441,
      "Ġ168": 6442,
      "Ġprasyme": 6443,
      "Ġremti": 6444,
      "Ġarch": 6445,
      "Ġdaugiametes": 6446,
      "Ġ180": 6447,
      "Ġneutr": 6448,
      "Õ«": 6449,
      "Ġporeikiu": 6450,
      "Ġatstovas": 6451,
      "Ġdaznai": 6452,
      "Ġtel": 6453,
      "toriams": 6454,
      "Ġparaisk": 6455,
      "inui": 6456,
      "Ġbutinos": 6457,
      "Ġsiuly": 6458,
      "hof": 6459,
      "Ġgalimas": 6460,
      "Ġaparatai": 6461,
      "redi": 6462,
      "Ġnacionaliniai": 6463,
      "Ġremiamasi": 6464,
      "Ð³": 6465,
      "Ġ182": 6466,
      "Ġpastaro": 6467,
      "Ġbutinybe": 6468,
      "pose": 6469,
      "73": 6470,
      "Ġnagrinejamo": 6471,
      "Ġkiekvienai": 6472,
      "Ġuzdav": 6473,
      "Ġvisada": 6474,
      "Ġbel": 6475,
      "Ġalia": 6476,
      "Ġtelefon": 6477,
      "79": 6478,
      "finan": 6479,
      "Ġ640": 6480,
      "Ġteikejas": 6481,
      "Ġstatuto": 6482,
      "berg": 6483,
      "Ġuzdraus": 6484,
      "Ġmai": 6485,
      "Ġgmin": 6486,
      "Ġapriboti": 6487,
      "Ġtarpusavyje": 6488,
      "Ġpur": 6489,
      "Ġgryn": 6490,
      "Ġthere": 6491,
      "Ġapibudin": 6492,
      "Ġvienodas": 6493,
      "Ġneproporc": 6494,
      "Ġsuvarto": 6495,
      "Ġsureng": 6496,
      "uotosios": 6497,
      "Ġjaun": 6498,
      "idai": 6499,
      "Ġbendradarbiauti": 6500,
      "enden": 6501,
      "Ġpeln": 6502,
      "rode": 6503,
      "Ġkuk": 6504,
      "Ġpanaudoti": 6505,
      "Ġmoto": 6506,
      "Ġbulgarijos": 6507,
      "Ġtabako": 6508,
      "als": 6509,
      "Ġafr": 6510,
      "Ġlaborato": 6511,
      "Ġtaisyklemis": 6512,
      "Ġataskaitas": 6513,
      "Ġkoda": 6514,
      "Ġatitinkami": 6515,
      "Ġbla": 6516,
      "Ġsioms": 6517,
      "Ġkak": 6518,
      "Ġteismines": 6519,
      "mokra": 6520,
      "Ġpareigunai": 6521,
      "Ġderybu": 6522,
      "Ġpapildomo": 6523,
      "Ġkiekiu": 6524,
      "Ġsenaties": 6525,
      "Ġnaudojimui": 6526,
      "Ġmiesto": 6527,
      "ight": 6528,
      "Ġ234": 6529,
      "Ġprojektas": 6530,
      "Ġpratesti": 6531,
      "Ġporeikius": 6532,
      "Ġvairuotojo": 6533,
      "iusti": 6534,
      "Ġnaudojasi": 6535,
      "dziau": 6536,
      "Ġinstancijoje": 6537,
      "Ġbriuselis": 6538,
      "Ġatlyginima": 6539,
      "ĠÏĢ": 6540,
      "Ġsuvo": 6541,
      "Ġkonsolid": 6542,
      "Ġpralai": 6543,
      "Ġni": 6544,
      "Ġpadidejo": 6545,
      "Ġrasytine": 6546,
      "Ġner": 6547,
      "Ġdruskos": 6548,
      "Ġstate": 6549,
      "mia": 6550,
      "Ġsavanor": 6551,
      "Ġabu": 6552,
      "Ġpasiulymus": 6553,
      "Ġpersonalo": 6554,
      "Ġelpa": 6555,
      "Ġskaidrumo": 6556,
      "Ġgalutini": 6557,
      "Ġtrak": 6558,
      "Ġmic": 6559,
      "Ġatvi": 6560,
      "à¸": 6561,
      "Ġrinklia": 6562,
      "Ġapmokestinamasis": 6563,
      "82": 6564,
      "rasyti": 6565,
      "Ġ700": 6566,
      "lt": 6567,
      "muose": 6568,
      "Ġvaldyma": 6569,
      "Ġautomatiskai": 6570,
      "Ġgelezies": 6571,
      "Ġrestrukturiz": 6572,
      "Ġsuformuo": 6573,
      "Ġnesilaiky": 6574,
      "Ġpabeg": 6575,
      "Ġpatirtas": 6576,
      "Ġtribunal": 6577,
      "Ġod": 6578,
      "Ġatsizvelgdami": 6579,
      "Ġpateikiamos": 6580,
      "Ġkonsultacijos": 6581,
      "Ġzenklai": 6582,
      "prend": 6583,
      "pta": 6584,
      "varb": 6585,
      "Ġ800": 6586,
      "Ġspecialiai": 6587,
      "Ġpramonei": 6588,
      "Ġdemokra": 6589,
      "Ġpow": 6590,
      "Ġkompetentingai": 6591,
      "Ġ340": 6592,
      "Ġnaremis": 6593,
      "Ġnurodytiems": 6594,
      "inese": 6595,
      "air": 6596,
      "Ġ722": 6597,
      "Ġgerai": 6598,
      "Ġveiksminguma": 6599,
      "Ġfiziniu": 6600,
      "Ġneatitik": 6601,
      "Ġkulturos": 6602,
      "Ġpagrindzia": 6603,
      "Ġapp": 6604,
      "Ġgerokai": 6605,
      "Ġmake": 6606,
      "ekio": 6607,
      "Ġbusp": 6608,
      "Ġproku": 6609,
      "Ġprelimina": 6610,
      "Ġive": 6611,
      "inimus": 6612,
      "Ġnutartimi": 6613,
      "vine": 6614,
      "Ġasignavimu": 6615,
      "Ġdevelop": 6616,
      "rei": 6617,
      "Ġatlikta": 6618,
      "smin": 6619,
      "iausiai": 6620,
      "Ġodos": 6621,
      "Ġmember": 6622,
      "Ġmotyvai": 6623,
      "Ġduo": 6624,
      "Ġ1989": 6625,
      "Ġrespublikai": 6626,
      "imams": 6627,
      "Ġlesas": 6628,
      "Ġgelezinkelio": 6629,
      "misijos": 6630,
      "Ġ152": 6631,
      "Ġsuinteresuotuju": 6632,
      "ats": 6633,
      "Ġdarzoves": 6634,
      "Ġsandorius": 6635,
      "Ġnumatyto": 6636,
      "Ġinn": 6637,
      "Ġligos": 6638,
      "dienis": 6639,
      "Ġkuro": 6640,
      "Ġspar": 6641,
      "Ġprejudicinius": 6642,
      "ilo": 6643,
      "Ġdef": 6644,
      "Î¹Îº": 6645,
      "vaila": 6646,
      "Ġatliekami": 6647,
      "masias": 6648,
      "Ġgeme": 6649,
      "Ġpatirti": 6650,
      "Ġisl": 6651,
      "Ġ1234": 6652,
      "Ġginca": 6653,
      "Ġ630": 6654,
      "Ġisigyti": 6655,
      "Ġzenklams": 6656,
      "Ġtapo": 6657,
      "Ġzvejyba": 6658,
      "Ġpavadinima": 6659,
      "Ġdekreto": 6660,
      "Ġmetine": 6661,
      "Ġpatikrinimus": 6662,
      "Ġmenesio": 6663,
      "Ġvardas": 6664,
      "Ġivertinimo": 6665,
      "Ġeiles": 6666,
      "Ġdokumentuose": 6667,
      "Ġreglamentai": 6668,
      "Ġmetodus": 6669,
      "Ġpanaikinamas": 6670,
      "Ġdidzi": 6671,
      "Ã¸": 6672,
      "ejimo": 6673,
      "Ġapribojimus": 6674,
      "Ġtelekomunika": 6675,
      "Ġtenka": 6676,
      "Ġukrainos": 6677,
      "ality": 6678,
      "Ġribas": 6679,
      "Ġapskaiciuota": 6680,
      "Ġveterina": 6681,
      "Ġkartus": 6682,
      "Ġpenkta": 6683,
      "Ġreikmenys": 6684,
      "Ġsprendimui": 6685,
      "nie": 6686,
      "ciojoje": 6687,
      "Ġatkreip": 6688,
      "Ġisik": 6689,
      "Ġpusia": 6690,
      "Ġnesvarb": 6691,
      "Ġpatys": 6692,
      "Ġnorvegijos": 6693,
      "Ġpastang": 6694,
      "tiesiems": 6695,
      "Ġ142": 6696,
      "Ġom": 6697,
      "Ġtvirtino": 6698,
      "Ġlaw": 6699,
      "Ġatskaita": 6700,
      "Ġsunkumu": 6701,
      "Ġsutuok": 6702,
      "Ġpato": 6703,
      "lap": 6704,
      "Ġidarbinimo": 6705,
      "tumas": 6706,
      "Ġavaila": 6707,
      "Ġnormas": 6708,
      "duo": 6709,
      "Ġkriterijais": 6710,
      "Ġriebalu": 6711,
      "Ġges": 6712,
      "Ġleistu": 6713,
      "Ġpusiaus": 6714,
      "iuju": 6715,
      "fc": 6716,
      "Ġsiekdamas": 6717,
      "Ñĩ": 6718,
      "Ġinteresams": 6719,
      "Ġfederacine": 6720,
      "inimai": 6721,
      "Ġatliktu": 6722,
      "Ġprimintina": 6723,
      "eru": 6724,
      "Ġgrynu": 6725,
      "tera": 6726,
      "Ġobl": 6727,
      "Ġteritoriju": 6728,
      "Ġnukente": 6729,
      "Ġveiksniu": 6730,
      "Ġ310": 6731,
      "Ġsuskir": 6732,
      "Ġetike": 6733,
      "Ġpatvirtinimas": 6734,
      "ach": 6735,
      "Ġkoeficientas": 6736,
      "Ġmaziausiai": 6737,
      "Ġilgis": 6738,
      "Ġpasien": 6739,
      "Ġfaktine": 6740,
      "Ġ167": 6741,
      "Ġtreciasis": 6742,
      "rent": 6743,
      "ents": 6744,
      "Ġmax": 6745,
      "Ġkoordinavimo": 6746,
      "Ġaliuminio": 6747,
      "Ġisipareigo": 6748,
      "Ġaugal": 6749,
      "Ġpusiausvy": 6750,
      "Ġkvotu": 6751,
      "Ġdiplo": 6752,
      "Ġcompany": 6753,
      "Ġvaliuta": 6754,
      "rovimo": 6755,
      "Ġatkuri": 6756,
      "Ġstip": 6757,
      "Ġtime": 6758,
      "Ġzonoje": 6759,
      "Ġpavojus": 6760,
      "Ġdve": 6761,
      "Ġperdavimas": 6762,
      "Ġprotesto": 6763,
      "tavimas": 6764,
      "Ġplanas": 6765,
      "Ġix": 6766,
      "Ġatnaujinimo": 6767,
      "Ġlesos": 6768,
      "Ġmusu": 6769,
      "Ġlaisku": 6770,
      "Ġatskaitos": 6771,
      "Ġsajungai": 6772,
      "Ġvykdomos": 6773,
      "jomis": 6774,
      "Ġpatikrinimu": 6775,
      "Ġsluoksn": 6776,
      "Ġdiskriminacija": 6777,
      "tinus": 6778,
      "Ġatvirksciai": 6779,
      "ase": 6780,
      "Ġrezultatas": 6781,
      "Ġvartotojui": 6782,
      "Ġspin": 6783,
      "Ġmetodo": 6784,
      "Ġholding": 6785,
      "bau": 6786,
      "Ġviesas": 6787,
      "Ġmokejimai": 6788,
      "Ġsavininko": 6789,
      "Ġavailable": 6790,
      "Ġsuteiktu": 6791,
      "Ġbur": 6792,
      "Ġmaro": 6793,
      "Ġnauj": 6794,
      "Ġ1987": 6795,
      "Ġnenurodyti": 6796,
      "uotoji": 6797,
      "Ġpapunktyje": 6798,
      "moka": 6799,
      "Ġkonfedera": 6800,
      "Ġatsakingos": 6801,
      "dri": 6802,
      "Ġdisti": 6803,
      "Ġmisku": 6804,
      "Ġbendrajam": 6805,
      "Ġkultu": 6806,
      "ya": 6807,
      "Ġdr": 6808,
      "yra": 6809,
      "Ġvertinamas": 6810,
      "Ġnereikalauja": 6811,
      "Ġsuteike": 6812,
      "Ġvaldyba": 6813,
      "Ġarti": 6814,
      "Ġivykdytos": 6815,
      "Ġigi": 6816,
      "Ġjapon": 6817,
      "Ġskundziama": 6818,
      "Ġnuostatose": 6819,
      "Ġkodai": 6820,
      "Ġ149": 6821,
      "Ġstar": 6822,
      "kmo": 6823,
      "Ġperduoda": 6824,
      "Ġveikliosios": 6825,
      "Ġspiri": 6826,
      "eig": 6827,
      "ÑĢÐ°": 6828,
      "Ġpatikimu": 6829,
      "Ġpasiulyme": 6830,
      "Ġacces": 6831,
      "Ġisg": 6832,
      "Ġmasto": 6833,
      "Ġ900": 6834,
      "Ġprejudicinio": 6835,
      "Ġperiod": 6836,
      "nku": 6837,
      "ium": 6838,
      "Ġriesu": 6839,
      "Ġnatrio": 6840,
      "Ġhigh": 6841,
      "Ġdraus": 6842,
      "ininko": 6843,
      "Ġpabaigoje": 6844,
      "Ġsauga": 6845,
      "Ġjuri": 6846,
      "Ġprase": 6847,
      "Ġonline": 6848,
      "Ġvin": 6849,
      "Ġ151": 6850,
      "Ġsvarbos": 6851,
      "Ġmodifik": 6852,
      "Ġsusijusiais": 6853,
      "Ġsw": 6854,
      "Ġitrauka": 6855,
      "Ġgov": 6856,
      "Ġklausim": 6857,
      "Ġnustatytomis": 6858,
      "Ġcentro": 6859,
      "rove": 6860,
      "Ġautomobiliu": 6861,
      "Ġpic": 6862,
      "Ġgynimo": 6863,
      "Ġdalimis": 6864,
      "Ġpramoniniam": 6865,
      "Ġpakenk": 6866,
      "enste": 6867,
      "Ġmegz": 6868,
      "Ġsituacijos": 6869,
      "Ġiplauk": 6870,
      "Ġdidinti": 6871,
      "Ġlaikina": 6872,
      "Ġprojektus": 6873,
      "Ġ155": 6874,
      "Ġpalankes": 6875,
      "Ġpasireng": 6876,
      "Ġprekemis": 6877,
      "Ġfrance": 6878,
      "Ġperkelia": 6879,
      "Ġpastabose": 6880,
      "Ġatliko": 6881,
      "Ġistaigai": 6882,
      "Ġrodikliai": 6883,
      "Ġ550": 6884,
      "Ġissamias": 6885,
      "Ġaptar": 6886,
      "Ġ1408": 6887,
      "Ġskub": 6888,
      "Ġtva": 6889,
      "Ġindeksas": 6890,
      "Ġilgumos": 6891,
      "ĠÃĹ": 6892,
      "Ġvadovu": 6893,
      "Ġinicija": 6894,
      "Ġgene": 6895,
      "trik": 6896,
      "Ġpareigunas": 6897,
      "Ġneko": 6898,
      "Ġturkijos": 6899,
      "Ġklientu": 6900,
      "iskir": 6901,
      "eliais": 6902,
      "ciose": 6903,
      "Ġsgn": 6904,
      "Ġisspresti": 6905,
      "Ġelektro": 6906,
      "Ġlek": 6907,
      "Ġsubjektus": 6908,
      "Ġlaivas": 6909,
      "Ġatsizvelgdamos": 6910,
      "Ġsel": 6911,
      "Ġappl": 6912,
      "Ġnaudai": 6913,
      "Ġfos": 6914,
      "Ġistatymus": 6915,
      "Ġvieneto": 6916,
      "zil": 6917,
      "ram": 6918,
      "Ġtaikytinas": 6919,
      "Ġxi": 6920,
      "virtinama": 6921,
      "Ġark": 6922,
      "Ġnutartis": 6923,
      "Ġivad": 6924,
      "Ġuzimtumo": 6925,
      "Ġnebuvimas": 6926,
      "Ġdegree": 6927,
      "Ġpaies": 6928,
      "Ġdidzioji": 6929,
      "Ġzinias": 6930,
      "Ġbankroto": 6931,
      "muosius": 6932,
      "Ġdaik": 6933,
      "Ġsuomijos": 6934,
      "len": 6935,
      "Ġruk": 6936,
      "Ġplaukio": 6937,
      "mimo": 6938,
      "Ġrumunijos": 6939,
      "amiesi": 6940,
      "Ġsaskaitu": 6941,
      "Ġstiprinti": 6942,
      "Ġpiliecio": 6943,
      "Ġdidelis": 6944,
      "cil": 6945,
      "Ġ940": 6946,
      "Ġ156": 6947,
      "Ġreglamentavimo": 6948,
      "Î¿ÏĤ": 6949,
      "Ġsankciju": 6950,
      "Ġoz": 6951,
      "ses": 6952,
      "Ġvariklio": 6953,
      "Ġmazdaug": 6954,
      "Ġpateikiant": 6955,
      "Ġvol": 6956,
      "Ġsvarbia": 6957,
      "Ġkrakmo": 6958,
      "roms": 6959,
      "Ġstatusas": 6960,
      "Ġmetines": 6961,
      "Ġpaskirta": 6962,
      "Ġkeiciantis": 6963,
      "Ġsiur": 6964,
      "ĠÂ±": 6965,
      "Ġred": 6966,
      "Ġatitinkamoje": 6967,
      "Ġnurodomi": 6968,
      "tuojama": 6969,
      "Ġdeparta": 6970,
      "Ġmeth": 6971,
      "Ġxii": 6972,
      "peri": 6973,
      "Ġatnaujinti": 6974,
      "Ġsavininku": 6975,
      "alis": 6976,
      "Ġirodymais": 6977,
      "niz": 6978,
      "Ġbendruomen": 6979,
      "Ġ170": 6980,
      "Ġetape": 6981,
      "damiesi": 6982,
      "Ġneuztikrin": 6983,
      "Ġ330": 6984,
      "Ġnedaly": 6985,
      "Ġdienas": 6986,
      "dinti": 6987,
      "Ġmana": 6988,
      "Ġnenurodyta": 6989,
      "Ġtiesioginio": 6990,
      "Ġnaudojamu": 6991,
      "Ġnepagristas": 6992,
      "usiasis": 6993,
      "Ġbiudzetui": 6994,
      "Ġidentifika": 6995,
      "Ġmato": 6996,
      "Ġabout": 6997,
      "Ġpakeisto": 6998,
      "tnam": 6999,
      "Ġkrau": 7000,
      "72": 7001,
      "Ġ169": 7002,
      "Ġvaika": 7003,
      "Ġjungtinis": 7004,
      "iti": 7005,
      "ld": 7006,
      "Ġplanu": 7007,
      "zacijos": 7008,
      "Ġghs": 7009,
      "umui": 7010,
      "Ġpirmaja": 7011,
      "Ġaresto": 7012,
      "zol": 7013,
      "inanti": 7014,
      "Ġkeisti": 7015,
      "Ġvienintelis": 7016,
      "Ġziu": 7017,
      "Ġrugsties": 7018,
      "Ġstebejimo": 7019,
      "Ġatskleisti": 7020,
      "Ġgas": 7021,
      "Ġapibreztys": 7022,
      "Ġnedaro": 7023,
      "tz": 7024,
      "Ġ146": 7025,
      "Ġpriemus": 7026,
      "Ġpasa": 7027,
      "Ġkort": 7028,
      "Ġitin": 7029,
      "Ġdialo": 7030,
      "Ġara": 7031,
      "Ġ410": 7032,
      "Ġdele": 7033,
      "Ġpriimtos": 7034,
      "Ġdg": 7035,
      "maji": 7036,
      "Ġateityje": 7037,
      "Ġ261": 7038,
      "Ġitvirtintas": 7039,
      "74": 7040,
      "Ġ480": 7041,
      "Ġnaudojantis": 7042,
      "Ġdvides": 7043,
      "Ġligon": 7044,
      "84": 7045,
      "Ġtiketina": 7046,
      "Ġ144": 7047,
      "Ġsy": 7048,
      "Ġoficialiai": 7049,
      "kia": 7050,
      "Ġneke": 7051,
      "Ġtiesioginiu": 7052,
      "into": 7053,
      "ĠâĮ": 7054,
      "Ġsver": 7055,
      "Ġprekiauti": 7056,
      "Ġsudarant": 7057,
      "cer": 7058,
      "Ġisankstinio": 7059,
      "Ġdalyvavimas": 7060,
      "Ġglaudziai": 7061,
      "organ": 7062,
      "Ġplokstes": 7063,
      "Ġ414": 7064,
      "Ġvyksta": 7065,
      "Ġperskai": 7066,
      "Ġirenginio": 7067,
      "Ġzodziai": 7068,
      "Ġchemines": 7069,
      "Ġatsirad": 7070,
      "roso": 7071,
      "Ġreikalingas": 7072,
      "Ġziniu": 7073,
      "Ġdidesnes": 7074,
      "Ġmetal": 7075,
      "Ġpais": 7076,
      "Ġ165": 7077,
      "Ġklin": 7078,
      "Ġplane": 7079,
      "Ġpanaikinimas": 7080,
      "Ġaustrija": 7081,
      "tanijos": 7082,
      "Ġobliga": 7083,
      "Ġimoku": 7084,
      "Ġmsc": 7085,
      "Ġsudarytu": 7086,
      "Ġola": 7087,
      "linas": 7088,
      "Ġano": 7089,
      "ings": 7090,
      "xt": 7091,
      "Ġrq": 7092,
      "tojais": 7093,
      "Ġmoder": 7094,
      "Ġnepagristai": 7095,
      "Ġetil": 7096,
      "Ġgreiciau": 7097,
      "inauj": 7098,
      "Ġimtasi": 7099,
      "Ġesa": 7100,
      "Ġev": 7101,
      "Ġrang": 7102,
      "Ġpranesejas": 7103,
      "Ġieskinyje": 7104,
      "Ġvalc": 7105,
      "ntiems": 7106,
      "Ġedu": 7107,
      "Ġesantis": 7108,
      "Ġdif": 7109,
      "Ġpadarytas": 7110,
      "Ġtemperatura": 7111,
      "elius": 7112,
      "Ġisduodan": 7113,
      "Ġsektoriuose": 7114,
      "Ġankstesne": 7115,
      "Ġportugalija": 7116,
      "Ġkonserv": 7117,
      "but": 7118,
      "name": 7119,
      "Ġnepriklausomai": 7120,
      "Ġmuitinei": 7121,
      "Ġprotokolu": 7122,
      "Ġnaminiu": 7123,
      "cti": 7124,
      "tuma": 7125,
      "Ġanaly": 7126,
      "Ġtarifo": 7127,
      "Ġistojusi": 7128,
      "Ġvertybiniais": 7129,
      "Ġapibreztis": 7130,
      "Ġsankcijos": 7131,
      "Ġteigti": 7132,
      "Ġtarpinink": 7133,
      "Ġveiksmais": 7134,
      "Ġuztikrinta": 7135,
      "Ġgood": 7136,
      "Ġisipareigojimo": 7137,
      "Ġpopieriais": 7138,
      "mission": 7139,
      "Ġkeis": 7140,
      "now": 7141,
      "Ġasociacija": 7142,
      "ful": 7143,
      "Ġtikim": 7144,
      "Ġvaidmen": 7145,
      "Ġtiems": 7146,
      "Ġplc": 7147,
      "Ġsaltinio": 7148,
      "Ġkelis": 7149,
      "Ġfir": 7150,
      "Ġservices": 7151,
      "sed": 7152,
      "Ġprocesu": 7153,
      "Ġgalutine": 7154,
      "urs": 7155,
      "Ġtaikomus": 7156,
      "Ġpreparatai": 7157,
      "Ġplates": 7158,
      "Ġnepagrista": 7159,
      "Ġpavidalo": 7160,
      "Ġlaikydamasi": 7161,
      "rauti": 7162,
      "Ġpranesama": 7163,
      "Ġdidziosios": 7164,
      "Ġgminy": 7165,
      "Ġgavejas": 7166,
      "ĠÐ²": 7167,
      "toriui": 7168,
      "Ġindustri": 7169,
      "Ġ153": 7170,
      "Ġirasyti": 7171,
      "Ġskirtingas": 7172,
      "Ġnuoto": 7173,
      "kul": 7174,
      "Ġveterinarijos": 7175,
      "Ġeuros": 7176,
      "Ġtokiam": 7177,
      "Ġpavojaus": 7178,
      "Ġneigiama": 7179,
      "dor": 7180,
      "Ġkalbomis": 7181,
      "Ġcal": 7182,
      "Ġ175": 7183,
      "Ġvidutine": 7184,
      "Ġesancios": 7185,
      "Ġjuod": 7186,
      "Ġpripazintas": 7187,
      "tatas": 7188,
      "76": 7189,
      "Ð½Ð°": 7190,
      "rre": 7191,
      "Ġmotyvus": 7192,
      "anas": 7193,
      "Ġaspektus": 7194,
      "Ġnepriimtinu": 7195,
      "Ġparuosti": 7196,
      "Ġkru": 7197,
      "Ġinternet": 7198,
      "Ġsurinkimo": 7199,
      "Ġgraikija": 7200,
      "ztu": 7201,
      "Ġiprasta": 7202,
      "Ġpirmen": 7203,
      "Ġatsinauj": 7204,
      "Ġ184": 7205,
      "ival": 7206,
      "Ġseg": 7207,
      "Ġgynybos": 7208,
      "zdziu": 7209,
      "Ġkomerciniu": 7210,
      "Ġrekomend": 7211,
      "Ġpasidali": 7212,
      "Ġprideta": 7213,
      "Ġekstrak": 7214,
      "Ġpalengvinti": 7215,
      "Ġmie": 7216,
      "Ġvon": 7217,
      "Ġgalimo": 7218,
      "Ġ1107": 7219,
      "Ġdeleguotojo": 7220,
      "Ġvystymosi": 7221,
      "Ġven": 7222,
      "Ġmetalo": 7223,
      "Ġpatekti": 7224,
      "Ġviagra": 7225,
      "Ġatsakoves": 7226,
      "Ġadministracinis": 7227,
      "Ġketina": 7228,
      "Ġstebesena": 7229,
      "earch": 7230,
      "Ġinformation": 7231,
      "Ġregione": 7232,
      "pyk": 7233,
      "uso": 7234,
      "Ġekonominio": 7235,
      "Ġecono": 7236,
      "Ġislaidoms": 7237,
      "Ġatskleidimo": 7238,
      "Ġreto": 7239,
      "Ġkalbos": 7240,
      "Ġrela": 7241,
      "Ġvirsyti": 7242,
      "ipras": 7243,
      "Ġslovakijos": 7244,
      "rini": 7245,
      "Ġvilnius": 7246,
      "Ġstrukturos": 7247,
      "Ġpaskelbti": 7248,
      "Ġgaveju": 7249,
      "Ġparaisku": 7250,
      "ÏīÎ½": 7251,
      "Ġpan": 7252,
      "uojamu": 7253,
      "Ġprocedurai": 7254,
      "Ġpatikslinti": 7255,
      "Ġkukuru": 7256,
      "Ġinstitucijas": 7257,
      "Ġkom": 7258,
      "Ġsusijusiems": 7259,
      "Ġnenaudo": 7260,
      "Ġsporto": 7261,
      "Ġnemoka": 7262,
      "Ġvalsti": 7263,
      "Ġsaltinis": 7264,
      "Ġvalstybemis": 7265,
      "Ġvienkar": 7266,
      "Ġgab": 7267,
      "Ġvynuogiu": 7268,
      "Ġhorizonta": 7269,
      "Ġlaikinuju": 7270,
      "Ġisskai": 7271,
      "Ġvaldyti": 7272,
      "Ġ1988": 7273,
      "kis": 7274,
      "Ġcu": 7275,
      "Ġdraudima": 7276,
      "Ġkasa": 7277,
      "Ġnurodant": 7278,
      "art": 7279,
      "Ġasignavimai": 7280,
      "Ġ$": 7281,
      "low": 7282,
      "Ġpapildomi": 7283,
      "Ġneapmokestin": 7284,
      "Ġzym": 7285,
      "nais": 7286,
      "Ġwhat": 7287,
      "Ġefekta": 7288,
      "Ġinstitucijomis": 7289,
      "Ġatskirti": 7290,
      "Ġtelekomunikaciju": 7291,
      "europos": 7292,
      "Ġrekomendacijas": 7293,
      "Ġelect": 7294,
      "Ġaero": 7295,
      "Ġnutraukimo": 7296,
      "Ġ204": 7297,
      "chtenste": 7298,
      "Ġesancio": 7299,
      "78": 7300,
      "Ġbp": 7301,
      "Ġnev": 7302,
      "Ġsvarsty": 7303,
      "Ġperdraudimo": 7304,
      "Ġkonkrecia": 7305,
      "Ġorlaivio": 7306,
      "Ġindone": 7307,
      "Ġjokia": 7308,
      "Ġtenden": 7309,
      "uotieji": 7310,
      "Ġpersekio": 7311,
      "Ġgalutines": 7312,
      "Ġpes": 7313,
      "Ġsiltnam": 7314,
      "Ġrsms": 7315,
      "Ġministerija": 7316,
      "Ġreglamentuojanciu": 7317,
      "Ġqrre": 7318,
      "ikliai": 7319,
      "Ġemp": 7320,
      "Ġpatvirtinima": 7321,
      "Ġdanija": 7322,
      "Ġelementas": 7323,
      "Ġpletra": 7324,
      "Ġnepat": 7325,
      "Ġsmot": 7326,
      "Ġrqrr": 7327,
      "Ġgd": 7328,
      "Ġuse": 7329,
      "ye": 7330,
      "cao": 7331,
      "Ġpareikal": 7332,
      "Ġuztikrinant": 7333,
      "Ġperziure": 7334,
      "Ġsuinteresuotosios": 7335,
      "Ġtetra": 7336,
      "Ġpriskiriamas": 7337,
      "Ġsubsidiarumo": 7338,
      "Ġ0805": 7339,
      "Ġreag": 7340,
      "ravimo": 7341,
      "Ġnaudotoju": 7342,
      "Ġaplinkosaugos": 7343,
      "Ġlukesciu": 7344,
      "vyn": 7345,
      "Ġ158": 7346,
      "Ġregionines": 7347,
      "vams": 7348,
      "Ġpublic": 7349,
      "Ġed": 7350,
      "Ġprekyb": 7351,
      "Ġrysi": 7352,
      "Ġresearch": 7353,
      "Ġkis": 7354,
      "aliza": 7355,
      "siu": 7356,
      "Ġmedicin": 7357,
      "tikai": 7358,
      "Ġpradejo": 7359,
      "Ġsupainio": 7360,
      "Ġpagerinti": 7361,
      "Ġplatfor": 7362,
      "Ġilgiau": 7363,
      "Ġ154": 7364,
      "Ġnegaliojancia": 7365,
      "Ġmetodai": 7366,
      "tici": 7367,
      "Ġiec": 7368,
      "Ġkiekius": 7369,
      "Ġnuosavybe": 7370,
      "Ġsha": 7371,
      "Ġsvel": 7372,
      "Ġissamios": 7373,
      "Ġgrandines": 7374,
      "inde": 7375,
      "Ġbor": 7376,
      "Ġliuksemburgo": 7377,
      "ianciu": 7378,
      "Ġbaudziamosios": 7379,
      "Ġsalyg": 7380,
      "Ġstoris": 7381,
      "enas": 7382,
      "Ġwri": 7383,
      "Ġrytu": 7384,
      "Ġsviesos": 7385,
      "Ġjusu": 7386,
      "Ġnieko": 7387,
      "Ġ176": 7388,
      "Ġplatinimo": 7389,
      "igracijos": 7390,
      "Ġimportui": 7391,
      "Ġmetodika": 7392,
      "Ġdere": 7393,
      "Ġgrup": 7394,
      "Ġprogram": 7395,
      "Ġits": 7396,
      "Ġbv": 7397,
      "Ġgale": 7398,
      "Ġapy": 7399,
      "Ġarticle": 7400,
      "Ġnusprendes": 7401,
      "lioji": 7402,
      "uociu": 7403,
      "of": 7404,
      "Ġobjektyviai": 7405,
      "Ġsantykius": 7406,
      "Ġgarso": 7407,
      "Ġfederal": 7408,
      "Ġnit": 7409,
      "Ġgyvybes": 7410,
      "Ġaroma": 7411,
      "Ġ0003": 7412,
      "Ġisimties": 7413,
      "viz": 7414,
      "Ġgaminio": 7415,
      "taiky": 7416,
      "Ġkonferen": 7417,
      "Ġteksto": 7418,
      "Ġisre": 7419,
      "urti": 7420,
      "Ġsveikata": 7421,
      "Ġsauguma": 7422,
      "Ġispe": 7423,
      "aktyv": 7424,
      "Ġsutrik": 7425,
      "Ġsm": 7426,
      "Ġriebalai": 7427,
      "Ġsusitaria": 7428,
      "Ġspindu": 7429,
      "dt": 7430,
      "isi": 7431,
      "Ġlau": 7432,
      "ncioji": 7433,
      "Ġsiulau": 7434,
      "Ġ840": 7435,
      "Ġbuveiniu": 7436,
      "domis": 7437,
      "Ġuztikrinamas": 7438,
      "Ġprivaciu": 7439,
      "00000": 7440,
      "med": 7441,
      "Ġgriz": 7442,
      "Ġkorteles": 7443,
      "ĠÐ´": 7444,
      "Ġrasytines": 7445,
      "Ġhydro": 7446,
      "yer": 7447,
      "Ġtus": 7448,
      "Ġnepaskelbtas": 7449,
      "Ġdelega": 7450,
      "iavimo": 7451,
      "Ġtiesiogines": 7452,
      "Ġlinijos": 7453,
      "Ġatspar": 7454,
      "inancios": 7455,
      "Ġ161": 7456,
      "Ġtad": 7457,
      "leks": 7458,
      "Ġiu": 7459,
      "Ġbendrasias": 7460,
      "Ġprote": 7461,
      "Ġkroatijos": 7462,
      "Ġ166": 7463,
      "Ġperziureti": 7464,
      "Ð¾Ð²": 7465,
      "Ġinformuo": 7466,
      "Ġkw": 7467,
      "Ġbendraji": 7468,
      "Ġstraipsniais": 7469,
      "Ġhuma": 7470,
      "Ġ270": 7471,
      "Ġatitinkanciu": 7472,
      "Ġisklausy": 7473,
      "Ġjuridinis": 7474,
      "Ġnetaikyti": 7475,
      "Ġpersvar": 7476,
      "Ġfree": 7477,
      "Ġrepubl": 7478,
      "iliai": 7479,
      "Ġpriimto": 7480,
      "Ġskundu": 7481,
      "Ġolaf": 7482,
      "Ġvientis": 7483,
      "Ġrekomendacija": 7484,
      "Ġbazes": 7485,
      "vinimo": 7486,
      "etz": 7487,
      "avus": 7488,
      "Ġover": 7489,
      "Ġnepatenka": 7490,
      "ava": 7491,
      "Ġpriimtinu": 7492,
      "vimus": 7493,
      "Ġpaves": 7494,
      "Ġisvardyti": 7495,
      "my": 7496,
      "Ġnetaikomos": 7497,
      "Ġturetojas": 7498,
      "Ġisduota": 7499,
      "Ġtechninius": 7500,
      "Ġgrudu": 7501,
      "Ġteikeju": 7502,
      "Ġadministratorius": 7503,
      "Ġpozymiu": 7504,
      "Ġpralaime": 7505,
      "mena": 7506,
      "Ġatleidimas": 7507,
      "Ġmig": 7508,
      "Ġmoksline": 7509,
      "Ġnomenklaturos": 7510,
      "Ġbandymas": 7511,
      "Ġnuostolius": 7512,
      "Ġdeleguotu": 7513,
      "Ġinformuoti": 7514,
      "tore": 7515,
      "damasis": 7516,
      "ally": 7517,
      "Ġchemine": 7518,
      "Ġoperacijas": 7519,
      "Ġnepriimtinas": 7520,
      "Ġ1001": 7521,
      "Ġany": 7522,
      "liuko": 7523,
      "bejo": 7524,
      "Ġprincipais": 7525,
      "Ġdiskusi": 7526,
      "Ġsutartyse": 7527,
      "Ġturinti": 7528,
      "Ġismetamuju": 7529,
      "Ġlenkija": 7530,
      "Ġ2138": 7531,
      "lyje": 7532,
      "Ġlichtenste": 7533,
      "Ġ299": 7534,
      "Ġnepad": 7535,
      "Ġmasinu": 7536,
      "ancius": 7537,
      "dumo": 7538,
      "Ġsvarbi": 7539,
      "Ġfizinis": 7540,
      "Ġdizainui": 7541,
      "Ġapsaugai": 7542,
      "Ġjuostos": 7543,
      "damu": 7544,
      "Ġistojusios": 7545,
      "ÑģÑĤ": 7546,
      "Ġpardavimu": 7547,
      "Ġadministracijos": 7548,
      "Ġliuksemburge": 7549,
      "Ġeztk": 7550,
      "Ġspecialiosios": 7551,
      "Ġmedziagomis": 7552,
      "Ġsiltnamio": 7553,
      "Ġada": 7554,
      "Ġkilti": 7555,
      "Ġphp": 7556,
      "Ġsystem": 7557,
      "nciai": 7558,
      "gement": 7559,
      "Ġdidesni": 7560,
      "nde": 7561,
      "uosius": 7562,
      "Ġ510": 7563,
      "Ġtaikymu": 7564,
      "Ġprogno": 7565,
      "Ġislyga": 7566,
      "Ġplotis": 7567,
      "Ġsistemai": 7568,
      "Ġsukelti": 7569,
      "Ġteo": 7570,
      "zeng": 7571,
      "Ġskiriamos": 7572,
      "Ġ171": 7573,
      "mingai": 7574,
      "Ġpriskyri": 7575,
      "Ġ239": 7576,
      "Ġcentru": 7577,
      "kon": 7578,
      "Ġstandartiz": 7579,
      "Ġgyventoju": 7580,
      "Ġitvirtintos": 7581,
      "Ġpaaiskinti": 7582,
      "mam": 7583,
      "Ġapa": 7584,
      "Ġvienoda": 7585,
      "Ġfinansavimas": 7586,
      "Ġsukurta": 7587,
      "Ġ164": 7588,
      "tuoju": 7589,
      "Ġ2023": 7590,
      "Ġprasymai": 7591,
      "Ġbendrieji": 7592,
      "Ġatstovu": 7593,
      "Ġatostogu": 7594,
      "Ġpareiskejo": 7595,
      "Ġissamus": 7596,
      "Ġkaralysteje": 7597,
      "Ġtuks": 7598,
      "bus": 7599,
      "Ġprocesui": 7600,
      "Ġprietaisai": 7601,
      "ciuk": 7602,
      "Ġnesal": 7603,
      "Ġregistravimo": 7604,
      "Ġtheir": 7605,
      "Ġinst": 7606,
      "Ġjust": 7607,
      "Ġreklamos": 7608,
      "Ġcur": 7609,
      "Ġegf": 7610,
      "liacijos": 7611,
      "Ġgincijamos": 7612,
      "Ġsubjektui": 7613,
      "Ġuzregistr": 7614,
      "Ġsumoketa": 7615,
      "Ġjuroje": 7616,
      "Ġ185": 7617,
      "Ġpien": 7618,
      "Ġklausia": 7619,
      "Ġredakcija": 7620,
      "chaft": 7621,
      "dziais": 7622,
      "Ġinasas": 7623,
      "Ġsele": 7624,
      "Ġkontroliuoja": 7625,
      "Ġdiskriminacijos": 7626,
      "Ġpozicijose": 7627,
      "Ġligu": 7628,
      "Ġitalu": 7629,
      "Ġnenustaty": 7630,
      "Ġace": 7631,
      "Ġpriezastys": 7632,
      "Ġkris": 7633,
      "Ġcentr": 7634,
      "Ġpakank": 7635,
      "Ġ343": 7636,
      "Ġgavusi": 7637,
      "Ġvalymo": 7638,
      "Ġapmokestinama": 7639,
      "Ġgi": 7640,
      "Ġkompensacijos": 7641,
      "Ġvykdymas": 7642,
      "reze": 7643,
      "Ġzonu": 7644,
      "Ġtapatybes": 7645,
      "Ġteisems": 7646,
      "Ġpoziuri": 7647,
      "Ġantiko": 7648,
      "Ġveiksmingos": 7649,
      "Ġhtm": 7650,
      "Ġtaike": 7651,
      "pra": 7652,
      "alumo": 7653,
      "Ġlygmens": 7654,
      "alia": 7655,
      "Ġavaly": 7656,
      "Ġtrumpalaik": 7657,
      "endrin": 7658,
      "Ġisaiskinimo": 7659,
      "Ġinovaciju": 7660,
      "Ġpazanga": 7661,
      "Ġproceduroje": 7662,
      "Ġilga": 7663,
      "Ġdarbuotojus": 7664,
      "Ġgavejo": 7665,
      "han": 7666,
      "Ġgalviju": 7667,
      "Ġproblemu": 7668,
      "Ġneisv": 7669,
      "Ġkelioniu": 7670,
      "ity": 7671,
      "Ġpirmuoju": 7672,
      "ilio": 7673,
      "anu": 7674,
      "Ġnesiek": 7675,
      "og": 7676,
      "Ġcourt": 7677,
      "Ġbre": 7678,
      "Ġkond": 7679,
      "Ġsusigrazinti": 7680,
      "Ġsudedamos": 7681,
      "iku": 7682,
      "Ġuztikrintu": 7683,
      "Ġptl": 7684,
      "Ġsuteikiami": 7685,
      "Ġstandartai": 7686,
      "Ġdocument": 7687,
      "Ġsertifikato": 7688,
      "Ġtalpyk": 7689,
      "Ġdarbe": 7690,
      "Ġtiesioginis": 7691,
      "Ġsupak": 7692,
      "Ġsusiklos": 7693,
      "Ġnedelsdama": 7694,
      "ker": 7695,
      "Ġperi": 7696,
      "Ġorde": 7697,
      "Ġvandenu": 7698,
      "Ġradio": 7699,
      "Ġinstruk": 7700,
      "Ġkaltina": 7701,
      "hidro": 7702,
      "Ġpateiktais": 7703,
      "Ġsusijung": 7704,
      "Ġparaiskas": 7705,
      "Ġ337": 7706,
      "Ġcentrine": 7707,
      "Ġpirminio": 7708,
      "Ġnukreip": 7709,
      "led": 7710,
      "fu": 7711,
      "Ġker": 7712,
      "Ġmuitus": 7713,
      "Ġ347": 7714,
      "Ġisnaudo": 7715,
      "br": 7716,
      "Ġnevyk": 7717,
      "ĠÐ¸": 7718,
      "Ġaiskinima": 7719,
      "Ġtariant": 7720,
      "ĠÐ½": 7721,
      "liuju": 7722,
      "Ġvienai": 7723,
      "pto": 7724,
      "stas": 7725,
      "Ġpripazistama": 7726,
      "mm": 7727,
      "Ġapklaus": 7728,
      "Ġ213800": 7729,
      "Ġnurodytoms": 7730,
      "Ġoperacija": 7731,
      "Ġfinansini": 7732,
      "Ġvengrija": 7733,
      "Ġgalimu": 7734,
      "Ġprezumpcija": 7735,
      "Ġatsilie": 7736,
      "Ġ163": 7737,
      "Ġkryp": 7738,
      "minas": 7739,
      "bel": 7740,
      "Ġrinkose": 7741,
      "Ġturincios": 7742,
      "Ġgemeinde": 7743,
      "Ġatsp": 7744,
      "Ġsaugomu": 7745,
      "Ġatsisakymas": 7746,
      "Ġenergy": 7747,
      "zijoje": 7748,
      "Ġmedvilnes": 7749,
      "Ġskirto": 7750,
      "Ġnesvarbu": 7751,
      "Ġros": 7752,
      "Ġsir": 7753,
      "raid": 7754,
      "Ġreforma": 7755,
      "dytos": 7756,
      "Ġfas": 7757,
      "Ġlas": 7758,
      "Ġapkro": 7759,
      "jancios": 7760,
      "Ġvisapusiskai": 7761,
      "ÑĨ": 7762,
      "Ġkvalifikacija": 7763,
      "Ġpacien": 7764,
      "Ġvezti": 7765,
      "mijos": 7766,
      "nr": 7767,
      "Ġget": 7768,
      "Ġakredi": 7769,
      "Ġstuden": 7770,
      "bio": 7771,
      "Ġsvedija": 7772,
      "Ġkeiciama": 7773,
      "Ġsveicarija": 7774,
      "Ġpardavimas": 7775,
      "Ġ205": 7776,
      "Ġpateikus": 7777,
      "teriai": 7778,
      "Ġatitinkanti": 7779,
      "Ġsukelianciu": 7780,
      "Ġkodu": 7781,
      "Ġlen": 7782,
      "nkurenc": 7783,
      "Ġhow": 7784,
      "Ġsekretoria": 7785,
      "Ġakr": 7786,
      "tuvu": 7787,
      "Ġaplinkybems": 7788,
      "Ġgalutinai": 7789,
      "Ġnavigacijos": 7790,
      "Ġsmu": 7791,
      "Ġcorpora": 7792,
      "Ġkeitimo": 7793,
      "Ġnepriklaus": 7794,
      "Ġapdraus": 7795,
      "Ġvario": 7796,
      "Ġneisveng": 7797,
      "Ġsubproduk": 7798,
      "ciniais": 7799,
      "Ġkitam": 7800,
      "oma": 7801,
      "Ġperve": 7802,
      "Ġalso": 7803,
      "Ġ226": 7804,
      "sas": 7805,
      "roves": 7806,
      "Ġgeografines": 7807,
      "Ġankstesnis": 7808,
      "Ġkontroliuoti": 7809,
      "Ġarb": 7810,
      "Ġ187": 7811,
      "Ġneapima": 7812,
      "Ġapre": 7813,
      "Ġmilijo": 7814,
      "Ġthan": 7815,
      "Ġfunkcijos": 7816,
      "Ġsiuose": 7817,
      "Ġfondas": 7818,
      "liavimo": 7819,
      "Ġteiginys": 7820,
      "Ġisvez": 7821,
      "Ġdubl": 7822,
      "Ġtras": 7823,
      "Ġ172": 7824,
      "cd": 7825,
      "ikant": 7826,
      "Ġsocie": 7827,
      "Ġgyvunai": 7828,
      "Ġfiziniai": 7829,
      "liau": 7830,
      "Ġirodymas": 7831,
      "Ġskirtumu": 7832,
      "Ġtikromis": 7833,
      "Ġveikima": 7834,
      "Ġypatinga": 7835,
      "bank": 7836,
      "Ġ253": 7837,
      "Ġreiksminga": 7838,
      "Ġasso": 7839,
      "Ġruos": 7840,
      "Ġbaudziamojo": 7841,
      "Ġbylas": 7842,
      "Ġremon": 7843,
      "Ġmisiniai": 7844,
      "Õ¥Õ": 7845,
      "Ġtruku": 7846,
      "Ġnustacius": 7847,
      "Ġsprendimuose": 7848,
      "Ġvaidmeni": 7849,
      "Ġtarifines": 7850,
      "Ġvaliutos": 7851,
      "Ġjungtineje": 7852,
      "Ġprodukcijos": 7853,
      "Ġnelaim": 7854,
      "Ġpaneigti": 7855,
      "Ġlaz": 7856,
      "Ġpritaikyti": 7857,
      "icia": 7858,
      "ĠpoÅĤ": 7859,
      "Ġpradeta": 7860,
      "Ġekv": 7861,
      "Ġieskovu": 7862,
      "Ġ162": 7863,
      "Ġlis": 7864,
      "Ġspecifikacijos": 7865,
      "Ġ260": 7866,
      "Ġ388": 7867,
      "Ġtreciaji": 7868,
      "Ġorien": 7869,
      "Ġtevu": 7870,
      "Ġtfas": 7871,
      "Ġplauku": 7872,
      "Ġtinkla": 7873,
      "Ġ2204": 7874,
      "Ġsand": 7875,
      "Ġcir": 7876,
      "iausias": 7877,
      "Ġsusijusioms": 7878,
      "Ġgreitai": 7879,
      "Ġpalaikyti": 7880,
      "rad": 7881,
      "Ġkran": 7882,
      "Ġmisko": 7883,
      "Ġankstesn": 7884,
      "Ġ820": 7885,
      "ctive": 7886,
      "turoje": 7887,
      "hl": 7888,
      "Ġprivataus": 7889,
      "Ġisdestyti": 7890,
      "iskuma": 7891,
      "yz": 7892,
      "Ġvairuoto": 7893,
      "Ġul": 7894,
      "Ġiregistruotas": 7895,
      "toma": 7896,
      "Ġatskaitom": 7897,
      "Ġvidurzemio": 7898,
      "uotai": 7899,
      "Ġirodine": 7900,
      "Ġpatrauk": 7901,
      "Ġapibendrin": 7902,
      "Ġisimti": 7903,
      "Ġreikalavimais": 7904,
      "Ġpertek": 7905,
      "Ġrelig": 7906,
      "Ġkasmet": 7907,
      "Ġives": 7908,
      "Ġnumatytus": 7909,
      "Ġviza": 7910,
      "Ġlaim": 7911,
      "Ġprocentine": 7912,
      "Ġpasirinkimo": 7913,
      "janti": 7914,
      "ire": 7915,
      "Ġ543": 7916,
      "vaiz": 7917,
      "Ġaiskin": 7918,
      "Ġbeje": 7919,
      "Ġmedzio": 7920,
      "tia": 7921,
      "Ġtiekimas": 7922,
      "Ġatlygi": 7923,
      "Ġnaudinga": 7924,
      "Ġtaikytinu": 7925,
      "zius": 7926,
      "Ġsuderinama": 7927,
      "Ġveiksming": 7928,
      "Ġivykus": 7929,
      "Ġniekada": 7930,
      "Ġdiag": 7931,
      "Ġapz": 7932,
      "Ġjuridinio": 7933,
      "Ġpraktiskai": 7934,
      "Ġnukrypstant": 7935,
      "Ġigyvendinamas": 7936,
      "Ġapsaugo": 7937,
      "Ġciklo": 7938,
      "Ġsuinteresuota": 7939,
      "alth": 7940,
      "Ġsertifikavimo": 7941,
      "Ġnuostatoms": 7942,
      "iamosios": 7943,
      "yta": 7944,
      "Ġneirode": 7945,
      "Ġpagristos": 7946,
      "pla": 7947,
      "Ġalyvuo": 7948,
      "Ġderybas": 7949,
      "Ġmul": 7950,
      "Ġistatyme": 7951,
      "Ġdarbai": 7952,
      "Ġsuzinoti": 7953,
      "Ġsuformuota": 7954,
      "Ġitaisai": 7955,
      "Ġsma": 7956,
      "Ġnuolatinio": 7957,
      "Ġpriimami": 7958,
      "Ġjega": 7959,
      "Ġefsa": 7960,
      "Ġantikonkurenc": 7961,
      "Ġkeliais": 7962,
      "Ġliber": 7963,
      "Ġkompetencijai": 7964,
      "Ġnurodomos": 7965,
      "Ġperleid": 7966,
      "Ġpaskui": 7967,
      "Ġatlygin": 7968,
      "Ġpranesimai": 7969,
      "Ġatsisako": 7970,
      "Ġkomitete": 7971,
      "Ġpros": 7972,
      "Ġvery": 7973,
      "Ġelementus": 7974,
      "daros": 7975,
      "Ġdirekto": 7976,
      "Ġpavyzdys": 7977,
      "trans": 7978,
      "Ġnebutinai": 7979,
      "Ġaptariama": 7980,
      "lui": 7981,
      "Ġaspektai": 7982,
      "Ġ258": 7983,
      "Ġâī¤": 7984,
      "Ġnetruk": 7985,
      "Ġnepriklausomu": 7986,
      "lino": 7987,
      "Ġsumazinimo": 7988,
      "Ġversija": 7989,
      "Ġfluo": 7990,
      "ise": 7991,
      "Ġrigh": 7992,
      "finans": 7993,
      "Ġgri": 7994,
      "Ġkokie": 7995,
      "Ġispanu": 7996,
      "site": 7997,
      "Ġkategorijai": 7998,
      "Ġisimtine": 7999,
      "Ġeksportuojanciu": 8000,
      "Ġdirektyvas": 8001,
      "Ġipareig": 8002,
      "Ġsurinkti": 8003,
      "Ġatsakyma": 8004,
      "tinkan": 8005,
      "arus": 8006,
      "Ġorder": 8007,
      "Ġpaskelbtas": 8008,
      "Ġkonkrecius": 8009,
      "Ġekvival": 8010,
      "Ġprieduose": 8011,
      "Ġsukciavimu": 8012,
      "Ġprieinamu": 8013,
      "Ġtikrinti": 8014,
      "Ġprofesiniu": 8015,
      "Ġklinik": 8016,
      "jose": 8017,
      "Ġproduktui": 8018,
      "Ġisleid": 8019,
      "Ġ211": 8020,
      "Ġterminai": 8021,
      "Ġgrindziami": 8022,
      "Ġjuridin": 8023,
      "Ġskly": 8024,
      "Ġspecialia": 8025,
      "Ġpozicijoms": 8026,
      "Ġsepty": 8027,
      "Ġteikejai": 8028,
      "Ġnesuderinama": 8029,
      "Ġnediskriminavimo": 8030,
      "Ġpareiskimu": 8031,
      "ĠâĹ": 8032,
      "Ġcos": 8033,
      "Ġfrak": 8034,
      "Ġperp": 8035,
      "Ġsaugoti": 8036,
      "Ġnaturaliu": 8037,
      "1000": 8038,
      "Ġstandartine": 8039,
      "Ġnepriestarauja": 8040,
      "Ġlaive": 8041,
      "Ġapras": 8042,
      "Ġbos": 8043,
      "Ġprogramoje": 8044,
      "Ġassocia": 8045,
      "Ġsco": 8046,
      "Ġpasitike": 8047,
      "Ġtil": 8048,
      "Ġesme": 8049,
      "Ġ189": 8050,
      "Ġservice": 8051,
      "Ġnacionalinius": 8052,
      "Ġfinansavima": 8053,
      "put": 8054,
      "Ġtvirtinimo": 8055,
      "Ġnustatytais": 8056,
      "Ġnik": 8057,
      "fluo": 8058,
      "Ġsuper": 8059,
      "rias": 8060,
      "jis": 8061,
      "Ġpasirasymo": 8062,
      "Ġgalutiniu": 8063,
      "zon": 8064,
      "stymas": 8065,
      "Ġinstru": 8066,
      "Ġinformacines": 8067,
      "ingus": 8068,
      "Ġsusitarianciuju": 8069,
      "cip": 8070,
      "Ġkategorijas": 8071,
      "inamasis": 8072,
      "Ġpatalpose": 8073,
      "Ġsad": 8074,
      "Ġchlor": 8075,
      "Ġmuita": 8076,
      "Ġazo": 8077,
      "Ġaiskinimu": 8078,
      "Ġpriskirti": 8079,
      "Ġseklos": 8080,
      "Ġskirtingai": 8081,
      "Ġrasti": 8082,
      "Ġkliuciu": 8083,
      "Ġformalu": 8084,
      "Ġpatirtos": 8085,
      "ud": 8086,
      "zine": 8087,
      "Ġsriciu": 8088,
      "zinimo": 8089,
      "Ġeti": 8090,
      "Ġnuspresta": 8091,
      "Ġnetgi": 8092,
      "Ġkiekiai": 8093,
      "Ġegzam": 8094,
      "Ġnegaletu": 8095,
      "Ġatidej": 8096,
      "Ġcommission": 8097,
      "Ġnumeri": 8098,
      "Ġskerden": 8099,
      "Ġnaudojimosi": 8100,
      "Ġatgaline": 8101,
      "Ġnotifik": 8102,
      "Ġlatvijos": 8103,
      "kant": 8104,
      "Ġatmeta": 8105,
      "Ġvirsi": 8106,
      "tuotu": 8107,
      "qua": 8108,
      "techn": 8109,
      "Ġsiena": 8110,
      "eth": 8111,
      "Ġsuprantamas": 8112,
      "Ġatskaityti": 8113,
      "Ġwell": 8114,
      "Ġteikejo": 8115,
      "Ġinclu": 8116,
      "Ġnepakankamai": 8117,
      "Ġatmetimo": 8118,
      "Ġnaujus": 8119,
      "Ġkonflik": 8120,
      "Ġdub": 8121,
      "Ġmay": 8122,
      "valu": 8123,
      "Ġvezejas": 8124,
      "Ġtobulin": 8125,
      "Ġministerijos": 8126,
      "vs": 8127,
      "Ġnutarti": 8128,
      "Ġturis": 8129,
      "Ġnuolatines": 8130,
      "Ġpsicho": 8131,
      "Ġlimited": 8132,
      "iojo": 8133,
      "Ġliek": 8134,
      "Ġbankai": 8135,
      "Ġterminui": 8136,
      "Ġisteigtos": 8137,
      "teriu": 8138,
      "Ġnaudojimu": 8139,
      "Ġsupainioti": 8140,
      "ruoju": 8141,
      "cation": 8142,
      "aldytos": 8143,
      "mems": 8144,
      "Ġpadarytos": 8145,
      "Ġ192": 8146,
      "Ġveterinar": 8147,
      "lk": 8148,
      "Ġfunkciju": 8149,
      "ded": 8150,
      "Ġtarnybu": 8151,
      "Ġpateikusiam": 8152,
      "Ġtechniniai": 8153,
      "Ġoffice": 8154,
      "talon": 8155,
      "opera": 8156,
      "tuotas": 8157,
      "Ġstebeti": 8158,
      "Ġskirtumo": 8159,
      "Ġelektronines": 8160,
      "Ġgerinti": 8161,
      "Ġdirba": 8162,
      "Ġatsisake": 8163,
      "tate": 8164,
      "Ġpritarti": 8165,
      "Ġissiuntimo": 8166,
      "Ġ950": 8167,
      "Ġisma": 8168,
      "Ġministru": 8169,
      "Ġwhere": 8170,
      "Ġvadovas": 8171,
      "Ġjusti": 8172,
      "fos": 8173,
      "Ġmuz": 8174,
      "cus": 8175,
      "Ġnepriimtina": 8176,
      "Ġkonsultacijas": 8177,
      "Ġ159": 8178,
      "ipe": 8179,
      "Ð¿": 8180,
      "Ġkipro": 8181,
      "Ġmokejima": 8182,
      "Ġ203": 8183,
      "Ġbukles": 8184,
      "tuotos": 8185,
      "jantys": 8186,
      "Ġvienetas": 8187,
      "ito": 8188,
      "Ġypatu": 8189,
      "Ġzaliavu": 8190,
      "Ġsvetaineje": 8191,
      "Ġ190": 8192,
      "Ġreisk": 8193,
      "Ġgamtiniu": 8194,
      "Ġlaikui": 8195,
      "Ġmerg": 8196,
      "Ġofc": 8197,
      "Ġdabartine": 8198,
      "Ġama": 8199,
      "Ġatsiskai": 8200,
      "Ġdisco": 8201,
      "Ġ580": 8202,
      "mini": 8203,
      "ĠÎ¿": 8204,
      "Ġpokycius": 8205,
      "Ġaiskinami": 8206,
      "Ġgyvenamoji": 8207,
      "Ġdalyvavima": 8208,
      "Ġatvykti": 8209,
      "Ġ256": 8210,
      "Ġpabreze": 8211,
      "Ġ236": 8212,
      "Ġuzsienyje": 8213,
      "chlori": 8214,
      "Ġveiksnius": 8215,
      "Ġnebutina": 8216,
      "uodama": 8217,
      "Ġ216": 8218,
      "Ġargumentais": 8219,
      "Ġtechninio": 8220,
      "Ġisigaliojo": 8221,
      "Ġcentras": 8222,
      "Ġspecialias": 8223,
      "Ġkonkretu": 8224,
      "Ġneatsizvelge": 8225,
      "ngu": 8226,
      "Ġteroriz": 8227,
      "domas": 8228,
      "vali": 8229,
      "intus": 8230,
      "pond": 8231,
      "Ġ883": 8232,
      "xx": 8233,
      "Ġremdamosi": 8234,
      "Ġatvykimo": 8235,
      "ÖĢ": 8236,
      "aip": 8237,
      "Ġnarko": 8238,
      "ag": 8239,
      "Ġpaka": 8240,
      "pektyv": 8241,
      "Ġ173": 8242,
      "by": 8243,
      "Ġkliutis": 8244,
      "Ġopti": 8245,
      "iskais": 8246,
      "Ġtieke": 8247,
      "Ġstrategijos": 8248,
      "Ġeksploatavimo": 8249,
      "cog": 8250,
      "Ġissaugoti": 8251,
      "Ġkiauliu": 8252,
      "Ġfaktus": 8253,
      "chen": 8254,
      "Ġsupaprastin": 8255,
      "Ġmat": 8256,
      "Ġklase": 8257,
      "Ġson": 8258,
      "Ġlesomis": 8259,
      "Ġkonkursa": 8260,
      "Ġnenumatyta": 8261,
      "Ġdesimt": 8262,
      "Ġportf": 8263,
      "Ġkars": 8264,
      "Ġgalbut": 8265,
      "Ġatsis": 8266,
      "Ġverpalu": 8267,
      "Ġaiskinant": 8268,
      "Ġvezejo": 8269,
      "Ġbutini": 8270,
      "Ġuzdrausti": 8271,
      "dantis": 8272,
      "riniais": 8273,
      "Ġlaikymo": 8274,
      "Ġzvejoti": 8275,
      "Ġpatvirtintu": 8276,
      "Ġdota": 8277,
      "Ġok": 8278,
      "logijos": 8279,
      "tano": 8280,
      "eme": 8281,
      "Ġatsakymo": 8282,
      "Ġ174": 8283,
      "Ġpelna": 8284,
      "Ġreikiamu": 8285,
      "Ġredakcijos": 8286,
      "Ġesminiu": 8287,
      "els": 8288,
      "Ġapmoke": 8289,
      "Ġkurti": 8290,
      "Ġisdestytos": 8291,
      "Ġaprasyta": 8292,
      "ĠÐ¾": 8293,
      "Ġparengta": 8294,
      "Ġsaugojimo": 8295,
      "Ġreikalingu": 8296,
      "chtshof": 8297,
      "Ġastun": 8298,
      "Ġteismuose": 8299,
      "Ġieskovui": 8300,
      "Ġkrr": 8301,
      "Ġpriziuri": 8302,
      "Ġ181": 8303,
      "Ġpatirties": 8304,
      "Ġsuo": 8305,
      "Ġeksportui": 8306,
      "Ġkokius": 8307,
      "Ġlengvai": 8308,
      "Ġdemesio": 8309,
      "Ġnetink": 8310,
      "cal": 8311,
      "Ġmemorandumas": 8312,
      "Ġsvorio": 8313,
      "Ġteikiamas": 8314,
      "Ġlanks": 8315,
      "Ġfinansinius": 8316,
      "Ġatsizvelge": 8317,
      "Ġetapa": 8318,
      "Ġpriimdama": 8319,
      "iribo": 8320,
      "Ġpareiguno": 8321,
      "Ġzenklinimo": 8322,
      "Ð±": 8323,
      "Ġsteng": 8324,
      "Ġprocentais": 8325,
      "Ġbeke": 8326,
      "Ġpriklausanciu": 8327,
      "Ġhan": 8328,
      "Ġkvieti": 8329,
      "Ġhar": 8330,
      "Ġmechanizmas": 8331,
      "ikons": 8332,
      "Ġpraside": 8333,
      "ikliu": 8334,
      "Ġnepatenk": 8335,
      "Ġatsizvelgia": 8336,
      "Ġspecialus": 8337,
      "Ġmanagement": 8338,
      "Ġpozymi": 8339,
      "Ġsuinteresuotosiomis": 8340,
      "Ġklasifikuojamus": 8341,
      "Ġunion": 8342,
      "Ġcount": 8343,
      "Ġvyres": 8344,
      "Ġamino": 8345,
      "Ġ240": 8346,
      "tingumo": 8347,
      "Ġvertik": 8348,
      "Ġvalandu": 8349,
      "ancias": 8350,
      "ence": 8351,
      "Ġsuteikiamas": 8352,
      "Ġcer": 8353,
      "Ġdariniai": 8354,
      "Ġinvestavimo": 8355,
      "Ġnereiksmin": 8356,
      "Ġnetaikomi": 8357,
      "Ġreak": 8358,
      "Ġtiesiogine": 8359,
      "hu": 8360,
      "Ġ621": 8361,
      "Ġhealth": 8362,
      "Ġtvarkaras": 8363,
      "Ġsusipazines": 8364,
      "Ġprisideti": 8365,
      "iesiems": 8366,
      "Ġsienos": 8367,
      "Ġrengiant": 8368,
      "Ġpasienio": 8369,
      "Ġleidzianti": 8370,
      "Ġpastatu": 8371,
      "Ġgaliojimas": 8372,
      "Ġeksportuotojas": 8373,
      "Ġneteisingai": 8374,
      "kimo": 8375,
      "auks": 8376,
      "ciausiai": 8377,
      "Ġsektoriui": 8378,
      "Ġind": 8379,
      "Ġ215": 8380,
      "lav": 8381,
      "Ġgeografiniu": 8382,
      "Ġlietuva": 8383,
      "Ġ202": 8384,
      "Ġatskyri": 8385,
      "cri": 8386,
      "Î´": 8387,
      "Ġteikima": 8388,
      "Ġskaidru": 8389,
      "Ġreally": 8390,
      "Ġtreciojoje": 8391,
      "Ġpatikros": 8392,
      "yko": 8393,
      "Ġparem": 8394,
      "kelbe": 8395,
      "Ġcilin": 8396,
      "Ġvienintele": 8397,
      "Ġprijung": 8398,
      "0010": 8399,
      "Ġdidmen": 8400,
      "Ġpriestaravimo": 8401,
      "Ġ183": 8402,
      "fono": 8403,
      "tarybos": 8404,
      "Ġ217": 8405,
      "niai": 8406,
      "Ġgarantuoja": 8407,
      "ioje": 8408,
      "Ġatsakovas": 8409,
      "zos": 8410,
      "Ġveliava": 8411,
      "mato": 8412,
      "Ġpripazinimas": 8413,
      "Ġtop": 8414,
      "Ġminetus": 8415,
      "Ġrestrukturizavimo": 8416,
      "Ġvertinama": 8417,
      "Ġtapatybe": 8418,
      "Ġ209": 8419,
      "Ġbankas": 8420,
      "Ġskirtuma": 8421,
      "Ġ191": 8422,
      "Ġleidziancios": 8423,
      "Ġdukterines": 8424,
      "Ġprofesinio": 8425,
      "Ġpadariniu": 8426,
      "Ġabiem": 8427,
      "Ġ194": 8428,
      "Ġ350": 8429,
      "burg": 8430,
      "Ġistir": 8431,
      "Ġpateikimas": 8432,
      "Ġisteigtas": 8433,
      "tele": 8434,
      "Ġdur": 8435,
      "Ġrumunija": 8436,
      "Ġ011": 8437,
      "Ġ221": 8438,
      "Ġpazeisti": 8439,
      "lag": 8440,
      "ret": 8441,
      "Ġnurodytomis": 8442,
      "formin": 8443,
      "Ġ208": 8444,
      "Ġbendruosius": 8445,
      "kija": 8446,
      "Ġname": 8447,
      "Ġankstesnes": 8448,
      "Ġkartel": 8449,
      "Ġ255": 8450,
      "Ġtikroms": 8451,
      "Ġinput": 8452,
      "Ġgincyti": 8453,
      "Ġsva": 8454,
      "Ġparduotu": 8455,
      "Ġisigijimo": 8456,
      "Ġ177": 8457,
      "Ġpatikrinimas": 8458,
      "Ġelgesi": 8459,
      "fenil": 8460,
      "Ġrekomendacijos": 8461,
      "iamai": 8462,
      "Ġmineti": 8463,
      "Ġisdestytu": 8464,
      "chus": 8465,
      "Ġkvalifikacijos": 8466,
      "Ġatleidzia": 8467,
      "ĠÐº": 8468,
      "Ġkeli": 8469,
      "Ġformuluotes": 8470,
      "Ġtreciosiomis": 8471,
      "Ġpanasaus": 8472,
      "Ġnepazeidzia": 8473,
      "Ġpaveikti": 8474,
      "js": 8475,
      "vileg": 8476,
      "Ġribojamuju": 8477,
      "Ġds": 8478,
      "enai": 8479,
      "Ġcharakteristiku": 8480,
      "Ġgranu": 8481,
      "zione": 8482,
      "Ġ750": 8483,
      "Ġnebeg": 8484,
      "Ġuostu": 8485,
      "Ġpirmenybe": 8486,
      "grafijos": 8487,
      "jancio": 8488,
      "Ġpareiskimo": 8489,
      "icy": 8490,
      "Ġkvotas": 8491,
      "dica": 8492,
      "Ġseptin": 8493,
      "Ġankstesni": 8494,
      "inantis": 8495,
      "Ġproducts": 8496,
      "Ġskola": 8497,
      "Ġpateisinamas": 8498,
      "Ġdarbas": 8499,
      "Ġneturinciu": 8500,
      "Ġwp": 8501,
      "oni": 8502,
      "Ġ296": 8503,
      "Ġatsargu": 8504,
      "Ġnepada": 8505,
      "ser": 8506,
      "Ġzmones": 8507,
      "Ġkokyb": 8508,
      "Ġsiejama": 8509,
      "Ġtomis": 8510,
      "Ġkuoks": 8511,
      "Ġisvardytos": 8512,
      "aliuju": 8513,
      "ininkyste": 8514,
      "Ġpapildyti": 8515,
      "Ġpletoja": 8516,
      "itru": 8517,
      "Ġgamyk": 8518,
      "Ġkasdien": 8519,
      "Ġjurisprudencijos": 8520,
      "Ġmac": 8521,
      "Ġtiekejo": 8522,
      "Ġneatitinkan": 8523,
      "Ġneleidziama": 8524,
      "Ġpensijos": 8525,
      "Ġ193": 8526,
      "Ġpelnas": 8527,
      "idrau": 8528,
      "Ġtaisyklese": 8529,
      "Ġivertinimas": 8530,
      "Ġnacionalinems": 8531,
      "dzioje": 8532,
      "Ġgaminiams": 8533,
      "eks": 8534,
      "Ġsieja": 8535,
      "Ġisipareigojimas": 8536,
      "Î¿Î½": 8537,
      "Ġstry": 8538,
      "tungs": 8539,
      "Ġmazinti": 8540,
      "Ġsukciavimo": 8541,
      "Ġpolicijos": 8542,
      "Ġprotokole": 8543,
      "Ġtvir": 8544,
      "Ġstadi": 8545,
      "Ġnegau": 8546,
      "Ġbeen": 8547,
      "Ġimportuoti": 8548,
      "Ġgrisdama": 8549,
      "Ġlieka": 8550,
      "Ġnepil": 8551,
      "Ġraida": 8552,
      "Ġapskaiciuojama": 8553,
      "muoti": 8554,
      "Ġsupro": 8555,
      "Ġantruoju": 8556,
      "Ġrajone": 8557,
      "Ġnepanaudo": 8558,
      "Ġprejudiciniu": 8559,
      "laidos": 8560,
      "Ġvietoves": 8561,
      "Ġnyderlanduose": 8562,
      "Ġmanu": 8563,
      "Ġviet": 8564,
      "lp": 8565,
      "rais": 8566,
      "Ġketuriu": 8567,
      "Ġdime": 8568,
      "ensyv": 8569,
      "cas": 8570,
      "tarimu": 8571,
      "Ġcukru": 8572,
      "Ġkiekvienoje": 8573,
      "ger": 8574,
      "Ġ213": 8575,
      "Ġkaralystei": 8576,
      "Ġ225": 8577,
      "Ġpaskelbe": 8578,
      "Ġsalygoms": 8579,
      "Ġsubsidijos": 8580,
      "Ġnaudotojams": 8581,
      "Ġteksta": 8582,
      "Ġpeop": 8583,
      "Ġpasirasyti": 8584,
      "Ġdukterine": 8585,
      "Ġdidesnio": 8586,
      "Ġeffe": 8587,
      "nys": 8588,
      "Ġae": 8589,
      "Ġkonfederacijos": 8590,
      "Ġpaveiks": 8591,
      "Ġtransliuo": 8592,
      "Ġvartotojai": 8593,
      "Ġmoldo": 8594,
      "Ġpero": 8595,
      "Ġnetek": 8596,
      "Ġrodikliu": 8597,
      "Ġpalydo": 8598,
      "Ġleido": 8599,
      "Ġever": 8600,
      "Ġdvira": 8601,
      "Ġdeci": 8602,
      "Ġ659": 8603,
      "ors": 8604,
      "Ġveliavos": 8605,
      "Ġsuteikiamos": 8606,
      "Ġkvie": 8607,
      "Ġgener": 8608,
      "Ġmaza": 8609,
      "Ġveiksmams": 8610,
      "Ġ590": 8611,
      "Ġatskiri": 8612,
      "Ġ290": 8613,
      "Ġitalia": 8614,
      "Ġisimtys": 8615,
      "Ġirasas": 8616,
      "Ġtrik": 8617,
      "usiais": 8618,
      "Ġsusirink": 8619,
      "Ġâī¥": 8620,
      "Ġgren": 8621,
      "Ġpriimanciosios": 8622,
      "Ġpritvirtin": 8623,
      "Ġsantykis": 8624,
      "Ġemesi": 8625,
      "Ġtinkami": 8626,
      "Ġ228": 8627,
      "Ġatsake": 8628,
      "Ġdri": 8629,
      "tical": 8630,
      "Ġnon": 8631,
      "Ġpanasi": 8632,
      "Ġdraug": 8633,
      "Ġsuprojek": 8634,
      "Ġtoms": 8635,
      "Ġ179": 8636,
      "Ġkeleta": 8637,
      "Ġsudedamosios": 8638,
      "Ġnuosprend": 8639,
      "Ġjor": 8640,
      "Ġsertifikatu": 8641,
      "Ġisaug": 8642,
      "irky": 8643,
      "Ġlyd": 8644,
      "ktu": 8645,
      "Ġpokyciai": 8646,
      "ytas": 8647,
      "Ġaiskinamos": 8648,
      "Ġia": 8649,
      "Ġkortele": 8650,
      "Ġkompensuoti": 8651,
      "Ġigyvendina": 8652,
      "Ġrup": 8653,
      "Ġnaudotojas": 8654,
      "Ġnuobau": 8655,
      "Ġkodeksas": 8656,
      "Ġpradedant": 8657,
      "Ġminetoje": 8658,
      "Ġketvirtoji": 8659,
      "Ġbad": 8660,
      "Ġisaky": 8661,
      "Ġimokos": 8662,
      "Ġproblemos": 8663,
      "Ġkovoti": 8664,
      "Ġcrea": 8665,
      "ÏģÎ±": 8666,
      "Ġnauji": 8667,
      "Ġrysius": 8668,
      "Ġpasikons": 8669,
      "Ġvaziu": 8670,
      "damuju": 8671,
      "Ġbuves": 8672,
      "Ġisipareigoja": 8673,
      "Ġprez": 8674,
      "Ġpaciai": 8675,
      "Ġigyti": 8676,
      "Ġpabrezti": 8677,
      "zd": 8678,
      "Ġpaskirtas": 8679,
      "Ġkanados": 8680,
      "Ġaptariamos": 8681,
      "Ġpanasu": 8682,
      "Ġkuokstel": 8683,
      "Ġdirektyvu": 8684,
      "Ġsolas": 8685,
      "Ġprejudicinis": 8686,
      "liavanden": 8687,
      "Ġparasai": 8688,
      "vol": 8689,
      "Ġpeople": 8690,
      "rosoft": 8691,
      "Ġtikslumu": 8692,
      "Ġorganizacijoms": 8693,
      "mentas": 8694,
      "Ġ1986": 8695,
      "Ġprivatus": 8696,
      "Ġ`": 8697,
      "lank": 8698,
      "Ġatsaking": 8699,
      "Ġpriedelio": 8700,
      "Ġknow": 8701,
      "Ġ2933": 8702,
      "Ġkompetentingas": 8703,
      "Ġsaugumui": 8704,
      "Ġsantuo": 8705,
      "Ġpradzioje": 8706,
      "Ġzinomas": 8707,
      "Ġisimtinai": 8708,
      "Ġissamu": 8709,
      "Ġsieke": 8710,
      "Ġneapib": 8711,
      "urio": 8712,
      "Ġvita": 8713,
      "Ġnepalank": 8714,
      "Ġprivileg": 8715,
      "Ġsprendimais": 8716,
      "Ġpadeciai": 8717,
      "Ġneigiamas": 8718,
      "Ġnebal": 8719,
      "Ġzem": 8720,
      "Ġobjektas": 8721,
      "Ġmilteliai": 8722,
      "Ġgerimu": 8723,
      "ĠÃ°": 8724,
      "nomis": 8725,
      "Ġtaikomo": 8726,
      "Ġ251": 8727,
      "Ġatsarg": 8728,
      "Ġpapildomus": 8729,
      "Ġsolid": 8730,
      "Ġtera": 8731,
      "Ġplaciai": 8732,
      "Ġislygos": 8733,
      "Ġpateikimu": 8734,
      "Ġalkoho": 8735,
      "Ġatrinktu": 8736,
      "ĠâĹ»": 8737,
      "Ġaliejaus": 8738,
      "tanciu": 8739,
      "hal": 8740,
      "Ġregistro": 8741,
      "Ġreiksmingas": 8742,
      "Ġdon": 8743,
      "Ġpazeis": 8744,
      "tment": 8745,
      "Ġtokiai": 8746,
      "Ġcoun": 8747,
      "Ġprze": 8748,
      "Ġpazeidziant": 8749,
      "Ġdevelopment": 8750,
      "Ġirasu": 8751,
      "ikei": 8752,
      "Ġpatvirtinama": 8753,
      "Ġisvadu": 8754,
      "Ġobjektu": 8755,
      "Ġact": 8756,
      "Ġrag": 8757,
      "Ġbritanijos": 8758,
      "Ġpriestaravima": 8759,
      "Ġpazymejimo": 8760,
      "Ġ288": 8761,
      "Ġ1985": 8762,
      "vieno": 8763,
      "Ġisteigti": 8764,
      "Ġpastara": 8765,
      "Ġ0406": 8766,
      "Ġ530": 8767,
      "cik": 8768,
      "Ġzodinis": 8769,
      "Ġpoil": 8770,
      "Ġisme": 8771,
      "metrai": 8772,
      "Ġteiginiu": 8773,
      "Ð°Ð½": 8774,
      "Ġdirbanciu": 8775,
      "linis": 8776,
      "Ġsesta": 8777,
      "Ġnedarant": 8778,
      "Ġsalimi": 8779,
      "Ġkomitetu": 8780,
      "Ġpopulia": 8781,
      "Ġturint": 8782,
      "Ġdaugia": 8783,
      "Ġ1980": 8784,
      "Ġdraudimu": 8785,
      "lijoje": 8786,
      "telk": 8787,
      "idab": 8788,
      "Ġsudedamuju": 8789,
      "Ġcontro": 8790,
      "Ġapsig": 8791,
      "Ġmokamas": 8792,
      "tand": 8793,
      "Ġsantykiai": 8794,
      "Ġinde": 8795,
      "Ġsvarsto": 8796,
      "Ġvartojama": 8797,
      "Ġdarbdavio": 8798,
      "Ġvaldan": 8799,
      "Ġleidejo": 8800,
      "angos": 8801,
      "Ġpastebe": 8802,
      "Ġmedziagoms": 8803,
      "Ġpatvirtintos": 8804,
      "Ġpaprastuju": 8805,
      "Ġprasomas": 8806,
      "ĠÐ°": 8807,
      "Ġeib": 8808,
      "Ġapibreztas": 8809,
      "Ġdalyviai": 8810,
      "Ġthey": 8811,
      "Ġ235": 8812,
      "Ġsumazinimas": 8813,
      "Ġbausme": 8814,
      "Ġisdestytus": 8815,
      "Ġmedia": 8816,
      "Ġdizaino": 8817,
      "uotais": 8818,
      "Ġlaisviu": 8819,
      "Ġpletoti": 8820,
      "Ġthanks": 8821,
      "Ġatvejis": 8822,
      "Ġirodinejimo": 8823,
      "Ġreglamentus": 8824,
      "Ġgaliojima": 8825,
      "Ġrengti": 8826,
      "Ġkontekste": 8827,
      "Ġskaiciavimo": 8828,
      "Ġdalyvaujant": 8829,
      "Ġvykdomi": 8830,
      "Ġpusiausvyra": 8831,
      "Ġsertifikata": 8832,
      "Ġ1000": 8833,
      "Ð¸Ñı": 8834,
      "Ġvisomis": 8835,
      "Ġpajegumai": 8836,
      "Ġpavadinimo": 8837,
      "Ġpenkeriu": 8838,
      "Ġscien": 8839,
      "Ġbudais": 8840,
      "Ġtikimybe": 8841,
      "Ġatsirado": 8842,
      "Ġuzduoti": 8843,
      "Ġtona": 8844,
      "Ġ195": 8845,
      "Ġpuses": 8846,
      "Ġthro": 8847,
      "Ġapsvar": 8848,
      "Ġreikiama": 8849,
      "Ġatvejo": 8850,
      "Ġkasme": 8851,
      "Ġsvarbiu": 8852,
      "Ġteikejams": 8853,
      "Ġpazymeta": 8854,
      "Ġbendradarbiauja": 8855,
      "Ġnagrinejamojo": 8856,
      "Ġivyko": 8857,
      "Ġlinija": 8858,
      "Ġsuteikiant": 8859,
      "Ġribota": 8860,
      "Ġgan": 8861,
      "vedimu": 8862,
      "Ġnario": 8863,
      "Ġjuridiniai": 8864,
      "Ġproblemas": 8865,
      "Ġpagamintas": 8866,
      "raig": 8867,
      "tojimo": 8868,
      "Ġigyvendinama": 8869,
      "Ġbuvima": 8870,
      "hid": 8871,
      "Ġuzgin": 8872,
      "Ġrie": 8873,
      "Ġsubsidija": 8874,
      "Ġskirtingos": 8875,
      "Ġinternetu": 8876,
      "ac": 8877,
      "iancios": 8878,
      "Ġbiuro": 8879,
      "Ġposedziui": 8880,
      "Ġ090": 8881,
      "Ġnedarb": 8882,
      "Ġauksciausiasis": 8883,
      "ÏĦÎ±": 8884,
      "Õ¸Õ": 8885,
      "Ġdieg": 8886,
      "Ġkorpus": 8887,
      "Ġwere": 8888,
      "Ġiskraipy": 8889,
      "Ġpirkti": 8890,
      "Ġpakuociu": 8891,
      "Ġneru": 8892,
      "dejimo": 8893,
      "Ġmoketina": 8894,
      "Ġtor": 8895,
      "Ġivar": 8896,
      "iskus": 8897,
      "liaus": 8898,
      "Ġconta": 8899,
      "Ġkoordina": 8900,
      "Ġxvi": 8901,
      "Ġmazesnes": 8902,
      "Ġslovenijos": 8903,
      "Ġimportuojamiems": 8904,
      "Ġtalpa": 8905,
      "Ġauksto": 8906,
      "Ġukiu": 8907,
      "Ġ212": 8908,
      "Ġgyvenama": 8909,
      "Ġapribojimo": 8910,
[...]
