{
  "version": "1.0",
  "truncation": null,
  "padding": null,
  "added_tokens": [
    {
      "id": 0,
      "content": "<pad>",
      "single_word": false,
      "lstrip": false,
      "rstrip": false,
      "normalized": false,
      "special": true
    },
    {
      "id": 1,
      "content": "<s>",
      "single_word": false,
      "lstrip": false,
      "rstrip": false,
      "normalized": false,
      "special": true
    },
    {
      "id": 2,
      "content": "</s>",
      "single_word": false,
      "lstrip": false,
      "rstrip": false,
      "normalized": false,
      "special": true
    },
    {
      "id": 3,
      "content": "<unk>",
      "single_word": false,
      "lstrip": false,
      "rstrip": false,
      "normalized": false,
      "special": true
    },
    {
      "id": 4,
      "content": "<mask>",
      "single_word": false,
      "lstrip": false,
      "rstrip": false,
      "normalized": false,
      "special": true
    }
  ],
  "normalizer": {
    "type": "Sequence",
    "normalizers": [
      {
        "type": "NFKD"
      },
      {
        "type": "BertNormalizer",
        "clean_text": true,
        "handle_chinese_chars": true,
        "strip_accents": null,
        "lowercase": true
      }
    ]
  },
  "pre_tokenizer": {
    "type": "Sequence",
    "pretokenizers": [
      {
        "type": "BertPreTokenizer"
      },
      {
        "type": "ByteLevel",
        "add_prefix_space": true,
        "trim_offsets": true,
        "use_regex": true
      }
    ]
  },
  "post_processor": {
    "type": "RobertaProcessing",
    "sep": [
      "</s>",
      2
    ],
    "cls": [
      "<s>",
      1
    ],
    "trim_offsets": true,
    "add_prefix_space": true
  },
  "decoder": {
    "type": "ByteLevel",
    "add_prefix_space": true,
    "trim_offsets": true,
    "use_regex": true
  },
  "model": {
    "type": "BPE",
    "dropout": null,
    "unk_token": "<unk>",
    "continuing_subword_prefix": null,
    "end_of_word_suffix": null,
    "fuse_unk": false,
    "vocab": {
      "<pad>": 0,
      "<s>": 1,
      "</s>": 2,
      "<unk>": 3,
      "<mask>": 4,
      "!": 5,
      "\"": 6,
      "#": 7,
      "$": 8,
      "%": 9,
      "&": 10,
      "'": 11,
      "(": 12,
      ")": 13,
      "*": 14,
      "+": 15,
      ",": 16,
      "-": 17,
      ".": 18,
      "/": 19,
      "0": 20,
      "1": 21,
      "2": 22,
      "3": 23,
      "4": 24,
      "5": 25,
      "6": 26,
      "7": 27,
      "8": 28,
      "9": 29,
      ":": 30,
      ";": 31,
      "<": 32,
      "=": 33,
      ">": 34,
      "?": 35,
      "@": 36,
      "[": 37,
      "\\": 38,
      "]": 39,
      "^": 40,
      "_": 41,
      "`": 42,
      "a": 43,
      "b": 44,
      "c": 45,
      "d": 46,
      "e": 47,
      "f": 48,
      "g": 49,
      "h": 50,
      "i": 51,
      "j": 52,
      "k": 53,
      "l": 54,
      "m": 55,
      "n": 56,
      "o": 57,
      "p": 58,
      "q": 59,
      "r": 60,
      "s": 61,
      "t": 62,
      "u": 63,
      "v": 64,
      "w": 65,
      "x": 66,
      "y": 67,
      "z": 68,
      "{": 69,
      "|": 70,
      "}": 71,
      "~": 72,
      "¡": 73,
      "¢": 74,
      "£": 75,
      "¤": 76,
      "¥": 77,
      "¦": 78,
      "§": 79,
      "¨": 80,
      "©": 81,
      "ª": 82,
      "«": 83,
      "¬": 84,
      "®": 85,
      "¯": 86,
      "°": 87,
      "±": 88,
      "²": 89,
      "³": 90,
      "´": 91,
      "µ": 92,
      "¶": 93,
      "·": 94,
      "¸": 95,
      "¹": 96,
      "º": 97,
      "»": 98,
      "¼": 99,
      "½": 100,
      "¾": 101,
      "¿": 102,
      "Â": 103,
      "Ã": 104,
      "Ä": 105,
      "Å": 106,
      "Æ": 107,
      "Ç": 108,
      "É": 109,
      "Ê": 110,
      "Ë": 111,
      "Í": 112,
      "Î": 113,
      "Ï": 114,
      "Ð": 115,
      "Ñ": 116,
      "Ò": 117,
      "Ó": 118,
      "Õ": 119,
      "Ö": 120,
      "×": 121,
      "Ø": 122,
      "Ù": 123,
      "Ú": 124,
      "Û": 125,
      "ß": 126,
      "à": 127,
      "á": 128,
      "â": 129,
      "ã": 130,
      "ä": 131,
      "å": 132,
      "æ": 133,
      "ç": 134,
      "è": 135,
      "é": 136,
      "ê": 137,
      "ð": 138,
      "Ġ": 139,
      "Ģ": 140,
      "ģ": 141,
      "Ĥ": 142,
      "ĥ": 143,
      "Ħ": 144,
      "ħ": 145,
      "Ĩ": 146,
      "ĩ": 147,
      "Ī": 148,
      "ī": 149,
      "Ĭ": 150,
      "ĭ": 151,
      "Į": 152,
      "į": 153,
      "İ": 154,
      "ı": 155,
      "Ĳ": 156,
      "ĳ": 157,
      "Ĵ": 158,
      "ĵ": 159,
      "Ķ": 160,
      "ķ": 161,
      "ĸ": 162,
      "Ĺ": 163,
      "ĺ": 164,
      "Ļ": 165,
      "ļ": 166,
      "Ľ": 167,
      "ľ": 168,
      "Ŀ": 169,
      "ŀ": 170,
      "Ł": 171,
      "ł": 172,
      "Ń": 173,
      "ta": 174,
      "en": 175,
      "is": 176,
      "an": 177,
      "in": 178,
      "Ġk": 179,
      "va": 180,
      "te": 181,
      "Ġs": 182,
      "ll": 183,
      "tu": 184,
      "Ġ,": 185,
      "Ġe": 186,
      "Ġ.": 187,
      "Ġj": 188,
      "to": 189,
      "Ġo": 190,
      "sa": 191,
      "ti": 192,
      "Ġm": 193,
      "ks": 194,
      "Ġa": 195,
      "tta": 196,
      "Ġp": 197,
      "ka": 198,
      "Ġja": 199,
      "on": 200,
      "aa": 201,
      "Ġta": 202,
      "es": 203,
      "Ġl": 204,
      "oi": 205,
      "Ġ1": 206,
      "ty": 207,
      "Ġva": 208,
      "ell": 209,
      "ma": 210,
      "Ġ2": 211,
      "os": 212,
      "us": 213,
      "et": 214,
      "si": 215,
      "Ġn": 216,
      "er": 217,
      "Ġv": 218,
      "Ġ-": 219,
      "uu": 220,
      "mis": 221,
      "ke": 222,
      "uo": 223,
      "im": 224,
      "Ġ)": 225,
      "ri": 226,
      "Ġko": 227,
      "Ġy": 228,
      "Ġh": 229,
      "la": 230,
      "ki": 231,
      "Ġei": 232,
      "ra": 233,
      "Ġso": 234,
      "ja": 235,
      "Ġtu": 236,
      "den": 237,
      "Ġ(": 238,
      "Ġon": 239,
      "el": 240,
      "Ġka": 241,
      "lla": 242,
      "Ġâ": 243,
      "vi": 244,
      "ksi": 245,
      "elle": 246,
      "Ġto": 247,
      "ĠâĢ": 248,
      "ssa": 249,
      "ii": 250,
      "ista": 251,
      "Ġsov": 252,
      "ko": 253,
      "ten": 254,
      "sta": 255,
      "mi": 256,
      "le": 257,
      "hd": 258,
      "Ġ/": 259,
      "Ġku": 260,
      "Ġ:": 261,
      "vat": 262,
      "00": 263,
      "li": 264,
      "ksen": 265,
      "Ġsovelle": 266,
      "tel": 267,
      "Ġ3": 268,
      "Ġsovelleta": 269,
      "Ġjo": 270,
      "se": 271,
      "Ġma": 272,
      "Ġar": 273,
      "tto": 274,
      "essa": 275,
      "Ġ_": 276,
      "inen": 277,
      "un": 278,
      "ur": 279,
      "Ġc": 280,
      "taan": 281,
      "pa": 282,
      "ir": 283,
      "Ġse": 284,
      "ann": 285,
      "isen": 286,
      "il": 287,
      "isi": 288,
      "tus": 289,
      "Ġtuo": 290,
      "Ġpa": 291,
      "tik": 292,
      "een": 293,
      "jen": 294,
      "ut": 295,
      "hte": 296,
      "Ġetta": 297,
      "Ġ5": 298,
      "tte": 299,
      "lle": 300,
      "Ġartik": 301,
      "Ġper": 302,
      "Ġ4": 303,
      "ik": 304,
      "Ġmu": 305,
      "ella": 306,
      "rity": 307,
      "Ġte": 308,
      "man": 309,
      "op": 310,
      "Ġsa": 311,
      "Ġ0": 312,
      "Ġla": 313,
      "yy": 314,
      "Ġd": 315,
      "lan": 316,
      "ĠâĢĵ": 317,
      "Ġtar": 318,
      "van": 319,
      "Ġr": 320,
      "Ġole": 321,
      "Ġmuu": 322,
      "Ġtai": 323,
      "Ġ|": 324,
      "Ġtoim": 325,
      "lu": 326,
      "ita": 327,
      "llis": 328,
      "Ġ20": 329,
      "ttava": 330,
      "lta": 331,
      "issa": 332,
      "Ġmaa": 333,
      "Ġ9": 334,
      "ttu": 335,
      "Ġyhte": 336,
      "Ġkos": 337,
      "Ġasi": 338,
      "kin": 339,
      "esta": 340,
      "Ġkan": 341,
      "mio": 342,
      "Ġpaa": 343,
      "Ġperus": 344,
      "kset": 345,
      "Ġti": 346,
      "lo": 347,
      "hta": 348,
      "rj": 349,
      "Ġ200": 350,
      "kais": 351,
      "ike": 352,
      "Ġb": 353,
      "esti": 354,
      "Ġen": 355,
      "Ġeur": 356,
      "Ġ6": 357,
      "ttaa": 358,
      "na": 359,
      "Ġvoi": 360,
      "Ġoike": 361,
      "Ġluo": 362,
      "tuksen": 363,
      "Ġsi": 364,
      "Ġ7": 365,
      "Ġra": 366,
      "Ġ8": 367,
      "iden": 368,
      "Ġase": 369,
      "Ġkuin": 370,
      "Ġed": 371,
      "Ġval": 372,
      "Ġkoske": 373,
      "Ġha": 374,
      "Ġeuro": 375,
      "val": 376,
      "da": 377,
      "Ġsaa": 378,
      "Ġartiklan": 379,
      "Ġky": 380,
      "isa": 381,
      "sti": 382,
      "missi": 383,
      "Ġkohd": 384,
      "tan": 385,
      "Ġlii": 386,
      "Ġkomissi": 387,
      "Ġyhteis": 388,
      "Ġvasta": 389,
      "ton": 390,
      "Ġ19": 391,
      "Ġkay": 392,
      "uk": 393,
      "istu": 394,
      "Ġosa": 395,
      "men": 396,
      "hin": 397,
      "mista": 398,
      "ris": 399,
      "Ġtuomio": 400,
      "uv": 401,
      "Ġ201": 402,
      "pi": 403,
      "sen": 404,
      "Ġyrity": 405,
      "ano": 406,
      "tty": 407,
      "ek": 408,
      "Ġna": 409,
      "Ġf": 410,
      "assa": 411,
      "jan": 412,
      "oite": 413,
      "Ġmuut": 414,
      "kaan": 415,
      "Ġne": 416,
      "ul": 417,
      "he": 418,
      "oiden": 419,
      "ro": 420,
      "tti": 421,
      "ĠâĢĿ": 422,
      "uksen": 423,
      "yn": 424,
      "maan": 425,
      "up": 426,
      "Ġun": 427,
      "tii": 428,
      "Ġtoimi": 429,
      "Ġjasen": 430,
      "Ġ10": 431,
      "stu": 432,
      "ina": 433,
      "ion": 434,
      "uus": 435,
      "Ġvi": 436,
      "tun": 437,
      "iset": 438,
      "Ġoikeu": 439,
      "de": 440,
      "Ġkyse": 441,
      "lassa": 442,
      "Ġtie": 443,
      "valti": 444,
      "Ġjos": 445,
      "yt": 446,
      "yv": 447,
      "Ġeuroop": 448,
      "Ġtark": 449,
      "or": 450,
      "isten": 451,
      "Ġi": 452,
      "Ġil": 453,
      "riski": 454,
      "kuu": 455,
      "Ġmy": 456,
      "Ġesi": 457,
      "Ġsen": 458,
      "Ġmaks": 459,
      "iste": 460,
      "ana": 461,
      "tka": 462,
      "Ġunion": 463,
      "taa": 464,
      "Ġt": 465,
      "Ġtuomioistu": 466,
      "puo": 467,
      "Ġri": 468,
      "ksia": 469,
      "hdo": 470,
      "Ġeuroopan": 471,
      "Ġjasenvalti": 472,
      "Ġ;": 473,
      "eksi": 474,
      "Ġkomissio": 475,
      "ha": 476,
      "minen": 477,
      "ot": 478,
      "myy": 479,
      "Ġpaato": 480,
      "isia": 481,
      "uks": 482,
      "vien": 483,
      "ia": 484,
      "Ġvali": 485,
      "oin": 486,
      "Ġal": 487,
      "ys": 488,
      "Ġpai": 489,
      "teen": 490,
      "ektii": 491,
      "Ġvah": 492,
      "nn": 493,
      "Ġlu": 494,
      "Ġsop": 495,
      "ttamis": 496,
      "Ġerity": 497,
      "Ġhuo": 498,
      "Ġjoka": 499,
      "Ġunionin": 500,
      "Ġasia": 501,
      "ytto": 502,
      "Ġ00": 503,
      "anne": 504,
      "Ġmen": 505,
      "vaa": 506,
      "irektii": 507,
      "Ġg": 508,
      "Ġsopim": 509,
      "rjes": 510,
      "Ġhy": 511,
      "Ġty": 512,
      "maa": 513,
      "Ġ12": 514,
      "Ġpo": 515,
      "usta": 516,
      "Ġsuo": 517,
      "mma": 518,
      "ne": 519,
      "Ġol": 520,
      "isesti": 521,
      "irb": 522,
      "Ġjotka": 523,
      "telma": 524,
      "Ġluotto": 525,
      "Ġdirektii": 526,
      "Ġasetuksen": 527,
      "oa": 528,
      "Ġkansa": 529,
      "Ġan": 530,
      "re": 531,
      "Ġkun": 532,
      "Ġki": 533,
      "Ġ11": 534,
      "Ġmaara": 535,
      "Ġneuv": 536,
      "Ġseka": 537,
      "stuut": 538,
      "ts": 539,
      "Ġsii": 540,
      "tamis": 541,
      "Ġseur": 542,
      "Ġtay": 543,
      "Ġos": 544,
      "Ġkohdan": 545,
      "yvytto": 546,
      "Ġvaa": 547,
      "vel": 548,
      "yvyttomyy": 549,
      "Ġnii": 550,
      "eh": 551,
      "Ġ199": 552,
      "Ġmaksuk": 553,
      "Ġmaksukyvyttomyy": 554,
      "utu": 555,
      "Ġala": 556,
      "Ġtaman": 557,
      "mu": 558,
      "Ġyritykset": 559,
      "ien": 560,
      "tely": 561,
      "tys": 562,
      "kko": 563,
      "stilassa": 564,
      "Ġkuu": 565,
      "Ġmaksukyvyttomyystilassa": 566,
      "Ġey": 567,
      "tetaan": 568,
      "inn": 569,
      "Ġseuraa": 570,
      "Ġmukaan": 571,
      "Ġvuo": 572,
      "ini": 573,
      "Ġperuste": 574,
      "Ġkohta": 575,
      "anoma": 576,
      "hoi": 577,
      "Ġvir": 578,
      "ossa": 579,
      "itta": 580,
      "vastuut": 581,
      "imen": 582,
      "via": 583,
      "ine": 584,
      "tojen": 585,
      "dell": 586,
      "vin": 587,
      "Ġneuvos": 588,
      "rk": 589,
      "Ġno": 590,
      "vo": 591,
      "Ġtarkoite": 592,
      "Ġeu": 593,
      "Ġin": 594,
      "Ġvar": 595,
      "tyn": 596,
      "Ġsel": 597,
      "Ġtava": 598,
      "tettu": 599,
      "Ġovat": 600,
      "Ġai": 601,
      "Ġyle": 602,
      "Ġmukais": 603,
      "Ġsisa": 604,
      "Ġvai": 605,
      "ojen": 606,
      "ken": 607,
      "osta": 608,
      "isiin": 609,
      "kke": 610,
      "Ġver": 611,
      "tuks": 612,
      "vana": 613,
      "Ġmi": 614,
      "Ġlisa": 615,
      "tettava": 616,
      "em": 617,
      "tin": 618,
      "Ġ%": 619,
      "Ġsuu": 620,
      "Ġalu": 621,
      "Ġvoida": 622,
      "oitta": 623,
      "Ġkor": 624,
      "Ġsaann": 625,
      "it": 626,
      "Ġmer": 627,
      "enki": 628,
      "tion": 629,
      "Ġsovel": 630,
      "ku": 631,
      "Ġartikla": 632,
      "Ġall": 633,
      "Ġjon": 634,
      "kon": 635,
      "Ġjal": 636,
      "voi": 637,
      "paa": 638,
      "inta": 639,
      "Ġkohdassa": 640,
      "kaa": 641,
      "mer": 642,
      "Ġmyos": 643,
      "lvel": 644,
      "tanto": 645,
      "Ġkanta": 646,
      "Ġ15": 647,
      "ettu": 648,
      "oita": 649,
      "Ġtote": 650,
      "ĠâĢĶ": 651,
      "Ġkaik": 652,
      "opim": 653,
      "Ġ13": 654,
      "per": 655,
      "Ġkomission": 656,
      "jo": 657,
      "Ġpk": 658,
      "Ġkasi": 659,
      "Ġhall": 660,
      "Ġvaik": 661,
      "Ġmukaisesti": 662,
      "di": 663,
      "Ġhan": 664,
      "Ġoli": 665,
      "tteen": 666,
      "kuuta": 667,
      "Ġilm": 668,
      "Ġoikeus": 669,
      "Ġolisi": 670,
      "jarjes": 671,
      "utta": 672,
      "Ġdirektiivin": 673,
      "saa": 674,
      "uud": 675,
      "Ġalako": 676,
      "rkkin": 677,
      "Ġensi": 678,
      "puol": 679,
      "Ġyhteison": 680,
      "Ġyksi": 681,
      "Ġsella": 682,
      "sia": 683,
      "Ġlaa": 684,
      "10": 685,
      "Ġliitty": 686,
      "etelma": 687,
      "ei": 688,
      "Ġanne": 689,
      "Ġjonka": 690,
      "Ġneuvoston": 691,
      "Ġhenki": 692,
      "Ġhuomio": 693,
      "ed": 694,
      "tetta": 695,
      "Ġmaini": 696,
      "Ġtut": 697,
      "Ġluoki": 698,
      "Ġ14": 699,
      "Ġvastaa": 700,
      "as": 701,
      "Ġhyva": 702,
      "tkais": 703,
      "vista": 704,
      "po": 705,
      "Ġ50": 706,
      "Ġtoimen": 707,
      "ran": 708,
      "Ġniiden": 709,
      "Ġensimma": 710,
      "Ġedell": 711,
      "puoli": 712,
      "Ġeuroa": 713,
      "Ġrii": 714,
      "Ġlain": 715,
      "Ġ17": 716,
      "ua": 717,
      "Ġ]": 718,
      "Ġhuomioon": 719,
      "massa": 720,
      "Ġ[": 721,
      "Ġ16": 722,
      "sopim": 723,
      "Ġosalta": 724,
      "ihin": 725,
      "Ġmil": 726,
      "Ġteh": 727,
      "kas": 728,
      "jel": 729,
      "valta": 730,
      "Ġolevat": 731,
      "Ġoikeuden": 732,
      "yh": 733,
      "Ġpaivana": 734,
      "kun": 735,
      "hoitus": 736,
      "iaa": 737,
      "jat": 738,
      "matta": 739,
      "Ġmaari": 740,
      "luo": 741,
      "Ġjul": 742,
      "Ġarvi": 743,
      "Ġmahdo": 744,
      "Ġkes": 745,
      "tut": 746,
      "pite": 747,
      "Ġselvi": 748,
      "ch": 749,
      "ros": 750,
      "uuden": 751,
      "Ġedelly": 752,
      "Ġhyvaks": 753,
      "Ġnim": 754,
      "mien": 755,
      "Ġtapa": 756,
      "upan": 757,
      "kirj": 758,
      "Ġyhd": 759,
      "sto": 760,
      "Ġvel": 761,
      "tann": 762,
      "Ġpi": 763,
      "Ġkol": 764,
      "Ġ\"": 765,
      "Ġvii": 766,
      "Ġvoidaan": 767,
      "Ġ18": 768,
      "ulu": 769,
      "Ġ30": 770,
      "etty": 771,
      "Ġtuomioistuin": 772,
      "llinen": 773,
      "Ġkats": 774,
      "Ġirb": 775,
      "Ġyritys": 776,
      "Ġkaikki": 777,
      "Ġyhteisojen": 778,
      "pan": 779,
      "Ġyh": 780,
      "aan": 781,
      "Ġsu": 782,
      "Ġeri": 783,
      "von": 784,
      "han": 785,
      "Ġtois": 786,
      "do": 787,
      "Ġoll": 788,
      "ettely": 789,
      "tuu": 790,
      "Ġw": 791,
      "Ġerityis": 792,
      "Ġvaati": 793,
      "Ġmilj": 794,
      "Ġde": 795,
      "Ġkui": 796,
      "Ġsita": 797,
      "malla": 798,
      "tantoon": 799,
      "tetty": 800,
      "20": 801,
      "Ġehdo": 802,
      "kseen": 803,
      "mat": 804,
      "Ġkaytto": 805,
      "Ġ=": 806,
      "oilla": 807,
      "Ġtalla": 808,
      "al": 809,
      "ing": 810,
      "misen": 811,
      "Ġlai": 812,
      "oike": 813,
      "usten": 814,
      "toa": 815,
      "Ġ25": 816,
      "ym": 817,
      "Ġ21": 818,
      "Ġkir": 819,
      "Ġperusteella": 820,
      "ille": 821,
      "Ġjossa": 822,
      "tteiden": 823,
      "lou": 824,
      "ve": 825,
      "Ġmyon": 826,
      "Ġvastapuoli": 827,
      "Ġtama": 828,
      "Ġselvitys": 829,
      "Ġtaytantoon": 830,
      "raa": 831,
      "telu": 832,
      "ver": 833,
      "kki": 834,
      "toja": 835,
      "Ġpalvel": 836,
      "Ġpyy": 837,
      "Ġ29": 838,
      "ointi": 839,
      "kaupan": 840,
      "keen": 841,
      "me": 842,
      "tynyt": 843,
      "min": 844,
      "Ġmerki": 845,
      "illa": 846,
      "Ġsopimuksen": 847,
      "Ġmarkkin": 848,
      "Ġpaatoksen": 849,
      "Ġtoimenpite": 850,
      "luotto": 851,
      "Ġluottoriski": 852,
      "Ġalakohd": 853,
      "Ġvalmis": 854,
      "pu": 855,
      "Ġalue": 856,
      "llisen": 857,
      "riskit": 858,
      "toim": 859,
      "tos": 860,
      "Ġluottokaupan": 861,
      "Ġluokitus": 862,
      "Ġselvitysriskit": 863,
      "Ġtuomioistuimen": 864,
      "Ġvastapuoliluotto": 865,
      "Ġvastapuoliluottoriski": 866,
      "Ġasian": 867,
      "kan": 868,
      "Ġpar": 869,
      "Ġkuiten": 870,
      "Ġkoska": 871,
      "Ġpu": 872,
      "kka": 873,
      "Ġjarjes": 874,
      "Ġenna": 875,
      "je": 876,
      "Ġco": 877,
      "ettel": 878,
      "Ġ23": 879,
      "isessa": 880,
      "kayn": 881,
      "kim": 882,
      "Ġtarkoitettu": 883,
      "ĠâĢĻ": 884,
      "Ġviranoma": 885,
      "Ġ31": 886,
      "Ġain": 887,
      "joi": 888,
      "Ġhyvaksy": 889,
      "Ġedella": 890,
      "uutta": 891,
      "Ġii": 892,
      "Ġartiklassa": 893,
      "ar": 894,
      "tteet": 895,
      "vu": 896,
      "Ġ90": 897,
      "Ġtehd": 898,
      "rva": 899,
      "Ġ22": 900,
      "ais": 901,
      "mia": 902,
      "Ġkuulu": 903,
      "Ġkoskeva": 904,
      "vasti": 905,
      "Ġ<": 906,
      "Ġtuomi": 907,
      "misesta": 908,
      "Ġ26": 909,
      "Ġann": 910,
      "Ġtul": 911,
      "Ġsaanno": 912,
      "tio": 913,
      "Ġkanssa": 914,
      "Ġolevan": 915,
      "Ġnou": 916,
      "uksessa": 917,
      "Ġeivat": 918,
      "miseksi": 919,
      "Ġjasenvaltioiden": 920,
      "nut": 921,
      "Ġul": 922,
      "Ġsiita": 923,
      "Ġas": 924,
      "Ġni": 925,
      "rosen": 926,
      "oihin": 927,
      "Ġety": 928,
      "ol": 929,
      "nan": 930,
      "Ġ24": 931,
      "Ġkoskevat": 932,
      "Ġkiin": 933,
      "istynyt": 934,
      "saad": 935,
      "lli": 936,
      "Ġsuori": 937,
      "Ġtied": 938,
      "jien": 939,
      "Ġaihe": 940,
      "ttavat": 941,
      "tava": 942,
      "Ġvahin": 943,
      "Ġasiassa": 944,
      "Ġpuo": 945,
      "Ġmuka": 946,
      "Ġmenetelma": 947,
      "sopimuksen": 948,
      "Ġnouda": 949,
      "rin": 950,
      "eseen": 951,
      "Ġ28": 952,
      "Ġtalou": 953,
      "Ġtyo": 954,
      "inna": 955,
      "ikka": 956,
      "Ġoikeudenkayn": 957,
      "Ġsaan": 958,
      "Ġtassa": 959,
      "Ġerityisesti": 960,
      "Ġmahdollis": 961,
      "tiin": 962,
      "nyt": 963,
      "isto": 964,
      "Ġtasa": 965,
      "Ġoleva": 966,
      "Ġlo": 967,
      "Ġtarkas": 968,
      "Ġkyseisen": 969,
      "Ġtavara": 970,
      "vissa": 971,
      "Ġkoskevan": 972,
      "ksiin": 973,
      "ika": 974,
      "vir": 975,
      "Ġes": 976,
      "Ġkeh": 977,
      "Ġ27": 978,
      "tusta": 979,
      "Ġvu": 980,
      "detaan": 981,
      "Ġkum": 982,
      "Ġoh": 983,
      "iseen": 984,
      "llista": 985,
      "Ġulko": 986,
      "ttiin": 987,
      "Ġlop": 988,
      "Ġteke": 989,
      "ala": 990,
      "Ġennakko": 991,
      "jalla": 992,
      "Ġlas": 993,
      "yd": 994,
      "Ġkatso": 995,
      "matto": 996,
      "staan": 997,
      "Ġesitta": 998,
      "Ġjoiden": 999,
      "ratkais": 1000,
      "Ġtehta": 1001,
      "jaa": 1002,
      "Ġkys": 1003,
      "Ġx": 1004,
      "hen": 1005,
      "so": 1006,
      "rahoitus": 1007,
      "Ġairb": 1008,
      "Ġannettu": 1009,
      "Ġedistynyt": 1010,
      "Ġvahv": 1011,
      "Ġotta": 1012,
      "Ġmuo": 1013,
      "Ġhenkil": 1014,
      "Ġensimmaisen": 1015,
      "Ġus": 1016,
      "maara": 1017,
      "Ġsopimus": 1018,
      "onn": 1019,
      "Ġvira": 1020,
      "ĠâĢĲ": 1021,
      "Ġjulk": 1022,
      "tia": 1023,
      "tteessa": 1024,
      "Ġerityisrahoitus": 1025,
      "Ġlainsaad": 1026,
      "Ġerityisrahoitusvastuut": 1027,
      "Ġkantaja": 1028,
      "tuo": 1029,
      "osto": 1030,
      "Ġsoveltamis": 1031,
      "Ġmo": 1032,
      "kea": 1033,
      "mais": 1034,
      "ea": 1035,
      "ter": 1036,
      "Ġel": 1037,
      "Ġmenettely": 1038,
      "Ġkoh": 1039,
      "Ġkil": 1040,
      "Ġnain": 1041,
      "uste": 1042,
      "Ġlisaksi": 1043,
      "Ġtoteu": 1044,
      "kir": 1045,
      "Ġaine": 1046,
      "Ġsiir": 1047,
      "Ġkoko": 1048,
      "lamen": 1049,
      "one": 1050,
      "hto": 1051,
      "Ġle": 1052,
      "pail": 1053,
      "Ġtarvi": 1054,
      "Ġvapaa": 1055,
      "ttia": 1056,
      "lai": 1057,
      "Ġyleis": 1058,
      "las": 1059,
      "Ġjalkeen": 1060,
      "osi": 1061,
      "tse": 1062,
      "oille": 1063,
      "Ġtoimivalta": 1064,
      "Ġks": 1065,
      "Ġvero": 1066,
      "sas": 1067,
      "Ġennakkoratkais": 1068,
      "era": 1069,
      "Ġvahviste": 1070,
      "Ġvuoksi": 1071,
      "pano": 1072,
      "oikeu": 1073,
      "jarjestel": 1074,
      "tyt": 1075,
      "Ġannetun": 1076,
      "Ġtod": 1077,
      "ino": 1078,
      "Ġvarten": 1079,
      "kn": 1080,
      "Ġke": 1081,
      "ittais": 1082,
      "Ġriid": 1083,
      "uun": 1084,
      "yyn": 1085,
      "laa": 1086,
      "kem": 1087,
      "kohta": 1088,
      "Ġkanne": 1089,
      "Ġprosen": 1090,
      "llan": 1091,
      "Ġthe": 1092,
      "vasta": 1093,
      "Ġela": 1094,
      "Ġparlamen": 1095,
      "Ġainoa": 1096,
      "Ġtarkoi": 1097,
      "ho": 1098,
      "Ġsovelletaan": 1099,
      "anala": 1100,
      "Ġvahittais": 1101,
      "elta": 1102,
      "ttei": 1103,
      "nen": 1104,
      "ymy": 1105,
      "Ġasetus": 1106,
      "Ġjoita": 1107,
      "Ġkulu": 1108,
      "ttamisesta": 1109,
      "intaan": 1110,
      "Ġpol": 1111,
      "ans": 1112,
      "Ġmaaraa": 1113,
      "Ġanta": 1114,
      "Ġof": 1115,
      "Ġtutkim": 1116,
      "Ġre": 1117,
      "annon": 1118,
      "pe": 1119,
      "Ġhe": 1120,
      "ksessa": 1121,
      "onte": 1122,
      "Ġyli": 1123,
      "Ġriidanala": 1124,
      "Ġkuten": 1125,
      "Ġct": 1126,
      "Ġtuomion": 1127,
      "Ġli": 1128,
      "Ġpaatos": 1129,
      "Ġsyy": 1130,
      "Ġ40": 1131,
      "Ġkokon": 1132,
      "Ġsellaisen": 1133,
      "Ġym": 1134,
      "Ġyritysvastuut": 1135,
      "uta": 1136,
      "Ġhuoma": 1137,
      "ilta": 1138,
      "ujen": 1139,
      "Ġsiten": 1140,
      "tie": 1141,
      "llisuus": 1142,
      "llisesti": 1143,
      "Ġsuur": 1144,
      "ppa": 1145,
      "Ġhenkilo": 1146,
      "ky": 1147,
      "Ġkiinte": 1148,
      "Ġperustamis": 1149,
      "mukais": 1150,
      "Ġvara": 1151,
      "ksien": 1152,
      "kay": 1153,
      "Ġmin": 1154,
      "Ġeyv": 1155,
      "miseen": 1156,
      "40": 1157,
      "masta": 1158,
      "Ġeyvl": 1159,
      "Ġpita": 1160,
      "Ġosin": 1161,
      "Ġilmoi": 1162,
      "ksista": 1163,
      "Ġasetuks": 1164,
      "Ġkul": 1165,
      "Ġjoh": 1166,
      "Ġuud": 1167,
      "ker": 1168,
      "Ġvahittaisvastuut": 1169,
      "Ġyhden": 1170,
      "Ġosallis": 1171,
      "Ġvuoden": 1172,
      "Ġliitteessa": 1173,
      "kup": 1174,
      "Ġainoastaan": 1175,
      "viin": 1176,
      "tyy": 1177,
      "ĠÂ": 1178,
      "ras": 1179,
      "Ġex": 1180,
      "palvel": 1181,
      "ian": 1182,
      "elleen": 1183,
      "Ġtaytantoonpano": 1184,
      "Ġratkais": 1185,
      "Ġkansallis": 1186,
      "ud": 1187,
      "Ġjasenvaltio": 1188,
      "Ġettei": 1189,
      "Ġtunn": 1190,
      "Ġjolla": 1191,
      "kinta": 1192,
      "Ġ>": 1193,
      "21": 1194,
      "Ġsy": 1195,
      "Ġkas": 1196,
      "Ġker": 1197,
      "anna": 1198,
      "Ġ2009": 1199,
      "Ġfi": 1200,
      "um": 1201,
      "tt": 1202,
      "viranoma": 1203,
      "Ġkaytta": 1204,
      "anto": 1205,
      "Ġjohd": 1206,
      "Ġnojalla": 1207,
      "Ġhallinn": 1208,
      "ussa": 1209,
      "Ġjasenvaltion": 1210,
      "30": 1211,
      "od": 1212,
      "Ġperiaa": 1213,
      "Ġtavoi": 1214,
      "eet": 1215,
      "rvi": 1216,
      "ekiste": 1217,
      "Ġtuomioistuim": 1218,
      "Ġedellyty": 1219,
      "Ġkuitenkin": 1220,
      "Ġluk": 1221,
      "mite": 1222,
      "Ġalkup": 1223,
      "Ġpaaa": 1224,
      "ksella": 1225,
      "Ġturva": 1226,
      "vallan": 1227,
      "nni": 1228,
      "innan": 1229,
      "Ġeika": 1230,
      "Ġjalj": 1231,
      "usa": 1232,
      "Ġita": 1233,
      "Ġkehi": 1234,
      "Ġpuol": 1235,
      "Ġoikeudell": 1236,
      "Ġkilpail": 1237,
      "lii": 1238,
      "Ġtehty": 1239,
      "Ġkayttoon": 1240,
      "ydessa": 1241,
      "Ġtutki": 1242,
      "kus": 1243,
      "tua": 1244,
      "Ġyksity": 1245,
      "tella": 1246,
      "Ġollen": 1247,
      "Ġtata": 1248,
      "Ġsilla": 1249,
      "Ġtekn": 1250,
      "Ġmaaray": 1251,
      "ppale": 1252,
      "Ġyhteisty": 1253,
      "Ġharj": 1254,
      "Ġtavaramer": 1255,
      "Ġ2013": 1256,
      "vakuu": 1257,
      "yta": 1258,
      "Ġ39": 1259,
      "Ġ2006": 1260,
      "isuus": 1261,
      "Ġyhteen": 1262,
      "Ġkoskee": 1263,
      "joitta": 1264,
      "tusten": 1265,
      "ksa": 1266,
      "Ġrahoitus": 1267,
      "50": 1268,
      "pana": 1269,
      "Ġmainittu": 1270,
      "heen": 1271,
      "Ġsiihen": 1272,
      "Ġtule": 1273,
      "ukset": 1274,
      "Ġjoilla": 1275,
      "Ġsisal": 1276,
      "eli": 1277,
      "ce": 1278,
      "Ġ000": 1279,
      "Ġvastaan": 1280,
      "Ġvalvon": 1281,
      "teet": 1282,
      "Ġ010": 1283,
      "tteita": 1284,
      "ttamisen": 1285,
      "vai": 1286,
      "isesta": 1287,
      "Ġ2001": 1288,
      "Ġennen": 1289,
      "Ġ2003": 1290,
      "Ġu": 1291,
      "Ġpoi": 1292,
      "ca": 1293,
      "Ġalakohdan": 1294,
      "enn": 1295,
      "Ġollut": 1296,
      "Ġmutta": 1297,
      "Ġilmoite": 1298,
      "uhte": 1299,
      "yrity": 1300,
      "ttamiseksi": 1301,
      "Ġro": 1302,
      "Ġvaatim": 1303,
      "Ġsaad": 1304,
      "Ġter": 1305,
      "Ġ'": 1306,
      "Ġuus": 1307,
      "lloin": 1308,
      "Ġtaloudell": 1309,
      "Ġkorva": 1310,
      "Ġpal": 1311,
      "ria": 1312,
      "Ġarvo": 1313,
      "Ġtiedot": 1314,
      "Ġmon": 1315,
      "pai": 1316,
      "Ġ100": 1317,
      "Ġ2004": 1318,
      "lous": 1319,
      "Ġviim": 1320,
      "Ġraken": 1321,
      "Ġperustel": 1322,
      "Ġeuv": 1323,
      "ga": 1324,
      "Ġyhteydessa": 1325,
      "Ġrekiste": 1326,
      "Ġeuvl": 1327,
      "ela": 1328,
      "isille": 1329,
      "neet": 1330,
      "mo": 1331,
      "ttely": 1332,
      "Ġ198": 1333,
      "Ġvoivat": 1334,
      "kirja": 1335,
      "Ġ38": 1336,
      "isaa": 1337,
      "Ġmuuto": 1338,
      "ttaessa": 1339,
      "Ġpy": 1340,
      "ven": 1341,
      "Ġparlamentin": 1342,
      "Ġsaman": 1343,
      "empana": 1344,
      "Ġajan": 1345,
      "Ġoikeusas": 1346,
      "Ġperustu": 1347,
      "tr": 1348,
      "Ġtahan": 1349,
      "mukset": 1350,
      "kien": 1351,
      "Ġolla": 1352,
      "into": 1353,
      "Ġkysymy": 1354,
      "Ġris": 1355,
      "Ġjaljempana": 1356,
      "Ġ32": 1357,
      "Ġneuvosto": 1358,
      "olo": 1359,
      "Ġkyseessa": 1360,
      "oh": 1361,
      "Ġrikko": 1362,
      "Ġosapuol": 1363,
      "Ġjoissa": 1364,
      "menetelma": 1365,
      "erg": 1366,
      "Ġarviointi": 1367,
      "Ġsaadetaan": 1368,
      "Ġ2002": 1369,
      "fi": 1370,
      "Ġ2014": 1371,
      "Ġ2011": 1372,
      "Ġsovelta": 1373,
      "Ġvakuu": 1374,
      "Ġ33": 1375,
      "Ġ36": 1376,
      "Ġtieto": 1377,
      "por": 1378,
      "Ġ2008": 1379,
      "Ġedusta": 1380,
      "Ġ37": 1381,
      "ttaja": 1382,
      "Ġasianoma": 1383,
      "Ġlaus": 1384,
      "Ġtietty": 1385,
      "kirjan": 1386,
      "Ġtas": 1387,
      "Ġaik": 1388,
      "inval": 1389,
      "Ġvahvista": 1390,
      "ikko": 1391,
      "peruste": 1392,
      "Ġalakohdassa": 1393,
      "dettava": 1394,
      "Ġ35": 1395,
      "Ġkaup": 1396,
      "inti": 1397,
      "Ġau": 1398,
      "Ġperustamissopimuksen": 1399,
      "Ġryh": 1400,
      "Ġonko": 1401,
      "Ġvoimassa": 1402,
      "Ġjotta": 1403,
      "isista": 1404,
      "ltava": 1405,
      "Ġkok": 1406,
      "tra": 1407,
      "Ġvaiku": 1408,
      "ge": 1409,
      "Ġjota": 1410,
      "Ġoikeusasteen": 1411,
      "Ġkansala": 1412,
      "sin": 1413,
      "Ġ34": 1414,
      "suo": 1415,
      "11": 1416,
      "Ġ2000": 1417,
      "Ġvain": 1418,
      "Ġsuhte": 1419,
      "Ġkoskevien": 1420,
      "Ġtietojen": 1421,
      "pp": 1422,
      "Ġottaa": 1423,
      "Ġohjel": 1424,
      "Ġlopu": 1425,
      "Ġ0106": 1426,
      "Ġ85": 1427,
      "Ġyks": 1428,
      "onteki": 1429,
      "ttaminen": 1430,
      "Ġ99": 1431,
      "Ġnaiden": 1432,
      "qu": 1433,
      "Ġdirektiivi": 1434,
      "Ġvastu": 1435,
      "uden": 1436,
      "mann": 1437,
      "Ġhalli": 1438,
      "Ġpuu": 1439,
      "Ġvelvoi": 1440,
      "ena": 1441,
      "Ġkansainval": 1442,
      "Ġis": 1443,
      "markkin": 1444,
      "anta": 1445,
      "Ġkasitel": 1446,
      "uksia": 1447,
      "Ġvapa": 1448,
      "Ġdi": 1449,
      "Ġsiina": 1450,
      "Ġkuning": 1451,
      "ppi": 1452,
      "oma": 1453,
      "Ġmuun": 1454,
      "ota": 1455,
      "mpi": 1456,
      "Ġkuningas": 1457,
      "Ġsah": 1458,
      "Ġulkopuol": 1459,
      "Ġvaikka": 1460,
      "ttamista": 1461,
      "Ġkon": 1462,
      "voite": 1463,
      "osiaa": 1464,
      "Ġvahintaan": 1465,
      "osten": 1466,
      "Ġkuningaskun": 1467,
      "Ġtapauksessa": 1468,
      "Ġcor": 1469,
      "Ġlen": 1470,
      "Ġkantajan": 1471,
      "Ġmuiden": 1472,
      "Ġtapah": 1473,
      "Ġtulo": 1474,
      "Ġkokonais": 1475,
      "ura": 1476,
      "Ġtoiminta": 1477,
      "Ġaikana": 1478,
      "Ġ+": 1479,
      "tannon": 1480,
      "Ġ2012": 1481,
      "Ġmuod": 1482,
      "Ġtull": 1483,
      "tsi": 1484,
      "htaa": 1485,
      "Ġenintaan": 1486,
      "muka": 1487,
      "tell": 1488,
      "Ġ1999": 1489,
      "Ġcr": 1490,
      "essaan": 1491,
      "joiden": 1492,
      "ee": 1493,
      "ikan": 1494,
      "tyksen": 1495,
      "Ġtarj": 1496,
      "Ġoikeudenkayntik": 1497,
      "Ġetu": 1498,
      "Ġpro": 1499,
      "Ġtyonteki": 1500,
      "Ġperustelu": 1501,
      "Ġilma": 1502,
      "Ġnimik": 1503,
      "Ġsito": 1504,
      "Ġtarjo": 1505,
      "Ġvoimaan": 1506,
      "Ġme": 1507,
      "86": 1508,
      "Ġkuitenkaan": 1509,
      "telman": 1510,
      "istaan": 1511,
      "Ġ84": 1512,
      "tussa": 1513,
      "Ġkanna": 1514,
      "johta": 1515,
      "Ġhel": 1516,
      "Ġ95": 1517,
      "oston": 1518,
      "lia": 1519,
      "iin": 1520,
      "jaks": 1521,
      "Ġmaan": 1522,
      "ollis": 1523,
      "ppu": 1524,
      "ksesta": 1525,
      "ukseen": 1526,
      "Ġperusmenetelma": 1527,
      "Ġfirb": 1528,
      "Ġosallistu": 1529,
      "Ġpoyta": 1530,
      "ttel": 1531,
      "anosa": 1532,
      "Ġero": 1533,
      "Ġ2007": 1534,
      "Ġrajoi": 1535,
      "Ġhu": 1536,
      "Ġpoikke": 1537,
      "tysta": 1538,
      "Ġvarmista": 1539,
      "hden": 1540,
      "utun": 1541,
      "Ġoikeuskay": 1542,
      "Ġ*": 1543,
      "Ġbr": 1544,
      "Ġ01": 1545,
      "Ġolevien": 1546,
      "isella": 1547,
      "paris": 1548,
      "Ġnama": 1549,
      "oneuv": 1550,
      "Ġoltava": 1551,
      "Ġand": 1552,
      "Ġkiinteisto": 1553,
      "menettely": 1554,
      "Ġkoti": 1555,
      "Ġkar": 1556,
      "lin": 1557,
      "Ġpaiva": 1558,
      "ttele": 1559,
      "90": 1560,
      "Ġasianosa": 1561,
      "Ġ96": 1562,
      "ĠÂ§": 1563,
      "yhte": 1564,
      "llisia": 1565,
      "Ġz": 1566,
      "Ġtilan": 1567,
      "Ġvaltion": 1568,
      "Ġtavar": 1569,
      "Ġlah": 1570,
      "Ġliike": 1571,
      "Ġrans": 1572,
      "Ġprosenttia": 1573,
      "Ġrahoi": 1574,
      "Ġ2015": 1575,
      "Ġeli": 1576,
      "ci": 1577,
      "Ġalan": 1578,
      "otto": 1579,
      "Ġvaikutu": 1580,
      "Ġor": 1581,
      "Ġvien": 1582,
      "Ġtasta": 1583,
      "Ġtuon": 1584,
      "joneuv": 1585,
      "Ġtuki": 1586,
      "Ġir": 1587,
      "at": 1588,
      "kk": 1589,
      "mp": 1590,
      "Ġ92": 1591,
      "onna": 1592,
      "Ġniita": 1593,
      "Ġtavalla": 1594,
      "miin": 1595,
      "oinn": 1596,
      "Ġseuraavaa": 1597,
      "Ġcc": 1598,
      "tied": 1599,
      "Ġliite": 1600,
      "Ġ?": 1601,
      "lis": 1602,
      "Ġhar": 1603,
      "vollis": 1604,
      "Ġ2016": 1605,
      "Ġteho": 1606,
      "Ġvalitus": 1607,
      "Ġ44": 1608,
      "Ġ93": 1609,
      "oitu": 1610,
      "Ġkorvaa": 1611,
      "Ġtarjoa": 1612,
      "Ġav": 1613,
      "Ġ43": 1614,
      "80": 1615,
      "Ġ60": 1616,
      "istaa": 1617,
      "Ġvan": 1618,
      "Ġ41": 1619,
      "Ġ2010": 1620,
      "ves": 1621,
      "Ġnoudatta": 1622,
      "Ġtuotta": 1623,
      "Ġesite": 1624,
      "Ġarvon": 1625,
      "Ġniin": 1626,
      "Ġtoisen": 1627,
      "ikais": 1628,
      "muksia": 1629,
      "Ġnel": 1630,
      "Ġkolmann": 1631,
      "Ġkirja": 1632,
      "Ġ91": 1633,
      "Ġsahko": 1634,
      "Ġ42": 1635,
      "tom": 1636,
      "Ġlahe": 1637,
      "Ġepa": 1638,
      "Ġsisalta": 1639,
      "Ġmaata": 1640,
      "Ġmika": 1641,
      "Ġtuotteen": 1642,
      "Ġpan": 1643,
      "toimen": 1644,
      "ettelyn": 1645,
      "co": 1646,
      "vakuudell": 1647,
      "yys": 1648,
      "kel": 1649,
      "Ġmita": 1650,
      "Ġ94": 1651,
      "Ġamma": 1652,
      "rit": 1653,
      "Ġilmen": 1654,
      "Ġluettel": 1655,
      "Ġyksityis": 1656,
      "Ġtila": 1657,
      "Ġ2005": 1658,
      "Ġtehdyn": 1659,
      "Ġnro": 1660,
      "ineen": 1661,
      "Ġyritysten": 1662,
      "Ġkasittely": 1663,
      "Ġkiinteistovakuudell": 1664,
      "oid": 1665,
      "Ġkaytetta": 1666,
      "Ġpr": 1667,
      "Ġ54": 1668,
      "itse": 1669,
      "Ġsyn": 1670,
      "toi": 1671,
      "Ġvaka": 1672,
      "Ġkayttaa": 1673,
      "Ġve": 1674,
      "istus": 1675,
      "Ġosi": 1676,
      "Ġymparis": 1677,
      "Ġosan": 1678,
      "Ġteki": 1679,
      "kkaa": 1680,
      "ttavan": 1681,
      "Ġ46": 1682,
      "yty": 1683,
      "Ġluonn": 1684,
      "Ġ87": 1685,
      "Ġcorp": 1686,
      "Ġmarkkina": 1687,
      "paikka": 1688,
      "Ġvalilla": 1689,
      "Ġ45": 1690,
      "Ġkuva": 1691,
      "Ġsaada": 1692,
      "Ġseuraavasti": 1693,
      "Ġ80": 1694,
      "Ġ52": 1695,
      "94": 1696,
      "Ġliittyvat": 1697,
      "Ġterve": 1698,
      "Ġsija": 1699,
      "Ġalueella": 1700,
      "setuksen": 1701,
      "Ġ2017": 1702,
      "osuhte": 1703,
      "Ġsaata": 1704,
      "imi": 1705,
      "tanut": 1706,
      "intaa": 1707,
      "Ġsuoja": 1708,
      "Ġleh": 1709,
      "Ġit": 1710,
      "villa": 1711,
      "tukseen": 1712,
      "Ġpaaasi": 1713,
      "Ġalle": 1714,
      "komite": 1715,
      "Ġesitetty": 1716,
      "Ġkuuka": 1717,
      "Ġantaa": 1718,
      "iv": 1719,
      "Ġsisall": 1720,
      "isuu": 1721,
      "oon": 1722,
      "teell": 1723,
      "ttamiseen": 1724,
      "Ġtulli": 1725,
      "ment": 1726,
      "tetut": 1727,
      "Ġ98": 1728,
      "Ġtulki": 1729,
      "Ġmar": 1730,
      "uja": 1731,
      "mies": 1732,
      "inten": 1733,
      "vii": 1734,
      "ssi": 1735,
      "valla": 1736,
      "Ġkansallisen": 1737,
      "Ġpys": 1738,
      "Ġho": 1739,
      "Ġlento": 1740,
      "Ġilman": 1741,
      "oissa": 1742,
      "yritys": 1743,
      "tar": 1744,
      "din": 1745,
      "ustann": 1746,
      "innasta": 1747,
      "oista": 1748,
      "Ġhakem": 1749,
      "mec": 1750,
      "Ġtoimenpiteet": 1751,
      "lliset": 1752,
      "Ġ97": 1753,
      "Ġ48": 1754,
      "000": 1755,
      "Ġ49": 1756,
      "Ġpala": 1757,
      "mieh": 1758,
      "Ġkatsoo": 1759,
      "Ġmainitun": 1760,
      "Ġfin": 1761,
      "sel": 1762,
      "Ġtietoja": 1763,
      "Ġvuonna": 1764,
      "Ġriidanalaisen": 1765,
      "maton": 1766,
      "Ġvastaano": 1767,
      "Ġpain": 1768,
      "Ġcon": 1769,
      "Ġkuul": 1770,
      "Ġ55": 1771,
      "kappale": 1772,
      "Ġkaikkien": 1773,
      "isena": 1774,
      "Ġsellaisena": 1775,
      "Ġkomissiolle": 1776,
      "Ġcom": 1777,
      "Ġkumoa": 1778,
      "jarjestelma": 1779,
      "Ġalkupera": 1780,
      "Ġsmec": 1781,
      "Ġmuutettu": 1782,
      "Ġriippu": 1783,
      "Ġuudelleen": 1784,
      "Ġalakohta": 1785,
      "tien": 1786,
      "Ġkg": 1787,
      "peen": 1788,
      "iselle": 1789,
      "Ġtoden": 1790,
      "maks": 1791,
      "Ġkustann": 1792,
      "Ġjoulu": 1793,
      "Ġyhdis": 1794,
      "Ġmaarays": 1795,
      "Ġsosiaa": 1796,
      "umer": 1797,
      "Ġnimi": 1798,
      "det": 1799,
      "Ġviime": 1800,
      "Ġ70": 1801,
      "Ġkyseinen": 1802,
      "Ġkolman": 1803,
      "Ġ51": 1804,
      "Ġkulje": 1805,
      "Ġjohon": 1806,
      "gen": 1807,
      "Ġjat": 1808,
      "Ġkaa": 1809,
      "Ġpien": 1810,
      "sc": 1811,
      "gan": 1812,
      "Ġtasavallan": 1813,
      "Ġajoneuv": 1814,
      "Ġtarkastel": 1815,
      "uksissa": 1816,
      "Ġkalas": 1817,
      "Ġharjoitta": 1818,
      "Ġ47": 1819,
      "Ġkannalta": 1820,
      "Ġsail": 1821,
      "tellaan": 1822,
      "vaati": 1823,
      "uksista": 1824,
      "hem": 1825,
      "Ġ56": 1826,
      "Ġlaito": 1827,
      "Ġih": 1828,
      "Ġtuotteiden": 1829,
      "Ġkoulu": 1830,
      "Ġim": 1831,
      "22": 1832,
      "Ġhallinto": 1833,
      "tena": 1834,
      "Ġvuos": 1835,
      "isilla": 1836,
      "Ġtaytantoonpanoa": 1837,
      "Ġca": 1838,
      "Ġlausun": 1839,
      "Ġpor": 1840,
      "liti": 1841,
      "oittaa": 1842,
      "Ġjulkais": 1843,
      "ue": 1844,
      "lisa": 1845,
      "Ġesta": 1846,
      "kkeen": 1847,
      "Ġtaytantoonpan": 1848,
      "Ġtarpeen": 1849,
      "Ġ0086": 1850,
      "Ġseura": 1851,
      "tukset": 1852,
      "Ġolevassa": 1853,
      "tettiin": 1854,
      "mina": 1855,
      "Ġlainsaadannon": 1856,
      "Ġiii": 1857,
      "Ġsaadetty": 1858,
      "Ġvalvonta": 1859,
      "tuksessa": 1860,
      "Ġasetuksessa": 1861,
      "Ġmahdollista": 1862,
      "yritysten": 1863,
      "raan": 1864,
      "eilla": 1865,
      "dan": 1866,
      "saan": 1867,
      "ulut": 1868,
      "Ġseut": 1869,
      "Ġ57": 1870,
      "Ġfor": 1871,
      "Ġenerg": 1872,
      "eri": 1873,
      "Ġasiakirj": 1874,
      "Ġotetaan": 1875,
      "Ġkoskevia": 1876,
      "immais": 1877,
      "Ġkalta": 1878,
      "Ġtarkoituksen": 1879,
      "etto": 1880,
      "Ġvirallinen": 1881,
      "Ġpyynn": 1882,
      "Ġolemassa": 1883,
      "Ġvahen": 1884,
      "ittain": 1885,
      "heenjohta": 1886,
      "Ġsilta": 1887,
      "ni": 1888,
      "Ġsaade": 1889,
      "Ġsuojel": 1890,
      "oikeus": 1891,
      "Ġvalia": 1892,
      "mb": 1893,
      "Ġtarka": 1894,
      "Ġuse": 1895,
      "Ġ2018": 1896,
      "tulla": 1897,
      "var": 1898,
      "Ġkau": 1899,
      "Ġpuolesta": 1900,
      "Ġhal": 1901,
      "Ġ02": 1902,
      "Ġlehti": 1903,
      "Ġ07": 1904,
      "ston": 1905,
      "Ġjoihin": 1906,
      "Ġmuita": 1907,
      "Ġottaen": 1908,
      "tusa": 1909,
      "Ġvirhe": 1910,
      "Ġtilante": 1911,
      "Ġlisaa": 1912,
      "Ġ59": 1913,
      "Ġ197": 1914,
      "Ġsijoitta": 1915,
      "Ġeta": 1916,
      "Ġkiel": 1917,
      "tosten": 1918,
      "Ġjaa": 1919,
      "Ġsisalty": 1920,
      "esi": 1921,
      "Ġ53": 1922,
      "Ġtiedo": 1923,
      "ksan": 1924,
      "Ġvaittaa": 1925,
      "rite": 1926,
      "lue": 1927,
      "Ġtuotanto": 1928,
      "Ġtasavalta": 1929,
      "Ġmyy": 1930,
      "Ġvaite": 1931,
      "rea": 1932,
      "oida": 1933,
      "kumyy": 1934,
      "ttain": 1935,
      "des": 1936,
      "intarvi": 1937,
      "áĥ": 1938,
      "Ġvaatimukset": 1939,
      "Ġeurooppa": 1940,
      "Ġkeski": 1941,
      "Ġotos": 1942,
      "Ġhyla": 1943,
      "Ġraja": 1944,
      "Ġpaatty": 1945,
      "lleen": 1946,
      "mmi": 1947,
      "Ġliitteen": 1948,
      "vara": 1949,
      "Ġsopimuspuol": 1950,
      "Ġperustelukappale": 1951,
      "Ġarvonlisa": 1952,
      "Ġespan": 1953,
      "Ġpalvelujen": 1954,
      "Ġinter": 1955,
      "Ġ71": 1956,
      "Ġvahing": 1957,
      "Ġkeskus": 1958,
      "Ġ&": 1959,
      "Ġkaytetty": 1960,
      "Ġpolkumyy": 1961,
      "ttavien": 1962,
      "hi": 1963,
      "Ġtoinen": 1964,
      "urg": 1965,
      "Ġ1998": 1966,
      "henki": 1967,
      "ise": 1968,
      "ettiin": 1969,
      "Ġpui": 1970,
      "osa": 1971,
      "Ġyleisen": 1972,
      "Ġkahden": 1973,
      "Ġeh": 1974,
      "jarjestelman": 1975,
      "ttajan": 1976,
      "Ġtapahtu": 1977,
      "Ġsilloin": 1978,
      "Ġvalmistus": 1979,
      "Ġyhdiste": 1980,
      "isissa": 1981,
      "Ġlan": 1982,
      "ope": 1983,
      "uttaa": 1984,
      "Ġsoveltamisala": 1985,
      "yhteis": 1986,
      "Ġrekister": 1987,
      "Ġtavaroiden": 1988,
      "Ġvalituksen": 1989,
      "Ġ89": 1990,
      "Ġsuunni": 1991,
      "Ġtuonti": 1992,
      "Ġjasenvaltiot": 1993,
      "ilu": 1994,
      "hy": 1995,
      "nti": 1996,
      "Ġ65": 1997,
      "ttavaa": 1998,
      "Ġbi": 1999,
      "Ġarvonlisaver": 2000,
      "Ġtoteutta": 2001,
      "Ġyleinen": 2002,
      "muo": 2003,
      "missa": 2004,
      "don": 2005,
      "Ġvirka": 2006,
      "uudesta": 2007,
      "Ġmyonne": 2008,
      "Ġ75": 2009,
      "Ġpel": 2010,
      "Ġpoh": 2011,
      "Ġkesa": 2012,
      "Ġkala": 2013,
      "ohjel": 2014,
      "vuus": 2015,
      "Ġlukien": 2016,
      "gi": 2017,
      "Ġjosta": 2018,
      "60": 2019,
      "Ġkauppa": 2020,
      "Ġvie": 2021,
      "Ġtosia": 2022,
      "ytta": 2023,
      "Ġelintarvi": 2024,
      "tiedot": 2025,
      "Ġtaso": 2026,
      "Ġjoulukuuta": 2027,
      "Ġlukuun": 2028,
      "Ġteks": 2029,
      "Ġtoimenpi": 2030,
      "ttujen": 2031,
      "tuksia": 2032,
      "Ġhyvaksyn": 2033,
      "laus": 2034,
      "vuo": 2035,
      "Ġyhdessa": 2036,
      "Ġmaksa": 2037,
      "ksissa": 2038,
      "Ġhei": 2039,
      "Ġtodettava": 2040,
      "jille": 2041,
      "Ġkaytetaan": 2042,
      "Ġvastuut": 2043,
      "Ġ73": 2044,
      "pito": 2045,
      "Ġlc": 2046,
      "etel": 2047,
      "Ġ61": 2048,
      "Ġpuheenjohta": 2049,
      "yky": 2050,
      "Ġtil": 2051,
      "toimenpite": 2052,
      "tuista": 2053,
      "Ġtulee": 2054,
      "Ġsille": 2055,
      "Ġnyt": 2056,
      "Ġdo": 2057,
      "isin": 2058,
      "Ġoikeudenkaynti": 2059,
      "Ġ88": 2060,
      "Ġjasenvaltiossa": 2061,
      "Ġjohta": 2062,
      "kkeiden": 2063,
      "Ġseuraavat": 2064,
      "koko": 2065,
      "Ġpitaa": 2066,
      "Ġasiana": 2067,
      "Ġkalastus": 2068,
      "Ġilmenee": 2069,
      "taminen": 2070,
      "aisin": 2071,
      "Ġens": 2072,
      "Ġennakkoratkaisup": 2073,
      "tod": 2074,
      "Ġbel": 2075,
      "Ġluku": 2076,
      "Ġkanteen": 2077,
      "lain": 2078,
      "laito": 2079,
      "Ġkohte": 2080,
      "teri": 2081,
      "llisessa": 2082,
      "Ġmuuta": 2083,
      "tanyt": 2084,
      "Ġvaro": 2085,
      "Ġosoite": 2086,
      "hde": 2087,
      "Ġnor": 2088,
      "Ġvo": 2089,
      "Ġkiinteistovakuudelliset": 2090,
      "tis": 2091,
      "Ġved": 2092,
      "Ġperaisin": 2093,
      "Ġvaatimusten": 2094,
      "Ġoikeudenkayntikulut": 2095,
      "tetun": 2096,
      "Ġmyyn": 2097,
      "Ġkai": 2098,
      "Ġmaatalous": 2099,
      "ba": 2100,
      "Ġbe": 2101,
      "99": 2102,
      "Ġsellaisten": 2103,
      "Ġottamatta": 2104,
      "ville": 2105,
      "met": 2106,
      "Ġtarpe": 2107,
      "Ġsuuryritysten": 2108,
      "llisten": 2109,
      "Ġasu": 2110,
      "Ġsiis": 2111,
      "Ġkasiteltava": 2112,
      "jalle": 2113,
      "Ġana": 2114,
      "Ġartiklaa": 2115,
      "Ġtyy": 2116,
      "Ġviranomaisten": 2117,
      "Ġvalmista": 2118,
      "Ġteo": 2119,
      "tioiden": 2120,
      "Ġlaske": 2121,
      "Ġkorvaamaan": 2122,
      "Ġtuomioistuimessa": 2123,
      "Ġkuuluvat": 2124,
      "Ġkeske": 2125,
      "Ġtuen": 2126,
      "Ġihmis": 2127,
      "Ġ2019": 2128,
      "rd": 2129,
      "Ġsaannosten": 2130,
      "Ġmaaritel": 2131,
      "Ġalkuper": 2132,
      "Ġvil": 2133,
      "utakun": 2134,
      "Ġ81": 2135,
      "Ġ1995": 2136,
      "Ġaiheutu": 2137,
      "masti": 2138,
      "raha": 2139,
      "Ġkoskevista": 2140,
      "Ġesimer": 2141,
      "Ġ2020": 2142,
      "tit": 2143,
      "Ġba": 2144,
      "ostu": 2145,
      "Ġtoiminnan": 2146,
      "Ġ58": 2147,
      "roses": 2148,
      "ĠÐ": 2149,
      "empi": 2150,
      "Ġmuutettuna": 2151,
      "vulla": 2152,
      "tiiv": 2153,
      "Ġsaksa": 2154,
      "Ġmakse": 2155,
      "Ġolosuhte": 2156,
      "Ġtalta": 2157,
      "Ġkohtaa": 2158,
      "Ġ63": 2159,
      "Ġyksityiskohta": 2160,
      "Ġvaan": 2161,
      "Ġminka": 2162,
      "Ġesittaa": 2163,
      "Ġallekirj": 2164,
      "Ġolen": 2165,
      "kenteen": 2166,
      "Ġmuassa": 2167,
      "Ġtehda": 2168,
      "Ġsaantojen": 2169,
      "ly": 2170,
      "toon": 2171,
      "Ġsoveltaa": 2172,
      "Ġhanen": 2173,
      "riteer": 2174,
      "tettujen": 2175,
      "Ġsuun": 2176,
      "Ġyrityksen": 2177,
      "Ġolivat": 2178,
      "Ġperustelut": 2179,
      "Ġmiel": 2180,
      "Ġehdotus": 2181,
      "periaa": 2182,
      "bo": 2183,
      "Ġsaavu": 2184,
      "Ġvarmis": 2185,
      "Ġotettava": 2186,
      "Ġ77": 2187,
      "Ġsana": 2188,
      "Ġnimen": 2189,
      "Ġsta": 2190,
      "Ġ1996": 2191,
      "Ġitali": 2192,
      "Ġ62": 2193,
      "Ġasianmukais": 2194,
      "osti": 2195,
      "Ġnay": 2196,
      "Ġriitta": 2197,
      "Ġhenkilosto": 2198,
      "Ġuusi": 2199,
      "Ġjaks": 2200,
      "Ġ1997": 2201,
      "Ġ67": 2202,
      "Ġtarkoitetun": 2203,
      "Ġtarvittaessa": 2204,
      "Ġrajoitta": 2205,
      "su": 2206,
      "Ġhi": 2207,
      "Ġtuonn": 2208,
      "Ġerityisen": 2209,
      "tulo": 2210,
      "Ġjarjestelma": 2211,
      "Ġkappale": 2212,
      "Ġvelvoite": 2213,
      "Ġensimmainen": 2214,
      "Ġtos": 2215,
      "Ġ68": 2216,
      "Ġtoimiel": 2217,
      "Ġtayden": 2218,
      "Ġtiedon": 2219,
      "Ġkyseisten": 2220,
      "Ġtarkoitetut": 2221,
      "st": 2222,
      "Ġitse": 2223,
      "ttua": 2224,
      "Ġap": 2225,
      "Ġtoimenpiteita": 2226,
      "hall": 2227,
      "kenne": 2228,
      "Ġedellytykset": 2229,
      "Ġ72": 2230,
      "Ġlt": 2231,
      "tetyt": 2232,
      "Ġsisally": 2233,
      "Ġ86": 2234,
      "Ġjarjestel": 2235,
      "Ġvienti": 2236,
      "Ġsm": 2237,
      "Ġinves": 2238,
      "Ġasetuksella": 2239,
      "Ġ64": 2240,
      "teg": 2241,
      "Ġmerkity": 2242,
      "Ġavulla": 2243,
      "lautakun": 2244,
      "Ġpaaasia": 2245,
      "Ġtyos": 2246,
      "Ġnimikke": 2247,
      "Ġtuke": 2248,
      "Ġkaksi": 2249,
      "Ġjaosto": 2250,
      "der": 2251,
      "Ġtavaramerkki": 2252,
      "Ġmm": 2253,
      "Ġilmoitta": 2254,
      "vaan": 2255,
      "Ġpii": 2256,
      "kiksi": 2257,
      "Ġaika": 2258,
      "ec": 2259,
      "kia": 2260,
      "Ġtaulu": 2261,
      "Ġnyky": 2262,
      "Ġmarkkinoille": 2263,
      "Ġop": 2264,
      "uksesta": 2265,
      "Ġpate": 2266,
      "yden": 2267,
      "ity": 2268,
      "turva": 2269,
      "Ġkuluessa": 2270,
      "Ġtarkoituksena": 2271,
      "Ġsaksan": 2272,
      "Ġtalousa": 2273,
      "Ġtri": 2274,
      "kuus": 2275,
      "Ð°": 2276,
      "ymys": 2277,
      "Ġhuomautu": 2278,
      "Ġkumo": 2279,
      "Ġviela": 2280,
      "ehto": 2281,
      "Ġmitaan": 2282,
      "Ġsoveltamista": 2283,
      "Ġtotea": 2284,
      "12": 2285,
      "mas": 2286,
      "Ġsaily": 2287,
      "Ġ76": 2288,
      "kat": 2289,
      "Ġtulkittava": 2290,
      "oksi": 2291,
      "Ġmenettelyn": 2292,
      "alla": 2293,
      "Ġ83": 2294,
      "Ġtuotannon": 2295,
      "Ġsuure": 2296,
      "15": 2297,
      "uuteen": 2298,
      "ellinen": 2299,
      "Ġtosiasia": 2300,
      "olla": 2301,
      "tujen": 2302,
      "Ġhankinta": 2303,
      "Ġ1994": 2304,
      "uudet": 2305,
      "Ġkansallinen": 2306,
      "Ġjohdanto": 2307,
      "Ġ79": 2308,
      "Ġtuote": 2309,
      "Ġhyod": 2310,
      "Ġvahvistetaan": 2311,
      "13": 2312,
      "Ġ03": 2313,
      "sy": 2314,
      "Ġosoitta": 2315,
      "ksilla": 2316,
      "Ġluon": 2317,
      "olog": 2318,
      "Ġtulkin": 2319,
      "Ġ74": 2320,
      "esten": 2321,
      "tteeseen": 2322,
      "Ġomina": 2323,
      "mon": 2324,
      "Ġ05": 2325,
      "uko": 2326,
      "cia": 2327,
      "Ġtarkoitettujen": 2328,
      "Ġomista": 2329,
      "ff": 2330,
      "saann": 2331,
      "kiin": 2332,
      "ttamaan": 2333,
      "Ġjoista": 2334,
      "Ġmyo": 2335,
      "Ġantanut": 2336,
      "Ġpako": 2337,
      "Ġehdotuksen": 2338,
      "ili": 2339,
      "Ġak": 2340,
      "kul": 2341,
      "Ġperustuu": 2342,
      "tele": 2343,
      "Ġkaupan": 2344,
      "Ġkoo": 2345,
      "Ġtoimenpiteiden": 2346,
      "tri": 2347,
      "Ġad": 2348,
      "emb": 2349,
      "ryh": 2350,
      "Ġusea": 2351,
      "Ġvelvollis": 2352,
      "Ġ78": 2353,
      "Ġmet": 2354,
      "kaytto": 2355,
      "ttavaksi": 2356,
      "Ġlin": 2357,
      "utus": 2358,
      "aalta": 2359,
      "Ġennakkoratkaisua": 2360,
      "Ġviranomaiset": 2361,
      "ttavasti": 2362,
      "Ġ66": 2363,
      "Ġ69": 2364,
      "Ġhallitus": 2365,
      "Ġat": 2366,
      "Ġkaiki": 2367,
      "Ġsan": 2368,
      "oja": 2369,
      "Ġpyri": 2370,
      "Ġruo": 2371,
      "nus": 2372,
      "Ġsosiaali": 2373,
      "Ġosapuoli": 2374,
      "Ġfr": 2375,
      "perus": 2376,
      "Ġasiakirja": 2377,
      "Ġpoytakirjan": 2378,
      "Ġtoisaalta": 2379,
      "Ġem": 2380,
      "tyssa": 2381,
      "Ġtr": 2382,
      "Ġkuuluu": 2383,
      "Ġru": 2384,
      "kes": 2385,
      "Ġtiettyjen": 2386,
      "kos": 2387,
      "Ġju": 2388,
      "Ġsuosi": 2389,
      "Ġpaatoksella": 2390,
      "Ġbrys": 2391,
      "Ġyksin": 2392,
      "Ġkesakuuta": 2393,
      "Ġhaki": 2394,
      "Ġmaksu": 2395,
      "paato": 2396,
      "lainen": 2397,
      "Ġvaihto": 2398,
      "Ġranskan": 2399,
      "Ġilmoitettava": 2400,
      "Ġyleissopimuksen": 2401,
      "eg": 2402,
      "lann": 2403,
      "riin": 2404,
      "Ġaina": 2405,
      "llei": 2406,
      "sien": 2407,
      "Ġedelleen": 2408,
      "jana": 2409,
      "Ġparan": 2410,
      "reak": 2411,
      "yksi": 2412,
      "Ġbryssel": 2413,
      "Ġsovellettava": 2414,
      "cy": 2415,
      "mus": 2416,
      "Ġnimikkeen": 2417,
      "Ġ09": 2418,
      "Ġpalvelu": 2419,
      "Ġcn": 2420,
      "nassa": 2421,
      "Ġtehtava": 2422,
      "Ġres": 2423,
      "kkaan": 2424,
      "jia": 2425,
      "vaik": 2426,
      "Ġac": 2427,
      "Ġtarkoitetaan": 2428,
      "Ġmor": 2429,
      "Ġniihin": 2430,
      "kieli": 2431,
      "Ġtahansa": 2432,
      "ttavia": 2433,
      "Ġalka": 2434,
      "tamista": 2435,
      "Ġsuoraan": 2436,
      "uunni": 2437,
      "Ġliiketoim": 2438,
      "Ġraha": 2439,
      "desta": 2440,
      "Ġalanko": 2441,
      "Ġverta": 2442,
      "Ġstan": 2443,
      "Ġoles": 2444,
      "Ġrapor": 2445,
      "rien": 2446,
      "Ġvastaavasti": 2447,
      "Ġaikais": 2448,
      "kit": 2449,
      "Ġ04": 2450,
      "Ġkyseisessa": 2451,
      "Ġkomite": 2452,
      "oinnin": 2453,
      "Ġmuuttamisesta": 2454,
      "Ġkanneperuste": 2455,
      "Ġkuukauden": 2456,
      "Ġilmais": 2457,
      "Ġsalli": 2458,
      "Ġpaika": 2459,
      "Ġtutkimus": 2460,
      "Ġpe": 2461,
      "Ġaloi": 2462,
      "etti": 2463,
      "Ġymparisto": 2464,
      "umero": 2465,
      "Ġalalla": 2466,
      "Ġkohtuu": 2467,
      "Ġsyrj": 2468,
      "Ġoikeutta": 2469,
      "break": 2470,
      "Ġnaita": 2471,
      "Ġmukainen": 2472,
      "Ġmaiden": 2473,
      "san": 2474,
      "ukys": 2475,
      "tuksesta": 2476,
      "Ġpide": 2477,
      "Ġinvesto": 2478,
      "len": 2479,
      "Ġec": 2480,
      "Ġpur": 2481,
      "Ġoikeudenkayntikieli": 2482,
      "Ġheina": 2483,
      "Ġmat": 2484,
      "iseksi": 2485,
      "Ġauto": 2486,
      "Ġtur": 2487,
      "Ġarv": 2488,
      "Ġvakuutus": 2489,
      "Ġda": 2490,
      "Ġdes": 2491,
      "Ġpaatoksessa": 2492,
      "Ġsoveltamisalaan": 2493,
      "Ġkuningaskunta": 2494,
      "Ġviimeksi": 2495,
      "Ġennakkoratkaisukys": 2496,
      "Ġtallainen": 2497,
      "Ġtaa": 2498,
      "Ġnos": 2499,
      "Ġtoimien": 2500,
      "teta": 2501,
      "Ġsaannoksia": 2502,
      "iston": 2503,
      "Ġtammi": 2504,
      "tila": 2505,
      "Ġjarjestelman": 2506,
      "Ġtavoitteen": 2507,
      "Ĥ¬": 2508,
      "Ġkunkin": 2509,
      "ttoa": 2510,
      "py": 2511,
      "elma": 2512,
      "Ġssa": 2513,
      "Ġ08": 2514,
      "Ġvuosi": 2515,
      "Ġ0094": 2516,
      "Ġniista": 2517,
      "Ġkaupa": 2518,
      "th": 2519,
      "ksin": 2520,
      "oikeuden": 2521,
      "nin": 2522,
      "tamisesta": 2523,
      "Ġesimerkiksi": 2524,
      "Ð¸": 2525,
      "ineiden": 2526,
      "93": 2527,
      "Ġasianaja": 2528,
      "Ġtalous": 2529,
      "Ġsiirty": 2530,
      "ikkojen": 2531,
      "Ġass": 2532,
      "alan": 2533,
      "Ġistu": 2534,
      "isuuden": 2535,
      "Ġtele": 2536,
      "ĠÎ": 2537,
      "ysta": 2538,
      "Ġedellyttaa": 2539,
      "Ġiv": 2540,
      "Ġolenna": 2541,
      "Ġhoi": 2542,
      "Ġjasenvaltioissa": 2543,
      "Ġmaahan": 2544,
      "ps": 2545,
      "Ġraj": 2546,
      "du": 2547,
      "Ġdirektiivissa": 2548,
      "Ġtuoma": 2549,
      "Ġlux": 2550,
      "ona": 2551,
      "euv": 2552,
      "Ġfinans": 2553,
      "tteisiin": 2554,
      "Ġranska": 2555,
      "23": 2556,
      "Ġlisatiedot": 2557,
      "Ġmukaisia": 2558,
      "Ġkolmannen": 2559,
      "Ġsai": 2560,
      "Ġhyl": 2561,
      "kelu": 2562,
      "emman": 2563,
      "Ġtodiste": 2564,
      "Ġkautta": 2565,
      "Ġorgan": 2566,
      "Ġjohtu": 2567,
      "kasi": 2568,
      "Ġpainop": 2569,
      "Ġbelg": 2570,
      "Ġluv": 2571,
      "una": 2572,
      "Ġmyonn": 2573,
      "dessa": 2574,
      "Ġkohteena": 2575,
      "Ġpysy": 2576,
      "Ġtan": 2577,
      "Ġtasmen": 2578,
      "Ġstanda": 2579,
      "yynto": 2580,
      "ĠâĤ¬": 2581,
      "tieteell": 2582,
      "Ġsoveltu": 2583,
      "Ġmerkityks": 2584,
      "Ġluokittel": 2585,
      "ltaan": 2586,
      "Ġtoteaa": 2587,
      "Ġpage": 2588,
      "mattomat": 2589,
      "Ġag": 2590,
      "Ġsano": 2591,
      "kor": 2592,
      "ineet": 2593,
      "Ġyksino": 2594,
      "Ġsijoi": 2595,
      "uksiin": 2596,
      "14": 2597,
      "Ġmerkin": 2598,
      "Ġvoisi": 2599,
      "isteri": 2600,
      "tiot": 2601,
      "Ġaja": 2602,
      "aali": 2603,
      "Ġitalian": 2604,
      "19": 2605,
      "mmin": 2606,
      "Ġob": 2607,
      "Ġsl": 2608,
      "Ġvoita": 2609,
      "Ġlupa": 2610,
      "kerta": 2611,
      "gin": 2612,
      "Ġtarke": 2613,
      "Ġlausunn": 2614,
      "Ġkiinn": 2615,
      "Ġteollisuus": 2616,
      "Ġ2021": 2617,
      "uehdo": 2618,
      "Ġedellytta": 2619,
      "Ġ82": 2620,
      "Ġpagebreak": 2621,
      "res": 2622,
      "Ġenergia": 2623,
      "Ġdel": 2624,
      "Ġkayto": 2625,
      "Ġ06": 2626,
      "Ġvaltta": 2627,
      "Ġluoton": 2628,
      "Ġkansallisten": 2629,
      "Ġkoskevaa": 2630,
      "Ġturvallis": 2631,
      "eiden": 2632,
      "vassa": 2633,
      "Ġtoisessa": 2634,
      "Ġtoimitta": 2635,
      "Ġriita": 2636,
      "Ġsuunta": 2637,
      "Ġyhteiso": 2638,
      "Ġlainsaadanto": 2639,
      "rosenttia": 2640,
      "laisen": 2641,
      "Ġtakais": 2642,
      "tamisen": 2643,
      "Ġratkaisuehdo": 2644,
      "Ġanal": 2645,
      "Ġvaadi": 2646,
      "Ġmyynti": 2647,
      "ksille": 2648,
      "Ġkyseiset": 2649,
      "riteerit": 2650,
      "Ġpaivan": 2651,
      "Ġaiheutun": 2652,
      "Ġtalousarvi": 2653,
      "Ġtodetaan": 2654,
      "Ġsch": 2655,
      "Ġhallinno": 2656,
      "Ġmaarataan": 2657,
      "17": 2658,
      "Ġsul": 2659,
      "Ġtoi": 2660,
      "Ġoikeudenkayntikulu": 2661,
      "jy": 2662,
      "tysten": 2663,
      "Ġlouk": 2664,
      "netaan": 2665,
      "isasia": 2666,
      "Ġvalituslautakun": 2667,
      "Ġannetaan": 2668,
      "Ġlainsaadann": 2669,
      "teiden": 2670,
      "Ġ1993": 2671,
      "Ġvarmistaa": 2672,
      "tteista": 2673,
      "Ġhyv": 2674,
      "Ġnimittain": 2675,
      "Ġtyon": 2676,
      "utumis": 2677,
      "Ġtavaramerkin": 2678,
      "Ġkunn": 2679,
      "ellisesti": 2680,
      "Ġmootto": 2681,
      "Ġtoisin": 2682,
      "Ġpaao": 2683,
      "Ġasiaa": 2684,
      "politi": 2685,
      "Ġyhta": 2686,
      "Ġkuningaskunnan": 2687,
      "Ġyhtio": 2688,
      "tya": 2689,
      "Ġkirjaa": 2690,
      "uksella": 2691,
      "jasen": 2692,
      "Ġst": 2693,
      "Ġtiety": 2694,
      "Ġesittanyt": 2695,
      "yksen": 2696,
      "yynn": 2697,
      "imman": 2698,
      "istaminen": 2699,
      "ska": 2700,
      "Ġmaaraysten": 2701,
      "Ġpois": 2702,
      "telun": 2703,
      "Ġvaatii": 2704,
      "Ġequ": 2705,
      "Ġsuurempi": 2706,
      "Ġkohdistu": 2707,
      "ttanyt": 2708,
      "tuotteiden": 2709,
      "kustann": 2710,
      "vyy": 2711,
      "Ġkantajat": 2712,
      "usi": 2713,
      "Ġkuo": 2714,
      "kkeet": 2715,
      "Ġpuuttu": 2716,
      "Ġsaado": 2717,
      "Ġvaltio": 2718,
      "Ġ110": 2719,
      "mman": 2720,
      "vy": 2721,
      "Ġrahoitusa": 2722,
      "Ġjulkisasia": 2723,
      "viksi": 2724,
      "Ġkuuden": 2725,
      "Ġlaadi": 2726,
      "Ġtukea": 2727,
      "Ġvaikuttaa": 2728,
      "ste": 2729,
      "Ġtuotteet": 2730,
      "ettuna": 2731,
      "tor": 2732,
      "ket": 2733,
      "kar": 2734,
      "Ġtotesi": 2735,
      "Ġtoimia": 2736,
      "Ġloka": 2737,
      "Ġ1992": 2738,
      "Ġannettava": 2739,
      "Ġvaikutta": 2740,
      "komitean": 2741,
      "Ġpuheenjohtaja": 2742,
      "Ġasianosaiset": 2743,
      "stoin": 2744,
      "Ġrekistero": 2745,
      "Ġmain": 2746,
      "Ġasianmuka": 2747,
      "Ġelain": 2748,
      "Ð¾": 2749,
      "Ġhalti": 2750,
      "Ġvahingon": 2751,
      "Ġtaytty": 2752,
      "Ġluotta": 2753,
      "Ġbas": 2754,
      "estaan": 2755,
      "Ġtonn": 2756,
      "Ġkorvataan": 2757,
      "za": 2758,
      "Ġedun": 2759,
      "unta": 2760,
      "oikeuksien": 2761,
      "Ġosapuolet": 2762,
      "Ġesiin": 2763,
      "koa": 2764,
      "Ġpaaasian": 2765,
      "Ġpolkumyynti": 2766,
      "Ġkaytettavissa": 2767,
      "Ġvahvistaa": 2768,
      "eille": 2769,
      "kelpo": 2770,
      "24": 2771,
      "Ġsaantely": 2772,
      "Ġluxemb": 2773,
      "Ġpyytanyt": 2774,
      "Ðµ": 2775,
      "bi": 2776,
      "Ġmene": 2777,
      "Ġhenkiloiden": 2778,
      "Ġser": 2779,
      "Ġsaannokset": 2780,
      "Ġluonnon": 2781,
      "oli": 2782,
      "Ġyksitta": 2783,
      "Ġasiaan": 2784,
      "palvelut": 2785,
      "Ġtouko": 2786,
      "nasta": 2787,
      "Ġaiheutta": 2788,
      "Ġkasitelta": 2789,
      "Ġturvallisuus": 2790,
      "Ġvalituksenala": 2791,
      "Ġtarkoitettua": 2792,
      "Ġasiantun": 2793,
      "kku": 2794,
      "teena": 2795,
      "muksen": 2796,
      "Ġhallituksen": 2797,
      "tettuja": 2798,
      "Ġperusa": 2799,
      "Ġlahto": 2800,
      "Ġmaalis": 2801,
      "Ġvoitaisiin": 2802,
      "Ġtavarat": 2803,
      "elin": 2804,
      "Ġsoker": 2805,
      "Ġtoimintaa": 2806,
      "Ġinf": 2807,
      "Ġkesta": 2808,
      "Ġheinakuuta": 2809,
      "Ġluxemburg": 2810,
      "Ġkirje": 2811,
      "istuksen": 2812,
      "no": 2813,
      "Ġfa": 2814,
      "16": 2815,
      "Ġpaitsi": 2816,
      "Ġraa": 2817,
      "Ġluovu": 2818,
      "Ġmahdollisuus": 2819,
      "Ġsitou": 2820,
      "imet": 2821,
      "Ġga": 2822,
      "Ġmaaran": 2823,
      "Ġlaajen": 2824,
      "Ġmerkitse": 2825,
      "Ġvaihe": 2826,
      "Ġkysymys": 2827,
      "uuta": 2828,
      "Ġriko": 2829,
      "laisten": 2830,
      "Ġvelvo": 2831,
      "Ġjalleen": 2832,
      "Ġyhdenmuka": 2833,
      "Ġajanjaks": 2834,
      "tsin": 2835,
      "Ġneuvot": 2836,
      "oitus": 2837,
      "kirjat": 2838,
      "Ġpaaasiassa": 2839,
      "tyne": 2840,
      "llaan": 2841,
      "ivat": 2842,
      "Ġtode": 2843,
      "Ġhyvin": 2844,
      "Ġliittyvia": 2845,
      "Ġsijaitse": 2846,
      "Ġliittyvien": 2847,
      "misto": 2848,
      "miehen": 2849,
      "Ġkorkea": 2850,
      "Ġmarkkinoilla": 2851,
      "emmin": 2852,
      "Ġsovi": 2853,
      "Ġomais": 2854,
      "ron": 2855,
      "tonta": 2856,
      "Ġpl": 2857,
      "Ġtammikuuta": 2858,
      "Ġitsen": 2859,
      "Ġvalitto": 2860,
      "paper": 2861,
      "paan": 2862,
      "Ġkier": 2863,
      "Ġvaliaika": 2864,
      "Î¹": 2865,
      "Ġkann": 2866,
      "Ġoikeuskaytanto": 2867,
      "Ġmyoskaan": 2868,
      "mmat": 2869,
      "Ġkaytettyjen": 2870,
      "Î±": 2871,
      "Ġensimmaisessa": 2872,
      "25": 2873,
      "Ġnimenoma": 2874,
      "aal": 2875,
      "Ġmiten": 2876,
      "Ġelin": 2877,
      "Ġperusteet": 2878,
      "Ġsam": 2879,
      "Ġtoteuttaa": 2880,
      "huo": 2881,
      "aara": 2882,
      "Ġkokoon": 2883,
      "Ġviite": 2884,
      "Ġtarkastus": 2885,
      "Ġmainitussa": 2886,
      "Ġly": 2887,
      "pc": 2888,
      "Ġvaltuu": 2889,
      "Ġkaikissa": 2890,
      "kojen": 2891,
      "suoja": 2892,
      "Ġvastaavat": 2893,
      "Ġet": 2894,
      "Ġaan": 2895,
      "Ġequity": 2896,
      "istetaan": 2897,
      "Ġtavoite": 2898,
      "ttuja": 2899,
      "Ġlap": 2900,
      "Ġtilanne": 2901,
      "rjesta": 2902,
      "yyli": 2903,
      "Ġtehnyt": 2904,
      "Ġviita": 2905,
      "Ġtays": 2906,
      "Ġnelja": 2907,
      "Ġolevia": 2908,
      "palvelujen": 2909,
      "koi": 2910,
      "Ġverovel": 2911,
      "ted": 2912,
      "Ġreg": 2913,
      "kohd": 2914,
      "Ġjoko": 2915,
      "Ġmai": 2916,
      "08": 2917,
      "Ġpainoprosenttia": 2918,
      "uuksien": 2919,
      "Ġlyh": 2920,
      "Ġlaaj": 2921,
      "isina": 2922,
      "Ġproses": 2923,
      "Ġtakaisin": 2924,
      "asta": 2925,
      "Ġlaati": 2926,
      "hdessa": 2927,
      "Ġch": 2928,
      "hv": 2929,
      "Ġkilpailu": 2930,
      "Ġpyritaan": 2931,
      "Ġviitta": 2932,
      "Ġheidan": 2933,
      "Ġtodell": 2934,
      "02": 2935,
      "Ġpidettava": 2936,
      "koo": 2937,
      "01": 2938,
      "voin": 2939,
      "Ġammatti": 2940,
      "Ġmahdollisesti": 2941,
      "Î¿": 2942,
      "dy": 2943,
      "Ġperusta": 2944,
      "Ġkohtaan": 2945,
      "ikkaa": 2946,
      "Ġmyonta": 2947,
      "Ġmomen": 2948,
      "Ġluotonannon": 2949,
      "Ġtasolla": 2950,
      "suunni": 2951,
      "llin": 2952,
      "ikkoja": 2953,
      "Ġtarkastu": 2954,
      "Ġmaaratty": 2955,
      "Ġtaikka": 2956,
      "Ġluokitteluk": 2957,
      "Ġluokittelukriteerit": 2958,
      "Ġslsc": 2959,
      "Ġlaj": 2960,
      "Ġportu": 2961,
      "Ġtarkoitettuja": 2962,
      "Ġvarmistamiseksi": 2963,
      "Ġpaattaa": 2964,
      "Ġespanjan": 2965,
      "Ġtun": 2966,
      "Ġpyynnon": 2967,
      "18": 2968,
      "Ġrekisteroi": 2969,
      "Ġalusta": 2970,
      "lannin": 2971,
      "Ġsaannot": 2972,
      "henkil": 2973,
      "ces": 2974,
      "son": 2975,
      "ellista": 2976,
      "Ġkyseista": 2977,
      "Ġennakkoratkaisukysymy": 2978,
      "Ġvoin": 2979,
      "Ġab": 2980,
      "Ġesitetyn": 2981,
      "kot": 2982,
      "Ġtallaisen": 2983,
      "Ġviranomaisen": 2984,
      "Ġmyonnetty": 2985,
      "vaihto": 2986,
      "Ġkolmansien": 2987,
      "Ġenimmais": 2988,
      "sija": 2989,
      "Ġkotipaikka": 2990,
      "Ġselvasti": 2991,
      "Ġvapaasti": 2992,
      "Ġohje": 2993,
      "Ġolle": 2994,
      "68": 2995,
      "Ġtapauksissa": 2996,
      "Ġslo": 2997,
      "pii": 2998,
      "Ġth": 2999,
      "Ġyhteisen": 3000,
      "Ġsisaltaa": 3001,
      "harj": 3002,
      "Ġman": 3003,
      "Ġhinta": 3004,
      "Ġolevaa": 3005,
      "tteissa": 3006,
      "Ġvahimmais": 3007,
      "Ġalueen": 3008,
      "hti": 3009,
      "jann": 3010,
      "intojen": 3011,
      "Ġsamalla": 3012,
      "hakem": 3013,
      "Ġperustell": 3014,
      "Ġrahoitusalan": 3015,
      "ttajien": 3016,
      "Ġkatsoi": 3017,
      "deksi": 3018,
      "uri": 3019,
      "tunut": 3020,
      "Ġhuomau": 3021,
      "Ġjulkaistu": 3022,
      "rii": 3023,
      "Ġmyontaa": 3024,
      "Ġkolmas": 3025,
      "log": 3026,
      "Ġsisamarkkin": 3027,
      "kkuv": 3028,
      "Ġkaikkia": 3029,
      "Ġhai": 3030,
      "Ġsynty": 3031,
      "Ġyhdenmukais": 3032,
      "Ġtari": 3033,
      "ostaa": 3034,
      "Ġarvioi": 3035,
      "neen": 3036,
      "Ġosapuolten": 3037,
      "Ġosoittaa": 3038,
      "Ġmissa": 3039,
      "Ġuuden": 3040,
      "usti": 3041,
      "Ġratkaise": 3042,
      "saantojen": 3043,
      "kunta": 3044,
      "vapa": 3045,
      "Ġliikkuv": 3046,
      "Ġkre": 3047,
      "Ġsopi": 3048,
      "ttuna": 3049,
      "ber": 3050,
      "ttaisiin": 3051,
      "iili": 3052,
      "htik": 3053,
      "Ġtuomiossa": 3054,
      "Ġtavaran": 3055,
      "koh": 3056,
      "Ġmuutoksen": 3057,
      "Ġmuista": 3058,
      "go": 3059,
      "tyneen": 3060,
      "Ġjarjesta": 3061,
      "isuutta": 3062,
      "tional": 3063,
      "valtion": 3064,
      "Ġkasittele": 3065,
      "ikke": 3066,
      "Ġmarras": 3067,
      "Ġltd": 3068,
      "03": 3069,
      "Ġliittyy": 3070,
      "eltaan": 3071,
      "Ġmatka": 3072,
      "ry": 3073,
      "Ġlam": 3074,
      "Ġilme": 3075,
      "Ġhelpo": 3076,
      "Ġtyyppi": 3077,
      "Ġsaattaa": 3078,
      "estin": 3079,
      "Ġalkaen": 3080,
      "Ġalankoma": 3081,
      "Ġfinanssia": 3082,
      "uh": 3083,
      "29": 3084,
      "Ġ040": 3085,
      "Ġ104": 3086,
      "Ġosittain": 3087,
      "Ġtoimenpide": 3088,
      "Ġtosise": 3089,
      "Ġtiedoksi": 3090,
      "Ġtorj": 3091,
      "janjaks": 3092,
      "Ġyhtaa": 3093,
      "Ġsuoritta": 3094,
      "valvon": 3095,
      "Ġedista": 3096,
      "Ġkatsoa": 3097,
      "Ð½": 3098,
      "Ġmuihin": 3099,
      "Ġhuhtik": 3100,
      "jarjestely": 3101,
      "tannossa": 3102,
      "Ġvapau": 3103,
      "Ġfinanssialan": 3104,
      "kusta": 3105,
      "Ġmort": 3106,
      "Ġkuvaus": 3107,
      "Ġpoytakirja": 3108,
      "imin": 3109,
      "Ġtuomioistuimelle": 3110,
      "Ġyksinomaan": 3111,
      "Ġvalisen": 3112,
      "Ġhinnasta": 3113,
      "Ġklo": 3114,
      "ulla": 3115,
      "Ġpuite": 3116,
      "Ġkump": 3117,
      "Ġtoiminnasta": 3118,
      "menettelyn": 3119,
      "Ġtavoin": 3120,
      "Ġennakkoratkaisupyynto": 3121,
      "Ġristi": 3122,
      "Ġvaikutus": 3123,
      "Ġsama": 3124,
      "Ġhenkilon": 3125,
      "Ġkolmen": 3126,
      "Ġmaantieteell": 3127,
      "ck": 3128,
      "Ġkuule": 3129,
      "Ġsaatu": 3130,
      "Ġinn": 3131,
      "etk": 3132,
      "Ġjatka": 3133,
      "Ġsuojaa": 3134,
      "kkeeseen": 3135,
      "staa": 3136,
      "Ġulkopuoliset": 3137,
      "jarjestyksen": 3138,
      "Ġtarvittavat": 3139,
      "Ġperiaatteen": 3140,
      "gra": 3141,
      "gel": 3142,
      "isu": 3143,
      "Ġjona": 3144,
      "tamiseksi": 3145,
      "Ġsellaisenaan": 3146,
      "Ġvuotta": 3147,
      "tteesta": 3148,
      "Ġkielta": 3149,
      "Ġlue": 3150,
      "Ġvaarin": 3151,
      "isti": 3152,
      "Ġasiantunti": 3153,
      "kalta": 3154,
      "mana": 3155,
      "Ġkysymykseen": 3156,
      "Ġpaivasta": 3157,
      "Ġtyontekijoiden": 3158,
      "Ġlokakuuta": 3159,
      "ms": 3160,
      "27": 3161,
      "Ġyhtaalta": 3162,
      "Ġvahenn": 3163,
      "mmar": 3164,
      "Ġmaarayksia": 3165,
      "Ġkoskevassa": 3166,
      "ung": 3167,
      "Ġhalu": 3168,
      "Ġnaista": 3169,
      "Ġoikeuskaytannon": 3170,
      "Ġtarjous": 3171,
      "uksena": 3172,
      "pain": 3173,
      "fa": 3174,
      "pita": 3175,
      "Ġriippumatta": 3176,
      "Ġyleissopim": 3177,
      "mallaan": 3178,
      "Ġkokonaan": 3179,
      "Ġyhteensa": 3180,
      "Ġtoukokuuta": 3181,
      "Ġtarkoitus": 3182,
      "Ġsuk": 3183,
      "Ġasen": 3184,
      "Ġhed": 3185,
      "nat": 3186,
      "Ġmiljo": 3187,
      "Ġtodennut": 3188,
      "Ġtoiseksi": 3189,
      "Ġjatku": 3190,
      "Ġlahes": 3191,
      "iksi": 3192,
      "kiel": 3193,
      "Ġvastaaja": 3194,
      "emen": 3195,
      "Ġsuomen": 3196,
      "pasi": 3197,
      "Ġdu": 3198,
      "Ġvarain": 3199,
      "Ġhakemuksen": 3200,
      "mioistu": 3201,
      "antoa": 3202,
      "Ġlasken": 3203,
      "Ġteollis": 3204,
      "Ġ0000": 3205,
      "Ġmeta": 3206,
      "Ġkayttoa": 3207,
      "kasta": 3208,
      "Ġhallinnollis": 3209,
      "Ġmaaritelty": 3210,
      "Ġtuotteita": 3211,
      "Ġsyys": 3212,
      "Ġnoudattaen": 3213,
      "joita": 3214,
      "Ġsmhv": 3215,
      "Ġvaike": 3216,
      "Ġsanamuo": 3217,
      "Ġvarojen": 3218,
      "telmat": 3219,
      "perusteen": 3220,
      "Ġmuistu": 3221,
      "Ġmyohem": 3222,
      "Ġyhteistyo": 3223,
      "Ġhankin": 3224,
      "laisia": 3225,
      "isija": 3226,
      "Ġvaatimuksia": 3227,
      "kuussa": 3228,
      "Ġsc": 3229,
      "Ġjaka": 3230,
      "Ġali": 3231,
      "Ġgo": 3232,
      "tilan": 3233,
      "trateg": 3234,
      "Ġperusasetuksen": 3235,
      "Ġkasiteltavassa": 3236,
      "ser": 3237,
      "Ġsil": 3238,
      "lanti": 3239,
      "31": 3240,
      "vuuden": 3241,
      "kaup": 3242,
      "Ġseuraavan": 3243,
      "ellisen": 3244,
      "Ġlentolii": 3245,
      "Ġyhdys": 3246,
      "Ġkaytettava": 3247,
      "isuusperiaa": 3248,
      "kana": 3249,
      "Ġkasvi": 3250,
      "Ġtaysin": 3251,
      "komitea": 3252,
      "Ġvaliin": 3253,
      "Ġmaail": 3254,
      "tuneen": 3255,
      "Ġtutkin": 3256,
      "Ġeng": 3257,
      "Ġluvan": 3258,
      "Ġkoodi": 3259,
      "Ġviranomainen": 3260,
      "ren": 3261,
      "valmis": 3262,
      "Ġliitto": 3263,
      "Ġgen": 3264,
      "uudessa": 3265,
      "lojen": 3266,
      "Ġtunnusta": 3267,
      "Ġsuhteessa": 3268,
      "Ġensinna": 3269,
      "Ġhyvaksytty": 3270,
      "Ġodo": 3271,
      "Ġsin": 3272,
      "kunnan": 3273,
      "Ġtunnus": 3274,
      "Ġsup": 3275,
      "Ġlisataan": 3276,
      "Ġvientia": 3277,
      "Ġtyosken": 3278,
      "Ġ!": 3279,
      "kkojen": 3280,
      "Ġur": 3281,
      "Ġmaaliskuuta": 3282,
      "tions": 3283,
      "Ġaty": 3284,
      "34": 3285,
      "mar": 3286,
      "Ġvirallisessa": 3287,
      "Ġlopp": 3288,
      "Ġyksinkerta": 3289,
      "oni": 3290,
      "jassa": 3291,
      "Ġtuonnin": 3292,
      "uuksia": 3293,
      "Ġmcy": 3294,
      "Ġkorja": 3295,
      "Ġjulka": 3296,
      "tamiseen": 3297,
      "Ġlausunnon": 3298,
      "Ġmukau": 3299,
      "Ġvelvoitetaan": 3300,
      "Ġher": 3301,
      "Ġsiv": 3302,
      "maatt": 3303,
      "harjoitta": 3304,
      "Ġtutkimuksen": 3305,
      "tekn": 3306,
      "Ġassosiaa": 3307,
      "ÑĢ": 3308,
      "gn": 3309,
      "Ġtoissija": 3310,
      "Ġele": 3311,
      "Ġtehdy": 3312,
      "Ġtutkimusa": 3313,
      "rat": 3314,
      "Ġasianosaisten": 3315,
      "Ġkom": 3316,
      "07": 3317,
      "Ġvastaava": 3318,
      "paiva": 3319,
      "Ġarvioida": 3320,
      "kein": 3321,
      "Ġpaikka": 3322,
      "Ġkehitta": 3323,
      "Ġviimeistaan": 3324,
      "Ġkansallisessa": 3325,
      "33": 3326,
      "Ġpalau": 3327,
      "Ġrajoite": 3328,
      "Ġtilanteessa": 3329,
      "Ġ220": 3330,
      "Ġmiljoon": 3331,
      "05": 3332,
      "Ġosapuolen": 3333,
      "Ġasti": 3334,
      "misa": 3335,
      "viranomainen": 3336,
      "kuun": 3337,
      "viranomaisten": 3338,
      "paino": 3339,
      "Ġseuraava": 3340,
      "Ġmenettelya": 3341,
      "pasiteet": 3342,
      "tul": 3343,
      "Ġsyyta": 3344,
      "nessa": 3345,
      "Ġkehitys": 3346,
      "Ġkoskevasta": 3347,
      "Ġvalmistetut": 3348,
      "Ġmielesta": 3349,
      "Ġsamankalta": 3350,
      "palvelu": 3351,
      "Ġarvopaper": 3352,
      "Ġpitka": 3353,
      "Ġkohde": 3354,
      "Ġjulkis": 3355,
      "Ġbo": 3356,
      "koista": 3357,
      "Ġtra": 3358,
      "Ġhelmi": 3359,
      "Ġesitetaan": 3360,
      "elliset": 3361,
      "Ġjolloin": 3362,
      "Ġsek": 3363,
      "Ġenaa": 3364,
      "Ġitalia": 3365,
      "Ġalen": 3366,
      "Ġjohdosta": 3367,
      "Ġvahem": 3368,
      "Ġhyodyn": 3369,
      "Ġpelka": 3370,
      "ori": 3371,
      "Ġhaa": 3372,
      "iitt": 3373,
      "henkilo": 3374,
      "ttivat": 3375,
      "Ġveron": 3376,
      "Ġbud": 3377,
      "Ġavoi": 3378,
      "Ġasiasta": 3379,
      "Ġohjelman": 3380,
      "Ġer": 3381,
      "Ġilmi": 3382,
      "stojen": 3383,
      "Ġnuo": 3384,
      "kui": 3385,
      "Ġsopimusten": 3386,
      "Ġryhma": 3387,
      "Ġhyvaksya": 3388,
      "tur": 3389,
      "04": 3390,
      "Ġpaasto": 3391,
      "Ġvalittaja": 3392,
      "oikeudell": 3393,
      "Ġyhteistyota": 3394,
      "Ġkertom": 3395,
      "Ġpaino": 3396,
      "Ġnimenomaisesti": 3397,
      "vuutta": 3398,
      "Ġpaasy": 3399,
      "viranomaisen": 3400,
      "tuomioistu": 3401,
      "Ġlehdessa": 3402,
      "Ġasiat": 3403,
      "vali": 3404,
      "Ġhen": 3405,
      "Ġosat": 3406,
      "Ġelo": 3407,
      "ellisia": 3408,
      "Ġsijoittautun": 3409,
      "ds": 3410,
      "Ġviiden": 3411,
      "Ġneljann": 3412,
      "oitava": 3413,
      "kselle": 3414,
      "Ġulkoma": 3415,
      "antojen": 3416,
      "olle": 3417,
      "mie": 3418,
      "Ġpyyn": 3419,
      "fer": 3420,
      "Ġpaatokseen": 3421,
      "ula": 3422,
      "Ġfo": 3423,
      "teltu": 3424,
      "vira": 3425,
      "Ġensinnakin": 3426,
      "que": 3427,
      "Ġq": 3428,
      "tot": 3429,
      "Ġvarmistettava": 3430,
      "Ġperuu": 3431,
      "Ġmole": 3432,
      "Ġvalituksenalaisen": 3433,
      "pera": 3434,
      "Ġjalos": 3435,
      "Ġpida": 3436,
      "Ġsiirto": 3437,
      "wa": 3438,
      "Ġjollei": 3439,
      "Ġvaara": 3440,
      "Ġasioissa": 3441,
      "tro": 3442,
      "Ġelainten": 3443,
      "Ġpelkastaan": 3444,
      "tymista": 3445,
      "hu": 3446,
      "Ġaluksen": 3447,
      "Ġryhman": 3448,
      "Ġvaliaikais": 3449,
      "Ġtehdaan": 3450,
      "voima": 3451,
      "Ġmainittujen": 3452,
      "Ġnoudattamatta": 3453,
      "Ġgr": 3454,
      "Ġvih": 3455,
      "Ġkalastu": 3456,
      "Ġmitta": 3457,
      "ttien": 3458,
      "Ġkiinni": 3459,
      "Ġilmoitus": 3460,
      "Ġrakenn": 3461,
      "paikan": 3462,
      "kra": 3463,
      "Ġosoi": 3464,
      "Ġtoimitettava": 3465,
      "Ġvarainhoi": 3466,
      "gh": 3467,
      "Ġpidetaan": 3468,
      "Ġaa": 3469,
      "Ġnahden": 3470,
      "Ġge": 3471,
      "koja": 3472,
      "74": 3473,
      "Ġlie": 3474,
      "Ġtoimenpiteista": 3475,
      "Ġsovell": 3476,
      "Ġpalveluja": 3477,
      "Ġtavoitteena": 3478,
      "Ġpaatel": 3479,
      "gal": 3480,
      "Ġvesi": 3481,
      "tes": 3482,
      "Ġasianomaisen": 3483,
      "ensa": 3484,
      "Ġilmoittaa": 3485,
      "tori": 3486,
      "Ġtavan": 3487,
      "koho": 3488,
      "tasa": 3489,
      "Ġkii": 3490,
      "Ġulo": 3491,
      "Ġ030": 3492,
      "Ġmukaiset": 3493,
      "Ġtoimet": 3494,
      "Ġkoskevaan": 3495,
      "Ġtoimivaltainen": 3496,
      "visi": 3497,
      "Ġasianmukaisesti": 3498,
      "Ġpaatosta": 3499,
      "Ġkatson": 3500,
      "nnin": 3501,
      "Ġnaytto": 3502,
      "Ġainesten": 3503,
      "vutta": 3504,
      "suojel": 3505,
      "Ġves": 3506,
      "ikat": 3507,
      "ett": 3508,
      "telua": 3509,
      "Ġartiklaan": 3510,
      "mme": 3511,
      "Ġhuhtikuuta": 3512,
      "Ġkasittel": 3513,
      "Ġveto": 3514,
      "ban": 3515,
      "tuus": 3516,
      "Ġmarraskuuta": 3517,
      "Ġtoimintaan": 3518,
      "Ġkolme": 3519,
      "ding": 3520,
      "Ġvelvoittaa": 3521,
      "etaan": 3522,
      "26": 3523,
      "lliseen": 3524,
      "tyyli": 3525,
      "les": 3526,
      "Ġiso": 3527,
      "Ġkuuluvien": 3528,
      "Ġrauta": 3529,
      "Ġfran": 3530,
      "Ġmatkusta": 3531,
      "korva": 3532,
      "Ġjouk": 3533,
      "Ġpakka": 3534,
      "Ġtullut": 3535,
      "Ġsaatavilla": 3536,
      "muks": 3537,
      "Ġmukaista": 3538,
      "viitta": 3539,
      "irektiivin": 3540,
      "Ġsopimukseen": 3541,
      "ttanut": 3542,
      "rvo": 3543,
      "ÑĤ": 3544,
      "Ġexc": 3545,
      "Ġoikeudelliset": 3546,
      "85": 3547,
      "Ġasiakirjat": 3548,
      "Ġvirkamies": 3549,
      "tietojen": 3550,
      "ffi": 3551,
      "Ġtieteell": 3552,
      "Ġensisija": 3553,
      "lais": 3554,
      "massaan": 3555,
      "Ġpres": 3556,
      "Ġlaitokset": 3557,
      "Ġtaytantoonpanoase": 3558,
      "Ġhylattava": 3559,
      "Ġtalle": 3560,
      "truk": 3561,
      "Ġrx": 3562,
      "Ġtutkimusajanjaks": 3563,
      "joille": 3564,
      "Ġ107": 3565,
      "Ġylla": 3566,
      "Ġbrysselissa": 3567,
      "kkuu": 3568,
      "lainsaad": 3569,
      "Ġulkopuolelle": 3570,
      "Ġmerkitysta": 3571,
      "Ġsoveltaminen": 3572,
      "uksineen": 3573,
      "Ġsitoumuksia": 3574,
      "cht": 3575,
      "maaran": 3576,
      "Ġrikkomisen": 3577,
      "tuissa": 3578,
      "Ġras": 3579,
      "Ġrakenne": 3580,
      "toihin": 3581,
      "Ġjohtaa": 3582,
      "isyy": 3583,
      "mansa": 3584,
      "Ġsellaisia": 3585,
      "isivat": 3586,
      "ie": 3587,
      "Ġvaha": 3588,
      "Ġtiettyja": 3589,
      "lti": 3590,
      "Ġ1991": 3591,
      "misessa": 3592,
      "laiset": 3593,
      "Ġniilla": 3594,
      "Ġmarkkinoiden": 3595,
      "Ġkilpailun": 3596,
      "Ġliikenne": 3597,
      "kil": 3598,
      "Ġprosentin": 3599,
      "Ġkoro": 3600,
      "Ġkilpailusa": 3601,
      "Ġkatsotaan": 3602,
      "yhtio": 3603,
      "velvoi": 3604,
      "Ġotettu": 3605,
      "Ġannetulla": 3606,
      "laista": 3607,
      "Ġtyojarjestyksen": 3608,
      "Ġmaarata": 3609,
      "viittauksineen": 3610,
      "har": 3611,
      "Ġtoimenpiteen": 3612,
      "Ġvaltiontu": 3613,
      "Ġjasenvaltioille": 3614,
      "vas": 3615,
      "Ġperusteltu": 3616,
      "Ġlaatu": 3617,
      "Ġuh": 3618,
      "Ġpoista": 3619,
      "Ġelintarvike": 3620,
      "45": 3621,
      "Ġoikeuskaytantoviittauksineen": 3622,
      "tark": 3623,
      "nnit": 3624,
      "vaikutu": 3625,
      "Ġkansainvalisen": 3626,
      "Ġperustelukappaleessa": 3627,
      "Ġvahemman": 3628,
      "Ġtodettu": 3629,
      "Ġ300": 3630,
      "Ġjoten": 3631,
      "Ġriski": 3632,
      "Ġstandard": 3633,
      "rjan": 3634,
      "pen": 3635,
      "Ġ196": 3636,
      "Ġlopullinen": 3637,
      "Ġperin": 3638,
      "Â°": 3639,
      "Ġtavoitteiden": 3640,
      "Ġsoveltamisesta": 3641,
      "Ġistunn": 3642,
      "suhte": 3643,
      "Ġkeskim": 3644,
      "Ġarvonlisavero": 3645,
      "Ġjulkisen": 3646,
      "Ġsisaltyy": 3647,
      "Ġkorke": 3648,
      "kkeita": 3649,
      "vakuutus": 3650,
      "milla": 3651,
      "jaan": 3652,
      "Ġverra": 3653,
      "Ġterveyden": 3654,
      "Ġkiina": 3655,
      "39": 3656,
      "77": 3657,
      "jalta": 3658,
      "Ġparlamentti": 3659,
      "Ġtodenna": 3660,
      "Ġitsena": 3661,
      "Ġ020": 3662,
      "Ġtueksi": 3663,
      "Ġpalvelut": 3664,
      "Ġverkko": 3665,
      "tylla": 3666,
      "mbh": 3667,
      "Ġmaailman": 3668,
      "Ġyksil": 3669,
      "rop": 3670,
      "Ġmuodossa": 3671,
      "Ġosuus": 3672,
      "Ġvoimaantulo": 3673,
      "llisiin": 3674,
      "Ġlle": 3675,
      "Ġvakiin": 3676,
      "Ġesilla": 3677,
      "Ġnetto": 3678,
      "Ġvaikutukset": 3679,
      "Ġhuol": 3680,
      "verta": 3681,
      "Ġyleista": 3682,
      "Ġmuodosta": 3683,
      "Ġoleskelu": 3684,
      "land": 3685,
      "Ġyhtena": 3686,
      "lat": 3687,
      "Ġvahvistettu": 3688,
      "Ġpt": 3689,
      "ustus": 3690,
      "ehdo": 3691,
      "Ġgb": 3692,
      "Ġsivu": 3693,
      "Ġvarasto": 3694,
      "Ġhankki": 3695,
      "tavat": 3696,
      "Ġlaimin": 3697,
      "Ġtarkastelu": 3698,
      "Ġaf": 3699,
      "Ġpyynnosta": 3700,
      "Ġlainsaadannossa": 3701,
      "kossa": 3702,
      "Ġvaikutuksia": 3703,
      "Ġgmbh": 3704,
      "Ġtietyn": 3705,
      "38": 3706,
      "Ġent": 3707,
      "06": 3708,
      "Ġsopimusta": 3709,
      "Ġvoinut": 3710,
      "teessa": 3711,
      "Ġpitanyt": 3712,
      "Ġlaake": 3713,
      "valtaan": 3714,
      "Ġtutus": 3715,
      "Ġry": 3716,
      "kina": 3717,
      "Ġtytar": 3718,
      "Ġuk": 3719,
      "rastruk": 3720,
      "Ġtayttaa": 3721,
      "Ġdirektiivilla": 3722,
      "tuksella": 3723,
      "Ġloukkaa": 3724,
      "Ġomis": 3725,
      "mun": 3726,
      "matonta": 3727,
      "Ġjulkisasiamies": 3728,
      "pro": 3729,
      "ordin": 3730,
      "Ġyhteisossa": 3731,
      "etkella": 3732,
      "Ġvastoin": 3733,
      "Ġesittama": 3734,
      "Ġtekstii": 3735,
      "Ġsaantoja": 3736,
      "urssi": 3737,
      "Ġreh": 3738,
      "Ġmuutoksenha": 3739,
      "Ġoman": 3740,
      "Ġtoiseen": 3741,
      "Ġpyytaa": 3742,
      "Ġcz": 3743,
      "Ġoikais": 3744,
      "pun": 3745,
      "Ġmahdollisimman": 3746,
      "Ġnoin": 3747,
      "Ġef": 3748,
      "arvi": 3749,
      "Ġkiinteistovakuudellinen": 3750,
      "Ġvalinen": 3751,
      "Ġvalvo": 3752,
      "tuksiin": 3753,
      "maksi": 3754,
      "Ġvaitta": 3755,
      "Ġeten": 3756,
      "virasto": 3757,
      "Ġennakkoratkaisupyynn": 3758,
      "Ġpoliti": 3759,
      "Ġcar": 3760,
      "onen": 3761,
      "Ġvastuussa": 3762,
      "louden": 3763,
      "Ġbg": 3764,
      "Ġvastaavan": 3765,
      "Ġniissa": 3766,
      "Ġanalyy": 3767,
      "Ġtoiminna": 3768,
      "Ġmuoto": 3769,
      "ju": 3770,
      "ttavissa": 3771,
      "llia": 3772,
      "Ġmainitut": 3773,
      "Ġharjoi": 3774,
      "Ġkahd": 3775,
      "Ġkri": 3776,
      "Ġxx": 3777,
      "daan": 3778,
      "kohtaisesti": 3779,
      "Ġriidanalainen": 3780,
      "Ġmomentin": 3781,
      "Ġhyo": 3782,
      "Ġluettelo": 3783,
      "Ġosasto": 3784,
      "muus": 3785,
      "Ġyhdistyneen": 3786,
      "edell": 3787,
      "Ġyhtion": 3788,
      "Ġannetussa": 3789,
      "Ġerityista": 3790,
      "tuli": 3791,
      "Ġbelgian": 3792,
      "Ġluvun": 3793,
      "35": 3794,
      "Ġenemman": 3795,
      "Ġ500": 3796,
      "28": 3797,
      "Ġkoulutus": 3798,
      "Ġlaaja": 3799,
      "Ġluonno": 3800,
      "09": 3801,
      "Ġalankomaiden": 3802,
      "Ġlaiminly": 3803,
      "Ġ1990": 3804,
      "Ġsakon": 3805,
      "Ġkiinan": 3806,
      "Ġniille": 3807,
      "Ġominais": 3808,
      "Ġkayton": 3809,
      "emiseksi": 3810,
      "vero": 3811,
      "Ġyleisesti": 3812,
      "Ġsmer": 3813,
      "Ġsk": 3814,
      "Ġtehtaalla": 3815,
      "tifi": 3816,
      "ministeri": 3817,
      "Ġsyysta": 3818,
      "geri": 3819,
      "Ġkansalliset": 3820,
      "for": 3821,
      "Ġ125": 3822,
      "net": 3823,
      "Ġpuh": 3824,
      "utti": 3825,
      "jektii": 3826,
      "Ġvastuu": 3827,
      "Ġotsi": 3828,
      "Ġmaaraykset": 3829,
      "Ġyl": 3830,
      "dassa": 3831,
      "Ġperustuvat": 3832,
      "hap": 3833,
      "istettu": 3834,
      "Ġkal": 3835,
      "Ġasetusta": 3836,
      "Ġkaytetyt": 3837,
      "vei": 3838,
      "Ġvalittomasti": 3839,
      "Ġmyohemmin": 3840,
      "tensa": 3841,
      "Ġtallaista": 3842,
      "Ġkesken": 3843,
      "Ġam": 3844,
      "eita": 3845,
      "urin": 3846,
      "uudessaan": 3847,
      "muuden": 3848,
      "Ñģ": 3849,
      "Ġetuu": 3850,
      "Ġmuuttaa": 3851,
      "Ġkumppan": 3852,
      "Ġluonte": 3853,
      "Ġtoimivaltaisten": 3854,
      "hun": 3855,
      "Ġmak": 3856,
      "uka": 3857,
      "Ġoikeudellinen": 3858,
      "tru": 3859,
      "politiikan": 3860,
      "Ġtosiasiallisesti": 3861,
      "upaa": 3862,
      "Ġvelvollisuus": 3863,
      "Ġalkoho": 3864,
      "Ġriittavan": 3865,
      "Ġkoordin": 3866,
      "seen": 3867,
      "Ġesim": 3868,
      "Ġkoski": 3869,
      "est": 3870,
      "ĠÃ": 3871,
      "istettava": 3872,
      "Ġolleet": 3873,
      "Ġlaad": 3874,
      "Ġsaannoista": 3875,
      "Ġseuraavia": 3876,
      "ÏĦ": 3877,
      "teki": 3878,
      "Ġtyonanta": 3879,
      "Ġkasittelyssa": 3880,
      "Ġsp": 3881,
      "isiksi": 3882,
      "Ġpalkka": 3883,
      "Ġmikali": 3884,
      "Ġratka": 3885,
      "Ġaineksista": 3886,
      "0000": 3887,
      "Ġtarvitse": 3888,
      "Ġunionissa": 3889,
      "kkien": 3890,
      "Ġviini": 3891,
      "Ġrikos": 3892,
      "Ġtutkittavaksi": 3893,
      "Ġoikeudellisen": 3894,
      "ĠâĪ": 3895,
      "Ġ207": 3896,
      "Ġbio": 3897,
      "toimi": 3898,
      "Ġnaissa": 3899,
      "Ġistunnossa": 3900,
      "Ġnet": 3901,
      "Ġtavoitteet": 3902,
      "Ġvalmiste": 3903,
      "Ġkirj": 3904,
      "Ġasiamie": 3905,
      "Ġtehokkaa": 3906,
      "Ġtaloudellisen": 3907,
      "Ġpyr": 3908,
      "Ġtilasto": 3909,
      "Ġpoly": 3910,
      "Ġfinan": 3911,
      "Ġymmar": 3912,
      "dio": 3913,
      "Ġsyyskuuta": 3914,
      "inetta": 3915,
      "uro": 3916,
      "Ġalusten": 3917,
      "muu": 3918,
      "Ġkone": 3919,
      "estinta": 3920,
      "Ġsuhteell": 3921,
      "Ġkonk": 3922,
      "Ġmuuttu": 3923,
      "Ġpaivaa": 3924,
      "Ġtuottaja": 3925,
      "Ġcpc": 3926,
      "toiminnan": 3927,
      "Ġpolttoa": 3928,
      "ipo": 3929,
      "Ġdig": 3930,
      "rjaa": 3931,
      "rian": 3932,
      "Ġvaliintuli": 3933,
      "Ġvas": 3934,
      "Ġyhdistynyt": 3935,
      "Ġinvestointi": 3936,
      "della": 3937,
      "Ġohja": 3938,
      "Ġjonkin": 3939,
      "Ġuusia": 3940,
      "Ġperiaatetta": 3941,
      "Ġkantajien": 3942,
      "moi": 3943,
      "Ġtoimittaa": 3944,
      "Ġmaarat": 3945,
      "oloa": 3946,
      "Ġek": 3947,
      "Ġlei": 3948,
      "Ġasuin": 3949,
      "44": 3950,
      "Ġsaannoksen": 3951,
      "ĠâĢ¢": 3952,
      "Ġnailla": 3953,
      "Ġmuutetaan": 3954,
      "Ġkulut": 3955,
      "Ġhakemus": 3956,
      "Ġ101": 3957,
      "Ġlainsaa": 3958,
      "Ġyhdistyne": 3959,
      "Ġmenettel": 3960,
      "Ġvedota": 3961,
      "Ġtran": 3962,
      "Ġpitaisi": 3963,
      "Ġmuutokset": 3964,
      "karin": 3965,
      "Ġvaki": 3966,
      "uvel": 3967,
      "Ġlainvasta": 3968,
      "Ġneuvottelu": 3969,
      "mahdo": 3970,
      "Ġilmoituksen": 3971,
      "ere": 3972,
      "Ġyhteinen": 3973,
      "Ġkomissiota": 3974,
      "Ġalakohtaa": 3975,
      "tic": 3976,
      "urs": 3977,
      "osopim": 3978,
      "Ġroman": 3979,
      "Ġpare": 3980,
      "Ġsiirtyma": 3981,
      "Ġmaaritellaan": 3982,
      "Ġloma": 3983,
      "ttya": 3984,
      "Ġespanja": 3985,
      "Ġolosuhteissa": 3986,
      "Ġnl": 3987,
      "Ġmerkittava": 3988,
      "Ġverovelvo": 3989,
      "Ġmaaraaika": 3990,
      "anis": 3991,
      "tetyn": 3992,
      "ÅĤ": 3993,
      "Ġtekee": 3994,
      "Ġyhteistyossa": 3995,
      "intar": 3996,
      "ttavista": 3997,
      "Ġriippumatto": 3998,
      "tavan": 3999,
      "Ġjarjestely": 4000,
      "Ġpohjo": 4001,
      "Ġits": 4002,
      "Ġpaatoksesta": 4003,
      "Ġuseita": 4004,
      "jina": 4005,
      "Ġsijoitus": 4006,
      "Ġtoteutettava": 4007,
      "Ġmenetel": 4008,
      "Ġaineiden": 4009,
      "Ġstrateg": 4010,
      "Ġilmoitetaan": 4011,
      "Ġkoskeviin": 4012,
      "Ġtaytantoonpanon": 4013,
      "arvo": 4014,
      "Ġsyista": 4015,
      "Ġammati": 4016,
      "Ġosaa": 4017,
      "Ġmennessa": 4018,
      "kauden": 4019,
      "Ġaluksi": 4020,
      "Ġsoveltamisen": 4021,
      "Ġalavii": 4022,
      "Ġmukaisen": 4023,
      "Ġpaall": 4024,
      "Ġportugal": 4025,
      "tettua": 4026,
      "llit": 4027,
      "Ġsuuntavii": 4028,
      "ttelu": 4029,
      "ting": 4030,
      "Ġvaihtoehto": 4031,
      "Ġasiakirjojen": 4032,
      "ointia": 4033,
      "Ġluettuna": 4034,
      "Ġsara": 4035,
      "Ġerikseen": 4036,
      "Ġtoimivaltaisen": 4037,
      "Ġperi": 4038,
      "Ġosassa": 4039,
      "Ġasianajaja": 4040,
      "Ġviittaa": 4041,
      "hdy": 4042,
      "Ġlausu": 4043,
      "Ġperusoikeus": 4044,
      "Ġ080": 4045,
      "Ġunioniin": 4046,
      "Ġtoimin": 4047,
      "Ġtodennako": 4048,
      "vina": 4049,
      "bli": 4050,
      "Ġtuottajien": 4051,
      "Ġterveys": 4052,
      "Ġera": 4053,
      "Ġhelmikuuta": 4054,
      "kilpail": 4055,
      "36": 4056,
      "Ġkylla": 4057,
      "ono": 4058,
      "Ġtesta": 4059,
      "Ġtiiv": 4060,
      "Ġkansallista": 4061,
      "jarjestelmien": 4062,
      "Ġratkaisuehdotuksen": 4063,
      "hdon": 4064,
      "Ġasiamiehin": 4065,
      "Ġkilpailusaantojen": 4066,
      "Ġpre": 4067,
      "Ġtodeta": 4068,
      "Ġarvioinnin": 4069,
      "Ġtodistu": 4070,
      "Ġkokonaisuudessaan": 4071,
      "ft": 4072,
      "Ġviljel": 4073,
      "Ġjaoston": 4074,
      "Ġtuomiolaus": 4075,
      "Ġdigita": 4076,
      "Ġlukumaara": 4077,
      "Ġsisaltavat": 4078,
      "Ġmoi": 4079,
      "Ġnaihin": 4080,
      "Ġdeleg": 4081,
      "Ġluonne": 4082,
      "Ġnumero": 4083,
      "Ġorganisaa": 4084,
      "Ġben": 4085,
      "vansa": 4086,
      "Ġkiell": 4087,
      "Ġhylkaa": 4088,
      "Ġkatsottava": 4089,
      "Ġuusien": 4090,
      "Ġsosiaal": 4091,
      "Ġvena": 4092,
      "Ġhava": 4093,
      "95": 4094,
      "Ġmt": 4095,
      "kkeessa": 4096,
      "tyista": 4097,
      "jektiiv": 4098,
      "koulu": 4099,
      "tsa": 4100,
      "ostuu": 4101,
      "Ġ112": 4102,
      "Ġainakin": 4103,
      "taso": 4104,
      "dos": 4105,
      "Ġnormaa": 4106,
      "tosta": 4107,
      "Ġhuole": 4108,
      "ers": 4109,
      "Ġsitoum": 4110,
      "pitoisuus": 4111,
      "Ġheik": 4112,
      "aikais": 4113,
      "paatoksen": 4114,
      "vaihe": 4115,
      "Ġhyvaksynyt": 4116,
      "dus": 4117,
      "Ġilmoitettu": 4118,
      "tapa": 4119,
      "Ġjuu": 4120,
      "Ġml": 4121,
      "Ġalueiden": 4122,
      "Ġtaytantoonpanosta": 4123,
      "Ġtavanoma": 4124,
      "Ġhake": 4125,
      "ttajat": 4126,
      "ic": 4127,
      "Ġteknolog": 4128,
      "uista": 4129,
      "37": 4130,
      "yhtion": 4131,
      "Ġcy": 4132,
      "Ġkaikista": 4133,
      "Ġtulkinta": 4134,
      "Ġvaikutusten": 4135,
      "Ġpaatokset": 4136,
      "Ġwa": 4137,
      "musten": 4138,
      "Ġmuodo": 4139,
      "teita": 4140,
      "tointi": 4141,
      "llo": 4142,
      "Ġristirii": 4143,
      "ru": 4144,
      "Ġ115": 4145,
      "91": 4146,
      "Ġlainsaadantoa": 4147,
      "Ġkaikilta": 4148,
      "Ġkeskey": 4149,
      "Ġsaannon": 4150,
      "Ġtulla": 4151,
      "hat": 4152,
      "Ġesitetyt": 4153,
      "Îµ": 4154,
      "imaa": 4155,
      "Ġosaksi": 4156,
      "Ġtalouden": 4157,
      "Ġsopimuspuolet": 4158,
      "Ġtesti": 4159,
      "Ġhedel": 4160,
      "Ġmaaraajan": 4161,
      "Ġtarve": 4162,
      "Ġsata": 4163,
      "kaas": 4164,
      "Ġseikat": 4165,
      "Ġerittain": 4166,
      "Ġbul": 4167,
      "varo": 4168,
      "Ġpiiriin": 4169,
      "Ġliikku": 4170,
      "Ġpit": 4171,
      "Ġarvioinn": 4172,
      "66": 4173,
      "Ġkuljetus": 4174,
      "Ġkiista": 4175,
      "mahdollis": 4176,
      "Ġsuorittaa": 4177,
      "Î½": 4178,
      "Ġriittava": 4179,
      "Ġolevaan": 4180,
      "Ġkasiteltavana": 4181,
      "Ġvalta": 4182,
      "Ġkustannukset": 4183,
      "Ġvaatimus": 4184,
      "Ġajoneuvon": 4185,
      "pia": 4186,
      "47": 4187,
      "Ġsar": 4188,
      "Ġsiirre": 4189,
      "Ġhuoli": 4190,
      "musta": 4191,
      "Ġkaltaiset": 4192,
      "Ġpuhd": 4193,
      "mmen": 4194,
      "koihin": 4195,
      "Ġkaikkiin": 4196,
      "ĠÕ": 4197,
      "Ġapp": 4198,
      "Ġsaanut": 4199,
      "Ġlampo": 4200,
      "Ġvaitteen": 4201,
      "Ġoikeuksien": 4202,
      "Ġjohdon": 4203,
      "58": 4204,
      "Ġvalmistettu": 4205,
      "Ġyhteistyon": 4206,
      "Ġelake": 4207,
      "Ġedellyttaen": 4208,
      "Ġoikeuksia": 4209,
      "Ġongel": 4210,
      "Ġtallaisten": 4211,
      "Ġluetel": 4212,
      "Ġjar": 4213,
      "Ġnimea": 4214,
      "Ġvirasto": 4215,
      "oilta": 4216,
      "Ġlaitosten": 4217,
      "Ġkeskimaara": 4218,
      "Ġrakennus": 4219,
      "vil": 4220,
      "mille": 4221,
      "Ġkuudennen": 4222,
      "Ġprosessi": 4223,
      "Ġvakavara": 4224,
      "Ġtera": 4225,
      "Ġtaysi": 4226,
      "Ġsopimuksessa": 4227,
      "Ġtasma": 4228,
      "olon": 4229,
      "jon": 4230,
      "che": 4231,
      "Ġosta": 4232,
      "Ġeurope": 4233,
      "Ġeuipo": 4234,
      "Ġharkinta": 4235,
      "Ġkantajalle": 4236,
      "Ġsisaltyvat": 4237,
      "Ġgro": 4238,
      "ct": 4239,
      "kkon": 4240,
      "Ġlentoliikenteen": 4241,
      "kehy": 4242,
      "Ġyksilo": 4243,
      "Ġkeskuspan": 4244,
      "Ġviitataan": 4245,
      "tietoja": 4246,
      "oidun": 4247,
      "Ġtekijan": 4248,
      "ksena": 4249,
      "ze": 4250,
      "piste": 4251,
      "Ġympariston": 4252,
      "Ġloppu": 4253,
      "oikeuksia": 4254,
      "Ġinterna": 4255,
      "rahasto": 4256,
      "utuu": 4257,
      "ekanis": 4258,
      "kenn": 4259,
      "Ġedustaja": 4260,
      "Ġseuranta": 4261,
      "Ġpaaoman": 4262,
      "Ġjohto": 4263,
      "Ġmuille": 4264,
      "Ġkilpai": 4265,
      "Ġteksti": 4266,
      "Ġyhdenverta": 4267,
      "57": 4268,
      "Ġlope": 4269,
      "Ġmuutos": 4270,
      "Ġapr": 4271,
      "llon": 4272,
      "Ġasiamiehinaan": 4273,
      "Ġnope": 4274,
      "Ïģ": 4275,
      "Ġkorvaus": 4276,
      "Ġtason": 4277,
      "Ġtausta": 4278,
      "Ġraaka": 4279,
      "kyky": 4280,
      "Ġluottamuks": 4281,
      "vyys": 4282,
      "Ġinno": 4283,
      "gu": 4284,
      "Ġkr": 4285,
      "Ġtakaa": 4286,
      "Ġ108": 4287,
      "Ġyhdistetyt": 4288,
      "Ġsaira": 4289,
      "Ġalueelle": 4290,
      "Ġtse": 4291,
      "Ġvertailu": 4292,
      "Ġkohdasta": 4293,
      "Ġtavaroita": 4294,
      "kuulu": 4295,
      "Ġalueilla": 4296,
      "imma": 4297,
      "Ġunioni": 4298,
      "Ġalkoholi": 4299,
      "Ġce": 4300,
      "piir": 4301,
      "Ġlopuksi": 4302,
      "Ġkaytossa": 4303,
      "Ġpalvelun": 4304,
      "menettelya": 4305,
      "Ġdirektiivia": 4306,
      "Ġbudj": 4307,
      "opea": 4308,
      "Ġtaytantoonpanoasetuksen": 4309,
      "markkina": 4310,
      "Ġtuotannonalan": 4311,
      "Ġnosta": 4312,
      "Ġtullia": 4313,
      "Ġjakso": 4314,
      "Ġsivii": 4315,
      "istamista": 4316,
      "lueen": 4317,
      "Ġpolkumyyntitu": 4318,
      "Ġkera": 4319,
      "Ġkumoamisesta": 4320,
      "Ġpaivi": 4321,
      "Ġrinna": 4322,
      "Ġaloite": 4323,
      "tettaisiin": 4324,
      "Ġtodistus": 4325,
      "vastu": 4326,
      "Ġban": 4327,
      "par": 4328,
      "Ġkaupun": 4329,
      "ellaan": 4330,
      "Ġalkuperaa": 4331,
      "Ġsaadetyt": 4332,
      "Ġins": 4333,
      "ridi": 4334,
      "Ġsuhteellisuusperiaa": 4335,
      "Ġtili": 4336,
      "Ġza": 4337,
      "41": 4338,
      "cu": 4339,
      "Ġjoille": 4340,
      "Ġkaynn": 4341,
      "ikaa": 4342,
      "Ġkomitea": 4343,
      "Ġkyseiseen": 4344,
      "Ġgt": 4345,
      "Ġrekisteroity": 4346,
      "Ġtaas": 4347,
      "Ġprp": 4348,
      "Ġtuomioistuinta": 4349,
      "jasta": 4350,
      "Ġpoliitt": 4351,
      "Ġajo": 4352,
      "Ð²": 4353,
      "ustaa": 4354,
      "innin": 4355,
      "Ġeura": 4356,
      "toiminta": 4357,
      "Ġtoimielinten": 4358,
      "tteli": 4359,
      "Ġsaadetyn": 4360,
      "Ġulottu": 4361,
      "osuus": 4362,
      "Ġkemia": 4363,
      "Ġtaka": 4364,
      "Ġehkais": 4365,
      "Ġedellytyksia": 4366,
      "Ġratkaista": 4367,
      "Ġjulkaistaan": 4368,
      "Ġlask": 4369,
      "utua": 4370,
      "voa": 4371,
      "Ġitavallan": 4372,
      "valtaa": 4373,
      "enala": 4374,
      "Ġsuuri": 4375,
      "Ġriidanalaisessa": 4376,
      "Ġvaikutusta": 4377,
      "Ġristiriidassa": 4378,
      "Ġseurauksena": 4379,
      "kirjel": 4380,
      "49": 4381,
      "miehet": 4382,
      "zi": 4383,
      "Ġ105": 4384,
      "Ġhr": 4385,
      "tten": 4386,
      "Ġobjektiiv": 4387,
      "Ġmyonnetaan": 4388,
      "port": 4389,
      "tal": 4390,
      "isei": 4391,
      "Ġvalinta": 4392,
      "Ġcas": 4393,
      "Ġtuore": 4394,
      "Ġtaulukon": 4395,
      "Ġyhteenso": 4396,
      "Ġeg": 4397,
      "koiden": 4398,
      "Ġolisivat": 4399,
      "Ġtarkka": 4400,
      "Ġkansalaisten": 4401,
      "Ġvaatia": 4402,
      "Ġ}": 4403,
      "ux": 4404,
      "Ġbar": 4405,
      "Ġesteena": 4406,
      "Ġvuokra": 4407,
      "Ġbulga": 4408,
      "Ġtoimitus": 4409,
      "be": 4410,
      "Ġgu": 4411,
      "Ġkana": 4412,
      "Ġtall": 4413,
      "Ġkaiken": 4414,
      "Ġylita": 4415,
      "Ġhenkilot": 4416,
      "Ġsvei": 4417,
      "llisesta": 4418,
      "Ġluetelma": 4419,
      "Ġyhteys": 4420,
      "Ġsiviili": 4421,
      "Ġ106": 4422,
      "Ġaikaan": 4423,
      "Ġpoikkea": 4424,
      "Ġope": 4425,
      "Ġtaloudellista": 4426,
      "Ġasianomaisten": 4427,
      "Ġestaa": 4428,
      "Ġnakem": 4429,
      "Ġperheen": 4430,
      "Ġlaitteet": 4431,
      "put": 4432,
      "ttamisessa": 4433,
      "87": 4434,
      "Ġkokoonpan": 4435,
      "Ġeivatka": 4436,
      "Ġsosiaaliturva": 4437,
      "Ġalkuperan": 4438,
      "Ġee": 4439,
      "yste": 4440,
      "Ġedellytysten": 4441,
      "taneen": 4442,
      "pal": 4443,
      "Ġtariffi": 4444,
      "Ġkohtelun": 4445,
      "Ġliittyvista": 4446,
      "viranomaiset": 4447,
      "Ġkasv": 4448,
      "laitokset": 4449,
      "Ġirtis": 4450,
      "Ġkasittelya": 4451,
      "Ġpaper": 4452,
      "Ġvalittajan": 4453,
      "Ġsuunnit": 4454,
      "Ġhiili": 4455,
      "onta": 4456,
      "Ġpaaoma": 4457,
      "Ġtosisei": 4458,
      "Ġalenn": 4459,
      "Ġvaatimustenmukais": 4460,
      "Ġtuli": 4461,
      "Ġavusta": 4462,
      "Ġellei": 4463,
      "Ġden": 4464,
      "ges": 4465,
      "Ġasema": 4466,
      "Ġkirjan": 4467,
      "Ġriskin": 4468,
      "Ġmaaritell": 4469,
      "ellisten": 4470,
      "Ġeuron": 4471,
      "empaa": 4472,
      "Ġtaydell": 4473,
      "Ġvalvonnan": 4474,
      "Ġsisamarkkinoiden": 4475,
      "yli": 4476,
      "Ġtarkasta": 4477,
      "Ġsopimuspuolten": 4478,
      "Ġkasvin": 4479,
      "Ġpara": 4480,
      "Ġtappi": 4481,
      "Ġtutkia": 4482,
      "Ġpaaasialliset": 4483,
      "Ġpuitteissa": 4484,
      "pol": 4485,
      "Ġlasku": 4486,
      "Ġhenkilostosaantojen": 4487,
      "Ġder": 4488,
      "Ġtutkimatta": 4489,
      "Ġsamoin": 4490,
      "Ġwit": 4491,
      "Ġlv": 4492,
      "Ġyhteisesta": 4493,
      "tisen": 4494,
      "32": 4495,
      "Ġpresiden": 4496,
      "Ġlat": 4497,
      "Ġensin": 4498,
      "keli": 4499,
      "nettava": 4500,
      "Ġmenettelyssa": 4501,
      "tannosta": 4502,
      "sul": 4503,
      "ikkaan": 4504,
      "Ġcm": 4505,
      "Ġedellytetaan": 4506,
      "mpaa": 4507,
      "hinta": 4508,
      "Ġyleensa": 4509,
      "Ġkomp": 4510,
      "Ġmaaraajassa": 4511,
      "saannot": 4512,
      "Ġvaitteet": 4513,
      "Ġ{": 4514,
      "Ġliittotasa": 4515,
      "Ġliikkeeseen": 4516,
      "ss": 4517,
      "Ġkaas": 4518,
      "Ġtekemallaan": 4519,
      "hyva": 4520,
      "Ġlainsaata": 4521,
      "ivuo": 4522,
      "Ġoma": 4523,
      "paika": 4524,
      "tykseen": 4525,
      "Ġkoros": 4526,
      "Ġvaltiot": 4527,
      "Ġlaitoksen": 4528,
      "88": 4529,
      "isilta": 4530,
      "ws": 4531,
      "Ġviisu": 4532,
      "Ġtonnia": 4533,
      "ny": 4534,
      "Ġkatsonut": 4535,
      "Ġpuoli": 4536,
      "Ġliittyvan": 4537,
      "Ġsiksi": 4538,
      "Ġkattaa": 4539,
      "Ġrajoittamatta": 4540,
      "laan": 4541,
      "Ġsovellettavien": 4542,
      "Ġosaston": 4543,
      "Ġlahte": 4544,
      "ger": 4545,
      "Ġedistaa": 4546,
      "Ġaloitta": 4547,
      "Ġtilintar": 4548,
      "lee": 4549,
      "Ġhuomautukset": 4550,
      "Ġmun": 4551,
      "Ġjate": 4552,
      "Ġvalti": 4553,
      "sopimus": 4554,
      "hyvaks": 4555,
      "Ġirtisano": 4556,
      "tuotteet": 4557,
      "Ġkro": 4558,
      "tyksessa": 4559,
      "Ġjolle": 4560,
      "Ġhyody": 4561,
      "Ġtans": 4562,
      "Ġteko": 4563,
      "Ġsal": 4564,
      "Ġhallinnointi": 4565,
      "Ġpidetyssa": 4566,
      "Ġinc": 4567,
      "Ġvireilla": 4568,
      "ele": 4569,
      "Ġasetusten": 4570,
      "Ġautomaatt": 4571,
      "46": 4572,
      "proses": 4573,
      "Ġdk": 4574,
      "Ġkonser": 4575,
      "Ġtoista": 4576,
      "tamaan": 4577,
      "kohtana": 4578,
      "Ġmeri": 4579,
      "ineita": 4580,
      "kesk": 4581,
      "Ġkokona": 4582,
      "Ġtoimivat": 4583,
      "tettaessa": 4584,
      "Ġmiljoonaa": 4585,
      "Ġhintojen": 4586,
      "Ġluxemburgissa": 4587,
      "Ġmaarin": 4588,
      "posti": 4589,
      "dikaa": 4590,
      "Ġava": 4591,
      "Ġmonivuo": 4592,
      "innat": 4593,
      "jek": 4594,
      "gs": 4595,
      "ustapa": 4596,
      "Ġhuolimatta": 4597,
      "miaan": 4598,
      "terve": 4599,
      "Ġasiakka": 4600,
      "Ġkulttu": 4601,
      "tres": 4602,
      "vio": 4603,
      "Ġportugalin": 4604,
      "jiin": 4605,
      "Ġkappaleessa": 4606,
      "Ġkorjaa": 4607,
      "Ġnoudatettava": 4608,
      "Ġtulokset": 4609,
      "fo": 4610,
      "imikke": 4611,
      "aatti": 4612,
      "rs": 4613,
      "Ġmateri": 4614,
      "sop": 4615,
      "Ġ103": 4616,
      "Ġvaltioiden": 4617,
      "Ġkyseisia": 4618,
      "Ġvireille": 4619,
      "Ġrah": 4620,
      "Ġtuotetta": 4621,
      "kkoa": 4622,
      "Ġ2022": 4623,
      "Ġbudjetti": 4624,
      "Ð»": 4625,
      "Ġhylataan": 4626,
      "Ġkilpailua": 4627,
      "Ġpuolusta": 4628,
      "59": 4629,
      "Ġkymmen": 4630,
      "Ġrekisterointi": 4631,
      "cc": 4632,
      "Ġyhteisoon": 4633,
      "pien": 4634,
      "Ġkumoamis": 4635,
      "kastus": 4636,
      "Ġkasite": 4637,
      "Ġ102": 4638,
      "Ġtrib": 4639,
      "Ġyksikon": 4640,
      "hallinn": 4641,
      "Ġber": 4642,
      "Ġmaksut": 4643,
      "Ġpysty": 4644,
      "Ġmaarittaa": 4645,
      "Ġsitten": 4646,
      "Ġpuolan": 4647,
      "Ġinfrastruk": 4648,
      "Ġlevi": 4649,
      "Ġ1989": 4650,
      "este": 4651,
      "Ġtuomarit": 4652,
      "Ġvastattava": 4653,
      "Ġseitse": 4654,
      "Ġpoikkeuks": 4655,
      "Ġvaiheessa": 4656,
      "her": 4657,
      "mattomia": 4658,
      "Ġpaivaan": 4659,
      "Ġmuissa": 4660,
      "Ġgra": 4661,
      "Ġsaadettya": 4662,
      "Ġinsti": 4663,
      "Ġmukana": 4664,
      "id": 4665,
      "Ġvaikuta": 4666,
      "vaatimukset": 4667,
      "uroop": 4668,
      "fen": 4669,
      "hon": 4670,
      "tista": 4671,
      "Ġosiltaan": 4672,
      "maaraa": 4673,
      "Ġnimikkeeseen": 4674,
      "Ġnoudattanut": 4675,
      "Ġedustajan": 4676,
      "llien": 4677,
      "Ġkirjaaja": 4678,
      "istamis": 4679,
      "tellut": 4680,
      "Ġtutkittava": 4681,
      "Ġvaaditaan": 4682,
      "jarjestelmaa": 4683,
      "Ġliha": 4684,
      "Ġkohden": 4685,
      "ketta": 4686,
      "Ġmerkki": 4687,
      "Ġea": 4688,
      "Ġtehtavia": 4689,
      "we": 4690,
      "Ġkoostu": 4691,
      "Ġesittele": 4692,
      "ohjelman": 4693,
      "Ġep": 4694,
      "toase": 4695,
      "Ġmaito": 4696,
      "toimenpiteita": 4697,
      "Ġken": 4698,
      "Ġmaista": 4699,
      "Ġmahdollisuutta": 4700,
      "cial": 4701,
      "Ġtallaisia": 4702,
      "Ġviranomaisille": 4703,
      "Ġtoimii": 4704,
      "Ġtilanteen": 4705,
      "Ġoikeudenkaynnin": 4706,
      "Ġetua": 4707,
      "Ġtilin": 4708,
      "isuudessa": 4709,
      "inin": 4710,
      "Ġkasiteltavaksi": 4711,
      "Ġtrans": 4712,
      "Ġvarmistetaan": 4713,
      "Ġseuraavista": 4714,
      "maksu": 4715,
      "Ġbu": 4716,
      "Ġsaakka": 4717,
      "Ġsukup": 4718,
      "71": 4719,
      "toista": 4720,
      "ime": 4721,
      "Ġmaarayksen": 4722,
      "Ġoleviin": 4723,
      "Ġasiaankuulu": 4724,
      "Ġkuluttaja": 4725,
      "Ġliittyva": 4726,
      "Ġtarkoitetulla": 4727,
      "vian": 4728,
      "Ġkuultu": 4729,
      "gas": 4730,
      "poh": 4731,
      "Ġmoment": 4732,
      "Ġvuosina": 4733,
      "intia": 4734,
      "laitteet": 4735,
      "Ġ120": 4736,
      "Ġperiaate": 4737,
      "Ġtehtavien": 4738,
      "hinna": 4739,
      "Ġhuomautuksia": 4740,
      "Ġneljas": 4741,
      "Ġtaytantoonpanoasetus": 4742,
      "Ġmielestani": 4743,
      "laitosten": 4744,
      "Ġhenkiloston": 4745,
      "Ġvalitusperuste": 4746,
      "Ġlahestymista": 4747,
      "Ġemo": 4748,
      "Ġvoima": 4749,
      "Ġversi": 4750,
      "euvoston": 4751,
      "55": 4752,
      "Ġkasittelyn": 4753,
      "Ġvertail": 4754,
      "Ġvalista": 4755,
      "Ġalus": 4756,
      "Ġvuotu": 4757,
      "Ġjattaminen": 4758,
      "Ġkesk": 4759,
      "Ġhallin": 4760,
      "Ġharjoittaa": 4761,
      "Ġsuora": 4762,
      "todistu": 4763,
      "Ġpm": 4764,
      "Ġjasenvaltioon": 4765,
      "tteja": 4766,
      "tuksista": 4767,
      "kone": 4768,
      "raston": 4769,
      "Ġantoi": 4770,
      "talous": 4771,
      "Ġosoitettu": 4772,
      "pin": 4773,
      "Ġratkaisu": 4774,
      "Ġpohjois": 4775,
      "Ġohjelma": 4776,
      "Ġseuraavien": 4777,
      "Ġvoitu": 4778,
      "Ġran": 4779,
      "Ġlahtien": 4780,
      "iselta": 4781,
      "htu": 4782,
      "tuja": 4783,
      "Ġkasva": 4784,
      "Ġtarkastelta": 4785,
      "Ġkolm": 4786,
      "Ġrikkominen": 4787,
      "osoite": 4788,
      "Ġluetteloon": 4789,
      "Ġyleiset": 4790,
      "nettu": 4791,
      "llisuuden": 4792,
      "Ġtoimivaltaiset": 4793,
      "Ġstandar": 4794,
      "tille": 4795,
      "84": 4796,
      "Ġyrityksille": 4797,
      "Ġkokoonpanossa": 4798,
      "Ġjulkisia": 4799,
      "tian": 4800,
      "Ġsopimuspuoli": 4801,
      "tyo": 4802,
      "Ġsellainen": 4803,
      "Ġhuomattava": 4804,
      "Ġsuostu": 4805,
      "Ġpoli": 4806,
      "ssaan": 4807,
      "Ġedustajat": 4808,
      "Ġpos": 4809,
      "toimia": 4810,
      "ji": 4811,
      "Ġkanneperusteen": 4812,
      "Ġinternational": 4813,
      "Ġtietoa": 4814,
      "Ġkans": 4815,
      "Ġdem": 4816,
      "Ġasettaa": 4817,
      "Ġaiheuttaa": 4818,
      "miselle": 4819,
      "Ġkumoaa": 4820,
      "kulje": 4821,
      "Ġmetsa": 4822,
      "Ġkaikille": 4823,
      "Ġvetoaa": 4824,
      "dikaatto": 4825,
      "Ġmik": 4826,
      "Ġsamaan": 4827,
      "Ġ1510": 4828,
      "Ġturvaa": 4829,
      "teja": 4830,
      "Î¿Ï": 4831,
      "kari": 4832,
      "kansa": 4833,
      "Ġalaviitteessa": 4834,
      "tteella": 4835,
      "Ġasiakirjan": 4836,
      "vuoden": 4837,
      "edellyty": 4838,
      "Ġlahen": 4839,
      "mission": 4840,
      "oidut": 4841,
      "Ġkoskevissa": 4842,
      "Ġesitettava": 4843,
      "Ġvirheellisesti": 4844,
      "Ġuudiste": 4845,
      "detty": 4846,
      "margin": 4847,
      "Ġie": 4848,
      "Ġ150": 4849,
      "Ġominaisuu": 4850,
      "neuv": 4851,
      "53": 4852,
      "Ġmel": 4853,
      "Ġby": 4854,
      "Ġkirjeen": 4855,
      "Ġsaadaan": 4856,
      "Ġsuoritus": 4857,
      "Ġci": 4858,
      "Ġvelvoittava": 4859,
      "Ġviestinta": 4860,
      "Ġkalastusa": 4861,
      "menettel": 4862,
      "54": 4863,
      "kista": 4864,
      "Ġarvioitava": 4865,
      "Ġjuo": 4866,
      "Ġasetetaan": 4867,
      "Ġsaannos": 4868,
      "Ġnakoko": 4869,
      "Ġarvos": 4870,
      "Ġsuurin": 4871,
      "Ġoppi": 4872,
      "Ġmilla": 4873,
      "Ġkaytosta": 4874,
      "Ġ136": 4875,
      "Ġperusoikeuskirjan": 4876,
      "Ġmaassa": 4877,
      "talou": 4878,
      "Ġmed": 4879,
      "kkais": 4880,
      "Ġvalo": 4881,
      "Ġministeri": 4882,
      "hyvaksyn": 4883,
      "Ġsaapu": 4884,
      "annan": 4885,
      "tulle": 4886,
      "turvallisuus": 4887,
      "Ġbelgia": 4888,
      "sch": 4889,
      "Ġlyhy": 4890,
      "Ġvahvistettava": 4891,
      "ler": 4892,
      "Ġpatevyy": 4893,
      "Ġkokonaismaara": 4894,
      "Ġsamaa": 4895,
      "Ġarvioin": 4896,
      "Ġsveitsin": 4897,
      "Ġmaase": 4898,
      "bu": 4899,
      "Ġjaady": 4900,
      "Ġrajoittaa": 4901,
      "Ġmakset": 4902,
      "Ġbri": 4903,
      "Ġtehtavana": 4904,
      "Ġsuojelua": 4905,
      "annut": 4906,
      "kulu": 4907,
      "yhteison": 4908,
      "vuoro": 4909,
      "Ġperusteetto": 4910,
      "Ġkyseenala": 4911,
      "laitoksen": 4912,
      "Ġsopimuspuolen": 4913,
      "Ġvahinkoa": 4914,
      "kseksi": 4915,
      "Ġpankki": 4916,
      "56": 4917,
      "Ġvahingonkorva": 4918,
      "Ġtulkintaa": 4919,
      "lainsaadannon": 4920,
      "Ġ210": 4921,
      "tettavat": 4922,
      "Ġmomentissa": 4923,
      "Ġjasenyys": 4924,
      "Ġete": 4925,
      "Ġalku": 4926,
      "Ġservi": 4927,
      "Ġtarjouskilpail": 4928,
      "ĠÂ·": 4929,
      "ya": 4930,
      "Ġtaulukko": 4931,
      "Ġmerkitsee": 4932,
      "feren": 4933,
      "Ġsuojattu": 4934,
      "Ġlahinna": 4935,
      "berg": 4936,
      "Ġkomitean": 4937,
      "maat": 4938,
      "tteitaan": 4939,
      "Ġkuuluvia": 4940,
      "70": 4941,
      "miini": 4942,
      "Ġmaatalouden": 4943,
      "Ġvaaris": 4944,
      "Ġtoimijoiden": 4945,
      "Ġbun": 4946,
      "Ġvalituslautakunnan": 4947,
      "Ġ118": 4948,
      "koon": 4949,
      "Ġmaksettava": 4950,
      "Ġsiemen": 4951,
      "Ġrau": 4952,
      "Ġmuutoksenhaku": 4953,
      "Ġnoudattamisen": 4954,
      "Ġpinta": 4955,
      "Ġsuuntaviivo": 4956,
      "Ġruotsin": 4957,
      "Ġulkopuolella": 4958,
      "Ġkoke": 4959,
      "Ġtuomiolauselma": 4960,
      "Ġpri": 4961,
      "ani": 4962,
      "muutta": 4963,
      "Ġilmoitti": 4964,
      "istra": 4965,
      "Ġ1988": 4966,
      "cal": 4967,
      "Ġpaivamaara": 4968,
      "Î·": 4969,
      "Ġsahkon": 4970,
      "taneet": 4971,
      "Ġsijaan": 4972,
      "Ġinteg": 4973,
      "Ġslova": 4974,
      "Ġ109": 4975,
      "rista": 4976,
      "tyissa": 4977,
      "Ġrea": 4978,
      "velvollis": 4979,
      "Ġlouka": 4980,
      "Ġtuomari": 4981,
      "Ġrei": 4982,
      "kyv": 4983,
      "Ġkuts": 4984,
      "utusta": 4985,
      "toimien": 4986,
      "Ġuu": 4987,
      "vaksi": 4988,
      "ukka": 4989,
      "Ġhol": 4990,
      "Ġsaannoksessa": 4991,
      "Ġesitettyjen": 4992,
      "tive": 4993,
      "Ġottanut": 4994,
      "Ġvastaus": 4995,
      "Ġsyrji": 4996,
      "Ġosallistua": 4997,
      "Ġvalmistajan": 4998,
      "Ġ400": 4999,
      "valvonta": 5000,
      "llisista": 5001,
      "Ġsovellettavat": 5002,
      "Ġaiemmin": 5003,
      "Ġkuukautta": 5004,
      "eta": 5005,
      "Ġsisalto": 5006,
      "Ġsaavat": 5007,
      "Ġsg": 5008,
      "oljy": 5009,
      "Ġmuutoksia": 5010,
      "Ġviipy": 5011,
      "Ġtunniste": 5012,
      "Ġturvallisuuden": 5013,
      "Ġkieltayty": 5014,
      "Ġtarkoittaa": 5015,
      "oikeutta": 5016,
      "Ġprosentti": 5017,
      "fin": 5018,
      "Ġharmon": 5019,
      "ble": 5020,
      "Ġair": 5021,
      "Ġjattaa": 5022,
      "Ġsisalla": 5023,
      "Ġliettu": 5024,
      "Ġjakson": 5025,
      "jarjestelmaan": 5026,
      "Ġkielle": 5027,
      "Ġjalki": 5028,
      "lit": 5029,
      "jarjestelyt": 5030,
      "Ġvahvistettujen": 5031,
      "Ġuni": 5032,
      "Ġkerran": 5033,
      "Ġantamassaan": 5034,
      "leen": 5035,
      "Ġseli": 5036,
      "Ġhtt": 5037,
      "usto": 5038,
      "euvosto": 5039,
      "Ġeriko": 5040,
      "use": 5041,
      "menettelyssa": 5042,
      "Ġtuleva": 5043,
      "tilla": 5044,
      "ret": 5045,
      "Ġcen": 5046,
      "jal": 5047,
      "inal": 5048,
      "Ġvakiintuneen": 5049,
      "ohy": 5050,
      "Ġsaadettyjen": 5051,
      "poyta": 5052,
      "kauppa": 5053,
      "Ġyhteensop": 5054,
      "Ġirlannin": 5055,
      "Ġtietyt": 5056,
      "Ġfar": 5057,
      "Ġtekniset": 5058,
      "istusten": 5059,
      "Ġaloilla": 5060,
      "kuva": 5061,
      "Ġseikkoja": 5062,
      "Ġ5493": 5063,
      "Ġsaavuttamiseksi": 5064,
      "Ġopis": 5065,
      "Ġmuulla": 5066,
      "Ġjasenten": 5067,
      "Ġkayttoono": 5068,
      "Ġkyseisella": 5069,
      "Ġneuvostolle": 5070,
      "yksia": 5071,
      "43": 5072,
      "Ġedu": 5073,
      "Ġlaina": 5074,
      "cha": 5075,
      "Ġylittaa": 5076,
      "Ġeuratom": 5077,
      "Ġriittavasti": 5078,
      "siin": 5079,
      "Ġsellaista": 5080,
      "Ġsovellettaessa": 5081,
      "Ġlenn": 5082,
      "Ġviipymatta": 5083,
      "ww": 5084,
      "81": 5085,
      "Ġyksityiskohtaiset": 5086,
      "Ġtallaiset": 5087,
      "Ġkauppaa": 5088,
      "haa": 5089,
      "Ġpyrki": 5090,
      "gericht": 5091,
      "Ġgi": 5092,
      "halti": 5093,
      "Ġoy": 5094,
      "palveluja": 5095,
      "Ġlahtokohtaisesti": 5096,
      "vallasta": 5097,
      "tansa": 5098,
      "Ġvalita": 5099,
      "luokka": 5100,
      "aika": 5101,
      "42": 5102,
      "menetel": 5103,
      "llisyy": 5104,
      "Ġjokais": 5105,
      "Ġallekirjoite": 5106,
      "Ġetenkin": 5107,
      "Ġarviointia": 5108,
      "Ġfer": 5109,
      "klo": 5110,
      "Ġseikka": 5111,
      "Ġhyvaksi": 5112,
      "Ġdis": 5113,
      "Ġkonkre": 5114,
      "Ġale": 5115,
      "Ġkehitty": 5116,
      "Ġsuuru": 5117,
      "Ġalha": 5118,
      "Ġvapaaehto": 5119,
      "Ġhaita": 5120,
      "Ġschen": 5121,
      "tettavien": 5122,
      "Ġukra": 5123,
      "luettel": 5124,
      "Ġaste": 5125,
      "ok": 5126,
      "Ġkohti": 5127,
      "Ġsuoritettava": 5128,
      "Ġtutkinta": 5129,
      "dor": 5130,
      "Ġmenettelyjen": 5131,
      "Ġneuvo": 5132,
      "Ġlaki": 5133,
      "tune": 5134,
      "Ġpienempi": 5135,
      "llisille": 5136,
      "Ġhenkiloa": 5137,
      "Ġren": 5138,
      "viraston": 5139,
      "Ġkapasiteet": 5140,
      "Ġselkea": 5141,
      "tyksella": 5142,
      "uroopan": 5143,
      "Ġ549300": 5144,
      "kastu": 5145,
      "Ġperustellusti": 5146,
      "Ġpaljon": 5147,
      "Ġhuu": 5148,
      "Ġtaloudellinen": 5149,
      "Ġvahentaa": 5150,
      "Ġotsikko": 5151,
      "ettuina": 5152,
      "Ġkohtelu": 5153,
      "Ġ119": 5154,
      "ttomyy": 5155,
      "Ġtoimiala": 5156,
      "Ġaineisto": 5157,
      "Ġesittamat": 5158,
      "Ġjulkaise": 5159,
      "bon": 5160,
      "Ġtanskan": 5161,
      "75": 5162,
      "jista": 5163,
      "Ġpaten": 5164,
      "Ġkiintea": 5165,
      "Ġviides": 5166,
      "kaat": 5167,
      "Ġkayttaen": 5168,
      "ther": 5169,
      "Ġoikeudenkayntikuluistaan": 5170,
      "Ġjasenyysvelvoi": 5171,
      "Ġperustuva": 5172,
      "toimenpiteiden": 5173,
      "Ġtuomioistuimeen": 5174,
      "Ġkunni": 5175,
      "Ġlaskenta": 5176,
      "hojen": 5177,
      "Ġyksikko": 5178,
      "cion": 5179,
      "teista": 5180,
      "Ġkonkreett": 5181,
      "62": 5182,
      "uksien": 5183,
      "Ġrajat": 5184,
      "saannon": 5185,
      "zo": 5186,
      "Ġnopea": 5187,
      "Ġjuuri": 5188,
      "Ġhallussa": 5189,
      "Ġhinnat": 5190,
      "Ġviraston": 5191,
      "Ġindus": 5192,
      "luvan": 5193,
      "Ġsuhteen": 5194,
      "isuusa": 5195,
      "Ġvaatimuksen": 5196,
      "Ġyhteensovi": 5197,
      "Ġperiaatteiden": 5198,
      "Ġrikkomiseen": 5199,
      "92": 5200,
      "cor": 5201,
      "Ġparha": 5202,
      "eraa": 5203,
      "cs": 5204,
      "Ġesitti": 5205,
      "mit": 5206,
      "Ġlaitto": 5207,
      "Ġtarpeell": 5208,
      "Ġturk": 5209,
      "Ġtiivis": 5210,
      "Ġlasketaan": 5211,
      "Ġvarat": 5212,
      "Ġallekirjoitta": 5213,
      "Ġoikeudessa": 5214,
      "Ġkaann": 5215,
      "Ġuudistettavat": 5216,
      "Ġnormaali": 5217,
      "lahte": 5218,
      "Ġelainlaa": 5219,
      "Ġoikeushenkil": 5220,
      "Ġtayttavat": 5221,
      "Ġkuor": 5222,
      "Ġperustuvan": 5223,
      "Ġ1987": 5224,
      "intoja": 5225,
      "isuuteen": 5226,
      "tinen": 5227,
      "Ġkayttoonotto": 5228,
      "Ġtilapa": 5229,
      "Ġkorko": 5230,
      "Ġvaaran": 5231,
      "Ġseikkojen": 5232,
      "Ġennalta": 5233,
      "Ġoikeushenkilo": 5234,
      "huol": 5235,
      "Ġtehoa": 5236,
      "Ġpaaasiallisesti": 5237,
      "Ġoikeustapa": 5238,
      "Ġste": 5239,
      "okset": 5240,
      "sut": 5241,
      "Ġsiella": 5242,
      "Ġkolmans": 5243,
      "ontaa": 5244,
      "Ġschengen": 5245,
      "Ġyri": 5246,
      "Ġovatko": 5247,
      "Ġmoni": 5248,
      "Ġkansainvalisten": 5249,
      "Ġtutustua": 5250,
      "miset": 5251,
      "toimintaa": 5252,
      "ins": 5253,
      "Ġasianomainen": 5254,
      "Ġasun": 5255,
      "lueella": 5256,
      "Ġprodu": 5257,
      "Ġeva": 5258,
      "Õ¡": 5259,
      "Ġekp": 5260,
      "uskoko": 5261,
      "Ġkuultuaan": 5262,
      "Ġkuluttajan": 5263,
      "Ġhinnan": 5264,
      "Ġsovellettavan": 5265,
      "Ġtehtavat": 5266,
      "Ġsaannosto": 5267,
      "Ġsanotun": 5268,
      "Ġcour": 5269,
      "tuotteita": 5270,
      "hteer": 5271,
      "Ġwith": 5272,
      "mpia": 5273,
      "ttaviksi": 5274,
      "Ġkesto": 5275,
      "Ġtoimivaltaa": 5276,
      "Ġkansan": 5277,
      "suojan": 5278,
      "Ġensimmaiseen": 5279,
      "Ġomaisuuden": 5280,
      "mitta": 5281,
      "Ġvoidaanko": 5282,
      "Ġammatin": 5283,
      "varojen": 5284,
      "Ġ540": 5285,
      "Ġlaitteiden": 5286,
      "loma": 5287,
      "toimet": 5288,
      "Ġgroup": 5289,
      "89": 5290,
      "yhd": 5291,
      "reiden": 5292,
      "Ġpaatosten": 5293,
      "ykset": 5294,
      "Ġ600": 5295,
      "wal": 5296,
      "Ġdigitaal": 5297,
      "eton": 5298,
      "Ġ520": 5299,
      "Ġoikeustapauskoko": 5300,
      "Ġhyvaksyy": 5301,
      "52": 5302,
      "telut": 5303,
      "merkin": 5304,
      "Ġmukautettu": 5305,
      "kal": 5306,
      "Ġvahinko": 5307,
      "valle": 5308,
      "Ġmerkinta": 5309,
      "Ġliitteena": 5310,
      "Ġtietoihin": 5311,
      "Ġperhe": 5312,
      "Ġvaittavat": 5313,
      "Ġwww": 5314,
      "rahat": 5315,
      "tuksi": 5316,
      "Ġasiakirjoihin": 5317,
      "Ġ117": 5318,
      "Ġtyyppihyvaksyn": 5319,
      "Ġansi": 5320,
      "Ġmeren": 5321,
      "Ġtekema": 5322,
      "Ġverrattuna": 5323,
      "Ġtekemista": 5324,
      "Ġsloven": 5325,
      "Ġvalko": 5326,
      "Ġmaksaa": 5327,
      "Ġtyosopim": 5328,
      "Ġedelta": 5329,
      "Ġhetkella": 5330,
      "Ġasetettu": 5331,
      "Ġhenkilokohta": 5332,
      "Ġtuomioistuinten": 5333,
      "Ġelintarvikkeiden": 5334,
      "Ġtulos": 5335,
      "ydy": 5336,
      "yrityksen": 5337,
      "Ġasianajajat": 5338,
      "johtaja": 5339,
      "kunna": 5340,
      "Ġalkuperanimi": 5341,
      "kateen": 5342,
      "Ġvastavuoro": 5343,
      "Ġvoimassaoloa": 5344,
      "Ġvoimaantul": 5345,
      "Ġkeino": 5346,
      "stan": 5347,
      "tonsa": 5348,
      "Ġintres": 5349,
      "Ġkorostaa": 5350,
      "Ġomien": 5351,
      "Ġaineen": 5352,
      "Ġoikeudet": 5353,
      "Ġnayttoa": 5354,
      "mmassa": 5355,
      "Ġkel": 5356,
      "Ġtekeman": 5357,
      "Ġnako": 5358,
      "Ġluettelon": 5359,
      "Ġuutta": 5360,
      "Ġvahennys": 5361,
      "Ðº": 5362,
      "del": 5363,
      "Ġoljy": 5364,
      "Ġspa": 5365,
      "Ġminkaan": 5366,
      "Ġpiste": 5367,
      "Ġvakavaraisuusa": 5368,
      "Ġasiamiehen": 5369,
      "llisena": 5370,
      "Ġhanelle": 5371,
      "Ġmaarittamiseksi": 5372,
      "Ġtuonnissa": 5373,
      "Ġottavat": 5374,
      "Ġtuotte": 5375,
      "65": 5376,
      "Ġennakkoratkaisukysymykset": 5377,
      "Ġjp": 5378,
      "Ġsuunnitel": 5379,
      "Ġmuuhun": 5380,
      "Ġtukien": 5381,
      "Ġedel": 5382,
      "Ġeurooppalaisen": 5383,
      "vinn": 5384,
      "Ġtulle": 5385,
      "Ġvapautta": 5386,
      "lupa": 5387,
      "Ġvala": 5388,
      "Ġoikeuskaytannossa": 5389,
      "teho": 5390,
      "kasittely": 5391,
      "tuilla": 5392,
      "Ġluettuina": 5393,
      "Ġtutkimuksessa": 5394,
      "Ġesittaman": 5395,
      "Ġmaaritetaan": 5396,
      "kkuus": 5397,
      "bora": 5398,
      "Ġtuotannonala": 5399,
      "tutkim": 5400,
      "Ġmenettelyt": 5401,
      "Ġkansainvalista": 5402,
      "Ġrikkomista": 5403,
      "Ġtarvitaan": 5404,
      "ttaisi": 5405,
      "Ġsamo": 5406,
      "Ġvarmen": 5407,
      "Ġperusteltua": 5408,
      "liin": 5409,
      "tuksensa": 5410,
      "pakka": 5411,
      "tuki": 5412,
      "Ġmaat": 5413,
      "Ġkreikan": 5414,
      "Ġkuuluvan": 5415,
      "joitus": 5416,
      "kehyksen": 5417,
      "Ġhyvaksyttava": 5418,
      "Ġjopa": 5419,
      "Ġrajoituksia": 5420,
      "Ġetteivat": 5421,
      "ttamalla": 5422,
      "istamisesta": 5423,
      "Ġkolmanneksi": 5424,
      "markkinoiden": 5425,
      "Ġmerkitys": 5426,
      "Ġpera": 5427,
      "Ġesittamaan": 5428,
      "Ġkeskitty": 5429,
      "Ġ250": 5430,
      "Ġimp": 5431,
      "Ġtoteen": 5432,
      "Ġvarus": 5433,
      "Ġhavi": 5434,
      "Ġsamat": 5435,
      "Ġluovutta": 5436,
      "taulu": 5437,
      "Ġsaantojenvasta": 5438,
      "Ġmaarittele": 5439,
      "Ġilmene": 5440,
      "mm": 5441,
      "Ġkomissiolla": 5442,
      "Ġensimmaista": 5443,
      "kata": 5444,
      "Ġhoita": 5445,
      "Ġviivas": 5446,
      "Ġmake": 5447,
      "Ġluonteeltaan": 5448,
      "saston": 5449,
      "Ġenergian": 5450,
      "Ġsellaiset": 5451,
      "Ġmainitaan": 5452,
      "cie": 5453,
      "Ġlaiminlyon": 5454,
      "Ġvakavaraisuusasetuksen": 5455,
      "dosta": 5456,
      "Ġtyh": 5457,
      "Ġnumer": 5458,
      "Ġajoneuvo": 5459,
      "Ġtoimivallan": 5460,
      "Ġedellytyksin": 5461,
      "Ġvuodesta": 5462,
      "olin": 5463,
      "Ġkayttotark": 5464,
      "ess": 5465,
      "Ġpaatti": 5466,
      "ire": 5467,
      "Ïĥ": 5468,
      "tettavan": 5469,
      "kustannukset": 5470,
      "Ġydin": 5471,
      "Ġtoimeen": 5472,
      "Ġtodettiin": 5473,
      "Ġliikenteen": 5474,
      "Ġlak": 5475,
      "Ġtelevisi": 5476,
      "markkinoilla": 5477,
      "Ġoikeusvar": 5478,
      "Ġvahvistamisesta": 5479,
      "Ġepail": 5480,
      "Ġposi": 5481,
      "Ġkansanta": 5482,
      "Ġinternet": 5483,
      "Ġbru": 5484,
      "teko": 5485,
      "Ġtayttyvat": 5486,
      "Ġtyontekija": 5487,
      "Ġkaupankayn": 5488,
      "Ġvieja": 5489,
      "Ġsekakomitean": 5490,
      "Ġteknisten": 5491,
      "Ġtaloudellisten": 5492,
      "todistus": 5493,
      "keja": 5494,
      "markkinoille": 5495,
      "Ġ114": 5496,
      "Ġsiirr": 5497,
      "Ġluokkaan": 5498,
      "rten": 5499,
      "Ġaiheutuneet": 5500,
      "ikkoihin": 5501,
      "Ġjulkisyhteis": 5502,
      "Ġvalituslautakunta": 5503,
      "merkki": 5504,
      "Ġyrityksia": 5505,
      "Ġesitteleva": 5506,
      "ction": 5507,
      "Ġven": 5508,
      "Ġeroa": 5509,
      "dat": 5510,
      "Ġbundes": 5511,
      "Ġput": 5512,
      "til": 5513,
      "Ġdirektiivien": 5514,
      "Ġhyvaksytaan": 5515,
      "Ġpyynto": 5516,
      "Ġzz": 5517,
      "Ġmaksamaan": 5518,
      "kys": 5519,
      "sopimusten": 5520,
      "Ġprosessiosoite": 5521,
      "Ġkyl": 5522,
      "tre": 5523,
      "Ġvienn": 5524,
      "viljel": 5525,
      "Ġlupaa": 5526,
      "Ġ130": 5527,
      "Ġluonnollis": 5528,
      "kuntien": 5529,
      "Ġakt": 5530,
      "Ġhaltija": 5531,
      "joihin": 5532,
      "Ġmieh": 5533,
      "tinut": 5534,
      "Ġjne": 5535,
      "51": 5536,
      "Ġmaksujen": 5537,
      "Ġtarkasteltavana": 5538,
      "Ġvaarinkay": 5539,
      "Ġepaa": 5540,
      "Ġtoteutetaan": 5541,
      "cen": 5542,
      "Ġolevista": 5543,
      "Ġpuolestaan": 5544,
      "83": 5545,
      "perusta": 5546,
      "Ġpalautta": 5547,
      "Ġpassi": 5548,
      "Ġihmisten": 5549,
      "Ġteras": 5550,
      "imia": 5551,
      "Ġlasten": 5552,
      "Ġanalys": 5553,
      "Ġaktiiv": 5554,
      "rjoa": 5555,
      "Ġpalkki": 5556,
      "Ġesiinty": 5557,
      "Ġelek": 5558,
      "Ġpyysi": 5559,
      "Ġministe": 5560,
      "Ġinstitu": 5561,
      "Ġkolmannessa": 5562,
      "Ġhyd": 5563,
      "Ġluokitellaan": 5564,
      "ilmoi": 5565,
      "ssin": 5566,
      "Ġvastaajan": 5567,
      "zion": 5568,
      "Ġkein": 5569,
      "Ġtoimiin": 5570,
      "oitukset": 5571,
      "jarjestelmasta": 5572,
      "Ġaiheutuvat": 5573,
      "Ġkilo": 5574,
      "Ġpuolustautumis": 5575,
      "Ġolevasta": 5576,
      "udun": 5577,
      "Ġmissaan": 5578,
      "Ġomistus": 5579,
      "Ġasiamiehenaan": 5580,
      "org": 5581,
      "Ġlaitos": 5582,
      "misten": 5583,
      "Ġsaannoston": 5584,
      "Ġsidos": 5585,
      "Ġantaman": 5586,
      "Ġkuluttua": 5587,
      "Ġmainittuja": 5588,
      "Ġmuussa": 5589,
      "Ġjatkaa": 5590,
      "Ġkyt": 5591,
      "wer": 5592,
      "Ġkysymyksiin": 5593,
      "keino": 5594,
      "Ġpiden": 5595,
      "Ġ126": 5596,
      "ben": 5597,
      "toimenpiteet": 5598,
      "Ġhallinnollisen": 5599,
      "Ġosana": 5600,
      "immat": 5601,
      "chts": 5602,
      "Ġup": 5603,
      "Ġ113": 5604,
      "Ġrahoite": 5605,
      "Ġmahdolliset": 5606,
      "mattoman": 5607,
      "Ġtapauksen": 5608,
      "Ġkood": 5609,
      "ttajille": 5610,
      "tetuista": 5611,
      "kapasiteet": 5612,
      "Ġkatsovat": 5613,
      "Ġwi": 5614,
      "Ġoto": 5615,
      "cz": 5616,
      "tettyjen": 5617,
      "Ġmerkittavasti": 5618,
      "Ġpaatelmat": 5619,
      "Ġtalloin": 5620,
      "fe": 5621,
      "Ġvalmi": 5622,
      "Ġcomp": 5623,
      "Ġpaas": 5624,
      "Ġavun": 5625,
      "Ġhinn": 5626,
      "Ġluokka": 5627,
      "Ġsei": 5628,
      "Ġohjelmien": 5629,
      "malle": 5630,
      "Ġlisaan": 5631,
      "98": 5632,
      "Ġtekstiili": 5633,
      "Ġjasenyysvelvoitteiden": 5634,
      "Ġrahasto": 5635,
      "Ġperheenjasen": 5636,
      "Ġjokin": 5637,
      "Ġsaapun": 5638,
      "Ġavus": 5639,
      "osia": 5640,
      "Ġarvonlisaveron": 5641,
      "Ġvelvoitteitaan": 5642,
      "Ġjoukko": 5643,
      "Ġkasitteen": 5644,
      "Ġtuontia": 5645,
      "Ġuudet": 5646,
      "Ġkeho": 5647,
      "Ġhankkeen": 5648,
      "Ġpoikkeus": 5649,
      "Ġkokem": 5650,
      "vallassa": 5651,
      "Ġjohtuvat": 5652,
      "Ġannettujen": 5653,
      "Ġpen": 5654,
      "Ġtor": 5655,
      "lueet": 5656,
      "Ġvalttamatta": 5657,
      "Ð´": 5658,
      "Ġtarkeaa": 5659,
      "tettavissa": 5660,
      "Ġkemi": 5661,
      "oidaan": 5662,
      "Ġtoimenpiteisiin": 5663,
      "Ġmainittua": 5664,
      "hoito": 5665,
      "Ġrajo": 5666,
      "hakemuksen": 5667,
      "Ġtyontekijan": 5668,
      "Ġlisen": 5669,
      "Ġtal": 5670,
      "Ġhenkilotietojen": 5671,
      "Ġsyste": 5672,
      "Ġlopullisen": 5673,
      "Ġsopimukset": 5674,
      "mppan": 5675,
      "Ġperinte": 5676,
      "Ġhylkasi": 5677,
      "73": 5678,
      "untarjoa": 5679,
      "hinnan": 5680,
      "Ġtehokkuu": 5681,
      "Ġtehdylla": 5682,
      "Ġvalimi": 5683,
      "Ġsaavuttaa": 5684,
      "Ġkilpaili": 5685,
      "Ġkunnes": 5686,
      "ttamiselle": 5687,
      "Ġnoudattaa": 5688,
      "Ġjaljen": 5689,
      "Ġpienen": 5690,
      "Ġkeraa": 5691,
      "Ġyksityiskohtaisista": 5692,
      "ÏĢ": 5693,
      "Ġperustettu": 5694,
      "48": 5695,
      "elmassa": 5696,
      "jaksi": 5697,
      "eeni": 5698,
      "Ġtosiseikat": 5699,
      "Ġmark": 5700,
      "Ġvalvontaa": 5701,
      "Ġorganis": 5702,
      "Ġvalitse": 5703,
      "Ġtosiseikkojen": 5704,
      "Ġjulkisten": 5705,
      "koode": 5706,
      "Ġhuomattavasti": 5707,
      "Ġloy": 5708,
      "Ġhk": 5709,
      "Õ¸": 5710,
      "paatos": 5711,
      "Ġkahdenval": 5712,
      "Ġ721": 5713,
      "utuminen": 5714,
      "huone": 5715,
      "Ġmarkkinajarjestely": 5716,
      "myynti": 5717,
      "llisella": 5718,
      "Ġhyvi": 5719,
      "Ġilmaistu": 5720,
      "tieto": 5721,
      "Ġsaavutta": 5722,
      "Ġsaadettyja": 5723,
      "ulo": 5724,
      "Ġsijoittautumis": 5725,
      "Ġ620": 5726,
      "alle": 5727,
      "Ġsido": 5728,
      "Ġperusteilla": 5729,
      "Ġsaadut": 5730,
      "Ġaiko": 5731,
      "Ġsamassa": 5732,
      "valmisteet": 5733,
      "paivasta": 5734,
      "Ġkaytannon": 5735,
      "Ġaikaa": 5736,
      "suojelua": 5737,
      "vattu": 5738,
      "Ġhoito": 5739,
      "Ġjakelu": 5740,
      "Ġmarkkinointi": 5741,
      "Ġtarkastelua": 5742,
      "Ġmaksun": 5743,
      "Ġuseamman": 5744,
      "Ġluov": 5745,
      "Ġaseman": 5746,
      "Ġkantaa": 5747,
      "Ġkannekirjel": 5748,
      "Ġleve": 5749,
      "Ġsukupuo": 5750,
      "Ġhavai": 5751,
      "Ġedunsaa": 5752,
      "ikkansa": 5753,
      "kumppan": 5754,
      "ilii": 5755,
      "mattomien": 5756,
      "Ġmus": 5757,
      "Ġvela": 5758,
      "Ġmaaratyn": 5759,
      "ikon": 5760,
      "Ġsakkojen": 5761,
      "Ġtanska": 5762,
      "Ġpaattanyt": 5763,
      "Ġ116": 5764,
      "Ġkriisin": 5765,
      "Ġyleiseen": 5766,
      "Ġkuiva": 5767,
      "hyd": 5768,
      "Ġopera": 5769,
      "Ġkansallisia": 5770,
      "virhe": 5771,
      "Ġtarkea": 5772,
      "Ġkaytannossa": 5773,
      "ely": 5774,
      "und": 5775,
      "Ġvalossa": 5776,
      "ties": 5777,
      "Ġkehityksen": 5778,
      "Ġmikro": 5779,
      "Ġliitteeseen": 5780,
      "paivan": 5781,
      "Ġkustannusten": 5782,
      "Ġtodennakoisesti": 5783,
      "kau": 5784,
      "Ġpaivatylla": 5785,
      "Ġ123": 5786,
      "Ġjattamista": 5787,
      "Ġpane": 5788,
      "ikin": 5789,
      "juo": 5790,
      "Ġtoimilu": 5791,
      "Ġjohtuu": 5792,
      "rio": 5793,
      "Ġkukin": 5794,
      "virta": 5795,
      "Ġdia": 5796,
      "Ġsaadakseen": 5797,
      "Ġvy": 5798,
      "ure": 5799,
      "Ġasiakirjoja": 5800,
      "tehta": 5801,
      "teollis": 5802,
      "suunnitelma": 5803,
      "Ġliikevaihto": 5804,
      "Ġvirallisen": 5805,
      "nys": 5806,
      "Ġkyseisesta": 5807,
      "Ġlausumat": 5808,
      "siakirj": 5809,
      "Ġvaitti": 5810,
      "Ġvoimassaolon": 5811,
      "Ġkysymyksen": 5812,
      "Ġhyvaksynnan": 5813,
      "Ġqu": 5814,
      "Ġ1408": 5815,
      "Ġmukaisten": 5816,
      "tyyppi": 5817,
      "Ġrahoituksen": 5818,
      "valine": 5819,
      "keet": 5820,
      "Ġmoottoria": 5821,
      "Ġ320": 5822,
      "dia": 5823,
      "ĠÃ°": 5824,
      "Ġerityisia": 5825,
      "etta": 5826,
      "Ġinterven": 5827,
      "Ġryhmaan": 5828,
      "Ġhakija": 5829,
      "Ġvanhen": 5830,
      "Ġpah": 5831,
      "kaus": 5832,
      "teeseen": 5833,
      "Ġapu": 5834,
      "aikaisesti": 5835,
      "Ġkieli": 5836,
      "Ġles": 5837,
      "Ġohjaus": 5838,
      "Ġrs": 5839,
      "Ġpoistetaan": 5840,
      "todistuksen": 5841,
      "82": 5842,
      "dit": 5843,
      "Ġvastaavien": 5844,
      "Ġvalityksella": 5845,
      "loja": 5846,
      "Ġajoneuvojen": 5847,
      "Ġyhti": 5848,
      "koita": 5849,
      "Ġhallinnon": 5850,
      "tissa": 5851,
      "Ġspp": 5852,
      "Ġmaasta": 5853,
      "Ġosateki": 5854,
      "kkeja": 5855,
      "tuille": 5856,
      "trumen": 5857,
      "Ġtekemaan": 5858,
      "Ġtapahtuu": 5859,
      "Ġsaados": 5860,
      "Ġsoveltamisalan": 5861,
      "Ġneljan": 5862,
      "uli": 5863,
      "imaara": 5864,
      "Ġirlanti": 5865,
      "Ġtarkoitettuihin": 5866,
      "Ġtarjota": 5867,
      "Ġyla": 5868,
      "ttaneet": 5869,
      "Ġasiantuntija": 5870,
      "Ġtarkoitetuista": 5871,
      "Ġnoudatetaan": 5872,
      "rahaston": 5873,
      "Ġperustamisesta": 5874,
      "Ġkielletty": 5875,
      "Ġvuosittain": 5876,
      "Ġmol": 5877,
      "Ġalla": 5878,
      "Ġhakijan": 5879,
      "Ġtsekin": 5880,
      "ohje": 5881,
      "teesta": 5882,
      "Ġkansalainen": 5883,
      "Ġmoottori": 5884,
      "Ġsokeria": 5885,
      "Ġwto": 5886,
      "laj": 5887,
      "Ġoikeusperusta": 5888,
      "Ġenglanti": 5889,
      "Ġhuomauttaa": 5890,
      "Ġfyys": 5891,
      "Ġtaysimaara": 5892,
      "torin": 5893,
      "Ġomiaan": 5894,
      "teknii": 5895,
      "con": 5896,
      "Ġviisi": 5897,
      "yksikko": 5898,
      "Ġehdot": 5899,
      "olosuhte": 5900,
      "Ġtehtiin": 5901,
      "Ġannettiin": 5902,
      "muksiin": 5903,
      "cher": 5904,
      "Ġpituus": 5905,
      "Ġoikeuteen": 5906,
      "ymmen": 5907,
      "Ġfed": 5908,
      "Ġsuunniteltu": 5909,
      "Ġkroa": 5910,
      "ture": 5911,
      "Ġesittaneet": 5912,
      "Ġjarjestelmaa": 5913,
      "cation": 5914,
      "seja": 5915,
      "koneet": 5916,
      "Ġheti": 5917,
      "Ġvide": 5918,
      "Ġsellaisina": 5919,
      "joista": 5920,
      "Ġlaadun": 5921,
      "Ġrahoitusta": 5922,
      "61": 5923,
      "Ġindikaatto": 5924,
      "Ġverotus": 5925,
      "Ġperustella": 5926,
      "tas": 5927,
      "Ġassosiaation": 5928,
      "Ġtaydenta": 5929,
      "Ġjau": 5930,
      "79": 5931,
      "pes": 5932,
      "teetti": 5933,
      "Ġtac": 5934,
      "72": 5935,
      "Ġsaataa": 5936,
      "Ġmuutosta": 5937,
      "Ġkartell": 5938,
      "Ġtoimivaltaan": 5939,
      "Ġannettua": 5940,
      "aatio": 5941,
      "Ġloppuun": 5942,
      "jasenvalti": 5943,
      "Ġpohja": 5944,
      "Ġinvestoin": 5945,
      "Ġperustamissopim": 5946,
      "eme": 5947,
      "Ġtavaramerkit": 5948,
      "Ġehtojen": 5949,
      "Ġmyontamis": 5950,
      "Ġtarjoamisen": 5951,
      "Ġvaikuttavat": 5952,
      "Ġarviointiperuste": 5953,
      "Ġtakia": 5954,
      "siir": 5955,
      "010": 5956,
      "Ġsopimuksella": 5957,
      "Ġrahoitusos": 5958,
      "Ġkoulutuksen": 5959,
      "Ġ140": 5960,
      "Ġsaatettu": 5961,
      "Ġpiir": 5962,
      "Ġassosiaati": 5963,
      "Ġvarsin": 5964,
      "Ġtehdyt": 5965,
      "Ġmln": 5966,
      "Ġehkaise": 5967,
      "Ġmuistutettava": 5968,
      "Ġnaisten": 5969,
      "Ġkertaa": 5970,
      "Ġvarainhoito": 5971,
      "Ġvaliseen": 5972,
      "Ġihmisoikeus": 5973,
      "Ġilmoittanut": 5974,
      "Ġetujen": 5975,
      "Ġposti": 5976,
      "Ġkotima": 5977,
      "Ġsol": 5978,
      "boratori": 5979,
      "udella": 5980,
      "Ġcha": 5981,
      "Ġvelvollisuutta": 5982,
      "Ġadmin": 5983,
      "Ġtaytettava": 5984,
      "uutena": 5985,
      "Ġvoitava": 5986,
      "Ġkeskina": 5987,
      "lien": 5988,
      "tyjen": 5989,
      "Ġmuilla": 5990,
      "Ġperustana": 5991,
      "Ġkertomuksen": 5992,
      "Ġlentoase": 5993,
      "Ġ720": 5994,
      "Ġkansantasa": 5995,
      "veron": 5996,
      "Ġvoitto": 5997,
      "ved": 5998,
      "vit": 5999,
      "Ġdir": 6000,
      "tyypp": 6001,
      "Ġtorju": 6002,
      "gon": 6003,
      "Ġkorvauksen": 6004,
      "Ġmista": 6005,
      "Ġviin": 6006,
      "Ġafri": 6007,
      "Ġyllapita": 6008,
      "Ġantamaan": 6009,
      "Ġtuottajat": 6010,
      "Ġsuoritetaan": 6011,
      "Ġkumoamista": 6012,
      "tuneet": 6013,
      "vos": 6014,
      "Ġtuomiosta": 6015,
      "raken": 6016,
      "Ġpito": 6017,
      "Ġ1985": 6018,
      "Ġmihin": 6019,
      "Ġliian": 6020,
      "Ġheiken": 6021,
      "Ġensiksi": 6022,
      "tron": 6023,
      "Ġmuodostaa": 6024,
      "Ġtehokkaasti": 6025,
      "Ġottaminen": 6026,
      "Ġvastuun": 6027,
      "Ġvastapuol": 6028,
      "Ġhii": 6029,
      "Ġyhteytta": 6030,
      "try": 6031,
      "Ġ#": 6032,
      "Ġsub": 6033,
      "tymis": 6034,
      "Ġpolkumyynnin": 6035,
      "Ġurhe": 6036,
      "Ġpyytaneen": 6037,
      "oikeudet": 6038,
      "rom": 6039,
      "Ġbra": 6040,
      "Ġsidosryh": 6041,
      "Ġtarkistu": 6042,
      "Ġjapan": 6043,
      "Ġeuropean": 6044,
      "Ġselvaa": 6045,
      "ui": 6046,
      "happo": 6047,
      "utunut": 6048,
      "Ġund": 6049,
      "Ġkell": 6050,
      "vaiku": 6051,
      "ree": 6052,
      "Ġvin": 6053,
      "Ġhuomatta": 6054,
      "Ġliittyvaa": 6055,
      "Ġimpor": 6056,
      "Ġperuutta": 6057,
      "voitta": 6058,
      "Ġterro": 6059,
      "liikenne": 6060,
      "Ġpurka": 6061,
      "Ġviii": 6062,
      "Ġpuheenjohtajan": 6063,
      "Ġalankomaat": 6064,
      "verkon": 6065,
      "Ġriipp": 6066,
      "69": 6067,
      "Ġtukee": 6068,
      "Ġvientitu": 6069,
      "Ġkumotaan": 6070,
      "tuomioistuimen": 6071,
      "Ġ138": 6072,
      "Ġkriteer": 6073,
      "Ġtilannetta": 6074,
      "Ġkiire": 6075,
      "ymparis": 6076,
      "Ġfinal": 6077,
      "63": 6078,
      "Ġjatettava": 6079,
      "rajoi": 6080,
      "Ġjohdonmukais": 6081,
      "alaa": 6082,
      "Ġoikeudellista": 6083,
      "Ġvirheen": 6084,
      "Ġkuudes": 6085,
      "opaa": 6086,
      "los": 6087,
      "tiset": 6088,
      "Ġalkaa": 6089,
      "Ġmenettelyja": 6090,
      "Ġmetyyli": 6091,
      "nissa": 6092,
      "Ġsoveltamiseksi": 6093,
      "Ġsuom": 6094,
      "Ġperusteluvel": 6095,
      "Ġ177": 6096,
      "Ġmieli": 6097,
      "Ġche": 6098,
      "Ġkorvausta": 6099,
      "Ġamer": 6100,
      "Ġmoottoriajoneuv": 6101,
      "osasto": 6102,
      "Ġeurop": 6103,
      "Ġmaaritelma": 6104,
      "Ġschengenin": 6105,
      "Ġomaisuus": 6106,
      "Ġtosiseikkoja": 6107,
      "Ġperustaa": 6108,
      "Ġartiklasta": 6109,
      "elii": 6110,
      "lid": 6111,
      "Ġmonim": 6112,
      "Ġviittaus": 6113,
      "Ġkauppaan": 6114,
      "Ġtoissijaisesti": 6115,
      "laitos": 6116,
      "Ġura": 6117,
      "Ġadministra": 6118,
      "Ġverovelvollis": 6119,
      "Ġolosuhteet": 6120,
      "Ġvalisena": 6121,
      "Ġbrutto": 6122,
      "Ġkalastuksen": 6123,
      "tuomioistuin": 6124,
      "kayttoa": 6125,
      "Ġsijainti": 6126,
      "Ġvaroja": 6127,
      "eral": 6128,
      "Ġáĥ": 6129,
      "isyys": 6130,
      "Ġetela": 6131,
      "Ġyleisten": 6132,
      "Ġtullin": 6133,
      "67": 6134,
      "Ġsaatto": 6135,
      "Ġsyyt": 6136,
      "iso": 6137,
      "Ġkasitellaan": 6138,
      "unal": 6139,
      "Ġtuotteisiin": 6140,
      "Ġyhteenlii": 6141,
      "Ġsisaisen": 6142,
      "telee": 6143,
      "Ġtuensaa": 6144,
      "Ġvaatimustenmukaisuuden": 6145,
      "Ġoikeas": 6146,
      "rei": 6147,
      "Ġsaataville": 6148,
      "Ġluetelmakohd": 6149,
      "Ġlisata": 6150,
      "Ġoikeussuoja": 6151,
      "Ġ2574": 6152,
      "utuvat": 6153,
      "Îº": 6154,
      "Ġlla": 6155,
      "Ġtoteutettu": 6156,
      "kkeisiin": 6157,
      "Ġliitan": 6158,
      "Ġmahdollisuuden": 6159,
      "Ġvenajan": 6160,
      "ima": 6161,
      "eihin": 6162,
      "Ġtoisistaan": 6163,
      "Ġedellytys": 6164,
      "Ġauton": 6165,
      "Ġantamalla": 6166,
      "64": 6167,
      "Ġregion": 6168,
      "pyynn": 6169,
      "ĠâĪĴ": 6170,
      "Ġcps": 6171,
      "Ġlisay": 6172,
      "Ġparantaa": 6173,
      "Ġjokaisen": 6174,
      "Ġ1986": 6175,
      "inan": 6176,
      "Ġratkaisuehdotus": 6177,
      "Ġtech": 6178,
      "Ġsopimuksia": 6179,
      "Ġpohjalta": 6180,
      "Ġtoimitettu": 6181,
      "Ġ234": 6182,
      "Ġjasenvaltioita": 6183,
      "ish": 6184,
      "Ġ145": 6185,
      "Ġsamanaikaisesti": 6186,
      "Ġpoistu": 6187,
      "Ġkustannuksia": 6188,
      "Ġtis": 6189,
      "vilta": 6190,
      "Ġneljannen": 6191,
      "Ġajanjakson": 6192,
      "Ġteknisen": 6193,
      "Ġhyvaksyi": 6194,
      "Ġratkaisun": 6195,
      "Ġkayttayty": 6196,
      "Ġtoiselle": 6197,
      "Ġyhteista": 6198,
      "oryh": 6199,
      "toimisto": 6200,
      "Ġmielta": 6201,
      "Ġvelvoitteiden": 6202,
      "Ġerilaisia": 6203,
      "Ġmaataloustuotteiden": 6204,
      "Ġkohtuutto": 6205,
      "aalin": 6206,
      "Ġtayta": 6207,
      "Ġkeskenaan": 6208,
      "loissa": 6209,
      "Ġveden": 6210,
      "Ġvaih": 6211,
      "Ġtarkoitettuun": 6212,
      "Ġerottamis": 6213,
      "Ġmahdollistaa": 6214,
      "Ġsiipi": 6215,
      "sing": 6216,
      "Ġyliop": 6217,
      "ttaviin": 6218,
      "Ġpaattymista": 6219,
      "opa": 6220,
      "Ġ111": 6221,
      "udu": 6222,
      "hteen": 6223,
      "Ġjulkisasiamiehen": 6224,
      "tiedoksi": 6225,
      "Ġkur": 6226,
      "Ġvelvoitta": 6227,
      "ettava": 6228,
      "Ġpes": 6229,
      "Ġtalousarvio": 6230,
      "Õ¥": 6231,
      "tykset": 6232,
      "Ġsec": 6233,
      "Ġkiinasta": 6234,
      "Ġantamista": 6235,
      "Ġnayttaa": 6236,
      "Ġmyynnin": 6237,
      "mmasta": 6238,
      "Ġhalua": 6239,
      "keinon": 6240,
      "Ġradio": 6241,
      "Ġrajoitukset": 6242,
      "Ġluonteen": 6243,
      "jar": 6244,
      "pide": 6245,
      "Ġtoteuttamista": 6246,
      "Ġkolmansista": 6247,
      "Ġelim": 6248,
      "Ġoikeudenkayntikuluista": 6249,
      "zz": 6250,
      "vaatimus": 6251,
      "Ġkorjaus": 6252,
      "mmalla": 6253,
      "Ġlahde": 6254,
      "yritykset": 6255,
      "Ġosien": 6256,
      "Ġ135": 6257,
      "Ġarvioitu": 6258,
      "sivat": 6259,
      "Ġsuojelun": 6260,
      "Ġhoris": 6261,
      "Ġetuus": 6262,
      "Ġvalmistukseen": 6263,
      "osopimuksen": 6264,
      "kut": 6265,
      "Ġhyvaksymis": 6266,
      "Ġsaannosta": 6267,
      "Ġpaatoslaus": 6268,
      "Ġsaanto": 6269,
      "Ġrikkomisesta": 6270,
      "Ġkaytettavat": 6271,
      "ulii": 6272,
      "Ġasianomaiset": 6273,
      "Ġtulevat": 6274,
      "Ġje": 6275,
      "Ġsaannollisesti": 6276,
      "Ġhyvaksynta": 6277,
      "uksi": 6278,
      "Ġkoostuu": 6279,
      "Ġpaine": 6280,
      "Ġjohdu": 6281,
      "Ġtiettyihin": 6282,
      "teluun": 6283,
      "Ġ267": 6284,
      "Ġkehittaminen": 6285,
      "Ġtoisiin": 6286,
      "udet": 6287,
      "Ġrajaty": 6288,
      "Ġimo": 6289,
      "Ġtilintarkastus": 6290,
      "tama": 6291,
      "Ġoper": 6292,
      "Ġmuutettava": 6293,
      "Ġ160": 6294,
      "Ġvaitetiedoksi": 6295,
      "Ġhallinnoi": 6296,
      "Ġyhdenvertaisen": 6297,
      "ulun": 6298,
      "Ġ129": 6299,
      "sar": 6300,
      "Ġrasi": 6301,
      "Ġaus": 6302,
      "Ġtutkimusajanjakson": 6303,
      "Ð¸Ñ": 6304,
      "Ġpalvelus": 6305,
      "Ġvaitetta": 6306,
      "ttaessaan": 6307,
      "Ġvaline": 6308,
      "tina": 6309,
      "Ġpalveluntarjoa": 6310,
      "utumisen": 6311,
      "Ġotsa": 6312,
      "euroopan": 6313,
      "pel": 6314,
      "Ġnostanut": 6315,
      "Ġunkarin": 6316,
      "veto": 6317,
      "Ġoikeusjarjes": 6318,
      "Ġhyvan": 6319,
      "direktiivin": 6320,
      "Ġmilloin": 6321,
      "Ġsiirtaa": 6322,
      "Ġkehittamis": 6323,
      "Ġ050": 6324,
      "Ġvaliaikaisesti": 6325,
      "Ġ121": 6326,
      "Ġkysyn": 6327,
      "Ġoikeuskaytannosta": 6328,
      "Ġoikeasuhte": 6329,
      "Ġpei": 6330,
      "iitti": 6331,
      "Ġmenettelysta": 6332,
      "Ġtilanteeseen": 6333,
      "Ġsovellettu": 6334,
      "Ġtee": 6335,
      "Ġkielletaan": 6336,
      "Ġsaannoksista": 6337,
      "annus": 6338,
      "Ġlausunto": 6339,
      "Ġasetukseen": 6340,
      "mpien": 6341,
      "Ġarvoa": 6342,
      "Ġvastainen": 6343,
      "Ġkoi": 6344,
      "elvi": 6345,
      "Ġtoistu": 6346,
      "Ġkansalais": 6347,
      "Ġtekninen": 6348,
      "Ġluokan": 6349,
      "suunnitelman": 6350,
      "tant": 6351,
      "Ġcoun": 6352,
      "rahoi": 6353,
      "paivana": 6354,
      "Ġ440": 6355,
      "Ġhallinton": 6356,
      "sit": 6357,
      "Ġ850": 6358,
      "annossa": 6359,
      "Ġtodistuksen": 6360,
      "Ġolj": 6361,
      "Ġtodella": 6362,
      "Ġannettuun": 6363,
      "Ġtullikoode": 6364,
      "Ġtribunal": 6365,
      "ansa": 6366,
      "Ġselke": 6367,
      "laaju": 6368,
      "Ġosallistuminen": 6369,
      "Ġhenkiloita": 6370,
      "Ġmaaritetty": 6371,
      "Ġmaarayksella": 6372,
      "utuo": 6373,
      "Ġjaahdy": 6374,
      "Ġasemassa": 6375,
      "Ġennakkoratkaisukysymys": 6376,
      "Ġif": 6377,
      "Ġsaattamista": 6378,
      "Ġtehtyjen": 6379,
      "Ġoikeudellisesti": 6380,
      "Ġpun": 6381,
      "ero": 6382,
      "Ġennakkoratkaisupyynnon": 6383,
      "pit": 6384,
      "neiden": 6385,
      "Ġcode": 6386,
      "istamisen": 6387,
      "Ġopiskeli": 6388,
      "Ġtaloudellisia": 6389,
      "Ġenimmaismaara": 6390,
      "Ġasiayhte": 6391,
      "Ġmahdollinen": 6392,
      "siakirjan": 6393,
      "hallinnon": 6394,
      "Ġalt": 6395,
      "Ġmuuten": 6396,
      "Ġviranomaiselle": 6397,
      "Ġtii": 6398,
      "Ġaloittaa": 6399,
      "97": 6400,
      "Ġepasuo": 6401,
      "Ġkomponen": 6402,
      "pea": 6403,
      "Ġ611": 6404,
      "Ġvoisivat": 6405,
      "Ġtarkastelun": 6406,
      "Ġexcl": 6407,
      "telli": 6408,
      "Ġvaes": 6409,
      "Ġmyontamista": 6410,
      "Ġmonen": 6411,
      "sosa": 6412,
      "Ġosake": 6413,
      "rapor": 6414,
      "Ġdec": 6415,
      "Ġnational": 6416,
      "aatto": 6417,
      "Ġvuoteen": 6418,
      "arviointi": 6419,
      "Ġperiaatteita": 6420,
      "Ġtarkastusten": 6421,
      "virka": 6422,
      "Ġkatta": 6423,
      "Ġlapsen": 6424,
      "Ġvalttamatonta": 6425,
      "mootto": 6426,
      "Ġkumoamaan": 6427,
      "Ġasianmukainen": 6428,
      "Ġgran": 6429,
      "Ġmalta": 6430,
      "Ġkiintio": 6431,
      "Ġvaliaikaisen": 6432,
      "pur": 6433,
      "Ġsim": 6434,
      "Ġmur": 6435,
      "Ġluettelossa": 6436,
      "Ġhenkiloille": 6437,
      "Ġsekakomitea": 6438,
      "Ġtulosten": 6439,
      "wi": 6440,
      "9900": 6441,
      "ilun": 6442,
      "ergia": 6443,
      "Ġvaar": 6444,
      "Ġjalke": 6445,
      "Ġsakko": 6446,
      "kuo": 6447,
      "Ġallekirjoi": 6448,
      "Ġtestaus": 6449,
      "Ġperiaatteet": 6450,
      "istan": 6451,
      "Ġvaluutta": 6452,
      "Ġkymmenen": 6453,
      "Ġtyota": 6454,
      "Ġmonivuotisen": 6455,
      "Ġjy": 6456,
      "Ġtoimielimen": 6457,
      "Ġtasmennetaan": 6458,
      "tetusta": 6459,
      "Ġ350": 6460,
      "Ġnaet": 6461,
      "Ġohjaa": 6462,
      "tarkas": 6463,
      "Ġkulutus": 6464,
      "Ġ139": 6465,
      "imiel": 6466,
      "Ġusein": 6467,
      "Ġkreikka": 6468,
      "Ġ133": 6469,
      "Ġsanoen": 6470,
      "Ġharkin": 6471,
      "Ġtapahtunut": 6472,
      "elman": 6473,
      "Ġhaltijan": 6474,
      "lly": 6475,
      "Ġ122": 6476,
      "Ġtarkoituksiin": 6477,
      "Ġhankkeiden": 6478,
      "Ġaikaisempi": 6479,
      "Ġtukikelpo": 6480,
      "100": 6481,
      "Ġkaannos": 6482,
      "Ġsula": 6483,
      "Ġyhdysval": 6484,
      "Ġsyrjinta": 6485,
      "Ġkuluttajien": 6486,
      "Ġprop": 6487,
      "Ġpalka": 6488,
      "Ġaiheellista": 6489,
      "Ġtodisteita": 6490,
      "Ġvaliaikainen": 6491,
      "Ġkumppanuus": 6492,
      "Ġtoiminn": 6493,
      "ons": 6494,
      "Ġfur": 6495,
      "Ġasiamiehet": 6496,
      "Ġtuottajan": 6497,
      "luoki": 6498,
      "Ġvahvistetun": 6499,
      "lasku": 6500,
      "Ġalun": 6501,
      "Ġyhtioiden": 6502,
      "Ġmaarasta": 6503,
      "Ġkysymyksessa": 6504,
      "tettavia": 6505,
      "pane": 6506,
      "sina": 6507,
      "Ġtulkinnasta": 6508,
      "Ġvastata": 6509,
      "Ġkalen": 6510,
      "Ġtehokkaan": 6511,
      "Ġsaksassa": 6512,
      "Ġmallit": 6513,
      "Ġhallinnollisten": 6514,
      "liiton": 6515,
      "Ġsh": 6516,
      "Ġvaliaikaista": 6517,
      "dt": 6518,
      "Ġyhdistetty": 6519,
      "lahe": 6520,
      "Ġpuutte": 6521,
      "Ġjasenet": 6522,
      "Ġtulisi": 6523,
      "Ġoikeustapauskokoelmassa": 6524,
      "Ġtulkita": 6525,
      "Ġarvioita": 6526,
      "maksut": 6527,
      "Ġpla": 6528,
      "Ġkaikilla": 6529,
      "Ġpari": 6530,
      "tea": 6531,
      "Ġbulgarian": 6532,
      "Ġ141": 6533,
      "oinnista": 6534,
      "Ġhairi": 6535,
      "Ġelinkeinon": 6536,
      "vointi": 6537,
      "Ġkansainvalinen": 6538,
      "Ġportuga": 6539,
      "eni": 6540,
      "miston": 6541,
      "Ġviisumi": 6542,
      "Ġnaille": 6543,
      "bro": 6544,
      "Ġmyonnettava": 6545,
      "Ġvalmisteet": 6546,
      "Ġjarjestelmaan": 6547,
      "Ġ230": 6548,
      "Ġtulevan": 6549,
      "Ġ388": 6550,
      "teli": 6551,
      "Ġsuojelu": 6552,
      "Ġlaadittu": 6553,
      "Ġkirjeella": 6554,
      "Ġantama": 6555,
      "Ġtarkastuksen": 6556,
      "Ġoletta": 6557,
      "Ġhuomautus": 6558,
      "Ġsaatava": 6559,
      "kanne": 6560,
      "Ġkah": 6561,
      "Ġraportointi": 6562,
      "Ġlaji": 6563,
      "hdi": 6564,
      "lus": 6565,
      "Ġmerkityksellinen": 6566,
      "Ġvetoa": 6567,
      "yhtioiden": 6568,
      "Ġspe": 6569,
      "Ġominaisuudet": 6570,
      "Ġtarkasteltava": 6571,
      "Ġmassa": 6572,
      "Ġosto": 6573,
      "Ġsulje": 6574,
      "edellytykset": 6575,
      "saanto": 6576,
      "ens": 6577,
      "Ġantavat": 6578,
      "Ġlainsaataja": 6579,
      "Ġmalli": 6580,
      "Ġosoittavat": 6581,
      "Ġvuoro": 6582,
      "kene": 6583,
      "leja": 6584,
      "Ġrikkon": 6585,
      "maksun": 6586,
      "ments": 6587,
      "suhteen": 6588,
      "Ġaineita": 6589,
      "my": 6590,
      "Ġyhteyden": 6591,
      "Ġmuodostavat": 6592,
      "ketj": 6593,
      "etun": 6594,
      "utumista": 6595,
      "Ġositta": 6596,
      "isty": 6597,
      "Ġparlamentille": 6598,
      "gos": 6599,
      "Ġkoskevalla": 6600,
      "Ġ180": 6601,
      "Ġtarkem": 6602,
      "tetussa": 6603,
      "Ġaloitteen": 6604,
      "Ġmaksuja": 6605,
      "Ġâī": 6606,
      "hai": 6607,
      "Ġsuomi": 6608,
      "Ġluottamuksell": 6609,
      "Ġsokeri": 6610,
      "saantoja": 6611,
      "ÏĤ": 6612,
      "Ġpaattyy": 6613,
      "kiinti": 6614,
      "lar": 6615,
      "Ġlieven": 6616,
      "Ġsuoritettu": 6617,
      "tamalla": 6618,
      "Ġtaata": 6619,
      "Ġkerto": 6620,
      "Ġslovaki": 6621,
      "Ġnimikkeiston": 6622,
      "puu": 6623,
      "dioksi": 6624,
      "Ġkeskuspankit": 6625,
      "Ġjulkisyhteisot": 6626,
      "Ġehto": 6627,
      "Ġtaloudelliset": 6628,
      "Ġkaksin": 6629,
      "Ġarvioidaan": 6630,
      "Ġsuojan": 6631,
      "kymmen": 6632,
      "Ġrautatie": 6633,
      "Ġehty": 6634,
      "Ġkansanterve": 6635,
      "Ġtervey": 6636,
      "Ġvirkamieh": 6637,
      "valtuu": 6638,
      "Ġ189": 6639,
      "Ġtehokas": 6640,
      "Ġtekemisesta": 6641,
      "Ïī": 6642,
      "Ġluxemburgin": 6643,
      "Ġseurata": 6644,
      "Ġ124": 6645,
      "Ġorg": 6646,
      "Ġvahingonkorvaus": 6647,
      "materi": 6648,
      "Ġmaaseudun": 6649,
      "bs": 6650,
      "tessaan": 6651,
      "jarjestelmat": 6652,
      "Ġperusteita": 6653,
      "keskus": 6654,
      "Ġvol": 6655,
      "Ġteknisia": 6656,
      "Ġyleissopimus": 6657,
      "Ġpaatella": 6658,
      "Ġperustelujen": 6659,
      "Ġhallinnollisia": 6660,
      "Ġnr": 6661,
      "Ġlennon": 6662,
      "telyn": 6663,
      "Ġkoskemaan": 6664,
      "Ġpoistaminen": 6665,
      "Ġvaatimuksista": 6666,
      "Ġelinkeinonharjoitta": 6667,
      "Ġsopivat": 6668,
      "ph": 6669,
      "Ġlasi": 6670,
      "jinaan": 6671,
      "Ġhien": 6672,
      "kkiin": 6673,
      "Ġnostaa": 6674,
      "Ġarvioinnissa": 6675,
      "yyden": 6676,
      "Ġvelvollinen": 6677,
      "Ġholding": 6678,
      "Ġmallin": 6679,
      "Ġpoistaa": 6680,
      "200": 6681,
      "Ġkuinka": 6682,
      "tera": 6683,
      "Ġkilpailuk": 6684,
      "Ġ127": 6685,
      "Ġarvot": 6686,
      "Ġpakkaus": 6687,
      "Ġprof": 6688,
      "rekiste": 6689,
      "yle": 6690,
      "Ġkulttuuri": 6691,
      "Ġsr": 6692,
      "paikkaa": 6693,
      "Ġikaan": 6694,
      "Ġoikea": 6695,
      "toimista": 6696,
      "Ġoikeussaannot": 6697,
      "Ġkayttavat": 6698,
      "Ġsaapunut": 6699,
      "Ġkansalliselle": 6700,
      "nais": 6701,
      "Ġsiirretaan": 6702,
      "Ġintegr": 6703,
      "luonte": 6704,
      "Ġmerkittavia": 6705,
      "tosuo": 6706,
      "Ġerityinen": 6707,
      "ard": 6708,
      "haan": 6709,
      "Ġapua": 6710,
      "Ġsyyllis": 6711,
      "Ġkantajaa": 6712,
      "Ġtallen": 6713,
      "Ġindustri": 6714,
      "Ġosallistumista": 6715,
      "Ġharjoite": 6716,
      "yhti": 6717,
      "vaatimusten": 6718,
      "kayttoon": 6719,
      "Ġluottosuoja": 6720,
      "isointi": 6721,
      "Ġtallaisessa": 6722,
      "Ġ134": 6723,
      "Ġsisallon": 6724,
      "istoa": 6725,
      "Ġ730": 6726,
      "Ġmuualle": 6727,
      "Ġou": 6728,
      "Ġoikeusa": 6729,
      "Ġhttp": 6730,
      "Ġsur": 6731,
      "Ġvuosien": 6732,
      "Ġkm": 6733,
      "inf": 6734,
      "Ġvaruste": 6735,
      "keten": 6736,
      "Ġaani": 6737,
      "Ġsallitaan": 6738,
      "Ġkansalaisia": 6739,
      "Ġtuomioistui": 6740,
      "Ġrahoituskehyksen": 6741,
      "Ġnostama": 6742,
      "Ġtoimitetaan": 6743,
      "Ġerityiset": 6744,
      "tuksena": 6745,
      "Ġosia": 6746,
      "Ġhyvaksymisesta": 6747,
      "Ġelaimen": 6748,
      "Ġajaksi": 6749,
      "Ġalanimikke": 6750,
      "Ġrekisteroid": 6751,
      "Ġmaaritella": 6752,
      "Ġkirjallisesti": 6753,
      "Ġterroris": 6754,
      "Ġneuvoa": 6755,
      "Ġrasva": 6756,
      "siakirja": 6757,
      "Ġluvussa": 6758,
      "jilla": 6759,
      "Ġpaasta": 6760,
      "paall": 6761,
      "Ġalkoholijuo": 6762,
      "Ġsairaus": 6763,
      "Ġteknii": 6764,
      "Ġjuridi": 6765,
      "wo": 6766,
      "Ġjokainen": 6767,
      "Ġvuodessa": 6768,
      "Ġimportant": 6769,
      "onsa": 6770,
      "Ġhallinta": 6771,
      "Ġjattanyt": 6772,
      "llaa": 6773,
      "Ġpalvelukseen": 6774,
      "Ġmaaria": 6775,
      "Ġ610": 6776,
      "Ġpuola": 6777,
      "Ġmaksetaan": 6778,
      "omais": 6779,
      "Ġtehokka": 6780,
      "Ġvilpi": 6781,
      "Ġ1977": 6782,
      "Ġmuodostu": 6783,
      "Ġtarkastelujaks": 6784,
      "riita": 6785,
      "Ġyhdistyneiden": 6786,
      "tteina": 6787,
      "jarjeston": 6788,
      "Ġseuraaviin": 6789,
      "Ġkalenteri": 6790,
      "Ġvelvoitteita": 6791,
      "Ġonn": 6792,
      "maarien": 6793,
      "Ġkehittamisen": 6794,
      "Ġjatetaan": 6795,
      "raho": 6796,
      "Ġpet": 6797,
      "Ġnopeasti": 6798,
      "publi": 6799,
      "Ġetuyhte": 6800,
      "Ġunionista": 6801,
      "kolla": 6802,
      "Ġtunte": 6803,
      "ysten": 6804,
      "Ġetuja": 6805,
      "Ġmenojen": 6806,
      "Ġrahan": 6807,
      "Ġnous": 6808,
      "chen": 6809,
      "versi": 6810,
      "Ġkumottava": 6811,
      "Ġpow": 6812,
      "Ġtapaus": 6813,
      "Ġfen": 6814,
      "Ġasetta": 6815,
      "Ġsaadoksen": 6816,
      "marginaali": 6817,
      "Ġ128": 6818,
      "Ġtoimista": 6819,
      "io": 6820,
      "Ġsuhteellisuusperiaatteen": 6821,
      "Ġalkuperais": 6822,
      "Ġaikaisemmin": 6823,
      "Ġluottamuksen": 6824,
      "Ġ218": 6825,
      "Ġkokouksen": 6826,
      "Ġtoisiinsa": 6827,
      "ettujen": 6828,
      "Ġasianmukaiset": 6829,
      "Ġvaihte": 6830,
      "pari": 6831,
      "Ġkielto": 6832,
      "Ġthis": 6833,
      "Ġanalyysi": 6834,
      "Ġnorjan": 6835,
      "Ġlapsi": 6836,
      "Ġtutustu": 6837,
      "Ġtehtyyn": 6838,
      "oil": 6839,
      "Ġtullita": 6840,
      "Ġelinten": 6841,
      "kassa": 6842,
      "Ġpil": 6843,
      "Ġmaarien": 6844,
      "Ġyhdistetyn": 6845,
      "Ġhallintovirka": 6846,
      "Ġvapaan": 6847,
      "vaikutuksia": 6848,
      "Ġtietyista": 6849,
      "moon": 6850,
      "Ġ132": 6851,
      "Ġabs": 6852,
      "Ġtuomioon": 6853,
      "Ġpoiketen": 6854,
      "menettelyyn": 6855,
      "Ġparemmin": 6856,
      "lastus": 6857,
      "Ġ157": 6858,
      "pora": 6859,
      "iten": 6860,
      "Ġajankohtana": 6861,
      "Ġanalog": 6862,
      "Ġperustuvaa": 6863,
      "suun": 6864,
      "Ġalkuperainen": 6865,
      "llisuutta": 6866,
      "Ġ131": 6867,
      "Ġod": 6868,
      "isempi": 6869,
      "llisilla": 6870,
      "siassa": 6871,
      "Ġ700": 6872,
      "non": 6873,
      "arvon": 6874,
      "Ġsamoja": 6875,
      "Ġrajatyli": 6876,
      "Ġkansakuntien": 6877,
      "maksujen": 6878,
      "Ġkemikaa": 6879,
      "Ġinfrastruktuu": 6880,
      "Ġrajoissa": 6881,
      "Ġkysely": 6882,
      "Ġantaminen": 6883,
      "Ġmaahantuo": 6884,
      "Ġraportoi": 6885,
      "Ġantamis": 6886,
      "Î»": 6887,
      "Ġmaarittely": 6888,
      "Ġmillaan": 6889,
      "Ġsarakkeessa": 6890,
      "Ġusko": 6891,
      "Ġcommun": 6892,
      "Ġalueet": 6893,
      "Ġpaatoksia": 6894,
      "Ġkriisinratkais": 6895,
      "mattomyy": 6896,
      "Ġtaulukossa": 6897,
      "pyyn": 6898,
      "ttinen": 6899,
      "pl": 6900,
      "Ġvakuudet": 6901,
      "laitteiden": 6902,
      "Ġvahvistettuja": 6903,
      "Ġtulojen": 6904,
      "Ġtekstiilia": 6905,
      "Ġlisatietoja": 6906,
      "Ġkehittamista": 6907,
      "Ġverotuksen": 6908,
      "suojaa": 6909,
      "Ġoikeusvarmuuden": 6910,
      "Ġlaadittava": 6911,
      "Ġelokuuta": 6912,
      "Ġluottojarjestelyt": 6913,
      "Ġetukateen": 6914,
      "Ġkohdalla": 6915,
      "Ġtyonantajan": 6916,
      "Ġromanian": 6917,
      "teissa": 6918,
      "Ġportugali": 6919,
      "Ġvahvisti": 6920,
      "Ġdeut": 6921,
      "Ġkansallisella": 6922,
      "Ġturvapaikka": 6923,
      "Ġtaytantoonpanoon": 6924,
      "Ġkasitetta": 6925,
      "Ġvapauden": 6926,
      "reita": 6927,
      "Ġjuridique": 6928,
      "Ġlevy": 6929,
      "Ġsika": 6930,
      "Ġnew": 6931,
      "Ġtarkoitetussa": 6932,
      "Ġehdotto": 6933,
      "Ġliikenn": 6934,
      "emein": 6935,
      "hka": 6936,
      "rr": 6937,
      "Ġvalimies": 6938,
      "Ġhyoty": 6939,
      "Ġmaailmanlaaju": 6940,
      "Ġkehitysta": 6941,
      "hl": 6942,
      "Ġvari": 6943,
      "Ġterveytta": 6944,
      "Ġotokseen": 6945,
      "Ġcompan": 6946,
      "Ġaikaisemman": 6947,
      "scha": 6948,
      "Ġviljeli": 6949,
      "innassa": 6950,
      "Ġjarjestelmien": 6951,
      "Ġpaivat": 6952,
      "Ġvalittajat": 6953,
      "Ġmyynn": 6954,
      "Ġavis": 6955,
      "Ġoliko": 6956,
      "dut": 6957,
      "Ġasiakas": 6958,
      "Ġalaan": 6959,
      "Ġteollisuuden": 6960,
      "Ġtarjouksen": 6961,
      "int": 6962,
      "Ġvapaata": 6963,
      "isal": 6964,
      "ÆĴ": 6965,
      "Ġnoudattaminen": 6966,
      "Ġkalastusmahdollis": 6967,
      "Ġsijaitsee": 6968,
      "Ġhintoja": 6969,
      "Ġperusteiden": 6970,
      "tei": 6971,
      "Ġmerkittavaa": 6972,
      "Ġesille": 6973,
      "riff": 6974,
      "Ġtapahtuvan": 6975,
      "vot": 6976,
      "Ġarvonlisaverod": 6977,
      "mekanis": 6978,
      "Ġpoytakirjassa": 6979,
      "Ġfinanssi": 6980,
      "Ġmac": 6981,
      "Ġviennin": 6982,
      "Ġlasna": 6983,
      "Ġolosuhteiden": 6984,
      "Ġmenettelyta": 6985,
      "Ġlahi": 6986,
      "huolto": 6987,
      "Ġbelgi": 6988,
      "Ġhedelma": 6989,
      "Ġlisattya": 6990,
      "Ġjatk": 6991,
      "Ġyksinoma": 6992,
      "fc": 6993,
      "Ġtullien": 6994,
      "Ġjatke": 6995,
      "etz": 6996,
      "Ġhanki": 6997,
      "Ġrikottu": 6998,
      "78": 6999,
      "jarjestelmassa": 7000,
      "ora": 7001,
      "Ġlueteltujen": 7002,
      "Ġtiedossa": 7003,
      "Ġland": 7004,
      "Ġhyotya": 7005,
      "Ġlakien": 7006,
      "Ġkiistaa": 7007,
      "Ġtodisteet": 7008,
      "Ġ169": 7009,
      "Ġeraan": 7010,
      "Ġalv": 7011,
      "meta": 7012,
      "Ġvelvoitettava": 7013,
      "Ġaino": 7014,
      "udan": 7015,
      "Ġavoin": 7016,
      "lam": 7017,
      "Ġvaad": 7018,
      "Ġkannan": 7019,
      "Î¼": 7020,
      "Ġ630": 7021,
      "Ġeritel": 7022,
      "osan": 7023,
      "tulli": 7024,
      "itraa": 7025,
      "Ġalkuperaisen": 7026,
      "Ġaiheutuu": 7027,
      "chten": 7028,
      "hankin": 7029,
      "Ġkuvio": 7030,
      "Ġhyvaksymista": 7031,
      "Ġyksiloi": 7032,
      "Ġnakokohd": 7033,
      "Ġliettuan": 7034,
      "Ġvakuudell": 7035,
      "Ġvedo": 7036,
      "Ġelektron": 7037,
      "Ġvaltu": 7038,
      "imo": 7039,
      "Ġvahvistetut": 7040,
      "Ġsaadettava": 7041,
      "Ġkiven": 7042,
      "Ġsmm": 7043,
      "Ġselkeasti": 7044,
      "neuvoston": 7045,
      "kosta": 7046,
      "Ġpoistettu": 7047,
      "paivaa": 7048,
      "ertom": 7049,
      "Ġmainitse": 7050,
      "kis": 7051,
      "Ġtehtavan": 7052,
      "Ġvall": 7053,
      "miny": 7054,
      "Ġmuodos": 7055,
      "anno": 7056,
      "Ġ148": 7057,
      "Ġvoimaantulosta": 7058,
      "Ġmuusta": 7059,
      "Ġsav": 7060,
      "Ġriittaa": 7061,
      "Ġtarkkaili": 7062,
      "Ġagen": 7063,
      "Ġrekisterista": 7064,
      "Ġkunta": 7065,
      "Ġsuuntaviivojen": 7066,
      "htia": 7067,
      "sian": 7068,
      "unut": 7069,
      "Ġtietosuo": 7070,
      "Ġgminy": 7071,
      "Ġindon": 7072,
      "kkia": 7073,
      "valin": 7074,
      "Ġosoittanut": 7075,
      "Ġvastaista": 7076,
      "Ġkerro": 7077,
      "Ġmaaritettava": 7078,
      "Ġkielte": 7079,
      "Ġaineet": 7080,
      "tety": 7081,
      "Ġkasitella": 7082,
      "Ġsitoumukset": 7083,
      "Ġliikkuvuutta": 7084,
      "Ġhuomautuksensa": 7085,
      "Ġika": 7086,
      "misella": 7087,
      "Ġtekevat": 7088,
      "Ġmaksettu": 7089,
      "Ġjalostus": 7090,
      "Ġvaatinut": 7091,
      "Ġ263": 7092,
      "elainten": 7093,
      "Ġtarjoaa": 7094,
      "Ġotettiin": 7095,
      "nia": 7096,
      "Ġmuodostuu": 7097,
      "Ġpaks": 7098,
      "Ġlakisaa": 7099,
      "Ġkysymykset": 7100,
      "Ġoikeudellisia": 7101,
      "Ġluu": 7102,
      "Ġ340": 7103,
      "pohja": 7104,
      "Ġtiivistelma": 7105,
      "Ġkayttamalla": 7106,
      "mpaan": 7107,
      "Ġdirektiiviin": 7108,
      "Ġkayttanyt": 7109,
      "Ġhallintovirkamies": 7110,
      "illaan": 7111,
      "Ġtavoitteita": 7112,
      "Ġneste": 7113,
      "Ġkahteen": 7114,
      "cts": 7115,
      "Ġesittamista": 7116,
      "ppo": 7117,
      "Ġhaittaa": 7118,
      "muksista": 7119,
      "Ġpubli": 7120,
      "menettelyjen": 7121,
      "bri": 7122,
      "ohjelma": 7123,
      "eminen": 7124,
      "Ġliity": 7125,
      "Ġhakea": 7126,
      "Ġvastaisesti": 7127,
      "og": 7128,
      "Ġtyydy": 7129,
      "Ġyleisessa": 7130,
      "Ġkysymyksia": 7131,
      "Ġmaro": 7132,
      "Ġerila": 7133,
      "Ġvastaamaan": 7134,
      "Ġmaissa": 7135,
      "tellyt": 7136,
      "Ġturvallisuutta": 7137,
      "Ġsis": 7138,
      "Ġpaalle": 7139,
      "Ġosaan": 7140,
      "jilta": 7141,
      "Ġmainittuun": 7142,
      "Ġ800": 7143,
      "Ġesitettyja": 7144,
      "Ġix": 7145,
      "Ġvastaanottava": 7146,
      "Ġehtoja": 7147,
      "Ġvastataan": 7148,
      "ĠâĮ": 7149,
      "Ġhoid": 7150,
      "Ġasetetut": 7151,
      "Ġyhteismarkkinoille": 7152,
      "toksen": 7153,
      "Ġensisijaisesti": 7154,
      "Ġhedelmat": 7155,
      "omaan": 7156,
      "Ġammatinharjoitta": 7157,
      "hel": 7158,
      "Ġyleison": 7159,
      "Ġsuuntautu": 7160,
      "Ġvarsina": 7161,
      "Ġ156": 7162,
      "iasta": 7163,
      "Ġ529900": 7164,
      "Ġvahimma": 7165,
      "kannan": 7166,
      "mattomista": 7167,
      "Ġmuutosten": 7168,
      "edu": 7169,
      "Ġvoitiin": 7170,
      "Ġsaatetaan": 7171,
      "Ġiden": 7172,
      "Ġjaan": 7173,
      "ttimet": 7174,
      "ite": 7175,
      "Ġantamasta": 7176,
      "Ġtarkastuksia": 7177,
      "Ġylimaara": 7178,
      "Õ¡Õ": 7179,
      "Ġpann": 7180,
      "Ġkayttaja": 7181,
      "Ġpaikkansa": 7182,
      "Ġmerkitty": 7183,
      "elleenien": 7184,
      "Ġasemaa": 7185,
      "Ġjalkim": 7186,
      "Ġ1983": 7187,
      "Ġsahkoisen": 7188,
      "Ġasianmukaista": 7189,
      "ilm": 7190,
      "Ġmiksi": 7191,
      "kehi": 7192,
      "Ġtalousarvion": 7193,
      "Ġsaattoi": 7194,
      "Ġsoveltamiseen": 7195,
      "ĠÂ°": 7196,
      "Ġvanhentu": 7197,
      "Ġhydro": 7198,
      "Ġ137": 7199,
      "Ġkayttajien": 7200,
      "Ġhelleenien": 7201,
      "Ġvastik": 7202,
      "tura": 7203,
      "Ġvaaristy": 7204,
      "tavien": 7205,
      "Ġpaaty": 7206,
      "Ġoikaisu": 7207,
      "Ġperusteena": 7208,
      "Ġvalitusperusteen": 7209,
      "Ġjaksossa": 7210,
      "jasenvaltion": 7211,
      "Ġinterventio": 7212,
      "ale": 7213,
      "Ġsuola": 7214,
      "mal": 7215,
      "Ġvuod": 7216,
      "Ġecua": 7217,
      "Ġliittotasavalta": 7218,
      "Ġhylattiin": 7219,
      "Ġtrq": 7220,
      "Õ«": 7221,
      "Ġhanta": 7222,
      "Ġvanh": 7223,
      "Ġvapaaseen": 7224,
      "Ġ900": 7225,
      "Ġpuuttuminen": 7226,
      "Ġ550": 7227,
      "Ġ170": 7228,
      "Ġvalillisesti": 7229,
      "Ġcommission": 7230,
      "vuudesta": 7231,
      "init": 7232,
      "Ġosapuolille": 7233,
      "yksikon": 7234,
      "Ġkahde": 7235,
      "eista": 7236,
      "intoihin": 7237,
      "Ġtukia": 7238,
      "Ġjollaisia": 7239,
      "Ġlatvian": 7240,
      "tuurin": 7241,
      "Ġluonnonvara": 7242,
      "Ġ722": 7243,
      "Ġtorjunta": 7244,
      "Ġpilaan": 7245,
      "Ġehdotuksesta": 7246,
      "Ġsaannoksissa": 7247,
      "Ġpresidentin": 7248,
      "Ġare": 7249,
      "perustetta": 7250,
      "Ġpetosten": 7251,
      "Ġyhtey": 7252,
      "mmalle": 7253,
      "Ġtelevisio": 7254,
      "Ġvaitetty": 7255,
      "Ġ1980": 7256,
      "Ġseikoista": 7257,
      "Ġtarkoitettuna": 7258,
      "Ġsanamuoto": 7259,
      "Ġilmaisu": 7260,
      "Ġpoikkeuksen": 7261,
      "Ġjasenvaltiolle": 7262,
      "Ġ149": 7263,
      "tyksesta": 7264,
      "isuudesta": 7265,
      "tuen": 7266,
      "Ġbis": 7267,
      "Ġluottolaitokset": 7268,
      "Ġeurooppala": 7269,
      "Ġitavalta": 7270,
      "etonta": 7271,
      "liikenteen": 7272,
      "kertom": 7273,
      "Ġilmaisulla": 7274,
      "Ġedustus": 7275,
      "Ġpolkumyynn": 7276,
      "taessa": 7277,
      "Ġalukset": 7278,
      "Ġedustajanaan": 7279,
      "tiivinen": 7280,
      "Ġosoittamaan": 7281,
      "Ġkappaleen": 7282,
      "Ġdelegoidun": 7283,
      "kustannusten": 7284,
      "kkeelle": 7285,
      "Ġtyohon": 7286,
      "Ġinde": 7287,
      "Ġkorvata": 7288,
      "Ġlanka": 7289,
      "wn": 7290,
      "Ġ143": 7291,
      "Ġratkaissut": 7292,
      "kiell": 7293,
      "liha": 7294,
      "Ġneuvottelut": 7295,
      "Ġinfor": 7296,
      "Ġmyontanyt": 7297,
      "Ġkarsi": 7298,
      "ohon": 7299,
      "vaatimuksia": 7300,
      "Ġtavaramerkkia": 7301,
      "Ġkyseiselle": 7302,
      "Ġyhdysvaltojen": 7303,
      "Ġvalvonnasta": 7304,
      "Ġpaikallis": 7305,
      "Ġaj": 7306,
      "Ġyritykselle": 7307,
      "Ġkokous": 7308,
      "Ġhuomi": 7309,
      "toksi": 7310,
      "ettua": 7311,
      "Ġverkon": 7312,
      "Ġravin": 7313,
      "vollisuus": 7314,
      "Ġtoimivaltaisille": 7315,
      "Ġslovakian": 7316,
      "ght": 7317,
      "Ġwor": 7318,
      "Ġsiirretty": 7319,
      "Ġdocu": 7320,
      "Ġruotsi": 7321,
      "Ġohjeet": 7322,
      "Ġartiklalla": 7323,
      "wan": 7324,
      "Ġsuunnittelu": 7325,
      "Ġ173": 7326,
      "Ñĥ": 7327,
      "Ġsuhde": 7328,
      "bl": 7329,
      "Ġolevalla": 7330,
      "Ġraporto": 7331,
      "Ġverk": 7332,
      "Ġkansalaisuus": 7333,
      "Ġlaskel": 7334,
      "ministerion": 7335,
      "Ġhanella": 7336,
      "Ġprosenttiin": 7337,
      "netty": 7338,
      "Ġtalousarvioon": 7339,
      "Ġhaluaa": 7340,
      "Ġtuoreet": 7341,
      "Ġvastaanottavan": 7342,
      "ong": 7343,
      "Ġluokitel": 7344,
      "Ġxii": 7345,
      "Ġpaina": 7346,
      "Ġsaadeta": 7347,
      "Ġyk": 7348,
      "meren": 7349,
      "Ġvuositta": 7350,
      "Ġ178": 7351,
      "burg": 7352,
      "luonn": 7353,
      "Ġjulkista": 7354,
      "tyksia": 7355,
      "yytta": 7356,
      "ÆĴÆĴ": 7357,
      "Ġsovellettavia": 7358,
      "Ġvaihta": 7359,
      "Ġtarkoitusta": 7360,
      "Ġ168": 7361,
      "Ġaiheutunut": 7362,
      "Ġtoimitti": 7363,
      "viranomaisille": 7364,
      "Ġmuutoin": 7365,
      "Ġtarkastukset": 7366,
      "kso": 7367,
      "Ġindones": 7368,
      "Ġgemein": 7369,
      "Ġvedon": 7370,
      "kerro": 7371,
      "ttojen": 7372,
      "miksi": 7373,
      "eja": 7374,
      "yp": 7375,
      "Ġkartellin": 7376,
      "palvelun": 7377,
      "midi": 7378,
      "gasta": 7379,
      "laki": 7380,
      "zen": 7381,
      "Ġyksikoiden": 7382,
      "Ġedes": 7383,
      "olj": 7384,
      "Ġtaud": 7385,
      "rean": 7386,
      "Ġmekanis": 7387,
      "Ġtasapaino": 7388,
      "Ġsivulii": 7389,
      "Ġottamiseksi": 7390,
      "Ġkaksinkerta": 7391,
      "Ġsihteer": 7392,
      "saado": 7393,
      "kr": 7394,
      "Ġtuet": 7395,
      "Ġlisays": 7396,
      "Ġkysymysta": 7397,
      "Ġmuunn": 7398,
      "Ġveh": 7399,
      "Ġharmonisointi": 7400,
      "mark": 7401,
      "Ġvarusta": 7402,
      "Ġ1984": 7403,
      "Ġmg": 7404,
      "Ġother": 7405,
      "Ġdelegoitu": 7406,
      "Ġmarkkinaos": 7407,
      "Ġkunnan": 7408,
      "Ġlaboratori": 7409,
      "Ġtodellinen": 7410,
      "Ġseu": 7411,
      "vyyden": 7412,
      "Ġjalleenmyy": 7413,
      "Ġvaltiossa": 7414,
      "Ġhuolto": 7415,
      "Ġyleisia": 7416,
      "Ġoikeussu": 7417,
      "Ġkustannus": 7418,
      "Ġsyo": 7419,
      "muoto": 7420,
      "hof": 7421,
      "Ġsopimuksiin": 7422,
      "Ġsellaisiin": 7423,
      "lista": 7424,
      "Ġvaikea": 7425,
      "Ġedellytyksista": 7426,
      "Ġrepubli": 7427,
      "saste": 7428,
      "Ġkansalaisen": 7429,
      "Ġtorjun": 7430,
      "Ġtehdyssa": 7431,
      "Ġtilavuus": 7432,
      "Ġlis": 7433,
      "Ġharjoittavat": 7434,
      "Ġoikein": 7435,
      "Ġ142": 7436,
      "innut": 7437,
      "Ġmerkityksell": 7438,
      "Ġkokouksessa": 7439,
      "Ġlopullisesti": 7440,
      "Ġharkintavalta": 7441,
      "Ġtyoskentely": 7442,
      "Ġaluksella": 7443,
      "Ġinstrumen": 7444,
      "Ġlippu": 7445,
      "Ġvaltuudet": 7446,
      "telmaa": 7447,
      "Ġehdotuksessa": 7448,
      "cat": 7449,
      "Ġosallistuvat": 7450,
      "toum": 7451,
      "anaan": 7452,
      "Ġtayty": 7453,
      "roista": 7454,
      "keskuksen": 7455,
      "Ġtilaa": 7456,
      "Ġsaadoksia": 7457,
      "Ġ1049": 7458,
      "Ġvelvoitteet": 7459,
      "Ġenglannin": 7460,
      "Ġkumman": 7461,
      "Ġ182": 7462,
      "Ġkuulumattomat": 7463,
      "Ġtonnika": 7464,
      "Ġtyosuhte": 7465,
      "Ġ060": 7466,
      "Ġriitauttaa": 7467,
      "Ġ999": 7468,
      "Ġ147": 7469,
      "Ġmikaan": 7470,
      "nos": 7471,
      "osapuol": 7472,
      "Ġkaytanto": 7473,
      "Ġbro": 7474,
      "Ġsve": 7475,
      "96": 7476,
      "Ġsaaneet": 7477,
      "chtenste": 7478,
      "itsi": 7479,
      "Ġpaasya": 7480,
      "Ġavi": 7481,
      "Ġpaivatyssa": 7482,
      "Ġlaissa": 7483,
      "Ġnot": 7484,
      "Ġverkk": 7485,
      "Ġpiti": 7486,
      "Ġrikosoikeudell": 7487,
      "Ġmuunto": 7488,
      "Ġalkuperanimitys": 7489,
      "osin": 7490,
      "Ġvalmistuksessa": 7491,
      "Ġomaa": 7492,
      "Ġpian": 7493,
      "koodi": 7494,
      "llisyys": 7495,
      "Ġmyohe": 7496,
      "Ġvalikoi": 7497,
      "turi": 7498,
      "Ġjasenvaltiota": 7499,
      "Ġmolemmat": 7500,
      "Ġperusteluvelvollis": 7501,
      "Ġsahkoposti": 7502,
      "yhdis": 7503,
      "Ġsw": 7504,
      "Ġkaasu": 7505,
      "Ġverovelvollisen": 7506,
      "Ġkirjaamoon": 7507,
      "omista": 7508,
      "Ġ310": 7509,
      "Ġtutkimusajanjaksolla": 7510,
      "Ġ190": 7511,
      "Ġvalim": 7512,
      "Ġkynn": 7513,
      "Ġarvio": 7514,
      "Ġtuomioistuimet": 7515,
      "ryhman": 7516,
      "Ġkasvu": 7517,
      "vahen": 7518,
      "Ġmaararahat": 7519,
      "Ġhelposti": 7520,
      "bjek": 7521,
      "hallinta": 7522,
      "Ġtuotteeseen": 7523,
      "kielinen": 7524,
      "Ġottamisen": 7525,
      "Ġresurssi": 7526,
      "Ġyrityksiin": 7527,
      "Ġthat": 7528,
      "Ġriskien": 7529,
      "Ġara": 7530,
      "Ġriittavaa": 7531,
      "Ġmenettelyyn": 7532,
      "anal": 7533,
      "Ġhelpottaa": 7534,
      "Ġkudo": 7535,
      "Ġsokerin": 7536,
      "maarayksen": 7537,
      "Ġrajoitus": 7538,
      "uma": 7539,
      "Ġlahetys": 7540,
      "valineiden": 7541,
      "vaiheen": 7542,
      "Ġ0207": 7543,
      "hetkella": 7544,
      "Ġvaihd": 7545,
      "hinnat": 7546,
      "Ġerityissa": 7547,
      "Ġvakuutuksen": 7548,
      "organ": 7549,
      "Ġkuvaa": 7550,
      "hakemus": 7551,
      "Ġjatkuvasti": 7552,
      "menta": 7553,
      "verkko": 7554,
      "ineena": 7555,
      "Ġkumpikin": 7556,
      "Ġkannatta": 7557,
      "Ġ175": 7558,
      "Ġlakisaate": 7559,
      "Ġoleville": 7560,
      "Ġkaytan": 7561,
      "yk": 7562,
      "Ġ152": 7563,
      "Ġ640": 7564,
      "yhteisty": 7565,
      "Ġtype": 7566,
      "Ġkayttotarkoi": 7567,
      "Ġtavaramerkkien": 7568,
      "Ġsekaannus": 7569,
      "paikkojen": 7570,
      "vastuu": 7571,
      "Ġnoud": 7572,
      "kala": 7573,
      "Ġvier": 7574,
      "Ġrinnas": 7575,
      "Ġkirjanpi": 7576,
      "tunn": 7577,
      "Ïħ": 7578,
      "Ġvon": 7579,
      "Ġrun": 7580,
      "and": 7581,
      "Ġjarjestelmassa": 7582,
      "mene": 7583,
      "Ġtarkoitetusta": 7584,
      "Ġviikon": 7585,
      "vaatimuksen": 7586,
      "76": 7587,
      "Ġtoimivan": 7588,
      "Ġjatetty": 7589,
      "Ġ1982": 7590,
      "rja": 7591,
      "Ġliikkuvuuden": 7592,
      "Ġjousta": 7593,
      "Ġplc": 7594,
      "Ġrajoitetaan": 7595,
      "Ġtilanteissa": 7596,
      "Ġbritann": 7597,
      "Ġhui": 7598,
      "Ġtoteuttaminen": 7599,
      "Ġkali": 7600,
      "Ġpidetty": 7601,
      "Ġtiettya": 7602,
      "Ġ330": 7603,
      "tionaal": 7604,
      "Ġwe": 7605,
      "Ġmarkkinat": 7606,
      "Ġuusiutu": 7607,
      "Ġ151": 7608,
      "Ġvahan": 7609,
      "Ġtuotantoa": 7610,
      "Ġrekisterointia": 7611,
      "Ġglo": 7612,
      "Ġvastaanottaja": 7613,
      "tossa": 7614,
      "Ġomia": 7615,
      "Ġasioiden": 7616,
      "Ġeuropa": 7617,
      "huollon": 7618,
      "Ġkeskustelu": 7619,
      "Ġsallittu": 7620,
      "Ġmaaraai": 7621,
      "Ġsaadosten": 7622,
      "Ġdirec": 7623,
      "Ġluovutu": 7624,
      "mt": 7625,
      "difi": 7626,
      "Ġmuuttamista": 7627,
      "Ġvirta": 7628,
      "Ġriittavat": 7629,
      "Ġyhteensopi": 7630,
      "Ġnoudettuna": 7631,
      "Ġosallistumisesta": 7632,
      "Ġfrance": 7633,
      "Ġestamiseksi": 7634,
      "hydro": 7635,
      "Ġmuutoksista": 7636,
      "Ġepavar": 7637,
      "Ġymparistoa": 7638,
      "Ġolemassaolo": 7639,
      "Ġliechtenste": 7640,
      "Ġtoimivien": 7641,
      "Ġwo": 7642,
      "Ġcu": 7643,
      "Ġesitetysta": 7644,
      "Ġhuomautusten": 7645,
      "kyvyn": 7646,
      "vaikutukset": 7647,
      "ug": 7648,
      "Ġjuus": 7649,
      "Ġtieduste": 7650,
      "Ġdata": 7651,
      "Ġjohdanna": 7652,
      "Ġehdottaa": 7653,
      "uudella": 7654,
      "Ġkokonaisuutena": 7655,
      "Ġvedet": 7656,
      "Ġjako": 7657,
      "Ġtavallisesti": 7658,
      "mmas": 7659,
      "Ġnimike": 7660,
      "tat": 7661,
      "ose": 7662,
      "Ġpoike": 7663,
      "Ġliikevai": 7664,
      "Ġkasiteltavan": 7665,
      "laatu": 7666,
      "Ġtekijat": 7667,
      "Ġnosti": 7668,
      "Ġsekaannusvaa": 7669,
      "tuotanto": 7670,
      "Ġyhteisia": 7671,
      "vid": 7672,
      "Ġhanet": 7673,
      "ologi": 7674,
      "Ġhorisontaa": 7675,
      "tane": 7676,
      "Ġsisaltoa": 7677,
      "lalla": 7678,
      "Ġhallinnolliset": 7679,
      "vet": 7680,
      "Ġoikeussubjek": 7681,
      "Ġunkari": 7682,
      "Ġedustajinaan": 7683,
      "Ġrod": 7684,
      "Ġrajoittu": 7685,
      "ytys": 7686,
      "Ġjasenvaltioista": 7687,
      "Ġyhdistetyissa": 7688,
      "Ġpyydetty": 7689,
      "Ġvaikutuksen": 7690,
      "Ġaines": 7691,
      "Ġvihann": 7692,
      "Ġluoda": 7693,
      "elimen": 7694,
      "osat": 7695,
      "Ġturkin": 7696,
      "Ġ2150": 7697,
      "Ġolii": 7698,
      "Ġvaatimusta": 7699,
      "Ġnaytteen": 7700,
      "kt": 7701,
      "vis": 7702,
      "Ġvastaavia": 7703,
      "Ġpysa": 7704,
      "vyohy": 7705,
      "tuse": 7706,
      "Ġhelsing": 7707,
      "Ġyhteenveto": 7708,
      "ĠÂ±": 7709,
      "Ġgeneral": 7710,
      "Ġlaitte": 7711,
      "Ġjun": 7712,
      "Ġtarkkuu": 7713,
      "mii": 7714,
      "Ġrivi": 7715,
      "Ġvaitteita": 7716,
      "joilla": 7717,
      "Ġmarkkinaosuus": 7718,
      "Ġuseampi": 7719,
      "Ġpilaantu": 7720,
      "tarkastu": 7721,
      "Ġmaihin": 7722,
      "Ġlainkaan": 7723,
      "Ġvaativat": 7724,
      "Ġyksityisten": 7725,
      "Ġkolmi": 7726,
      "sp": 7727,
      "Ġliiketoiminta": 7728,
      "Ġsaattavat": 7729,
      "Ġbank": 7730,
      "isarvo": 7731,
      "kohdat": 7732,
      "lau": 7733,
      "Ġehdotuksella": 7734,
      "Ġtro": 7735,
      "Ġvirkamiesten": 7736,
      "Ġautomaattisesti": 7737,
      "Ġsaatujen": 7738,
      "Ġvastauksen": 7739,
      "Ġnoudatettu": 7740,
      "Ġmuistuttaa": 7741,
      "Ġkysymyksella": 7742,
      "Ġgc": 7743,
      "Ġkaytettavien": 7744,
      "Ġhuomiota": 7745,
      "Ġpaasi": 7746,
      "istamiseksi": 7747,
      "Ġilmasto": 7748,
      "tso": 7749,
      "Ġhallinnollinen": 7750,
      "uudelle": 7751,
      "Ġarvioitaessa": 7752,
      "Ġpatevyys": 7753,
      "Ġhoitaa": 7754,
      "Ġpanna": 7755,
      "Ġkat": 7756,
      "Ġpaallys": 7757,
      "Ġtiedotus": 7758,
      "Ġtekemasta": 7759,
      "Ġjalkimma": 7760,
      "Ġtyoryh": 7761,
      "Ġnimissa": 7762,
      "ottaa": 7763,
      "Ġ144": 7764,
      "lueiden": 7765,
      "kirjalla": 7766,
      "Ġmiesten": 7767,
      "kulku": 7768,
      "Ġuhka": 7769,
      "Ġlausek": 7770,
      "Ġollessa": 7771,
      "Ġriippuu": 7772,
      "Ġhata": 7773,
      "Ġlykata": 7774,
      "ttomaksi": 7775,
      "Ġhuomautettava": 7776,
      "vastoin": 7777,
      "seman": 7778,
      "Ġviran": 7779,
      "Ġromania": 7780,
      "Ġkuull": 7781,
      "Ġtyoa": 7782,
      "lisen": 7783,
      "Ġtiedoista": 7784,
      "Ġkoulutusta": 7785,
      "tn": 7786,
      "Ġjann": 7787,
      "Ġpainvastoin": 7788,
      "teil": 7789,
      "Ġkaltainen": 7790,
      "Ġlailla": 7791,
      "Ġyksityisen": 7792,
      "Ġtietyissa": 7793,
      "Ġbv": 7794,
      "Ġluopu": 7795,
      "cn": 7796,
      "Ġdan": 7797,
      "Ġtarkistaa": 7798,
      "Ġkasvihuone": 7799,
      "Ġkasittelyyn": 7800,
      "Ġ1068": 7801,
      "Ġtarkoitukseen": 7802,
      "dettiin": 7803,
      "cer": 7804,
      "Ġaivan": 7805,
      "vt": 7806,
      "deja": 7807,
      "Ġpitkan": 7808,
      "Ġtuotteista": 7809,
      "Ġmaaraaikaa": 7810,
      "Ġtosin": 7811,
      "Ġharki": 7812,
      "Ġpin": 7813,
      "Ġtoimisto": 7814,
      "Ġominaispiir": 7815,
      "puolella": 7816,
      "Ġasiakirjoista": 7817,
      "Ġmarkkinajarjestelysta": 7818,
      "dun": 7819,
      "Ġkohdat": 7820,
      "Ġ184": 7821,
      "ĠpoÅĤ": 7822,
      "Ġverovelvollinen": 7823,
      "pojen": 7824,
      "Ġvirheell": 7825,
      "pua": 7826,
      "Ġlaillisesti": 7827,
      "Ġiran": 7828,
      "Ġsiipika": 7829,
      "kymmenen": 7830,
      "Ġkansalliseen": 7831,
      "Ġkasittelysta": 7832,
      "onti": 7833,
      "ilua": 7834,
      "Ġvahvistettiin": 7835,
      "Ġymmarre": 7836,
      "Ġkonso": 7837,
      "jarjestelmia": 7838,
      "Ġyhteenliitty": 7839,
      "Ġvelvoitteen": 7840,
      "Ġlansi": 7841,
      "Ġnoudattamista": 7842,
      "Ġasemaan": 7843,
      "uhel": 7844,
      "Ġrann": 7845,
      "kele": 7846,
      "Ġtyontekijat": 7847,
      "Ġsopimuksesta": 7848,
      "Ġluetell": 7849,
      "Ġ155": 7850,
      "Ġvoimassaolo": 7851,
      "vyt": 7852,
      "direktii": 7853,
      "Ġmenot": 7854,
      "Ġaikoo": 7855,
      "Ġhankintoja": 7856,
      "Ġmuis": 7857,
      "Ġmaarattyjen": 7858,
      "Ġjalleenvakuutus": 7859,
      "Ġtoimihenkilo": 7860,
      "Ġsaattanut": 7861,
      "Ġtietokone": 7862,
      "Ġpidatys": 7863,
      "Ġvastaanotta": 7864,
      "Ġteknologian": 7865,
      "Ġsto": 7866,
      "Ġanna": 7867,
      "Ġtyyppihyvaksynta": 7868,
      "Ġsoveltuvin": 7869,
      "Ġfarma": 7870,
      "Ġtau": 7871,
      "Ġola": 7872,
      "Ġkaikkea": 7873,
      "Ġmainittava": 7874,
      "erin": 7875,
      "Ġpuolueet": 7876,
      "ÐµÐ½": 7877,
      "Ġwhi": 7878,
      "opo": 7879,
      "Ġ165": 7880,
      "Ġrinnakkais": 7881,
      "Ġjatteiden": 7882,
      "hallinto": 7883,
      "Ġtoimittanut": 7884,
      "jau": 7885,
      "Ġvarainhoitoa": 7886,
      "ĠÃĹ": 7887,
      "Ġlaakkeiden": 7888,
      "Ġarviointivirhe": 7889,
      "ussakin": 7890,
      "Ġviron": 7891,
      "Ġkaytettavaksi": 7892,
      "Ġseuraamuksia": 7893,
      "Ġkyseisiin": 7894,
      "Ġyhdenmukainen": 7895,
      "Ġkasitelty": 7896,
      "Ġkaytetyn": 7897,
      "Ġkata": 7898,
      "Ġelimen": 7899,
      "Ġmittaus": 7900,
      "Ġliittymis": 7901,
      "Ġtoteuttamiseksi": 7902,
      "Ġhenkilolle": 7903,
      "Ġsailyttaa": 7904,
      "Ġkiinteat": 7905,
      "Ġvakuus": 7906,
      "kkeista": 7907,
      "mala": 7908,
      "Ġ167": 7909,
      "Ġmahdollisuuksia": 7910,
      "Ġ166": 7911,
      "Ġsuunnitell": 7912,
      "Ġyritysta": 7913,
      "Ġ1234": 7914,
      "Ġnimikkeiden": 7915,
      "Ġfis": 7916,
      "Ġmyonte": 7917,
      "laite": 7918,
      "kkeella": 7919,
      "Ġalueell": 7920,
      "Ġkap": 7921,
      "Ġpir": 7922,
      "Ġlisaanty": 7923,
      "Ġmukautu": 7924,
      "Ġ1979": 7925,
      "Ġmaantieteellinen": 7926,
      "Ġtoimivaltaiselle": 7927,
      "Ġmahdotonta": 7928,
      "Ġperussaannon": 7929,
      "js": 7930,
      "Ġtekija": 7931,
      "Ġtaysimaaraisesti": 7932,
      "Ġkirjanpito": 7933,
      "Ġsallittua": 7934,
      "Ġstate": 7935,
      "joite": 7936,
      "Ġtarkemmin": 7937,
      "tason": 7938,
      "Ġmsc": 7939,
      "Ġpaatelmien": 7940,
      "ls": 7941,
      "Ġsaatettava": 7942,
      "Ġsumma": 7943,
      "Ġkansainvaliset": 7944,
      "Ġtyoskentele": 7945,
      "Ġkasvinsuojelua": 7946,
      "Ġtes": 7947,
      "Ġvoimaantuloa": 7948,
      "tusti": 7949,
      "Ġlimi": 7950,
      "ias": 7951,
      "Ġgemeinde": 7952,
      "Ġkussakin": 7953,
      "Ġhaettu": 7954,
      "Ġleveys": 7955,
      "tai": 7956,
      "Ġjohonkin": 7957,
      "Ġonnistu": 7958,
      "Ġ410": 7959,
      "Ġomasta": 7960,
      "koissa": 7961,
      "Ġmahdollisuuksien": 7962,
      "maarat": 7963,
      "Ġtapahtuma": 7964,
      "Ġpolkumyyntitullin": 7965,
      "Ġsaalii": 7966,
      "Ġlisatty": 7967,
      "Ġmanu": 7968,
      "Ġvarmistamaan": 7969,
      "Ġvihanne": 7970,
      "Ġ146": 7971,
      "Ġmiljoonan": 7972,
      "Ġartic": 7973,
      "Ġturvallisuuteen": 7974,
      "Ġnimet": 7975,
      "Ġns": 7976,
      "Ġ204": 7977,
      "kiintio": 7978,
      "Ġrakenneuud": 7979,
      "Ġehka": 7980,
      "das": 7981,
      "Ġjokaottaa": 7982,
      "uran": 7983,
      "Ġvalttaa": 7984,
      "Ġkehittamiseen": 7985,
      "Ġelintarviketurvallisuus": 7986,
      "Ġkaupunki": 7987,
      "Ġkuulemis": 7988,
      "Ġennakkoratkaisupyynnosta": 7989,
      "Ġpoissul": 7990,
      "Ġilmoitukset": 7991,
      "Ġkuningaskunnassa": 7992,
      "Ġilmeisen": 7993,
      "Ġmax": 7994,
      "Ġecono": 7995,
      "Ġsanamuodon": 7996,
      "sion": 7997,
      "Ġesitys": 7998,
      "Ġmaaraan": 7999,
      "Ġristiriita": 8000,
      "ium": 8001,
      "Ġloukattu": 8002,
      "med": 8003,
      "Ġharkintavaltaa": 8004,
      "xx": 8005,
      "Ġtaytantoonpanemiseksi": 8006,
      "Ġeurosta": 8007,
      "Ġefsa": 8008,
      "Ġasianosainen": 8009,
      "kanta": 8010,
      "Ġsulke": 8011,
      "Ġmuilta": 8012,
      "Ġlajien": 8013,
      "kier": 8014,
      "áĥĲ": 8015,
      "Ġtulkinnan": 8016,
      "Ġagri": 8017,
      "Ġkeskimaarainen": 8018,
      "Ġbiolog": 8019,
      "Ġluonto": 8020,
      "Ġato": 8021,
      "Ġkestavan": 8022,
      "Ġosoitettava": 8023,
      "mes": 8024,
      "Ġkypro": 8025,
      "Ġtarkistus": 8026,
      "mattomaksi": 8027,
      "vun": 8028,
      "Ġtariff": 8029,
      "Ġperustelukappaleen": 8030,
      "Ġpolttoaine": 8031,
      "Ġpyyde": 8032,
      "Ã¸": 8033,
      "rann": 8034,
      "Ġ239": 8035,
      "Ġaikavalin": 8036,
      "Ġxi": 8037,
      "uuksista": 8038,
      "Ġ226": 8039,
      "Ġennakkoratkaisun": 8040,
      "Ġkahdesta": 8041,
      "raja": 8042,
      "Ġindeksi": 8043,
      "lian": 8044,
      "ĠâĢ²": 8045,
      "Ġsijoittautunut": 8046,
      "Ġtyok": 8047,
      "Ġvaliset": 8048,
      "Ġkei": 8049,
      "pale": 8050,
      "Ġmainituista": 8051,
      "Ġic": 8052,
      "gais": 8053,
      "Ġvalvoa": 8054,
      "tiedon": 8055,
      "rig": 8056,
      "kolog": 8057,
      "Ġpic": 8058,
      "dis": 8059,
      "ttamatta": 8060,
      "rilla": 8061,
      "toimenpiteista": 8062,
      "ymmar": 8063,
      "Ġdepar": 8064,
      "Ġnakokul": 8065,
      "rt": 8066,
      "toman": 8067,
      "Ġyleisolle": 8068,
      "Ġsala": 8069,
      "Ġtarkastellaan": 8070,
      "gne": 8071,
      "Ġmateriaali": 8072,
      "vuos": 8073,
      "Ġnega": 8074,
      "Ġalueelta": 8075,
      "poja": 8076,
      "Ġkuusi": 8077,
      "Ġnaky": 8078,
      "kirjaa": 8079,
      "ktiiv": 8080,
      "Ġvalisesta": 8081,
      "Ġukrainan": 8082,
      "ĠÐ¿": 8083,
      "Ġseuran": 8084,
      "Ġmusta": 8085,
      "Ġantamisesta": 8086,
      "Ġtuontiin": 8087,
      "Ġaut": 8088,
      "utp": 8089,
      "Ġpolitiikan": 8090,
      "Ġrq": 8091,
      "ĠÎµ": 8092,
      "Ġtehtya": 8093,
      "ukut": 8094,
      "Ġkasittaa": 8095,
      "Ġfun": 8096,
      "Ġ176": 8097,
      "Ġavaa": 8098,
      "ets": 8099,
      "Ġjatteet": 8100,
      "Ġsisaltava": 8101,
      "Ġkirjallisessa": 8102,
      "Ġlaatii": 8103,
      "Ġjarjesto": 8104,
      "Ġneuvottelujen": 8105,
      "kse": 8106,
      "Ġperiaatteessa": 8107,
      "Ġhisto": 8108,
      "Ġedellyttavat": 8109,
      "Ġoikeudenkayntia": 8110,
      "Ġelec": 8111,
      "Ġmais": 8112,
      "Ġtyossa": 8113,
      "tungs": 8114,
      "dorf": 8115,
      "Ġten": 8116,
      "Ġtarkastella": 8117,
      "Ġviimeis": 8118,
      "Ġtoissijaisuusperiaa": 8119,
      "pyynto": 8120,
      "onnan": 8121,
      "Ġsisaltyvien": 8122,
      "Ġdoku": 8123,
      "Ġilmeista": 8124,
      "Ġarvonlisaverodirektiivin": 8125,
      "Ġpela": 8126,
      "Ġnaudan": 8127,
      "Ġoteta": 8128,
      "poli": 8129,
      "Ġtulliviranomaisten": 8130,
      "Ġmekaan": 8131,
      "Ġsijoittautumisvapa": 8132,
      "Ġmyontamisen": 8133,
      "istojen": 8134,
      "Ġasteen": 8135,
      "Ġhanke": 8136,
      "poytakirjan": 8137,
      "Ġpolkumyynnilla": 8138,
      "uutensa": 8139,
      "Ġasianmukaisen": 8140,
      "Ġsuomessa": 8141,
      "ĠÎ±": 8142,
      "Ġyhteisten": 8143,
      "Ġvastaavuus": 8144,
      "tm": 8145,
      "Ġsina": 8146,
      "Ġvuodeksi": 8147,
      "usin": 8148,
      "Ġjatteen": 8149,
      "mukaista": 8150,
      "Ġtehokkuus": 8151,
      "Ġruu": 8152,
      "ced": 8153,
      "Ġsertifi": 8154,
      "Ġtulliviranomaiset": 8155,
      "tavoi": 8156,
      "Ġtasoitus": 8157,
      "tettuina": 8158,
      "puheenjohta": 8159,
      "ropuhel": 8160,
      "Ġmuuttaminen": 8161,
      "ostoa": 8162,
      "Ġannetut": 8163,
      "Ġosakkeen": 8164,
      "emmisto": 8165,
      "Ġtiedonanto": 8166,
      "Ġmenetelman": 8167,
      "Ġkonsolid": 8168,
      "kiellon": 8169,
      "Ġsall": 8170,
      "Ġlisayksessa": 8171,
      "Ġtarkoitetuissa": 8172,
      "istava": 8173,
      "Ġrakentaminen": 8174,
      "Ġkonsernin": 8175,
      "Ġselvittaa": 8176,
      "menettelysta": 8177,
      "Ġpaivatty": 8178,
      "Ġtoimielimet": 8179,
      "Ġjasenvaltioilla": 8180,
      "Ġreto": 8181,
      "Ġhevos": 8182,
      "Ġosallistunut": 8183,
      "Ġulkomailla": 8184,
      "Ġsair": 8185,
      "Ġkayttaminen": 8186,
      "Ġtoimittamaan": 8187,
      "Ġtoimenpidetta": 8188,
      "gosla": 8189,
      "Ġvastaajana": 8190,
      "Ġolevissa": 8191,
      "Ġlaitteen": 8192,
      "Ġkuuluva": 8193,
      "eten": 8194,
      "Ġkahta": 8195,
      "huoma": 8196,
      "innit": 8197,
      "Ġerottamiskyky": 8198,
      "Ġerityisten": 8199,
      "Ġkielella": 8200,
      "Ġasso": 8201,
      "suojelu": 8202,
      "Ġtullitariff": 8203,
      "Ġorganisaatio": 8204,
      "kaasun": 8205,
      "Ġvaralta": 8206,
      "Ġyhteiskunna": 8207,
      "mukainen": 8208,
      "cio": 8209,
      "Ġmaksua": 8210,
      "Ġsynteet": 8211,
      "Ġradi": 8212,
      "Ġpaatososa": 8213,
      "Ġlaps": 8214,
      "Ġolleen": 8215,
      "Ġhyvaksyminen": 8216,
      "Ġyhten": 8217,
      "Ġkolmanteen": 8218,
      "Ġpresidentti": 8219,
      "Ġkorvaamisesta": 8220,
      "Ġsor": 8221,
      "Ġvakuudelliset": 8222,
      "Ġyhteisymmar": 8223,
      "Ġomat": 8224,
      "Ġisra": 8225,
      "Ġrsms": 8226,
      "lueilla": 8227,
      "loa": 8228,
      "ĠÂ»": 8229,
      "Ġvoiko": 8230,
      "Ġkaan": 8231,
      "Ġainetta": 8232,
      "Ġperustuvasta": 8233,
      "Ġperusteluja": 8234,
      "Ġchi": 8235,
      "Ġtuoja": 8236,
      "Ġpoikkeuksia": 8237,
      "halli": 8238,
      "Ġsmot": 8239,
      "toimintaan": 8240,
      "Ġrqrr": 8241,
      "tuksissa": 8242,
      "Ġvuoropuhel": 8243,
      "Ġkohtelua": 8244,
      "Ġansiosta": 8245,
      "Ġvalmistaja": 8246,
      "Ġcp": 8247,
      "cho": 8248,
      "Ġmatkustaja": 8249,
      "aalia": 8250,
      "Ġlinja": 8251,
      "Ġmainita": 8252,
      "Ġedistetaan": 8253,
      "Ġmaaritelman": 8254,
      "Ġpalveluksessa": 8255,
      "mminkin": 8256,
      "Ġmyontaminen": 8257,
      "df": 8258,
      "hintojen": 8259,
      "Ġmaarattya": 8260,
      "wor": 8261,
      "Ġnimitta": 8262,
      "Ġvalituslautakunnassa": 8263,
      "Ġkaupungin": 8264,
      "Ġtuomioistuimella": 8265,
      "Ġ187": 8266,
      "Ġarviointiin": 8267,
      "Ġenergiateho": 8268,
      "Ġmyonnetyn": 8269,
      "Ġpalveluista": 8270,
      "Ġtuloksena": 8271,
      "Ġtoteuttanut": 8272,
      "dossa": 8273,
      "Ġolettaa": 8274,
      "Ġkorostettava": 8275,
      "iminen": 8276,
      "Ġ158": 8277,
      "Ġtullikoodeksin": 8278,
      "sioiden": 8279,
      "Ġjugosla": 8280,
      "Ġsyntynyt": 8281,
      "Ġpakko": 8282,
      "Ġiec": 8283,
      "velop": 8284,
      "Ġtyypp": 8285,
      "tioita": 8286,
      "Ġ153": 8287,
      "Ġyo": 8288,
      "Ġ0003": 8289,
      "Ġtoimeksi": 8290,
      "Ġyha": 8291,
      "Ġtietaa": 8292,
      "Ġpyrkii": 8293,
      "dri": 8294,
      "Ġ1107": 8295,
      "Î¹Î±": 8296,
      "meja": 8297,
      "uusa": 8298,
      "Ġtoteamaan": 8299,
      "Ġtiedonannon": 8300,
      "tavaa": 8301,
      "Ġmitattomyy": 8302,
      "Ġyhdistyneessa": 8303,
      "onin": 8304,
      "Ġperustus": 8305,
      "Ġbos": 8306,
      "ody": 8307,
      "Ġnimell": 8308,
      "bal": 8309,
      "Ġparis": 8310,
      "Ġhelsin": 8311,
      "sek": 8312,
      "Ġoffi": 8313,
      "Ġtoisella": 8314,
      "Ġsovellettavista": 8315,
      "utui": 8316,
      "stot": 8317,
      "ĠÑģ": 8318,
      "Ġ480": 8319,
      "Ġjulkisoikeudell": 8320,
      "Ġkopi": 8321,
      "Ġstra": 8322,
      "nalla": 8323,
      "Ġ299": 8324,
      "Ġvastusta": 8325,
      "Ġnimenomaan": 8326,
      "Ġpannaan": 8327,
      "Ġfe": 8328,
      "Ġsisaltyvan": 8329,
      "Ġerillis": 8330,
      "ese": 8331,
      "Ġ185": 8332,
      "Ġ154": 8333,
      "Ġselven": 8334,
      "Ġ253": 8335,
      "uksilla": 8336,
      "Ġcer": 8337,
      "Ġerilainen": 8338,
      "Ġison": 8339,
      "Ġyhteensopiv": 8340,
      "keista": 8341,
      "Ġyksikot": 8342,
      "Ġyutp": 8343,
      "Ġfos": 8344,
      "Ġvaihde": 8345,
      "Ġ1515": 8346,
      "zione": 8347,
      "Ġtukevat": 8348,
      "Ġbritannian": 8349,
      "perusteet": 8350,
      "tteeksi": 8351,
      "Ġlaaketieteell": 8352,
      "vv": 8353,
      "Ġoikeudesta": 8354,
      "bra": 8355,
      "Ġmal": 8356,
      "Ġanalogisesti": 8357,
      "Ġvilja": 8358,
      "Ġteknologia": 8359,
      "Ġsocie": 8360,
      "Ġbanaan": 8361,
      "Ġmaarittaminen": 8362,
      "pyynnon": 8363,
      "Ġtalousalue": 8364,
      "Ġasianmukaisia": 8365,
      "valtio": 8366,
      "Ġviejan": 8367,
      "Î¿Ïħ": 8368,
      "Ġhyvaksytyn": 8369,
      "valtiossa": 8370,
      "Ġennakkoratkaisukysymyksen": 8371,
      "Ġantamisen": 8372,
      "Ġtallenn": 8373,
      "Ġaltistu": 8374,
      "Ġcl": 8375,
      "Ġulkomaa": 8376,
      "Ġkw": 8377,
      "Ġosallistuu": 8378,
      "Ġolesk": 8379,
      "Ġvirkamiehet": 8380,
      "Ġpike": 8381,
      "trium": 8382,
      "tisten": 8383,
      "Ġvirkkeen": 8384,
      "Ġsijoite": 8385,
      "ekka": 8386,
      "Ġlann": 8387,
      "Ġvakio": 8388,
      "viranomaiselle": 8389,
      "Ġotti": 8390,
      "Ġvastasi": 8391,
      "aari": 8392,
      "Ġnime": 8393,
      "Ġsyrjintaa": 8394,
      "Ġseitseman": 8395,
      "Ġ161": 8396,
      "Ġasetetun": 8397,
      "ttemmin": 8398,
      "Ġpuna": 8399,
      "Ġkoskivat": 8400,
      "ottelu": 8401,
      "htoa": 8402,
      "Ġcorpora": 8403,
      "Ġrikkonut": 8404,
      "Ġtyokyvyttomyy": 8405,
      "Ġkehittaa": 8406,
      "teollisuuden": 8407,
      "Ġsallia": 8408,
      "Ġerityispiir": 8409,
      "ile": 8410,
      "Ġvallitse": 8411,
      "Ġymmartaa": 8412,
      "Ġmoitteet": 8413,
      "Ġsamankaltaisia": 8414,
      "Ġtuotteille": 8415,
      "Ġhil": 8416,
      "Ġaz": 8417,
      "Ġarvioid": 8418,
      "Ġliittymisa": 8419,
      "juus": 8420,
      "Ġjasenen": 8421,
      "Ġ@": 8422,
      "Ġsatama": 8423,
      "Ġpitu": 8424,
      "uoto": 8425,
      "Ġpaikalla": 8426,
      "vaikutusten": 8427,
      "Ġcourt": 8428,
      "Ġvamma": 8429,
      "ded": 8430,
      "Ġtytaryhtion": 8431,
      "oksen": 8432,
      "Ġtupakka": 8433,
      "Ġtaataan": 8434,
      "Ġprin": 8435,
      "nie": 8436,
      "Ġvalisten": 8437,
      "Ġ261": 8438,
      "mino": 8439,
      "Ġnykyisen": 8440,
      "Ġhenkiloihin": 8441,
      "Ġpoikkeusta": 8442,
      "Ġverotuks": 8443,
      "kri": 8444,
      "Ġmainitusta": 8445,
      "luori": 8446,
      "Ġdevelop": 8447,
      "Ġluovutuksen": 8448,
      "Ġtuetaan": 8449,
      "Ġmainituissa": 8450,
      "Ġriitau": 8451,
      "Ġtoiminut": 8452,
      "esel": 8453,
      "Ġtoisesta": 8454,
      "Ġkerta": 8455,
      "Ġ2694": 8456,
      "vaiheessa": 8457,
      "Ġedellyta": 8458,
      "Ġpalauttaa": 8459,
      "Ġmielessa": 8460,
      "Ġ171": 8461,
      "Ġjarjestelmasta": 8462,
      "vyytta": 8463,
      "Ġmedia": 8464,
      "Ġpuuvi": 8465,
      "Ġopetus": 8466,
      "Ġeste": 8467,
      "hdosta": 8468,
      "Ġ0805": 8469,
      "Ġkarton": 8470,
      "Ġkartelli": 8471,
      "Ġham": 8472,
      "Ġainekset": 8473,
      "Ġlopull": 8474,
      "Ġmyyntia": 8475,
      "oman": 8476,
      "Ġelinkeino": 8477,
      "Ġyksittaisten": 8478,
      "Ġloukkaamista": 8479,
      "Ġtechn": 8480,
      "Ġlahentamisesta": 8481,
      "Ġ163": 8482,
      "Ġsiirron": 8483,
      "Ġedut": 8484,
      "todistusten": 8485,
      "kysymy": 8486,
      "Ġbor": 8487,
      "Ġ181": 8488,
      "mattomana": 8489,
      "Ġuseiden": 8490,
      "by": 8491,
      "Ġpaikan": 8492,
      "riskin": 8493,
      "Ġtaytantoonpanopaa": 8494,
      "Ġasetuksia": 8495,
      "Ġsun": 8496,
      "Ġsisallyttaa": 8497,
      "00000": 8498,
      "saine": 8499,
      "vaikutus": 8500,
      "Ġyhde": 8501,
      "Ġtoimielim": 8502,
      "tilanne": 8503,
      "Ġsiipikarjan": 8504,
      "Ġterasta": 8505,
      "ttavaan": 8506,
      "Ġtoimiva": 8507,
      "Ġvesilla": 8508,
      "Ġkansalaisille": 8509,
      "tyneet": 8510,
      "Ġkieltaa": 8511,
      "ministerio": 8512,
      "king": 8513,
      "Ġvalmistelu": 8514,
      "chi": 8515,
      "Ġjohtaja": 8516,
      "Ġyksittaista": 8517,
      "Ġvake": 8518,
      "menot": 8519,
      "Ġluetelmakohta": 8520,
      "Ġasuinpaikka": 8521,
      "olii": 8522,
      "Ġjugoslavian": 8523,
      "tysti": 8524,
      "Ġpaasyn": 8525,
      "Ġvapautus": 8526,
      "Ġvaliintulija": 8527,
      "Ġjaljella": 8528,
      "ĠÎ¼": 8529,
      "gt": 8530,
      "Ġaio": 8531,
      "Ġmies": 8532,
      "Ġelaman": 8533,
      "opp": 8534,
      "Ġliitetty": 8535,
      "gar": 8536,
      "Ġ940": 8537,
      "Ġtuomioistuimissa": 8538,
      "Ġmedi": 8539,
      "Ġperustelukappaleesta": 8540,
      "Ġheille": 8541,
      "ttavalla": 8542,
      "Ġsikali": 8543,
      "Ġliitteissa": 8544,
      "vus": 8545,
      "Ġassocia": 8546,
      "Ġedellytyksena": 8547,
      "1000": 8548,
      "Ġtuottajille": 8549,
      "Ġnoudattavat": 8550,
      "Ġraska": 8551,
      "lot": 8552,
      "Ġaurin": 8553,
      "ntia": 8554,
      "geen": 8555,
      "Ġrakenteell": 8556,
      "Ġlaatua": 8557,
      "Ġmoottorin": 8558,
      "Ġtehneet": 8559,
      "Ġtiede": 8560,
      "organisaa": 8561,
      "Ġparantamiseksi": 8562,
      "Ġperuuttaa": 8563,
      "tou": 8564,
      "tilassa": 8565,
      "Ġtiedustelee": 8566,
      "ez": 8567,
      "matka": 8568,
      "Ġtulot": 8569,
      "Ġpra": 8570,
      "Ġvastauksessa": 8571,
      "Ġpuhelin": 8572,
      "rahojen": 8573,
      "Ġedistaminen": 8574,
      "Ġgar": 8575,
      "Ġkansallisille": 8576,
      "Ġservices": 8577,
      "Ġtuottaa": 8578,
      "Ġtaustalla": 8579,
      "Ġliiketoiminnan": 8580,
      "killa": 8581,
      "Ġkroatian": 8582,
      "Ġtoimijat": 8583,
      "Ġmuodon": 8584,
      "veden": 8585,
      "Ġhuon": 8586,
      "Ġneuvon": 8587,
      "istetty": 8588,
      "Ġnimitys": 8589,
      "Ġ510": 8590,
      "Ġkanteensa": 8591,
      "Ġtodista": 8592,
      "fs": 8593,
      "Ġpaastojen": 8594,
      "Ġ1981": 8595,
      "Ġosoitetaan": 8596,
      "Ġminuu": 8597,
      "áĥĶ": 8598,
      "Ġtavaramerkiksi": 8599,
      "Ġparantaminen": 8600,
      "Ġvirheellinen": 8601,
      "gna": 8602,
      "Ġerotta": 8603,
      "Ġnostettu": 8604,
      "Ġassosi": 8605,
      "Ġkoneet": 8606,
      "Ġhuolehti": 8607,
      "tilaa": 8608,
      "menettelyt": 8609,
      "Ġtakaisinper": 8610,
      "Ġjor": 8611,
      "kanteen": 8612,
      "vuonna": 8613,
      "Ġsuunnitelma": 8614,
      "Ġluovutus": 8615,
      "yer": 8616,
      "Ġ414": 8617,
      "Ġcompany": 8618,
      "Ġsuoj": 8619,
      "opimuksen": 8620,
      "Ġepaedu": 8621,
      "com": 8622,
      "Ġpalkkaluo": 8623,
      "Ġlakia": 8624,
      "selvi": 8625,
      "Ġoikeudenkayntikulujen": 8626,
      "Ġtutkimusta": 8627,
      "infrastruk": 8628,
      "kuitu": 8629,
      "Ġtam": 8630,
      "Ġstrategia": 8631,
      "Ġyksimiel": 8632,
      "Ġwin": 8633,
      "Ð¼": 8634,
      "Ġyhteentoim": 8635,
      "Ġlaskettu": 8636,
      "Ġsyntyy": 8637,
      "rana": 8638,
      "Ġtoimijan": 8639,
      "Ġliikkuvuus": 8640,
      "Ġefta": 8641,
      "Ġvalkais": 8642,
      "Ġfra": 8643,
      "Ġtoteuttamiseen": 8644,
      "Ġmari": 8645,
      "hol": 8646,
      "Ġregula": 8647,
      "Ġriidan": 8648,
      "br": 8649,
      "Ġohjelmaan": 8650,
      "Ġvastaanotto": 8651,
      "istusta": 8652,
      "Ġmaarity": 8653,
      "teluo": 8654,
      "Ġajankohta": 8655,
      "llekin": 8656,
      "Ġyhteiset": 8657,
      "Ġanti": 8658,
      "Ġtaydennys": 8659,
      "Ġerikois": 8660,
      "schaft": 8661,
      "Ð·": 8662,
      "Ġ337": 8663,
      "Ġriidanalaisten": 8664,
      "Ġsyrja": 8665,
      "Ġjossakin": 8666,
      "Ġpikemminkin": 8667,
      "bel": 8668,
      "Ġhank": 8669,
      "Ġmahdollisten": 8670,
      "Ġriittavalla": 8671,
      "Ġsum": 8672,
      "can": 8673,
      "Ġhelsinki": 8674,
      "Ġseuraavana": 8675,
      "Ġenempaa": 8676,
      "Ġteknista": 8677,
      "Ġalueellisen": 8678,
      "Ġjarjestelyt": 8679,
      "Ġrai": 8680,
      "Ġmauri": 8681,
      "Ġasetukset": 8682,
      "Ġmenetelmaa": 8683,
      "meh": 8684,
      "Ġyliopisto": 8685,
      "Ġ450": 8686,
      "Ġvertailua": 8687,
      "kkaat": 8688,
      "Ġharjoittavien": 8689,
      "Ġmonenval": 8690,
      "Ġlaite": 8691,
      "torj": 8692,
      "Ġkapasiteetin": 8693,
      "Ġottamista": 8694,
      "Ġvanhem": 8695,
      "Ġtoteuttamisen": 8696,
      "Ġaloittamista": 8697,
      "Ġyhteentoimiv": 8698,
      "Ġia": 8699,
      "Ġds": 8700,
      "Ġev": 8701,
      "ineuv": 8702,
      "Ġkaasun": 8703,
      "Ġtapahtuneen": 8704,
      "seur": 8705,
      "Ġesittamiin": 8706,
      "Ġjoitakin": 8707,
      "Ġtallaisesta": 8708,
      "Ġtuomioistuimelta": 8709,
      "Ġobjektiivisesti": 8710,
      "Ġtyhjen": 8711,
      "Ġmahdollisen": 8712,
      "misia": 8713,
      "Ġtehokasta": 8714,
      "Ġveroa": 8715,
      "Ġ0406": 8716,
      "Ġdom": 8717,
      "uhde": 8718,
      "Ġverkkosi": 8719,
      "Ġtaanne": 8720,
      "miensa": 8721,
      "Ġnaytta": 8722,
      "Ġenergy": 8723,
      "Ġslovenian": 8724,
      "rille": 8725,
      "Ġminister": 8726,
      "Ġpaase": 8727,
      "Ġtuomioiden": 8728,
      "Ġpantu": 8729,
      "ette": 8730,
      "vut": 8731,
      "Ġliittymista": 8732,
      "Ġmaaritelmat": 8733,
      "Ġaiheutuvien": 8734,
      "maatti": 8735,
      "onnin": 8736,
      "yme": 8737,
      "Ġtarjoajien": 8738,
      "Ġact": 8739,
      "Ġottamaan": 8740,
[...]
