{
  "version": "1.0",
  "truncation": null,
  "padding": null,
  "added_tokens": [
    {
      "id": 0,
      "content": "<pad>",
      "single_word": false,
      "lstrip": false,
      "rstrip": false,
      "normalized": false,
      "special": true
    },
    {
      "id": 1,
      "content": "<s>",
      "single_word": false,
      "lstrip": false,
      "rstrip": false,
      "normalized": false,
      "special": true
    },
    {
      "id": 2,
      "content": "</s>",
      "single_word": false,
      "lstrip": false,
      "rstrip": false,
      "normalized": false,
      "special": true
    },
    {
      "id": 3,
      "content": "<unk>",
      "single_word": false,
      "lstrip": false,
      "rstrip": false,
      "normalized": false,
      "special": true
    },
    {
      "id": 4,
      "content": "<mask>",
      "single_word": false,
      "lstrip": false,
      "rstrip": false,
      "normalized": false,
      "special": true
    }
  ],
  "normalizer": {
    "type": "Sequence",
    "normalizers": [
      {
        "type": "NFKD"
      },
      {
        "type": "BertNormalizer",
        "clean_text": true,
        "handle_chinese_chars": true,
        "strip_accents": null,
        "lowercase": true
      }
    ]
  },
  "pre_tokenizer": {
    "type": "Sequence",
    "pretokenizers": [
      {
        "type": "BertPreTokenizer"
      },
      {
        "type": "ByteLevel",
        "add_prefix_space": true,
        "trim_offsets": true,
        "use_regex": true
      }
    ]
  },
  "post_processor": {
    "type": "RobertaProcessing",
    "sep": [
      "</s>",
      2
    ],
    "cls": [
      "<s>",
      1
    ],
    "trim_offsets": true,
    "add_prefix_space": true
  },
  "decoder": {
    "type": "ByteLevel",
    "add_prefix_space": true,
    "trim_offsets": true,
    "use_regex": true
  },
  "model": {
    "type": "BPE",
    "dropout": null,
    "unk_token": "<unk>",
    "continuing_subword_prefix": null,
    "end_of_word_suffix": null,
    "fuse_unk": false,
    "vocab": {
      "<pad>": 0,
      "<s>": 1,
      "</s>": 2,
      "<unk>": 3,
      "<mask>": 4,
      "!": 5,
      "\"": 6,
      "#": 7,
      "$": 8,
      "%": 9,
      "&": 10,
      "'": 11,
      "(": 12,
      ")": 13,
      "*": 14,
      "+": 15,
      ",": 16,
      "-": 17,
      ".": 18,
      "/": 19,
      "0": 20,
      "1": 21,
      "2": 22,
      "3": 23,
      "4": 24,
      "5": 25,
      "6": 26,
      "7": 27,
      "8": 28,
      "9": 29,
      ":": 30,
      ";": 31,
      "<": 32,
      "=": 33,
      ">": 34,
      "?": 35,
      "@": 36,
      "[": 37,
      "\\": 38,
      "]": 39,
      "^": 40,
      "_": 41,
      "`": 42,
      "a": 43,
      "b": 44,
      "c": 45,
      "d": 46,
      "e": 47,
      "f": 48,
      "g": 49,
      "h": 50,
      "i": 51,
      "j": 52,
      "k": 53,
      "l": 54,
      "m": 55,
      "n": 56,
      "o": 57,
      "p": 58,
      "q": 59,
      "r": 60,
      "s": 61,
      "t": 62,
      "u": 63,
      "v": 64,
      "w": 65,
      "x": 66,
      "y": 67,
      "z": 68,
      "{": 69,
      "|": 70,
      "}": 71,
      "~": 72,
      "¡": 73,
      "¢": 74,
      "£": 75,
      "¤": 76,
      "¥": 77,
      "¦": 78,
      "§": 79,
      "¨": 80,
      "©": 81,
      "ª": 82,
      "«": 83,
      "¬": 84,
      "®": 85,
      "¯": 86,
      "°": 87,
      "±": 88,
      "²": 89,
      "³": 90,
      "´": 91,
      "µ": 92,
      "¶": 93,
      "·": 94,
      "¸": 95,
      "¹": 96,
      "º": 97,
      "»": 98,
      "¼": 99,
      "½": 100,
      "¾": 101,
      "¿": 102,
      "Â": 103,
      "Ã": 104,
      "Ä": 105,
      "Å": 106,
      "Ê": 107,
      "Ë": 108,
      "Î": 109,
      "Ï": 110,
      "Ð": 111,
      "Ñ": 112,
      "Ò": 113,
      "Ó": 114,
      "Ø": 115,
      "Ù": 116,
      "Ú": 117,
      "Û": 118,
      "ß": 119,
      "á": 120,
      "â": 121,
      "ã": 122,
      "ä": 123,
      "å": 124,
      "æ": 125,
      "ç": 126,
      "è": 127,
      "é": 128,
      "ê": 129,
      "ð": 130,
      "Ġ": 131,
      "Ģ": 132,
      "ģ": 133,
      "Ĥ": 134,
      "ĥ": 135,
      "Ħ": 136,
      "ħ": 137,
      "Ĩ": 138,
      "ĩ": 139,
      "Ī": 140,
      "ī": 141,
      "Ĭ": 142,
      "ĭ": 143,
      "Į": 144,
      "į": 145,
      "İ": 146,
      "ı": 147,
      "Ĳ": 148,
      "ĳ": 149,
      "Ĵ": 150,
      "ĵ": 151,
      "Ķ": 152,
      "ķ": 153,
      "ĸ": 154,
      "Ĺ": 155,
      "ĺ": 156,
      "Ļ": 157,
      "ļ": 158,
      "Ľ": 159,
      "ľ": 160,
      "Ŀ": 161,
      "ŀ": 162,
      "Ł": 163,
      "ł": 164,
      "Ń": 165,
      "ai": 166,
      "Ġa": 167,
      "ea": 168,
      "ch": 169,
      "Ġn": 170,
      "Ġi": 171,
      "bh": 172,
      "ei": 173,
      "Ġl": 174,
      "mh": 175,
      "Ġs": 176,
      "th": 177,
      "ar": 178,
      "Ġd": 179,
      "Ġc": 180,
      "nn": 181,
      "ta": 182,
      "ri": 183,
      "Ġ.": 184,
      "Ġ,": 185,
      "oi": 186,
      "Ġg": 187,
      "Ġan": 188,
      "Ġf": 189,
      "on": 190,
      "ach": 191,
      "Ġch": 192,
      "Ġle": 193,
      "al": 194,
      "air": 195,
      "ain": 196,
      "Ġm": 197,
      "dh": 198,
      "Ġbh": 199,
      "Ġag": 200,
      "us": 201,
      "ui": 202,
      "Ġt": 203,
      "each": 204,
      "Ġh": 205,
      "Ġagus": 206,
      "or": 207,
      "Ġna": 208,
      "Ġar": 209,
      "tai": 210,
      "Ġ)": 211,
      "Ġ2": 212,
      "Ġ(": 213,
      "na": 214,
      "Ġb": 215,
      "Ġ1": 216,
      "ear": 217,
      "eann": 218,
      "och": 219,
      "un": 220,
      "omh": 221,
      "the": 222,
      "in": 223,
      "an": 224,
      "Ġp": 225,
      "abh": 226,
      "Ġni": 227,
      "as": 228,
      "Ġr": 229,
      "si": 230,
      "ti": 231,
      "Ġbhain": 232,
      "di": 233,
      "Ġri": 234,
      "Ġ-": 235,
      "Ġbhaineann": 236,
      "Ġâ": 237,
      "ur": 238,
      "ĠâĢ": 239,
      "Ġgc": 240,
      "abhar": 241,
      "Ġhabhar": 242,
      "li": 243,
      "ais": 244,
      "eis": 245,
      "Ġde": 246,
      "Ġ_": 247,
      "eag": 248,
      "eas": 249,
      "00": 250,
      "Ġe": 251,
      "gh": 252,
      "os": 253,
      "Ġin": 254,
      "Ġair": 255,
      "ol": 256,
      "ad": 257,
      "ail": 258,
      "Ġ/": 259,
      "rai": 260,
      "ean": 261,
      "Ġ3": 262,
      "rei": 263,
      "tear": 264,
      "dir": 265,
      "Ġth": 266,
      "eidh": 267,
      "ra": 268,
      "te": 269,
      "le": 270,
      "eamh": 271,
      "Ġ20": 272,
      "Ġno": 273,
      "aioch": 274,
      "Ġgo": 275,
      "Ġo": 276,
      "la": 277,
      "ead": 278,
      "Ġsin": 279,
      "aoi": 280,
      "Ġrial": 281,
      "ni": 282,
      "eachta": 283,
      "Ġse": 284,
      "Ġ5": 285,
      "teag": 286,
      "aithe": 287,
      "uil": 288,
      "Ġsa": 289,
      "Ġbhf": 290,
      "Ġmh": 291,
      "teagal": 292,
      "oir": 293,
      "Ġchun": 294,
      "mi": 295,
      "aidh": 296,
      "Ġ4": 297,
      "ann": 298,
      "Ġfh": 299,
      "Ġaon": 300,
      "acha": 301,
      "sc": 302,
      "Ġmai": 303,
      "Ġei": 304,
      "Ġleis": 305,
      "Ġneamh": 306,
      "airi": 307,
      "Ġairteagal": 308,
      "Ġio": 309,
      "orp": 310,
      "Ġdh": 311,
      "ion": 312,
      "re": 313,
      "Ġmaidir": 314,
      "Ġta": 315,
      "eal": 316,
      "Ġchui": 317,
      "Ġcomh": 318,
      "ainn": 319,
      "Ġ|": 320,
      "Ġis": 321,
      "ac": 322,
      "tha": 323,
      "ochtai": 324,
      "adh": 325,
      "Ġata": 326,
      "Ġu": 327,
      "Ġgcomh": 328,
      "Ġ0": 329,
      "tu": 330,
      "eir": 331,
      "Ġ6": 332,
      "me": 333,
      "Ġ:": 334,
      "ge": 335,
      "eana": 336,
      "Ġrialach": 337,
      "Ġnach": 338,
      "Ġ;": 339,
      "eadh": 340,
      "ll": 341,
      "siun": 342,
      "inn": 343,
      "Ġgh": 344,
      "Ġpri": 345,
      "Ġsh": 346,
      "Ġfaoi": 347,
      "onn": 348,
      "Ġseo": 349,
      "easa": 350,
      "Ġda": 351,
      "ĠâĢĵ": 352,
      "tais": 353,
      "ir": 354,
      "Ġmar": 355,
      "eacht": 356,
      "Ġ201": 357,
      "Ġrialachan": 358,
      "aid": 359,
      "reid": 360,
      "Ġlena": 361,
      "mheasa": 362,
      "Ġ7": 363,
      "Ġmb": 364,
      "eith": 365,
      "reidmheasa": 366,
      "Ġdo": 367,
      "Ġrisi": 368,
      "Ġcreidmheasa": 369,
      "all": 370,
      "ph": 371,
      "Ġ9": 372,
      "Ġrisiochtai": 373,
      "tar": 374,
      "se": 375,
      "Ġpriac": 376,
      "Ġph": 377,
      "Ġpriacal": 378,
      "Ġoi": 379,
      "aigh": 380,
      "Ġiad": 381,
      "Ġui": 382,
      "aiocht": 383,
      "Ġ8": 384,
      "ru": 385,
      "airti": 386,
      "teach": 387,
      "iu": 388,
      "Ġchomh": 389,
      "Ġae": 390,
      "niomh": 391,
      "Ġsp": 392,
      "Ġall": 393,
      "Ġcoi": 394,
      "far": 395,
      "is": 396,
      "Ġon": 397,
      "Ġbhfuil": 398,
      "eid": 399,
      "ne": 400,
      "Ġfeidh": 401,
      "anna": 402,
      "Ġina": 403,
      "Ġiar": 404,
      "oiri": 405,
      "ĠâĢĻ": 406,
      "Ġeile": 407,
      "uir": 408,
      "alls": 409,
      "tas": 410,
      "ainneachta": 411,
      "Ġden": 412,
      "oc": 413,
      "Ġsi": 414,
      "faidh": 415,
      "eart": 416,
      "ainneachtana": 417,
      "om": 418,
      "Ġchur": 419,
      "gi": 420,
      "Ġseach": 421,
      "dar": 422,
      "Ġairi": 423,
      "Ġson": 424,
      "Ġ200": 425,
      "Ġdon": 426,
      "ath": 427,
      "ocht": 428,
      "Ġ202": 429,
      "Ġias": 430,
      "airt": 431,
      "Ġ00": 432,
      "Ġion": 433,
      "Ġce": 434,
      "acht": 435,
      "agh": 436,
      "Ġioc": 437,
      "misiun": 438,
      "og": 439,
      "Ġdi": 440,
      "de": 441,
      "ci": 442,
      "Ġus": 443,
      "chur": 444,
      "phairti": 445,
      "ochta": 446,
      "sial": 447,
      "fh": 448,
      "Ġmi": 449,
      "Ġaontais": 450,
      "Ġai": 451,
      "Ġtri": 452,
      "reir": 453,
      "tra": 454,
      "fi": 455,
      "Ġra": 456,
      "Ġchon": 457,
      "lan": 458,
      "Ġiom": 459,
      "Ġspei": 460,
      "Ġuimh": 461,
      "oth": 462,
      "Ġdta": 463,
      "airle": 464,
      "oin": 465,
      "Ġim": 466,
      "lai": 467,
      "Ġfor": 468,
      "Ġtair": 469,
      "eanna": 470,
      "Ġidir": 471,
      "Ġsaor": 472,
      "Ġchuige": 473,
      "Ġgcas": 474,
      "Ġeur": 475,
      "Ġas": 476,
      "Ġ10": 477,
      "Ġusaid": 478,
      "Ġtu": 479,
      "aidi": 480,
      "Ġarna": 481,
      "Ġspeisial": 482,
      "Ġgniomh": 483,
      "Ġlei": 484,
      "artha": 485,
      "eanamh": 486,
      "Ġam": 487,
      "Ġnd": 488,
      "Ġcur": 489,
      "Ġudar": 490,
      "rb": 491,
      "Ġgcomhreir": 492,
      "Ġsonrai": 493,
      "Ġiasach": 494,
      "Ġv": 495,
      "tait": 496,
      "ala": 497,
      "Ġoib": 498,
      "Ġcheart": 499,
      "bm": 500,
      "Ġeorp": 501,
      "Ġba": 502,
      "gead": 503,
      "Ġfbm": 504,
      "Ġspeisialaithe": 505,
      "Ġballs": 506,
      "min": 507,
      "tail": 508,
      "Ġiasachtu": 509,
      "Ġirb": 510,
      "Ġtar": 511,
      "Ġiocaiocht": 512,
      "traphairti": 513,
      "neis": 514,
      "Ġbear": 515,
      "raitear": 516,
      "Ġard": 517,
      "aisneis": 518,
      "ul": 519,
      "Ġfeidhme": 520,
      "odh": 521,
      "Ġseachad": 522,
      "nni": 523,
      "ca": 524,
      "Ġ12": 525,
      "Ġdean": 526,
      "Ġcorp": 527,
      "Ġchontraphairti": 528,
      "eacha": 529,
      "eanas": 530,
      "aisiun": 531,
      "Ġtr": 532,
      "Ġdheanamh": 533,
      "ĠâĢĶ": 534,
      "Ġseachadtai": 535,
      "Ġath": 536,
      "uch": 537,
      "geadais": 538,
      "Ġchoi": 539,
      "st": 540,
      "Ġcuir": 541,
      "Ġac": 542,
      "achta": 543,
      "uithe": 544,
      "Ġhagh": 545,
      "Ġhaghaidh": 546,
      "eang": 547,
      "aint": 548,
      "Ġ'": 549,
      "lac": 550,
      "Ġsan": 551,
      "Ġli": 552,
      "Ġleag": 553,
      "Ġct": 554,
      "Ġabh": 555,
      "Ġleas": 556,
      "Ġhe": 557,
      "Ġfr": 558,
      "Ġamh": 559,
      "Ġ%": 560,
      "bhi": 561,
      "Ġ11": 562,
      "Ġgcomhairle": 563,
      "Ġleanas": 564,
      "aili": 565,
      "aisiunta": 566,
      "Ġdtag": 567,
      "aiochta": 568,
      "er": 569,
      "Ġann": 570,
      "aiochtai": 571,
      "tat": 572,
      "Ġsc": 573,
      "Ġmor": 574,
      "Ġcinn": 575,
      "Ġdtagraitear": 576,
      "lli": 577,
      "ĠâĢĲ": 578,
      "Ġ19": 579,
      "Ġlu": 580,
      "eic": 581,
      "reoir": 582,
      "Ġbheith": 583,
      "Ġtion": 584,
      "Ġmeas": 585,
      "araidi": 586,
      "Ġnu": 587,
      "taithe": 588,
      "isti": 589,
      "Ġfei": 590,
      "Ġbun": 591,
      "roi": 592,
      "mhainneachtana": 593,
      "Ġneamhmhainneachtana": 594,
      "ro": 595,
      "ribh": 596,
      "Ġratail": 597,
      "aith": 598,
      "Ġleith": 599,
      "orpa": 600,
      "Ġheorpa": 601,
      "Ġmion": 602,
      "Ġga": 603,
      "aitear": 604,
      "ribhinn": 605,
      "Ġmhainneachtana": 606,
      "olath": 607,
      "eidhm": 608,
      "Ġ50": 609,
      "Ġng": 610,
      "Ġreir": 611,
      "Ġballstait": 612,
      "ula": 613,
      "ogra": 614,
      "Ġk": 615,
      "Ġmilli": 616,
      "um": 617,
      "10": 618,
      "chui": 619,
      "Ġrei": 620,
      "Ġ13": 621,
      "Ġ=": 622,
      "Ġamach": 623,
      "Ġmilliun": 624,
      "Ġairb": 625,
      "0000": 626,
      "Ġw": 627,
      "uchain": 628,
      "Ġardchur": 629,
      "obh": 630,
      "Ġairgeadais": 631,
      "nt": 632,
      "sh": 633,
      "Ġbhfeidhm": 634,
      "arlai": 635,
      "lion": 636,
      "aon": 637,
      "scribhinn": 638,
      "eachtai": 639,
      "arlaimin": 640,
      "Ġhi": 641,
      "oib": 642,
      "Ġcos": 643,
      "Ġst": 644,
      "Ġinfh": 645,
      "Ġcri": 646,
      "aisti": 647,
      "Ġnios": 648,
      "ainteach": 649,
      "arlaimint": 650,
      "Ġcui": 651,
      "Ġfi": 652,
      "mp": 653,
      "Ġbhun": 654,
      "Ġgcoi": 655,
      "ini": 656,
      "Ġneamhbh": 657,
      "Ġcl": 658,
      "Ġiarscribhinn": 659,
      "anta": 660,
      "diol": 661,
      "alacha": 662,
      "Ġcoimisiun": 663,
      "Ġchuid": 664,
      "Ġroi": 665,
      "Ġbeidh": 666,
      "Ġeis": 667,
      "reimh": 668,
      "Ġti": 669,
      "Ġ]": 670,
      "Ġ[": 671,
      "Ġum": 672,
      "Ġmeid": 673,
      "Ġneamhbhainteach": 674,
      "Ġx": 675,
      "od": 676,
      "Ġain": 677,
      "ointe": 678,
      "ce": 679,
      "lu": 680,
      "Ġbp": 681,
      "Ġmiondiol": 682,
      "Ġdli": 683,
      "eac": 684,
      "Ġ15": 685,
      "Ġairitear": 686,
      "Ġach": 687,
      "Ġnaisiunta": 688,
      "en": 689,
      "Ġfaisneis": 690,
      "Ġbi": 691,
      "eirbhi": 692,
      "Ġleagtar": 693,
      "Ġmo": 694,
      "Ġ<": 695,
      "rach": 696,
      "Ġ14": 697,
      "du": 698,
      "Ġcorparaidi": 699,
      "fear": 700,
      "Ġii": 701,
      "umh": 702,
      "oll": 703,
      "Ġ16": 704,
      "Ġgach": 705,
      "Ġpharlaimint": 706,
      "Ġthabh": 707,
      "titi": 708,
      "Ġfhor": 709,
      "tion": 710,
      "rea": 711,
      "Ġgur": 712,
      "Ġeorpach": 713,
      "Ġre": 714,
      "Ġfail": 715,
      "Ġcon": 716,
      "Ġamhain": 717,
      "Ġor": 718,
      "Ġbearta": 719,
      "eangl": 720,
      "Ġimeachta": 721,
      "niu": 722,
      "Ġla": 723,
      "Ġci": 724,
      "Ġbain": 725,
      "Ġdt": 726,
      "lacadh": 727,
      "Ġsain": 728,
      "Ġfead": 729,
      "Ġseirbhi": 730,
      "oidh": 731,
      "Ġthabhairt": 732,
      "Ġnos": 733,
      "oil": 734,
      "Ġtreoir": 735,
      "Ġdoi": 736,
      "ĠâĢĺ": 737,
      "ob": 738,
      "Ġdei": 739,
      "riu": 740,
      "Ġbheidh": 741,
      "Ġceann": 742,
      "Ġ17": 743,
      "reimhse": 744,
      "Ġear": 745,
      "Ġthar": 746,
      "ĠâĢľ": 747,
      "Ġisteach": 748,
      "mhainn": 749,
      "Ġeag": 750,
      "thiu": 751,
      "Ġhair": 752,
      "Ġsiad": 753,
      "Ġthe": 754,
      "es": 755,
      "ow": 756,
      "Ġof": 757,
      "Ġ18": 758,
      "ĠâĢĿ": 759,
      "tach": 760,
      "Ġmir": 761,
      "ud": 762,
      "Ġbli": 763,
      "ineal": 764,
      "Ġais": 765,
      "uis": 766,
      "Ġabhartha": 767,
      "Ġtionsc": 768,
      "ofar": 769,
      "Ġ2021": 770,
      "Ġacu": 771,
      "Ġ21": 772,
      "Ġte": 773,
      "Ġma": 774,
      "oras": 775,
      "Ġrialacha": 776,
      "Ġtac": 777,
      "Ġur": 778,
      "uine": 779,
      "fidh": 780,
      "Ġsna": 781,
      "thi": 782,
      "Ġfaoin": 783,
      "unu": 784,
      "Ġhu": 785,
      "Ġsios": 786,
      "sa": 787,
      "lain": 788,
      "Ġbonn": 789,
      "eisti": 790,
      "lach": 791,
      "Ġhairteagal": 792,
      "Ġrann": 793,
      "airisc": 794,
      "ct": 795,
      "Ġfeidir": 796,
      "Ġbhi": 797,
      "Ġgan": 798,
      "Ġlch": 799,
      "Ġ25": 800,
      "Ġchl": 801,
      "bi": 802,
      "Ġ22": 803,
      "bheal": 804,
      "Ġ*": 805,
      "Ġchuir": 806,
      "Ġmbain": 807,
      "nnioll": 808,
      "airithe": 809,
      "Ġgcoimisiun": 810,
      "thai": 811,
      "abhail": 812,
      "Ġoifi": 813,
      "Ġceangl": 814,
      "Ġseirbhisi": 815,
      "alta": 816,
      "Ġudaras": 817,
      "Ġtairgi": 818,
      "Ġeorpaigh": 819,
      "Ġ31": 820,
      "Ġro": 821,
      "Ġ29": 822,
      "Ġlagh": 823,
      "uin": 824,
      "namh": 825,
      "Ġseachas": 826,
      "Ġ30": 827,
      "Ġthu": 828,
      "Ġionad": 829,
      "thu": 830,
      "aimh": 831,
      "Ġmbeidh": 832,
      "Ġcinneadh": 833,
      "Ġairithiu": 834,
      "eicni": 835,
      "94": 836,
      "Ġsolath": 837,
      "lacht": 838,
      "Ġndean": 839,
      "Ġchuig": 840,
      "miu": 841,
      "Ġcus": 842,
      "Ġaontas": 843,
      "Ġ23": 844,
      "Ġfeidhm": 845,
      "eim": 846,
      "gadh": 847,
      "Ġairithe": 848,
      "Ġtreimhse": 849,
      "Ġmheas": 850,
      "reis": 851,
      "nne": 852,
      "Ġhairithe": 853,
      "Ġeif": 854,
      "osc": 855,
      "Ġoibri": 856,
      "allstat": 857,
      "Ġaireamh": 858,
      "ub": 859,
      "ithe": 860,
      "Ġ\"": 861,
      "Ġex": 862,
      "asc": 863,
      "Ġts": 864,
      "Ġ24": 865,
      "Ġinn": 866,
      "uid": 867,
      "Ġtairge": 868,
      "mead": 869,
      "land": 870,
      "Ġdeanfaidh": 871,
      "rs": 872,
      "Ġca": 873,
      "Ġleibheal": 874,
      "Ġiomlan": 875,
      "aionn": 876,
      "Ġins": 877,
      "eabh": 878,
      "ic": 879,
      "ste": 880,
      "Ġ2020": 881,
      "Ġfeadfaidh": 882,
      "raithe": 883,
      "Ġceanglais": 884,
      "Ġ000": 885,
      "racha": 886,
      "ort": 887,
      "Ġmbaineann": 888,
      "Ġsoc": 889,
      "Ġtogra": 890,
      "Ġghniomh": 891,
      "pa": 892,
      "20": 893,
      "Ġgn": 894,
      "aoine": 895,
      "Ġgniomhaiochtai": 896,
      "gthe": 897,
      "Ġdhi": 898,
      "eil": 899,
      "Ġghlacadh": 900,
      "mhainni": 901,
      "50": 902,
      "30": 903,
      "Ġiomchui": 904,
      "106": 905,
      "Ġchinn": 906,
      "Ġiarra": 907,
      "Ġdti": 908,
      "Ġcai": 909,
      "Ġtabh": 910,
      "mpla": 911,
      "ty": 912,
      "Ġroinn": 913,
      "Ġbainisti": 914,
      "onar": 915,
      "am": 916,
      "Ġlion": 917,
      "ana": 918,
      "ag": 919,
      "ine": 920,
      "Ġrai": 921,
      "ord": 922,
      "abhann": 923,
      "aistigh": 924,
      "Ġsme": 925,
      "Ġfir": 926,
      "eisin": 927,
      "Ġfreisin": 928,
      "eadf": 929,
      "Ġ26": 930,
      "Ġduine": 931,
      "Ġ2013": 932,
      "Ġlaistigh": 933,
      "Ġsmec": 934,
      "Ġ28": 935,
      "Ġ0106": 936,
      "Ġbhri": 937,
      "rain": 938,
      "iula": 939,
      "oibli": 940,
      "Ġlios": 941,
      "Ġ27": 942,
      "orais": 943,
      "Ġainm": 944,
      "ora": 945,
      "Ġcrioch": 946,
      "eachtach": 947,
      "Ġcheann": 948,
      "Ġbhonn": 949,
      "eideal": 950,
      "achain": 951,
      "eall": 952,
      "osca": 953,
      "ing": 954,
      "Ġj": 955,
      "Ġbhfor": 956,
      "ara": 957,
      "Ġagh": 958,
      "Ġdata": 959,
      "eidhme": 960,
      "Ġaghaidh": 961,
      "aontu": 962,
      "mli": 963,
      "Ġaith": 964,
      "Ġteor": 965,
      "op": 966,
      "Ġnua": 967,
      "earta": 968,
      "rom": 969,
      "Ġgcuir": 970,
      "lionadh": 971,
      "Ġchead": 972,
      "Ġfhaisneis": 973,
      "Ġstai": 974,
      "toir": 975,
      "Ġpl": 976,
      "Ġtriu": 977,
      "ein": 978,
      "Ġsholath": 979,
      "Ġ2022": 980,
      "Ġghabhann": 981,
      "nam": 982,
      "nniollacha": 983,
      "Ġinfheidhme": 984,
      "Ġdhean": 985,
      "mhairi": 986,
      "rath": 987,
      "Ġtuairisc": 988,
      "vi": 989,
      "el": 990,
      "Ġ01": 991,
      "eol": 992,
      "Ġfoir": 993,
      "Ġeas": 994,
      "nithe": 995,
      "arb": 996,
      "Ġinstiti": 997,
      "eacnam": 998,
      "reas": 999,
      "Ġeisi": 1000,
      "Ġz": 1001,
      "Ġfirb": 1002,
      "Ġbonnchur": 1003,
      "at": 1004,
      "Ġ2019": 1005,
      "Ġtag": 1006,
      "Ġdeanfar": 1007,
      "Ġfeach": 1008,
      "ris": 1009,
      "Ġoibre": 1010,
      "ot": 1011,
      "nu": 1012,
      "Ġmaoi": 1013,
      "Ġiasc": 1014,
      "Ġtionch": 1015,
      "bairt": 1016,
      "Ġrialachain": 1017,
      "Ġeol": 1018,
      "reith": 1019,
      "Ġme": 1020,
      "Ġcuirtear": 1021,
      "lainte": 1022,
      "Ġballstat": 1023,
      "Ġpairti": 1024,
      "Ġudarais": 1025,
      "msi": 1026,
      "11": 1027,
      "Ġchos": 1028,
      "Ġfbmanna": 1029,
      "bhu": 1030,
      "ortha": 1031,
      "Ġrud": 1032,
      "Ġndail": 1033,
      "86": 1034,
      "Ġfein": 1035,
      "Ġmhir": 1036,
      "Ġvi": 1037,
      "Ġfreag": 1038,
      "Ġdeimh": 1039,
      "ailte": 1040,
      "uint": 1041,
      "sk": 1042,
      "aireacht": 1043,
      "Ġ2014": 1044,
      "Ġmballstat": 1045,
      "aighde": 1046,
      "Ġriar": 1047,
      "da": 1048,
      "Ġiomp": 1049,
      "Ġhudar": 1050,
      "Ġcusp": 1051,
      "Ġinfheisti": 1052,
      "Ġshain": 1053,
      "nna": 1054,
      "Ġsampla": 1055,
      "Ġleo": 1056,
      "Ġshon": 1057,
      "eacnamaioch": 1058,
      "Ġaontaithe": 1059,
      "Ġmheid": 1060,
      "Ġmhar": 1061,
      "Ġbunaithe": 1062,
      "Ġbhaint": 1063,
      "Ġmeasunu": 1064,
      "eath": 1065,
      "Ġluach": 1066,
      "Ġstaid": 1067,
      "Ġlinn": 1068,
      "Ġco": 1069,
      "Ġsoi": 1070,
      "aireach": 1071,
      "strai": 1072,
      "Ġos": 1073,
      "arasc": 1074,
      "Ġcas": 1075,
      "Ġcuid": 1076,
      "leag": 1077,
      "Ġainmh": 1078,
      "Ġ90": 1079,
      "Ġpointe": 1080,
      "Ġforalacha": 1081,
      "eala": 1082,
      "dil": 1083,
      "Ġfaisneise": 1084,
      "Ġroimh": 1085,
      "Ġtarmli": 1086,
      "Ġclar": 1087,
      "Ġnuair": 1088,
      "umhd": 1089,
      "ailtear": 1090,
      "Ġrogh": 1091,
      "naisiunta": 1092,
      "achtai": 1093,
      "Ġ2009": 1094,
      "radh": 1095,
      "reise": 1096,
      "cht": 1097,
      "ze": 1098,
      "ant": 1099,
      "gtar": 1100,
      "Ġthair": 1101,
      "Ġchoimisiun": 1102,
      "anach": 1103,
      "theach": 1104,
      "uidi": 1105,
      "Ġlean": 1106,
      "Ġmhi": 1107,
      "ochtain": 1108,
      "ma": 1109,
      "Ġdoici": 1110,
      "Ġ>": 1111,
      "Ġcu": 1112,
      "Ġcoinniollacha": 1113,
      "Ġcaili": 1114,
      "40": 1115,
      "Ġge": 1116,
      "Ġ0094": 1117,
      "of": 1118,
      "Ġmodh": 1119,
      "alar": 1120,
      "Ġeacnamaioch": 1121,
      "eidhmiu": 1122,
      "rioch": 1123,
      "eadu": 1124,
      "inear": 1125,
      "achtan": 1126,
      "Ġinni": 1127,
      "Ġtir": 1128,
      "Ġuile": 1129,
      "00000000": 1130,
      "scru": 1131,
      "Ġhudarais": 1132,
      "Ġ2018": 1133,
      "unach": 1134,
      "Ġriomh": 1135,
      "Ġfogra": 1136,
      "eap": 1137,
      "eireadh": 1138,
      "Ġil": 1139,
      "Ġmora": 1140,
      "Ġsui": 1141,
      "Ġcuirfidh": 1142,
      "eadfadh": 1143,
      "uinni": 1144,
      "Ġdear": 1145,
      "Ġtre": 1146,
      "Ġleict": 1147,
      "Ġcr": 1148,
      "aireachta": 1149,
      "Ġcineal": 1150,
      "reag": 1151,
      "Ġaige": 1152,
      "tr": 1153,
      "Ġlimi": 1154,
      "aire": 1155,
      "Ġabhar": 1156,
      "aise": 1157,
      "Ġtor": 1158,
      "Ġ40": 1159,
      "99": 1160,
      "Ġtrad": 1161,
      "Ġsort": 1162,
      "Ġthion": 1163,
      "Ġreigi": 1164,
      "Ġdul": 1165,
      "Ġein": 1166,
      "Ġoifigi": 1167,
      "inearalta": 1168,
      "Ġbe": 1169,
      "ÅĤ": 1170,
      "Ġidirnaisiunta": 1171,
      "pi": 1172,
      "Ġtuarasc": 1173,
      "Ġiarratas": 1174,
      "Ġmonar": 1175,
      "aoil": 1176,
      "pe": 1177,
      "raidh": 1178,
      "airteach": 1179,
      "Ġchorp": 1180,
      "yl": 1181,
      "Ġorthu": 1182,
      "Ġproi": 1183,
      "Ġlc": 1184,
      "Ġriarachain": 1185,
      "Ġchinneadh": 1186,
      "Ġrochtain": 1187,
      "Ġneamhair": 1188,
      "Ġfomh": 1189,
      "Ġthi": 1190,
      "Ġmas": 1191,
      "Ġearrai": 1192,
      "ĠÐ": 1193,
      "Ġfaireach": 1194,
      "omp": 1195,
      "ter": 1196,
      "Ġteicni": 1197,
      "ruithe": 1198,
      "Ġgniomhartha": 1199,
      "tri": 1200,
      "Ġ2016": 1201,
      "int": 1202,
      "untas": 1203,
      "eithic": 1204,
      "ie": 1205,
      "ireach": 1206,
      "Ġdaoine": 1207,
      "Ġriosca": 1208,
      "Ġneamhairgeadais": 1209,
      "Ġbpointe": 1210,
      "Ġiarraidh": 1211,
      "gean": 1212,
      "ment": 1213,
      "Ġathbh": 1214,
      "Ġchorparaidi": 1215,
      "aol": 1216,
      "Ġtiortha": 1217,
      "Ġteacht": 1218,
      "aine": 1219,
      "Ġ60": 1220,
      "aide": 1221,
      "oirm": 1222,
      "Ġtarmligthe": 1223,
      "31": 1224,
      "cu": 1225,
      "iste": 1226,
      "Ġdoibh": 1227,
      "reat": 1228,
      "Ġinniuil": 1229,
      "Ġ36": 1230,
      "Ġ32": 1231,
      "Ġleasaitear": 1232,
      "rioc": 1233,
      "aill": 1234,
      "Ġdha": 1235,
      "Ġreamh": 1236,
      "Ġ34": 1237,
      "rith": 1238,
      "Ġfeidhmi": 1239,
      "Ġainmhithe": 1240,
      "ragh": 1241,
      "allaionn": 1242,
      "eiri": 1243,
      "athair": 1244,
      "Ġcoras": 1245,
      "Ġfad": 1246,
      "Ġal": 1247,
      "naimh": 1248,
      "Ġfu": 1249,
      "ve": 1250,
      "bidil": 1251,
      "Ġleasu": 1252,
      "Ġiii": 1253,
      "be": 1254,
      "to": 1255,
      "Ġpoibli": 1256,
      "Ġtras": 1257,
      "pl": 1258,
      "othrom": 1259,
      "ubst": 1260,
      "dean": 1261,
      "Ġtionchar": 1262,
      "siuin": 1263,
      "teas": 1264,
      "Ġciallaionn": 1265,
      "Ġdiol": 1266,
      "Ġ+": 1267,
      "Ġsta": 1268,
      "Ġun": 1269,
      "Ġionstrai": 1270,
      "Ġriachtan": 1271,
      "Ġes": 1272,
      "Ġaonair": 1273,
      "Ġsholathar": 1274,
      "ears": 1275,
      "Ġand": 1276,
      "Ġmarg": 1277,
      "Ġ39": 1278,
      "antuil": 1279,
      "Ġdtu": 1280,
      "ois": 1281,
      "Ġnosanna": 1282,
      "taim": 1283,
      "Ġathbhreith": 1284,
      "iuch": 1285,
      "Ġearn": 1286,
      "Ġtrath": 1287,
      "Ð°": 1288,
      "Ġinniula": 1289,
      "Ġchosaint": 1290,
      "Ġbeartaithe": 1291,
      "aoin": 1292,
      "che": 1293,
      "Ġ02": 1294,
      "Ġ54": 1295,
      "Ġ57": 1296,
      "tal": 1297,
      "Ġ37": 1298,
      "ard": 1299,
      "Ġamhail": 1300,
      "Ġfos": 1301,
      "Ġ45": 1302,
      "Ġto": 1303,
      "tula": 1304,
      "mheas": 1305,
      "Ġthreoir": 1306,
      "Ġfhi": 1307,
      "lachtai": 1308,
      "urtha": 1309,
      "Ġ2011": 1310,
      "Ġ2017": 1311,
      "Ġ42": 1312,
      "Ġread": 1313,
      "arth": 1314,
      "eist": 1315,
      "anaise": 1316,
      "sab": 1317,
      "eacs": 1318,
      "Ġusaide": 1319,
      "Ġoibleag": 1320,
      "arr": 1321,
      "Ġthionsc": 1322,
      "Ġsprioc": 1323,
      "Ġceanna": 1324,
      "gen": 1325,
      "Ġimscru": 1326,
      "uinnimh": 1327,
      "ts": 1328,
      "Ġ35": 1329,
      "Ġ38": 1330,
      "Ġsu": 1331,
      "eanann": 1332,
      "60": 1333,
      "33": 1334,
      "Ġcheana": 1335,
      "Ð¸": 1336,
      "Ġ2008": 1337,
      "Ġrialaithe": 1338,
      "Ġean": 1339,
      "Ġinmh": 1340,
      "abhailt": 1341,
      "Ġdeireadh": 1342,
      "ura": 1343,
      "onsab": 1344,
      "Ġngniomh": 1345,
      "Ġ52": 1346,
      "Ġchineal": 1347,
      "tag": 1348,
      "Ġfhail": 1349,
      "unaithe": 1350,
      "Ġdoch": 1351,
      "Ġdireach": 1352,
      "phairteach": 1353,
      "Ġraon": 1354,
      "Ġmargadh": 1355,
      "Ġcum": 1356,
      "12": 1357,
      "Ġcomhair": 1358,
      "Ġcostais": 1359,
      "eatha": 1360,
      "mse": 1361,
      "Ġseal": 1362,
      "qui": 1363,
      "Ġbhli": 1364,
      "ola": 1365,
      "tigh": 1366,
      "Ġen": 1367,
      "Ġgcri": 1368,
      "Ġ46": 1369,
      "Ġinstitiuidi": 1370,
      "Ġfheadfadh": 1371,
      "ghair": 1372,
      "Ġeags": 1373,
      "Ġsland": 1374,
      "earr": 1375,
      "Ġuisc": 1376,
      "Ġleor": 1377,
      "Ġfeabh": 1378,
      "reach": 1379,
      "Ġpo": 1380,
      "Ġmbun": 1381,
      "Ġhei": 1382,
      "Ġlathair": 1383,
      "sialta": 1384,
      "oireachta": 1385,
      "lar": 1386,
      "Ġcod": 1387,
      "Ġmaith": 1388,
      "Ġoifigiuil": 1389,
      "Ġtos": 1390,
      "Ġonn": 1391,
      "Ġcuspoiri": 1392,
      "Ġcomhsh": 1393,
      "Ġbainistiochta": 1394,
      "eanach": 1395,
      "Ġbhunu": 1396,
      "Ġfheidhmiu": 1397,
      "Ġ33": 1398,
      "omlan": 1399,
      "Ġreadmh": 1400,
      "Ġpairtithe": 1401,
      "Ġfuinnimh": 1402,
      "Ġfhonn": 1403,
      "80": 1404,
      "Ġnol": 1405,
      "Ġmorg": 1406,
      "Ġteorainn": 1407,
      "Ġsha": 1408,
      "Ġtacaiocht": 1409,
      "allstait": 1410,
      "aiodh": 1411,
      "Ġcriocha": 1412,
      "Ġghn": 1413,
      "Ġfeachaint": 1414,
      "Ġchlar": 1415,
      "til": 1416,
      "Ġlaghad": 1417,
      "ed": 1418,
      "oilsi": 1419,
      "aim": 1420,
      "Ġcorais": 1421,
      "Ġbliana": 1422,
      "Ġtal": 1423,
      "aighdean": 1424,
      "Ġlaghdu": 1425,
      "Ġchomhairle": 1426,
      "Ġtabhar": 1427,
      "Ġreadmhaoin": 1428,
      "Ġbhforailtear": 1429,
      "ars": 1430,
      "Ġoifig": 1431,
      "qr": 1432,
      "ealach": 1433,
      "Ġurru": 1434,
      "Ġmorgaisti": 1435,
      "Ġgcur": 1436,
      "laig": 1437,
      "ontas": 1438,
      "Ġ53": 1439,
      "Ġdhli": 1440,
      "luais": 1441,
      "Ð¾": 1442,
      "seail": 1443,
      "Ġ0086": 1444,
      "93": 1445,
      "Ġslainte": 1446,
      "ioc": 1447,
      "Ġmbeadh": 1448,
      "Ġlar": 1449,
      "Ġfreagrach": 1450,
      "Ġaer": 1451,
      "Ġoiri": 1452,
      "Ġcomhairle": 1453,
      "Ġnollaig": 1454,
      "Ġbliain": 1455,
      "Ġtuarascail": 1456,
      "Ġthor": 1457,
      "Ġinch": 1458,
      "Ġsonracha": 1459,
      "Ġmean": 1460,
      "Ġbreise": 1461,
      "uinn": 1462,
      "Ġhoib": 1463,
      "Ġcumh": 1464,
      "Ġsm": 1465,
      "phob": 1466,
      "Ġusaidtear": 1467,
      "ras": 1468,
      "Ġpears": 1469,
      "Ðµ": 1470,
      "Ġcisti": 1471,
      "ga": 1472,
      "llmh": 1473,
      "Ġchoimi": 1474,
      "Ġhin": 1475,
      "Ġnad": 1476,
      "raionn": 1477,
      "Ġdtaca": 1478,
      "rupa": 1479,
      "omhal": 1480,
      "15": 1481,
      "Ġteag": 1482,
      "Ġ43": 1483,
      "Ġgcuid": 1484,
      "Ġfo": 1485,
      "Ġ100": 1486,
      "Ġ2012": 1487,
      "Ġbeartais": 1488,
      "Ġ55": 1489,
      "Ġ95": 1490,
      "lin": 1491,
      "Ġfeithic": 1492,
      "Ġpar": 1493,
      "Ġat": 1494,
      "Ġuas": 1495,
      "Ġfion": 1496,
      "ber": 1497,
      "Ġbith": 1498,
      "Ġtas": 1499,
      "Ġchomhlionadh": 1500,
      "Ġreimse": 1501,
      "22": 1502,
      "Ġcead": 1503,
      "teir": 1504,
      "Ġabhair": 1505,
      "Ġginearalta": 1506,
      "una": 1507,
      "Ġtear": 1508,
      "Ġcuireadh": 1509,
      "rait": 1510,
      "oladh": 1511,
      "Ġinfheistiochta": 1512,
      "ej": 1513,
      "tan": 1514,
      "toiri": 1515,
      "Ġaic": 1516,
      "Ġraibh": 1517,
      "Ġcom": 1518,
      "lean": 1519,
      "Ġsubst": 1520,
      "Ġequi": 1521,
      "Ġcomhreir": 1522,
      "Ġfhorbairt": 1523,
      "son": 1524,
      "Ġ84": 1525,
      "su": 1526,
      "aighdeain": 1527,
      "stear": 1528,
      "Ġfomhair": 1529,
      "Ġeagrai": 1530,
      "Ġgcrich": 1531,
      "70": 1532,
      "nneadh": 1533,
      "Ġaithean": 1534,
      "Ġit": 1535,
      "Ġeili": 1536,
      "Ġchoimisiuin": 1537,
      "Ġ44": 1538,
      "tic": 1539,
      "teor": 1540,
      "Ġiarr": 1541,
      "aisc": 1542,
      "16": 1543,
      "Ġsri": 1544,
      "Ġdr": 1545,
      "Ġleiri": 1546,
      "Ġpro": 1547,
      "teagail": 1548,
      "Ġeolas": 1549,
      "Ġtha": 1550,
      "Ġstrait": 1551,
      "Ġeifeachtach": 1552,
      "raid": 1553,
      "14": 1554,
      "Ġbhallstait": 1555,
      "Ġphroi": 1556,
      "ut": 1557,
      "Ġrialu": 1558,
      "arthai": 1559,
      "Ġstait": 1560,
      "Ġsar": 1561,
      "95": 1562,
      "aidhm": 1563,
      "uisead": 1564,
      "bhuan": 1565,
      "Ġ64": 1566,
      "teideal": 1567,
      "Ġ2015": 1568,
      "Ġ2006": 1569,
      "Ġnadurtha": 1570,
      "Ġcothrom": 1571,
      "Ġullmh": 1572,
      "Ġliosta": 1573,
      "eangal": 1574,
      "Ġ65": 1575,
      "13": 1576,
      "aif": 1577,
      "taiochtai": 1578,
      "Ġeu": 1579,
      "iul": 1580,
      "Ġequity": 1581,
      "ainti": 1582,
      "ms": 1583,
      "geadh": 1584,
      "Ġleagan": 1585,
      "Ġtheicni": 1586,
      "uill": 1587,
      "eile": 1588,
      "eimh": 1589,
      "Ġmeastoir": 1590,
      "Ġgcomhlion": 1591,
      "Ġfeadfar": 1592,
      "Ġroinnt": 1593,
      "Ġdoicimead": 1594,
      "Ġallmhairi": 1595,
      "Ġbharr": 1596,
      "Ġsabhailt": 1597,
      "Ġiris": 1598,
      "Ġdtugtar": 1599,
      "Ġsti": 1600,
      "Ġlimistear": 1601,
      "meid": 1602,
      "Ġndeanfar": 1603,
      "fai": 1604,
      "Ġrun": 1605,
      "Ġdiobh": 1606,
      "abhair": 1607,
      "ran": 1608,
      "Ġtaontas": 1609,
      "Ġprionsab": 1610,
      "Ġrialala": 1611,
      "Ġnil": 1612,
      "Ġgl": 1613,
      "Ġriocht": 1614,
      "mhara": 1615,
      "Ġ96": 1616,
      "Ġ85": 1617,
      "iniu": 1618,
      "mhini": 1619,
      "eartu": 1620,
      "ona": 1621,
      "ainne": 1622,
      "Ġsoisialta": 1623,
      "Ġpearsanta": 1624,
      "Ġhiar": 1625,
      "Ġiul": 1626,
      "Ġiascaireachta": 1627,
      "Ġacmhainni": 1628,
      "fa": 1629,
      "Ġthag": 1630,
      "Ġinbhuan": 1631,
      "Ġ48": 1632,
      "taitear": 1633,
      "24": 1634,
      "eg": 1635,
      "Ġpriomh": 1636,
      "arc": 1637,
      "Ġcosanta": 1638,
      "Ġcriteir": 1639,
      "Ġinarb": 1640,
      "ted": 1641,
      "Ġbhfi": 1642,
      "Ġgem": 1643,
      "Ġghlac": 1644,
      "Ġtuairi": 1645,
      "et": 1646,
      "Ġtorthai": 1647,
      "Ġreachtai": 1648,
      "Ġchonradh": 1649,
      "Ġ70": 1650,
      "Ġiompair": 1651,
      "17": 1652,
      "Ġmura": 1653,
      "neol": 1654,
      "Ġcoir": 1655,
      "Ġbeal": 1656,
      "Ġthaobh": 1657,
      "Ġnochta": 1658,
      "Ġndeantar": 1659,
      "Ġbaili": 1660,
      "Ġ47": 1661,
      "Ġ80": 1662,
      "Ġathru": 1663,
      "usaid": 1664,
      "Ġglac": 1665,
      "reithe": 1666,
      "Ġsonrach": 1667,
      "Ġaf": 1668,
      "Ġleath": 1669,
      "eicneol": 1670,
      "Ð½": 1671,
      "Ġsamh": 1672,
      "Ġforb": 1673,
      "Ġchai": 1674,
      "Ġslandala": 1675,
      "Ġios": 1676,
      "Ġsas": 1677,
      "Ġ49": 1678,
      "25": 1679,
      "gt": 1680,
      "Ġeagsula": 1681,
      "Ġreigiun": 1682,
      "Ġinar": 1683,
      "Ġ99": 1684,
      "Ġathbhreithniu": 1685,
      "Ġthoradh": 1686,
      "Ġiniuch": 1687,
      "Ġrannphairti": 1688,
      "triu": 1689,
      "Ġudaru": 1690,
      "Ġ75": 1691,
      "Ġchus": 1692,
      "Ġfior": 1693,
      "Ġrath": 1694,
      "aimi": 1695,
      "Ġrinneadh": 1696,
      "Ġtoi": 1697,
      "Ġcomhch": 1698,
      "eagar": 1699,
      "ghniomh": 1700,
      "Ġphob": 1701,
      "ov": 1702,
      "aip": 1703,
      "Ġmalar": 1704,
      "adail": 1705,
      "Ġnior": 1706,
      "aini": 1707,
      "Ġpa": 1708,
      "nath": 1709,
      "eiste": 1710,
      "Ġfrith": 1711,
      "Ġif": 1712,
      "Ġchumhd": 1713,
      "Ġcee": 1714,
      "Ġonnmhairi": 1715,
      "Ġsaoth": 1716,
      "Ġ0000": 1717,
      "Ġ2010": 1718,
      "Ġbhliain": 1719,
      "cl": 1720,
      "Ġphri": 1721,
      "Ġcuirfear": 1722,
      "Ġanaili": 1723,
      "Ġneamhch": 1724,
      "Ġ59": 1725,
      "Ġbunus": 1726,
      "seach": 1727,
      "Ġaisghair": 1728,
      "Ġearnail": 1729,
      "Ġpow": 1730,
      "Ġait": 1731,
      "nas": 1732,
      "Ġ67": 1733,
      "Ġtionscnaimh": 1734,
      "Ġcaibidil": 1735,
      "oscai": 1736,
      "Ġgmin": 1737,
      "Ġbhealach": 1738,
      "Ġleir": 1739,
      "Ġ56": 1740,
      "Ġtreor": 1741,
      "rucht": 1742,
      "Ġphoibli": 1743,
      "Ġnar": 1744,
      "ocfaidh": 1745,
      "Ġrannioc": 1746,
      "Ġchrioch": 1747,
      "Ġleithdh": 1748,
      "Ġsocmhainni": 1749,
      "Ġmeith": 1750,
      "Ġchomhaontu": 1751,
      "Ġstor": 1752,
      "ridh": 1753,
      "Ġcosaint": 1754,
      "Ġairteagail": 1755,
      "ÑĢ": 1756,
      "Ġsci": 1757,
      "tala": 1758,
      "Ġcearta": 1759,
      "Ġdochar": 1760,
      "onna": 1761,
      "Ġcomhlachtai": 1762,
      "Ġ58": 1763,
      "oireacht": 1764,
      "Ġtheann": 1765,
      "titis": 1766,
      "bhithe": 1767,
      "Ġglacadh": 1768,
      "alai": 1769,
      "Ġ2004": 1770,
      "Ġcoin": 1771,
      "Ġhion": 1772,
      "Ġstraiteis": 1773,
      "Ġama": 1774,
      "Ġleictre": 1775,
      "Ġuimhir": 1776,
      "Ġsk": 1777,
      "Ġsolathar": 1778,
      "Ġdl": 1779,
      "Ġbia": 1780,
      "Ġceap": 1781,
      "Ġtradala": 1782,
      "Ġreitigh": 1783,
      "Ġbhallstat": 1784,
      "raide": 1785,
      "alach": 1786,
      "Ġcheile": 1787,
      "sin": 1788,
      "aite": 1789,
      "Ġha": 1790,
      "Ġbhith": 1791,
      "Ġpol": 1792,
      "aileadh": 1793,
      "Ġcc": 1794,
      "naithe": 1795,
      "Ġastaiochtai": 1796,
      "ost": 1797,
      "achais": 1798,
      "Ġcustaim": 1799,
      "cha": 1800,
      "Ġ66": 1801,
      "uilleadh": 1802,
      "tac": 1803,
      "Ġmaoirs": 1804,
      "Ġdtair": 1805,
      "br": 1806,
      "ointi": 1807,
      "bhin": 1808,
      "Ġiv": 1809,
      "eidhmi": 1810,
      "Ġleictreon": 1811,
      "dhoth": 1812,
      "ici": 1813,
      "Ġmharg": 1814,
      "taine": 1815,
      "Ġceart": 1816,
      "Ġ74": 1817,
      "Ġ61": 1818,
      "Ġtasc": 1819,
      "achtar": 1820,
      "Ġleordhoth": 1821,
      "Ġbhainisti": 1822,
      "Ġmhaoi": 1823,
      "Ġeanair": 1824,
      "Ġbaint": 1825,
      "Ġaistriu": 1826,
      "Ġdeiridh": 1827,
      "Ġstat": 1828,
      "Ġmeitheamh": 1829,
      "Ġtomhal": 1830,
      "eon": 1831,
      "ghabh": 1832,
      "titeas": 1833,
      "Ġoibriochtai": 1834,
      "bla": 1835,
      "chuir": 1836,
      "ĠÎ": 1837,
      "Ġfaireachan": 1838,
      "Ġcru": 1839,
      "ompar": 1840,
      "Ġrioscai": 1841,
      "Ġphointe": 1842,
      "Ġnochtadh": 1843,
      "Ġgclar": 1844,
      "pai": 1845,
      "Ġcomhaontu": 1846,
      "Ġ41": 1847,
      "000": 1848,
      "raghs": 1849,
      "daithe": 1850,
      "Ġgnoth": 1851,
      "Ġtalmh": 1852,
      "Ġpi": 1853,
      "Ġifrs": 1854,
      "90": 1855,
      "Ġudaraithe": 1856,
      "Ġdara": 1857,
      "ĠÂ": 1858,
      "umas": 1859,
      "raingt": 1860,
      "Ġgminy": 1861,
      "Ġpr": 1862,
      "Ġgcinn": 1863,
      "Ġ62": 1864,
      "Ġairitheoidh": 1865,
      "Ġhaon": 1866,
      "mir": 1867,
      "teorann": 1868,
      "Ġreachtaiocht": 1869,
      "aile": 1870,
      "Ġsaineol": 1871,
      "Ġso": 1872,
      "Ġ98": 1873,
      "Ġ76": 1874,
      "Ġlas": 1875,
      "Ġdheanann": 1876,
      "Ġdoicimeid": 1877,
      "Ġchumh": 1878,
      "ki": 1879,
      "Ġgceist": 1880,
      "Ġndear": 1881,
      "airteanna": 1882,
      "Ġinchaili": 1883,
      "Ġ63": 1884,
      "Ġseacht": 1885,
      "Ġ87": 1886,
      "teachas": 1887,
      "Ġsrianta": 1888,
      "Ġcinnti": 1889,
      "Ġnasc": 1890,
      "ealamh": 1891,
      "Ġtrealamh": 1892,
      "rithe": 1893,
      "Ġionstraimi": 1894,
      "Ġmhargadh": 1895,
      "Ġmeasc": 1896,
      "tean": 1897,
      "Ġinstitiuid": 1898,
      "Ġchu": 1899,
      "Ġscru": 1900,
      "Ġspeic": 1901,
      "Ġ51": 1902,
      "einde": 1903,
      "mai": 1904,
      "Ġfhomh": 1905,
      "Ġlan": 1906,
      "altai": 1907,
      "Ġchas": 1908,
      "Ġfearr": 1909,
      "Ġarb": 1910,
      "Ġparlaimint": 1911,
      "Ġsceim": 1912,
      "Ġsl": 1913,
      "cam": 1914,
      "Ġoibreoiri": 1915,
      "Ġcha": 1916,
      "aiste": 1917,
      "tair": 1918,
      "ainni": 1919,
      "Ġmol": 1920,
      "Ġ72": 1921,
      "Ġteicniuil": 1922,
      "Ġ68": 1923,
      "Ġbar": 1924,
      "Ġtacu": 1925,
      "adach": 1926,
      "Ġlt": 1927,
      "Ġpe": 1928,
      "Ġob": 1929,
      "Ġcomhar": 1930,
      "Ġsiar": 1931,
      "ke": 1932,
      "uiri": 1933,
      "Ġtionscnamh": 1934,
      "Ġinbhuanaithe": 1935,
      "72": 1936,
      "Ġcaighdeain": 1937,
      "reos": 1938,
      "Ġghniomhaireacht": 1939,
      "Ġtabharfaidh": 1940,
      "Ġfeisti": 1941,
      "Ġgemeinde": 1942,
      "deach": 1943,
      "ali": 1944,
      "Ġshoc": 1945,
      "38": 1946,
      "aithint": 1947,
      "bhar": 1948,
      "Ġcunamh": 1949,
      "Ġthug": 1950,
      "spl": 1951,
      "Ġaire": 1952,
      "Ġdeimhniu": 1953,
      "ruis": 1954,
      "Ġcaighdean": 1955,
      "Ġsuas": 1956,
      "tagoir": 1957,
      "Ġeintiteas": 1958,
      "Ġscri": 1959,
      "aoir": 1960,
      "Ġgcoras": 1961,
      "Ġtaighde": 1962,
      "uchan": 1963,
      "aic": 1964,
      "seas": 1965,
      "naith": 1966,
      "34": 1967,
      "Ġdeon": 1968,
      "Ġcriche": 1969,
      "raghsanna": 1970,
      "Ġstiur": 1971,
      "leach": 1972,
      "Ġmm": 1973,
      "Ð²": 1974,
      "Ġdheantar": 1975,
      "liu": 1976,
      "Ġ2002": 1977,
      "Ġclair": 1978,
      "yd": 1979,
      "Ġneamhspl": 1980,
      "Ġtalmhaiochta": 1981,
      "Ġod": 1982,
      "Ġsocruithe": 1983,
      "tt": 1984,
      "tuithe": 1985,
      "Ġcb": 1986,
      "Ġhear": 1987,
      "ski": 1988,
      "Ġteicneol": 1989,
      "Ġfhoilsi": 1990,
      "Ġtuairim": 1991,
      "bhli": 1992,
      "men": 1993,
      "Ġ94": 1994,
      "eirbh": 1995,
      "Ġbhfianaise": 1996,
      "Ġ97": 1997,
      "Ġ05": 1998,
      "qu": 1999,
      "Ġreatha": 2000,
      "Ġ2007": 2001,
      "Ġseirbhise": 2002,
      "Ġne": 2003,
      "Ġder": 2004,
      "Ġfeadh": 2005,
      "diu": 2006,
      "Ġthionscnamh": 2007,
      "Ġhiomlan": 2008,
      "sis": 2009,
      "Ġuir": 2010,
      "tacha": 2011,
      "Ġsuntas": 2012,
      "Ġline": 2013,
      "Ġeisiuint": 2014,
      "easmh": 2015,
      "Ġforail": 2016,
      "Ġfeithicli": 2017,
      "36": 2018,
      "Ġbord": 2019,
      "eithe": 2020,
      "Ġstrucht": 2021,
      "Ġriachtanach": 2022,
      "eata": 2023,
      "Ġgeall": 2024,
      "ka": 2025,
      "Ġgcon": 2026,
      "Ġcoiste": 2027,
      "earc": 2028,
      "Ġeifeacht": 2029,
      "Ġmodhanna": 2030,
      "Ġforbairt": 2031,
      "Ġliostaitear": 2032,
      "Ġtrasteorann": 2033,
      "Ġsubstainti": 2034,
      "ramh": 2035,
      "Ġeuro": 2036,
      "Ġbhear": 2037,
      "Ġmarta": 2038,
      "Ġbeart": 2039,
      "Ġaeraide": 2040,
      "Ġchomhsh": 2041,
      "Ġgas": 2042,
      "laine": 2043,
      "Ġteagmh": 2044,
      "ia": 2045,
      "Ġsoch": 2046,
      "luach": 2047,
      "Ġbhraid": 2048,
      "Ġcar": 2049,
      "bhinsiun": 2050,
      "Ġgcuirtear": 2051,
      "Ġrata": 2052,
      "Ġ92": 2053,
      "000000000000": 2054,
      "Ġnaisiun": 2055,
      "Ġ78": 2056,
      "anacha": 2057,
      "Ġteicniula": 2058,
      "Ġ2003": 2059,
      "Ġ2001": 2060,
      "Ġbhaili": 2061,
      "ĠpoÅĤ": 2062,
      "Ġrinne": 2063,
      "35": 2064,
      "oru": 2065,
      "Ġfhomhir": 2066,
      "Ġsol": 2067,
      "Ġiuil": 2068,
      "Ġoibleagaidi": 2069,
      "giteach": 2070,
      "Ġtheannta": 2071,
      "Ġrannchui": 2072,
      "Ġilbhli": 2073,
      "18": 2074,
      "achtaran": 2075,
      "Ġbhithin": 2076,
      "Ġmionson": 2077,
      "Ġdreacht": 2078,
      "Ġwi": 2079,
      "rad": 2080,
      "othu": 2081,
      "Ġleithreas": 2082,
      "Î¿": 2083,
      "aiocha": 2084,
      "Ġtiom": 2085,
      "Ġphairti": 2086,
      "Ġgear": 2087,
      "ordu": 2088,
      "Ġorg": 2089,
      "Ġcion": 2090,
      "Ġcomhlacht": 2091,
      "Ġtagairt": 2092,
      "Ġfeidhmiochta": 2093,
      "Ġdeantar": 2094,
      "pp": 2095,
      "Ġeasc": 2096,
      "Ġbealtaine": 2097,
      "Ġfol": 2098,
      "Ġeacnamaiocha": 2099,
      "thiuil": 2100,
      "ung": 2101,
      "Ġdeanta": 2102,
      "45": 2103,
      "ealacha": 2104,
      "Ġ88": 2105,
      "Ġstad": 2106,
      "brean": 2107,
      "Ġlaimh": 2108,
      "Ġtrachta": 2109,
      "Ġstiurth": 2110,
      "oill": 2111,
      "Ġaibrean": 2112,
      "Ġdeimhnithe": 2113,
      "Ġeigean": 2114,
      "Ġcuspoir": 2115,
      "easc": 2116,
      "Ġchoinnioll": 2117,
      "98": 2118,
      "Ġfaoina": 2119,
      "omhan": 2120,
      "tract": 2121,
      "nadh": 2122,
      "Ġchuirtear": 2123,
      "reasain": 2124,
      "Ġseic": 2125,
      "Ġoibriocht": 2126,
      "aiti": 2127,
      "Ġbheadh": 2128,
      "alaithe": 2129,
      "eirbhis": 2130,
      "Ġteorainneacha": 2131,
      "eachtu": 2132,
      "Ġiontu": 2133,
      "Ġioncam": 2134,
      "Ġdeanai": 2135,
      "aireachtai": 2136,
      "Ġbhreise": 2137,
      "roth": 2138,
      "Ġ86": 2139,
      "Ġinchailithe": 2140,
      "Ġchumhacht": 2141,
      "Ġcomhphairti": 2142,
      "teanais": 2143,
      "Ġcreat": 2144,
      "eadfai": 2145,
      "teanas": 2146,
      "Ġathch": 2147,
      "Ġcumars": 2148,
      "Ġrs": 2149,
      "Ġaisghairtear": 2150,
      "Ġcailitheach": 2151,
      "Ġplean": 2152,
      "Ġchorais": 2153,
      "theacs": 2154,
      "phobail": 2155,
      "va": 2156,
      "Ġgcomhair": 2157,
      "rac": 2158,
      "Ġiompar": 2159,
      "Ġab": 2160,
      "Ġreas": 2161,
      "Ġfoirne": 2162,
      "Ġchlair": 2163,
      "Ġpland": 2164,
      "Ġuair": 2165,
      "Ġmargaidh": 2166,
      "Ġgcuirfear": 2167,
      "Ġcol": 2168,
      "Ġbu": 2169,
      "Ġfheabh": 2170,
      "Ġroimhe": 2171,
      "Ġsabhailteachta": 2172,
      "Ñģ": 2173,
      "Ġ91": 2174,
      "Ġoibleagaid": 2175,
      "Ġoili": 2176,
      "Ġdu": 2177,
      "Ð»": 2178,
      "Ġcomhlion": 2179,
      "Ġleasuithe": 2180,
      "92": 2181,
      "Ġleagtha": 2182,
      "Ġaistri": 2183,
      "Ġsaint": 2184,
      "Ġtagartha": 2185,
      "37": 2186,
      "Ġcasanna": 2187,
      "Ġrannphairteach": 2188,
      "Ġcomhdh": 2189,
      "der": 2190,
      "ciuil": 2191,
      "Ġchoiste": 2192,
      "Ġ77": 2193,
      "lei": 2194,
      "tions": 2195,
      "Ġfeidhmiu": 2196,
      "Ġlaith": 2197,
      "Ġceim": 2198,
      "Ġrogha": 2199,
      "raghas": 2200,
      "Ġmbunaitear": 2201,
      "Ġsoil": 2202,
      "Ġoibriu": 2203,
      "Ġcheangal": 2204,
      "96": 2205,
      "ÑĤ": 2206,
      "Ġdeis": 2207,
      "Ġchi": 2208,
      "Ġec": 2209,
      "Ġinti": 2210,
      "Ġaidhm": 2211,
      "Ġsch": 2212,
      "Ġeintitis": 2213,
      "Ġbhfead": 2214,
      "ceach": 2215,
      "Ġiontr": 2216,
      "ĠâĢ¢": 2217,
      "ealbh": 2218,
      "Ġea": 2219,
      "Ġshui": 2220,
      "97": 2221,
      "lithe": 2222,
      "raith": 2223,
      "Ġimroth": 2224,
      "tacal": 2225,
      "oirt": 2226,
      "Ġtrid": 2227,
      "Ġinmhean": 2228,
      "aifead": 2229,
      "Ġau": 2230,
      "mber": 2231,
      "bhe": 2232,
      "Ġcumhd": 2233,
      "Ġmort": 2234,
      "seanna": 2235,
      "Ġgcoinne": 2236,
      "Ġheif": 2237,
      "Ġcheannteideal": 2238,
      "Ġuisce": 2239,
      "Ġfhoir": 2240,
      "rofar": 2241,
      "Ġneamhspleach": 2242,
      "nach": 2243,
      "Ġimscrudu": 2244,
      "Ġndi": 2245,
      "ps": 2246,
      "Ġbhfoirm": 2247,
      "Ġidirbh": 2248,
      "steir": 2249,
      "Ġnl": 2250,
      "32": 2251,
      "mpl": 2252,
      "Ġqr": 2253,
      "Ġchoras": 2254,
      "Ġacmhainn": 2255,
      "Ġgb": 2256,
      "Ġad": 2257,
      "Ġchru": 2258,
      "cz": 2259,
      "il": 2260,
      "Ġcun": 2261,
      "Ġiocaiochtai": 2262,
      "Ġimrothlach": 2263,
      "Â°": 2264,
      "Ġmhodh": 2265,
      "Ġilbhliantuil": 2266,
      "Ġmhonar": 2267,
      "Ġgniomhaiochta": 2268,
      "Ġleictreach": 2269,
      "rimh": 2270,
      "Ġcomhreireachta": 2271,
      "Ġkg": 2272,
      "eail": 2273,
      "Ġhath": 2274,
      "Ġrsms": 2275,
      "Ġdramh": 2276,
      "Ġtionchair": 2277,
      "Ġreto": 2278,
      "Ġreachtach": 2279,
      "Ġqrre": 2280,
      "Ġgheall": 2281,
      "Ġrqr": 2282,
      "Ġsmot": 2283,
      "Ġrqrr": 2284,
      "Ġdioluine": 2285,
      "ab": 2286,
      "Ġleigh": 2287,
      "Ġchoinne": 2288,
      "Ġcuimsi": 2289,
      "and": 2290,
      "Ġleithdhaileadh": 2291,
      "Ġgno": 2292,
      "roidh": 2293,
      "Ġtabla": 2294,
      "Ġiarmh": 2295,
      "Ġhusaid": 2296,
      "Ġdocu": 2297,
      "Ġcurtha": 2298,
      "obhaid": 2299,
      "orth": 2300,
      "Ġdifear": 2301,
      "44": 2302,
      "fe": 2303,
      "reithi": 2304,
      "Ġtrom": 2305,
      "mhaire": 2306,
      "07": 2307,
      "Ġchomhair": 2308,
      "Ġshonrai": 2309,
      "Ġchoin": 2310,
      "Ġionstraim": 2311,
      "Ġgcead": 2312,
      "Ġprionsabail": 2313,
      "Ġsamhain": 2314,
      "Ġnithe": 2315,
      "teann": 2316,
      "siu": 2317,
      "Ġtacaiochta": 2318,
      "Ġmhargaidh": 2319,
      "Ġcuraimi": 2320,
      "Ġrep": 2321,
      "reimhsi": 2322,
      "Ġchosc": 2323,
      "Ġcz": 2324,
      "fhreag": 2325,
      "uigh": 2326,
      "Ġfhaigh": 2327,
      "Ġmeideanna": 2328,
      "Ġgabh": 2329,
      "Ġy": 2330,
      "reamh": 2331,
      "Ġcomhaon": 2332,
      "Ġleordhothanach": 2333,
      "dhearc": 2334,
      "Ġcomhairli": 2335,
      "Ġxx": 2336,
      "Ġtugadh": 2337,
      "Ġdheon": 2338,
      "oga": 2339,
      "Ġru": 2340,
      "Ġmeastoireacht": 2341,
      "Ġgcomhaontu": 2342,
      "Ġghinearalta": 2343,
      "daras": 2344,
      "Ġbainistiu": 2345,
      "Ġnual": 2346,
      "Ġngach": 2347,
      "thyl": 2348,
      "Ġtuairiscithe": 2349,
      "Ġlimisteir": 2350,
      "fadh": 2351,
      "teacht": 2352,
      "rus": 2353,
      "Ġleiriu": 2354,
      "sai": 2355,
      "Ġoc": 2356,
      "Ġcul": 2357,
      "Ġeurop": 2358,
      "Ġbuisead": 2359,
      "lia": 2360,
      "Ġet": 2361,
      "Ġghniomhaiochtai": 2362,
      "oid": 2363,
      "Ġthagann": 2364,
      "Ġceaptha": 2365,
      "Ġuath": 2366,
      "teanna": 2367,
      "Ġanailis": 2368,
      "eidear": 2369,
      "Ġaiti": 2370,
      "achan": 2371,
      "co": 2372,
      "Ġmeadu": 2373,
      "ner": 2374,
      "Ġ2023": 2375,
      "Ġgcasanna": 2376,
      "Ġmaol": 2377,
      "Ġusaideoiri": 2378,
      "Ġfhead": 2379,
      "ghluais": 2380,
      "Ġdhiaidh": 2381,
      "ainig": 2382,
      "Ġdhear": 2383,
      "lis": 2384,
      "Ġghear": 2385,
      "dhi": 2386,
      "Ġthainig": 2387,
      "Ġionann": 2388,
      "Ġeagraiochtai": 2389,
      "Ġfeabhra": 2390,
      "ex": 2391,
      "eananna": 2392,
      "Ġconarthai": 2393,
      "Ġol": 2394,
      "Ġinmheanach": 2395,
      "Ġgniomhaiocht": 2396,
      "Ġsuiomh": 2397,
      "Ġfheabhsu": 2398,
      "Ġie": 2399,
      "sithe": 2400,
      "cie": 2401,
      "Ġplandai": 2402,
      "Ġeil": 2403,
      "Ġeascu": 2404,
      "ghn": 2405,
      "eill": 2406,
      "Ġtheicniula": 2407,
      "oz": 2408,
      "Ġreimsi": 2409,
      "Ġtionscadail": 2410,
      "Î±": 2411,
      "Ġrialuithe": 2412,
      "niuchain": 2413,
      "gid": 2414,
      "racht": 2415,
      "Ġdil": 2416,
      "Ġcostas": 2417,
      "Ġteorann": 2418,
      "eanta": 2419,
      "Ġchuimsi": 2420,
      "Ġthuairisc": 2421,
      "Ġfin": 2422,
      "Ġcumhachtai": 2423,
      "crain": 2424,
      "bheis": 2425,
      "Ġmaoiniu": 2426,
      "Ġthac": 2427,
      "stiti": 2428,
      "amh": 2429,
      "Ġmheasunu": 2430,
      "Ġ06": 2431,
      "19": 2432,
      "Ġsheach": 2433,
      "minti": 2434,
      "Ġiascaigh": 2435,
      "Ġ93": 2436,
      "Ġforbartha": 2437,
      "Ġmonaru": 2438,
      "Ġcailiochta": 2439,
      "Ġdearbhu": 2440,
      "Ġ2005": 2441,
      "Ġextract": 2442,
      "Ġgr": 2443,
      "Ġteideal": 2444,
      "Ġthairgi": 2445,
      "Ġmhean": 2446,
      "Ġcinealacha": 2447,
      "Ġairgead": 2448,
      "ure": 2449,
      "Ġspeisialta": 2450,
      "eam": 2451,
      "Ġmaoirseachta": 2452,
      "Ġsuntasach": 2453,
      "Ġcomhlionadh": 2454,
      "Ġ130": 2455,
      "ograi": 2456,
      "choi": 2457,
      "Ġdif": 2458,
      "Ġcomhsheasmh": 2459,
      "tis": 2460,
      "hi": 2461,
      "Ġmhaol": 2462,
      "nitear": 2463,
      "laigh": 2464,
      "Ġsula": 2465,
      "Ġdheanfaidh": 2466,
      "Ġsaineolaithe": 2467,
      "Ġtosaigh": 2468,
      "mhinitear": 2469,
      "achtach": 2470,
      "Ġmu": 2471,
      "Ġshainaithint": 2472,
      "phobal": 2473,
      "airis": 2474,
      "Ġchomhaon": 2475,
      "Ġtheor": 2476,
      "Ġghniomhaiocht": 2477,
      "rupai": 2478,
      "eimi": 2479,
      "roinn": 2480,
      "Ġtabhairt": 2481,
      "reak": 2482,
      "ofai": 2483,
      "Ġcal": 2484,
      "ft": 2485,
      "Ġiocaiochta": 2486,
      "Ġionch": 2487,
      "Ġairgid": 2488,
      "Ġfomhir": 2489,
      "Ġ04": 2490,
      "luth": 2491,
      "Ġbliantuil": 2492,
      "Ġleithreasuithe": 2493,
      "Ġ08": 2494,
      "Ġfud": 2495,
      "duithe": 2496,
      "fae": 2497,
      "Ġinter": 2498,
      "Ġleasmhara": 2499,
      "Ġlip": 2500,
      "Ġobair": 2501,
      "Ġuin": 2502,
      "Ġcfae": 2503,
      "Ġgneithe": 2504,
      "gir": 2505,
      "Ġathruithe": 2506,
      "Ġbra": 2507,
      "Ġfhad": 2508,
      "Ġuisci": 2509,
      "Ġtrachtala": 2510,
      "Ġchuireann": 2511,
      "otail": 2512,
      "ligh": 2513,
      "atom": 2514,
      "Ġlin": 2515,
      "sp": 2516,
      "Ġbeag": 2517,
      "Ġcomhph": 2518,
      "Ġchustaim": 2519,
      "Ġdg": 2520,
      "Ġ07": 2521,
      "Ġcaill": 2522,
      "bheil": 2523,
      "aille": 2524,
      "Ġ73": 2525,
      "Ġgreasain": 2526,
      "Ġcaiteachas": 2527,
      "aisin": 2528,
      "Ġdhata": 2529,
      "rin": 2530,
      "Ġchearta": 2531,
      "Ġmeach": 2532,
      "Ġathnu": 2533,
      "27": 2534,
      "muigh": 2535,
      "Ġgurb": 2536,
      "tei": 2537,
      "irt": 2538,
      "Ġpt": 2539,
      "Ġtredhearc": 2540,
      "Ġdiul": 2541,
      "Ġeuratom": 2542,
      "26": 2543,
      "Ġrannphairtiocht": 2544,
      "Ġbhionn": 2545,
      "Ġdheanfar": 2546,
      "Ġreg": 2547,
      "omparaid": 2548,
      "Ġseoladh": 2549,
      "Ġtudaras": 2550,
      "eanglai": 2551,
      "Ġreiteach": 2552,
      "Ġarachais": 2553,
      "Ġchomhlion": 2554,
      "Ġpart": 2555,
      "Ġstruchtur": 2556,
      "Ġsoithi": 2557,
      "break": 2558,
      "Ġfe": 2559,
      "Ġairde": 2560,
      "Ġrialtais": 2561,
      "Ġmini": 2562,
      "Ġcaipi": 2563,
      "nan": 2564,
      "Ġriachtanais": 2565,
      "dis": 2566,
      "Ġmargai": 2567,
      "ĠÂ·": 2568,
      "seacha": 2569,
      "Ġbr": 2570,
      "ash": 2571,
      "Ġaonaid": 2572,
      "Ġtreoracha": 2573,
      "linte": 2574,
      "Ġrialtas": 2575,
      "olac": 2576,
      "ota": 2577,
      "Ġhim": 2578,
      "Ġchr": 2579,
      "Ġmun": 2580,
      "for": 2581,
      "Ġsealadach": 2582,
      "lich": 2583,
      "Ġgrupa": 2584,
      "yz": 2585,
      "28": 2586,
      "ii": 2587,
      "reidi": 2588,
      "Î¹": 2589,
      "Ġgaol": 2590,
      "ces": 2591,
      "Ġpre": 2592,
      "Ġcomhshaoil": 2593,
      "Ġhr": 2594,
      "Ġdigiteach": 2595,
      "Ġphoblacht": 2596,
      "aithi": 2597,
      "ÃŁ": 2598,
      "Ġtharraingt": 2599,
      "arthas": 2600,
      "Ġdtairgi": 2601,
      "Ġ1999": 2602,
      "anaigh": 2603,
      "Ġspriocanna": 2604,
      "Ġndearnadh": 2605,
      "Ġhyd": 2606,
      "chuibhithe": 2607,
      "tagoiri": 2608,
      "tes": 2609,
      "Ġmbeart": 2610,
      "Ġsiu": 2611,
      "Ġcuntas": 2612,
      "fc": 2613,
      "lana": 2614,
      "Ġdeanamh": 2615,
      "Ġgair": 2616,
      "Ġtei": 2617,
      "eagair": 2618,
      "seala": 2619,
      "47": 2620,
      "Ġbis": 2621,
      "Ġstaidrimh": 2622,
      "den": 2623,
      "alu": 2624,
      "eadaithe": 2625,
      "Ġhidir": 2626,
      "olachtai": 2627,
      "Ġsainaith": 2628,
      "mheid": 2629,
      "Ġricht": 2630,
      "uiseid": 2631,
      "ori": 2632,
      "Ġgcomhlionann": 2633,
      "21": 2634,
      "Ġgcomhar": 2635,
      "Ġleictreonach": 2636,
      "reacha": 2637,
      "iecie": 2638,
      "Ġhac": 2639,
      "Ġeifeachtu": 2640,
      "Ġchoir": 2641,
      "eisi": 2642,
      "Ġmhaolu": 2643,
      "Ġmhaithe": 2644,
      "Ġtuachtaran": 2645,
      "airc": 2646,
      "Ġmin": 2647,
      "Ġrach": 2648,
      "uinneamh": 2649,
      "Ġcosc": 2650,
      "churtha": 2651,
      "Ġeorpacha": 2652,
      "ofa": 2653,
      "easamh": 2654,
      "Ġpowiecie": 2655,
      "Ġionas": 2656,
      "Ðº": 2657,
      "uise": 2658,
      "Ġshi": 2659,
      "osa": 2660,
      "adal": 2661,
      "Ġ09": 2662,
      "ver": 2663,
      "Ġtheicniuil": 2664,
      "oite": 2665,
      "Ġtiocfaidh": 2666,
      "Ġchoinneail": 2667,
      "Ġmheastar": 2668,
      "xy": 2669,
      "Ġchreat": 2670,
      "Ġprze": 2671,
      "Ġbhainistiu": 2672,
      "gtha": 2673,
      "Ġaireofar": 2674,
      "56": 2675,
      "asach": 2676,
      "vid": 2677,
      "Ġglan": 2678,
      "eachtais": 2679,
      "Ġgcrioch": 2680,
      "Ġciste": 2681,
      "Ġtairgeoiri": 2682,
      "Ġfhreag": 2683,
      "ealu": 2684,
      "Ġformheas": 2685,
      "eanglaitear": 2686,
      "Ġ71": 2687,
      "leath": 2688,
      "uisc": 2689,
      "Ġshampla": 2690,
      "omhas": 2691,
      "Ġmhalar": 2692,
      "Ġshoi": 2693,
      "Ġlon": 2694,
      "ghabhail": 2695,
      "Ġ89": 2696,
      "Ġbreos": 2697,
      "Ġdhaoine": 2698,
      "Ġtoisc": 2699,
      "ograf": 2700,
      "Ġshainmhinitear": 2701,
      "Ġdomhan": 2702,
      "bhialta": 2703,
      "bel": 2704,
      "Ġcn": 2705,
      "Ġhtt": 2706,
      "Ġtabharfar": 2707,
      "Ġgcinneadh": 2708,
      "Ġcoig": 2709,
      "Ġphroiseail": 2710,
      "Ġty": 2711,
      "Ġgabhail": 2712,
      "Ġneamhri": 2713,
      "Ġphlean": 2714,
      "Ġeileamh": 2715,
      "Ġaitheantais": 2716,
      "Ġmon": 2717,
      "ren": 2718,
      "eanglas": 2719,
      "Ġpob": 2720,
      "Ġlasmuigh": 2721,
      "Ġ69": 2722,
      "Ġrol": 2723,
      "shlainte": 2724,
      "lamh": 2725,
      "Ġlini": 2726,
      "oici": 2727,
      "Ġgais": 2728,
      "88": 2729,
      "Ġgluais": 2730,
      "taigh": 2731,
      "Ġtheacht": 2732,
      "Ġgniomhu": 2733,
      "Ġsaothair": 2734,
      "ly": 2735,
      "Ġmonaroir": 2736,
      "Ġpage": 2737,
      "Ġbg": 2738,
      "Ġidirth": 2739,
      "Ġfan": 2740,
      "Ġtais": 2741,
      "Ġfeidhmiuchain": 2742,
      "ochtana": 2743,
      "aitheach": 2744,
      "Ġchumas": 2745,
      "Ġsine": 2746,
      "Ġmionsonraithe": 2747,
      "taiochta": 2748,
      "Ġwith": 2749,
      "oing": 2750,
      "Ġstadas": 2751,
      "Ġleanunach": 2752,
      "Ġtairgthe": 2753,
      "Ġ79": 2754,
      "Ġleasanna": 2755,
      "Ġmt": 2756,
      "Ġeifeachtai": 2757,
      "Ġbiodh": 2758,
      "Ġimscrudaithe": 2759,
      "66": 2760,
      "Ġtastail": 2761,
      "39": 2762,
      "Ġpraghsanna": 2763,
      "Ġgro": 2764,
      "Ġban": 2765,
      "Ġund": 2766,
      "Ġghrupa": 2767,
      "eachtas": 2768,
      "Ġcovid": 2769,
      "mhinithe": 2770,
      "thacht": 2771,
      "one": 2772,
      "Ġcarb": 2773,
      "Ġiocshlainte": 2774,
      "Ġsainch": 2775,
      "mhiniu": 2776,
      "Ġthairgeadh": 2777,
      "Ġfinal": 2778,
      "Ġullmhu": 2779,
      "obhs": 2780,
      "Ġhoibleag": 2781,
      "Ġleiritear": 2782,
      "Ġbhfeadfadh": 2783,
      "ocs": 2784,
      "maid": 2785,
      "Ġpointi": 2786,
      "Ġshonraitear": 2787,
      "Ġaistrithe": 2788,
      "Ġcor": 2789,
      "fheidhmiu": 2790,
      "Ġead": 2791,
      "riochtai": 2792,
      "Ġtreimhsi": 2793,
      "aighte": 2794,
      "Ġthuilleadh": 2795,
      "Ġaonad": 2796,
      "Ġcumarsaide": 2797,
      "Ġfaireachain": 2798,
      "Ġlv": 2799,
      "02": 2800,
      "Ġghs": 2801,
      "Ġgu": 2802,
      "Ġraiteas": 2803,
      "Ġmuiri": 2804,
      "08": 2805,
      "Ġtastala": 2806,
      "Ġcomhaltai": 2807,
      "Ġlamh": 2808,
      "Ġeagraiocht": 2809,
      "Ġteoranta": 2810,
      "Ġndeanfaidh": 2811,
      "mharc": 2812,
      "org": 2813,
      "Ġeit": 2814,
      "Ġcy": 2815,
      "Ġ5493": 2816,
      "Ġfeithicle": 2817,
      "Ġthreimhse": 2818,
      "ans": 2819,
      "Ġhearrai": 2820,
      "oic": 2821,
      "je": 2822,
      "Ġiomlaine": 2823,
      "Ġmember": 2824,
      "Ġscrios": 2825,
      "raiochta": 2826,
      "weg": 2827,
      "eum": 2828,
      "gni": 2829,
      "ruiseil": 2830,
      "seo": 2831,
      "05": 2832,
      "teal": 2833,
      "rotacal": 2834,
      "Ġbhruiseil": 2835,
      "Ġmheadu": 2836,
      "Ġspeiceas": 2837,
      "Ġcomhlach": 2838,
      "tacht": 2839,
      "Ġprionsabal": 2840,
      "Ġathchoiri": 2841,
      "ou": 2842,
      "Ġfianaise": 2843,
      "ram": 2844,
      "Ġusaideadh": 2845,
      "Ġseicealacha": 2846,
      "Ġteacs": 2847,
      "Ġscair": 2848,
      "Ġionta": 2849,
      "Ġanseo": 2850,
      "Ġfoin": 2851,
      "Ġglacfaidh": 2852,
      "reath": 2853,
      "Ġoibreoir": 2854,
      "Ġthriu": 2855,
      "teacha": 2856,
      "Ġmbi": 2857,
      "Ġafach": 2858,
      "Ġ83": 2859,
      "Ġtus": 2860,
      "Ġdearbh": 2861,
      "eithicli": 2862,
      "ump": 2863,
      "Ġuineir": 2864,
      "Ġonnmhairiuchain": 2865,
      "Ġ549300": 2866,
      "otai": 2867,
      "Ġcoimh": 2868,
      "foirt": 2869,
      "Ð´": 2870,
      "antula": 2871,
      "Ġhionstrai": 2872,
      "Ġpost": 2873,
      "Ġtairgeadh": 2874,
      "up": 2875,
      "Ġdar": 2876,
      "ochtula": 2877,
      "Ġdk": 2878,
      "tanais": 2879,
      "Ġiarratasoir": 2880,
      "eime": 2881,
      "Ġsolathrai": 2882,
      "06": 2883,
      "Ġaird": 2884,
      "icil": 2885,
      "Ġeor": 2886,
      "Ġpagebreak": 2887,
      "oist": 2888,
      "Ġidirghabh": 2889,
      "riula": 2890,
      "Ġcomhord": 2891,
      "talacha": 2892,
      "Ġmbli": 2893,
      "Ġinsc": 2894,
      "Ġmhor": 2895,
      "ten": 2896,
      "sha": 2897,
      "rachtai": 2898,
      "eithicil": 2899,
      "poir": 2900,
      "Ġsonraithe": 2901,
      "75": 2902,
      "Ġint": 2903,
      "ait": 2904,
      "Ġdtabhar": 2905,
      "Ġchaili": 2906,
      "Ġnairi": 2907,
      "Ġcomhtha": 2908,
      "Ġosc": 2909,
      "Ġsoileir": 2910,
      "Ġsealbh": 2911,
      "Ġrachaidh": 2912,
      "Ġheag": 2913,
      "Ġpriobhaid": 2914,
      "eirbhisi": 2915,
      "Ġtsa": 2916,
      "Ġtugtar": 2917,
      "ulacht": 2918,
      "Ġcomhaontuithe": 2919,
      "aoileadh": 2920,
      "Ġhid": 2921,
      "Ġdilse": 2922,
      "Ġee": 2923,
      "Ġ2000": 2924,
      "Ġvol": 2925,
      "Ġel": 2926,
      "mithe": 2927,
      "uide": 2928,
      "Ġthuas": 2929,
      "ailli": 2930,
      "Ġbhfaisneis": 2931,
      "Ġusaidfear": 2932,
      "Ġreigiuin": 2933,
      "easta": 2934,
      "46": 2935,
      "Ġluaithe": 2936,
      "Ġbac": 2937,
      "Ġthugtar": 2938,
      "Ġ03": 2939,
      "Ġtuairisciu": 2940,
      "Ġsainmhinithe": 2941,
      "Ġcze": 2942,
      "Ġsolathraithe": 2943,
      "Ġoideach": 2944,
      "chain": 2945,
      "ss": 2946,
      "Ġpion": 2947,
      "oidi": 2948,
      "Ġranniocaiocht": 2949,
      "itear": 2950,
      "Ġeisc": 2951,
      "Ġchumhdach": 2952,
      "Ġphriomh": 2953,
      "Ġurrus": 2954,
      "Ġgcomhtheacs": 2955,
      "Ġathl": 2956,
      "laidh": 2957,
      "Ġinscne": 2958,
      "Ġtuarascalacha": 2959,
      "sioc": 2960,
      "Ġtype": 2961,
      "mb": 2962,
      "Ġcuideachta": 2963,
      "Ġola": 2964,
      "Ġamhlaidh": 2965,
      "Ġruise": 2966,
      "Ġchomhphobail": 2967,
      "Ġngniomhaiochtai": 2968,
      "thiula": 2969,
      "Ġtuilleadh": 2970,
      "Ġgniomhaireachta": 2971,
      "Ġbunaiodh": 2972,
      "titigh": 2973,
      "Ġraititigh": 2974,
      "Ġ500": 2975,
      "Ġannex": 2976,
      "Ġ82": 2977,
      "77": 2978,
      "Ġseasamh": 2979,
      "Ġgceann": 2980,
      "Ġchumhdaitear": 2981,
      "58": 2982,
      "Ġcear": 2983,
      "Ġbunusacha": 2984,
      "Ġfionrai": 2985,
      "Ġglas": 2986,
      "Ġrannchuidiu": 2987,
      "Ġiarn": 2988,
      "eachtanna": 2989,
      "Ġfeabhas": 2990,
      "Ġeoraip": 2991,
      "Ġsolathair": 2992,
      "Ġbainistiocht": 2993,
      "Ġtairg": 2994,
      "ther": 2995,
      "Ġteasa": 2996,
      "roiri": 2997,
      "Ġcuideachtai": 2998,
      "Ġtromchui": 2999,
      "ÏĦ": 3000,
      "cial": 3001,
      "Ġsca": 3002,
      "Ġspreag": 3003,
      "Ġ2025": 3004,
      "Ġroghn": 3005,
      "Ġtrina": 3006,
      "meacha": 3007,
      "Ġtur": 3008,
      "tir": 3009,
      "Ġrith": 3010,
      "ticle": 3011,
      "Ġghnoth": 3012,
      "Ġnairitear": 3013,
      "Ġinfheistiochtai": 3014,
      "Ġczesc": 3015,
      "Ġtascairi": 3016,
      "Ġbhreis": 3017,
      "Ġgi": 3018,
      "uile": 3019,
      "Ġbrath": 3020,
      "Ġarticle": 3021,
      "Ġcheanna": 3022,
      "Ġidirdh": 3023,
      "Ġainmniu": 3024,
      "Ġshall": 3025,
      "gn": 3026,
      "Ïĥ": 3027,
      "Ġfoilsi": 3028,
      "orc": 3029,
      "Ġlionra": 3030,
      "Ġgran": 3031,
      "Ġcigir": 3032,
      "Ġnr": 3033,
      "Ġmalartu": 3034,
      "ealbhoiri": 3035,
      "sti": 3036,
      "Ġtomhaltoiri": 3037,
      "Ġbreis": 3038,
      "Ġsineadh": 3039,
      "oird": 3040,
      "Ġfhoralacha": 3041,
      "Ġriochta": 3042,
      "Ġchomhshaoil": 3043,
      "annai": 3044,
      "Ġfuarthas": 3045,
      "Ġgcai": 3046,
      "Ġeolaioch": 3047,
      "Ġsabhailteacht": 3048,
      "Ġainmhi": 3049,
      "Ġconarth": 3050,
      "aifi": 3051,
      "Ġpleananna": 3052,
      "Ġaithris": 3053,
      "put": 3054,
      "Ġnglacadh": 3055,
      "Ġcibe": 3056,
      "Ġprzez": 3057,
      "Ġthairis": 3058,
      "Ġtaifead": 3059,
      "Ġoifigiula": 3060,
      "oim": 3061,
      "Ġleithligh": 3062,
      "Ġleanuint": 3063,
      "Ġgm": 3064,
      "Ġtoradh": 3065,
      "Ġchruthu": 3066,
      "skim": 3067,
      "chi": 3068,
      "ments": 3069,
      "reithiun": 3070,
      "Ġdheimh": 3071,
      "Ġluch": 3072,
      "eilleagar": 3073,
      "gin": 3074,
      "Ġchri": 3075,
      "Ġfull": 3076,
      "Ġiarratais": 3077,
      "Ġcuimsitheach": 3078,
      "Ġoibriochtuil": 3079,
      "cea": 3080,
      "Îµ": 3081,
      "Ġbainc": 3082,
      "Ġdea": 3083,
      "Ġtairbhi": 3084,
      "mirce": 3085,
      "Ġstorail": 3086,
      "Ġlinii": 3087,
      "Ġmireanna": 3088,
      "tation": 3089,
      "ality": 3090,
      "Ð¸Ñ": 3091,
      "04": 3092,
      "Ġimeachtai": 3093,
      "Ġhinstiti": 3094,
      "Ġcoiteann": 3095,
      "ance": 3096,
      "Ġsceimeanna": 3097,
      "Ġtradail": 3098,
      "Ġdhiol": 3099,
      "tional": 3100,
      "Ġaicme": 3101,
      "bus": 3102,
      "Ġinput": 3103,
      "Ġneartu": 3104,
      "Ġfheidhmi": 3105,
      "Ġmoltai": 3106,
      "Ġcheap": 3107,
      "Ġceannteideal": 3108,
      "Ġstiurthoir": 3109,
      "57": 3110,
      "Ġcuiseanna": 3111,
      "Ġsul": 3112,
      "niodh": 3113,
      "Ġkr": 3114,
      "Ġndeanamh": 3115,
      "Ġcainni": 3116,
      "Ġchomhaontaithe": 3117,
      "Ġaraon": 3118,
      "Ġmiej": 3119,
      "Ġfori": 3120,
      "Ġleighis": 3121,
      "Ġtalun": 3122,
      "Ġcoibheis": 3123,
      "Ġaici": 3124,
      "Ġleibheil": 3125,
      "Ġfhormheas": 3126,
      "Ġbhearta": 3127,
      "Ġdlithiuil": 3128,
      "Ġdaon": 3129,
      "Ġranniocaiochtai": 3130,
      "tearm": 3131,
      "Ġinfheistiocht": 3132,
      "mhainneachta": 3133,
      "lisi": 3134,
      "las": 3135,
      "Ġcomhairliuchain": 3136,
      "Ġlabel": 3137,
      "Ġscrudu": 3138,
      "Ġathbhreithnithe": 3139,
      "Ġdlith": 3140,
      "Ġiso": 3141,
      "Ġlee": 3142,
      "Ġcomp": 3143,
      "Ġthuaidh": 3144,
      "fheidhmi": 3145,
      "Ġfhioru": 3146,
      "uite": 3147,
      "aisineiri": 3148,
      "Ġoiliuint": 3149,
      "Ġgnath": 3150,
      "Ġgeograf": 3151,
      "acaisti": 3152,
      "Ġfaighte": 3153,
      "Ġgri": 3154,
      "ĠâĮ": 3155,
      "Ġ&": 3156,
      "laith": 3157,
      "Ġteagh": 3158,
      "Ġmunici": 3159,
      "Ġcaipitil": 3160,
      "eisteanna": 3161,
      "Ġbhuisead": 3162,
      "Ġdheireadh": 3163,
      "Ġmunicip": 3164,
      "mar": 3165,
      "Ġdtaobh": 3166,
      "Ġfheadfai": 3167,
      "Ġcoimead": 3168,
      "Ġdiorth": 3169,
      "Ġcomhphairteach": 3170,
      "Ġneamhdh": 3171,
      "Ġleasa": 3172,
      "uinnithe": 3173,
      "Ġeigeand": 3174,
      "Ġceanglas": 3175,
      "Ġchul": 3176,
      "Ġmeastar": 3177,
      "fhoirm": 3178,
      "42": 3179,
      "Ġthairg": 3180,
      "Ġeiliminti": 3181,
      "Ġeuropol": 3182,
      "Ġgmbh": 3183,
      "Ġdro": 3184,
      "lic": 3185,
      "Ġcumhachta": 3186,
      "taionn": 3187,
      "eirme": 3188,
      "ja": 3189,
      "67": 3190,
      "Ġhacmhainni": 3191,
      "osci": 3192,
      "Ġeifeachtulacht": 3193,
      "Ġbeartas": 3194,
      "Ġfl": 3195,
      "othar": 3196,
      "Ġdluth": 3197,
      "Ġhiarscribhinn": 3198,
      "Ġhiarra": 3199,
      "Ġhoibleagaidi": 3200,
      "ĠâĹ": 3201,
      "lij": 3202,
      "Ġlaithreach": 3203,
      "84": 3204,
      "Ġchuirfear": 3205,
      "yzna": 3206,
      "Ġby": 3207,
      "Ġmeasfar": 3208,
      "Ġseirbhis": 3209,
      "alair": 3210,
      "athaoir": 3211,
      "Ġmoladh": 3212,
      "Ġ182": 3213,
      "Ġsasra": 3214,
      "Ġhoi": 3215,
      "Ġmhaoiniu": 3216,
      "aing": 3217,
      "51": 3218,
      "oinn": 3219,
      "Ġlae": 3220,
      "Ġeascraionn": 3221,
      "bhir": 3222,
      "Ġiontrail": 3223,
      "Ġnglac": 3224,
      "Ġfoch": 3225,
      "ush": 3226,
      "Ġ2024": 3227,
      "ku": 3228,
      "Ġexp": 3229,
      "Ġconradh": 3230,
      "Ġshar": 3231,
      "Ġsnaith": 3232,
      "Ġrochtana": 3233,
      "Ġwyzna": 3234,
      "Ġwyznacz": 3235,
      "Ġchoimead": 3236,
      "Ġgcos": 3237,
      "Ġmeachain": 3238,
      "caim": 3239,
      "Ġsheachaint": 3240,
      "Ġ81": 3241,
      "ons": 3242,
      "olacadh": 3243,
      "Ġbaineann": 3244,
      "Ġcre": 3245,
      "89": 3246,
      "Ġchuimsiu": 3247,
      "othabhail": 3248,
      "Ġcatagoiri": 3249,
      "bid": 3250,
      "Ġspeicis": 3251,
      "Ġthos": 3252,
      "Ġbproi": 3253,
      "za": 3254,
      "ang": 3255,
      "Ġprai": 3256,
      "ainneacha": 3257,
      "Ġghnath": 3258,
      "Ġhabhair": 3259,
      "othair": 3260,
      "anai": 3261,
      "Ġwyznaczon": 3262,
      "Ġmhion": 3263,
      "85": 3264,
      "idh": 3265,
      "Ġinoib": 3266,
      "Ġsal": 3267,
      "Ġmil": 3268,
      "ys": 3269,
      "62": 3270,
      "Ġcomhphairteanna": 3271,
      "ionann": 3272,
      "Ġtreorach": 3273,
      "Ġwyznaczonej": 3274,
      "ainte": 3275,
      "Ġcli": 3276,
      "Ġbuiseid": 3277,
      "Ġsheirbhisi": 3278,
      "Ġ101": 3279,
      "Ġeard": 3280,
      "Ġslandail": 3281,
      "Ġneamhth": 3282,
      "Ġliostaithe": 3283,
      "Ġscrud": 3284,
      "Ġmunicipality": 3285,
      "Ġrn": 3286,
      "mentation": 3287,
      "Ġinc": 3288,
      "bb": 3289,
      "Ġcomhchoi": 3290,
      "Ġarm": 3291,
      "Ġnuash": 3292,
      "neacht": 3293,
      "Ġsuite": 3294,
      "Ġnuashon": 3295,
      "Ġdheonu": 3296,
      "Ġchaibidil": 3297,
      "tain": 3298,
      "Ġmhalartu": 3299,
      "Ġbreithe": 3300,
      "Ġproiseail": 3301,
      "lachta": 3302,
      "miuil": 3303,
      "oirmeasc": 3304,
      "Ġsaru": 3305,
      "Ġfhoilsithe": 3306,
      "Ġseol": 3307,
      "Ġfhion": 3308,
      "Ġsmacht": 3309,
      "Ġcuntais": 3310,
      "lijke": 3311,
      "Ġbhailiu": 3312,
      "fheisti": 3313,
      "Ġcomhphairtiochta": 3314,
      "aoise": 3315,
      "Ġreigiunach": 3316,
      "Ġtreid": 3317,
      "Ġdaonna": 3318,
      "mhaireoir": 3319,
      "eatad": 3320,
      "Ġnota": 3321,
      "Ġgealltanais": 3322,
      "Ġiarrth": 3323,
      "pt": 3324,
      "Ġhas": 3325,
      "Ġschen": 3326,
      "taiodh": 3327,
      "Ġcatagoir": 3328,
      "Ġgcumhd": 3329,
      "thaite": 3330,
      "Ġfisi": 3331,
      "ding": 3332,
      "Ġail": 3333,
      "Ġsg": 3334,
      "Ġinfheiste": 3335,
      "Ġbonneagar": 3336,
      "Ġve": 3337,
      "Ġionadai": 3338,
      "urg": 3339,
      "bhear": 3340,
      "Ġstaidreamh": 3341,
      "Ġaisioc": 3342,
      "Ġinniu": 3343,
      "Ġgceanglas": 3344,
      "Ġceimi": 3345,
      "ĠâĹ»": 3346,
      "Ġstoc": 3347,
      "lanna": 3348,
      "ghnoth": 3349,
      "Ġluachanna": 3350,
      "ĠâĢ²": 3351,
      "ulacha": 3352,
      "Ġteas": 3353,
      "roir": 3354,
      "Ġbpairti": 3355,
      "Ġdocumentation": 3356,
      "direach": 3357,
      "Ïģ": 3358,
      "Î·": 3359,
      "Ġeanlaith": 3360,
      "eaf": 3361,
      "Ġjp": 3362,
      "Ġoifigeach": 3363,
      "Ġbhfeadfar": 3364,
      "54": 3365,
      "Ġclaraithe": 3366,
      "raite": 3367,
      "Ġdtion": 3368,
      "83": 3369,
      "Ġschengen": 3370,
      "Ġdheas": 3371,
      "osanna": 3372,
      "Ġisle": 3373,
      "orf": 3374,
      "theacha": 3375,
      "Ġgcomparaid": 3376,
      "Ġmuir": 3377,
      "Ġxi": 3378,
      "Ġgceart": 3379,
      "poiri": 3380,
      "reacht": 3381,
      "Ġcanach": 3382,
      "char": 3383,
      "Ġmhoill": 3384,
      "Ġscribhinn": 3385,
      "Ġlarnach": 3386,
      "laithe": 3387,
      "Ġrh": 3388,
      "Ġsciar": 3389,
      "Ġseachtracha": 3390,
      "Ġtire": 3391,
      "roid": 3392,
      "aois": 3393,
      "Ġintire": 3394,
      "82": 3395,
      "unuithe": 3396,
      "feadh": 3397,
      "Ġndeanfai": 3398,
      "Ġueum": 3399,
      "eiricea": 3400,
      "iat": 3401,
      "ko": 3402,
      "zi": 3403,
      "87": 3404,
      "pc": 3405,
      "alg": 3406,
      "Ġper": 3407,
      "Ġsimp": 3408,
      "landail": 3409,
      "reabh": 3410,
      "Ġgnolachtai": 3411,
      "Ġroghanna": 3412,
      "do": 3413,
      "Ġiarbhir": 3414,
      "Ġfrom": 3415,
      "Ġteil": 3416,
      "eanglais": 3417,
      "Ġsw": 3418,
      "mhar": 3419,
      "Ġchlois": 3420,
      "ogail": 3421,
      "52": 3422,
      "Ġtot": 3423,
      "Î½": 3424,
      "Ġfhoilsiu": 3425,
      "chod": 3426,
      "Ġcomhalta": 3427,
      "Ġdan": 3428,
      "Ġfinan": 3429,
      "Ġcomhfhreag": 3430,
      "ist": 3431,
      "Ġpor": 3432,
      "uimh": 3433,
      "Ġfhag": 3434,
      "Ġmbionn": 3435,
      "ds": 3436,
      "ainm": 3437,
      "Ġproiseala": 3438,
      "41": 3439,
      "ceacha": 3440,
      "Ġcabh": 3441,
      "Ġdirithe": 3442,
      "ineail": 3443,
      "Ġiosta": 3444,
      "abhailteacht": 3445,
      "oicimead": 3446,
      "Ġsheacht": 3447,
      "Ġoil": 3448,
      "no": 3449,
      "lann": 3450,
      "thar": 3451,
      "Ġratai": 3452,
      "Ġghair": 3453,
      "Ġtairbhe": 3454,
      "ÃŁe": 3455,
      "Ġeitil": 3456,
      "Ġcomhchuibhithe": 3457,
      "Ġshaor": 3458,
      "Ġchuirfidh": 3459,
      "Ġaonfhoirm": 3460,
      "red": 3461,
      "Ġaan": 3462,
      "Ġmheiricea": 3463,
      "Ġasse": 3464,
      "Ġioncaim": 3465,
      "Ġsainmhiniu": 3466,
      "Ġstaideir": 3467,
      "Ġfeidear": 3468,
      "ba": 3469,
      "Ġreasun": 3470,
      "Ġrichting": 3471,
      "Ġproiseas": 3472,
      "kow": 3473,
      "asacha": 3474,
      "Ġcruinn": 3475,
      "rop": 3476,
      "Ġtreoirlinte": 3477,
      "aiola": 3478,
      "cheim": 3479,
      "chl": 3480,
      "Ġstoic": 3481,
      "Ġearnalacha": 3482,
      "Ġleictreachais": 3483,
      "liachta": 3484,
      "ĠpoÅĤoz": 3485,
      "Ġcreidi": 3486,
      "Ġmaoirseacht": 3487,
      "53": 3488,
      "Ġtionscadal": 3489,
      "Ġvolgen": 3490,
      "Ġdeiseanna": 3491,
      "Ġpowiat": 3492,
      "Ġchisti": 3493,
      "Ġpoblacht": 3494,
      "Ġmeastoireachta": 3495,
      "Ġroghnu": 3496,
      "Ġtearmai": 3497,
      "Ġchiste": 3498,
      "Ġngl": 3499,
      "eimhlithe": 3500,
      "ĠpoÅĤozona": 3501,
      "Ġcbes": 3502,
      "est": 3503,
      "Ġblianta": 3504,
      "Ġtionscal": 3505,
      "ties": 3506,
      "Ġsaruithe": 3507,
      "tor": 3508,
      "rachta": 3509,
      "toireacht": 3510,
      "Ġrialta": 3511,
      "Ġinoibrith": 3512,
      "Ġsuil": 3513,
      "43": 3514,
      "Ġtharmli": 3515,
      "Ġndiaidh": 3516,
      "Ġdie": 3517,
      "Ġchaighdean": 3518,
      "Ġgrupai": 3519,
      "go": 3520,
      "Ġpolaiti": 3521,
      "nie": 3522,
      "Ġhttps": 3523,
      "Ïħ": 3524,
      "tz": 3525,
      "Ġbhfeadfai": 3526,
      "Ġthios": 3527,
      "Ġsiud": 3528,
      "Ġiseal": 3529,
      "Ġshonracha": 3530,
      "Ġdramhaiola": 3531,
      "zy": 3532,
      "Ġshocru": 3533,
      "Ġcomhsheasmhach": 3534,
      "Ġdam": 3535,
      "omhnu": 3536,
      "mer": 3537,
      "aifid": 3538,
      "Ġsonraiochtai": 3539,
      "Ġpairt": 3540,
      "Ġdliteanais": 3541,
      "Ġfostaiochta": 3542,
      "Ġmiejsc": 3543,
      "Ġoiriunaithe": 3544,
      "osp": 3545,
      "Ġcumas": 3546,
      "sen": 3547,
      "eanacha": 3548,
      "Ġthairge": 3549,
      "Ġeacht": 3550,
      "Ġgnothais": 3551,
      "Ġsochair": 3552,
      "thosca": 3553,
      "Ġpin": 3554,
      "ailt": 3555,
      "liochta": 3556,
      "Ġmit": 3557,
      "ale": 3558,
      "oibrioch": 3559,
      "Ġbhoird": 3560,
      "69": 3561,
      "Ġsasrai": 3562,
      "23": 3563,
      "altas": 3564,
      "Ġainmnithe": 3565,
      "03": 3566,
      "leathach": 3567,
      "Ġndeanann": 3568,
      "Ġthuairisciu": 3569,
      "Ġbas": 3570,
      "Ġmiejscow": 3571,
      "Ġgniomhaireachtai": 3572,
      "Ġeigeandala": 3573,
      "Ġcuig": 3574,
      "Ġsheal": 3575,
      "Ġchomhlionann": 3576,
      "Ġgar": 3577,
      "onta": 3578,
      "Ġgor": 3579,
      "Ġcinealch": 3580,
      "Ġinmheanacha": 3581,
      "Ġfis": 3582,
      "Ġgcaoi": 3583,
      "gy": 3584,
      "raiocht": 3585,
      "ÏĢ": 3586,
      "dit": 3587,
      "traÃŁe": 3588,
      "Ð¾Ð²": 3589,
      "Ġucrain": 3590,
      "Ġtabhachtach": 3591,
      "Ġrialaitear": 3592,
      "Ġbpri": 3593,
      "Ġproisis": 3594,
      "thre": 3595,
      "Ġshuiomh": 3596,
      "Ġmac": 3597,
      "Ġhionstraimi": 3598,
      "Ġdtar": 3599,
      "lleadh": 3600,
      "Ġphraghas": 3601,
      "Ġnualaiocht": 3602,
      "Ġcrr": 3603,
      "Ġghno": 3604,
      "eini": 3605,
      "Ġimrei": 3606,
      "Ġluaitear": 3607,
      "01": 3608,
      "Ġmodheol": 3609,
      "Ġnaisiunaigh": 3610,
      "asacht": 3611,
      "usc": 3612,
      "Ġser": 3613,
      "Ġachoim": 3614,
      "scrudu": 3615,
      "Ġghe": 3616,
      "Ġbhfeadfaidh": 3617,
      "Ġurram": 3618,
      "Ġhk": 3619,
      "Ġcailiocht": 3620,
      "Ġngeall": 3621,
      "Ġoibrithe": 3622,
      "Ġoll": 3623,
      "Ġvii": 3624,
      "lla": 3625,
      "Ġfaide": 3626,
      "Ġphrotacal": 3627,
      "roc": 3628,
      "sear": 3629,
      "Ġdlithiula": 3630,
      "Ġtaobh": 3631,
      "Ġaitheantas": 3632,
      "Ġshoisialta": 3633,
      "Ġiarnroid": 3634,
      "neacha": 3635,
      "Ġoiriunu": 3636,
      "Ġchatagoir": 3637,
      "Ġteachtaireacht": 3638,
      "oingse": 3639,
      "Ġmei": 3640,
      "Ġform": 3641,
      "Ġbo": 3642,
      "Ġoibriochtula": 3643,
      "Ġmhol": 3644,
      "Ġcomhlan": 3645,
      "Ġ575": 3646,
      "Ġthras": 3647,
      "Ġsraith": 3648,
      "Ġionadaithe": 3649,
      "Ġacmhainneacht": 3650,
      "Ġcroi": 3651,
      "Ġtharchur": 3652,
      "Ġtheas": 3653,
      "Ġstaidear": 3654,
      "Ġbaill": 3655,
      "91": 3656,
      "ate": 3657,
      "Ġkm": 3658,
      "Ġbunu": 3659,
      "Ġgaolmhara": 3660,
      "Ġathnuaite": 3661,
      "Ġbeatha": 3662,
      "Ġrialuchain": 3663,
      "Ġchoinbhinsiun": 3664,
      "main": 3665,
      "Ġ107": 3666,
      "Ġoibriuchain": 3667,
      "Ġic": 3668,
      "Ġhearn": 3669,
      "Ġtreidliachta": 3670,
      "Ġmeastach": 3671,
      "Ġdroge": 3672,
      "55": 3673,
      "Ġstu": 3674,
      "Ġlen": 3675,
      "Ġgciste": 3676,
      "Ġ2027": 3677,
      "Ġfear": 3678,
      "rec": 3679,
      "Ġleirionn": 3680,
      "Ġtarmligean": 3681,
      "chan": 3682,
      "Ġtailli": 3683,
      "Ġpaisineiri": 3684,
      "Ġthugann": 3685,
      "Ġcoimhd": 3686,
      "ceann": 3687,
      "Ð¼": 3688,
      "dorf": 3689,
      "Ġathleim": 3690,
      "Ġbei": 3691,
      "Ġoscailte": 3692,
      "Ġsheol": 3693,
      "ves": 3694,
      "ust": 3695,
      "gann": 3696,
      "Ġathsh": 3697,
      "Ġdteideal": 3698,
      "osai": 3699,
      "Ġinneal": 3700,
      "teamh": 3701,
      "Ġfeiste": 3702,
      "Ġ300": 3703,
      "unt": 3704,
      "Ġdomhanda": 3705,
      "Ġdhlithiuil": 3706,
      "Ġstorala": 3707,
      "Ġpoist": 3708,
      "Ġlinte": 3709,
      "61": 3710,
      "Ġchum": 3711,
      "Ġgcreat": 3712,
      "Ġfas": 3713,
      "Ġdhiul": 3714,
      "Ġfeidhmeanna": 3715,
      "Ġsann": 3716,
      "Ġsnaithini": 3717,
      "teidil": 3718,
      "umpala": 3719,
      "les": 3720,
      "rim": 3721,
      "Ġpionois": 3722,
      "78": 3723,
      "Ġaitiuil": 3724,
      "Ġhidri": 3725,
      "Ġuirlisi": 3726,
      "Ġchoig": 3727,
      "Ġop": 3728,
      "Ġdtre": 3729,
      "Ġteagmhala": 3730,
      "Ġmbonn": 3731,
      "Ġsuim": 3732,
      "line": 3733,
      "Ġnasctha": 3734,
      "Ġshlainte": 3735,
      "09": 3736,
      "ha": 3737,
      "Ġpairteach": 3738,
      "Ġreigiunacha": 3739,
      "Ġbhliantuil": 3740,
      "Ġmead": 3741,
      "unai": 3742,
      "Ġcleachtais": 3743,
      "29": 3744,
      "48": 3745,
      "Ġthais": 3746,
      "Ġmhaoirs": 3747,
      "Ġmiejscowosci": 3748,
      "Ġuirthi": 3749,
      "lainne": 3750,
      "Ġchuirt": 3751,
      "Ġsaoraidi": 3752,
      "Ġtionscl": 3753,
      "Ġfheadfar": 3754,
      "Ġfhaightear": 3755,
      "Ġlot": 3756,
      "achas": 3757,
      "tanas": 3758,
      "Ġualach": 3759,
      "49": 3760,
      "Ġener": 3761,
      "Ġngniomhaireacht": 3762,
      "roinnt": 3763,
      "Ġwhi": 3764,
      "Ġtoirmeasc": 3765,
      "Ġsceimhlithe": 3766,
      "Ġoifigigh": 3767,
      "par": 3768,
      "altais": 3769,
      "sil": 3770,
      "Ġconcl": 3771,
      "Ñĥ": 3772,
      "Ġadh": 3773,
      "302": 3774,
      "thaithe": 3775,
      "Ġthomhal": 3776,
      "riuil": 3777,
      "adhb": 3778,
      "Ġcoun": 3779,
      "res": 3780,
      "tive": 3781,
      "acs": 3782,
      "Ġainmni": 3783,
      "ria": 3784,
      "Ġngabhann": 3785,
      "Ġ5299": 3786,
      "eangail": 3787,
      "Ġcheadu": 3788,
      "Ġbaile": 3789,
      "Ġshocmhainni": 3790,
      "Ġcomhordu": 3791,
      "onnaithe": 3792,
      "ers": 3793,
      "ciula": 3794,
      "Ġhein": 3795,
      "Ġgcui": 3796,
      "Ġbainistithe": 3797,
      "Ġfheadfaidh": 3798,
      "Ġsibhialta": 3799,
      "Ġfoireann": 3800,
      "lath": 3801,
      "Ġcomhchos": 3802,
      "Ġbard": 3803,
      "Ġachoimre": 3804,
      "Ġfios": 3805,
      "aitheacha": 3806,
      "reofar": 3807,
      "Ġchomhar": 3808,
      "Ġinmheanaigh": 3809,
      "he": 3810,
      "athaoirleach": 3811,
      "Ġngleic": 3812,
      "65": 3813,
      "Ġmaolu": 3814,
      "wi": 3815,
      "Ġfuinneamh": 3816,
      "Ġheifeachtach": 3817,
      "71": 3818,
      "Ġcomhthaite": 3819,
      "Ġlong": 3820,
      "Ġhoibre": 3821,
      "aistil": 3822,
      "Ġsocru": 3823,
      "Ġinfheisteoiri": 3824,
      "mhach": 3825,
      "reann": 3826,
      "Ġghnothu": 3827,
      "ks": 3828,
      "ww": 3829,
      "Ġbl": 3830,
      "Ġdramhail": 3831,
      "Ġdtreoir": 3832,
      "aoirse": 3833,
      "Ġhucrain": 3834,
      "Ġtagar": 3835,
      "Ġaithint": 3836,
      "Ġef": 3837,
      "Ġhucraine": 3838,
      "anaithe": 3839,
      "Ġbog": 3840,
      "Ġgcaibidil": 3841,
      "reata": 3842,
      "Ġbhia": 3843,
      "Ġapp": 3844,
      "Ġaeri": 3845,
      "Ġshonru": 3846,
      "Ġneamhchomh": 3847,
      "Ġdalai": 3848,
      "Ġsonraitear": 3849,
      "Ġtreal": 3850,
      "Ġaicmiu": 3851,
      "Ġfhaigheann": 3852,
      "icy": 3853,
      "Ġoiliuna": 3854,
      "mhair": 3855,
      "Ġcm": 3856,
      "Ġdhireach": 3857,
      "Ġfho": 3858,
      "Ġrannphairtithe": 3859,
      "Ġtaistil": 3860,
      "Ġindi": 3861,
      "Ġchod": 3862,
      "Ġ529900": 3863,
      "saithe": 3864,
      "Ġocs": 3865,
      "Ġsampl": 3866,
      "Ġeisithe": 3867,
      "ald": 3868,
      "Ġinst": 3869,
      "oxy": 3870,
      "Ġgcoin": 3871,
      "Ġtugtha": 3872,
      "Ġdtriu": 3873,
      "Ġleachtach": 3874,
      "Ġiomlana": 3875,
      "Ġlionrai": 3876,
      "Ġscruduchain": 3877,
      "Ġphobal": 3878,
      "Ġspreagadh": 3879,
      "Ġmic": 3880,
      "Ġcala": 3881,
      "Ġcomhreireach": 3882,
      "Ġcredit": 3883,
      "Ġidirbheart": 3884,
      "Ġtaithi": 3885,
      "Ġclini": 3886,
      "Ġsaintreithe": 3887,
      "churs": 3888,
      "Ġhioc": 3889,
      "Ġlucht": 3890,
      "Ġdtir": 3891,
      "Ġgearr": 3892,
      "man": 3893,
      "Ġiasachtai": 3894,
      "Ġdeontais": 3895,
      "Ġndaoine": 3896,
      "Ġtarchurtha": 3897,
      "adacha": 3898,
      "Ġwhich": 3899,
      "Ġtaifid": 3900,
      "Ġ110": 3901,
      "Ġrathaiocht": 3902,
      "chomh": 3903,
      "Ġlotn": 3904,
      "Ġtairisc": 3905,
      "81": 3906,
      "Ġsonraigh": 3907,
      "gine": 3908,
      "Ġnui": 3909,
      "Ġgroup": 3910,
      "Ġlaimhseail": 3911,
      "ata": 3912,
      "Ġaitiula": 3913,
      "Ġcomhordaithe": 3914,
      "Ġfireann": 3915,
      "Ġtairgeachta": 3916,
      "Ġhais": 3917,
      "Ġbru": 3918,
      "Ĥ¬": 3919,
      "Ġviosa": 3920,
      "titu": 3921,
      "Ġcoinne": 3922,
      "Ġcen": 3923,
      "Ġfhoin": 3924,
      "ry": 3925,
      "abhailte": 3926,
      "gair": 3927,
      "Ġteicneolaiochtai": 3928,
      "Ġhuile": 3929,
      "ushlain": 3930,
      "ghairm": 3931,
      "Ġgranicy": 3932,
      "Ġfeirme": 3933,
      "sealbhoiri": 3934,
      "ck": 3935,
      "mina": 3936,
      "Ġeuropa": 3937,
      "Ġsoghluais": 3938,
      "Ġiti": 3939,
      "Ġcoinbhinsiun": 3940,
      "din": 3941,
      "ÐµÐ½": 3942,
      "Ġcomhphobail": 3943,
      "Ġchomhch": 3944,
      "Ġachomh": 3945,
      "fort": 3946,
      "anra": 3947,
      "ĠâĤ¬": 3948,
      "Ġbreosla": 3949,
      "Ġscaip": 3950,
      "ghniomhu": 3951,
      "Ġeifeachtuil": 3952,
      "Ġâī": 3953,
      "ruth": 3954,
      "Ġidi": 3955,
      "Ġlai": 3956,
      "isa": 3957,
      "Ġtharla": 3958,
      "Ġtairbhithe": 3959,
      "obhsaiocht": 3960,
      "oig": 3961,
      "Ġbheag": 3962,
      "Ġiomaioch": 3963,
      "Ġball": 3964,
      "Ġshabhailteacht": 3965,
      "Ġmarc": 3966,
      "leain": 3967,
      "Ġphol": 3968,
      "Ġlarion": 3969,
      "Ġmoite": 3970,
      "Ġgnothas": 3971,
      "Ġuineireacht": 3972,
      "Ġgniomhach": 3973,
      "Ġinstitu": 3974,
      "Ġnualaiochta": 3975,
      "Ġthre": 3976,
      "ark": 3977,
      "Ġiniuchoireachta": 3978,
      "eanga": 3979,
      "Ġgeografach": 3980,
      "Ġhoibriochtai": 3981,
      "bili": 3982,
      "Ġtrealaimh": 3983,
      "uas": 3984,
      "teachais": 3985,
      "Ġcruach": 3986,
      "Ġmaille": 3987,
      "Ġchaoi": 3988,
      "Ġbio": 3989,
      "rainc": 3990,
      "Ġhydro": 3991,
      "Ġainmhioch": 3992,
      "Ġrund": 3993,
      "Ġthaifead": 3994,
      "Ġgcomhliontar": 3995,
      "Ġmhead": 3996,
      "Ġtairseach": 3997,
      "ireacha": 3998,
      "Ġcriochnaith": 3999,
      "Ġtra": 4000,
      "Ġbheartais": 4001,
      "eithre": 4002,
      "Ġglacfar": 4003,
      "Ġ2030": 4004,
      "mhi": 4005,
      "76": 4006,
      "rse": 4007,
      "Ġbreith": 4008,
      "reathn": 4009,
      "Ġcuntasaiochta": 4010,
      "lire": 4011,
      "Ġwww": 4012,
      "ven": 4013,
      "cra": 4014,
      "eachtuil": 4015,
      "Ġtuaithe": 4016,
      "Ġcheim": 4017,
      "Ġdoc": 4018,
      "Ġcaillteanais": 4019,
      "eantar": 4020,
      "Ġtearma": 4021,
      "ska": 4022,
      "Ġcoibheiseach": 4023,
      "Ġfhorchur": 4024,
      "Ġdtionsc": 4025,
      "Ġlaghd": 4026,
      "Ġphairt": 4027,
      "Ġmonarcha": 4028,
      "Ġinbhuanaith": 4029,
      "Ġtimp": 4030,
      "Ġbheartas": 4031,
      "Ġdhul": 4032,
      "Ġalia": 4033,
      "Ġ}": 4034,
      "Ġairgeadra": 4035,
      "Ġoir": 4036,
      "Ġthomhas": 4037,
      "oilse": 4038,
      "Ġthiolacadh": 4039,
      "ghil": 4040,
      "Ġdteann": 4041,
      "Ġfeidhmiocht": 4042,
      "Ġdocument": 4043,
      "Ġtosaiochta": 4044,
      "Ġbag": 4045,
      "Ġaithnitear": 4046,
      "Ġsr": 4047,
      "Ġsrian": 4048,
      "Ġgconai": 4049,
      "Ġeagru": 4050,
      "Ġonnmhairiu": 4051,
      "fo": 4052,
      "Ġcop": 4053,
      "ionsc": 4054,
      "Ġ150": 4055,
      "tearmach": 4056,
      "Ġcaighdeanaithe": 4057,
      "Ġexpos": 4058,
      "atic": 4059,
      "aimead": 4060,
      "via": 4061,
      "Ġ2026": 4062,
      "Ġiomaiochta": 4063,
      "Ġbhfuiltear": 4064,
      "Ġthat": 4065,
      "020": 4066,
      "taiocht": 4067,
      "sion": 4068,
      "Ġchomhdh": 4069,
      "earrai": 4070,
      "Ġtrans": 4071,
      "pti": 4072,
      "vel": 4073,
      "Ġfheidhm": 4074,
      "nia": 4075,
      "eabhar": 4076,
      "Ġltd": 4077,
      "Ġchlaru": 4078,
      "Ġcionn": 4079,
      "Ġcodanna": 4080,
      "Ġtuairimi": 4081,
      "Ġdeir": 4082,
      "Ġbhothar": 4083,
      "omhais": 4084,
      "Ġsaol": 4085,
      "so": 4086,
      "Ġdanmhair": 4087,
      "Ġtagairti": 4088,
      "ger": 4089,
      "Ġfhrith": 4090,
      "Ġsholathraionn": 4091,
      "Ġ105": 4092,
      "Ġseachtrach": 4093,
      "Ġtastalacha": 4094,
      "Ġathchoiriu": 4095,
      "Ġtaraif": 4096,
      "Ġfhogra": 4097,
      "Ġthionscal": 4098,
      "Ġngniomhaiocht": 4099,
      "Ġbarulacha": 4100,
      "Ġbhunus": 4101,
      "Ġfhorfheidhmiu": 4102,
      "Ġphroiseas": 4103,
      "Ġgcl": 4104,
      "miula": 4105,
      "Ġairithi": 4106,
      "Ġvis": 4107,
      "mo": 4108,
      "Ġchomhtha": 4109,
      "Ġ040": 4110,
      "Ð¸Ñĩ": 4111,
      "Ġord": 4112,
      "reasan": 4113,
      "Ġlenar": 4114,
      "Ġona": 4115,
      "cid": 4116,
      "alairt": 4117,
      "Ġleigheas": 4118,
      "Ġfhoirm": 4119,
      "Ġfhianaise": 4120,
      "Ġtalamh": 4121,
      "ric": 4122,
      "ures": 4123,
      "oingseoireachta": 4124,
      "raiochtai": 4125,
      "Ġbpointi": 4126,
      "sul": 4127,
      "Ġfreas": 4128,
      "Ġaeraid": 4129,
      "Ġfiu": 4130,
      "reoidh": 4131,
      "Ġacute": 4132,
      "Ġheili": 4133,
      "Ġfhrainc": 4134,
      "Ġaeriomp": 4135,
      "Ġneamhspleachas": 4136,
      "Ġfheidhmiocht": 4137,
      "Ð³": 4138,
      "eoidh": 4139,
      "Ġaschur": 4140,
      "linse": 4141,
      "Ġuasta": 4142,
      "Ġcoiriula": 4143,
      "Ġ102": 4144,
      "Ġtseirbhis": 4145,
      "Ġgcuireann": 4146,
      "shaoth": 4147,
      "Ġ120": 4148,
      "Ġriachtanacha": 4149,
      "Ġpas": 4150,
      "Ġsaothar": 4151,
      "Ġheic": 4152,
      "64": 4153,
      "Ġpraghas": 4154,
      "Ġteaghlaigh": 4155,
      "quis": 4156,
      "Ġgcus": 4157,
      "Ġxxx": 4158,
      "eangailte": 4159,
      "Ġleanfaidh": 4160,
      "Ġfeideartha": 4161,
      "bhiu": 4162,
      "Ġgleas": 4163,
      "Ġchostais": 4164,
      "Ġ{": 4165,
      "Ġidirbhearta": 4166,
      "Ġbhfaigh": 4167,
      "mhail": 4168,
      "unadh": 4169,
      "wa": 4170,
      "Ġiarmhar": 4171,
      "Ġchreata": 4172,
      "Ġviosai": 4173,
      "Ġdtear": 4174,
      "Ġ114": 4175,
      "Ġbonneagair": 4176,
      "ok": 4177,
      "onsabal": 4178,
      "eatadan": 4179,
      "eise": 4180,
      "Ġgcomhsh": 4181,
      "Ġforfheidhmi": 4182,
      "Ġrad": 4183,
      "Ġneamhchos": 4184,
      "Ġcoip": 4185,
      "Ġoibriochta": 4186,
      "Ġthabhar": 4187,
      "Ġleoch": 4188,
      "liocht": 4189,
      "Ġsoitheach": 4190,
      "bear": 4191,
      "Ġchothabhail": 4192,
      "ser": 4193,
      "Ġnet": 4194,
      "Ġdoicimeadacht": 4195,
      "Ġforais": 4196,
      "Ġgcuirfidh": 4197,
      "Ġhol": 4198,
      "Ġdhaon": 4199,
      "Ġ112": 4200,
      "Ġfm": 4201,
      "tuir": 4202,
      "Ġdtabharfar": 4203,
      "Ġchothrom": 4204,
      "Ġcheanglaitear": 4205,
      "Ġdliteanas": 4206,
      "Ġdtreo": 4207,
      "Ġmc": 4208,
      "gs": 4209,
      "nnscrudu": 4210,
      "Ġchuideachta": 4211,
      "Ġeisiuna": 4212,
      "Ġcomhoib": 4213,
      "Ġka": 4214,
      "Ġthorthai": 4215,
      "Ġfeilire": 4216,
      "Ġcuis": 4217,
      "Ġcumhdaithe": 4218,
      "Ġbheart": 4219,
      "vich": 4220,
      "Ġdobhar": 4221,
      "Ġeiri": 4222,
      "Ġanuas": 4223,
      "Ġinneacs": 4224,
      "Ġfogh": 4225,
      "Ġchaipi": 4226,
      "Ġmbaol": 4227,
      "Ġmear": 4228,
      "Ġmhonaru": 4229,
      "Ġbhreithiun": 4230,
      "Ġhinfheisti": 4231,
      "Ġchol": 4232,
      "Ġste": 4233,
      "Ġagoid": 4234,
      "Ġtarchur": 4235,
      "Ġacquis": 4236,
      "Ġfanaiochta": 4237,
      "Ġthear": 4238,
      "Ġeifeachtacht": 4239,
      "Ġinnill": 4240,
      "Ġtog": 4241,
      "uma": 4242,
      "Ġconaithe": 4243,
      "Ġchinnidh": 4244,
      "Ġ125": 4245,
      "Ġbliantula": 4246,
      "Ġcumhacht": 4247,
      "Ġteicneolaiochta": 4248,
      "em": 4249,
      "Ġfreagairt": 4250,
      "Ġfograi": 4251,
      "roinnte": 4252,
      "Ġshubst": 4253,
      "Ġtsaor": 4254,
      "Ġgcisti": 4255,
      "Ġpd": 4256,
      "Ġshonrach": 4257,
      "aind": 4258,
      "cil": 4259,
      "xi": 4260,
      "tin": 4261,
      "chai": 4262,
      "Ġchaomhnu": 4263,
      "Ġhpai": 4264,
      "Ġfiontair": 4265,
      "Ġgemark": 4266,
      "Ġghearmain": 4267,
      "oide": 4268,
      "tro": 4269,
      "Ġpei": 4270,
      "Ġfoirgni": 4271,
      "68": 4272,
      "Ġbhu": 4273,
      "Ġoiriunach": 4274,
      "Ġbpairtithe": 4275,
      "Ġmholadh": 4276,
      "Ġteicneolaiocht": 4277,
      "Ġcomhlachais": 4278,
      "tw": 4279,
      "raigh": 4280,
      "Ġother": 4281,
      "Ġtf": 4282,
      "nasa": 4283,
      "ĸ¡": 4284,
      "Ġmotar": 4285,
      "Ġstraiteiseach": 4286,
      "choiste": 4287,
      "Ġusaideann": 4288,
      "iomlan": 4289,
      "Ġdlitheanach": 4290,
      "fre": 4291,
      "rial": 4292,
      "lacha": 4293,
      "00000000020": 4294,
      "Ġiascaireacht": 4295,
      "Ġhathruithe": 4296,
      "Ġmeasunuithe": 4297,
      "Ġbor": 4298,
      "ealai": 4299,
      "Ġchuram": 4300,
      "Ġoideachais": 4301,
      "Ġbreoslai": 4302,
      "Ġqu": 4303,
      "73": 4304,
      "Ġusaideoir": 4305,
      "fhos": 4306,
      "Ġfacht": 4307,
      "Ġacc": 4308,
      "Ġspas": 4309,
      "Ġdeac": 4310,
      "Ġaicmi": 4311,
      "Ġaris": 4312,
      "Ġinnealra": 4313,
      "Ġq": 4314,
      "74": 4315,
      "Ġeigeantach": 4316,
      "Ġlipeadu": 4317,
      "Ġchaiteachas": 4318,
      "Ġleasaithe": 4319,
      "Ġbhord": 4320,
      "Ġln": 4321,
      "Ġrathaiochtai": 4322,
      "Ġtredhearcacht": 4323,
      "Ġlunasa": 4324,
      "uiscint": 4325,
      "Ġdis": 4326,
      "Ġbieg": 4327,
      "Ġdiolachain": 4328,
      "Ġmian": 4329,
      "leanna": 4330,
      "Ġcoth": 4331,
      "tachta": 4332,
      "001": 4333,
      "iuchain": 4334,
      "raic": 4335,
      "Ġeilimh": 4336,
      "Ġneamhdhleathach": 4337,
      "ble": 4338,
      "oh": 4339,
      "Ġhoibreoiri": 4340,
      "Ġimo": 4341,
      "scaoileadh": 4342,
      "raf": 4343,
      "Ġchomhrac": 4344,
      "anu": 4345,
      "Ġmionsonrai": 4346,
      "lud": 4347,
      "tus": 4348,
      "Ġtarrain": 4349,
      "Ġmhalairt": 4350,
      "Ġcog": 4351,
      "Ġforiomlan": 4352,
      "Ġainne": 4353,
      "Ġtionscail": 4354,
      "Ġforailtear": 4355,
      "Ġhiom": 4356,
      "Ġaitheanta": 4357,
      "Ġbhrath": 4358,
      "osta": 4359,
      "Ġfhos": 4360,
      "eireachta": 4361,
      "Ġbithmh": 4362,
      "Ġscribe": 4363,
      "Ġza": 4364,
      "Ġbidis": 4365,
      "Ġurruis": 4366,
      "Ð°Ð½": 4367,
      "Ġbailiu": 4368,
      "any": 4369,
      "Ġainneoin": 4370,
      "chlar": 4371,
      "Ġfag": 4372,
      "Ġcomhsheasmhacht": 4373,
      "lanu": 4374,
      "Ġamhras": 4375,
      "Ġiascach": 4376,
      "Ġtosaiochtai": 4377,
      "Ġval": 4378,
      "Ġcaillteanas": 4379,
      "Ġpriobhaideach": 4380,
      "Ġleochail": 4381,
      "Ġpm": 4382,
      "Ġeilionn": 4383,
      "Ġmbord": 4384,
      "Ġhinstitiuidi": 4385,
      "Ġsy": 4386,
      "Ġshoil": 4387,
      "Ġluas": 4388,
      "Ġmethyl": 4389,
      "Ġchinnti": 4390,
      "Ġfhoireann": 4391,
      "Ġdheasca": 4392,
      "uisin": 4393,
      "Ġcer": 4394,
      "Ġsolathroidh": 4395,
      "Ġconarthacha": 4396,
      "achar": 4397,
      "Ġmaoine": 4398,
      "Ġfuar": 4399,
      "Ġidirthreimh": 4400,
      "Ġprodu": 4401,
      "aisceart": 4402,
      "Ġheintitis": 4403,
      "63": 4404,
      "thair": 4405,
      "Ġgcuirfi": 4406,
      "chaighdeain": 4407,
      "Ġfaireachais": 4408,
      "oni": 4409,
      "Ġthiocfaidh": 4410,
      "unacht": 4411,
      "Ġbiegna": 4412,
      "Ġtheideal": 4413,
      "Ġdigiteacha": 4414,
      "Ġnord": 4415,
      "Ġeireann": 4416,
      "Ġir": 4417,
      "Ġsolub": 4418,
      "Ġâĩ": 4419,
      "Ġfoinsi": 4420,
      "Ġmbliana": 4421,
      "Ġsaincheisteanna": 4422,
      "Ġpairteanna": 4423,
      "Ġini": 4424,
      "Ġtsolath": 4425,
      "Ġstraiteisi": 4426,
      "Ġtharmligean": 4427,
      "Ġchuspoir": 4428,
      "reithiunach": 4429,
      "Ġcheanglais": 4430,
      "thigh": 4431,
      "Ġâĸ¡": 4432,
      "79": 4433,
      "Ġngn": 4434,
      "301": 4435,
      "Ġthrom": 4436,
      "noc": 4437,
      "usaide": 4438,
      "Ġ250": 4439,
      "abhra": 4440,
      "Ġcaith": 4441,
      "sia": 4442,
      "Ġcomhphobal": 4443,
      "tm": 4444,
      "Ġuachtaran": 4445,
      "dheon": 4446,
      "Ġsis": 4447,
      "Ġmalartacha": 4448,
      "Ġmheasc": 4449,
      "eathru": 4450,
      "rod": 4451,
      "Ġchomhaltai": 4452,
      "Ġshibhialta": 4453,
      "bo": 4454,
      "Ġ123": 4455,
      "Ġnotai": 4456,
      "eilbh": 4457,
      "Ġtheorainneacha": 4458,
      "Ġroth": 4459,
      "Ġluath": 4460,
      "ublic": 4461,
      "Ġaguisin": 4462,
      "Ġscaoileadh": 4463,
      "aidreamh": 4464,
      "Ġscaireanna": 4465,
      "Ġimirce": 4466,
      "mhairithe": 4467,
      "Ġesma": 4468,
      "Ġdheimhniu": 4469,
      "eat": 4470,
      "mis": 4471,
      "len": 4472,
      "Ġcontraphairti": 4473,
      "Ġindireach": 4474,
      "Ġgcoiste": 4475,
      "Ġstate": 4476,
      "Ġruis": 4477,
      "Ġhoifi": 4478,
      "Ġmbear": 4479,
      "Ġmich": 4480,
      "Ġgconradh": 4481,
      "Ġngnath": 4482,
      "Ġeti": 4483,
      "Ġfinancial": 4484,
      "Ġheil": 4485,
      "Ġgabhalacha": 4486,
      "ction": 4487,
      "gu": 4488,
      "Ġfhaireach": 4489,
      "Ġimscruduithe": 4490,
      "Ġmaoirse": 4491,
      "Ġdobharshaoth": 4492,
      "erk": 4493,
      "Ġtearm": 4494,
      "eartaithe": 4495,
      "Ġws": 4496,
      "Ġsuit": 4497,
      "Ġeast": 4498,
      "Ġvo": 4499,
      "Ġscileanna": 4500,
      "Ġent": 4501,
      "Ġfrithdh": 4502,
      "Ġcbt": 4503,
      "airte": 4504,
      "Ġtarraingt": 4505,
      "Ġdiosp": 4506,
      "Ġmhuir": 4507,
      "Ġfostaithe": 4508,
      "Ġcuram": 4509,
      "Ġcuard": 4510,
      "oint": 4511,
      "Ġgla": 4512,
      "Ġ600": 4513,
      "Ġconaidhm": 4514,
      "Ġshl": 4515,
      "Ġfeoil": 4516,
      "vad": 4517,
      "Ġdtearmai": 4518,
      "obhadh": 4519,
      "eiriu": 4520,
      "Ġcomhoiri": 4521,
      "Ġmonaroiri": 4522,
      "Ġfolgen": 4523,
      "Ġcumarsaid": 4524,
      "Ġmuc": 4525,
      "Ġcomhionann": 4526,
      "Ġ115": 4527,
      "ium": 4528,
      "Ġcirt": 4529,
      "Ġchar": 4530,
      "Ġdtiocfaidh": 4531,
      "Ġtoir": 4532,
      "Ġrithabh": 4533,
      "Ġghnothais": 4534,
      "Ġvacs": 4535,
      "ocsain": 4536,
      "Ġglactha": 4537,
      "Ġchailiocht": 4538,
      "Ġtiomanai": 4539,
      "ĠÃ": 4540,
      "eine": 4541,
      "Ġll": 4542,
      "Ġ106": 4543,
      "thear": 4544,
      "Ġmod": 4545,
      "Ġgcaith": 4546,
      "Ġualaithe": 4547,
      "Ġsainaithint": 4548,
      "Ġ020": 4549,
      "cp": 4550,
      "Ġleictreonacha": 4551,
      "Ġfhei": 4552,
      "Ġbionn": 4553,
      "Ġaqu": 4554,
      "gb": 4555,
      "Ġthri": 4556,
      "Ġ108": 4557,
      "Ġdhigiteach": 4558,
      "Ġdiobhail": 4559,
      "Ġsceimhlitheoireachta": 4560,
      "Ġfrithdhumpala": 4561,
      "Ġeadh": 4562,
      "Ġchunamh": 4563,
      "Ġgca": 4564,
      "Ġfoirm": 4565,
      "Ġalc": 4566,
      "seailte": 4567,
      "Ġdleachtanna": 4568,
      "fer": 4569,
      "Î¼": 4570,
      "Ġeadhon": 4571,
      "Ġcp": 4572,
      "achtanacha": 4573,
      "ticiuil": 4574,
      "ani": 4575,
      "Ġdes": 4576,
      "Ġfhorlionadh": 4577,
      "Ġgcomhlionadh": 4578,
      "Ġordu": 4579,
      "Ġgcomhshaol": 4580,
      "Ġbrei": 4581,
      "Ġver": 4582,
      "Ġranna": 4583,
      "Ġidirdhealu": 4584,
      "Ġ030": 4585,
      "Ġpriomha": 4586,
      "Ġetc": 4587,
      "Ġmargaiochta": 4588,
      "Ġcheapadh": 4589,
      "Ġoideachas": 4590,
      "Ġformheasta": 4591,
      "Ġshann": 4592,
      "Ġchomhfhreag": 4593,
      "Ġpriacail": 4594,
      "ĠpoÅĤnoc": 4595,
      "luite": 4596,
      "Ġgceangal": 4597,
      "Ġcoiteanna": 4598,
      "Ġ119": 4599,
      "Ġfoilsiodh": 4600,
      "Ġlaeth": 4601,
      "Ġshin": 4602,
      "ream": 4603,
      "Ġfab": 4604,
      "Ġeineacht": 4605,
      "Ġcomhairliuchan": 4606,
      "Ġchomhph": 4607,
      "Ġprotacal": 4608,
      "Ġscala": 4609,
      "Ġlaghdaithe": 4610,
      "Ġclaru": 4611,
      "Ġcunaimh": 4612,
      "Ġraitis": 4613,
      "Ġlo": 4614,
      "eirmeacha": 4615,
      "Ġsud": 4616,
      "gar": 4617,
      "Ġube": 4618,
      "Ġstuam": 4619,
      "Ġleagfar": 4620,
      "Ġeitliochta": 4621,
      "Ġbplean": 4622,
      "Ġathnuachan": 4623,
      "Ġviii": 4624,
      "Ġmhuiri": 4625,
      "Ġju": 4626,
      "Ġminici": 4627,
      "Ġceithre": 4628,
      "Ġchomhlacht": 4629,
      "mhithe": 4630,
      "Ġtagarmharc": 4631,
      "tora": 4632,
      "Ġwo": 4633,
      "Ġspp": 4634,
      "Ġghniomhach": 4635,
      "Ġmaoinithe": 4636,
      "trol": 4637,
      "mon": 4638,
      "Ġshaoth": 4639,
      "Ġreasunta": 4640,
      "Ġearnala": 4641,
      "Ġbuiseadacha": 4642,
      "Ġpriobhaideacha": 4643,
      "cy": 4644,
      "Ġsabhailte": 4645,
      "Ġheas": 4646,
      "bhunaithe": 4647,
      "Ġtox": 4648,
      "Ġtearnaimh": 4649,
      "dail": 4650,
      "ealaithe": 4651,
      "peaint": 4652,
      "cr": 4653,
      "Ġchothu": 4654,
      "Ġsealbhoir": 4655,
      "Ġzach": 4656,
      "Ġdhomhan": 4657,
      "Ġimthosca": 4658,
      "scri": 4659,
      "ghluaiseacht": 4660,
      "Ġreim": 4661,
      "adhbanna": 4662,
      "ĠstraÃŁe": 4663,
      "Ġidirghabhala": 4664,
      "chuibhiu": 4665,
      "Ġlisa": 4666,
      "Ġfhuinneamh": 4667,
      "Ġtuir": 4668,
      "anachta": 4669,
      "eicsti": 4670,
      "Ġwschod": 4671,
      "Ġrx": 4672,
      "Ġionadaiocht": 4673,
      "Ġaerarthai": 4674,
      "arboin": 4675,
      "Ġinniulacht": 4676,
      "lle": 4677,
      "eiceail": 4678,
      "Ġtsaoraid": 4679,
      "Ġfer": 4680,
      "Ġgcumas": 4681,
      "Ġfheithicil": 4682,
      "Ġastu": 4683,
      "Ġgcoinniollacha": 4684,
      "rialta": 4685,
      "ĠpoÅĤud": 4686,
      "Ġionchui": 4687,
      "Ġmheastoireacht": 4688,
      "Ġzachod": 4689,
      "unacha": 4690,
      "Ġphobail": 4691,
      "Ġghlan": 4692,
      "per": 4693,
      "Ġfa": 4694,
      "Ġmhini": 4695,
      "Ġnuashonru": 4696,
      "ainmhithe": 4697,
      "Ġbel": 4698,
      "Ġleathnu": 4699,
      "Ġsli": 4700,
      "dae": 4701,
      "ns": 4702,
      "Ġeaspa": 4703,
      "ĠÐ°": 4704,
      "Ġteimpl": 4705,
      "ulation": 4706,
      "nasc": 4707,
      "untais": 4708,
      "unais": 4709,
      "Ġgniomhaireacht": 4710,
      "leibheal": 4711,
      "eidearthacht": 4712,
      "Ġcomhreireacht": 4713,
      "Ġlotnaidi": 4714,
      "Ġdgb": 4715,
      "Ġvon": 4716,
      "Ġdocha": 4717,
      "Ġgeallsealbhoiri": 4718,
      "Ġorganach": 4719,
      "ĠÎµ": 4720,
      "Ġdeimhniuchain": 4721,
      "ticiula": 4722,
      "Ġngair": 4723,
      "radail": 4724,
      "ghnothas": 4725,
      "fl": 4726,
      "Ġlonnaithe": 4727,
      "ochtu": 4728,
      "kim": 4729,
      "Ġiomaiocht": 4730,
      "ptide": 4731,
      "Ġaois": 4732,
      "anacht": 4733,
      "Ġhall": 4734,
      "inealacha": 4735,
      "oro": 4736,
      "Ġidirmh": 4737,
      "Ġleathan": 4738,
      "59": 4739,
      "Ġairitheofar": 4740,
      "Ġdeach": 4741,
      "Ġbhar": 4742,
      "eirgi": 4743,
      "Ġsonrofar": 4744,
      "aindeim": 4745,
      "aradh": 4746,
      "Ġâĺ": 4747,
      "Ġaisghairm": 4748,
      "Ġmis": 4749,
      "Ġtograi": 4750,
      "Ġtheag": 4751,
      "Ġamo": 4752,
      "Ġ109": 4753,
      "ĠÐ¿": 4754,
      "ane": 4755,
      "Ġcent": 4756,
      "Ġceadu": 4757,
      "Ġlair": 4758,
      "Ġmainn": 4759,
      "Ġcoid": 4760,
      "Ġchuntas": 4761,
      "Ġcir": 4762,
      "Ġbproiseas": 4763,
      "aa": 4764,
      "leanunach": 4765,
      "Ġtomhais": 4766,
      "Ġndli": 4767,
      "Ġ2138": 4768,
      "Ġreport": 4769,
      "Ġdireacha": 4770,
      "Ġchoiri": 4771,
      "Ġiasacht": 4772,
      "Ġcionta": 4773,
      "Ġaimsi": 4774,
      "Ġnga": 4775,
      "anc": 4776,
      "Ġscaipeadh": 4777,
      "vo": 4778,
      "Ġbhreithe": 4779,
      "nimh": 4780,
      "Ġthiom": 4781,
      "Ġpinsin": 4782,
      "200": 4783,
      "Ġthaifeadadh": 4784,
      "Ġetias": 4785,
      "Ġdhoicimead": 4786,
      "ye": 4787,
      "leail": 4788,
      "Ġchuis": 4789,
      "obal": 4790,
      "Ġdualg": 4791,
      "Ġbhra": 4792,
      "Ġ400": 4793,
      "Ġforbairti": 4794,
      "ari": 4795,
      "Ġsocmhainn": 4796,
      "ritear": 4797,
      "Ġ218": 4798,
      "Ġchuspoiri": 4799,
      "Ġghabh": 4800,
      "riocht": 4801,
      "Ġfoinse": 4802,
      "Ġardan": 4803,
      "aineal": 4804,
      "Ġrisiochta": 4805,
      "orua": 4806,
      "mhaireoiri": 4807,
      "350": 4808,
      "ap": 4809,
      "Ġfoc": 4810,
      "Ġchoigeartu": 4811,
      "ration": 4812,
      "Ġgha": 4813,
      "Ġformh": 4814,
      "Ġchomhordu": 4815,
      "Ġmias": 4816,
      "Ġsheoladh": 4817,
      "Ġfabh": 4818,
      "Ġdushlain": 4819,
      "Ġhairteagail": 4820,
      "gil": 4821,
      "Ġchleachtais": 4822,
      "ceannadh": 4823,
      "cat": 4824,
      "Ġpacaisti": 4825,
      "Ġcuireann": 4826,
      "Ġcheannteidil": 4827,
      "Ġeisiamh": 4828,
      "Ġmileata": 4829,
      "Ġgs": 4830,
      "Ġshainiu": 4831,
      "Ġassets": 4832,
      "zo": 4833,
      "Ġthiortha": 4834,
      "theacht": 4835,
      "araid": 4836,
      "Ġraig": 4837,
      "Ġgrinnscrudu": 4838,
      "Ġdigi": 4839,
      "Ġsealadacha": 4840,
      "arrai": 4841,
      "eangacha": 4842,
      "Ġcaibid": 4843,
      "Ġeilitear": 4844,
      "acaiste": 4845,
      "zow": 4846,
      "Ġmeasann": 4847,
      "Ġscriosadh": 4848,
      "toireachta": 4849,
      "Ġallmhairiu": 4850,
      "romch": 4851,
      "Ġphriobhaid": 4852,
      "Ġeatra": 4853,
      "Ġalum": 4854,
      "ladh": 4855,
      "Ġbhfoir": 4856,
      "xt": 4857,
      "Ġmballstait": 4858,
      "Ġtromchuiseacha": 4859,
      "ulachtai": 4860,
      "Ġdich": 4861,
      "Ġcuirte": 4862,
      "Ġcarboin": 4863,
      "Ġmheasunaithe": 4864,
      "Ġnaisiunach": 4865,
      "Ġgra": 4866,
      "Ġ648": 4867,
      "Ġconcluidi": 4868,
      "ral": 4869,
      "neoidh": 4870,
      "Ġfrithphairteach": 4871,
      "Ġfhior": 4872,
      "Ġdamaiste": 4873,
      "Ġchomhchuibhithe": 4874,
      "Ġtona": 4875,
      "Ġbhfu": 4876,
      "Ġdtagann": 4877,
      "eachar": 4878,
      "Ġleanai": 4879,
      "Ġgcumhdaitear": 4880,
      "Ġbuan": 4881,
      "oss": 4882,
      "Ġcse": 4883,
      "Ġdtabh": 4884,
      "alue": 4885,
      "Ġcoinsin": 4886,
      "Ġter": 4887,
      "Ġcleachtas": 4888,
      "Ġcet": 4889,
      "Ġphroisis": 4890,
      "Ġrannchuidi": 4891,
      "Ġsmachtbh": 4892,
      "ual": 4893,
      "Ġslan": 4894,
      "Ġtru": 4895,
      "Ġtabhacht": 4896,
      "Ġaquatic": 4897,
      "Ġben": 4898,
      "eofar": 4899,
      "rz": 4900,
      "Ġaibi": 4901,
      "Ġtheorann": 4902,
      "Ġcarc": 4903,
      "Ġeuros": 4904,
      "oine": 4905,
      "uinti": 4906,
      "Ġgcomhphobal": 4907,
      "Ġceadaithe": 4908,
      "Ġthacaiocht": 4909,
      "olta": 4910,
      "chiu": 4911,
      "Ġshuntas": 4912,
      "Ġbainiste": 4913,
      "Ġaigead": 4914,
      "Ġlear": 4915,
      "eachtula": 4916,
      "Ġ611": 4917,
      "Ġdoigh": 4918,
      "Ġbri": 4919,
      "Ġuis": 4920,
      "Ġainmneacha": 4921,
      "Ġallmhairiuchain": 4922,
      "Ġcinealcheadu": 4923,
      "Ġsur": 4924,
      "ĠÑģ": 4925,
      "Ġlorg": 4926,
      "tachtai": 4927,
      "Ġonnmhaireoir": 4928,
      "aras": 4929,
      "Ġ210": 4930,
      "Ġghlacfaidh": 4931,
      "Ġimir": 4932,
      "inti": 4933,
      "Ġfiachais": 4934,
      "mais": 4935,
      "Ġratala": 4936,
      "Ġconarthach": 4937,
      "Ġ213800": 4938,
      "Ġees": 4939,
      "Ġimreitigh": 4940,
      "Ġinr": 4941,
      "Ġgalar": 4942,
      "Ġfoilse": 4943,
      "Ġrichtung": 4944,
      "rsp": 4945,
      "ond": 4946,
      "Ġhidrigine": 4947,
      "methyl": 4948,
      "Ġacht": 4949,
      "bhl": 4950,
      "Ġiec": 4951,
      "Ġtsin": 4952,
      "Ġer": 4953,
      "nic": 4954,
      "Ġheagraiochtai": 4955,
      "Ġsubstaint": 4956,
      "udar": 4957,
      "ue": 4958,
      "eans": 4959,
      "Ġ103": 4960,
      "Ġcruth": 4961,
      "just": 4962,
      "Ġiniuchadh": 4963,
      "Ġbainteach": 4964,
      "Ġnaisiuntacht": 4965,
      "Ġdoku": 4966,
      "Ġki": 4967,
      "ono": 4968,
      "leananna": 4969,
      "Ġindean": 4970,
      "Ġfioru": 4971,
      "fheithicli": 4972,
      "Ġbeaga": 4973,
      "eallacht": 4974,
      "Ġgcoinbhinsiun": 4975,
      "Ġiodail": 4976,
      "Ġchion": 4977,
      "Ġind": 4978,
      "Ġchomhairli": 4979,
      "Ġ140": 4980,
      "Ġmuirir": 4981,
      "mhais": 4982,
      "Ġathchoirithe": 4983,
      "oithre": 4984,
      "Ġgci": 4985,
      "lag": 4986,
      "odac": 4987,
      "Ġtromchuiseach": 4988,
      "Ġcomhchosula": 4989,
      "Ġdeighil": 4990,
      "Ġchomhphairti": 4991,
      "Ġcad": 4992,
      "Ġdlithe": 4993,
      "oibrithe": 4994,
      "Ġcistiu": 4995,
      "Ġstiurthoireacht": 4996,
      "oigh": 4997,
      "Ġscagtha": 4998,
      "Ġpoly": 4999,
      "Ġmara": 5000,
      "eartuithe": 5001,
      "Ġneamhrial": 5002,
      "po": 5003,
      "fic": 5004,
      "oiriu": 5005,
      "Ġimeacht": 5006,
      "Ġeiceach": 5007,
      "Ġmeasunaithe": 5008,
      "leas": 5009,
      "mad": 5010,
      "Ġmeastachan": 5011,
      "dheontais": 5012,
      "cheime": 5013,
      "Ġpla": 5014,
      "ses": 5015,
      "Ġcomhlionfaidh": 5016,
      "Ġleaf": 5017,
      "Ġthomhaltoiri": 5018,
      "ĠÅĤ": 5019,
      "Ġgalair": 5020,
      "Ġudaruithe": 5021,
      "Ġthogail": 5022,
      "Ġoibrionn": 5023,
      "Ġdluthphairti": 5024,
      "Ġhiod": 5025,
      "Ġplc": 5026,
      "berg": 5027,
      "Ġmbunu": 5028,
      "Ġmeachan": 5029,
      "nos": 5030,
      "Ġ?": 5031,
      "Ġleordhothanacha": 5032,
      "odhchai": 5033,
      "Ġiarratai": 5034,
      "Ġcpl": 5035,
      "ochain": 5036,
      "dhiola": 5037,
      "Ġmhionson": 5038,
      "Ġsei": 5039,
      "eachan": 5040,
      "Ġbreithiunach": 5041,
      "Ġcalaois": 5042,
      "Ġtaisc": 5043,
      "Ġghearr": 5044,
      "Ġmais": 5045,
      "Ġathchurs": 5046,
      "neachta": 5047,
      "Ġcriosanna": 5048,
      "ff": 5049,
      "Ġdanmhairg": 5050,
      "ny": 5051,
      "cidi": 5052,
      "strucht": 5053,
      "az": 5054,
      "Ġhainmhithe": 5055,
      "Ġheisi": 5056,
      "onic": 5057,
      "fhor": 5058,
      "Ġfhoinsi": 5059,
      "dt": 5060,
      "Ġfais": 5061,
      "Ġfuair": 5062,
      "Ġsineirgi": 5063,
      "Ġ104": 5064,
      "Ġbhforalacha": 5065,
      "Ġchail": 5066,
      "Ġgealltanas": 5067,
      "Ġbogearrai": 5068,
      "Ġcgb": 5069,
      "Ġcoisc": 5070,
      "Ġ145": 5071,
      "Ġhinn": 5072,
      "Ġtrach": 5073,
      "Ġcruinnithe": 5074,
      "ole": 5075,
      "Ġcigireachtai": 5076,
      "ĠâĮ«": 5077,
      "Ġzur": 5078,
      "Ġsiucra": 5079,
      "Ġsaolre": 5080,
      "Ġinoibritheacht": 5081,
      "nacha": 5082,
      "dium": 5083,
      "olaioch": 5084,
      "Ġceall": 5085,
      "ĠâĮ¦": 5086,
      "Ġrom": 5087,
      "ange": 5088,
      "Ġ117": 5089,
      "ocha": 5090,
      "Ġfheiste": 5091,
      "sean": 5092,
      "lex": 5093,
      "Ġscriostar": 5094,
      "aitheoiri": 5095,
      "ghlac": 5096,
      "Ġciorc": 5097,
      "fach": 5098,
      "Ġneamhriachtanacha": 5099,
      "istiu": 5100,
      "Ġceapadh": 5101,
      "Ġriail": 5102,
      "Ġphears": 5103,
      "Ġseilbh": 5104,
      "Ġhttp": 5105,
      "uisce": 5106,
      "Ġdobharshaothraithe": 5107,
      "uain": 5108,
      "Ġteastail": 5109,
      "Ġachomhairc": 5110,
      "Ġleictreachas": 5111,
      "Ġfoll": 5112,
      "fhoir": 5113,
      "Ġimni": 5114,
      "Ġcorr": 5115,
      "eartha": 5116,
      "Ġtrathrialta": 5117,
      "Ġbunaitear": 5118,
      "Ġiniuchtai": 5119,
      "bearsh": 5120,
      "Ġdhomhanda": 5121,
      "cs": 5122,
      "Ġdail": 5123,
      "asai": 5124,
      "Ġaonfhoirmeacha": 5125,
      "Ġionadaioch": 5126,
      "Îº": 5127,
      "Ġtugann": 5128,
      "Ġhimeachtai": 5129,
      "ken": 5130,
      "Ġfheithicli": 5131,
      "thaobh": 5132,
      "Ġndearna": 5133,
      "Ġcailithe": 5134,
      "Ġ118": 5135,
      "Ġregulation": 5136,
      "Ġeacnam": 5137,
      "Ġchomhlachtai": 5138,
      "Ġsuntasacha": 5139,
      "orted": 5140,
      "cluid": 5141,
      "oire": 5142,
      "Ġ136": 5143,
      "Ġshainaith": 5144,
      "eicstile": 5145,
      "riochta": 5146,
      "Ġdel": 5147,
      "Ġspainn": 5148,
      "omhain": 5149,
      "Ġdhearbhu": 5150,
      "iniuint": 5151,
      "tacail": 5152,
      "Ġ429": 5153,
      "Ġcliniciula": 5154,
      "Ġlog": 5155,
      "Ġcainniochtai": 5156,
      "Ġ290": 5157,
      "Ġcuiteamh": 5158,
      "Ġoifige": 5159,
      "Ġpolaitiula": 5160,
      "Ġtaille": 5161,
      "Ġchoinniollacha": 5162,
      "Ġthan": 5163,
      "Ġxn": 5164,
      "Ġtacar": 5165,
      "Ġmeascan": 5166,
      "Ġpaip": 5167,
      "Ġchonaidhm": 5168,
      "oige": 5169,
      "adai": 5170,
      "Ġmoill": 5171,
      "curi": 5172,
      "Ġluacha": 5173,
      "Ġuasteor": 5174,
      "Ġdiultach": 5175,
      "Ġitimi": 5176,
      "Ġasbh": 5177,
      "Î»": 5178,
      "tif": 5179,
      "Ġcomhphairtithe": 5180,
      "Ġbreisluach": 5181,
      "Ġthas": 5182,
      "Ġnovad": 5183,
      "Ġcosta": 5184,
      "Ġfaireachas": 5185,
      "ceachtula": 5186,
      "Ġcolun": 5187,
      "uc": 5188,
      "uni": 5189,
      "fhabh": 5190,
      "Ġnaisc": 5191,
      "Ġiontaofa": 5192,
      "Ġ1072": 5193,
      "teachta": 5194,
      "Ġix": 5195,
      "Ġiniuchoiri": 5196,
      "Ġdteannta": 5197,
      "Ġmeabh": 5198,
      "Ġgcod": 5199,
      "Ġchlini": 5200,
      "Ġchuiseanna": 5201,
      "Ġfreagrachtai": 5202,
      "struchtur": 5203,
      "Ġidirghabhail": 5204,
      "Ġdtiortha": 5205,
      "eif": 5206,
      "Ġhae": 5207,
      "Ġbiegnaca": 5208,
      "Ġeisceachtula": 5209,
      "Ġreachtaiochta": 5210,
      "Ġsuiomhanna": 5211,
      "Ġsheachtrach": 5212,
      "Ġbealai": 5213,
      "Ġsv": 5214,
      "ĠÐ½": 5215,
      "Ġmbei": 5216,
      "aitheoir": 5217,
      "lo": 5218,
      "onai": 5219,
      "Ġrithabhachtach": 5220,
      "Ġrev": 5221,
      "Ġje": 5222,
      "Ġcbl": 5223,
      "Ġnot": 5224,
      "Ġdeileail": 5225,
      "Ġtairgeoir": 5226,
      "Ġhydroc": 5227,
      "Ġshli": 5228,
      "Ġinath": 5229,
      "ular": 5230,
      "Ġsreabh": 5231,
      "Ġare": 5232,
      "Ġbannai": 5233,
      "dia": 5234,
      "Ġchomhshaol": 5235,
      "Ġrec": 5236,
      "sci": 5237,
      "ÅĤa": 5238,
      "Ġngniomhartha": 5239,
      "Ġtomhaltoir": 5240,
      "oly": 5241,
      "Ġdeachuil": 5242,
      "Ġiarrthoiri": 5243,
      "Ġhastaiochtai": 5244,
      "Ġnon": 5245,
      "chuid": 5246,
      "rann": 5247,
      "Ġaschuir": 5248,
      "Ġrus": 5249,
      "ĠÎ±": 5250,
      "Ġheiliminti": 5251,
      "enyl": 5252,
      "Ġspriocdhi": 5253,
      "Ġthart": 5254,
      "Ġchal": 5255,
      "Ġsmachtbhannai": 5256,
      "Ġcs": 5257,
      "Ġtfc": 5258,
      "reg": 5259,
      "Ġiarscribhinni": 5260,
      "Ġfeistithe": 5261,
      "raidi": 5262,
      "Ġphraghsanna": 5263,
      "des": 5264,
      "mplai": 5265,
      "arraige": 5266,
      "reafai": 5267,
      "ghrad": 5268,
      "Ġsoir": 5269,
      "Ġfun": 5270,
      "Ġtionscn": 5271,
      "Ġlipead": 5272,
      "Ġidirthreimhseacha": 5273,
      "Ġforfheidhmiu": 5274,
      "Ġairithitear": 5275,
      "fu": 5276,
      "tel": 5277,
      "Ġeagsuil": 5278,
      "Ġcomhleanunach": 5279,
      "eithi": 5280,
      "Ġmeastoireachtai": 5281,
      "ng": 5282,
      "Ġsainraite": 5283,
      "Ġsec": 5284,
      "Ġdol": 5285,
      "Ġscor": 5286,
      "ogh": 5287,
      "Ġtrathuil": 5288,
      "ochanna": 5289,
      "Ġshainitear": 5290,
      "Ġpearsanra": 5291,
      "Ð·": 5292,
      "Ġsecuri": 5293,
      "Ġurraithe": 5294,
      "Ġost": 5295,
      "ĠÐ²": 5296,
      "Ġstraiteiseacha": 5297,
      "Ġmuin": 5298,
      "Ġbheaga": 5299,
      "Ġmhaoirseachta": 5300,
      "Ġfreastal": 5301,
      "Ġbarr": 5302,
      "Ġshri": 5303,
      "Ġiz": 5304,
      "mine": 5305,
      "aiche": 5306,
      "choras": 5307,
      "Ġgne": 5308,
      "Ġtodhchai": 5309,
      "Ġsavi": 5310,
      "Ġ126": 5311,
      "Ġcap": 5312,
      "ortaing": 5313,
      "Ġhuas": 5314,
      "Ġaisghabhail": 5315,
      "Ġreime": 5316,
      "Ġrundacht": 5317,
      "Ġap": 5318,
      "Ġgeilleagar": 5319,
      "oscribhinn": 5320,
      "Ġdeartha": 5321,
      "Ġfadhbanna": 5322,
      "Ġhar": 5323,
      "Ġimp": 5324,
      "Ġatair": 5325,
      "Ġshealadach": 5326,
      "Ġchear": 5327,
      "Ġgcomhlionfar": 5328,
      "Ġcruthu": 5329,
      "we": 5330,
      "lica": 5331,
      "Ġbhunaitear": 5332,
      "Ġcreidiunaithe": 5333,
      "Ġchriochach": 5334,
      "Ġthuairiscitear": 5335,
      "Ġcat": 5336,
      "Ġcomharthai": 5337,
      "Ġbunusach": 5338,
      "aisini": 5339,
      "Ġbhainistiocht": 5340,
      "Ġbithi": 5341,
      "Ġhaic": 5342,
      "eachain": 5343,
      "Ġaersp": 5344,
      "tum": 5345,
      "Ġeorpai": 5346,
      "Ġmhodhnu": 5347,
      "leacha": 5348,
      "Ġgniomhacha": 5349,
      "Ġclas": 5350,
      "Ġsubstainte": 5351,
      "Ġdeireanach": 5352,
      "Ġbal": 5353,
      "Ġchloig": 5354,
      "arbons": 5355,
      "Ġtredhearcach": 5356,
      "Ġmsc": 5357,
      "laim": 5358,
      "Ġrialachas": 5359,
      "ludach": 5360,
      "Ġdtac": 5361,
      "Ġrialailte": 5362,
      "Ġhai": 5363,
      "Ġchonartha": 5364,
      "Ġscoir": 5365,
      "Ġdearadh": 5366,
      "Ġunder": 5367,
      "Ġcuidiu": 5368,
      "Ġhan": 5369,
      "Ġneamhsh": 5370,
      "oinneadh": 5371,
      "ino": 5372,
      "Ġ138": 5373,
      "bhearta": 5374,
      "orach": 5375,
      "Ġspe": 5376,
      "Ġcorpora": 5377,
      "ÐµÐ²": 5378,
      "agn": 5379,
      "Ġnai": 5380,
      "Ġmeth": 5381,
      "Ġchliniciuil": 5382,
      "Ġchreidmheasa": 5383,
      "Ġchulghairm": 5384,
      "Ġ160": 5385,
      "Ġtsl": 5386,
      "tc": 5387,
      "Ġceannachta": 5388,
      "trithe": 5389,
      "Ġallmhaireoir": 5390,
      "Ġ121": 5391,
      "Ġthionchar": 5392,
      "Ġtoiliu": 5393,
      "realamh": 5394,
      "bri": 5395,
      "ho": 5396,
      "Ġchreidi": 5397,
      "ade": 5398,
      "umars": 5399,
      "Ġ679": 5400,
      "Ġdgr": 5401,
      "Ġthairgeoiri": 5402,
      "Ġmhionsonraithe": 5403,
      "Ġdhuine": 5404,
      "Ġthagartha": 5405,
      "Ġfoirmeacha": 5406,
      "aimeadair": 5407,
      "Ġardain": 5408,
      "Ġleithreasai": 5409,
      "Ġorganacha": 5410,
      "Ġwa": 5411,
      "ĠÐ´": 5412,
      "later": 5413,
      "chuirtear": 5414,
      "mth": 5415,
      "tachain": 5416,
      "Ġhinstitiuide": 5417,
      "Ġ178": 5418,
      "Ġaerarth": 5419,
      "Ġtearmainn": 5420,
      "Ġbeann": 5421,
      "olacht": 5422,
      "Ġgcostas": 5423,
      "Ġfeas": 5424,
      "Ġinneachar": 5425,
      "Ġindeanta": 5426,
      "sed": 5427,
      "Ġtheorannu": 5428,
      "Ġbheal": 5429,
      "Ġteanga": 5430,
      "Ġtosaiocht": 5431,
      "Ġho": 5432,
      "Ġdleacht": 5433,
      "Ġav": 5434,
      "Ġdaile": 5435,
      "Ġmur": 5436,
      "dina": 5437,
      "vald": 5438,
      "Ġghin": 5439,
      "Ġinghlac": 5440,
      "ardaithe": 5441,
      "Ġreasunach": 5442,
      "Ġseas": 5443,
      "Ġrabh": 5444,
      "Ġidirthur": 5445,
      "Ġiccat": 5446,
      "Ġtuinn": 5447,
      "yn": 5448,
      "Ġgcomhlacht": 5449,
      "Ġstuamachta": 5450,
      "Ġeurostat": 5451,
      "neach": 5452,
      "ano": 5453,
      "Ġuirlis": 5454,
      "Ġbaineadh": 5455,
      "Ġghabhail": 5456,
      "Ġcomhthathaithe": 5457,
      "ochai": 5458,
      "Ġ540": 5459,
      "Ġcaiteachais": 5460,
      "Ġko": 5461,
      "Ġhallmhairi": 5462,
      "Ġhydrocarbons": 5463,
      "omhnaithe": 5464,
      "stitiuid": 5465,
      "valdy": 5466,
      "Ġsiniu": 5467,
      "Ġsavivaldy": 5468,
      "Ġcoinnioll": 5469,
      "siunta": 5470,
      "fhi": 5471,
      "Ġfisiceacha": 5472,
      "orthai": 5473,
      "Ġele": 5474,
      "raiodh": 5475,
      "Ġdlinse": 5476,
      "tul": 5477,
      "Ġurramu": 5478,
      "Ġmiondiola": 5479,
      "Ġsochar": 5480,
      "Ġbprotacal": 5481,
      "Ġidirin": 5482,
      "Ġacmhainneachta": 5483,
      "Ġ124": 5484,
      "tanna": 5485,
      "achtanas": 5486,
      "Ġinte": 5487,
      "Ġtiomana": 5488,
      "Ġthairgtear": 5489,
      "Ġcoc": 5490,
      "Ġsaoranaigh": 5491,
      "odz": 5492,
      "Ġtaraife": 5493,
      "inithe": 5494,
      "Ġamount": 5495,
      "Ġdheanai": 5496,
      "Ġnocht": 5497,
      "Ġdub": 5498,
      "lliun": 5499,
      "Ġgairmiula": 5500,
      "mheide": 5501,
      "Ġhc": 5502,
      "Ġthir": 5503,
      "ĠÎ¼": 5504,
      "Ġlui": 5505,
      "Ġsil": 5506,
      "Ġfolgend": 5507,
      "Ġsolathrofar": 5508,
      "Ġthaispeaint": 5509,
      "aighteacht": 5510,
      "Ġdleachta": 5511,
      "oicimeid": 5512,
      "ghabhalacha": 5513,
      "Ġcomhaoi": 5514,
      "deachas": 5515,
      "Ġthradail": 5516,
      "uimhir": 5517,
      "telijke": 5518,
      "Ġinfor": 5519,
      "Ġleasachain": 5520,
      "Î¿Ïħ": 5521,
      "Ġbreathn": 5522,
      "Ġleirigh": 5523,
      "Ġnuicl": 5524,
      "Ġlua": 5525,
      "Ġiarracht": 5526,
      "Ġghaol": 5527,
      "Ġrathaiochta": 5528,
      "Ġflu": 5529,
      "Ġsub": 5530,
      "Ġgcu": 5531,
      "Ġspais": 5532,
      "Ġmilliuin": 5533,
      "Ġoiriuint": 5534,
      "Ġionchorp": 5535,
      "med": 5536,
      "Ġ135": 5537,
      "Ġardch": 5538,
      "Ġcustaimeiri": 5539,
      "Ġsz": 5540,
      "ĠÂ°": 5541,
      "Ġteagmhais": 5542,
      "Ġdlitheanacha": 5543,
      "Ġdteag": 5544,
      "uit": 5545,
      "Ġoibi": 5546,
      "ya": 5547,
      "Ġsonru": 5548,
      "Ġfichiu": 5549,
      "vin": 5550,
      "Ġiomarc": 5551,
      "Ġbhunadh": 5552,
      "osach": 5553,
      "Ġceimeanna": 5554,
      "Ġcult": 5555,
      "Ġcomhfhreagracha": 5556,
      "Ġmuirear": 5557,
      "Ġarachas": 5558,
      "mirci": 5559,
      "Ġcinnte": 5560,
      "Ġsaobhadh": 5561,
      "Ġdiorthaigh": 5562,
      "Ġcouncil": 5563,
      "Ġsuir": 5564,
      "uim": 5565,
      "Ġimpl": 5566,
      "Ġbaol": 5567,
      "Ġregion": 5568,
      "Ġsavivaldybe": 5569,
      "Ġland": 5570,
      "Ġsaoirse": 5571,
      "Ġcabhair": 5572,
      "ĠÐ¸": 5573,
      "Ġchomhphobal": 5574,
      "Ġreasunaithe": 5575,
      "Ġdeanann": 5576,
      "Ġmheasann": 5577,
      "leibheil": 5578,
      "ubstaint": 5579,
      "Ġheagraiochta": 5580,
      "peptide": 5581,
      "Ġbreithiun": 5582,
      "Ġtsolathair": 5583,
      "Ġdhei": 5584,
      "eiti": 5585,
      "Ġeurodac": 5586,
      "Ġlarionad": 5587,
      "raidisiunta": 5588,
      "Ġbpriomh": 5589,
      "Ġrisk": 5590,
      "Ġsainordu": 5591,
      "Ð½Ð°": 5592,
      "ÑģÑĤ": 5593,
      "Ġeolaiochta": 5594,
      "Ġidirdheal": 5595,
      "han": 5596,
      "Ġsharu": 5597,
      "gai": 5598,
      "loingseoireachta": 5599,
      "Ġtsoi": 5600,
      "ania": 5601,
      "Ġparlaimin": 5602,
      "Ġthaisc": 5603,
      "Ġturas": 5604,
      "scaradh": 5605,
      "Ġoileain": 5606,
      "Ġcothromais": 5607,
      "Ġtrachtear": 5608,
      "Ġspriocdhirithe": 5609,
      "Ġdlus": 5610,
      "Ġog": 5611,
      "Ġeilli": 5612,
      "Ġshimp": 5613,
      "Ġlaidir": 5614,
      "Ġcriochnaitheach": 5615,
      "nai": 5616,
      "Ġsaorghluaiseacht": 5617,
      "Ġdhiultu": 5618,
      "oini": 5619,
      "lainn": 5620,
      "Ġbunaidh": 5621,
      "Ġiontaoi": 5622,
      "Ġtearnamh": 5623,
      "thas": 5624,
      "radala": 5625,
      "Ġraidi": 5626,
      "Ġdearbhaithe": 5627,
      "Ġcoimhdeachta": 5628,
      "ope": 5629,
      "Ġcomhthathu": 5630,
      "Ġphriobhaideach": 5631,
      "Ġ450": 5632,
      "Ġ127": 5633,
      "Ġ111": 5634,
      "ben": 5635,
      "Ġchlaraithe": 5636,
      "Ġmhonarora": 5637,
      "anda": 5638,
      "Ġnational": 5639,
      "Ġ141": 5640,
      "Ġtomhaltas": 5641,
      "Ġcollater": 5642,
      "Ġathar": 5643,
      "Ġ113": 5644,
      "Ġndeanfadh": 5645,
      "Ġfheidir": 5646,
      "roim": 5647,
      "Ġailiniu": 5648,
      "Ġshaothru": 5649,
      "chus": 5650,
      "Ġ468": 5651,
      "Ġaicmithe": 5652,
      "Ġcarbon": 5653,
      "cheap": 5654,
      "Ġtsubstaint": 5655,
      "Ġathstruchtur": 5656,
      "Ġceartai": 5657,
      "Ġtsoithigh": 5658,
      "Ġ134": 5659,
      "Ġwei": 5660,
      "Ġhusaide": 5661,
      "Ġleireofar": 5662,
      "uinniu": 5663,
      "bu": 5664,
      "tithe": 5665,
      "Ġidirnasc": 5666,
      "naitear": 5667,
      "Ġdreas": 5668,
      "aci": 5669,
      "Ġinves": 5670,
      "mic": 5671,
      "Ġreachtacha": 5672,
      "Ġceangail": 5673,
      "990": 5674,
      "eathadh": 5675,
      "Ġminic": 5676,
      "iulachta": 5677,
      "Ġfhorailtear": 5678,
      "Ġminiuchain": 5679,
      "bach": 5680,
      "Ġsnath": 5681,
      "Ġfaighteoir": 5682,
      "Ġnovads": 5683,
      "Ġuni": 5684,
      "Ġdtai": 5685,
      "ler": 5686,
      "Ġcosuil": 5687,
      "Ġcaighdeanach": 5688,
      "Ġbol": 5689,
      "thiunas": 5690,
      "Ġcomhairleach": 5691,
      "Ġcalafoirt": 5692,
      "Ġmhich": 5693,
      "Ġsriantacha": 5694,
      "Ġstruchtuir": 5695,
      "Ġbothair": 5696,
      "fil": 5697,
      "Ġvalue": 5698,
      "Ġmeicni": 5699,
      "Ġ139": 5700,
      "Ġcoigeartuithe": 5701,
      "Ġsealbhoiri": 5702,
      "mit": 5703,
      "Ġada": 5704,
      "Ġcanacha": 5705,
      "Ġmaoin": 5706,
      "ptea": 5707,
      "eire": 5708,
      "Ġbunoidh": 5709,
      "Ġcomhlachas": 5710,
      "Ġisil": 5711,
      "Ġchoibheis": 5712,
      "leabhar": 5713,
      "Ġreacht": 5714,
      "Ġaerth": 5715,
      "ĠÑ": 5716,
      "oili": 5717,
      "Ġfeithicil": 5718,
      "Ġclud": 5719,
      "Ġdroch": 5720,
      "Ġfoill": 5721,
      "Ġeisiodh": 5722,
      "rou": 5723,
      "thiom": 5724,
      "Ġiarmhair": 5725,
      "Ġsainaithniodh": 5726,
      "Ġidirinstitiuid": 5727,
      "dealu": 5728,
      "Ġbank": 5729,
      "san": 5730,
      "threimhse": 5731,
      "Ġwest": 5732,
      "Ġbrabus": 5733,
      "Ġmhaigh": 5734,
      "neofar": 5735,
      "Ġ122": 5736,
      "Ġeisigh": 5737,
      "Ġchostas": 5738,
      "Ġfhreagracht": 5739,
      "Ġ147": 5740,
      "ioctha": 5741,
      "410": 5742,
      "rie": 5743,
      "Ġaisce": 5744,
      "Ġtarchuir": 5745,
      "Ġcomhdheanta": 5746,
      "Ġâī¤": 5747,
      "rc": 5748,
      "Ġmbealach": 5749,
      "gha": 5750,
      "eachtain": 5751,
      "eilg": 5752,
      "Ġsamplai": 5753,
      "Ġchli": 5754,
      "Ġionchuir": 5755,
      "luacha": 5756,
      "Ġdreachtchaighdeain": 5757,
      "blai": 5758,
      "Ġghniomhartha": 5759,
      "Ġchomhthathu": 5760,
      "mes": 5761,
      "Ġcainniocht": 5762,
      "Ġdromch": 5763,
      "Ġshubstainti": 5764,
      "Ġacid": 5765,
      "Ġphi": 5766,
      "Ġmotarfheithicli": 5767,
      "Ġeire": 5768,
      "Ġreported": 5769,
      "tinne": 5770,
      "Ġstda": 5771,
      "bhinsiuin": 5772,
      "ult": 5773,
      "Ġbhreos": 5774,
      "omparaide": 5775,
      "tearma": 5776,
      "Ġaerloingseoireachta": 5777,
      "Ġidirinstitiuideach": 5778,
      "tyl": 5779,
      "reithniu": 5780,
      "Ġtapa": 5781,
      "Ġchonarth": 5782,
      "Ġeasnamh": 5783,
      "Ġ176": 5784,
      "Ġlonga": 5785,
      "Ġ207": 5786,
      "Ġtslainte": 5787,
      "Ð»Ð°": 5788,
      "Ġullmhuchain": 5789,
      "Ġsamhlacha": 5790,
      "Ġ00017": 5791,
      "Ġghu": 5792,
      "ĠÐ¾": 5793,
      "Ġullmhoidi": 5794,
      "Ġionchur": 5795,
      "Ġ1998": 5796,
      "ova": 5797,
      "reig": 5798,
      "Ġ1994": 5799,
      "Ġreachta": 5800,
      "Ġsholathraitear": 5801,
      "Ġ0003": 5802,
      "Ġgabhala": 5803,
      "Ġinbhuanaitheachta": 5804,
      "Ġrialaitheoir": 5805,
      "aisi": 5806,
      "Ġleitheid": 5807,
      "Ġchleachtas": 5808,
      "ji": 5809,
      "Ġsaineolas": 5810,
      "Ġcomhdheanamh": 5811,
      "Ġfeasta": 5812,
      "Ġthis": 5813,
      "bheacha": 5814,
      "Ġhios": 5815,
      "Ġgcuirt": 5816,
      "Ġthromchui": 5817,
      "oracha": 5818,
      "Ġchomhlanu": 5819,
      "Ġmeaisini": 5820,
      "Ġbainne": 5821,
      "Ġdioluinti": 5822,
      "Ġaluman": 5823,
      "Ġoiread": 5824,
      "ðŁ": 5825,
      "ĠðŁ": 5826,
      "ĠðŁ¡": 5827,
      "Î³": 5828,
      "aireamh": 5829,
      "Ġja": 5830,
      "otal": 5831,
      "skie": 5832,
      "ring": 5833,
      "Ġbhreithiunais": 5834,
      "Ġanois": 5835,
      "Ġforfheidhmithe": 5836,
      "Ġathusaid": 5837,
      "Ġgcineal": 5838,
      "scala": 5839,
      "Ġcuraim": 5840,
      "Ġcathaoirleach": 5841,
      "Ġvar": 5842,
      "Ġ116": 5843,
      "Ġiol": 5844,
      "aistir": 5845,
      "ong": 5846,
      "Ġbhuiseid": 5847,
      "righ": 5848,
      "Ġsho": 5849,
      "ting": 5850,
      "olo": 5851,
      "Ġ129": 5852,
      "Ġostlich": 5853,
      "Ġalumanaim": 5854,
      "gneamh": 5855,
      "Ġcobhs": 5856,
      "Ġgheilleagar": 5857,
      "Ġlitir": 5858,
      "Ġceannasach": 5859,
      "Ġtsochai": 5860,
      "317": 5861,
      "Ġmg": 5862,
      "olaiocha": 5863,
      "Ġusaidi": 5864,
      "bheartas": 5865,
      "Ġ661": 5866,
      "Ġnial": 5867,
      "uscairt": 5868,
      "ordina": 5869,
      "Ġgcuntas": 5870,
      "Ġ1995": 5871,
      "Ġcomhchoiteanna": 5872,
      "Ġservi": 5873,
      "rean": 5874,
      "Ġnde": 5875,
      "Ġtan": 5876,
      "Ġreamhchur": 5877,
      "Ġcigireachta": 5878,
      "Ġhiarratais": 5879,
      "Ġraidio": 5880,
      "thachta": 5881,
      "Ġ149": 5882,
      "Ġghnolachtai": 5883,
      "Ġsochai": 5884,
      "Ġhydroxy": 5885,
      "Ġeagmais": 5886,
      "Ġlamhaltas": 5887,
      "Ġghnimh": 5888,
      "Ġfhorail": 5889,
      "pid": 5890,
      "Ġpolaitiuil": 5891,
      "Ġchain": 5892,
      "Ġ180": 5893,
      "Ġchainni": 5894,
      "Ġ350": 5895,
      "Ġ142": 5896,
      "Ġshuntasach": 5897,
      "Ġeach": 5898,
      "Ġgluaiseachtai": 5899,
      "Ġansin": 5900,
      "Ġkol": 5901,
      "Ġleithdhail": 5902,
      "bt": 5903,
      "Ġfui": 5904,
      "Ġoibreora": 5905,
      "Ġfair": 5906,
      "Ġprop": 5907,
      "Ġmodheolaiocht": 5908,
      "Ġceanglaitear": 5909,
      "mide": 5910,
      "Ġfadtearmach": 5911,
      "tinn": 5912,
      "Ġfhorghniomhu": 5913,
      "ec": 5914,
      "Ġcoireail": 5915,
      "Ġaonfhoirmeach": 5916,
      "Ġple": 5917,
      "Ġtirim": 5918,
      "Ġdomhain": 5919,
      "lagh": 5920,
      "Ġphor": 5921,
      "Ġionaid": 5922,
      "Ġsceideal": 5923,
      "Ġcfre": 5924,
      "Ġbeim": 5925,
      "Ġgurbh": 5926,
      "Ġcetft": 5927,
      "Ġtheastaionn": 5928,
      "yen": 5929,
      "ek": 5930,
      "Ġdethaobh": 5931,
      "anadh": 5932,
      "Ġfreagra": 5933,
      "Ġchroi": 5934,
      "Ġfhori": 5935,
      "Ġisiltir": 5936,
      "Ġpoil": 5937,
      "Ġghreasain": 5938,
      "Ġhiocaiochtai": 5939,
      "Ġchomhtheacs": 5940,
      "Ġfhreagairt": 5941,
      "Ġcoimirci": 5942,
      "Ġiarrtar": 5943,
      "Ġghlactar": 5944,
      "Ġtslandail": 5945,
      "tam": 5946,
      "Ġ168": 5947,
      "Ġak": 5948,
      "Ġlaid": 5949,
      "Ġsholathraithe": 5950,
      "Ġdiorthach": 5951,
      "Ġeolais": 5952,
      "Ġdaileadh": 5953,
      "ÅĤow": 5954,
      "Ġdreachtghniomh": 5955,
      "Ġstar": 5956,
      "Ġrialail": 5957,
      "rian": 5958,
      "Ġgceadaitear": 5959,
      "Ġgearcheime": 5960,
      "Ġolaf": 5961,
      "arascail": 5962,
      "Ġdocmhainneachta": 5963,
      "aisteach": 5964,
      "Ġconai": 5965,
      "Ġshas": 5966,
      "Ġteicnici": 5967,
      "Ġsaothru": 5968,
      "Ġsolas": 5969,
      "feren": 5970,
      "eitil": 5971,
      "taobh": 5972,
      "Ġpoint": 5973,
      "fair": 5974,
      "Ġsean": 5975,
      "Ġsaind": 5976,
      "Ġfra": 5977,
      "Ġaccord": 5978,
      "100": 5979,
      "Ġher": 5980,
      "Ġspriocdh": 5981,
      "Ġbardasacht": 5982,
      "cean": 5983,
      "Ġdd": 5984,
      "Ġbbb": 5985,
      "ls": 5986,
      "Ġ128": 5987,
      "eamach": 5988,
      "phointe": 5989,
      "Ġcla": 5990,
      "Ġdluthphairtiochta": 5991,
      "Ġriachtanas": 5992,
      "Ġbhfad": 5993,
      "Ġroll": 5994,
      "Ġndeimh": 5995,
      "Ġceannais": 5996,
      "ded": 5997,
      "Ġdaonlath": 5998,
      "Ġcoinsineachtai": 5999,
      "wn": 6000,
      "eilleagair": 6001,
      "Ġ440": 6002,
      "Ġmy": 6003,
      "Ġdtabla": 6004,
      "Ġsamhail": 6005,
      "Ð¾Ð²Ð¸Ñĩ": 6006,
      "veise": 6007,
      "wo": 6008,
      "Ġceal": 6009,
      "dhe": 6010,
      "Ġcheannasacht": 6011,
      "Ġphairtithe": 6012,
      "airteagal": 6013,
      "Ġfeabhsaithe": 6014,
      "Ġthaighde": 6015,
      "Ġslabhra": 6016,
      "Ġexposures": 6017,
      "Ġheilveise": 6018,
      "Ġngairtear": 6019,
      "Ġforei": 6020,
      "Ġteagmhas": 6021,
      "ghnothais": 6022,
      "Ġshealbh": 6023,
      "Ġ146": 6024,
      "mhaithe": 6025,
      "Ġdeara": 6026,
      "eab": 6027,
      "Ġbainceireachta": 6028,
      "Ġcorparaid": 6029,
      "ĠâĺĲ": 6030,
      "Ġgcomhph": 6031,
      "Ġanailise": 6032,
      "Ġshoileiriu": 6033,
      "Ġ320": 6034,
      "Ġgcomhlachtai": 6035,
      "Ġ9695": 6036,
      "Ġrepublic": 6037,
      "Ġceangal": 6038,
      "Ġiomaiochas": 6039,
      "Ġkw": 6040,
      "ÑĮ": 6041,
      "cer": 6042,
      "raim": 6043,
      "Ġtext": 6044,
      "Ġthionscadail": 6045,
      "Ġlarnacha": 6046,
      "Ġ165": 6047,
      "Ġceir": 6048,
      "Ġbpobal": 6049,
      "Ġbhforbairt": 6050,
      "Ġchinealch": 6051,
      "Ġdhearadh": 6052,
      "Ġ800": 6053,
      "Ġaig": 6054,
      "Ġrunda": 6055,
      "Ġdtabhairt": 6056,
      "Ġali": 6057,
      "ople": 6058,
      "Ġtosca": 6059,
      "Ġgcol": 6060,
      "Ġsheachad": 6061,
      "Ġhearnala": 6062,
      "Ġneart": 6063,
      "Ġ870": 6064,
      "Ġeiseoidh": 6065,
      "Ġduma": 6066,
      "Ġ223": 6067,
      "Ġmaoiniuchain": 6068,
      "Ġglasrai": 6069,
      "Ġpeople": 6070,
      "cc": 6071,
      "Ġgcumh": 6072,
      "Ġsolathraitear": 6073,
      "Ġminiu": 6074,
      "tained": 6075,
      "Ġchaill": 6076,
      "tici": 6077,
      "Ñı": 6078,
      "ock": 6079,
      "Ġfanacht": 6080,
      "chiste": 6081,
      "Ġfochuid": 6082,
      "ower": 6083,
      "Ġ347": 6084,
      "Ġuasteorainn": 6085,
      "Ġiog": 6086,
      "Ġwithin": 6087,
      "Ġfabrai": 6088,
      "Ġtui": 6089,
      "Ġ170": 6090,
      "Ġeifeachtacha": 6091,
      "Ġchomhalta": 6092,
      "Ġfhadu": 6093,
      "Ġmeascain": 6094,
      "Ġleictreacha": 6095,
      "Ġngnathnos": 6096,
      "Ġleathadh": 6097,
      "Ġchala": 6098,
      "Ġroghnach": 6099,
      "Ġbheilg": 6100,
      "Ġthairisc": 6101,
      "trate": 6102,
      "aitheacht": 6103,
      "Ġhearnalacha": 6104,
      "chos": 6105,
      "Ġslaine": 6106,
      "Ġteicstile": 6107,
      "otu": 6108,
      "Ġceatadan": 6109,
      "Ġfon": 6110,
      "Ġtuiscint": 6111,
      "Ġuk": 6112,
      "cao": 6113,
      "Ġaeir": 6114,
      "limi": 6115,
      "Ġbhonneagar": 6116,
      "Ġceadunas": 6117,
      "Ġfreagracht": 6118,
      "etsk": 6119,
      "Ġlasta": 6120,
      "Ġcomhphairteacha": 6121,
      "Ġem": 6122,
      "Ġsaorga": 6123,
      "uradh": 6124,
      "Ġcollateral": 6125,
      "Ġgin": 6126,
      "Ġbhainistiochta": 6127,
      "Ġshaoranaigh": 6128,
      "Ġmr": 6129,
      "Ġdonetsk": 6130,
      "onarthai": 6131,
      "Ġuibheacha": 6132,
      "Ġdtus": 6133,
      "Ġgcomhlionfaidh": 6134,
      "que": 6135,
      "Ġiarmhairti": 6136,
      "Ġionchasach": 6137,
      "400": 6138,
      "liochtai": 6139,
      "eantais": 6140,
      "Ġ625": 6141,
      "Ġintu": 6142,
      "deration": 6143,
      "00000000000": 6144,
      "Ġatlan": 6145,
      "onnadh": 6146,
      "Ġteimplead": 6147,
      "Ġber": 6148,
      "Ġsreafai": 6149,
      "Ġover": 6150,
      "Ġchomhionann": 6151,
      "Ġinveste": 6152,
      "Ġcapi": 6153,
      "Ġtuairisci": 6154,
      "Ġtraidisiunta": 6155,
      "Ġfhoirceannadh": 6156,
      "Ġgaolmhar": 6157,
      "ualainn": 6158,
      "Ġbunaiochta": 6159,
      "Ġinfhaighteacht": 6160,
      "Ġthiar": 6161,
      "Ġenergi": 6162,
      "sceideal": 6163,
      "omb": 6164,
      "Ġcloi": 6165,
      "ÐµÑĢ": 6166,
      "mhairc": 6167,
      "oilseach": 6168,
      "Ġdhith": 6169,
      "Ġhindireach": 6170,
      "Ġope": 6171,
      "ges": 6172,
      "Ġscaoil": 6173,
      "Ġ131": 6174,
      "Ġriarth": 6175,
      "Ġcoiriuil": 6176,
      "Ġfheisti": 6177,
      "Ġcomhthaobh": 6178,
      "Ġbhonneagair": 6179,
      "late": 6180,
      "Ġdheir": 6181,
      "alamh": 6182,
      "Ġiontrala": 6183,
      "Ġprainne": 6184,
      "Ġcliste": 6185,
      "Ġchaith": 6186,
      "abhala": 6187,
      "niej": 6188,
      "Ġ700": 6189,
      "Ġchomhphairteach": 6190,
      "Ġ154": 6191,
      "Ġathleimneacht": 6192,
      "Ġbhformaid": 6193,
      "Ġtpp": 6194,
      "Ġ080": 6195,
      "Ġfhorb": 6196,
      "Ġ166": 6197,
      "Ġtsualainn": 6198,
      "Ġcistiuchain": 6199,
      "Ġuathoibrithe": 6200,
      "Ġbre": 6201,
      "Ġreamhsh": 6202,
      "Ġcarta": 6203,
      "Ġpionos": 6204,
      "Ġimi": 6205,
      "Ġchomhlachta": 6206,
      "Ġminiciocht": 6207,
      "oma": 6208,
      "Ġghl": 6209,
      "Ġcaighdeanacha": 6210,
      "Ġneamhchomhlionadh": 6211,
      "Ġxii": 6212,
      "Ġtppu": 6213,
      "Ġdhearbh": 6214,
      "werk": 6215,
      "Ġcpc": 6216,
      "Ġbealach": 6217,
      "Ġcursai": 6218,
      "Ġathmh": 6219,
      "Ġcriptea": 6220,
      "Ġseasta": 6221,
      "Ġconsi": 6222,
      "Ġmark": 6223,
      "Ġtabhair": 6224,
      "Ġghlacfar": 6225,
      "Ġlig": 6226,
      "hyd": 6227,
      "tice": 6228,
      "Ġuaidh": 6229,
      "deoidh": 6230,
      "Ġeurojust": 6231,
      "Ġeachtracha": 6232,
      "chen": 6233,
      "Ġite": 6234,
      "Ġinvesteu": 6235,
      "ĠÏĦ": 6236,
      "Ġeifeachtula": 6237,
      "Ġinneall": 6238,
      "landala": 6239,
      "Ġgeografacha": 6240,
      "Ġ152": 6241,
      "Ġiarradh": 6242,
      "Ġinstru": 6243,
      "Ġoga": 6244,
      "Ġfachtoiri": 6245,
      "sz": 6246,
      "Ġeitilte": 6247,
      "ice": 6248,
      "Ġplan": 6249,
      "Ġimpleachtai": 6250,
      "Ġngnoth": 6251,
      "leog": 6252,
      "Ġml": 6253,
      "Ġoti": 6254,
      "Ġrunaiocht": 6255,
      "Ġdhigi": 6256,
      "Ġholding": 6257,
      "tate": 6258,
      "nuaite": 6259,
      "zed": 6260,
      "Ġgluaiseacht": 6261,
      "nsi": 6262,
      "zen": 6263,
      "eacain": 6264,
      "Ġgorm": 6265,
      "Ġpholainn": 6266,
      "ĠðŁ¡»": 6267,
      "arbon": 6268,
      "ungen": 6269,
      "Ġbhfreag": 6270,
      "Ġtogh": 6271,
      "Ġfuaraithe": 6272,
      "Ġlamhaltais": 6273,
      "Ġsimpli": 6274,
      "Ġcomhoibriu": 6275,
      "Ġ143": 6276,
      "eicneolaiochtai": 6277,
      "Ġmhodheol": 6278,
      "ere": 6279,
      "eite": 6280,
      "Ġ203": 6281,
      "Ġmiotail": 6282,
      "Ġ133": 6283,
      "Ġmheastachain": 6284,
      "ailliu": 6285,
      "Ġinathnuaite": 6286,
      "Ġchuideachtai": 6287,
      "Ġbbbb": 6288,
      "Ġcheartu": 6289,
      "istiuchain": 6290,
      "Ġhuath": 6291,
      "Ġheifeachtai": 6292,
      "Ġbithmhead": 6293,
      "Ġvacsain": 6294,
      "Ġneamhspleacha": 6295,
      "Ġiomh": 6296,
      "Ġliostai": 6297,
      "Ġchumars": 6298,
      "Ġdeochanna": 6299,
      "Ġshlandail": 6300,
      "Ġinniulachta": 6301,
      "oscaireachtai": 6302,
      "Ġscairsh": 6303,
      "Ġhainm": 6304,
      "Ġbacainni": 6305,
      "timh": 6306,
      "Ġraj": 6307,
      "Ġdeacrachtai": 6308,
      "gal": 6309,
      "Ġleanann": 6310,
      "Ġsiolta": 6311,
      "Ġcaipiteal": 6312,
      "Ġaicmitear": 6313,
      "Ġ205": 6314,
      "Ġclaruchain": 6315,
      "achtain": 6316,
      "Ġudaraitear": 6317,
      "Ġneamhrialtachtai": 6318,
      "los": 6319,
      "Ġante": 6320,
      "Ġleithead": 6321,
      "Ġ167": 6322,
      "Ġcruinniu": 6323,
      "choimead": 6324,
      "Ġparlaiminti": 6325,
      "Ġdiagn": 6326,
      "Ġmonaraiochta": 6327,
      "eapa": 6328,
      "Ġbunri": 6329,
      "Ġbus": 6330,
      "istra": 6331,
      "Ġudaruchain": 6332,
      "Ġ969500": 6333,
      "pen": 6334,
      "rainn": 6335,
      "Ġdearbhuithe": 6336,
      "Ġ153": 6337,
      "Ġsaindeartha": 6338,
      "Ġphaindeim": 6339,
      "Ġstadt": 6340,
      "prop": 6341,
      "Ġchruinnithe": 6342,
      "Ġeifeachtulachta": 6343,
      "Ġintl": 6344,
      "Ġidirch": 6345,
      "Ġsainithe": 6346,
      "Ġthuairi": 6347,
      "Ġhur": 6348,
      "sian": 6349,
      "tifi": 6350,
      "Ġleachtachta": 6351,
      "burg": 6352,
      "Ġradi": 6353,
      "Ġdlite": 6354,
      "Ġsannta": 6355,
      "Ġinioctha": 6356,
      "Ġacas": 6357,
      "Ġpetrol": 6358,
      "yla": 6359,
      "Ġ520": 6360,
      "Ġcomhgh": 6361,
      "Ġdeonach": 6362,
      "Ġdigiti": 6363,
      "Ġghluais": 6364,
      "aidrimh": 6365,
      "theachta": 6366,
      "Ġbeartaiodh": 6367,
      "Ġgcoitinne": 6368,
      "Ïī": 6369,
      "odoireacht": 6370,
      "cin": 6371,
      "gas": 6372,
      "Ġchobhsaiocht": 6373,
      "Ġeaga": 6374,
      "Ġchuota": 6375,
      "Ġbuntais": 6376,
      "Ġdifriochtai": 6377,
      "Ġinniulachtai": 6378,
      "Ġbheartaitear": 6379,
      "Ġdiultu": 6380,
      "Ġinstitutions": 6381,
      "Ġcomhartha": 6382,
      "Ġcoigeartu": 6383,
      "ters": 6384,
      "Ġ204": 6385,
      "misc": 6386,
      "Ġmed": 6387,
      "Ġbuiseadach": 6388,
      "Ġeolaiocha": 6389,
      "Ġdiriu": 6390,
      "Ġcoinbhl": 6391,
      "ogadh": 6392,
      "Ġchonaithe": 6393,
      "ess": 6394,
      "Ġbprionsabal": 6395,
      "Ġuirb": 6396,
      "Ġathdh": 6397,
      "rag": 6398,
      "Ġfederation": 6399,
      "Ġfheidearthacht": 6400,
      "Ġghlactha": 6401,
      "Ġche": 6402,
      "reidmheas": 6403,
      "Ġgcuraimi": 6404,
      "Ġatharachais": 6405,
      "Ġforl": 6406,
      "Ġ132": 6407,
      "Ġeiceachorais": 6408,
      "Ġaerthrachta": 6409,
      "aruis": 6410,
      "Ġforaoise": 6411,
      "Ġtaisci": 6412,
      "Ġdheantus": 6413,
      "Ġproc": 6414,
      "ustri": 6415,
      "Ġcomhardaithe": 6416,
      "Ġgoir": 6417,
      "Ġaitheantoir": 6418,
      "Ġchronic": 6419,
      "Ġcabhrach": 6420,
      "Ġinghlactha": 6421,
      "teoiri": 6422,
      "Ġhiompar": 6423,
      "Ġpon": 6424,
      "Ġpeg": 6425,
      "Ġ620": 6426,
      "Ġbanc": 6427,
      "Ġngabh": 6428,
      "Ġmodheolaiochtai": 6429,
      "Ġmathair": 6430,
      "Ġ850": 6431,
      "onsabail": 6432,
      "nionn": 6433,
      "Ġchoitinn": 6434,
      "flu": 6435,
      "nigh": 6436,
      "luaite": 6437,
      "Ġcheannach": 6438,
      "ome": 6439,
      "Ġgcomhaon": 6440,
      "Ġcoimheas": 6441,
      "Ġngear": 6442,
      "Ġcomhtheacs": 6443,
      "Ġ144": 6444,
      "Ġtagtha": 6445,
      "Ġnor": 6446,
      "uigthe": 6447,
      "Ġbithe": 6448,
      "ortaingeil": 6449,
      "toidh": 6450,
      "Ġpal": 6451,
      "Ġcobhsaiochta": 6452,
      "Ġrialachais": 6453,
      "Ġlionadh": 6454,
      "Ġmbliain": 6455,
      "Ġgcorais": 6456,
      "Ġhanaili": 6457,
      "cia": 6458,
      "Ġsainaitheanta": 6459,
      "Ġmhaoirseacht": 6460,
      "Ġclois": 6461,
      "Ġgeirmeacha": 6462,
      "atai": 6463,
      "Ġcomhdhluite": 6464,
      "Ġcumhdach": 6465,
      "Ġfoilseoidh": 6466,
      "Ġdhich": 6467,
      "Ġdeonaiodh": 6468,
      "Ġith": 6469,
      "Ġdhalai": 6470,
      "eachtar": 6471,
      "Ġforlion": 6472,
      "Ġcoire": 6473,
      "Ġnoi": 6474,
      "eachumars": 6475,
      "fhion": 6476,
      "asta": 6477,
      "Ġ720": 6478,
      "Ġmeasta": 6479,
      "chlair": 6480,
      "Ġchaipiteal": 6481,
      "Ġmordhiola": 6482,
      "Ġghrupai": 6483,
      "riall": 6484,
      "bhealach": 6485,
      "Ġdulra": 6486,
      "Ġdtracht": 6487,
      "Ġchaighdeain": 6488,
      "Ġngrupa": 6489,
      "Ġ016": 6490,
      "Ġidirghabhalacha": 6491,
      "dion": 6492,
      "lainti": 6493,
      "ualg": 6494,
      "Ġthalamh": 6495,
      "ocfadh": 6496,
      "Ġtathar": 6497,
      "Ġgniomhaithe": 6498,
      "Ġdhe": 6499,
      "Ġolai": 6500,
      "Ġ230": 6501,
      "Ġmbeartas": 6502,
      "Ġtradmharc": 6503,
      "llus": 6504,
      "Ġluhan": 6505,
      "Ġbhforlion": 6506,
      "Ġshannadh": 6507,
      "Ġluhansk": 6508,
      "Ġ010": 6509,
      "aca": 6510,
      "rough": 6511,
      "acz": 6512,
      "gren": 6513,
      "Ġsluach": 6514,
      "Ġconas": 6515,
      "Ġsainiu": 6516,
      "Ġfoirdheontais": 6517,
      "ĠÐº": 6518,
      "Ġdaileachain": 6519,
      "buis": 6520,
      "Ġout": 6521,
      "Ġvir": 6522,
      "Ġdifriocht": 6523,
      "rana": 6524,
      "teair": 6525,
      "Ġfada": 6526,
      "Ġguais": 6527,
      "ose": 6528,
      "Ġmaoirseoiri": 6529,
      "Ġchomhairliuchain": 6530,
      "gna": 6531,
      "Ġhaeraide": 6532,
      "Ġaccordance": 6533,
      "ire": 6534,
      "mthriall": 6535,
      "Ġcae": 6536,
      "Ġskin": 6537,
      "Ġheicteair": 6538,
      "Ġtriom": 6539,
      "Ġ184": 6540,
      "Ġsubstaintiuil": 6541,
      "Ġinterna": 6542,
      "Ġtaisteal": 6543,
      "Ġraiti": 6544,
      "Ġ848": 6545,
      "Ġtimpeallacht": 6546,
      "Ġmeastachain": 6547,
      "Ġnaisiuin": 6548,
      "lig": 6549,
      "Ġleantach": 6550,
      "ochtaithe": 6551,
      "Ġwes": 6552,
      "Ġaistar": 6553,
      "Ġtredhearcachta": 6554,
      "kreis": 6555,
      "Ġsac": 6556,
      "Ġathraithe": 6557,
      "Ġchumasu": 6558,
      "Ġswd": 6559,
      "Ġvotala": 6560,
      "Ġraititeach": 6561,
      "Ġleyen": 6562,
      "Ġtub": 6563,
      "Ġmbaintear": 6564,
      "hol": 6565,
      "Ġlaw": 6566,
      "Ġreimeas": 6567,
      "eisc": 6568,
      "Ġimch": 6569,
      "Ġiarrfaidh": 6570,
      "Ġtoimh": 6571,
      "Ġbheatha": 6572,
      "eantair": 6573,
      "Ġiarrachtai": 6574,
      "Ġleiriodh": 6575,
      "Ġbailithe": 6576,
      "reathnu": 6577,
      "Ġrajono": 6578,
      "reisiu": 6579,
      "shon": 6580,
      "Ġchruth": 6581,
      "sulacht": 6582,
      "bia": 6583,
      "Ġdtugann": 6584,
      "Ġiarnrod": 6585,
      "sula": 6586,
      "ary": 6587,
      "Ġporuchain": 6588,
      "Ġgemarkungen": 6589,
      "Ġfruit": 6590,
      "Ġ216": 6591,
      "nofar": 6592,
      "abhrach": 6593,
      "mint": 6594,
      "Ġ236": 6595,
      "Ġathleimneachta": 6596,
      "tre": 6597,
      "Ġboinn": 6598,
      "Ġ175": 6599,
      "Ġimscrud": 6600,
      "Ġtascaire": 6601,
      "Ġ750": 6602,
      "Ġteileachumars": 6603,
      "Ġfoirgniochta": 6604,
      "Ġthrad": 6605,
      "Ġ163": 6606,
      "Ġbeo": 6607,
      "Ġgconcluid": 6608,
      "earcair": 6609,
      "Ġgceap": 6610,
      "Ġ155": 6611,
      "Ġpdf": 6612,
      "Ġdem": 6613,
      "uration": 6614,
      "bor": 6615,
      "ju": 6616,
      "ochtaineacht": 6617,
      "Ġhidirthreimhse": 6618,
      "Ġcineail": 6619,
      "Ġchor": 6620,
      "Ġgcaighdean": 6621,
      "Ġusaidfidh": 6622,
      "Ġlimited": 6623,
      "jew": 6624,
      "cn": 6625,
      "Ġidiu": 6626,
      "Ġcothabhail": 6627,
      "achtacha": 6628,
      "Ġ1380": 6629,
      "Ġlarchoras": 6630,
      "Ġtaisp": 6631,
      "Ġrequi": 6632,
      "Ð½Ð¾": 6633,
      "mid": 6634,
      "Ġâī¥": 6635,
      "Ġformaid": 6636,
      "eola": 6637,
      "Ġsiul": 6638,
      "Ġlevel": 6639,
      "Ġnew": 6640,
      "Ġdeine": 6641,
      "gm": 6642,
      "Ġdri": 6643,
      "Ġaerfoirt": 6644,
      "Ġuathoibrioch": 6645,
      "Ġndiol": 6646,
      "Ġdhoicimeid": 6647,
      "Ġlamp": 6648,
      "Ġ173": 6649,
      "Ġmaoluithe": 6650,
      "Ġmhinitear": 6651,
      "Ġioslagh": 6652,
      "Ġocsaid": 6653,
      "ĠÏĢ": 6654,
      "ĠÐ¼": 6655,
      "Ġ162": 6656,
      "Ġorgan": 6657,
      "ÑĬ": 6658,
      "Ġhoifigi": 6659,
      "Ġgemarkung": 6660,
      "Ġlandkreis": 6661,
      "Ġbhirt": 6662,
      "Ġwhe": 6663,
      "Ġmeabhran": 6664,
      "lod": 6665,
      "oise": 6666,
      "Ġadhmaid": 6667,
      "Ġcirc": 6668,
      "Ġsuitealacha": 6669,
      "Ġgairis": 6670,
      "Ġvan": 6671,
      "Ġphro": 6672,
      "Ġathr": 6673,
      "Ġcons": 6674,
      "Ġcalc": 6675,
      "Ġcomhchoiteann": 6676,
      "achadh": 6677,
      "Ġdec": 6678,
      "Ġpub": 6679,
      "Ġrussian": 6680,
      "Ġ0001": 6681,
      "Ġcuardaigh": 6682,
      "Ġbud": 6683,
      "Ġ185": 6684,
      "Ġfhilleadh": 6685,
      "Ġneamhchomhlion": 6686,
      "Ġursula": 6687,
      "Ġmearl": 6688,
      "Ġbhainc": 6689,
      "Ġstamp": 6690,
      "Ġmalartach": 6691,
      "Ġexposure": 6692,
      "Ġspeans": 6693,
      "Ġthuaisceart": 6694,
      "Ġsluachistiuchain": 6695,
      "Ġles": 6696,
      "und": 6697,
      "Ġip": 6698,
      "Ġpra": 6699,
      "Ġleithdhailte": 6700,
      "Ġrian": 6701,
      "Ġidirph": 6702,
      "Ġmiondealu": 6703,
      "Ġcontraphairtithe": 6704,
      "teain": 6705,
      "Ð¿": 6706,
      "Ġcain": 6707,
      "nuithe": 6708,
      "ÑĢÐ°": 6709,
      "Ġcomhlionann": 6710,
      "Ġgcatagoir": 6711,
      "Ġferment": 6712,
      "Ġnuach": 6713,
      "Ġdaonra": 6714,
      "Ġbhfuarthas": 6715,
      "Ġshimpliu": 6716,
      "Ġghne": 6717,
      "Ġ270": 6718,
      "Ġmodhnu": 6719,
      "Ġphearsanta": 6720,
      "ae": 6721,
      "Ġmal": 6722,
      "ÑĤÐ¾": 6723,
      "aibh": 6724,
      "eabhair": 6725,
      "udaraithe": 6726,
      "Ġ151": 6727,
      "Ġparaimeadair": 6728,
      "Ġcomhlionta": 6729,
      "ent": 6730,
      "Ġtocsain": 6731,
      "try": 6732,
      "Ġpp": 6733,
      "Ġtrachtearrai": 6734,
      "taili": 6735,
      "Ġchomhord": 6736,
      "Ġwojew": 6737,
      "cini": 6738,
      "rit": 6739,
      "Ġgheobh": 6740,
      "Ġwojewodz": 6741,
      "risi": 6742,
      "Ġiocadh": 6743,
      "Ġardleibheal": 6744,
      "Ġbunachar": 6745,
      "row": 6746,
      "Ġpod": 6747,
      "Ġul": 6748,
      "Ġ157": 6749,
      "tori": 6750,
      "Ġbithmheadracha": 6751,
      "Ġphrotacail": 6752,
      "Ġcra": 6753,
      "Ġcomparaid": 6754,
      "Ġcriochnaithe": 6755,
      "Ġmharu": 6756,
      "Ġthacaigh": 6757,
      "Ġstruchturacha": 6758,
      "Ġinchomparaide": 6759,
      "Ġceartu": 6760,
      "Ġcobhsaiocht": 6761,
      "Ġ192": 6762,
      "Ġbreithiunas": 6763,
      "Ġ015": 6764,
      "Ġinternational": 6765,
      "Ġmona": 6766,
      "eidliochtai": 6767,
      "Ġincheadaithe": 6768,
      "Ġbui": 6769,
      "Ġgcoimead": 6770,
      "wor": 6771,
      "thion": 6772,
      "Ġgceanglaitear": 6773,
      "lama": 6774,
      "Ġfhagann": 6775,
      "Ġthabharfar": 6776,
      "Ġchairt": 6777,
      "Ġshoithi": 6778,
      "Ġtionsclaiocha": 6779,
      "Ġallmhaireoiri": 6780,
      "Ġ156": 6781,
      "Ġ158": 6782,
      "Ġ649": 6783,
      "Ġhinfheistiochtai": 6784,
      "Ġphortaingeil": 6785,
      "Ġcoigil": 6786,
      "Ġ0010": 6787,
      "Ġwie": 6788,
      "treacha": 6789,
      "Ġlanphairti": 6790,
      "ky": 6791,
      "Ġcheanglas": 6792,
      "Ġairm": 6793,
      "Ġ550": 6794,
      "Ġfhol": 6795,
      "eirm": 6796,
      "sts": 6797,
      "Ġgcr": 6798,
      "Ġ220": 6799,
      "Ġpetroleum": 6800,
      "Ġthoir": 6801,
      "Ġthasc": 6802,
      "Ġ1996": 6803,
      "dc": 6804,
      "Ġgcuis": 6805,
      "tearmacha": 6806,
      "Ġham": 6807,
      "Ġseed": 6808,
      "Ġistigh": 6809,
      "Ġformheasa": 6810,
      "Ġadamhach": 6811,
      "Ġsaoranach": 6812,
      "Ġcuotai": 6813,
      "Ġrannphairteacha": 6814,
      "Ġllc": 6815,
      "Ġchomhphairt": 6816,
      "Ġchois": 6817,
      "Ġdearfach": 6818,
      "Ġ025": 6819,
      "aitiuil": 6820,
      "Ġgcruth": 6821,
      "Ġ148": 6822,
      "Ġaut": 6823,
      "Ġhard": 6824,
      "Ġshiniu": 6825,
      "Ġcomhorduchain": 6826,
      "mhaith": 6827,
      "Ġdiospoidi": 6828,
      "ghradu": 6829,
      "Ġsaill": 6830,
      "Ġnie": 6831,
      "Ġeuropean": 6832,
      "Ġfarraige": 6833,
      "Ġtaca": 6834,
      "Ġ239": 6835,
      "Ġpou": 6836,
      "Ġ847": 6837,
      "Ġidirdhealaitheach": 6838,
      "Ġtotal": 6839,
      "Ġcompany": 6840,
      "Ġneod": 6841,
      "Ġaontach": 6842,
      "Ġ680": 6843,
      "Ġcomm": 6844,
      "chiunai": 6845,
      "roma": 6846,
      "Ġmhodhanna": 6847,
      "uchtaithe": 6848,
      "Ġhiarscribhinni": 6849,
      "bas": 6850,
      "Ġke": 6851,
      "Ġgener": 6852,
      "Ġgg": 6853,
      "Ġdath": 6854,
      "ruchain": 6855,
      "Ġbpairt": 6856,
      "Ġchanach": 6857,
      "Ġliotu": 6858,
      "Ġdru": 6859,
      "Ġmeadaithe": 6860,
      "Ġcuirt": 6861,
      "Ġdhlith": 6862,
      "Ġmuta": 6863,
      "Ġgmina": 6864,
      "Ġgniomhai": 6865,
      "bhealai": 6866,
      "Ġthastail": 6867,
      "Ġwojewodztw": 6868,
      "Ġort": 6869,
      "Ġ607": 6870,
      "Ġinbhuanaitheacht": 6871,
      "Ġfagtha": 6872,
      "fon": 6873,
      "ealladh": 6874,
      "Ġ396": 6875,
      "ionscnaimh": 6876,
      "Ġduration": 6877,
      "Ġgov": 6878,
      "otaill": 6879,
      "Ġpos": 6880,
      "Ġcoordina": 6881,
      "Ġgheobhaidh": 6882,
      "Ġseiceail": 6883,
      "Ġthuasluaite": 6884,
      "km": 6885,
      "prioc": 6886,
      "are": 6887,
      "Ġluc": 6888,
      "eagsulacht": 6889,
      "Ġmbanc": 6890,
      "Ġndoicimead": 6891,
      "Ġcibearsh": 6892,
      "Ġ325": 6893,
      "unta": 6894,
      "Ġilch": 6895,
      "Ġlarionaid": 6896,
      "ĠÐ½Ð°": 6897,
      "Ġace": 6898,
      "Ġghalair": 6899,
      "achair": 6900,
      "dex": 6901,
      "ntly": 6902,
      "Ġ1725": 6903,
      "Ġsuimh": 6904,
      "Ġfeola": 6905,
      "Ġtob": 6906,
      "Ġpy": 6907,
      "Ġfiontar": 6908,
      "aoisi": 6909,
      "gated": 6910,
      "Ġbagairt": 6911,
      "Ġeastosc": 6912,
      "Ġsheachadadh": 6913,
      "Ġhuathoibrioch": 6914,
      "ree": 6915,
      "Ġmblianta": 6916,
      "Ġceantar": 6917,
      "Ġtagarmharcanna": 6918,
      "Ġeltif": 6919,
      "Ġ174": 6920,
      "Ġchuaigh": 6921,
      "Ġionchasacha": 6922,
      "Ġcholun": 6923,
      "Ġmhichumas": 6924,
      "Ġmhodheolaiocht": 6925,
      "bhru": 6926,
      "Ġ164": 6927,
      "Ġmhargai": 6928,
      "Ġceadunais": 6929,
      "Ġreamhchuraim": 6930,
      "pol": 6931,
      "Ġpic": 6932,
      "Ġ722": 6933,
      "Ġchomhreir": 6934,
      "Ġbhliantula": 6935,
      "Ġdromchla": 6936,
      "val": 6937,
      "nica": 6938,
      "Ġnualacha": 6939,
      "Ġtairiscint": 6940,
      "Ġgconarthai": 6941,
      "fied": 6942,
      "arsprioc": 6943,
      "Ġceallrai": 6944,
      "Ġices": 6945,
      "Ġimscaradh": 6946,
      "Ġcinnfidh": 6947,
      "rainse": 6948,
      "Ġfhoriomlan": 6949,
      "orde": 6950,
      "Ġchomhroinnte": 6951,
      "Ġ137": 6952,
      "Ġmbainistiu": 6953,
      "Ġsoghluaisteacht": 6954,
      "Ġinrochtana": 6955,
      "Ġghri": 6956,
      "Ġ317": 6957,
      "Ġimirt": 6958,
      "Ġliq": 6959,
      "Ġionadu": 6960,
      "Ġhiontr": 6961,
      "Ġ251": 6962,
      "Ġnascadh": 6963,
      "Ġbhfos": 6964,
      "Ġfochon": 6965,
      "Ġhusaideoiri": 6966,
      "Ġdump": 6967,
      "Ġchomhchoiste": 6968,
      "Ġgnolacht": 6969,
      "Ġiarratasoiri": 6970,
      "count": 6971,
      "Ġdiultaiodh": 6972,
      "Ġndeon": 6973,
      "Ñĩ": 6974,
      "ghas": 6975,
      "Ġ295": 6976,
      "Ġchuraimi": 6977,
      "eatadain": 6978,
      "dal": 6979,
      "Ġpen": 6980,
      "Ġneamhudaraithe": 6981,
      "ghabhala": 6982,
      "Ġnace": 6983,
      "Ġbhfion": 6984,
      "Ġgcomhaltai": 6985,
      "chomhar": 6986,
      "Ġdtairgeadh": 6987,
      "Ġghearradh": 6988,
      "Ġtech": 6989,
      "Ġstan": 6990,
      "Ġtairteagal": 6991,
      "Ġbailiocht": 6992,
      "Ġcentral": 6993,
      "Ġfp": 6994,
      "uf": 6995,
      "yle": 6996,
      "arlaionn": 6997,
      "Ġavia": 6998,
      "Ġcaomhnaithe": 6999,
      "Ġcomhfhreagrach": 7000,
      "ox": 7001,
      "Ġtharlaionn": 7002,
      "cation": 7003,
      "Ġbpleananna": 7004,
      "Ġdlist": 7005,
      "Ġcalaoise": 7006,
      "licher": 7007,
      "Ġatairgthe": 7008,
      "eadan": 7009,
      "oirithe": 7010,
      "Ġsocraithe": 7011,
      "Ġtradalai": 7012,
      "Ġjude": 7013,
      "Ġspeci": 7014,
      "Ġathbhunu": 7015,
      "arai": 7016,
      "Ġthionscnaimh": 7017,
      "ghniomhach": 7018,
      "Ġgminie": 7019,
      "Ġtomhas": 7020,
      "Ġriomhph": 7021,
      "Ġuisceacha": 7022,
      "Ġchuard": 7023,
      "iniuna": 7024,
      "Ġdtairge": 7025,
      "Ġethyl": 7026,
      "Ġmeasadh": 7027,
      "Ġdeimhneacht": 7028,
      "ochair": 7029,
      "Ġearra": 7030,
      "Ġostach": 7031,
      "Ġcomhliontar": 7032,
      "ĶĢ": 7033,
      "Ġhuir": 7034,
      "Ġbreat": 7035,
      "ĠâĶĢ": 7036,
      "Ġamhabhar": 7037,
      "Ġhionstraime": 7038,
      "Ġbreataine": 7039,
      "Ġnais": 7040,
      "Ġicao": 7041,
      "tant": 7042,
      "Ġchomhchuibhiu": 7043,
      "Ġgcoinnioll": 7044,
      "liam": 7045,
      "Ġ209": 7046,
      "Ġ404": 7047,
      "Ġsimpliu": 7048,
      "Ġchaipitil": 7049,
      "Ġrub": 7050,
      "Ġreoite": 7051,
      "Ġchinealacha": 7052,
      "Ġcail": 7053,
      "Ġligean": 7054,
      "Ġleagadh": 7055,
      "Ġtogala": 7056,
      "ĠpoÅĤudnie": 7057,
      "fhostaithe": 7058,
      "Ġchomhbhear": 7059,
      "Ġresi": 7060,
      "obhsai": 7061,
      "Ġinoibritheachta": 7062,
      "gini": 7063,
      "Ġss": 7064,
      "Ġuasmheid": 7065,
      "Ġgly": 7066,
      "Ġfoirgnimh": 7067,
      "bhn": 7068,
      "Ġmer": 7069,
      "Ġ206": 7070,
      "Ġphointi": 7071,
      "teorainneacha": 7072,
      "Ġâĩ¨": 7073,
      "Ġopera": 7074,
      "oiv": 7075,
      "stein": 7076,
      "cts": 7077,
      "Ġdualgas": 7078,
      "thearm": 7079,
      "Ġafrac": 7080,
      "eantas": 7081,
      "Ġed": 7082,
      "Ġthus": 7083,
      "ux": 7084,
      "Ġ760": 7085,
      "Ġgcritear": 7086,
      "Ġdifriula": 7087,
      "Ġhimthosca": 7088,
      "Ġ161": 7089,
      "Ġ1303": 7090,
      "niow": 7091,
      "Ġuachtar": 7092,
      "Ġhullmh": 7093,
      "Ġ235": 7094,
      "Ġgloine": 7095,
      "mann": 7096,
      "Ġcair": 7097,
      "Ġfhuinnimh": 7098,
      "eirt": 7099,
      "Ġkil": 7100,
      "arascalacha": 7101,
      "Ġdtabharfai": 7102,
      "Ġleictreonai": 7103,
      "Ġlaethuil": 7104,
      "Ġmarth": 7105,
      "Ġcoim": 7106,
      "Ġfiont": 7107,
      "Ġdhaileadh": 7108,
      "Ġrisiocht": 7109,
      "ld": 7110,
      "Ġbur": 7111,
      "Ġ255": 7112,
      "Ġgearan": 7113,
      "Ġcoigeartaithe": 7114,
      "Ġforim": 7115,
      "vas": 7116,
      "Ġchabhair": 7117,
      "Ġsataili": 7118,
      "Ġcoimhi": 7119,
      "Ġpeitri": 7120,
      "Ġ715": 7121,
      "Ġhiasc": 7122,
      "Ġhidirbhearta": 7123,
      "Ġbhforliontar": 7124,
      "Ġ171": 7125,
      "pir": 7126,
      "Ġbhunaithe": 7127,
      "Ġaus": 7128,
      "Ġvr": 7129,
      "304": 7130,
      "Ġgrei": 7131,
      "ÏĢÎ¿": 7132,
      "Ð¶": 7133,
      "Ġneamhthionscnaimh": 7134,
      "Ġchomhfhreagraionn": 7135,
      "Ġbhag": 7136,
      "Ġfhoch": 7137,
      "oda": 7138,
      "mhainneacht": 7139,
      "Ġcuota": 7140,
      "Ġuathuil": 7141,
      "con": 7142,
      "seamh": 7143,
      "Ġmea": 7144,
      "rule": 7145,
      "Ġgcuirfeadh": 7146,
      "Ġou": 7147,
      "Ġ0040": 7148,
      "Ġtuas": 7149,
      "Ġthaisceadh": 7150,
      "Ġnaph": 7151,
      "Ġgclair": 7152,
      "Ġleithne": 7153,
      "bilities": 7154,
      "ineach": 7155,
      "Ġdatai": 7156,
      "Ġcomhshaol": 7157,
      "Ġghairmiuil": 7158,
      "Ġgceim": 7159,
      "Ġleirithe": 7160,
      "Ġradius": 7161,
      "kov": 7162,
      "Ġfoirgneamh": 7163,
      "Ġriarachan": 7164,
      "Ġinforma": 7165,
      "Ġ560": 7166,
      "Ġdtorthai": 7167,
      "Ġdleath": 7168,
      "Ġfoilsiu": 7169,
      "Ġneamhreir": 7170,
      "Ġrange": 7171,
      "Ġefsa": 7172,
      "Ġfur": 7173,
      "lam": 7174,
      "cheapa": 7175,
      "Ġlait": 7176,
      "unachta": 7177,
      "Ġori": 7178,
      "Ġgcaitheamh": 7179,
      "eallai": 7180,
      "Ġ883": 7181,
      "Ġuaireanta": 7182,
      "Î¹Îº": 7183,
      "tie": 7184,
      "Ġ070": 7185,
      "Ġeadrana": 7186,
      "Ġanailiseach": 7187,
      "Ġtransac": 7188,
      "Ġdiagnois": 7189,
      "ĠÃ°": 7190,
      "Ġsist": 7191,
      "Ġdor": 7192,
      "vest": 7193,
      "minantly": 7194,
      "Ġ231": 7195,
      "reachtu": 7196,
      "Ġyl": 7197,
      "Ġcheimi": 7198,
      "Ġpras": 7199,
      "Ġheisiach": 7200,
      "ua": 7201,
      "Ġfri": 7202,
      "ving": 7203,
      "Ġoy": 7204,
      "Ġardu": 7205,
      "Ġmhil": 7206,
      "dominantly": 7207,
      "Ġjudetul": 7208,
      "Ġ208": 7209,
      "iec": 7210,
      "Ġdhliteanas": 7211,
      "Ġ225": 7212,
      "Ġbat": 7213,
      "Ġdhiorth": 7214,
      "Ġpredominantly": 7215,
      "soc": 7216,
      "sel": 7217,
      "Ġsheiceail": 7218,
      "Ġterule": 7219,
      "Ġcheannais": 7220,
      "Ġsholathair": 7221,
      "Ġstoras": 7222,
      "fit": 7223,
      "Ġhiarratas": 7224,
      "Ġfhiontair": 7225,
      "Ġinstitution": 7226,
      "Ġphrionsabal": 7227,
      "ghrupa": 7228,
      "Ġthairiscint": 7229,
      "Ġchathaoirleach": 7230,
      "Ġbhaintear": 7231,
      "Ġcoordinates": 7232,
      "aicmithe": 7233,
      "bheanna": 7234,
      "eip": 7235,
      "Ġcomhiomlan": 7236,
      "Ġmbuisead": 7237,
      "Ġeagsulacht": 7238,
      "Ð»Ðµ": 7239,
      "Ġoibreacha": 7240,
      "Ġ900": 7241,
      "Ġtimpeall": 7242,
      "vk": 7243,
      "Ġthrealamh": 7244,
      "Ġcomhrei": 7245,
      "Ġ234": 7246,
      "Ġmhichui": 7247,
      "Ġ172": 7248,
      "Ġghreig": 7249,
      "Ġshe": 7250,
      "Ġproiseailte": 7251,
      "Ġced": 7252,
      "Ġsceith": 7253,
      "Ġgcuspoir": 7254,
      "Ġlac": 7255,
      "Ġ002": 7256,
      "Ġprovi": 7257,
      "Ġthose": 7258,
      "pro": 7259,
      "Ġgru": 7260,
      "Ġnitri": 7261,
      "ato": 7262,
      "Ġseachadta": 7263,
      "Ġceartaitheacha": 7264,
      "aidhme": 7265,
      "Ġdokument": 7266,
      "hl": 7267,
      "Ġtsi": 7268,
      "Ġtogail": 7269,
      "Ġboil": 7270,
      "ĠâĢŀ": 7271,
      "Ġallmhairithe": 7272,
      "Ġbpraghsanna": 7273,
      "Ġrela": 7274,
      "Ġonnmhairithe": 7275,
      "Ġalcol": 7276,
      "Ġcorporation": 7277,
      "thionsc": 7278,
      "Ġani": 7279,
      "Ġhiorua": 7280,
      "Ġfil": 7281,
      "Ġlaghduithe": 7282,
      "Ġtiomnaithe": 7283,
      "Ġgluaiseachta": 7284,
      "Ġcogas": 7285,
      "Ġ159": 7286,
      "Ġstatch": 7287,
      "Ġdiolmhaithe": 7288,
      "Ġcaidreamh": 7289,
      "Ġrathu": 7290,
      "Ġthairgeann": 7291,
      "Ġsamplala": 7292,
      "Ġcruthunas": 7293,
      "Ġshol": 7294,
      "Ġmbaili": 7295,
      "Ġafracach": 7296,
      "Ġlionta": 7297,
      "Ġ265": 7298,
      "Ġdhlithe": 7299,
      "Ġsainchomh": 7300,
      "Ġsuiteail": 7301,
      "thairgi": 7302,
      "Ġmheabh": 7303,
      "reain": 7304,
      "Ġdreasachtai": 7305,
      "Ġgcolun": 7306,
      "Ġ248": 7307,
      "teis": 7308,
      "Ġdisc": 7309,
      "Ġcheadaitear": 7310,
      "Ġfhisi": 7311,
      "Ġheifeacht": 7312,
      "Ġssc": 7313,
      "Ġghla": 7314,
      "iuchan": 7315,
      "arra": 7316,
      "Ġhathbh": 7317,
      "oit": 7318,
      "Ġreidh": 7319,
      "Ġdele": 7320,
      "Ġbhformheas": 7321,
      "Ġiltaobh": 7322,
      "Ġranniocaiochta": 7323,
      "Ġbaran": 7324,
      "Ġmheanmheide": 7325,
      "Ġgeneral": 7326,
      "ace": 7327,
      "iulacht": 7328,
      "Ġ211": 7329,
      "Ġalt": 7330,
      "Ġfeabhs": 7331,
      "eamacha": 7332,
      "Ġsodium": 7333,
      "Ġdgd": 7334,
      "Ġleabhar": 7335,
      "laionn": 7336,
      "Ġadhmad": 7337,
      "Ġwhere": 7338,
      "Ġaviation": 7339,
      "loing": 7340,
      "Ġforbraiochta": 7341,
      "Ġmalartuithe": 7342,
      "Ġchoireail": 7343,
      "Ġgior": 7344,
      "Ġtuarascala": 7345,
      "Ġiniuchta": 7346,
      "Ġabairt": 7347,
      "chair": 7348,
      "Ġloc": 7349,
      "Ġhaonaid": 7350,
      "Ġscagadh": 7351,
      "Ġteileachumarsaide": 7352,
      "Ġgcomhphairti": 7353,
      "Ġsciuradh": 7354,
      "Ġchailiochta": 7355,
      "Ġcinealcheadaithe": 7356,
      "gaz": 7357,
      "Ġbhaile": 7358,
      "tile": 7359,
      "Ġeatar": 7360,
      "Ġid": 7361,
      "eacnamaiocha": 7362,
      "Ġchoinbhinsiuin": 7363,
      "rachtala": 7364,
      "Ġgheograf": 7365,
      "Ġcomhaoinithe": 7366,
      "dionadai": 7367,
      "Ġrequire": 7368,
      "Ġidirlion": 7369,
      "Ġtarlu": 7370,
      "Ġmuinin": 7371,
      "Ġeatarthu": 7372,
      "Ġlag": 7373,
      "yzow": 7374,
      "Ġgcuspoiri": 7375,
      "grenze": 7376,
      "Ġgreasan": 7377,
      "aisteacha": 7378,
      "Ġsie": 7379,
      "scruduithe": 7380,
      "Ġhamh": 7381,
      "Ġcabhru": 7382,
      "Ġurraitheoir": 7383,
      "nae": 7384,
      "Ġ1107": 7385,
      "Ġ260": 7386,
      "Ġtionsclaioch": 7387,
      "gne": 7388,
      "Ġmearcair": 7389,
      "Ġmbonneagar": 7390,
      "Ġionchuisithe": 7391,
      "taise": 7392,
      "Ġfigi": 7393,
      "Ġ2933": 7394,
      "Ġghas": 7395,
      "Ġzum": 7396,
      "Ġghairtear": 7397,
      "Ġnusaid": 7398,
      "Ġroot": 7399,
      "Ġcigireacht": 7400,
      "aro": 7401,
      "ows": 7402,
      "Ġaithrisi": 7403,
      "Ġaerspais": 7404,
      "Ġdisti": 7405,
      "Ġ181": 7406,
      "Ġ256": 7407,
      "Ġposi": 7408,
      "Ġuathu": 7409,
      "Ġaisiocaiocht": 7410,
      "Ġeatramhach": 7411,
      "Ġreach": 7412,
      "Ġcumaisc": 7413,
      "Ġceimiceach": 7414,
      "rzyzow": 7415,
      "Ġbran": 7416,
      "ochaine": 7417,
      "Ġmhaith": 7418,
      "Ġbailiodh": 7419,
      "Ġflower": 7420,
      "Ġcircle": 7421,
      "600": 7422,
      "Ġ193": 7423,
      "Ġhaer": 7424,
      "Ġidirthurais": 7425,
      "bhreos": 7426,
      "Ġinclu": 7427,
      "Ġmainneachtain": 7428,
      "Ġphoruchain": 7429,
      "Ġchuntasaiochta": 7430,
      "Ġaibiocht": 7431,
      "Ġforimeallai": 7432,
      "Ġbhfeithicli": 7433,
      "Ġ229": 7434,
      "ulgair": 7435,
      "Ġ605": 7436,
      "Ġathsholath": 7437,
      "Ġmainneachta": 7438,
      "Ġ001": 7439,
      "Ġfoilsithe": 7440,
      "Ġsuiteala": 7441,
      "Ð±": 7442,
      "Ġ#": 7443,
      "alis": 7444,
      "Ġtheoranta": 7445,
      "ogni": 7446,
      "Ġ240": 7447,
      "Ġliostu": 7448,
      "Ġmainneachtana": 7449,
      "Ġbunofar": 7450,
      "Ġroghnuchain": 7451,
      "Ġbs": 7452,
      "Ġleormhaith": 7453,
      "Ġchaiteachais": 7454,
      "Ġidirphle": 7455,
      "ghear": 7456,
      "Ġsolathroiri": 7457,
      "Ġbreiseain": 7458,
      "Ġhiniuch": 7459,
      "Ġconartha": 7460,
      "Ġtoirmisc": 7461,
      "Ġiorua": 7462,
      "Ġwh": 7463,
      "Ġtsain": 7464,
      "Ġcoinneoidh": 7465,
      "Ġeisteacht": 7466,
      "atr": 7467,
      "Ġceimicean": 7468,
      "diam": 7469,
      "Ġreamheol": 7470,
      "Ġusaideora": 7471,
      "Ġmaolaithe": 7472,
      "Ġsuimeanna": 7473,
      "reac": 7474,
      "Ġneamhchosainti": 7475,
      "dz": 7476,
      "Ġorduithe": 7477,
      "Ġairgeadaiochta": 7478,
      "Ġcomhchosuil": 7479,
      "ĠpoÅĤudniow": 7480,
      "aladh": 7481,
      "nanna": 7482,
      "Ġdebi": 7483,
      "osph": 7484,
      "aithne": 7485,
      "Ġiarrata": 7486,
      "Ġthomhaltas": 7487,
      "Ġgarsprioc": 7488,
      "Ġcoisctheacha": 7489,
      "oideach": 7490,
      "Ġforghniomh": 7491,
      "Ġlub": 7492,
      "Ġiarrtha": 7493,
      "Ġchaibid": 7494,
      "Ġtoilleadh": 7495,
      "mhachtain": 7496,
      "leoga": 7497,
      "Ġ410": 7498,
      "sko": 7499,
      "Ġhiarrachtai": 7500,
      "Ġheifeachtu": 7501,
      "Ġeatramh": 7502,
      "nik": 7503,
      "335": 7504,
      "Ġskrzyzow": 7505,
      "Ġbhrabus": 7506,
      "Ġpaipear": 7507,
      "choiriu": 7508,
      "abhras": 7509,
      "eireacht": 7510,
      "Ġ215": 7511,
      "Ġmbainfear": 7512,
      "Ġbhailiocht": 7513,
      "Ġshineadh": 7514,
      "Ġheir": 7515,
      "Ġmbunach": 7516,
      "Ġachar": 7517,
      "Ġbratai": 7518,
      "Ġcomhchoiste": 7519,
      "Ġfoghlama": 7520,
      "Ġchinealcheadu": 7521,
      "wy": 7522,
      "Ġcoimhdeacht": 7523,
      "Ġndluth": 7524,
      "nnill": 7525,
      "mhuir": 7526,
      "ern": 7527,
      "Ġdeighilt": 7528,
      "eoil": 7529,
      "Ġthoi": 7530,
      "Ġnglacfaidh": 7531,
      "olu": 7532,
      "ĠÂ±": 7533,
      "Ġchrios": 7534,
      "Ġformular": 7535,
      "Ġsaotharlainne": 7536,
      "Ġdleathach": 7537,
      "Ġbul": 7538,
      "niuchan": 7539,
      "oscach": 7540,
      "seartha": 7541,
      "Ġarea": 7542,
      "Ġ815": 7543,
      "Ġ190": 7544,
      "Ġteocht": 7545,
      "Ġaeriomproiri": 7546,
      "uiteacha": 7547,
      "ske": 7548,
      "oip": 7549,
      "phroi": 7550,
      "neoir": 7551,
      "Ġres": 7552,
      "Ġeisiach": 7553,
      "Ġcomhoiriunach": 7554,
      "Ġbhfeidhmiu": 7555,
      "luc": 7556,
      "Ġmalartaithe": 7557,
      "Ġcliniciuil": 7558,
      "Ġ1093": 7559,
      "Ġcomhphairt": 7560,
      "Ġ331": 7561,
      "roime": 7562,
      "Ġberec": 7563,
      "teash": 7564,
      "ÐºÐ¾": 7565,
      "Ġgheilleagair": 7566,
      "Ġphost": 7567,
      "vent": 7568,
      "Ġsoghluaiste": 7569,
      "Ġkilome": 7570,
      "Ġindustri": 7571,
      "Ġrachadh": 7572,
      "Ġriomhaireachta": 7573,
      "Ġeisitheoir": 7574,
      "Ġtarraingthe": 7575,
      "Ġchoiriula": 7576,
      "Ġhaicmiu": 7577,
      "Ġmoire": 7578,
      "Ġbhaill": 7579,
      "Ġnumber": 7580,
      "Ġghearcheim": 7581,
      "Ġ228": 7582,
      "chaft": 7583,
      "eara": 7584,
      "fhad": 7585,
      "Ġdistilla": 7586,
      "cheanglais": 7587,
      "Ġceatadain": 7588,
      "Ġionacht": 7589,
      "Ġchomhbheartais": 7590,
      "Ġdhoigh": 7591,
      "opol": 7592,
      "Ġchomhchos": 7593,
      "jo": 7594,
      "ÏĤ": 7595,
      "Ġsonr": 7596,
      "Ġfoirmiuil": 7597,
      "Ġmeasctha": 7598,
      "Ġneu": 7599,
      "ÏģÎ±": 7600,
      "Ġfachtoir": 7601,
      "Ġdhiothu": 7602,
      "ghabhalach": 7603,
      "Ġlaitvia": 7604,
      "Ġcomhchuibhiu": 7605,
      "Ġsou": 7606,
      "Ġ1095": 7607,
      "Ġ169": 7608,
      "Ġbainte": 7609,
      "Ġappro": 7610,
      "Ġcomhoiriunacht": 7611,
      "rialacha": 7612,
      "Ġfostaiocht": 7613,
      "fin": 7614,
      "Ġcriochnaitheacha": 7615,
      "Ġpharas": 7616,
      "bina": 7617,
      "Ġhex": 7618,
      "Ġloingseoireachta": 7619,
      "Ġforfheidhmiuchain": 7620,
      "Ġros": 7621,
      "Ġchuiteamh": 7622,
      "Ġ247": 7623,
      "Ġteimh": 7624,
      "Ġluais": 7625,
      "Ġsolathairti": 7626,
      "Ġleanunachas": 7627,
      "Ġceadanna": 7628,
      "Ġgearcheim": 7629,
      "Ġcomhdhuile": 7630,
      "Ġhimscruduithe": 7631,
      "uidelijke": 7632,
      "fhabhtu": 7633,
      "Ġtreithe": 7634,
      "Ġbhfeidhmi": 7635,
      "Ġ950": 7636,
      "Ġasc": 7637,
      "Ġphar": 7638,
      "Ġchonarthai": 7639,
      "Ġchuirfeadh": 7640,
      "Î¹Î±": 7641,
      "Ġcapital": 7642,
      "Ġesa": 7643,
      "Ġbhfabhar": 7644,
      "ders": 7645,
      "Ġeanlaithe": 7646,
      "Ġtharmligthe": 7647,
      "Ġfheirme": 7648,
      "Ġfuioll": 7649,
      "ip": 7650,
      "phenyl": 7651,
      "Ġearraidi": 7652,
      "mission": 7653,
      "Ġ187": 7654,
      "Ġ241": 7655,
      "Ġstaitis": 7656,
      "Ġiontaof": 7657,
      "Ġbithici": 7658,
      "oirg": 7659,
      "Ġ050": 7660,
      "Ġ1997": 7661,
      "Ġrundachta": 7662,
      "Ġskrzyzowania": 7663,
      "Ġkor": 7664,
      "Ġaerad": 7665,
      "Ġlaithreacht": 7666,
      "Ġtuirc": 7667,
      "Ġioslaghdu": 7668,
      "Ġsfu": 7669,
      "asi": 7670,
      "Ġthrough": 7671,
      "Ġphacaisti": 7672,
      "Ġchomhroinnt": 7673,
      "Ġbainisteoiri": 7674,
      "Ġ222": 7675,
      "arda": 7676,
      "Ġgcion": 7677,
      "inimi": 7678,
      "Ġecris": 7679,
      "Ġdualgais": 7680,
      "Ġukrain": 7681,
      "alfar": 7682,
      "Ġfte": 7683,
      "Ġwe": 7684,
      "Ġ2144": 7685,
      "Ġortst": 7686,
      "rr": 7687,
      "Ġeasa": 7688,
      "Ġman": 7689,
      "Ġceannteidil": 7690,
      "Ġainmniocht": 7691,
      "aran": 7692,
      "Ġderi": 7693,
      "Ġup": 7694,
      "Ġ610": 7695,
      "Ġghneithe": 7696,
      "Ġdiobhalacha": 7697,
      "Ġinterreg": 7698,
      "Ġromain": 7699,
      "Ġchros": 7700,
      "Ġshloinneadh": 7701,
      "Ġchomhlach": 7702,
      "Ġsicini": 7703,
      "Ġscoil": 7704,
      "ensis": 7705,
      "aithigh": 7706,
      "Ġbce": 7707,
      "onnu": 7708,
      "Ġ212": 7709,
      "Ġ852": 7710,
      "Ġ61162": 7711,
      "Ġ310": 7712,
      "Ġbhunachar": 7713,
      "Ġ428": 7714,
      "Ġsoileire": 7715,
      "ÐºÑģ": 7716,
      "mburg": 7717,
      "van": 7718,
      "Ä§": 7719,
      "achtuil": 7720,
      "Ġscag": 7721,
      "Ġmaoirseoir": 7722,
      "aidhe": 7723,
      "Ġcrios": 7724,
      "oprop": 7725,
      "Ġmeitil": 7726,
      "Ġmhe": 7727,
      "Ġfhacht": 7728,
      "Ġspi": 7729,
      "Ġtic": 7730,
      "Ġmeain": 7731,
      "Ġbunriachtan": 7732,
      "leachtanna": 7733,
      "Ġrang": 7734,
      "Ġ283": 7735,
      "Ġoscailt": 7736,
      "Ġbhfeiste": 7737,
      "Ġghiniuint": 7738,
      "Ġzuidelijke": 7739,
      "Ġrunaicmithe": 7740,
      "Ġsimplithe": 7741,
      "tomhas": 7742,
      "Ġbhoithre": 7743,
      "Ġindir": 7744,
      "Ġsainord": 7745,
      "ghairtear": 7746,
      "Ġchoth": 7747,
      "Ġothar": 7748,
      "Ġdian": 7749,
      "Ġ060": 7750,
      "Ġphacaiste": 7751,
      "Ġmichui": 7752,
      "Ġceangailteach": 7753,
      "fs": 7754,
      "Ġaireacht": 7755,
      "oirid": 7756,
      "Ġeisionn": 7757,
      "315": 7758,
      "Ġhionad": 7759,
      "ĠgroÃŁ": 7760,
      "wal": 7761,
      "Ġteagmhail": 7762,
      "Ġsreabhadh": 7763,
      "nej": 7764,
      "Ġiontaise": 7765,
      "ved": 7766,
      "airimh": 7767,
      "phi": 7768,
      "omlana": 7769,
      "Ġ245": 7770,
      "Ġthionscl": 7771,
      "Ġ952": 7772,
      "ÏĨ": 7773,
      "Ġtran": 7774,
      "Ġculturtha": 7775,
      "Ġ280": 7776,
      "Ġ349": 7777,
      "Ġtaifeadta": 7778,
      "Ġhal": 7779,
      "Ġtetra": 7780,
      "Ġwojewodztwie": 7781,
      "Ġcreidmheas": 7782,
      "Ġfhog": 7783,
      "Ġtriail": 7784,
      "Ġleagfaidh": 7785,
      "ÑĢÐµ": 7786,
      "Ġuimhreacha": 7787,
      "Ġ177": 7788,
      "Ġcumhdaitear": 7789,
      "Ġidirbhirt": 7790,
      "Ġgcomhaontuithe": 7791,
      "Ġualu": 7792,
      "owing": 7793,
      "Ġathmhun": 7794,
      "Ġfonta": 7795,
      "Ġku": 7796,
      "Ġiomproir": 7797,
      "zz": 7798,
      "lage": 7799,
      "Ġcomhroinnte": 7800,
      "Ġ191": 7801,
      "eth": 7802,
      "Ġghais": 7803,
      "Ġleireoidh": 7804,
      "ÑĢÐ¸": 7805,
      "Ġinchailitheachta": 7806,
      "Ġ00014": 7807,
      "Ġpleanail": 7808,
      "Ġchustaimeiri": 7809,
      "Ġgcuimsi": 7810,
      "mhairti": 7811,
      "Ġghi": 7812,
      "Ġgcuideachtai": 7813,
      "Ġgearain": 7814,
      "Ġcuardach": 7815,
      "fel": 7816,
      "eili": 7817,
      "Ġluachail": 7818,
      "Ġlaithrean": 7819,
      "Ġaerarthach": 7820,
      "Ġsaoraid": 7821,
      "Ġfearais": 7822,
      "Ġten": 7823,
      "meth": 7824,
      "Ġmolta": 7825,
      "Ġnglacfar": 7826,
      "Ġshrianadh": 7827,
      "Ġbhreosla": 7828,
      "Ġservices": 7829,
      "Ġeachai": 7830,
      "Ġdtarl": 7831,
      "acal": 7832,
      "Ġmhireanna": 7833,
      "Ġpoli": 7834,
      "Ġbproiseail": 7835,
      "leachtula": 7836,
      "Ġceard": 7837,
      "teail": 7838,
      "Ġshaint": 7839,
      "Ġdeimhin": 7840,
      "teif": 7841,
      "Ġintleachtula": 7842,
      "tives": 7843,
      "Ġairt": 7844,
      "Ġ00011": 7845,
      "Ġ00015": 7846,
      "Ġtorainn": 7847,
      "Ġcorrlach": 7848,
      "Ġpeitriliam": 7849,
      "Ġukraine": 7850,
      "var": 7851,
      "eanaigh": 7852,
      "Ġeasca": 7853,
      "leathan": 7854,
      "Ġcplanna": 7855,
      "Ġscairshealbhoiri": 7856,
      "bru": 7857,
      "Ġbainfidh": 7858,
      "Ġcan": 7859,
      "dheimh": 7860,
      "mus": 7861,
      "Ġfal": 7862,
      "Ġbhfo": 7863,
      "Ġmheadaithe": 7864,
      "Ġcuinsi": 7865,
      "Ġ285": 7866,
      "laraithe": 7867,
      "Ġiarrthach": 7868,
      "tur": 7869,
      "rid": 7870,
      "Ġneamhdhi": 7871,
      "ens": 7872,
      "Ġlotnaidicidi": 7873,
      "hydro": 7874,
      "Ġriofa": 7875,
      "roich": 7876,
      "Ġiarrann": 7877,
      "Ġcomplex": 7878,
      "Ġ186": 7879,
      "Ġtrosc": 7880,
      "Ġhudaru": 7881,
      "Ġ338": 7882,
      "Ġcruinneas": 7883,
      "Ġmold": 7884,
      "Ġbhui": 7885,
      "Ġ227": 7886,
      "Ġ00012": 7887,
      "Ġhaistriu": 7888,
      "Ġfhaireachas": 7889,
      "Ġthuairim": 7890,
      "samburg": 7891,
      "Ġtreimhsiula": 7892,
      "Ġisealch": 7893,
      "Ġlucsamburg": 7894,
      "Ġcibearshlandala": 7895,
      "kh": 7896,
      "rora": 7897,
      "Ġdef": 7898,
      "Ġmodhnuithe": 7899,
      "318": 7900,
      "Ġhinfh": 7901,
      "Ġstiurtha": 7902,
      "Ġmoltar": 7903,
      "sealai": 7904,
      "untar": 7905,
      "Ġ021": 7906,
      "Ġphion": 7907,
      "lie": 7908,
      "aoire": 7909,
      "Ġionstraime": 7910,
      "Ġlaimhdeachas": 7911,
      "Ġnoimead": 7912,
      "Ġchineail": 7913,
      "Ġtiolacadh": 7914,
      "Ġdearg": 7915,
      "Ġullmhaithe": 7916,
      "Ġdhiobh": 7917,
      "Ġinite": 7918,
      "Ġheasca": 7919,
      "ÐµÐ²Ð¸Ñĩ": 7920,
      "Ġchigir": 7921,
      "raitheann": 7922,
      "Ġenergy": 7923,
      "Ġbein": 7924,
      "asachtai": 7925,
      "cile": 7926,
      "Ġnaste": 7927,
      "Ġspra": 7928,
      "ogas": 7929,
      "Ġfabraici": 7930,
      "Ġbers": 7931,
      "Ġmhic": 7932,
      "Ġrannchuidionn": 7933,
      "use": 7934,
      "Ġtse": 7935,
      "ochan": 7936,
      "Ġimreiteach": 7937,
      "Ġgcumhachtai": 7938,
      "by": 7939,
      "lec": 7940,
      "Ġsoidiam": 7941,
      "Ġidirthreimhse": 7942,
      "Ġimchludach": 7943,
      "Ġfiodoireacht": 7944,
      "Ġ258": 7945,
      "Ġ343": 7946,
      "ordelijke": 7947,
      "Ġchomhaontuithe": 7948,
      "Ġsular": 7949,
      "Ġachomharc": 7950,
      "Ġ399": 7951,
      "Ġ00016": 7952,
      "Ġ765": 7953,
      "Ġfeirmeoiri": 7954,
      "Ġmhai": 7955,
      "Ġdeil": 7956,
      "Ġshaineol": 7957,
      "0000000000000": 7958,
      "Ġorganaigh": 7959,
      "Ġsceime": 7960,
      "Ġluaite": 7961,
      "Ġeurope": 7962,
      "Ġmbeifear": 7963,
      "gtear": 7964,
      "Ġleathanach": 7965,
      "uaineach": 7966,
      "Ġgcomhbheartas": 7967,
      "Ġeagraithe": 7968,
      "Ġchlaruchain": 7969,
      "Ġtairisceana": 7970,
      "raice": 7971,
      "303": 7972,
      "aillmhi": 7973,
      "Ġdhlithiula": 7974,
      "Ġbhua": 7975,
      "Ġceist": 7976,
      "Ġfoscribhinn": 7977,
      "Ġcert": 7978,
      "Ġhiarmhairti": 7979,
      "Ġthagraitear": 7980,
      "Ġdelegated": 7981,
      "Ġ179": 7982,
      "Ġeasnaimh": 7983,
      "Ġoibreoidh": 7984,
      "Ġcomhaontaithe": 7985,
      "Ġspriocdhata": 7986,
      "Ġaaa": 7987,
      "rabus": 7988,
      "Ġ259": 7989,
      "riosca": 7990,
      "aitheachta": 7991,
      "Ġmheasta": 7992,
      "319": 7993,
      "aimseartha": 7994,
      "Ġtasca": 7995,
      "Ġput": 7996,
      "tia": 7997,
      "Ġiml": 7998,
      "Ġoffi": 7999,
      "Ġfeabhais": 8000,
      "nneala": 8001,
      "Ġthru": 8002,
      "Ġaccount": 8003,
      "Ġ269": 8004,
      "Ġabharthacht": 8005,
      "Ġtsamhail": 8006,
      "ban": 8007,
      "Ġbhulgair": 8008,
      "Ġnoordelijke": 8009,
      "Ġsinteis": 8010,
      "Ġ640": 8011,
      "Ġmiochaine": 8012,
      "Ġsannadh": 8013,
      "Ġcemi": 8014,
      "ceain": 8015,
      "Ġainmneoidh": 8016,
      "mate": 8017,
      "Ġ810": 8018,
      "Ġiasachta": 8019,
      "Ġ194": 8020,
      "Ġ953": 8021,
      "Ġphrionsabail": 8022,
      "Ġilbhliantula": 8023,
      "Ġdtionscadal": 8024,
      "omhair": 8025,
      "Ġtuaisceart": 8026,
      "Ġze": 8027,
      "Ġ1308": 8028,
      "Ġeacnamaiochta": 8029,
      "Ġtuinnin": 8030,
      "rionn": 8031,
      "usa": 8032,
      "Ġiosmheid": 8033,
      "411": 8034,
      "Ġinais": 8035,
      "Ġreachtoireacht": 8036,
      "obhaidi": 8037,
      "Ġ262": 8038,
      "Ġdiola": 8039,
      "Ġliotuain": 8040,
      "Ġmhaoin": 8041,
      "Ġcartai": 8042,
      "Ġfiltrate": 8043,
      "Ġ1224": 8044,
      "Ġgy": 8045,
      "Ġtonn": 8046,
      "Ġ198": 8047,
      "Ġfhagail": 8048,
      "Ġrt": 8049,
      "Ġ1907": 8050,
      "Ġ226": 8051,
      "Ġghnothas": 8052,
      "Ġbreithiunacha": 8053,
      "Ġhuirlisi": 8054,
      "Ġleamh": 8055,
      "nal": 8056,
      "eatai": 8057,
      "alais": 8058,
      "Ġ246": 8059,
      "anad": 8060,
      "Ġfinance": 8061,
      "Ġbarra": 8062,
      "Ġhidrigin": 8063,
      "300": 8064,
      "Ġtairseacha": 8065,
      "Ġbunaiochtai": 8066,
      "Ġ275": 8067,
      "Ġcailiochtai": 8068,
      "Ġsealuch": 8069,
      "ĠÏĥ": 8070,
      "bheart": 8071,
      "Ġroghnaithe": 8072,
      "Ġ340": 8073,
      "rata": 8074,
      "Ġ528": 8075,
      "mhodh": 8076,
      "Ġcste": 8077,
      "Ġneamhgh": 8078,
      "Ġ257": 8079,
      "Ġ302": 8080,
      "Ġinstitiuideach": 8081,
      "Ġgleasra": 8082,
      "Ġ10728": 8083,
      "Ġ284": 8084,
      "Ġfollowing": 8085,
      "Ġmhileata": 8086,
      "inse": 8087,
      "Ġ195": 8088,
      "Ġcinnteoireachta": 8089,
      "Ġld": 8090,
      "Ġfinealacha": 8091,
      "Ġceannacht": 8092,
      "Ġcinntitheach": 8093,
      "mino": 8094,
      "rob": 8095,
      "Ġfuthu": 8096,
      "Ġtriomaithe": 8097,
      "Ġbad": 8098,
      "Ġ292": 8099,
      "Ġaitreabh": 8100,
      "Ġone": 8101,
      "Ġseachtaine": 8102,
      "alairte": 8103,
      "Ġcheatadan": 8104,
      "Ġcumhdofar": 8105,
      "Ġrequirements": 8106,
      "jk": 8107,
      "rity": 8108,
      "Ġindia": 8109,
      "Ġrollta": 8110,
      "hn": 8111,
      "Ã¦": 8112,
      "Ġcorasach": 8113,
      "Ġcoimhiotail": 8114,
      "Ġeig": 8115,
      "Ġfilleadh": 8116,
      "Ġordaithe": 8117,
      "aoirsi": 8118,
      "uinne": 8119,
      "Ġ189": 8120,
      "Ġgnothai": 8121,
      "Ġnuashonraithe": 8122,
      "Ð¼Ð¸": 8123,
      "Ġceisteanna": 8124,
      "tial": 8125,
      "Ġchainniocht": 8126,
      "Ġindireacha": 8127,
      "Ġthreimhsi": 8128,
      "Ġairionna": 8129,
      "Ġwp": 8130,
      "mhiotail": 8131,
      "Ġchomhdhluite": 8132,
      "olymer": 8133,
      "ton": 8134,
      "Ġiogair": 8135,
      "Ġspa": 8136,
      "Ġ232": 8137,
      "Ġ966": 8138,
      "Ġdocumento": 8139,
      "Ġcppa": 8140,
      "Ġghaolmhara": 8141,
      "Ġnuicleach": 8142,
      "Ġceangailte": 8143,
      "Ġchomhghnothais": 8144,
      "Ġfrain": 8145,
      "Ġcoireala": 8146,
      "Ġngnothas": 8147,
      "Ġsinithe": 8148,
      "Ġstop": 8149,
      "Ġmhargu": 8150,
      "Ġiontaoibh": 8151,
      "laintiochta": 8152,
      "bain": 8153,
      "Ġbhr": 8154,
      "Ġ266": 8155,
      "Ġgceannas": 8156,
      "nini": 8157,
      "Ġforchoimead": 8158,
      "Ġvy": 8159,
      "Ġkvk": 8160,
      "Ġ254": 8161,
      "Ġcomhphairtiochtai": 8162,
      "Ġrianuil": 8163,
      "Ġreamhch": 8164,
      "Ġmay": 8165,
      "ĠÎ´": 8166,
      "nes": 8167,
      "Ġhibri": 8168,
      "Ġteachtaireachtai": 8169,
      "Ġlanaimseartha": 8170,
      "Ġhoifige": 8171,
      "nicus": 8172,
      "easu": 8173,
      "ĠÐ³": 8174,
      "Ġbainisteoir": 8175,
      "Ġbhreathn": 8176,
      "Ġdirec": 8177,
      "Ġeisitear": 8178,
      "Ġconcluid": 8179,
      "Ġeilliu": 8180,
      "mie": 8181,
      "eithead": 8182,
      "Ġkon": 8183,
      "Ġinfheic": 8184,
      "Ġnuachoiriu": 8185,
      "oisc": 8186,
      "infheisti": 8187,
      "ÏģÎ¿": 8188,
      "ture": 8189,
      "Ġbosca": 8190,
      "Ġcomhairleacha": 8191,
      "167": 8192,
      "Ġshealbhoir": 8193,
      "rise": 8194,
      "Ġboithre": 8195,
      "Ġleanfar": 8196,
      "ron": 8197,
      "owo": 8198,
      "sky": 8199,
      "Ġcoper": 8200,
      "oilseachan": 8201,
      "Ġnaisghairtear": 8202,
      "Ġtransactions": 8203,
      "Ġale": 8204,
      "Ġ224": 8205,
      "Ġmisean": 8206,
      "Ġbiotaill": 8207,
      "Ġsyste": 8208,
      "Ġcopernicus": 8209,
      "lor": 8210,
      "aoirs": 8211,
      "Ġbiotailleacha": 8212,
      "liuchan": 8213,
      "Ġhydr": 8214,
      "veis": 8215,
      "Ġ199": 8216,
      "Ġreamhth": 8217,
      "Ġchistiu": 8218,
      "Ġaigeid": 8219,
      "tailte": 8220,
      "Ġdiolachan": 8221,
      "Ġseachadadh": 8222,
      "ardail": 8223,
      "Ġreigiunai": 8224,
      "lein": 8225,
      "Ġardchaili": 8226,
      "Ġkra": 8227,
      "Ġeiseam": 8228,
      "Ġfreagrai": 8229,
      "chtin": 8230,
      "easmhacht": 8231,
      "Ġchumarsaid": 8232,
      "aime": 8233,
      "oile": 8234,
      "earbh": 8235,
      "Ġ692": 8236,
      "Ġsatailite": 8237,
      "cus": 8238,
      "Ġwng": 8239,
      "Ġungair": 8240,
      "Ġasbhaint": 8241,
      "cum": 8242,
      "ntha": 8243,
      "Ġtine": 8244,
      "tex": 8245,
      "Ġpublic": 8246,
      "sheol": 8247,
      "Ġdiagnoiseacha": 8248,
      "pu": 8249,
      "Ġidirlin": 8250,
      "Ġjus": 8251,
      "Ġthearmai": 8252,
      "Ġnv": 8253,
      "Ġstiurthoiri": 8254,
      "Ġtoirte": 8255,
      "Ġathchursail": 8256,
      "Ġciorclach": 8257,
      "bination": 8258,
      "gese": 8259,
      "dec": 8260,
      "Ġdtuairisc": 8261,
      "Ġeacnamaiche": 8262,
      "Ġderiva": 8263,
      "Ã¸": 8264,
      "Ġchuntais": 8265,
      "Ġcritear": 8266,
      "Ð°Ð»": 8267,
      "Ġpur": 8268,
      "Ġpaineal": 8269,
      "ish": 8270,
      "Ġiarchurtha": 8271,
      "Ġaimin": 8272,
      "Ġuineireachta": 8273,
      "Ġblock": 8274,
      "Ġitim": 8275,
      "Ġseachthairgi": 8276,
      "Ġfreagartha": 8277,
      "Ġclarsceideal": 8278,
      "Ġtomhaltais": 8279,
      "treimhse": 8280,
      "omy": 8281,
      "Ġbraite": 8282,
      "Ġdeich": 8283,
      "Ġlg": 8284,
      "adoir": 8285,
      "obair": 8286,
      "owa": 8287,
      "Ġchumhachtai": 8288,
      "Ġsamplailte": 8289,
      "Ġbagairti": 8290,
      "Ġsolubtha": 8291,
      "Ġeilveis": 8292,
      "thain": 8293,
      "Ġmalairte": 8294,
      "Ġarbh": 8295,
      "Ġmharc": 8296,
      "Ġneamhthuill": 8297,
      "Ġcma": 8298,
      "Ġdemh": 8299,
      "Ġthog": 8300,
      "Ġcomhfh": 8301,
      "Ġreferen": 8302,
      "Ġpipa": 8303,
      "Ġ253": 8304,
      "Ġdroga": 8305,
      "Ġhoibleagaide": 8306,
      "Ġghnothai": 8307,
      "Ġlichtin": 8308,
      "Ġcuimse": 8309,
      "luthu": 8310,
      "Ġcaomhnu": 8311,
      "Ġchosta": 8312,
      "Ġlichtinstein": 8313,
      "chrioch": 8314,
      "Ġcommission": 8315,
      "Ġbailiochtaithe": 8316,
      "Ġccc": 8317,
      "Ġlasc": 8318,
      "Ġhaith": 8319,
      "olai": 8320,
      "Ġcomhuaineach": 8321,
      "Ġmbeal": 8322,
      "Ġsloinn": 8323,
      "Ġ261": 8324,
      "Ġdtabharfaidh": 8325,
      "leacht": 8326,
      "aineil": 8327,
      "Ġaitigh": 8328,
      "Ġluain": 8329,
      "Ġaithniodh": 8330,
      "Ġpobal": 8331,
      "Ġfadtearmacha": 8332,
      "aco": 8333,
      "Ġlaidre": 8334,
      "dheontas": 8335,
      "ling": 8336,
      "Ġphaisineiri": 8337,
      "stru": 8338,
      "Ġcosteif": 8339,
      "ghniomhaiocht": 8340,
      "Ġoverga": 8341,
      "Ġhor": 8342,
      "Ġmill": 8343,
      "Ġdhiuscairt": 8344,
      "Ġmiasto": 8345,
      "sini": 8346,
      "Ġproifi": 8347,
      "Ġgnothachain": 8348,
      "Ġcomhleanunachas": 8349,
      "mhu": 8350,
      "Ġsla": 8351,
      "raif": 8352,
      "Ġcomhabhair": 8353,
      "Ġsaoraide": 8354,
      "Ġthacaionn": 8355,
      "Ġgearrthearm": 8356,
      "Ġwater": 8357,
      "002": 8358,
      "Ġfioncha": 8359,
      "Ġprainn": 8360,
      "Ġdethaobhacha": 8361,
      "Ġovergaand": 8362,
      "Ġbhainiste": 8363,
      "Ġdescri": 8364,
      "Ġ322": 8365,
      "Ġgcinntear": 8366,
      "shaothair": 8367,
      "fead": 8368,
      "Ġgniomhairi": 8369,
      "Ġtalmhaiocht": 8370,
      "pnie": 8371,
      "Ġluide": 8372,
      "Ġsceite": 8373,
      "Ġfhorais": 8374,
      "Ġ183": 8375,
      "Ġeolaiocht": 8376,
      "Ġgcinnfidh": 8377,
      "achtu": 8378,
      "Ġroc": 8379,
      "phri": 8380,
      "Ġ840": 8381,
      "Ġ0020": 8382,
      "ctor": 8383,
      "Ġ271": 8384,
      "Ġsealbhu": 8385,
      "Ġlaraithe": 8386,
      "oride": 8387,
      "Ġterulete": 8388,
      "Ġspeict": 8389,
      "Ġdebit": 8390,
      "Ġ612": 8391,
      "Ġsolathraionn": 8392,
      "Ġsocraiochta": 8393,
      "Ġ326": 8394,
      "Ġcommit": 8395,
      "ÑĢÐ¾": 8396,
      "Ġintinn": 8397,
      "ferred": 8398,
      "Ġits": 8399,
      "Ġcairt": 8400,
      "Ġoos": 8401,
      "Ġtacair": 8402,
      "Ġ264": 8403,
      "ramhail": 8404,
      "andam": 8405,
      "Ġbhealaruis": 8406,
      "Ġsruth": 8407,
      "Ġdheimhnithe": 8408,
      "Ġndluthchomhar": 8409,
      "it": 8410,
      "Ġtlu": 8411,
      "Ġsinsear": 8412,
      "Ġbilliun": 8413,
      "Ġ219": 8414,
      "Ġ221": 8415,
      "Ġformhor": 8416,
      "Ġnastepnie": 8417,
      "ella": 8418,
      "Ġhiarratai": 8419,
      "Ġseis": 8420,
      "Ġgcuntar": 8421,
      "Ġforghniomhu": 8422,
      "Ġwgs": 8423,
      "unann": 8424,
      "Ġchoiriuil": 8425,
      "Ġfhu": 8426,
      "Ġcontuir": 8427,
      "Ġ767": 8428,
      "Ġpun": 8429,
      "Ġlia": 8430,
      "liseadh": 8431,
      "fr": 8432,
      "stract": 8433,
      "mhioc": 8434,
      "Ġthuiscint": 8435,
      "Ġaerfort": 8436,
      "Ġcolum": 8437,
      "Ġsreang": 8438,
      "Ġreamheolaire": 8439,
      "Ġ414": 8440,
      "Ġndearbh": 8441,
      "Ġthogra": 8442,
      "cheathru": 8443,
      "Ġreac": 8444,
      "Ġdepar": 8445,
      "Ġva": 8446,
      "Ġionadaiocha": 8447,
      "Ġ018": 8448,
      "Ġcoincheap": 8449,
      "Ġthabharfaidh": 8450,
      "choirithe": 8451,
      "Ġneamhorg": 8452,
      "Ġ268": 8453,
      "Ġrannchuideoidh": 8454,
      "Ġ330": 8455,
      "Ġeipid": 8456,
      "aighn": 8457,
      "lang": 8458,
      "Ġacer": 8459,
      "Ġ1151": 8460,
      "Ġeachtrach": 8461,
      "tee": 8462,
      "Ġvotail": 8463,
      "Ġardleibheil": 8464,
      "Ġ305": 8465,
      "Ġthosaigh": 8466,
      "Ġpaipeir": 8467,
      "asse": 8468,
      "Ġthreisiu": 8469,
      "Ġiospar": 8470,
      "Ġidithe": 8471,
      "Ġhinfheistiochta": 8472,
      "Ġmho": 8473,
      "Ġsheasta": 8474,
      "Ġsioch": 8475,
      "Ġ213": 8476,
      "314": 8477,
      "Ġchasanna": 8478,
      "Ġceartais": 8479,
      "Ġmaistir": 8480,
      "Ġtop": 8481,
      "Ġbris": 8482,
      "Ġpru": 8483,
      "Ġ188": 8484,
      "Ġcuma": 8485,
      "Ġtromshaothair": 8486,
      "Ġlgh": 8487,
      "Ġger": 8488,
      "Ġ196": 8489,
      "able": 8490,
      "Ġfhadtearmach": 8491,
      "sch": 8492,
      "ministra": 8493,
      "Ġriarthoir": 8494,
      "urt": 8495,
      "nika": 8496,
      "Ġcomhroinnt": 8497,
      "Ġsocraitear": 8498,
      "Ġfioraithe": 8499,
      "Ġurrusuchain": 8500,
      "Ġisealcharboin": 8501,
      "hlaigh": 8502,
      "Ġchabh": 8503,
      "Ġsubstainteach": 8504,
      "Ġgairm": 8505,
      "Ġdailte": 8506,
      "Ġhuaire": 8507,
      "ainneail": 8508,
      "Ġwiel": 8509,
      "Ġuber": 8510,
      "Ġaiseanna": 8511,
      "Ġ252": 8512,
      "Ġhiomchui": 8513,
      "Ġionchuiseamh": 8514,
      "lip": 8515,
      "ama": 8516,
      "Ġnordlich": 8517,
      "Ġfhormh": 8518,
      "Ġcatal": 8519,
      "Ġthirim": 8520,
      "uan": 8521,
      "Ġbhfeidearthacht": 8522,
      "Ġast": 8523,
      "Ġstair": 8524,
      "Ġ243": 8525,
      "Ġmicheart": 8526,
      "ych": 8527,
      "Ġcuirteanna": 8528,
      "Ġinstant": 8529,
      "Ġcnonna": 8530,
      "Ġfisiceach": 8531,
      "Ġ480": 8532,
      "omair": 8533,
      "Ġdire": 8534,
      "Ġcloig": 8535,
      "Ġ217": 8536,
      "Ġruaim": 8537,
      "Ġfhionrai": 8538,
      "Ġpholaitiuil": 8539,
      "Ġeirigh": 8540,
      "cion": 8541,
      "Ġarach": 8542,
      "Ġcoinni": 8543,
      "Ġoiriunacht": 8544,
      "Ġrannphairtiochta": 8545,
      "Ġseolfaidh": 8546,
      "zyn": 8547,
      "Ġbitheolaiocha": 8548,
      "Ġfog": 8549,
      "liom": 8550,
      "Ġtheicneol": 8551,
      "Ġsire": 8552,
      "Ġimoib": 8553,
      "ĠÐ±": 8554,
      "raghais": 8555,
      "Ġtcn": 8556,
      "Ġbeacht": 8557,
      "Ġdimethyl": 8558,
      "Ġfiaine": 8559,
      "Ġ00010": 8560,
      "312": 8561,
      "Ġghlacann": 8562,
      "Ġmarket": 8563,
      "lj": 8564,
      "Ġfhomhire": 8565,
      "Ġtoirt": 8566,
      "Ġjo": 8567,
      "elle": 8568,
      "Ġfraince": 8569,
      "Ġbhac": 8570,
      "Ġ197": 8571,
      "Ġ00018": 8572,
      "rt": 8573,
      "rth": 8574,
      "Ġsheirbhis": 8575,
      "Ġsainitear": 8576,
      "Ġnglactar": 8577,
      "Ġxiv": 8578,
      "Ġiomarcach": 8579,
      "Ġreamhshoc": 8580,
      "Ġboird": 8581,
      "ranna": 8582,
      "Ġmax": 8583,
      "Ġculghairm": 8584,
      "ured": 8585,
      "Ġthograi": 8586,
      "raitheoiri": 8587,
      "Ġchatagoiri": 8588,
      "ation": 8589,
      "naionn": 8590,
      "Ġdtiocfadh": 8591,
      "Ġthairbhi": 8592,
      "Ġcombination": 8593,
      "lement": 8594,
      "Ġtairsi": 8595,
      "Ġ272": 8596,
      "Ġrathuil": 8597,
      "Ð´Ð¸": 8598,
      "Ġ730": 8599,
      "Ġ214": 8600,
      "Ġhaving": 8601,
      "Ġ1992": 8602,
      "Ġkoz": 8603,
      "Ġstruchturtha": 8604,
      "lls": 8605,
      "phraghas": 8606,
      "Ġpinsean": 8607,
      "Ġcothabhala": 8608,
      "Ġinformation": 8609,
      "Ġdochulacht": 8610,
      "Ġwestelijke": 8611,
      "kt": 8612,
      "Ġbhru": 8613,
      "Ġshaol": 8614,
      "Ġions": 8615,
      "Ġsaorchurs": 8616,
      "Ġzi": 8617,
      "Ġvitro": 8618,
      "singe": 8619,
      "Ġamhabhair": 8620,
      "Ġfhormaid": 8621,
      "Ġfuaime": 8622,
      "Ġchuimsitheach": 8623,
      "Ġtairiscinti": 8624,
      "reim": 8625,
      "reireach": 8626,
      "Ġvu": 8627,
      "Ġdlt": 8628,
      "Ġtrasd": 8629,
      "Ġcomhcheangailte": 8630,
      "Ġleirscaoileadh": 8631,
      "ushlan": 8632,
      "tory": 8633,
      "Ġbhfaighidh": 8634,
      "Ġgcomhphairteanna": 8635,
      "Ġtuaslag": 8636,
      "Ġhtm": 8637,
      "Ġ510": 8638,
      "scaoil": 8639,
      "landai": 8640,
      "ovaic": 8641,
      "Ġdteagmhail": 8642,
      "oive": 8643,
      "Ġngeilleagar": 8644,
      "come": 8645,
      "Ġtairgeacht": 8646,
      "Ġseolta": 8647,
      "oph": 8648,
      "araithe": 8649,
      "Ġfhas": 8650,
      "Ġtrasnaisiunta": 8651,
      "Ġeisitheoiri": 8652,
      "Ġbreithniu": 8653,
      "Ġalcoil": 8654,
      "Ġmoldoive": 8655,
      "ada": 8656,
      "Ġbhfeithicil": 8657,
      "Ġfionn": 8658,
      "Ġroad": 8659,
      "Ġleigheasanna": 8660,
      "Ġxxxx": 8661,
      "Ġtuinnini": 8662,
      "Ġheifeachtulacht": 8663,
      "Ġchrosbhealach": 8664,
      "Ġeipideime": 8665,
      "Ïĩ": 8666,
      "chothrom": 8667,
      "Ġbealar": 8668,
      "Ġidirghabhalaithe": 8669,
      "eatan": 8670,
      "Ġfac": 8671,
      "Ġstre": 8672,
      "Ġathrog": 8673,
      "istiochta": 8674,
      "olachta": 8675,
      "Ġconaidhme": 8676,
      "Ġtsli": 8677,
      "Ġforeigean": 8678,
      "Ġheisc": 8679,
      "Ġchruinniu": 8680,
      "Ġfleasc": 8681,
      "Ġbhfeisti": 8682,
      "Ġ233": 8683,
      "Ġeagsul": 8684,
      "thiomsu": 8685,
      "sca": 8686,
      "Ġoilean": 8687,
      "Ġfocail": 8688,
      "Ġdhoch": 8689,
      "eangach": 8690,
      "Ġhoili": 8691,
      "Ġchonarthacha": 8692,
      "Ġmbunachar": 8693,
      "Ġceantair": 8694,
      "Ġpacaiste": 8695,
      "Ġtson": 8696,
      "Ġshainmhiniu": 8697,
      "naigh": 8698,
      "Ġmiotal": 8699,
      "Ġcriticiula": 8700,
      "Ġ274": 8701,
      "Ġtslovaic": 8702,
      "ep": 8703,
      "Ġleathain": 8704,
      "Ġceathru": 8705,
      "Ġfhoinse": 8706,
      "Ġmearloirg": 8707,
      "Ġgcul": 8708,
      "Ġpraiticiuil": 8709,
      "Ġsuirbheanna": 8710,
      "Ġbunachair": 8711,
      "Ġleirmhiniu": 8712,
      "Ġmodul": 8713,
      "Ġchalaoise": 8714,
      "Ġfhaireachan": 8715,
      "Ġfaigh": 8716,
      "Ġmianad": 8717,
      "Ġ00013": 8718,
      "Ġcomhlachaithe": 8719,
      "Ġaaaa": 8720,
      "Ġdeontas": 8721,
      "ght": 8722,
      "Ġmheasfar": 8723,
      "Ġiarratasora": 8724,
      "ineachta": 8725,
      "Ġpis": 8726,
      "easach": 8727,
      "Ġardriosca": 8728,
      "Ġriomhtar": 8729,
      "Ġuineiri": 8730,
      "Ġchalafoirt": 8731,
      "Ġiomha": 8732,
      "ylene": 8733,
      "Ġsainchomhad": 8734,
      "Ġcothromaiocht": 8735,
      "Ġtascach": 8736,
      "Ġtharrain": 8737,
      "luachanna": 8738,
      "Ġathchomhair": 8739,
      "gc": 8740,
      "Ġcis": 8741,
      "Ġox": 8742,
      "945": 8743,
      "leathacha": 8744,
      "Ġhoiri": 8745,
      "Ġtaifeadadh": 8746,
      "Ġ354": 8747,
      "lines": 8748,
      "Ġfiona": 8749,
      "Ġinaistrithe": 8750,
      "ker": 8751,
      "chineal": 8752,
      "Ġforaois": 8753,
      "Ġpobail": 8754,
      "Ġputin": 8755,
      "hen": 8756,
      "get": 8757,
      "Ġdate": 8758,
      "Ġsolathroir": 8759,
      "Ġstaide": 8760,
      "Ġsloinneadh": 8761,
      "Ġgrad": 8762,
      "Ġsealbhaiochta": 8763,
      "Ġoostelijke": 8764,
      "Î´": 8765,
      "Ġ2033": 8766,
      "Ġdteanga": 8767,
      "Ġaerarthaigh": 8768,
      "Ġcoco": 8769,
      "naisc": 8770,
      "cd": 8771,
      "Ġ267": 8772,
      "Ġperi": 8773,
      "Ġhiodr": 8774,
      "pis": 8775,
      "mheachan": 8776,
      "Ġms": 8777,
      "Ġluaigh": 8778,
      "Ġ291": 8779,
      "Ġ237": 8780,
      "111": 8781,
      "Ġcasta": 8782,
      "luachala": 8783,
      "aimeadar": 8784,
      "Ġsolubthacht": 8785,
      "Ġeste": 8786,
      "tem": 8787,
      "Ġ512": 8788,
      "Ġmheachan": 8789,
      "reatai": 8790,
      "Ġleanunacha": 8791,
      "Ġrabhaidh": 8792,
      "Ġdheireanach": 8793,
      "Ġconsists": 8794,
      "seal": 8795,
      "sineacht": 8796,
      "Ġabb": 8797,
      "Ġteaghlach": 8798,
      "aib": 8799,
      "Ġgcala": 8800,
      "phlean": 8801,
      "Ġteili": 8802,
      "Ġneamhchosanta": 8803,
      "Ġglao": 8804,
      "Ġhoc": 8805,
      "Ġ724": 8806,
      "Ġchomhthaite": 8807,
      "Ġkal": 8808,
      "Ġlaimhseala": 8809,
      "Ġ263": 8810,
      "Ġcriochach": 8811,
      "ÅĤaw": 8812,
      "limistear": 8813,
      "Ġguaiseacha": 8814,
      "Ġgre": 8815,
      "Ġtea": 8816,
      "Ġreamhaisneis": 8817,
      "Ġcomhsho": 8818,
      "Ġmhonaroir": 8819,
      "Ġcoimirce": 8820,
      "Ġgal": 8821,
      "Ġmad": 8822,
      "Ġshoch": 8823,
      "Ġsiria": 8824,
      "del": 8825,
      "Ġgaireas": 8826,
      "Ð¸Ñı": 8827,
      "Ġlaethanta": 8828,
      "ham": 8829,
      "Ġcath": 8830,
      "Ġinrian": 8831,
      "Ġspleach": 8832,
      "Ġlitreacha": 8833,
      "Ġ273": 8834,
      "Ġ327": 8835,
      "Ġ687": 8836,
      "Ġcuimsiu": 8837,
      "Ġgairmiuil": 8838,
      "Ġchriosanna": 8839,
      "Ġperson": 8840,
      "Ġvacsaini": 8841,
      "eidhmeoidh": 8842,
      "Ġshuiteail": 8843,
      "Ġâĩ¦": 8844,
      "Ġfeini": 8845,
      "Ġ365": 8846,
      "Ġmurab": 8847,
      "Ġfolair": 8848,
      "Ġardionadai": 8849,
      "Ġuaillmhi": 8850,
      "Ġcenae": 8851,
      "Ġgcinnti": 8852,
      "Ġleithdhailti": 8853,
      "Ġmutatis": 8854,
      "Ġiontaofacht": 8855,
      "Ġ613": 8856,
      "tandis": 8857,
      "Ġobtained": 8858,
[...]
