{
  "version": "1.0",
  "truncation": null,
  "padding": null,
  "added_tokens": [
    {
      "id": 0,
      "content": "<pad>",
      "single_word": false,
      "lstrip": false,
      "rstrip": false,
      "normalized": false,
      "special": true
    },
    {
      "id": 1,
      "content": "<s>",
      "single_word": false,
      "lstrip": false,
      "rstrip": false,
      "normalized": false,
      "special": true
    },
    {
      "id": 2,
      "content": "</s>",
      "single_word": false,
      "lstrip": false,
      "rstrip": false,
      "normalized": false,
      "special": true
    },
    {
      "id": 3,
      "content": "<unk>",
      "single_word": false,
      "lstrip": false,
      "rstrip": false,
      "normalized": false,
      "special": true
    },
    {
      "id": 4,
      "content": "<mask>",
      "single_word": false,
      "lstrip": false,
      "rstrip": false,
      "normalized": false,
      "special": true
    }
  ],
  "normalizer": {
    "type": "Sequence",
    "normalizers": [
      {
        "type": "NFKD"
      },
      {
        "type": "BertNormalizer",
        "clean_text": true,
        "handle_chinese_chars": true,
        "strip_accents": null,
        "lowercase": true
      }
    ]
  },
  "pre_tokenizer": {
    "type": "Sequence",
    "pretokenizers": [
      {
        "type": "BertPreTokenizer"
      },
      {
        "type": "ByteLevel",
        "add_prefix_space": true,
        "trim_offsets": true,
        "use_regex": true
      }
    ]
  },
  "post_processor": {
    "type": "RobertaProcessing",
    "sep": [
      "</s>",
      2
    ],
    "cls": [
      "<s>",
      1
    ],
    "trim_offsets": true,
    "add_prefix_space": true
  },
  "decoder": {
    "type": "ByteLevel",
    "add_prefix_space": true,
    "trim_offsets": true,
    "use_regex": true
  },
  "model": {
    "type": "BPE",
    "dropout": null,
    "unk_token": "<unk>",
    "continuing_subword_prefix": null,
    "end_of_word_suffix": null,
    "fuse_unk": false,
    "vocab": {
      "<pad>": 0,
      "<s>": 1,
      "</s>": 2,
      "<unk>": 3,
      "<mask>": 4,
      "!": 5,
      "\"": 6,
      "#": 7,
      "$": 8,
      "%": 9,
      "&": 10,
      "'": 11,
      "(": 12,
      ")": 13,
      "*": 14,
      "+": 15,
      ",": 16,
      "-": 17,
      ".": 18,
      "/": 19,
      "0": 20,
      "1": 21,
      "2": 22,
      "3": 23,
      "4": 24,
      "5": 25,
      "6": 26,
      "7": 27,
      "8": 28,
      "9": 29,
      ":": 30,
      ";": 31,
      "<": 32,
      "=": 33,
      ">": 34,
      "?": 35,
      "@": 36,
      "[": 37,
      "\\": 38,
      "]": 39,
      "^": 40,
      "_": 41,
      "`": 42,
      "a": 43,
      "b": 44,
      "c": 45,
      "d": 46,
      "e": 47,
      "f": 48,
      "g": 49,
      "h": 50,
      "i": 51,
      "j": 52,
      "k": 53,
      "l": 54,
      "m": 55,
      "n": 56,
      "o": 57,
      "p": 58,
      "q": 59,
      "r": 60,
      "s": 61,
      "t": 62,
      "u": 63,
      "v": 64,
      "w": 65,
      "x": 66,
      "y": 67,
      "z": 68,
      "{": 69,
      "|": 70,
      "}": 71,
      "~": 72,
      "¡": 73,
      "¢": 74,
      "£": 75,
      "¤": 76,
      "¥": 77,
      "¦": 78,
      "§": 79,
      "¨": 80,
      "©": 81,
      "ª": 82,
      "«": 83,
      "¬": 84,
      "®": 85,
      "¯": 86,
      "°": 87,
      "±": 88,
      "²": 89,
      "³": 90,
      "´": 91,
      "µ": 92,
      "¶": 93,
      "·": 94,
      "¸": 95,
      "¹": 96,
      "º": 97,
      "»": 98,
      "¼": 99,
      "½": 100,
      "¾": 101,
      "¿": 102,
      "Â": 103,
      "Ã": 104,
      "Ä": 105,
      "Å": 106,
      "Æ": 107,
      "Ç": 108,
      "È": 109,
      "É": 110,
      "Ê": 111,
      "Ë": 112,
      "Î": 113,
      "Ï": 114,
      "Ð": 115,
      "Ñ": 116,
      "Ò": 117,
      "Ó": 118,
      "Õ": 119,
      "Ö": 120,
      "×": 121,
      "Ø": 122,
      "Ù": 123,
      "Ú": 124,
      "Û": 125,
      "ß": 126,
      "à": 127,
      "á": 128,
      "â": 129,
      "ã": 130,
      "ä": 131,
      "å": 132,
      "æ": 133,
      "ç": 134,
      "è": 135,
      "é": 136,
      "ê": 137,
      "ï": 138,
      "ð": 139,
      "Ġ": 140,
      "Ģ": 141,
      "ģ": 142,
      "Ĥ": 143,
      "ĥ": 144,
      "Ħ": 145,
      "ħ": 146,
      "Ĩ": 147,
      "ĩ": 148,
      "Ī": 149,
      "ī": 150,
      "Ĭ": 151,
      "ĭ": 152,
      "Į": 153,
      "į": 154,
      "İ": 155,
      "ı": 156,
      "Ĳ": 157,
      "ĳ": 158,
      "Ĵ": 159,
      "ĵ": 160,
      "Ķ": 161,
      "ķ": 162,
      "ĸ": 163,
      "Ĺ": 164,
      "ĺ": 165,
      "Ļ": 166,
      "ļ": 167,
      "Ľ": 168,
      "ľ": 169,
      "Ŀ": 170,
      "ŀ": 171,
      "Ł": 172,
      "ł": 173,
      "Ń": 174,
      "Ġp": 175,
      "ni": 176,
      "Ġs": 177,
      "ne": 178,
      "Ġ.": 179,
      "Ġv": 180,
      "Ġ,": 181,
      "Ġz": 182,
      "st": 183,
      "na": 184,
      "Ġpr": 185,
      "od": 186,
      "ov": 187,
      "Ġa": 188,
      "ou": 189,
      "ch": 190,
      "Ġd": 191,
      "je": 192,
      "Ġne": 193,
      "la": 194,
      "Ġo": 195,
      "Ġc": 196,
      "ra": 197,
      "Ġk": 198,
      "Ġu": 199,
      "le": 200,
      "te": 201,
      "re": 202,
      "ci": 203,
      "Ġ2": 204,
      "Ġna": 205,
      "Ġm": 206,
      "Ġza": 207,
      "Ġ1": 208,
      "Ġt": 209,
      "ce": 210,
      "zi": 211,
      "Ġse": 212,
      "ro": 213,
      "ze": 214,
      "ho": 215,
      "ny": 216,
      "ji": 217,
      "ri": 218,
      "Ġb": 219,
      "ky": 220,
      "de": 221,
      "Ġpo": 222,
      "Ġ)": 223,
      "ova": 224,
      "no": 225,
      "ve": 226,
      "Ġvy": 227,
      "me": 228,
      "ti": 229,
      "ta": 230,
      "Ġâ": 231,
      "Ġe": 232,
      "ĠâĢ": 233,
      "ku": 234,
      "mi": 235,
      "Ġpri": 236,
      "Ġpro": 237,
      "Ġje": 238,
      "li": 239,
      "to": 240,
      "Ġ(": 241,
      "Ġpod": 242,
      "va": 243,
      "ove": 244,
      "po": 245,
      "Ġze": 246,
      "ka": 247,
      "lo": 248,
      "sti": 249,
      "Ġ20": 250,
      "se": 251,
      "ouzi": 252,
      "ko": 253,
      "Ġod": 254,
      "Ġdo": 255,
      "Ġi": 256,
      "Ġ/": 257,
      "Ġnep": 258,
      "Ġve": 259,
      "zeni": 260,
      "ke": 261,
      "da": 262,
      "lu": 263,
      "Ġro": 264,
      "Ġ_": 265,
      "Ġ3": 266,
      "ouzije": 267,
      "tu": 268,
      "nu": 269,
      "Ġ0": 270,
      "Ġnepouzije": 271,
      "ru": 272,
      "Ġj": 273,
      "si": 274,
      "Ġpre": 275,
      "vi": 276,
      "Ġ-": 277,
      "bo": 278,
      "Ġko": 279,
      "Ġsta": 280,
      "sta": 281,
      "Ġby": 282,
      "Ġroz": 283,
      "Ġkte": 284,
      "Ġ|": 285,
      "Ġuve": 286,
      "Ġob": 287,
      "hod": 288,
      "Ġto": 289,
      "pa": 290,
      "Ġpra": 291,
      "Ġ5": 292,
      "ly": 293,
      "rizeni": 294,
      "Ġsou": 295,
      "Ġ4": 296,
      "du": 297,
      "mu": 298,
      "Ġ:": 299,
      "mo": 300,
      "pra": 301,
      "Ġf": 302,
      "Ġspo": 303,
      "Ġte": 304,
      "Ġmi": 305,
      "kla": 306,
      "sa": 307,
      "ĠâĢĵ": 308,
      "Ġnebo": 309,
      "jici": 310,
      "ty": 311,
      "di": 312,
      "ske": 313,
      "by": 314,
      "nych": 315,
      "nosti": 316,
      "vni": 317,
      "dni": 318,
      "is": 319,
      "vo": 320,
      "Ġra": 321,
      "Ġre": 322,
      "za": 323,
      "ry": 324,
      "Ġma": 325,
      "Ġ200": 326,
      "ha": 327,
      "pe": 328,
      "cni": 329,
      "neho": 330,
      "Ġpred": 331,
      "ste": 332,
      "Ġme": 333,
      "ma": 334,
      "dy": 335,
      "Ġji": 336,
      "ob": 337,
      "sky": 338,
      "hu": 339,
      "Ġ9": 340,
      "tni": 341,
      "stu": 342,
      "Ġ6": 343,
      "Ġ201": 344,
      "Ġja": 345,
      "Ġin": 346,
      "or": 347,
      "Ġpodni": 348,
      "Ġce": 349,
      "Ġ8": 350,
      "tre": 351,
      "Ġ7": 352,
      "ovi": 353,
      "vy": 354,
      "vod": 355,
      "Ġda": 356,
      "Ġeu": 357,
      "Ġcla": 358,
      "Ġta": 359,
      "pu": 360,
      "ovani": 361,
      "Ġci": 362,
      "Ġnarizeni": 363,
      "nost": 364,
      "Ġdne": 365,
      "00": 366,
      "zna": 367,
      "nove": 368,
      "rove": 369,
      "Ġspole": 370,
      "Ġrozhod": 371,
      "Ġktere": 372,
      "Ġodst": 373,
      "nou": 374,
      "Ġkomi": 375,
      "Ġuvede": 376,
      "lni": 377,
      "Ġdu": 378,
      "Ġri": 379,
      "Ġka": 380,
      "nuti": 381,
      "sou": 382,
      "Ġsme": 383,
      "Ġpodniky": 384,
      "Ġnez": 385,
      "fi": 386,
      "Ġh": 387,
      "rni": 388,
      "Ġr": 389,
      "lne": 390,
      "su": 391,
      "ga": 392,
      "ĠâĢŀ": 393,
      "Ġuverove": 394,
      "ĠâĢľ": 395,
      "oda": 396,
      "nan": 397,
      "ca": 398,
      "Ġpodle": 399,
      "Ġcl": 400,
      "ba": 401,
      "stup": 402,
      "Ġl": 403,
      "Ġbe": 404,
      "Ġbod": 405,
      "be": 406,
      "hle": 407,
      "len": 408,
      "Ġmo": 409,
      "Ġmu": 410,
      "Ġ10": 411,
      "Ġkomise": 412,
      "Ġde": 413,
      "Ġty": 414,
      "ng": 415,
      "ovy": 416,
      "Ġvz": 417,
      "vr": 418,
      "Ġjed": 419,
      "zu": 420,
      "Ġpa": 421,
      "ovo": 422,
      "Ġ;": 423,
      "sob": 424,
      "Ġrozhodnuti": 425,
      "rb": 426,
      "Ġ19": 427,
      "Ġrizi": 428,
      "Ġur": 429,
      "Ġmimo": 430,
      "rop": 431,
      "slu": 432,
      "lat": 433,
      "Ġkon": 434,
      "pi": 435,
      "zova": 436,
      "tra": 437,
      "stni": 438,
      "Ġev": 439,
      "men": 440,
      "Ġli": 441,
      "Ġ%": 442,
      "Ġclen": 443,
      "prav": 444,
      "Ġevrop": 445,
      "my": 446,
      "Ġbyt": 447,
      "Ġca": 448,
      "stvi": 449,
      "Ġvyro": 450,
      "nek": 451,
      "Ġzakla": 452,
      "Ġle": 453,
      "Ġrizeni": 454,
      "Ġuni": 455,
      "Ġzalo": 456,
      "cne": 457,
      "hani": 458,
      "Ġex": 459,
      "bu": 460,
      "Ġjako": 461,
      "Ġvi": 462,
      "Ġsel": 463,
      "kou": 464,
      "Ġselhani": 465,
      "nancni": 466,
      "Ġor": 467,
      "Ġtoho": 468,
      "nim": 469,
      "Ġriziko": 470,
      "Ġg": 471,
      "Ġal": 472,
      "cha": 473,
      "tro": 474,
      "Ġjine": 475,
      "Ġjeji": 476,
      "Ġtre": 477,
      "Ġfi": 478,
      "Ġsmerni": 479,
      "Ġvo": 480,
      "Ġproti": 481,
      "tne": 482,
      "Ġorga": 483,
      "Ġpoku": 484,
      "Ġktery": 485,
      "tel": 486,
      "Ġtak": 487,
      "Ġni": 488,
      "Ġclan": 489,
      "statni": 490,
      "Ġsi": 491,
      "Ġes": 492,
      "Ġ12": 493,
      "pade": 494,
      "Ġjsou": 495,
      "nce": 496,
      "Ġpouzi": 497,
      "neni": 498,
      "do": 499,
      "seni": 500,
      "sle": 501,
      "Ġ11": 502,
      "he": 503,
      "cke": 504,
      "cen": 505,
      "Ġpokud": 506,
      "Ġspolec": 507,
      "nym": 508,
      "Ġpravni": 509,
      "Ġsmernice": 510,
      "cu": 511,
      "uvod": 512,
      "pis": 513,
      "vky": 514,
      "Ġ]": 515,
      "lou": 516,
      "Ġ[": 517,
      "Ġclanek": 518,
      "cky": 519,
      "gi": 520,
      "Ġaby": 521,
      "ceni": 522,
      "nem": 523,
      "Ġbez": 524,
      "ĠâĢĶ": 525,
      "ran": 526,
      "treni": 527,
      "Ġdoda": 528,
      "stre": 529,
      "vu": 530,
      "Ġall": 531,
      "Ġevropske": 532,
      "Ġstan": 533,
      "Ġ00": 534,
      "dem": 535,
      "cia": 536,
      "Ġsa": 537,
      "Ġtr": 538,
      "hy": 539,
      "Ġeur": 540,
      "odu": 541,
      "ktu": 542,
      "Ġstra": 543,
      "Ġopa": 544,
      "Ġrozsu": 545,
      "Ġpristup": 546,
      "bi": 547,
      "lem": 548,
      "stra": 549,
      "Ġusta": 550,
      "Ġmezi": 551,
      "Ġnavr": 552,
      "for": 553,
      "on": 554,
      "Ġunie": 555,
      "Ġslu": 556,
      "Ġprislu": 557,
      "Ġobla": 558,
      "Ġvyrob": 559,
      "Ġ15": 560,
      "Ġdohod": 561,
      "dne": 562,
      "Ġclanku": 563,
      "dku": 564,
      "zni": 565,
      "Ġ13": 566,
      "noveni": 567,
      "hra": 568,
      "Ġnej": 569,
      "Ġsku": 570,
      "ska": 571,
      "10": 572,
      "Ġtech": 573,
      "Ġoch": 574,
      "Ġduvod": 575,
      "Ġsm": 576,
      "Ġzalob": 577,
      "Ġsu": 578,
      "Ġtohoto": 579,
      "Ġprislus": 580,
      "Ġopatreni": 581,
      "Ġstre": 582,
      "ovat": 583,
      "Ġposky": 584,
      "Ġvla": 585,
      "Ġprostre": 586,
      "Ġho": 587,
      "Ġbu": 588,
      "Ġstatu": 589,
      "mto": 590,
      "financni": 591,
      "Ġuce": 592,
      "Ġnefinancni": 593,
      "Ġtyka": 594,
      "Ġjejich": 595,
      "Ġ50": 596,
      "Ġktera": 597,
      "Ġmusi": 598,
      "Ġinfor": 599,
      "ovych": 600,
      "mena": 601,
      "Ġjedna": 602,
      "Ġspe": 603,
      "ĠâĢĲ": 604,
      "ja": 605,
      "leni": 606,
      "Ġpoza": 607,
      "ovin": 608,
      "Ġpripade": 609,
      "rej": 610,
      "teri": 611,
      "Ġco": 612,
      "Ġup": 613,
      "skych": 614,
      "so": 615,
      "Ġsoudni": 616,
      "odni": 617,
      "Ġ14": 618,
      "ovni": 619,
      "Ġustanoveni": 620,
      "Ġspolecen": 621,
      "sahu": 622,
      "hla": 623,
      "loze": 624,
      "Ġhod": 625,
      "Ġdru": 626,
      "Ġch": 627,
      "Ġmil": 628,
      "Ġohle": 629,
      "Ġirb": 630,
      "klada": 631,
      "il": 632,
      "kro": 633,
      "Ġspolecenstvi": 634,
      "Ġsve": 635,
      "Ġram": 636,
      "pozi": 637,
      "Ġ16": 638,
      "Ġteto": 639,
      "Ġstredni": 640,
      "sto": 641,
      "Ġstanove": 642,
      "Ġpla": 643,
      "Ġposkyt": 644,
      "Ġvse": 645,
      "Ġrady": 646,
      "Ġsoula": 647,
      "Ġmale": 648,
      "Ġtri": 649,
      "Ġvni": 650,
      "tvi": 651,
      "Ġclenske": 652,
      "Ġzaji": 653,
      "dek": 654,
      "Ġsy": 655,
      "Ġ17": 656,
      "Ġosob": 657,
      "Ġprova": 658,
      "Ġjeho": 659,
      "Ġpodmi": 660,
      "dna": 661,
      "Ġinforma": 662,
      "Ġvolne": 663,
      "Ġsouladu": 664,
      "zne": 665,
      "sp": 666,
      "Ġpis": 667,
      "Ġpovin": 668,
      "Ġprotistra": 669,
      "Ġzna": 670,
      "ting": 671,
      "20": 672,
      "fe": 673,
      "Ġprotistrany": 674,
      "Ġstanovi": 675,
      "Ġostatni": 676,
      "Ġba": 677,
      "Ġ=": 678,
      "Ġhodno": 679,
      "vani": 680,
      "jicich": 681,
      "ge": 682,
      "Ġti": 683,
      "Ġpou": 684,
      "lizova": 685,
      "Ġzaklade": 686,
      "Ġdodavky": 687,
      "Ġuda": 688,
      "zku": 689,
      "Ã¸": 690,
      "Ġpodpo": 691,
      "Ġ18": 692,
      "Ġpe": 693,
      "Ġcer": 694,
      "dla": 695,
      "Ġn": 696,
      "Ġrating": 697,
      "Ġplat": 698,
      "Ġvyp": 699,
      "Ġprovade": 700,
      "Ġ30": 701,
      "Ġozna": 702,
      "Ġota": 703,
      "ovane": 704,
      "Ġcin": 705,
      "Ġ199": 706,
      "Ġdovo": 707,
      "Ġ25": 708,
      "nymi": 709,
      "del": 710,
      "cich": 711,
      "kem": 712,
      "Ġexpozi": 713,
      "koli": 714,
      "Ġpravo": 715,
      "Ġpism": 716,
      "Ġodp": 717,
      "tec": 718,
      "Ġ29": 719,
      "Ġdi": 720,
      "Ġjedno": 721,
      "lov": 722,
      "Ġsoud": 723,
      "spe": 724,
      "Ġspecia": 725,
      "dou": 726,
      "Ġ21": 727,
      "Ġbylo": 728,
      "pusob": 729,
      "Ġspolecnosti": 730,
      "pravni": 731,
      "Ġzakladni": 732,
      "Ġvyse": 733,
      "Ġvsech": 734,
      "Ġbyla": 735,
      "Ġsyste": 736,
      "Ġmoh": 737,
      "bli": 738,
      "Ġuci": 739,
      "Ġzako": 740,
      "Ġva": 741,
      "ju": 742,
      "Ġexpozice": 743,
      "Ġdot": 744,
      "Ġramci": 745,
      "nky": 746,
      "Ġ<": 747,
      "kove": 748,
      "Ġspecializova": 749,
      "Ġsmlou": 750,
      "Ġprodu": 751,
      "Ġprvni": 752,
      "Ġsub": 753,
      "Ġuvedene": 754,
      "Ġak": 755,
      "Ġtreba": 756,
      "Ġmuze": 757,
      "Ġnavrh": 758,
      "Ġ26": 759,
      "Ġpar": 760,
      "Ġnakla": 761,
      "Ġke": 762,
      "Ġuca": 763,
      "zky": 764,
      "Ġobd": 765,
      "Ġvnitro": 766,
      "jem": 767,
      "Ġvest": 768,
      "Ġpoda": 769,
      "Ġus": 770,
      "odar": 771,
      "Ġzado": 772,
      "Ġverej": 773,
      "myslu": 774,
      "Ġzame": 775,
      "Ġzava": 776,
      "Ġai": 777,
      "Ġdotce": 778,
      "Ġ23": 779,
      "Ġvzta": 780,
      "Ġct": 781,
      "zy": 782,
      "Ġsch": 783,
      "Ġ31": 784,
      "Ġzasa": 785,
      "Ġprava": 786,
      "Ġvnitrostatni": 787,
      "Ġpozada": 788,
      "teria": 789,
      "Ġtu": 790,
      "tele": 791,
      "Ġpru": 792,
      "Ġii": 793,
      "Ġpuvod": 794,
      "kroci": 795,
      "Ġproto": 796,
      "Ġzda": 797,
      "den": 798,
      "Ġtoto": 799,
      "Ġvyda": 800,
      "Ġsp": 801,
      "Ġpouze": 802,
      "Ġrov": 803,
      "Ġoblasti": 804,
      "sko": 805,
      "Ġveci": 806,
      "Ġoduvod": 807,
      "Ġzpusob": 808,
      "Ġtomto": 809,
      "nuje": 810,
      "Ġobe": 811,
      "Ġtechto": 812,
      "Ġhosp": 813,
      "Ġneni": 814,
      "Ġdal": 815,
      "Ġ22": 816,
      "Ġduvodu": 817,
      "stav": 818,
      "Ġw": 819,
      "Ġfinancni": 820,
      "Ġ24": 821,
      "Ġjak": 822,
      "mit": 823,
      "Ġpredpis": 824,
      "Ġprilo": 825,
      "Ġsmyslu": 826,
      "nich": 827,
      "Ġobch": 828,
      "Ġochra": 829,
      "tivni": 830,
      "Ġzeme": 831,
      "Ġhospodar": 832,
      "Ġtomu": 833,
      "steni": 834,
      "Ġpravi": 835,
      "Ġten": 836,
      "Ġdohody": 837,
      "Ġpokroci": 838,
      "Ġzej": 839,
      "Ġzejmena": 840,
      "tem": 841,
      "Ġrozsudek": 842,
      "Ġpokrocily": 843,
      "Ġairb": 844,
      "sak": 845,
      "Ġcast": 846,
      "Ġno": 847,
      "ckych": 848,
      "Ġ28": 849,
      "Ġviz": 850,
      "nk": 851,
      "Ġ90": 852,
      "rou": 853,
      "Ġzd": 854,
      "Ġaz": 855,
      "Ġsluz": 856,
      "ode": 857,
      "Ġzave": 858,
      "Ġkdy": 859,
      "Ġdalsi": 860,
      "dky": 861,
      "Ġpova": 862,
      "niho": 863,
      "Ġvyko": 864,
      "gu": 865,
      "Ġuva": 866,
      "Ġtato": 867,
      "Ġsubje": 868,
      "Ġspecializovane": 869,
      "lyva": 870,
      "Ġnahra": 871,
      "reni": 872,
      "Ġstaty": 873,
      "Ġ27": 874,
      "Ġobdob": 875,
      "Ġprac": 876,
      "gra": 877,
      "stupu": 878,
      "Ġx": 879,
      "Ġzalobky": 880,
      "Ġcor": 881,
      "Ġkaz": 882,
      "znam": 883,
      "zeb": 884,
      "Ġtento": 885,
      "Ġtyto": 886,
      "rne": 887,
      "Ġdale": 888,
      "zuje": 889,
      "mentu": 890,
      "Ġproje": 891,
      "publi": 892,
      "chaze": 893,
      "Ġvyplyva": 894,
      "Ġspoje": 895,
      "Ġrepubli": 896,
      "losti": 897,
      "zo": 898,
      "Ġtykajici": 899,
      "mene": 900,
      "Ġome": 901,
      "Ġsoudu": 902,
      "Ġucastni": 903,
      "Ġzpra": 904,
      "ruseni": 905,
      "Ġtreti": 906,
      "Ġposou": 907,
      "nout": 908,
      "Ġprove": 909,
      "Ġkapi": 910,
      "Ġso": 911,
      "Ġoprav": 912,
      "Ġru": 913,
      "Ġbyly": 914,
      "Ġjde": 915,
      "Ġju": 916,
      "Ġad": 917,
      "ĠÂ": 918,
      "Ġfor": 919,
      "Ġvztahu": 920,
      "Ġcorp": 921,
      "Ġani": 922,
      "Ġpodniku": 923,
      "ctvi": 924,
      "Ġzv": 925,
      "Ġla": 926,
      "Ġsouvi": 927,
      "jsi": 928,
      "nd": 929,
      "Ġnes": 930,
      "stave": 931,
      "Ġau": 932,
      "Ġpracovni": 933,
      "Ġkri": 934,
      "Ġbode": 935,
      "Ġkontro": 936,
      "Ġkra": 937,
      "Ġsmec": 938,
      "Ġry": 939,
      "Ġ2009": 940,
      "lozi": 941,
      "Ġbyl": 942,
      "rani": 943,
      "padu": 944,
      "hr": 945,
      "Ġnem": 946,
      "lek": 947,
      "rodni": 948,
      "Ġskutec": 949,
      "Ġjen": 950,
      "Ġzada": 951,
      "Ġ000": 952,
      "Ġkomisi": 953,
      "Ġpu": 954,
      "xi": 955,
      "Ġurci": 956,
      "Ġste": 957,
      "Ġpovo": 958,
      "ciho": 959,
      "Ġclensky": 960,
      "Ġos": 961,
      "Ġevropskeho": 962,
      "Ġfa": 963,
      "chy": 964,
      "ren": 965,
      "Ġsluzeb": 966,
      "Ġnapade": 967,
      "Ġobdobi": 968,
      "iska": 969,
      "Ġ2013": 970,
      "kte": 971,
      "Ġzamest": 972,
      "prave": 973,
      "Ġohledem": 974,
      "covani": 975,
      "Ġparla": 976,
      "pr": 977,
      "Ġochran": 978,
      "Ġodpove": 979,
      "ovana": 980,
      "skeho": 981,
      "Ġ2006": 982,
      "Ġprovo": 983,
      "Ġfu": 984,
      "Ġtribu": 985,
      "Ġvce": 986,
      "sne": 987,
      "Ġprija": 988,
      "kaza": 989,
      "21": 990,
      "Ġucin": 991,
      "Ġtribuna": 992,
      "Ġuplat": 993,
      "Ġdvo": 994,
      "nez": 995,
      "Ġzalobkyne": 996,
      "tri": 997,
      "Ġhla": 998,
      "Ġnasle": 999,
      "Ġvcetne": 1000,
      "ona": 1001,
      "zem": 1002,
      "Ġeh": 1003,
      "Ġinformace": 1004,
      "Ġcasti": 1005,
      "Ġspolu": 1006,
      "Ġcel": 1007,
      "vet": 1008,
      "Ġzi": 1009,
      "Ġcinnosti": 1010,
      "Ġmohou": 1011,
      "Ġ40": 1012,
      "Ġar": 1013,
      "Ġoduvodneni": 1014,
      "kty": 1015,
      "40": 1016,
      "klad": 1017,
      "zovani": 1018,
      "uzi": 1019,
      "hem": 1020,
      "Ġure": 1021,
      "Ġjednani": 1022,
      "Ġzvla": 1023,
      "Ġtedy": 1024,
      "Ġcis": 1025,
      "Ġjednot": 1026,
      "Ġoblast": 1027,
      "moci": 1028,
      "Ġtvr": 1029,
      "Ġvel": 1030,
      "Ġvyvo": 1031,
      "stitu": 1032,
      "Ġstatni": 1033,
      "30": 1034,
      "stat": 1035,
      "Ġorganu": 1036,
      "Ġmaji": 1037,
      "tecne": 1038,
      "in": 1039,
      "Ġvlastni": 1040,
      "kre": 1041,
      "rov": 1042,
      "Ġrovnez": 1043,
      "Ġinte": 1044,
      "Ġclenskych": 1045,
      "cem": 1046,
      "Ġmateria": 1047,
      "oveho": 1048,
      "jmu": 1049,
      "Ġsluzby": 1050,
      "Ġsl": 1051,
      "en": 1052,
      "Ġtrhu": 1053,
      "Ġkro": 1054,
      "Ġkterym": 1055,
      "Ġ2004": 1056,
      "Ġrozsudku": 1057,
      "Ġposouzeni": 1058,
      "pravy": 1059,
      "Ġorgani": 1060,
      "Ġuredni": 1061,
      "vou": 1062,
      "Ġha": 1063,
      "Ġsmlouvy": 1064,
      "Ġ2014": 1065,
      "zene": 1066,
      "vali": 1067,
      "Ġspa": 1068,
      "ovany": 1069,
      "Ġ010": 1070,
      "Ġvys": 1071,
      "Ġneby": 1072,
      "em": 1073,
      "Ġ2008": 1074,
      "Ġ2011": 1075,
      "vat": 1076,
      "sah": 1077,
      "kol": 1078,
      "fika": 1079,
      "Ġpouziti": 1080,
      "vajici": 1081,
      "Ġznam": 1082,
      "Ġge": 1083,
      "Ġinstitu": 1084,
      "Ġzaka": 1085,
      "ĠÂ§": 1086,
      "Ġuvedenych": 1087,
      "Ġorgany": 1088,
      "Ġprav": 1089,
      "sem": 1090,
      "Ġzbo": 1091,
      "Ġstate": 1092,
      "Ġvice": 1093,
      "hledem": 1094,
      "skou": 1095,
      "meni": 1096,
      "Ġstrany": 1097,
      "50": 1098,
      "deni": 1099,
      "Ġzbozi": 1100,
      "Ġucelem": 1101,
      "rem": 1102,
      "Ġsystemu": 1103,
      "ody": 1104,
      "nci": 1105,
      "ment": 1106,
      "Ġbude": 1107,
      "tek": 1108,
      "Ġregi": 1109,
      "Ġjakoz": 1110,
      "Ġprosi": 1111,
      "mot": 1112,
      "Ġzarizeni": 1113,
      "Ġpovinnosti": 1114,
      "Ġuvedeneho": 1115,
      "Ġ39": 1116,
      "Ġprogra": 1117,
      "Ġobsahu": 1118,
      "cka": 1119,
      "Ġpodminky": 1120,
      "Ġale": 1121,
      "Ġvzhledem": 1122,
      "Ġnekte": 1123,
      "Ġpripa": 1124,
      "Ġnezby": 1125,
      "Ġ+": 1126,
      "pec": 1127,
      "Ġdoku": 1128,
      "Ġrezi": 1129,
      "Ġstej": 1130,
      "Ġ>": 1131,
      "Ġku": 1132,
      "Ġotaz": 1133,
      "Ġ2012": 1134,
      "Ġsmlu": 1135,
      "Ġparlamentu": 1136,
      "votni": 1137,
      "Ġpredbe": 1138,
      "Ġmoz": 1139,
      "Ġ2003": 1140,
      "Ġneu": 1141,
      "Ġvyrobku": 1142,
      "Ġ100": 1143,
      "Ġsk": 1144,
      "Ġstu": 1145,
      "11": 1146,
      "Ġzvlastni": 1147,
      "Ġjiz": 1148,
      "er": 1149,
      "Ġneza": 1150,
      "Ġniz": 1151,
      "Ġprosince": 1152,
      "stro": 1153,
      "Ġ0106": 1154,
      "Ġpi": 1155,
      "Ġnavrhu": 1156,
      "stou": 1157,
      "Ġnepri": 1158,
      "Ġrozpo": 1159,
      "Ġcelni": 1160,
      "tail": 1161,
      "co": 1162,
      "Ġnu": 1163,
      "Ġspolupra": 1164,
      "Ġprojedna": 1165,
      "Ġpoli": 1166,
      "Ġ2007": 1167,
      "tim": 1168,
      "Ġspolecnost": 1169,
      "cniho": 1170,
      "Ġexi": 1171,
      "Ġ38": 1172,
      "Ġzadost": 1173,
      "Ġodve": 1174,
      "Ġpredme": 1175,
      "dika": 1176,
      "Ġretail": 1177,
      "Ġvsak": 1178,
      "odi": 1179,
      "kova": 1180,
      "lene": 1181,
      "Ġinve": 1182,
      "Ġzneni": 1183,
      "Ġnepre": 1184,
      "nova": 1185,
      "vur": 1186,
      "Ġ32": 1187,
      "tion": 1188,
      "Ġelek": 1189,
      "Ġsouca": 1190,
      "vola": 1191,
      "telne": 1192,
      "Ġneme": 1193,
      "tych": 1194,
      "Ġvybo": 1195,
      "vych": 1196,
      "Ġmini": 1197,
      "86": 1198,
      "Ġspravni": 1199,
      "lneni": 1200,
      "soby": 1201,
      "Ġcr": 1202,
      "Ġroku": 1203,
      "Ġpredklada": 1204,
      "Ġpop": 1205,
      "kladu": 1206,
      "pravu": 1207,
      "Ġ33": 1208,
      "Ġpripo": 1209,
      "Ġdop": 1210,
      "zemi": 1211,
      "Ġ34": 1212,
      "Ġspotre": 1213,
      "cet": 1214,
      "Ġobchodni": 1215,
      "qu": 1216,
      "Ġ37": 1217,
      "Ġvozi": 1218,
      "Ġuvedeny": 1219,
      "tua": 1220,
      "Ġumo": 1221,
      "Ġ2015": 1222,
      "Ġucely": 1223,
      "Ġcen": 1224,
      "Ġ36": 1225,
      "Ġpoji": 1226,
      "Ġodstav": 1227,
      "Ġzemi": 1228,
      "Ġdis": 1229,
      "Ġ2016": 1230,
      "Ġodvetvi": 1231,
      "Ġkvali": 1232,
      "Ġjudika": 1233,
      "Ġrada": 1234,
      "Ġ35": 1235,
      "Ġjudikatu": 1236,
      "cnich": 1237,
      "Ġorganiza": 1238,
      "Ġjez": 1239,
      "Ġof": 1240,
      "Ġuzi": 1241,
      "telu": 1242,
      "Ġnakladu": 1243,
      "90": 1244,
      "Ġziska": 1245,
      "Ġkrome": 1246,
      "Ġtakove": 1247,
      "Ġbezpec": 1248,
      "Ġfirb": 1249,
      "Ġvsechny": 1250,
      "Ġzadosti": 1251,
      "tal": 1252,
      "Ġtechni": 1253,
      "go": 1254,
      "vence": 1255,
      "Ġudaju": 1256,
      "Ġuzemi": 1257,
      "Ġdruhe": 1258,
      "slosti": 1259,
      "Ġdane": 1260,
      "Ġodvola": 1261,
      "Ġpredpisu": 1262,
      "Ġdvur": 1263,
      "ovida": 1264,
      "Ġtom": 1265,
      "Ġschva": 1266,
      "jicim": 1267,
      "Ġ01": 1268,
      "tr": 1269,
      "Ġretailova": 1270,
      "Ġvyuzi": 1271,
      "Ġlhu": 1272,
      "Ġ2001": 1273,
      "Ġzahr": 1274,
      "Ġkone": 1275,
      "ĠpÃ¸": 1276,
      "Ġclenskeho": 1277,
      "malni": 1278,
      "Ġzad": 1279,
      "cho": 1280,
      "Ġsitua": 1281,
      "Ġtim": 1282,
      "Ġ2010": 1283,
      "Ġprostredku": 1284,
      "Ġpriloze": 1285,
      "vna": 1286,
      "Ġzastup": 1287,
      "Ġinformaci": 1288,
      "ct": 1289,
      "Ġuza": 1290,
      "Ġ84": 1291,
      "Ġmezina": 1292,
      "Ġpriloha": 1293,
      "rovna": 1294,
      "ctu": 1295,
      "tor": 1296,
      "Ġosoba": 1297,
      "Ġbre": 1298,
      "Ġstanov": 1299,
      "Ġsena": 1300,
      "Ġzji": 1301,
      "Ġ2017": 1302,
      "zena": 1303,
      "vku": 1304,
      "Ġlze": 1305,
      "Ġprojednava": 1306,
      "Ġokol": 1307,
      "Ġnemu": 1308,
      "Ġsoudniho": 1309,
      "Ġode": 1310,
      "Ġpostup": 1311,
      "Ġosoby": 1312,
      "Ġprohla": 1313,
      "Ġ2005": 1314,
      "Ġdusle": 1315,
      "Ġ2002": 1316,
      "ovou": 1317,
      "skem": 1318,
      "Ġvyji": 1319,
      "Ġvzo": 1320,
      "tiz": 1321,
      "Ġohledu": 1322,
      "Ġzu": 1323,
      "logi": 1324,
      "lezi": 1325,
      "80": 1326,
      "Ġcc": 1327,
      "Ġmaterialu": 1328,
      "Ġpoz": 1329,
      "gen": 1330,
      "Ġzo": 1331,
      "zeny": 1332,
      "Ġehs": 1333,
      "Ġodpovida": 1334,
      "Ġsni": 1335,
      "Ġzdra": 1336,
      "Ġ85": 1337,
      "Ġbodu": 1338,
      "Ġvyrobky": 1339,
      "dil": 1340,
      "Ġzakona": 1341,
      "kt": 1342,
      "Ġcervna": 1343,
      "Ġvyja": 1344,
      "Ġproduktu": 1345,
      "Ġkterou": 1346,
      "Ġvysle": 1347,
      "Ġurce": 1348,
      "stavu": 1349,
      "Ġuko": 1350,
      "Ġtimto": 1351,
      "Ġpoliti": 1352,
      "Ġura": 1353,
      "Ġskupi": 1354,
      "sl": 1355,
      "ckeho": 1356,
      "Ġzajiste": 1357,
      "liko": 1358,
      "pri": 1359,
      "Ġpodod": 1360,
      "Ġpozadavky": 1361,
      "Ġmet": 1362,
      "stne": 1363,
      "pisu": 1364,
      "mer": 1365,
      "Ġcilem": 1366,
      "vne": 1367,
      "Ġnad": 1368,
      "Ġdovola": 1369,
      "ner": 1370,
      "Ġprode": 1371,
      "Ġjinych": 1372,
      "Ġst": 1373,
      "Ġzajisti": 1374,
      "jiciho": 1375,
      "Ġsmluvni": 1376,
      "Ġduka": 1377,
      "Ġpotre": 1378,
      "Ġstat": 1379,
      "Ġnich": 1380,
      "stli": 1381,
      "Ġmezinarodni": 1382,
      "Ġbody": 1383,
      "ovaci": 1384,
      "Ġporuseni": 1385,
      "rat": 1386,
      "Ġhmot": 1387,
      "Ġpodminek": 1388,
      "Ġzvy": 1389,
      "Ġpodob": 1390,
      "hled": 1391,
      "Ġ44": 1392,
      "Ġudaje": 1393,
      "sku": 1394,
      "Ġ99": 1395,
      "bni": 1396,
      "Ġvyjad": 1397,
      "Ġ41": 1398,
      "rek": 1399,
      "Ġkralov": 1400,
      "Ġkonkre": 1401,
      "Ġcervence": 1402,
      "Ġbudou": 1403,
      "Ġprezku": 1404,
      "rt": 1405,
      "jna": 1406,
      "Ġ2018": 1407,
      "nuji": 1408,
      "Ġthe": 1409,
      "Ġdan": 1410,
      "Ġpravidla": 1411,
      "Ġkapito": 1412,
      "Ġargu": 1413,
      "Ġpusob": 1414,
      "Ġnaklady": 1415,
      "cialni": 1416,
      "Ġhy": 1417,
      "Ġrozsahu": 1418,
      "Ġprij": 1419,
      "Ġfinan": 1420,
      "deleni": 1421,
      "Ġ60": 1422,
      "Ġ43": 1423,
      "000": 1424,
      "rzi": 1425,
      "zuji": 1426,
      "stru": 1427,
      "Ġlet": 1428,
      "mou": 1429,
      "Ġceny": 1430,
      "zen": 1431,
      "Ġ54": 1432,
      "Ġ42": 1433,
      "Ġuzav": 1434,
      "94": 1435,
      "Ġplatnost": 1436,
      "Ġzdro": 1437,
      "ctvim": 1438,
      "sla": 1439,
      "Ġnejsou": 1440,
      "Ġtran": 1441,
      "Ġpodporu": 1442,
      "Ġkralovstvi": 1443,
      "Ġpravomoci": 1444,
      "Ġposu": 1445,
      "hi": 1446,
      "vek": 1447,
      "nka": 1448,
      "Ġmela": 1449,
      "ter": 1450,
      "psa": 1451,
      "sni": 1452,
      "Ġpredpisy": 1453,
      "Ġzru": 1454,
      "kych": 1455,
      "Ġsouvislosti": 1456,
      "Ġnevy": 1457,
      "dnictvim": 1458,
      "Ġ45": 1459,
      "mlu": 1460,
      "Ġunii": 1461,
      "Ġvysi": 1462,
      "pro": 1463,
      "Ġnapadeneho": 1464,
      "Ġinstituce": 1465,
      "Ġodpoved": 1466,
      "Ġvypo": 1467,
      "Ġnaro": 1468,
      "Ġobec": 1469,
      "Ġrok": 1470,
      "tom": 1471,
      "70": 1472,
      "Ġprovadeni": 1473,
      "meny": 1474,
      "Ġsb": 1475,
      "Ġkom": 1476,
      "Ġorgan": 1477,
      "Ġnejvy": 1478,
      "cova": 1479,
      "Ġzemedel": 1480,
      "van": 1481,
      "Ġprostrednictvim": 1482,
      "Ġope": 1483,
      "Ġtvrdi": 1484,
      "Ġprilohy": 1485,
      "Ġstanovene": 1486,
      "Ġinvesti": 1487,
      "Ġbrezna": 1488,
      "vaji": 1489,
      "Ġnedo": 1490,
      "Ġsfe": 1491,
      "rene": 1492,
      "Ġpriprav": 1493,
      "Ġrybo": 1494,
      "Ġpredbezne": 1495,
      "Ġrijna": 1496,
      "Ġdvora": 1497,
      "bna": 1498,
      "Ġ46": 1499,
      "dova": 1500,
      "Ġan": 1501,
      "nera": 1502,
      "statne": 1503,
      "tou": 1504,
      "ved": 1505,
      "Ġnor": 1506,
      "Ġaktu": 1507,
      "Ġrybolov": 1508,
      "Ġpot": 1509,
      "kouma": 1510,
      "Ġpovoleni": 1511,
      "Ġlisto": 1512,
      "Ġpravnich": 1513,
      "Ġ52": 1514,
      "Ġsfeu": 1515,
      "Ġdefi": 1516,
      "Ġmno": 1517,
      "Ġprime": 1518,
      "Ġen": 1519,
      "ten": 1520,
      "Ġmit": 1521,
      "stri": 1522,
      "Ġkriteria": 1523,
      "pla": 1524,
      "ts": 1525,
      "Ġproce": 1526,
      "Ġochrany": 1527,
      "Ġnasledu": 1528,
      "Ġlistopadu": 1529,
      "Ġbehem": 1530,
      "Ġzari": 1531,
      "Ġbi": 1532,
      "Ġvyjim": 1533,
      "Ġzamestna": 1534,
      "Ġtribunal": 1535,
      "Ġzamit": 1536,
      "Ġ80": 1537,
      "Ġvec": 1538,
      "Ġove": 1539,
      "Ġjednotli": 1540,
      "Ġzakon": 1541,
      "Ġ*": 1542,
      "Ġpovinnost": 1543,
      "Ġnove": 1544,
      "Ġhodnota": 1545,
      "dlo": 1546,
      "Ġzamestnan": 1547,
      "Ġkvet": 1548,
      "Ġ49": 1549,
      "Ġzaha": 1550,
      "Ġ2000": 1551,
      "Ġnavrhova": 1552,
      "vodu": 1553,
      "Ġsubjektu": 1554,
      "Ġomezeni": 1555,
      "moc": 1556,
      "Ġnemovi": 1557,
      "kra": 1558,
      "prava": 1559,
      "Ġ0086": 1560,
      "Ġ48": 1561,
      "Ġkg": 1562,
      "Ġvyza": 1563,
      "raz": 1564,
      "cim": 1565,
      "Ġfran": 1566,
      "Ġdel": 1567,
      "Ġtake": 1568,
      "kti": 1569,
      "novani": 1570,
      "Ġ91": 1571,
      "verej": 1572,
      "ovym": 1573,
      "Ġpovazova": 1574,
      "Ġradu": 1575,
      "Ġ96": 1576,
      "Ġvyt": 1577,
      "Ġ55": 1578,
      "Ġprije": 1579,
      "lozeni": 1580,
      "Ġvestni": 1581,
      "Ġumlu": 1582,
      "Ġ56": 1583,
      "teho": 1584,
      "Ġcs": 1585,
      "Ġjazy": 1586,
      "nese": 1587,
      "Ġvu": 1588,
      "Ġprislusne": 1589,
      "22": 1590,
      "Ġsoute": 1591,
      "Ġokolnosti": 1592,
      "mati": 1593,
      "Ġstrana": 1594,
      "Ġbo": 1595,
      "Ġochranne": 1596,
      "hou": 1597,
      "Ġvzorek": 1598,
      "dle": 1599,
      "Ġuzna": 1600,
      "Ġunij": 1601,
      "Ġdopl": 1602,
      "Ġsle": 1603,
      "Ġskutecnosti": 1604,
      "Ġ51": 1605,
      "Ġjake": 1606,
      "Ġkvetna": 1607,
      "Ġadvo": 1608,
      "op": 1609,
      "Ġlat": 1610,
      "Ġledna": 1611,
      "Ġprispe": 1612,
      "Ġy": 1613,
      "Ġtrh": 1614,
      "ĠÃ¸": 1615,
      "rych": 1616,
      "Ġauto": 1617,
      "Ġodka": 1618,
      "Ġplavi": 1619,
      "Ġmesi": 1620,
      "Ġnabi": 1621,
      "Ġpredloze": 1622,
      "Ġ95": 1623,
      "Ġnastro": 1624,
      "Ġjeliko": 1625,
      "Ġkasa": 1626,
      "nik": 1627,
      "Ġnemovito": 1628,
      "Ġvykona": 1629,
      "Ġdubna": 1630,
      "seda": 1631,
      "rie": 1632,
      "Ġodbo": 1633,
      "Ġhospodarske": 1634,
      "Ġener": 1635,
      "Ġtotiz": 1636,
      "rit": 1637,
      "Ġpolo": 1638,
      "Ġ\"": 1639,
      "an": 1640,
      "Ġ47": 1641,
      "Ġadvoka": 1642,
      "Ġotazky": 1643,
      "Ġana": 1644,
      "Ġjelikoz": 1645,
      "Ġzne": 1646,
      "Ġ70": 1647,
      "Ġspolecne": 1648,
      "bez": 1649,
      "Ġdosta": 1650,
      "Ġiii": 1651,
      "odr": 1652,
      "Ġkdyz": 1653,
      "Ġpredpo": 1654,
      "Ġnezbytne": 1655,
      "Ġply": 1656,
      "teli": 1657,
      "dit": 1658,
      "cita": 1659,
      "Ġlo": 1660,
      "chazeni": 1661,
      "Ġsetreni": 1662,
      "Ġprohlaseni": 1663,
      "Ġprovede": 1664,
      "al": 1665,
      "Ġmel": 1666,
      "Ġfunk": 1667,
      "Ġdoty": 1668,
      "Ġsouvise": 1669,
      "Ġdobu": 1670,
      "Ġat": 1671,
      "Ġpotvr": 1672,
      "Ġzpusobi": 1673,
      "Ġdusledku": 1674,
      "tku": 1675,
      "staveni": 1676,
      "slo": 1677,
      "Ġsocialni": 1678,
      "stech": 1679,
      "Ġvyznam": 1680,
      "liza": 1681,
      "Ġzaru": 1682,
      "Ġcisla": 1683,
      "Ġzajisteni": 1684,
      "pad": 1685,
      "skym": 1686,
      "Ġzpusobem": 1687,
      "sk": 1688,
      "nika": 1689,
      "Ġuvedena": 1690,
      "menta": 1691,
      "Ġpuvodnim": 1692,
      "Ġsprav": 1693,
      "kam": 1694,
      "Ġzara": 1695,
      "zek": 1696,
      "lze": 1697,
      "Ġvhod": 1698,
      "Ġzruseni": 1699,
      "Ġ02": 1700,
      "Ġspeci": 1701,
      "res": 1702,
      "Ġprogramu": 1703,
      "Ġvyme": 1704,
      "Ġhlavni": 1705,
      "Ġcle": 1706,
      "Ġgenera": 1707,
      "Ġlu": 1708,
      "nene": 1709,
      "niku": 1710,
      "Ġpodpory": 1711,
      "Ġotazce": 1712,
      "Ġ53": 1713,
      "Ġhodnoty": 1714,
      "mysl": 1715,
      "Ġobje": 1716,
      "Ġsystem": 1717,
      "Ġ2019": 1718,
      "sit": 1719,
      "Ġcha": 1720,
      "obe": 1721,
      "Ġcu": 1722,
      "Ġnelze": 1723,
      "Ġ92": 1724,
      "Ġnemuze": 1725,
      "Ġpredstavu": 1726,
      "Ġjina": 1727,
      "hrani": 1728,
      "Ġvol": 1729,
      "chazi": 1730,
      "Ġ93": 1731,
      "rovani": 1732,
      "Ġuno": 1733,
      "Ġvelkych": 1734,
      "mina": 1735,
      "Ġurovni": 1736,
      "Ġvstupu": 1737,
      "Ġcom": 1738,
      "vem": 1739,
      "sc": 1740,
      "tego": 1741,
      "Ġzajmu": 1742,
      "Ġvyklada": 1743,
      "Ġpres": 1744,
      "Ġdosa": 1745,
      "lnich": 1746,
      "kto": 1747,
      "Ġpuvodu": 1748,
      "Ġ2020": 1749,
      "Ġobca": 1750,
      "Ġuvadi": 1751,
      "Ġprotipravni": 1752,
      "Ġlc": 1753,
      "Ġ57": 1754,
      "ar": 1755,
      "jeni": 1756,
      "Ġ59": 1757,
      "jima": 1758,
      "nel": 1759,
      "Ġclankem": 1760,
      "Ġvyhra": 1761,
      "nen": 1762,
      "ber": 1763,
      "Ġsubjekty": 1764,
      "Ġspotrebi": 1765,
      "Ġznamky": 1766,
      "sil": 1767,
      "Ġveske": 1768,
      "Ġpredlozi": 1769,
      "Ġobsa": 1770,
      "Ġrozvo": 1771,
      "Ġlete": 1772,
      "ckou": 1773,
      "Ġrepubliky": 1774,
      "Ġverejne": 1775,
      "Ġoce": 1776,
      "dele": 1777,
      "Ġ94": 1778,
      "Ġvztahuje": 1779,
      "Ġkatego": 1780,
      "Ġrepublika": 1781,
      "Ġsvo": 1782,
      "Ġnarizenim": 1783,
      "Ġ87": 1784,
      "Ġagen": 1785,
      "Ġav": 1786,
      "sim": 1787,
      "Ġvyrobe": 1788,
      "feren": 1789,
      "Ġkteri": 1790,
      "sy": 1791,
      "Ġoznameni": 1792,
      "Ġprijeti": 1793,
      "mocne": 1794,
      "Ġsamo": 1795,
      "Ġkazde": 1796,
      "Ġzasady": 1797,
      "Ġvede": 1798,
      "stoupe": 1799,
      "Ġpripadne": 1800,
      "Ġobecne": 1801,
      "Ġzadne": 1802,
      "Ġcit": 1803,
      "chod": 1804,
      "menty": 1805,
      "Ġeuro": 1806,
      "60": 1807,
      "Ġpostupu": 1808,
      "zit": 1809,
      "kovych": 1810,
      "Ġclenskem": 1811,
      "Ġkonstat": 1812,
      "Ġopera": 1813,
      "Ġochranu": 1814,
      "cy": 1815,
      "Ġdohoda": 1816,
      "Ġposkytnu": 1817,
      "Ġand": 1818,
      "Ġanaly": 1819,
      "neseni": 1820,
      "levan": 1821,
      "ĠÐ": 1822,
      "Ġ65": 1823,
      "Ġunora": 1824,
      "ph": 1825,
      "chazejici": 1826,
      "Ġpl": 1827,
      "Ġ73": 1828,
      "Ġnemo": 1829,
      "Ġprvniho": 1830,
      "Ġ1999": 1831,
      "Ġ98": 1832,
      "Ġroce": 1833,
      "Ġzivotni": 1834,
      "Ġprostredi": 1835,
      "prve": 1836,
      "mpi": 1837,
      "denti": 1838,
      "Ġtez": 1839,
      "Ġjejichz": 1840,
      "dl": 1841,
      "Ġdodr": 1842,
      "Ġprokaza": 1843,
      "rova": 1844,
      "cie": 1845,
      "dli": 1846,
      "Ġnesprav": 1847,
      "Ġfon": 1848,
      "15": 1849,
      "gie": 1850,
      "zenych": 1851,
      "Ġsko": 1852,
      "duje": 1853,
      "ver": 1854,
      "Ġzverej": 1855,
      "hli": 1856,
      "Ġurceni": 1857,
      "lace": 1858,
      "Ġvza": 1859,
      "Ġvykon": 1860,
      "Ġvyroba": 1861,
      "Ġ58": 1862,
      "rz": 1863,
      "Ġvnit": 1864,
      "cuje": 1865,
      "levantni": 1866,
      "Ġov": 1867,
      "Ġoznaceni": 1868,
      "Ġmozne": 1869,
      "lity": 1870,
      "Ġdani": 1871,
      "novat": 1872,
      "Ġduvody": 1873,
      "Ġvyboru": 1874,
      "Ġtex": 1875,
      "Ġfo": 1876,
      "dru": 1877,
      "pust": 1878,
      "Ġstrane": 1879,
      "Ġpoby": 1880,
      "Ġnema": 1881,
      "Ġpora": 1882,
      "Ġsmernici": 1883,
      "Ġuprave": 1884,
      "Ġmnoz": 1885,
      "Ġumoz": 1886,
      "Ġdvou": 1887,
      "Ġosved": 1888,
      "dar": 1889,
      "Ġrozhodl": 1890,
      "stavec": 1891,
      "ssi": 1892,
      "Ġprovadeci": 1893,
      "Ġsmer": 1894,
      "Ġelektro": 1895,
      "Ġkonkretni": 1896,
      "Ġdruhy": 1897,
      "Ġtuto": 1898,
      "12": 1899,
      "sel": 1900,
      "Ġdom": 1901,
      "Ġprotoko": 1902,
      "Ġmoznost": 1903,
      "99": 1904,
      "Ġdotcene": 1905,
      "Ġvnitrni": 1906,
      "lta": 1907,
      "eil": 1908,
      "Ġprizna": 1909,
      "Ġposkytova": 1910,
      "Ġ?": 1911,
      "Ġkonecne": 1912,
      "es": 1913,
      "Ġ63": 1914,
      "Ġdlu": 1915,
      "Ġorganizace": 1916,
      "zeno": 1917,
      "Ġ75": 1918,
      "rna": 1919,
      "stem": 1920,
      "Ġdph": 1921,
      "Ġobsah": 1922,
      "Ġpouziva": 1923,
      "Ġvyso": 1924,
      "Ġidenti": 1925,
      "Ġnemz": 1926,
      "koveho": 1927,
      "mping": 1928,
      "Ġlid": 1929,
      "Ġac": 1930,
      "Ġjme": 1931,
      "Ġdatu": 1932,
      "Ġavsak": 1933,
      "Ð°": 1934,
      "Ġtribunalu": 1935,
      "Ġkar": 1936,
      "Ġprumysl": 1937,
      "ven": 1938,
      "fo": 1939,
      "Ġzachazeni": 1940,
      "13": 1941,
      "Ġprostredky": 1942,
      "Ġzal": 1943,
      "Ġzach": 1944,
      "Ġmeni": 1945,
      "Ġmely": 1946,
      "Ġbezpecnost": 1947,
      "Ġzje": 1948,
      "Ġprodukty": 1949,
      "Ġnepresahu": 1950,
      "um": 1951,
      "Ġga": 1952,
      "Ġposle": 1953,
      "Ġkla": 1954,
      "Ġpredmetem": 1955,
      "Ġprijima": 1956,
      "Ġnichz": 1957,
      "Ġ88": 1958,
      "Ġrecu": 1959,
      "Ġpisem": 1960,
      "bre": 1961,
      "Ġaniz": 1962,
      "Ġpoznam": 1963,
      "Ġpotra": 1964,
      "Ġcon": 1965,
      "pre": 1966,
      "Ġhu": 1967,
      "Ġrecueil": 1968,
      "Ġusneseni": 1969,
      "lniho": 1970,
      "Ġhypo": 1971,
      "Ġ62": 1972,
      "Ġtele": 1973,
      "Ġstup": 1974,
      "Ġposkytovani": 1975,
      "Ġ07": 1976,
      "Ġregu": 1977,
      "Ġpotravi": 1978,
      "Ġkli": 1979,
      "hleda": 1980,
      "Ġakti": 1981,
      "koliv": 1982,
      "chyb": 1983,
      "Ġplneni": 1984,
      "Ġzalobni": 1985,
      "Ġlt": 1986,
      "Ġzohle": 1987,
      "el": 1988,
      "Ġprimo": 1989,
      "Ġtakto": 1990,
      "Ġsporu": 1991,
      "Ġskut": 1992,
      "Ġ64": 1993,
      "Ġjehoz": 1994,
      "Ġpusobnosti": 1995,
      "Ġagentu": 1996,
      "cko": 1997,
      "ster": 1998,
      "Ġ61": 1999,
      "Ġskutecnost": 2000,
      "Ġ97": 2001,
      "Ġhle": 2002,
      "Ġmnozstvi": 2003,
      "Ġporu": 2004,
      "Ġohledne": 2005,
      "Ġhmotnost": 2006,
      "Ġpravidel": 2007,
      "Ġhypote": 2008,
      "lis": 2009,
      "Ġpricem": 2010,
      "Ġpricemz": 2011,
      "Ġpritom": 2012,
      "Ġcile": 2013,
      "Ġsvy": 2014,
      "mise": 2015,
      "dela": 2016,
      "Ġzavi": 2017,
      "Ġnamit": 2018,
      "mec": 2019,
      "Ġfy": 2020,
      "Ġ71": 2021,
      "Ġ67": 2022,
      "Ġ05": 2023,
      "Ġsoucasti": 2024,
      "bezpe": 2025,
      "fikace": 2026,
      "liv": 2027,
      "Ġkonzu": 2028,
      "Ġjim": 2029,
      "Ġspojeni": 2030,
      "qui": 2031,
      "Ġrelevantni": 2032,
      "Ġ72": 2033,
      "Ġrezimu": 2034,
      "Ġzavazku": 2035,
      "Ġpododstav": 2036,
      "Ġud": 2037,
      "Ġmor": 2038,
      "Ġexiste": 2039,
      "stmi": 2040,
      "Ġtykajicich": 2041,
      "zkouma": 2042,
      "Ġhodnoceni": 2043,
      "znamu": 2044,
      "Ġcinnost": 2045,
      "Ġcislo": 2046,
      "Ġtra": 2047,
      "Ġktereho": 2048,
      "Ġdovoz": 2049,
      "Ġ89": 2050,
      "tsi": 2051,
      "Ġvylou": 2052,
      "Ġridi": 2053,
      "Ġpohy": 2054,
      "jedna": 2055,
      "Ġzdravotni": 2056,
      "Ġsenatu": 2057,
      "ciona": 2058,
      "Ġnezbyt": 2059,
      "Ġrea": 2060,
      "rane": 2061,
      "lit": 2062,
      "Ġfung": 2063,
      "hoz": 2064,
      "ovu": 2065,
      "Ġsvych": 2066,
      "Ġspanel": 2067,
      "pon": 2068,
      "Ġpodro": 2069,
      "Ġobchod": 2070,
      "Ġstejne": 2071,
      "Ġsvob": 2072,
      "Ġzmi": 2073,
      "it": 2074,
      "Ġindi": 2075,
      "cnim": 2076,
      "zovaci": 2077,
      "ĠpÃ¸i": 2078,
      "Ġnahradu": 2079,
      "Ġsrovna": 2080,
      "Ġ74": 2081,
      "Ġspojene": 2082,
      "eni": 2083,
      "Ġbru": 2084,
      "kce": 2085,
      "Ġprotokolu": 2086,
      "Ġky": 2087,
      "Ġpocet": 2088,
      "Ġvykonu": 2089,
      "Ġzvi": 2090,
      "rske": 2091,
      "Ġ'": 2092,
      "Ġstanovena": 2093,
      "Ġzalobce": 2094,
      "Ġnebot": 2095,
      "Ġnee": 2096,
      "93": 2097,
      "Ġ198": 2098,
      "fik": 2099,
      "chozi": 2100,
      "pod": 2101,
      "Ġzpo": 2102,
      "latni": 2103,
      "Ġstanovenych": 2104,
      "Ġspolupraci": 2105,
      "Ġrozhodnutim": 2106,
      "Ġclanky": 2107,
      "Ġab": 2108,
      "diska": 2109,
      "Ġstran": 2110,
      "Ġdoma": 2111,
      "pen": 2112,
      "Ġuziva": 2113,
      "Ġ83": 2114,
      "Ġ68": 2115,
      "Ġsveho": 2116,
      "roven": 2117,
      "Ġcoz": 2118,
      "Ġotazku": 2119,
      "Ġrizika": 2120,
      "stuje": 2121,
      "telem": 2122,
      "Ġmelo": 2123,
      "Ġprojednavane": 2124,
      "Ġjestli": 2125,
      "Ġ81": 2126,
      "Ġevropska": 2127,
      "chani": 2128,
      "Ġ66": 2129,
      "lie": 2130,
      "Ġzaloba": 2131,
      "Ġfyzi": 2132,
      "poru": 2133,
      "Ġprovozova": 2134,
      "Ġnic": 2135,
      "Ġpripadech": 2136,
      "Ġvozidla": 2137,
      "Ġseznam": 2138,
      "Ġspor": 2139,
      "Ġkapital": 2140,
      "Ġpomoci": 2141,
      "hro": 2142,
      "rmo": 2143,
      "Ġelektri": 2144,
      "Ġpredkladajici": 2145,
      "Ġusa": 2146,
      "Ġ08": 2147,
      "Ġosvedceni": 2148,
      "Ġzkou": 2149,
      "Ġcas": 2150,
      "Ġvuci": 2151,
      "Ġ0094": 2152,
      "Ġsituaci": 2153,
      "oval": 2154,
      "rena": 2155,
      "Ġnekterych": 2156,
      "tove": 2157,
      "Ġsituace": 2158,
      "mem": 2159,
      "Ġclenskymi": 2160,
      "zoru": 2161,
      "Ġprezkum": 2162,
      "Ġ09": 2163,
      "Ð¸": 2164,
      "Ġstanovis": 2165,
      "Ġodmit": 2166,
      "Ġsaz": 2167,
      "znych": 2168,
      "ĠÎ": 2169,
      "Ġrozsudky": 2170,
      "Ġhe": 2171,
      "Ġvzajem": 2172,
      "Ġodstavci": 2173,
      "Ġelektroni": 2174,
      "che": 2175,
      "Ġ78": 2176,
      "Ġulozi": 2177,
      "Ġuvest": 2178,
      "Ġ2021": 2179,
      "lezito": 2180,
      "Ġmaje": 2181,
      "Ġpozadavku": 2182,
      "Ġusku": 2183,
      "Ġehp": 2184,
      "Ġeko": 2185,
      "Ġzmeny": 2186,
      "Ġ76": 2187,
      "Ġnemovitostmi": 2188,
      "Ġjedi": 2189,
      "Ġ69": 2190,
      "Ġschvaleni": 2191,
      "Ġ03": 2192,
      "Ġprijmou": 2193,
      "Ġ77": 2194,
      "Ġpreda": 2195,
      "Ġzmocne": 2196,
      "Ġzapo": 2197,
      "Ġzmene": 2198,
      "druzeni": 2199,
      "fa": 2200,
      "nice": 2201,
      "Ġzuca": 2202,
      "Ġstatech": 2203,
      "Ġstru": 2204,
      "Ġpravniho": 2205,
      "Ġplatnosti": 2206,
      "Ġlisti": 2207,
      "kovy": 2208,
      "Ġcil": 2209,
      "Ġkazdy": 2210,
      "Ġzajistit": 2211,
      "Ġkontroly": 2212,
      "Ġvzor": 2213,
      "Ġreseni": 2214,
      "sen": 2215,
      "Ġ04": 2216,
      "nemu": 2217,
      "deji": 2218,
      "Ġspoluprace": 2219,
      "Ġcaste": 2220,
      "sty": 2221,
      "Ġnektere": 2222,
      "Ġnav": 2223,
      "Ġneexi": 2224,
      "Ġbezpecnosti": 2225,
      "Ġplne": 2226,
      "Ġprezkouma": 2227,
      "Ġpodana": 2228,
      "Ġdovozu": 2229,
      "Ġspada": 2230,
      "Ġnami": 2231,
      "Ġjestlize": 2232,
      "Ġpodleha": 2233,
      "Ġosvo": 2234,
      "spech": 2235,
      "Ġctvr": 2236,
      "Ġplati": 2237,
      "Ġ86": 2238,
      "Ġnutne": 2239,
      "Ġvedle": 2240,
      "Ġreferen": 2241,
      "Ġtudi": 2242,
      "Ġsoukro": 2243,
      "Ġhypoteky": 2244,
      "Ġstanoveni": 2245,
      "Ġneo": 2246,
      "Ġskutecne": 2247,
      "nomi": 2248,
      "Ġ79": 2249,
      "19": 2250,
      "Ġtypu": 2251,
      "Ġbel": 2252,
      "Ġumluvy": 2253,
      "brani": 2254,
      "Ġdanove": 2255,
      "Ġtvrzeni": 2256,
      "Ġkterych": 2257,
      "Ġpol": 2258,
      "Ġtretich": 2259,
      "Ġfungovani": 2260,
      "nejsi": 2261,
      "Ġfe": 2262,
      "Ġsnizeni": 2263,
      "Ġkriteri": 2264,
      "23": 2265,
      "Ġprace": 2266,
      "Ġhlediska": 2267,
      "ovne": 2268,
      "Ġprijem": 2269,
      "Ġrozu": 2270,
      "pusti": 2271,
      "Ġokam": 2272,
      "ck": 2273,
      "Ġdokumentu": 2274,
      "Ġmisto": 2275,
      "Ġokamzi": 2276,
      "Ġzaveru": 2277,
      "14": 2278,
      "Ġnasledujici": 2279,
      "Ġvestnik": 2280,
      "Ġche": 2281,
      "Ġuloze": 2282,
      "Ġramec": 2283,
      "Ġtudiz": 2284,
      "ĠpÃ¸e": 2285,
      "Ġsti": 2286,
      "Ġclenskym": 2287,
      "Ġzpracovani": 2288,
      "Ġprislusny": 2289,
      "Ġcastky": 2290,
      "cou": 2291,
      "Ġspl": 2292,
      "Ġstro": 2293,
      "Ġcp": 2294,
      "Ġprida": 2295,
      "Ġvetsi": 2296,
      "lych": 2297,
      "Ġnejmene": 2298,
      "pli": 2299,
      "Ġpoky": 2300,
      "Ġnev": 2301,
      "Ġnezavi": 2302,
      "Ġvyra": 2303,
      "Ġspecifi": 2304,
      "Ġprodej": 2305,
      "Ġvyhla": 2306,
      "Ġharmo": 2307,
      "Ġit": 2308,
      "smu": 2309,
      "áĥ": 2310,
      "Ġlatky": 2311,
      "Ġobra": 2312,
      "Ġucetni": 2313,
      "Ġzn": 2314,
      "Ġet": 2315,
      "ckym": 2316,
      "Ġvyjimkou": 2317,
      "Ġnepo": 2318,
      "Ġjejim": 2319,
      "zujici": 2320,
      "Ġpoplat": 2321,
      "Ġpredstavuje": 2322,
      "Ġmaxi": 2323,
      "Ġvzdela": 2324,
      "Ġzapla": 2325,
      "Ġumozni": 2326,
      "Ġpor": 2327,
      "Ġdva": 2328,
      "munika": 2329,
      "Ġvyhod": 2330,
      "nde": 2331,
      "lep": 2332,
      "Ġjudikatura": 2333,
      "Ġrozporu": 2334,
      "Ġkapa": 2335,
      "ĠâĢĺ": 2336,
      "Ġdatum": 2337,
      "Ġzdroju": 2338,
      "Ġfinancovani": 2339,
      "Ġnapri": 2340,
      "Ġnarodni": 2341,
      "Ġprovedeni": 2342,
      "Ġpostaveni": 2343,
      "Ġkde": 2344,
      "Ġpojisteni": 2345,
      "jmy": 2346,
      "Ġvytvo": 2347,
      "Ġnesp": 2348,
      "rze": 2349,
      "Ġbud": 2350,
      "kach": 2351,
      "zovat": 2352,
      "Ġdruhu": 2353,
      "stupe": 2354,
      "Ġpouzije": 2355,
      "rs": 2356,
      "zozem": 2357,
      "kci": 2358,
      "Ġpodi": 2359,
      "Ġurad": 2360,
      "Ġkonec": 2361,
      "Ġnut": 2362,
      "Ġmm": 2363,
      "Ġpostupy": 2364,
      "Ġjudikatury": 2365,
      "Ġfinancnich": 2366,
      "Ġdotyc": 2367,
      "nt": 2368,
      "Ġztra": 2369,
      "Ð¾": 2370,
      "Ġzaloby": 2371,
      "Ġjedne": 2372,
      "Ġpouzit": 2373,
      "Ġpouzitel": 2374,
      "Ġpapi": 2375,
      "Ġequi": 2376,
      "Ġnizozem": 2377,
      "Ġjazyk": 2378,
      "Ġprube": 2379,
      "Ġosvobo": 2380,
      "mini": 2381,
      "24": 2382,
      "py": 2383,
      "chu": 2384,
      "Ðµ": 2385,
      "Ġprod": 2386,
      "Ġodstavce": 2387,
      "neny": 2388,
      "Ġplate": 2389,
      "Ġkonzulta": 2390,
      "znich": 2391,
      "Ġdispozi": 2392,
      "ģĦ": 2393,
      "âģĦ": 2394,
      "Ġvra": 2395,
      "Ġpodminka": 2396,
      "Ġzajistenim": 2397,
      "Ġvyjadreni": 2398,
      "Ġprislusnych": 2399,
      "Ġvylu": 2400,
      "ktivni": 2401,
      "Ġrozsi": 2402,
      "Ġskupiny": 2403,
      "Ġuklada": 2404,
      "Ġpode": 2405,
      "Ġnavi": 2406,
      "Ġrad": 2407,
      "Ġnapriklad": 2408,
      "Ġpredchozi": 2409,
      "Ġuplatnovani": 2410,
      "Ġpripome": 2411,
      "Ġzucastne": 2412,
      "Ġsoudem": 2413,
      "nujici": 2414,
      "nena": 2415,
      "Ġuplatni": 2416,
      "Ġpartne": 2417,
      "Ġprvnim": 2418,
      "Ġjineho": 2419,
      "Ġminimalni": 2420,
      "Ġzakladniho": 2421,
      "Ġnaby": 2422,
      "ble": 2423,
      "Ġdobe": 2424,
      "Ġpristupu": 2425,
      "Ġiv": 2426,
      "Ġobsahujici": 2427,
      "poz": 2428,
      "Ġnale": 2429,
      "hove": 2430,
      "Ġkapitola": 2431,
      "Ġpote": 2432,
      "Ġvyssi": 2433,
      "Ġshod": 2434,
      "Ġpripad": 2435,
      "tyka": 2436,
      "Ġfr": 2437,
      "Ġmechani": 2438,
      "Ġtrans": 2439,
      "Ġ82": 2440,
      "Ġcy": 2441,
      "Ġzasada": 2442,
      "zev": 2443,
      "Ġdispozici": 2444,
      "Ġ06": 2445,
      "Ġstavu": 2446,
      "Ġuvedeno": 2447,
      "Ġupravu": 2448,
      "Ġregula": 2449,
      "Ġrostli": 2450,
      "Ġdoby": 2451,
      "Ġpravem": 2452,
      "Ġdodava": 2453,
      "Ġucastnici": 2454,
      "Ġvybor": 2455,
      "nit": 2456,
      "Ġsr": 2457,
      "Ġhrani": 2458,
      "Ġkr": 2459,
      "Ġfrancou": 2460,
      "cte": 2461,
      "onu": 2462,
      "Ġanti": 2463,
      "Ġfrancouz": 2464,
      "Ġole": 2465,
      "Ġprezkumu": 2466,
      "Ġrybolovu": 2467,
      "Ġnaz": 2468,
      "Ġ110": 2469,
      "Ġkategorie": 2470,
      "por": 2471,
      "Ġvyva": 2472,
      "Ġrozumi": 2473,
      "Ġzdravi": 2474,
      "Ġvyklad": 2475,
      "Ġmesicu": 2476,
      "Ġjinak": 2477,
      "Ġpravomoc": 2478,
      "Ġchemi": 2479,
      "Ġden": 2480,
      "Ġtomuto": 2481,
      "Ġzdu": 2482,
      "Ã¸e": 2483,
      "Î¹": 2484,
      "Ġzri": 2485,
      "Ġstanoviska": 2486,
      "met": 2487,
      "Ġequity": 2488,
      "Ġvedlejsi": 2489,
      "Ġodchy": 2490,
      "Ġzadava": 2491,
      "Ġharmoni": 2492,
      "Î±": 2493,
      "Ġodha": 2494,
      "Ġuprava": 2495,
      "nutim": 2496,
      "nceni": 2497,
      "Ġposkytu": 2498,
      "Ġtabu": 2499,
      "razovaci": 2500,
      "Ġzis": 2501,
      "Ġobchodu": 2502,
      "Ġnekoli": 2503,
      "Ġspecializovaneho": 2504,
      "Ġvyrobce": 2505,
      "Ġtemto": 2506,
      "Ġvyka": 2507,
      "man": 2508,
      "Ġon": 2509,
      "pise": 2510,
      "dnich": 2511,
      "les": 2512,
      "ovala": 2513,
      "Ġtexti": 2514,
      "25": 2515,
      "Ġprostredek": 2516,
      "bra": 2517,
      "Ġochranna": 2518,
      "Ġjednaci": 2519,
      "Ġdostatecne": 2520,
      "Ġrozvoj": 2521,
      "znamena": 2522,
      "Ġuverovani": 2523,
      "dkem": 2524,
      "16": 2525,
      "Ġsouhla": 2526,
      "nec": 2527,
      "Ġsoudnimu": 2528,
      "Ġevropsky": 2529,
      "Ġkvo": 2530,
      "stoupeni": 2531,
      "Ġrozrazovaci": 2532,
      "Ġtvo": 2533,
      "Î¿": 2534,
      "Ġdnem": 2535,
      "Ġslsc": 2536,
      "Ġbodech": 2537,
      "Ġnazoru": 2538,
      "Ġpodani": 2539,
      "nologi": 2540,
      "Ġdostup": 2541,
      "Ġobcan": 2542,
      "Ġkod": 2543,
      "Ġman": 2544,
      "Ġzivo": 2545,
      "Ġprogram": 2546,
      "ĠâĢĻ": 2547,
      "stoupi": 2548,
      "Ġvyzku": 2549,
      "rimina": 2550,
      "Ġdotcena": 2551,
      "Ġnebylo": 2552,
      "Ġvznik": 2553,
      "Ġprede": 2554,
      "cela": 2555,
      "Ġmohla": 2556,
      "Ġsank": 2557,
      "Ġevropskych": 2558,
      "Ġdve": 2559,
      "Ġstanovisko": 2560,
      "Ġnebyla": 2561,
      "dale": 2562,
      "Ġprijmout": 2563,
      "Ġjaky": 2564,
      "Ġag": 2565,
      "Ġpozad": 2566,
      "zer": 2567,
      "Ġstruktu": 2568,
      "Ġdoporu": 2569,
      "suje": 2570,
      "Ġsouvisejici": 2571,
      "Ġpolitiky": 2572,
      "kru": 2573,
      "Ġdvoru": 2574,
      "Ġim": 2575,
      "Ġkapita": 2576,
      "Ġverejneho": 2577,
      "Ġnavrhovatel": 2578,
      "Ġcentra": 2579,
      "Ġpodpor": 2580,
      "Ġznamka": 2581,
      "cit": 2582,
      "rive": 2583,
      "Ġzavodu": 2584,
      "Ġvnitrostatnich": 2585,
      "Ġcelkove": 2586,
      "Ġvypra": 2587,
      "Ġpove": 2588,
      "Ġsluzba": 2589,
      "Ġudaj": 2590,
      "Ġdata": 2591,
      "Ġfondu": 2592,
      "meru": 2593,
      "fikaci": 2594,
      "Ġzaver": 2595,
      "dia": 2596,
      "struktu": 2597,
      "Ġny": 2598,
      "Ġvlada": 2599,
      "wa": 2600,
      "Ġsvem": 2601,
      "Ġsmlouva": 2602,
      "sila": 2603,
      "Ġpopis": 2604,
      "17": 2605,
      "Ġnazev": 2606,
      "Ġdopad": 2607,
      "Ġzele": 2608,
      "Ġupravy": 2609,
      "Ġstanovit": 2610,
      "Ġ197": 2611,
      "ria": 2612,
      "Ġsenat": 2613,
      "Ġnemecko": 2614,
      "Ġslou": 2615,
      "Ġzohledni": 2616,
      "Ġstave": 2617,
      "Ġprihla": 2618,
      "Ġpodobne": 2619,
      "Ġopravneho": 2620,
      "Ġzastupce": 2621,
      "Ġcilu": 2622,
      "cti": 2623,
      "Ġtechnicke": 2624,
      "Ġtabul": 2625,
      "Ġodpovedi": 2626,
      "Ġmaximalni": 2627,
      "Ġucastniku": 2628,
      "Ġmili": 2629,
      "Ġsplne": 2630,
      "rsi": 2631,
      "Ġjmen": 2632,
      "Ġargumenty": 2633,
      "Ġhmotnostnich": 2634,
      "bne": 2635,
      "Ġnizsi": 2636,
      "Ġvyz": 2637,
      "cenim": 2638,
      "Ð½": 2639,
      "Ġpripravku": 2640,
      "Ġzavazky": 2641,
      "Ġveskere": 2642,
      "roz": 2643,
      "ticke": 2644,
      "18": 2645,
      "Ġposkytnuti": 2646,
      "Ġvykladu": 2647,
      "Ġsouteze": 2648,
      "kuse": 2649,
      "Ġvysvet": 2650,
      "29": 2651,
      "Ġmort": 2652,
      "Ġdosah": 2653,
      "Ġbio": 2654,
      "lativni": 2655,
      "Ġsled": 2656,
      "Ġnicmene": 2657,
      "Ġbrani": 2658,
      "stupem": 2659,
      "Ġ104": 2660,
      "Ġbas": 2661,
      "bave": 2662,
      "Ġrozh": 2663,
      "Ġdosazeni": 2664,
      "Ġtrestni": 2665,
      "Ġodvolaci": 2666,
      "Ġrozdil": 2667,
      "spon": 2668,
      "Ġprubehu": 2669,
      "Ġpozi": 2670,
      "kani": 2671,
      "Ġmene": 2672,
      "Ġmar": 2673,
      "Ġobsahuje": 2674,
      "ktoru": 2675,
      "jen": 2676,
      "tez": 2677,
      "dly": 2678,
      "Ġvyslov": 2679,
      "Ġzavazne": 2680,
      "Ġodpovidajici": 2681,
      "rii": 2682,
      "Ġverejnych": 2683,
      "Ġzcela": 2684,
      "luje": 2685,
      "Ġemi": 2686,
      "Ġucinne": 2687,
      "Ġregiona": 2688,
      "Ġpristro": 2689,
      "Ġpredmet": 2690,
      "Ġpouzitych": 2691,
      "Ġvedou": 2692,
      "zatim": 2693,
      "Ġjeden": 2694,
      "Ġspoci": 2695,
      "Ġprosto": 2696,
      "cum": 2697,
      "lova": 2698,
      "Ġredi": 2699,
      "Ġprozatim": 2700,
      "Ġvstup": 2701,
      "Ġinform": 2702,
      "Ġnesmi": 2703,
      "tit": 2704,
      "novane": 2705,
      "Ġpodnik": 2706,
      "Ġzpe": 2707,
      "Ġtrva": 2708,
      "xy": 2709,
      "Ġdoslo": 2710,
      "Ġpojist": 2711,
      "Ġtakovy": 2712,
      "Ġstavajici": 2713,
      "Ġneplat": 2714,
      "Ġfinancniho": 2715,
      "Ġstandar": 2716,
      "Ġzahrani": 2717,
      "Ġmista": 2718,
      "Ġir": 2719,
      "Ġformu": 2720,
      "Ġ0000": 2721,
      "ordi": 2722,
      "Ġjednoho": 2723,
      "Ġurcite": 2724,
      "Ġzakladnich": 2725,
      "xx": 2726,
      "34": 2727,
      "Ġplo": 2728,
      "Ġpobytu": 2729,
      "stran": 2730,
      "Ġinf": 2731,
      "Ġsvou": 2732,
      "dnim": 2733,
      "Ġregistra": 2734,
      "Ġprovozu": 2735,
      "Ġochrane": 2736,
      "Ġplavidla": 2737,
      "Ġlhuty": 2738,
      "tisti": 2739,
      "Ġsva": 2740,
      "Ġsice": 2741,
      "Ġschop": 2742,
      "bou": 2743,
      "Ġpredpokladu": 2744,
      "deli": 2745,
      "ministra": 2746,
      "Ġcitovana": 2747,
      "Ġsmise": 2748,
      "Ġpripadu": 2749,
      "ki": 2750,
      "Ġdomni": 2751,
      "rod": 2752,
      "Ġproda": 2753,
      "prostre": 2754,
      "Ġsmlouvu": 2755,
      "Ġadre": 2756,
      "Ġramc": 2757,
      "Ġdlou": 2758,
      "31": 2759,
      "reny": 2760,
      "Ġleci": 2761,
      "Ġopravny": 2762,
      "Ġsubjekt": 2763,
      "Ġzpravy": 2764,
      "Ġpouzivani": 2765,
      "Ġbydli": 2766,
      "Ġdospe": 2767,
      "tiona": 2768,
      "Ġkapitalu": 2769,
      "nesene": 2770,
      "tex": 2771,
      "Ġdni": 2772,
      "Ġoddi": 2773,
      "Ġostatnich": 2774,
      "Ġvydani": 2775,
      "dua": 2776,
      "Ġpodsta": 2777,
      "Ġpojem": 2778,
      "vit": 2779,
      "Ġzahrnuje": 2780,
      "Ġzkuse": 2781,
      "Ġaty": 2782,
      "Ġkterem": 2783,
      "Ġbank": 2784,
      "kle": 2785,
      "Ġodpo": 2786,
      "Ġdukazy": 2787,
      "Ġnebyly": 2788,
      "Ġvztah": 2789,
      "Ġdruheho": 2790,
      "Ġchara": 2791,
      "Ġorganizaci": 2792,
      "Ġkomunika": 2793,
      "cena": 2794,
      "ken": 2795,
      "Ġita": 2796,
      "Ġgeneralni": 2797,
      "hledu": 2798,
      "Ġcena": 2799,
      "kami": 2800,
      "Ġvnitrostatniho": 2801,
      "Ġmcy": 2802,
      "zeneho": 2803,
      "Ġradne": 2804,
      "Ġjmenem": 2805,
      "Ġrozpoct": 2806,
      "Ġpripomenout": 2807,
      "nici": 2808,
      "Ġuvedenym": 2809,
      "Ġzjiste": 2810,
      "Ġmohly": 2811,
      "Ġforme": 2812,
      "Ġseznamu": 2813,
      "Ġmoto": 2814,
      "Ġital": 2815,
      "him": 2816,
      "Ġvlastnictvi": 2817,
      "Ġdotcenych": 2818,
      "Ġbar": 2819,
      "Ġdnu": 2820,
      "Ġrade": 2821,
      "Ġobvi": 2822,
      "menu": 2823,
      "Ġvozidel": 2824,
      "Ġmohl": 2825,
      "Ġzprava": 2826,
      "Ġvyzaduje": 2827,
      "rnich": 2828,
      "Ġtakova": 2829,
      "gal": 2830,
      "Ġuroven": 2831,
      "Ġchrane": 2832,
      "znosti": 2833,
      "Ġzlep": 2834,
      "Ġcz": 2835,
      "Ġprihled": 2836,
      "Ġtou": 2837,
      "Ġnapo": 2838,
      "Ġtechnologi": 2839,
      "Ġdotceneho": 2840,
      "Ġpouzitelne": 2841,
      "33": 2842,
      "lani": 2843,
      "Ġzastupci": 2844,
      "ĠâĢļ": 2845,
      "Ġzaseda": 2846,
      "Ġpozadova": 2847,
      "ckymi": 2848,
      "Ġuradu": 2849,
      "Ġpredseda": 2850,
      "nne": 2851,
      "Ġpovahy": 2852,
      "tt": 2853,
      "ÑĢ": 2854,
      "Ġzmena": 2855,
      "telnosti": 2856,
      "Ġ1998": 2857,
      "Ġstatem": 2858,
      "Ġmoznosti": 2859,
      "Ġnarok": 2860,
      "Ġdohode": 2861,
      "Ġvhodne": 2862,
      "ii": 2863,
      "Ġkoordi": 2864,
      "Ġleg": 2865,
      "Ġvlady": 2866,
      "Ġ&": 2867,
      "cas": 2868,
      "Ġrezim": 2869,
      "Ġpoloze": 2870,
      "nodu": 2871,
      "Ġadministra": 2872,
      "68": 2873,
      "Ġprijmu": 2874,
      "mb": 2875,
      "Ġnastroje": 2876,
      "Ġpomoc": 2877,
      "ruhe": 2878,
      "Ġvyvoz": 2879,
      "Ġnavic": 2880,
      "Ġukaza": 2881,
      "Ġoba": 2882,
      "Ġzadny": 2883,
      "hyl": 2884,
      "Ġper": 2885,
      "Ġpodil": 2886,
      "Ġcele": 2887,
      "Ġpodpora": 2888,
      "Ġtykaji": 2889,
      "Ġvestniku": 2890,
      "Ġdefinice": 2891,
      "Ġkance": 2892,
      "Ġrozdi": 2893,
      "Ġstav": 2894,
      "stan": 2895,
      "Ġzaprve": 2896,
      "Ġuro": 2897,
      "Ġzjisteni": 2898,
      "Ġzahajeni": 2899,
      "Ġzadani": 2900,
      "Ġnapadene": 2901,
      "Ġustre": 2902,
      "Ġadvokat": 2903,
      "Ġpohybu": 2904,
      "Ġsprave": 2905,
      "Ġstanoveny": 2906,
      "fu": 2907,
      "Ġdra": 2908,
      "Ġnovy": 2909,
      "Ġzemepis": 2910,
      "Ġprijala": 2911,
      "Ġpredse": 2912,
      "Ġpolozky": 2913,
      "Ġkasacniho": 2914,
      "Ġpotreby": 2915,
      "Ġbruse": 2916,
      "Ġnepresahuje": 2917,
      "Ġvyna": 2918,
      "Ġdoko": 2919,
      "Ġkancela": 2920,
      "Ġleka": 2921,
      "Ġstrate": 2922,
      "Ġzni": 2923,
      "Ġdotceny": 2924,
      "Ġjejiho": 2925,
      "Ġdisk": 2926,
      "Ġvydaje": 2927,
      "Ġplanu": 2928,
      "tev": 2929,
      "love": 2930,
      "Ġltd": 2931,
      "rch": 2932,
      "rniho": 2933,
      "Ġohim": 2934,
      "Ġkonkretne": 2935,
      "Ġforma": 2936,
      "Ġzadruhe": 2937,
      "27": 2938,
      "Ġspravy": 2939,
      "0000": 2940,
      "Ġtj": 2941,
      "kum": 2942,
      "Ġbruselu": 2943,
      "ĠÃ¸i": 2944,
      "01": 2945,
      "lizaci": 2946,
      "Ġzby": 2947,
      "ltu": 2948,
      "Ġsdeleni": 2949,
      "Ġzjevne": 2950,
      "Ġkonce": 2951,
      "Ġvychazejici": 2952,
      "Ġnapr": 2953,
      "Ġmiste": 2954,
      "Ġuvedl": 2955,
      "Ġpohleda": 2956,
      "Ġdoprav": 2957,
      "telum": 2958,
      "Ġzasade": 2959,
      "Ġpravnimi": 2960,
      "car": 2961,
      "Ġalespon": 2962,
      "dumping": 2963,
      "Ġprospech": 2964,
      "Ġprojektu": 2965,
      "Ġpododstavec": 2966,
      "Ġrod": 2967,
      "Ġpripravky": 2968,
      "Ġnejvyssi": 2969,
      "Ġindivi": 2970,
      "Ġakt": 2971,
      "Ġnahrazuje": 2972,
      "Ġjednak": 2973,
      "xu": 2974,
      "dlem": 2975,
      "stovani": 2976,
      "Ġzabezpe": 2977,
      "Ġnim": 2978,
      "Ġgu": 2979,
      "Ġpokuty": 2980,
      "Ġantidumping": 2981,
      "Ġobvy": 2982,
      "Ġekonomi": 2983,
      "covane": 2984,
      "nta": 2985,
      "Ġosvobozeni": 2986,
      "Ġosobni": 2987,
      "Ġzamestnancu": 2988,
      "Ġsrp": 2989,
      "Ġee": 2990,
      "ÑĤ": 2991,
      "tym": 2992,
      "Ġotazka": 2993,
      "seli": 2994,
      "74": 2995,
      "wi": 2996,
      "Ġpodstat": 2997,
      "Ġindividua": 2998,
      "Ġrakou": 2999,
      "Ġprotoze": 3000,
      "Ġinterne": 3001,
      "Ġnikoli": 3002,
      "Ġsmeru": 3003,
      "Ġcini": 3004,
      "Ġzvirat": 3005,
      "Ġlatek": 3006,
      "Ġzavery": 3007,
      "Ġurednim": 3008,
      "Ġucastnice": 3009,
      "Ġupre": 3010,
      "we": 3011,
      "Ġkasacni": 3012,
      "Ġteh": 3013,
      "sek": 3014,
      "ft": 3015,
      "nal": 3016,
      "val": 3017,
      "Ġminister": 3018,
      "der": 3019,
      "Ġposi": 3020,
      "Ġrx": 3021,
      "Ġprost": 3022,
      "Ġdrzi": 3023,
      "Ġinvestice": 3024,
      "Ġkazdem": 3025,
      "Ġaudi": 3026,
      "Ġvyrobni": 3027,
      "Ġlhute": 3028,
      "Ġval": 3029,
      "Ġzarazeni": 3030,
      "Ġdovolani": 3031,
      "Ġvyslovne": 3032,
      "Ġstatum": 3033,
      "kry": 3034,
      "ple": 3035,
      "dani": 3036,
      "Ġpriprave": 3037,
      "lizace": 3038,
      "Ġzaklad": 3039,
      "Ġpredpoklada": 3040,
      "Ġpovole": 3041,
      "mito": 3042,
      "bur": 3043,
      "Ġec": 3044,
      "Ġvyvaze": 3045,
      "Ġinfra": 3046,
      "Ġslo": 3047,
      "Ġuply": 3048,
      "Ġodstavec": 3049,
      "Ġ030": 3050,
      "Ġpriz": 3051,
      "Ġsved": 3052,
      "nie": 3053,
      "nostem": 3054,
      "Ġstatisti": 3055,
      "Ġkona": 3056,
      "lia": 3057,
      "Ġ220": 3058,
      "Ġdiskrimina": 3059,
      "26": 3060,
      "Ġdalsich": 3061,
      "Ġzalobu": 3062,
      "kvi": 3063,
      "Ġkapitoly": 3064,
      "Ġspol": 3065,
      "Ġunijniho": 3066,
      "Ġorganum": 3067,
      "Ġvychaze": 3068,
      "chi": 3069,
      "Ġie": 3070,
      "lita": 3071,
      "Ġenerge": 3072,
      "jit": 3073,
      "Ġnet": 3074,
      "Ġlistiny": 3075,
      "Ġprovadi": 3076,
      "Ġvysledku": 3077,
      "Ġreferencni": 3078,
      "Ġpozem": 3079,
      "ĠÃ¸izeni": 3080,
      "Ġvyplyvajici": 3081,
      "Ġskody": 3082,
      "plo": 3083,
      "Ġprodeje": 3084,
      "Ġjednotlivych": 3085,
      "Ġprechod": 3086,
      "ss": 3087,
      "Ġzajistene": 3088,
      "Ġkonstatovat": 3089,
      "laci": 3090,
      "Ġkonku": 3091,
      "Ġposuzovani": 3092,
      "Ġucinky": 3093,
      "cene": 3094,
      "Ġznamena": 3095,
      "Ġtrest": 3096,
      "Ġnadale": 3097,
      "Ġunijni": 3098,
      "zaci": 3099,
      "Ġsoucasne": 3100,
      "Ġzneuzi": 3101,
      "Ġobchodnich": 3102,
      "Ġlegis": 3103,
      "cht": 3104,
      "Ġvybe": 3105,
      "Ġhmotnosti": 3106,
      "Ġsvet": 3107,
      "gy": 3108,
      "Ġoceka": 3109,
      "Ġportu": 3110,
      "Ġvnitrostatnim": 3111,
      "Ġvyuziti": 3112,
      "Ġodra": 3113,
      "Ġzvyseni": 3114,
      "Ġvody": 3115,
      "Ġmuse": 3116,
      "dro": 3117,
      "Ġprislusnosti": 3118,
      "Ġcastka": 3119,
      "lezitosti": 3120,
      "Ġexc": 3121,
      "Ġuzavre": 3122,
      "Ġumoznuje": 3123,
      "Ġaktua": 3124,
      "rstvi": 3125,
      "Ġmistni": 3126,
      "Ġzalobkyni": 3127,
      "Ġdre": 3128,
      "Ġpododstavce": 3129,
      "as": 3130,
      "Ġvece": 3131,
      "Ġvysetr": 3132,
      "Ġvzajemne": 3133,
      "Ġucasti": 3134,
      "det": 3135,
      "Ġpodne": 3136,
      "Ġjej": 3137,
      "Ġpripust": 3138,
      "tech": 3139,
      "Ġtransak": 3140,
      "lezite": 3141,
      "Ġsmluv": 3142,
      "Ġzapsa": 3143,
      "Ġruznych": 3144,
      "Ġzpochyb": 3145,
      "Ġakci": 3146,
      "Ĥ¬": 3147,
      "Ġprojednavanem": 3148,
      "Ġzavede": 3149,
      "Ġprizpusob": 3150,
      "02": 3151,
      "Ġpovahu": 3152,
      "Ġplynu": 3153,
      "Ġsto": 3154,
      "Ġneod": 3155,
      "Ġdrive": 3156,
      "Ġtakovych": 3157,
      "Ġtehdy": 3158,
      "Ġuvahu": 3159,
      "lym": 3160,
      "Ġexistenci": 3161,
      "rma": 3162,
      "Ġkriterii": 3163,
      "Ġbg": 3164,
      "ĠâĤ¬": 3165,
      "Ġzivotniho": 3166,
      "Ġposuzova": 3167,
      "ris": 3168,
      "et": 3169,
      "Ġpravnim": 3170,
      "Ġneob": 3171,
      "Ġdopadu": 3172,
      "Ġpara": 3173,
      "Ġokamziku": 3174,
      "Ġkode": 3175,
      "Ġchy": 3176,
      "Ġkvalifik": 3177,
      "Ġop": 3178,
      "Ġinspe": 3179,
      "Ġodvolaciho": 3180,
      "Ġvlast": 3181,
      "Ġpoly": 3182,
      "Ġvzdelavani": 3183,
      "Ġdumping": 3184,
      "Ġzasedani": 3185,
      "Ġsplat": 3186,
      "Ġdro": 3187,
      "Ġ107": 3188,
      "dera": 3189,
      "Ġtouto": 3190,
      "Ġtrvani": 3191,
      "skymi": 3192,
      "Ġvecech": 3193,
      "Ġovo": 3194,
      "Ġinfrastruktu": 3195,
      "ding": 3196,
      "Ġdopravy": 3197,
      "Ġplatby": 3198,
      "Ġevropskou": 3199,
      "Ġmle": 3200,
      "Ġfunkce": 3201,
      "klady": 3202,
      "Ġproces": 3203,
      "Ġgr": 3204,
      "lost": 3205,
      "Ġpt": 3206,
      "Ġvztahuji": 3207,
      "45": 3208,
      "Ġzkouma": 3209,
      "Ġrodi": 3210,
      "Ġpozadavek": 3211,
      "Ġposkytnout": 3212,
      "zka": 3213,
      "Ġprovest": 3214,
      "ak": 3215,
      "Ġparlament": 3216,
      "Ġvzorku": 3217,
      "mita": 3218,
      "Ġ101": 3219,
      "Ġcty": 3220,
      "Ġdukazu": 3221,
      "Ġjasne": 3222,
      "Ġrovno": 3223,
      "nske": 3224,
      "Ġschvale": 3225,
      "Ġnedosta": 3226,
      "Ġkombi": 3227,
      "zta": 3228,
      "cin": 3229,
      "Ġprevod": 3230,
      "Ġpov": 3231,
      "Ġsrpna": 3232,
      "ovanych": 3233,
      "Ġpisemne": 3234,
      "Ġsite": 3235,
      "Ġ1994": 3236,
      "Ġvyd": 3237,
      "08": 3238,
      "Ġinstituci": 3239,
      "stva": 3240,
      "Ġdruh": 3241,
      "Ġdovozni": 3242,
      "opa": 3243,
      "Ġjakekoli": 3244,
      "mentace": 3245,
      "39": 3246,
      "Ġprijata": 3247,
      "Ġpracovnich": 3248,
      "Ġprihlednutim": 3249,
      "Ġter": 3250,
      "Ġgb": 3251,
      "Ġportugal": 3252,
      "Ġhra": 3253,
      "Ġuspo": 3254,
      "Ġmode": 3255,
      "Ġtyce": 3256,
      "Ġdistri": 3257,
      "Ġuhra": 3258,
      "Ġuplatneni": 3259,
      "vaci": 3260,
      "Ġrych": 3261,
      "Ġef": 3262,
      "Ġjinem": 3263,
      "Ġtemito": 3264,
      "Ġple": 3265,
      "ĠpÃ¸ed": 3266,
      "Ġrozhodnout": 3267,
      "Ġzdroje": 3268,
      "Ġmoci": 3269,
      "cna": 3270,
      "Ġprovadeciho": 3271,
      "Ġpatri": 3272,
      "covat": 3273,
      "Ġinter": 3274,
      "38": 3275,
      "Ġdle": 3276,
      "Ġprotipravniho": 3277,
      "Ġkn": 3278,
      "spi": 3279,
      "oviny": 3280,
      "Ġenergie": 3281,
      "Ġned": 3282,
      "Ġrej": 3283,
      "Ġpak": 3284,
      "ron": 3285,
      "Ġramce": 3286,
      "Ġleta": 3287,
      "Ġvychazi": 3288,
      "Ñģ": 3289,
      "tional": 3290,
      "Ġpuvodni": 3291,
      "Ġnebu": 3292,
      "Ġzakazni": 3293,
      "land": 3294,
      "Ġrozsah": 3295,
      "Ġnasledne": 3296,
      "one": 3297,
      "Ġpochaze": 3298,
      "stovni": 3299,
      "Ġtakoveho": 3300,
      "sovani": 3301,
      "Ġkvality": 3302,
      "ÏĦ": 3303,
      "Ġvyrobek": 3304,
      "sol": 3305,
      "zich": 3306,
      "cer": 3307,
      "Ġ020": 3308,
      "cujici": 3309,
      "Ġobjem": 3310,
      "Ġnevzta": 3311,
      "Ġvyroby": 3312,
      "nostech": 3313,
      "sene": 3314,
      "Ġdat": 3315,
      "Ġpodepsa": 3316,
      "Ġexistu": 3317,
      "Ġpoplatku": 3318,
      "Ġnamo": 3319,
      "Ġei": 3320,
      "Ġevropskym": 3321,
      "Ġprenesene": 3322,
      "merne": 3323,
      "nte": 3324,
      "Ġuzivani": 3325,
      "Ġvnejsi": 3326,
      "77": 3327,
      "Ġexistence": 3328,
      "Ġbydliste": 3329,
      "Ġplateb": 3330,
      "stina": 3331,
      "vajicich": 3332,
      "Ġdota": 3333,
      "nos": 3334,
      "Ġuvedla": 3335,
      "Ġtehoz": 3336,
      "Ġpostupem": 3337,
      "Ġkazdeho": 3338,
      "Ġrostlin": 3339,
      "Ġvelke": 3340,
      "Ġang": 3341,
      "Ġdoporuceni": 3342,
      "Ġkry": 3343,
      "Ġproble": 3344,
      "05": 3345,
      "pristup": 3346,
      "Ġucinnosti": 3347,
      "nuto": 3348,
      "Ġsluci": 3349,
      "mek": 3350,
      "Ġosobam": 3351,
      "Ġvypoctu": 3352,
      "Ġosobnich": 3353,
      "Ġlicen": 3354,
      "Ġpopsa": 3355,
      "lt": 3356,
      "Ġ040": 3357,
      "Ġstranami": 3358,
      "Ġcastku": 3359,
      "rech": 3360,
      "Ġprimerene": 3361,
      "Ġbelgi": 3362,
      "Ġsdruzeni": 3363,
      "Ġnavrhuje": 3364,
      "ei": 3365,
      "Ġhospodarskou": 3366,
      "28": 3367,
      "Ġstudi": 3368,
      "Ġvlaken": 3369,
      "Ġpremi": 3370,
      "ovymi": 3371,
      "Ġsna": 3372,
      "Ġnl": 3373,
      "Ġuz": 3374,
      "biha": 3375,
      "Ġdoru": 3376,
      "Ġdes": 3377,
      "Ġvybave": 3378,
      "Ġjinymi": 3379,
      "lovani": 3380,
      "Ġnena": 3381,
      "Ġnovych": 3382,
      "Ġcelkem": 3383,
      "Ġodbor": 3384,
      "nuta": 3385,
      "neno": 3386,
      "Ġdodrzovani": 3387,
      "Ġkyseli": 3388,
      "Ġvyrok": 3389,
      "Ġcestu": 3390,
      "bor": 3391,
      "Ġmen": 3392,
      "Ġvykladan": 3393,
      "podob": 3394,
      "Ġzachovani": 3395,
      "Ġudrzi": 3396,
      "Ġkontex": 3397,
      "Ġspojenych": 3398,
      "Ġel": 3399,
      "35": 3400,
      "Ġas": 3401,
      "lnim": 3402,
      "Ġurcitych": 3403,
      "Ġverejnosti": 3404,
      "Ġnutno": 3405,
      "Ġakty": 3406,
      "44": 3407,
      "Ġzajem": 3408,
      "Ġvliv": 3409,
      "Ġdistribu": 3410,
      "fikova": 3411,
      "Ġnevztahu": 3412,
      "Ġfunkci": 3413,
      "Ġspolecneho": 3414,
      "Ġ125": 3415,
      "Ġdob": 3416,
      "zd": 3417,
      "Ġlhuta": 3418,
      "Ġvykonava": 3419,
      "Ġexistuje": 3420,
      "Ġnepred": 3421,
      "Ġvyrobci": 3422,
      "cku": 3423,
      "Ġprakti": 3424,
      "Ġorganem": 3425,
      "haj": 3426,
      "sena": 3427,
      "Ġjisto": 3428,
      "Ġzvl": 3429,
      "Ġzusta": 3430,
      "Ġdokumenty": 3431,
      "Ġpovazovat": 3432,
      "Ġrepublikou": 3433,
      "Ġpraci": 3434,
      "Ġzohled": 3435,
      "Ġdce": 3436,
      "Ġuvedenem": 3437,
      "Ġodpovednosti": 3438,
      "Ġkontrol": 3439,
      "ol": 3440,
      "Ġprostoru": 3441,
      "Ġkonta": 3442,
      "Ġpravu": 3443,
      "Ġzpristup": 3444,
      "Ġprobiha": 3445,
      "Ġstavebni": 3446,
      "Ġvyrobcu": 3447,
      "Ġzavaz": 3448,
      "Ġdoba": 3449,
      "Ġpuvodniho": 3450,
      "Ġlegislativni": 3451,
      "Ġuzavreni": 3452,
      "Ġvino": 3453,
      "Ġpotravin": 3454,
      "Ġbanky": 3455,
      "cina": 3456,
      "Ġurcit": 3457,
      "Ġpracovniku": 3458,
      "Ġsoudy": 3459,
      "Ġnaru": 3460,
      "Ġumi": 3461,
      "vede": 3462,
      "peti": 3463,
      "Ġustredni": 3464,
      "Ġzahaje": 3465,
      "Ġkoordina": 3466,
      "Ġrodin": 3467,
      "Ġpouziji": 3468,
      "Ġ300": 3469,
      "lan": 3470,
      "lin": 3471,
      "Ġmechanismu": 3472,
      "Ġ112": 3473,
      "Ġ115": 3474,
      "depodob": 3475,
      "Ġsvu": 3476,
      "Ġjinym": 3477,
      "Ġpokyny": 3478,
      "Ġsvycar": 3479,
      "Ġmoni": 3480,
      "Ġzpusobe": 3481,
      "Ġprislusnym": 3482,
      "tin": 3483,
      "Ġzabezpeceni": 3484,
      "Î½": 3485,
      "Ġ196": 3486,
      "Ġsvuj": 3487,
      "85": 3488,
      "Ġobou": 3489,
      "riz": 3490,
      "Ġsystemy": 3491,
      "Ġzakazky": 3492,
      "Ġstiz": 3493,
      "Ġsvobody": 3494,
      "telna": 3495,
      "Ġhodnotu": 3496,
      "Ġzaklada": 3497,
      "Ġser": 3498,
      "Ġsur": 3499,
      "sli": 3500,
      "Ġmt": 3501,
      "Ġ207": 3502,
      "03": 3503,
      "95": 3504,
      "Ġkapaci": 3505,
      "Ġstarsi": 3506,
      "Ġnebezpe": 3507,
      "vol": 3508,
      "Ġnespravneho": 3509,
      "kovou": 3510,
      "Ġstabi": 3511,
      "Ġnejvyse": 3512,
      "Ġspravne": 3513,
      "ckem": 3514,
      "Ġnepripust": 3515,
      "Ġrozpoctu": 3516,
      "Ġmater": 3517,
      "cuji": 3518,
      "Ġkategorii": 3519,
      "Ġposledne": 3520,
      "Ġvyzkum": 3521,
      "Ġzmen": 3522,
      "Ġneprime": 3523,
      "Ġalo": 3524,
      "pisem": 3525,
      "ret": 3526,
      "Ġochrana": 3527,
      "Ġzmocnenci": 3528,
      "06": 3529,
      "str": 3530,
      "Ġdomniva": 3531,
      "Ġusna": 3532,
      "vsim": 3533,
      "Ġ1997": 3534,
      "Ġpredevsim": 3535,
      "cien": 3536,
      "Ġvod": 3537,
      "Ġ1995": 3538,
      "Ġsouvisejicich": 3539,
      "ÅĤ": 3540,
      "Ġsplneny": 3541,
      "Ġnebyl": 3542,
      "obi": 3543,
      "Ġzmeni": 3544,
      "Ġmy": 3545,
      "Ġnabid": 3546,
      "Ġuvod": 3547,
      "ceny": 3548,
      "Ġhi": 3549,
      "Ġrovnocen": 3550,
      "Ġmohlo": 3551,
      "Ġ103": 3552,
      "Ġautomati": 3553,
      "lum": 3554,
      "Ġklasi": 3555,
      "ĠÕ": 3556,
      "Ġjiny": 3557,
      "Ġpredlozeni": 3558,
      "07": 3559,
      "kaz": 3560,
      "Ġprovoz": 3561,
      "Ġprispevku": 3562,
      "ms": 3563,
      "Ġkraj": 3564,
      "Ġpredbez": 3565,
      "91": 3566,
      "04": 3567,
      "Ġustanovenimi": 3568,
      "porciona": 3569,
      "hroma": 3570,
      "Ġukonceni": 3571,
      "Ġprislusneho": 3572,
      "Ġvseobe": 3573,
      "Ġvyuzivani": 3574,
      "cence": 3575,
      "Ġgra": 3576,
      "Ġslozeni": 3577,
      "Ġsla": 3578,
      "Ġzatim": 3579,
      "Ġpone": 3580,
      "Ġnava": 3581,
      "Ġtechnickych": 3582,
      "Ġ1996": 3583,
      "Ġneexiste": 3584,
      "Ġmaterialy": 3585,
      "Ġspotrebitele": 3586,
      "Ġprislusnymi": 3587,
      "her": 3588,
      "Ġdohledu": 3589,
      "telnych": 3590,
      "Ġspolecenstvim": 3591,
      "ls": 3592,
      "Ġnezbytna": 3593,
      "Ġciste": 3594,
      "Ġodpovednost": 3595,
      "Ġvolneho": 3596,
      "Ġdceri": 3597,
      "Ġdite": 3598,
      "Ġnehoz": 3599,
      "Ġzapisu": 3600,
      "Ġdopusti": 3601,
      "Ġvelmi": 3602,
      "Ġnejvyi": 3603,
      "Ġcpc": 3604,
      "Ġkontrolu": 3605,
      "Ġzakaz": 3606,
      "telny": 3607,
      "Ġlicence": 3608,
      "Îµ": 3609,
      "Ġucinku": 3610,
      "Ġpristroje": 3611,
      "ipo": 3612,
      "Ġprostor": 3613,
      "Ġot": 3614,
      "Ġurovne": 3615,
      "Ġnemohou": 3616,
      "Ġzamestnava": 3617,
      "Ġdopln": 3618,
      "Ġujedna": 3619,
      "Ġduvodum": 3620,
      "Ġmajetku": 3621,
      "Ġ080": 3622,
      "Ġcastecne": 3623,
      "Ġdigi": 3624,
      "Ġuskutecne": 3625,
      "Ġidentifika": 3626,
      "Ġvysledky": 3627,
      "Ġcentralni": 3628,
      "Ġuvedenou": 3629,
      "Ġcou": 3630,
      "Ġprodukt": 3631,
      "Ġzamestnani": 3632,
      "Ġucel": 3633,
      "Ġori": 3634,
      "Ġproporciona": 3635,
      "Ġuveroveho": 3636,
      "uje": 3637,
      "Ġprofe": 3638,
      "Ġap": 3639,
      "Ġzaby": 3640,
      "Ġhospodarstvi": 3641,
      "Ġprocesu": 3642,
      "Ġea": 3643,
      "Ġzemedelstvi": 3644,
      "Ġpokra": 3645,
      "Ġpece": 3646,
      "Ġplan": 3647,
      "Ġrejstri": 3648,
      "Ġvstoupi": 3649,
      "Ġpreshrani": 3650,
      "Ġprave": 3651,
      "stvo": 3652,
      "Ġstupni": 3653,
      "Ġpravdepodob": 3654,
      "Ġaspe": 3655,
      "Ġodvolani": 3656,
      "Ġzpracova": 3657,
      "Ġpridruzeni": 3658,
      "Ġohro": 3659,
      "opak": 3660,
      "Ġ500": 3661,
      "razni": 3662,
      "pisy": 3663,
      "Ġnaopak": 3664,
      "Ġstale": 3665,
      "Ġposledni": 3666,
      "Ġsobe": 3667,
      "Â°": 3668,
      "Ġclenu": 3669,
      "Ġapr": 3670,
      "Ġnemovitosti": 3671,
      "tickych": 3672,
      "kteri": 3673,
      "break": 3674,
      "stve": 3675,
      "Ġvyvozu": 3676,
      "chova": 3677,
      "Ġcelem": 3678,
      "Ġjeste": 3679,
      "ngen": 3680,
      "Ð²": 3681,
      "Ġsektoru": 3682,
      "Ġlegi": 3683,
      "ral": 3684,
      "Ġpristoupeni": 3685,
      "Ġjednaciho": 3686,
      "Ġurcene": 3687,
      "Ġprp": 3688,
      "Ġzpet": 3689,
      "Ġtyp": 3690,
      "nzi": 3691,
      "Ġsoutez": 3692,
      "Ġoznami": 3693,
      "zace": 3694,
      "tions": 3695,
      "boru": 3696,
      "rr": 3697,
      "Ġeurope": 3698,
      "Ġtvori": 3699,
      "Ġzeleni": 3700,
      "Ġovoce": 3701,
      "Ġucast": 3702,
      "Ġodpadu": 3703,
      "kazu": 3704,
      "Ġeuipo": 3705,
      "Ġnaroku": 3706,
      "Ġpovazuje": 3707,
      "Ġcn": 3708,
      "ori": 3709,
      "Ġcerti": 3710,
      "Ġnejpoz": 3711,
      "Ġvedouci": 3712,
      "Ġstupne": 3713,
      "Ġtva": 3714,
      "Ġpodpu": 3715,
      "Ġnasled": 3716,
      "Ġprirodni": 3717,
      "Ġnespravne": 3718,
      "Ġobvykle": 3719,
      "Ġhr": 3720,
      "Ġpodstate": 3721,
      "Ġvylucne": 3722,
      "Ġsidlem": 3723,
      "Ġotev": 3724,
      "ad": 3725,
      "que": 3726,
      "vane": 3727,
      "Ġaf": 3728,
      "Ġbul": 3729,
      "Ġdk": 3730,
      "Ġkonstru": 3731,
      "Ġnormy": 3732,
      "Ġnesou": 3733,
      "Ġzac": 3734,
      "Ġoblastech": 3735,
      "Ġsoudnim": 3736,
      "Ġprislusni": 3737,
      "Ġkazda": 3738,
      "lar": 3739,
      "lny": 3740,
      "Ġzamitnuti": 3741,
      "us": 3742,
      "Ġnejpozdeji": 3743,
      "Ġzelezni": 3744,
      "dech": 3745,
      "Ġodkazuje": 3746,
      "Ġzvlastnich": 3747,
      "chodu": 3748,
      "Ġjakozto": 3749,
      "Ġ108": 3750,
      "Ġzjisti": 3751,
      "kon": 3752,
      "cek": 3753,
      "Ġbra": 3754,
      "nes": 3755,
      "Ġzatimco": 3756,
      "Ġprvky": 3757,
      "Ġvyrovna": 3758,
      "Ġprodlou": 3759,
      "Ġvan": 3760,
      "58": 3761,
      "Ġjednotlive": 3762,
      "Ġrizik": 3763,
      "Ïģ": 3764,
      "Ġstatnich": 3765,
      "36": 3766,
      "Ġpartnerstvi": 3767,
      "Ġmilionu": 3768,
      "plat": 3769,
      "rce": 3770,
      "Ġstri": 3771,
      "nska": 3772,
      "Ġpoctu": 3773,
      "Ġprumer": 3774,
      "tnich": 3775,
      "Ġmadar": 3776,
      "Ġdia": 3777,
      "Ġpau": 3778,
      "Ġsoukrome": 3779,
      "Ġvyvozni": 3780,
      "Ġdotycne": 3781,
      "Ġlv": 3782,
      "Ġakce": 3783,
      "Ġsamostatne": 3784,
      "Ġustavni": 3785,
      "koho": 3786,
      "Ġano": 3787,
      "Ġdigita": 3788,
      "Ġnavra": 3789,
      "Ġki": 3790,
      "Ġpovinne": 3791,
      "Ġkc": 3792,
      "ted": 3793,
      "rzeni": 3794,
      "41": 3795,
      "Ġsocialniho": 3796,
      "Ġemisi": 3797,
      "zenou": 3798,
      "tky": 3799,
      "Ġ106": 3800,
      "Ġcarou": 3801,
      "Ġpovinna": 3802,
      "Ġsoli": 3803,
      "Ġosobou": 3804,
      "Ġnastroju": 3805,
      "Ġsoucas": 3806,
      "Ġsledovani": 3807,
      "Ġsouhr": 3808,
      "Ġryba": 3809,
      "Ġovereni": 3810,
      "cerpa": 3811,
      "Ġ105": 3812,
      "Ġzastoupe": 3813,
      "Ġprispevek": 3814,
      "Ġvsechna": 3815,
      "Ġeura": 3816,
      "Ġoperace": 3817,
      "rum": 3818,
      "ovem": 3819,
      "dejsi": 3820,
      "Ġbr": 3821,
      "Ġvstupuje": 3822,
      "Ġskupina": 3823,
      "at": 3824,
      "ps": 3825,
      "Ġiso": 3826,
      "Ġvydava": 3827,
      "47": 3828,
      "tecni": 3829,
      "Ġzpusobilosti": 3830,
      "Ġil": 3831,
      "Ġobvini": 3832,
      "Ġpozor": 3833,
      "mbh": 3834,
      "Ġreditel": 3835,
      "Ġargument": 3836,
      "Ġkartel": 3837,
      "Ġnahrada": 3838,
      "Ġshroma": 3839,
      "Ġsankce": 3840,
      "Ġujmy": 3841,
      "Ġprokazat": 3842,
      "Ġzavedeni": 3843,
      "Ġprev": 3844,
      "Ġzdaneni": 3845,
      "Ġoddil": 3846,
      "Ġdohodu": 3847,
      "Ġgmbh": 3848,
      "Ġstanoveno": 3849,
      "49": 3850,
      "ski": 3851,
      "Ġdlouhod": 3852,
      "Ġpodilu": 3853,
      "Ġsazeb": 3854,
      "Ġsvym": 3855,
      "rskych": 3856,
      "nuty": 3857,
      "Ġjmeno": 3858,
      "Ġzasla": 3859,
      "32": 3860,
      "Ġefe": 3861,
      "Ġkola": 3862,
      "cnych": 3863,
      "Ġposto": 3864,
      "Ġprocen": 3865,
      "Ġprevy": 3866,
      "delovani": 3867,
      "Ġregionalni": 3868,
      "Ġsplneni": 3869,
      "neti": 3870,
      "Ġsporne": 3871,
      "tva": 3872,
      "Ġlega": 3873,
      "kazuje": 3874,
      "Ð»": 3875,
      "Ġadresa": 3876,
      "Ġvlastnosti": 3877,
      "min": 3878,
      "Ġpocita": 3879,
      "Ġrezer": 3880,
      "paren": 3881,
      "Ġfra": 3882,
      "Ġujednani": 3883,
      "nenych": 3884,
      "Ġver": 3885,
      "Ġrozhodne": 3886,
      "Ġpredlozena": 3887,
      "Ġpodstatne": 3888,
      "proti": 3889,
      "Ġpovi": 3890,
      "Ġsilni": 3891,
      "zet": 3892,
      "nej": 3893,
      "Ġ1992": 3894,
      "pou": 3895,
      "Ġnekolik": 3896,
      "Ġcelniho": 3897,
      "Ġrocni": 3898,
      "nut": 3899,
      "Ġulozeni": 3900,
      "gna": 3901,
      "Ġzohlednit": 3902,
      "Ġzalobci": 3903,
      "renych": 3904,
      "Ġulozil": 3905,
      "Ġpene": 3906,
      "mysle": 3907,
      "lnit": 3908,
      "Ġye": 3909,
      "Ġfaktu": 3910,
      "Ġuvedenymi": 3911,
      "Ġ120": 3912,
      "telnost": 3913,
      "Ġvyhlaseni": 3914,
      "Ġlimi": 3915,
      "Ġfrancie": 3916,
      "Ġclo": 3917,
      "chop": 3918,
      "Ġoznacenim": 3919,
      "Ġvyma": 3920,
      "Ã¸i": 3921,
      "46": 3922,
      "vice": 3923,
      "Ġodborne": 3924,
      "Ġobecneho": 3925,
      "Ġprovozni": 3926,
      "Ġopravneni": 3927,
      "Ġtransparen": 3928,
      "Ġustalene": 3929,
      "har": 3930,
      "Ġkdyby": 3931,
      "Ġdluzni": 3932,
      "tniho": 3933,
      "Ġpredstav": 3934,
      "set": 3935,
      "Ġdopravni": 3936,
      "88": 3937,
      "Ġtakze": 3938,
      "Ġsiti": 3939,
      "75": 3940,
      "dnodu": 3941,
      "Ġvyho": 3942,
      "Ġaktiv": 3943,
      "Ġposkytuje": 3944,
      "Ġkre": 3945,
      "stene": 3946,
      "lektivni": 3947,
      "Ġzapis": 3948,
      "Ġsche": 3949,
      "ving": 3950,
      "Ġvyrobu": 3951,
      "Ġstupen": 3952,
      "mech": 3953,
      "Ġitalie": 3954,
      "Ġpoznamce": 3955,
      "Ġpoten": 3956,
      "Ġmotor": 3957,
      "Ġmonitor": 3958,
      "Ġnejprve": 3959,
      "rence": 3960,
      "Ġnamitky": 3961,
      "Ġzakazu": 3962,
      "Ġinterna": 3963,
      "xe": 3964,
      "Ġrevi": 3965,
      "Ġzpusobu": 3966,
      "Ġnimi": 3967,
      "Ġobdobne": 3968,
      "Ġpovinen": 3969,
      "Ġ1993": 3970,
      "Ġpozmene": 3971,
      "Ġstejneho": 3972,
      "Ġnova": 3973,
      "Ġnorma": 3974,
      "Ġpeti": 3975,
      "nsko": 3976,
      "grafi": 3977,
      "gii": 3978,
      "Ġnahrady": 3979,
      "Ġzjednodu": 3980,
      "Ġcisel": 3981,
      "Ġzdurazni": 3982,
      "Ġspojeneho": 3983,
      "Ġinde": 3984,
      "Ġvnitrnim": 3985,
      "Ġzrusil": 3986,
      "Ġpopu": 3987,
      "terina": 3988,
      "Ġsklad": 3989,
      "Ġcukru": 3990,
      "Ġschu": 3991,
      "Ġnebezpeci": 3992,
      "Ġvyvoj": 3993,
      "Ġam": 3994,
      "Ġmimoto": 3995,
      "Ġzamestnanci": 3996,
      "Ġkontextu": 3997,
      "Ġpozdejsi": 3998,
      "Ġvyhradou": 3999,
      "Ġsmluvnich": 4000,
      "Ġnepro": 4001,
      "Ġmanze": 4002,
      "Ġyear": 4003,
      "Ġdodatec": 4004,
      "sich": 4005,
      "Ġnaku": 4006,
      "mra": 4007,
      "Ġsrovnani": 4008,
      "ovaneho": 4009,
      "Ġnize": 4010,
      "Ġobhaj": 4011,
      "sten": 4012,
      "Ġroky": 4013,
      "meri": 4014,
      "Ġrepublice": 4015,
      "Ġsazby": 4016,
      "ovaly": 4017,
      "Ġvaz": 4018,
      "mych": 4019,
      "Ġpodat": 4020,
      "Ġagentura": 4021,
      "Ġlucem": 4022,
      "66": 4023,
      "Ġnevztahuje": 4024,
      "Ġ2022": 4025,
      "Ġkonzultaci": 4026,
      "terna": 4027,
      "neneho": 4028,
      "nyl": 4029,
      "Ġzasadu": 4030,
      "Ġuchaze": 4031,
      "Ġ102": 4032,
      "Ġosobe": 4033,
      "Ġpomeru": 4034,
      "Ġpage": 4035,
      "71": 4036,
      "Ġpodrob": 4037,
      "Ġrumu": 4038,
      "Ġvr": 4039,
      "Ġuveru": 4040,
      "Ġpokry": 4041,
      "dr": 4042,
      "chodni": 4043,
      "Ġspisu": 4044,
      "Ġpojmu": 4045,
      "Ġveterina": 4046,
      "Ġwa": 4047,
      "Ġvypocet": 4048,
      "Ġangli": 4049,
      "Ġletecke": 4050,
      "Ġduchod": 4051,
      "vany": 4052,
      "Ġcm": 4053,
      "lati": 4054,
      "Ġzprav": 4055,
      "Ġprotokol": 4056,
      "ds": 4057,
      "Ġobn": 4058,
      "Ġvaza": 4059,
      "Ġkontrolni": 4060,
      "Ġvyrobniho": 4061,
      "Ġceske": 4062,
      "Ġnekolika": 4063,
      "Ġagentury": 4064,
      "Ġdruha": 4065,
      "Ġkrat": 4066,
      "xa": 4067,
      "rita": 4068,
      "Ġsluzebniho": 4069,
      "Ġ1510": 4070,
      "Ġdaneho": 4071,
      "cny": 4072,
      "Ġchop": 4073,
      "Ġprovadet": 4074,
      "nute": 4075,
      "Ġdokladu": 4076,
      "ll": 4077,
      "Ġoceli": 4078,
      "ndi": 4079,
      "Ġpotreb": 4080,
      "Ġjejimz": 4081,
      "Ġmist": 4082,
      "Ġuzem": 4083,
      "Ġobjektivni": 4084,
      "Ġzabrani": 4085,
      "peni": 4086,
      "mentaci": 4087,
      "Ġuvedeni": 4088,
      "Ġkvalifikovane": 4089,
      "Ġziskani": 4090,
      "Ġjakeho": 4091,
      "Ġrejstriku": 4092,
      "ĠâĪ": 4093,
      "Ġume": 4094,
      "Ġpodnika": 4095,
      "Ġzohledne": 4096,
      "jni": 4097,
      "Ġzverejneni": 4098,
      "Ġzakazek": 4099,
      "Ġvraceni": 4100,
      "Ġznovu": 4101,
      "Ġkonzultace": 4102,
      "Ġstroje": 4103,
      "senim": 4104,
      "Ġprocesni": 4105,
      "Î¿Ï": 4106,
      "Ġslove": 4107,
      "Ġspravniho": 4108,
      "Ġpododstavci": 4109,
      "Ġbezpecnostni": 4110,
      "Ġpochyb": 4111,
      "Ġopatrenich": 4112,
      "Ġoddilu": 4113,
      "Ġprima": 4114,
      "Ġucinek": 4115,
      "Ġplavidel": 4116,
      "Ġseve": 4117,
      "Ġpm": 4118,
      "Ġvydaju": 4119,
      "Ġvii": 4120,
      "Ġzho": 4121,
      "Ġpresne": 4122,
      "Ġdruhou": 4123,
      "Ġjenz": 4124,
      "Ġsloze": 4125,
      "Ġkapitalovych": 4126,
      "Ġformalni": 4127,
      "Ġmimora": 4128,
      "muni": 4129,
      "Ġgeneralniho": 4130,
      "Ġudajne": 4131,
      "Ġvyplace": 4132,
      "Ġpredlozit": 4133,
      "Ġzadna": 4134,
      "ovan": 4135,
      "kovi": 4136,
      "Ġposko": 4137,
      "Ġsvobod": 4138,
      "Ġnyni": 4139,
      "Ġpausa": 4140,
      "Ġlicenci": 4141,
      "Ġpredstavuji": 4142,
      "Ġhro": 4143,
      "Ġpusobi": 4144,
      "Ġochrannych": 4145,
      "Ġnere": 4146,
      "tes": 4147,
      "Ġnamorni": 4148,
      "Ġposti": 4149,
      "Ġrevol": 4150,
      "Ġtla": 4151,
      "Ġnedostat": 4152,
      "Ġalterna": 4153,
      "Ġzadatel": 4154,
      "Ġprevysu": 4155,
      "Ġsiro": 4156,
      "37": 4157,
      "ĠâĢ¢": 4158,
      "Ġpouzite": 4159,
      "Ġjednotne": 4160,
      "Ġzamitl": 4161,
      "Ġurcitou": 4162,
      "Ġzasta": 4163,
      "Ġlegitim": 4164,
      "Ġnejen": 4165,
      "Ġ150": 4166,
      "Ġpripomi": 4167,
      "dat": 4168,
      "Ġdokonce": 4169,
      "Ġzasadou": 4170,
      "Ġpreva": 4171,
      "55": 4172,
      "zenym": 4173,
      "Ġkana": 4174,
      "Ġrekla": 4175,
      "Ġvytyka": 4176,
      "Ġvnitrostatnimi": 4177,
      "Ġchovani": 4178,
      "Ġzpravu": 4179,
      "Ġdeti": 4180,
      "Ġzakoniku": 4181,
      "Ġsvi": 4182,
      "Ġrevolving": 4183,
      "th": 4184,
      "nkova": 4185,
      "Ġzemedelske": 4186,
      "Ġvytva": 4187,
      "Ġadministrativni": 4188,
      "lii": 4189,
      "Ġnebrani": 4190,
      "Î·": 4191,
      "Ġnap": 4192,
      "stitel": 4193,
      "Ġinvestic": 4194,
      "Ġrozlis": 4195,
      "Ġduse": 4196,
      "Ġpodala": 4197,
      "Ġhospodarskych": 4198,
      "9300": 4199,
      "Ġpagebreak": 4200,
      "Ġnesplneni": 4201,
      "Ġmesice": 4202,
      "kr": 4203,
      "Ġmetody": 4204,
      "sili": 4205,
      "Ġsmesi": 4206,
      "Ġcharakteri": 4207,
      "per": 4208,
      "Ġnezavisle": 4209,
      "Ġzde": 4210,
      "Ġkodu": 4211,
      "Ġdove": 4212,
      "Ġrozdeleni": 4213,
      "Ġduve": 4214,
      "Ġulo": 4215,
      "Ġodkaz": 4216,
      "forma": 4217,
      "84": 4218,
      "Ġproporcionality": 4219,
      "Ġletec": 4220,
      "Ġhru": 4221,
      "Ġziskat": 4222,
      "Ġleti": 4223,
      "Ġini": 4224,
      "Ġvyslech": 4225,
      "hl": 4226,
      "Ġposoudit": 4227,
      "Ġruzne": 4228,
      "Ġdukaz": 4229,
      "Ġodborni": 4230,
      "Ġseste": 4231,
      "lor": 4232,
      "Ġplatne": 4233,
      "duji": 4234,
      "nach": 4235,
      "Ġosn": 4236,
      "Ġrozvoje": 4237,
      "gh": 4238,
      "voda": 4239,
      "ĠÂ·": 4240,
      "Ġtru": 4241,
      "Ġrozpeti": 4242,
      "lle": 4243,
      "ngs": 4244,
      "Ġdusevni": 4245,
      "Ġdokument": 4246,
      "Ġuhli": 4247,
      "Ġzajmy": 4248,
      "Ġsesta": 4249,
      "Ġpropu": 4250,
      "Ġhospodarskeho": 4251,
      "Ġodli": 4252,
      "Ġprijme": 4253,
      "Ġdavky": 4254,
      "59": 4255,
      "Ġdodatecne": 4256,
      "veho": 4257,
      "Ġsz": 4258,
      "Ġvyber": 4259,
      "nami": 4260,
      "sahuje": 4261,
      "litu": 4262,
      "Ġclancich": 4263,
      "Ġvyhove": 4264,
      "Ġhospodarsky": 4265,
      "Ġodhad": 4266,
      "Ġkomple": 4267,
      "nda": 4268,
      "Ġoby": 4269,
      "Ġveliko": 4270,
      "Ġprimere": 4271,
      "Ġvylouceni": 4272,
      "Ġdoplne": 4273,
      "Ġuvahy": 4274,
      "Ġdusledky": 4275,
      "Ġvicele": 4276,
      "Ġvyznamne": 4277,
      "geri": 4278,
      "Ġzalobniho": 4279,
      "Ġspise": 4280,
      "Ġoddeleni": 4281,
      "Ġsam": 4282,
      "Ġ549300": 4283,
      "Ġzvo": 4284,
      "Ġsamot": 4285,
      "Ġodpa": 4286,
      "Ġbezprostre": 4287,
      "Ġdodani": 4288,
      "Ġzamestnance": 4289,
      "tativni": 4290,
      "Ġrozhodu": 4291,
      "Ġkontrola": 4292,
      "zv": 4293,
      "Ġprislusi": 4294,
      "Ġpta": 4295,
      "Ġ}": 4296,
      "Ġprislusniku": 4297,
      "tory": 4298,
      "Ġprijmy": 4299,
      "Ġinfrastruktury": 4300,
      "Ġnebude": 4301,
      "casne": 4302,
      "Ġq": 4303,
      "Ġdoplnkove": 4304,
      "Ġ{": 4305,
      "Ġsg": 4306,
      "Ġmensi": 4307,
      "Ġcestovni": 4308,
      "Ġokolnost": 4309,
      "Ġprijemce": 4310,
      "Ġsloup": 4311,
      "Ġjakym": 4312,
      "Ġvytvoreni": 4313,
      "Ġwe": 4314,
      "Ġtrvale": 4315,
      "Ġletech": 4316,
      "Ġkultu": 4317,
      "Ġvsem": 4318,
      "Ġzakaza": 4319,
      "Ġpozadav": 4320,
      "Ġvycerpa": 4321,
      "Ġposkytovatele": 4322,
      "Ġzmenu": 4323,
      "Ġpropo": 4324,
      "Ġnasledujicich": 4325,
      "ns": 4326,
      "Ġvodni": 4327,
      "Ġ136": 4328,
      "lus": 4329,
      "lla": 4330,
      "Ġzpravoda": 4331,
      "ceno": 4332,
      "Ġkonci": 4333,
      "ot": 4334,
      "Ġzavislosti": 4335,
      "Ġsed": 4336,
      "Ġrevolvingove": 4337,
      "Ġpapiru": 4338,
      "Ġnade": 4339,
      "Ġzalovana": 4340,
      "sud": 4341,
      "Ġcelnich": 4342,
      "Ġpresto": 4343,
      "Ġprislusnost": 4344,
      "Ġvyraz": 4345,
      "Ġodchyl": 4346,
      "Ġfazi": 4347,
      "Ġpridane": 4348,
      "Ġdosahnout": 4349,
      "gr": 4350,
      "Ġvyzna": 4351,
      "dila": 4352,
      "Ġpali": 4353,
      "hodno": 4354,
      "centra": 4355,
      "Ġsazba": 4356,
      "98": 4357,
      "cs": 4358,
      "Ġsmlouve": 4359,
      "Ġdobre": 4360,
      "Ġhydro": 4361,
      "Ġnachazi": 4362,
      "Ġvyplyvaji": 4363,
      "Ġpreka": 4364,
      "Ġtrzni": 4365,
      "Ġkalen": 4366,
      "Ġjaka": 4367,
      "Ġurcenych": 4368,
      "Ġzmra": 4369,
      "Ġzasad": 4370,
      "Ġadvokata": 4371,
      "domi": 4372,
      "Ġpohyb": 4373,
      "Ġdulezite": 4374,
      "Ġtis": 4375,
      "rizon": 4376,
      "57": 4377,
      "Ġpoca": 4378,
      "Ġpoznamky": 4379,
      "Ġulozit": 4380,
      "Ġvysetrovani": 4381,
      "Ġzajist": 4382,
      "Ġdodatku": 4383,
      "nil": 4384,
      "vala": 4385,
      "Ġ118": 4386,
      "Ġprevodu": 4387,
      "Ġzakonodar": 4388,
      "Ġuplatnit": 4389,
      "Ġzaruky": 4390,
      "Ġpribli": 4391,
      "Ġokru": 4392,
      "Ġzasob": 4393,
      "Ġhorizon": 4394,
      "rity": 4395,
      "zovane": 4396,
      "Ġvyjimky": 4397,
      "Õ¡": 4398,
      "Ġfedera": 4399,
      "Ġprvku": 4400,
      "Ġuplatnuje": 4401,
      "Ġcar": 4402,
      "Ġsplnuje": 4403,
      "Ġalkoho": 4404,
      "Ġher": 4405,
      "Ġemise": 4406,
      "Ġtridy": 4407,
      "Ġzrizeni": 4408,
      "Ġnachaze": 4409,
      "Ġucastniky": 4410,
      "Ġposkytnute": 4411,
      "Ġzprostre": 4412,
      "Ġkalenda": 4413,
      "Ġkterymi": 4414,
      "Ġjejiz": 4415,
      "cial": 4416,
      "Ġopet": 4417,
      "Ġobjemu": 4418,
      "cnosti": 4419,
      "Ġustanove": 4420,
      "Ġhol": 4421,
      "Ġobdrze": 4422,
      "Ġodstra": 4423,
      "Ġseku": 4424,
      "cii": 4425,
      "bera": 4426,
      "Ġnadepsa": 4427,
      "Ġkterehokoli": 4428,
      "Ġlidske": 4429,
      "Ġzisku": 4430,
      "venci": 4431,
      "Ġspotrebitel": 4432,
      "meno": 4433,
      "Ġdany": 4434,
      "53": 4435,
      "Ġpodrobne": 4436,
      "54": 4437,
      "lozit": 4438,
      "Ġupres": 4439,
      "Ġzakonem": 4440,
      "Ġhlavy": 4441,
      "Ġpodmin": 4442,
      "Ġkata": 4443,
      "Ġuprav": 4444,
      "Ġnoveho": 4445,
      "Ġspanelsko": 4446,
      "Ġaktiva": 4447,
      "Ġinvesticni": 4448,
      "Ġmobi": 4449,
      "Ġurcena": 4450,
      "Ġtretiho": 4451,
      "Ġobsahem": 4452,
      "pada": 4453,
      "Ġmest": 4454,
      "Ġzamita": 4455,
      "Ġdohodou": 4456,
      "Ġapli": 4457,
      "Ġvysoke": 4458,
      "Ġpoznamena": 4459,
      "ml": 4460,
      "han": 4461,
      "Ġvedeni": 4462,
      "92": 4463,
      "Ġosobu": 4464,
      "Ġprijate": 4465,
      "Ġinc": 4466,
      "Ġkteremu": 4467,
      "Ġopod": 4468,
      "Ġzz": 4469,
      "Ġvypocita": 4470,
      "mar": 4471,
      "Ġregionu": 4472,
      "Ġlucembur": 4473,
      "ruje": 4474,
      "Ġtam": 4475,
      "Ġcelkova": 4476,
      "Ġmeho": 4477,
      "Ġalob": 4478,
      "riva": 4479,
      "Ġdese": 4480,
      "Ġodlis": 4481,
      "Ġ114": 4482,
      "Ġbezne": 4483,
      "Ġpracovniho": 4484,
      "Ġkrmi": 4485,
      "Ġpochazejici": 4486,
      "Ġtun": 4487,
      "Ġzadatele": 4488,
      "ĠÃ": 4489,
      "Ġurceny": 4490,
      "62": 4491,
      "Ġbyli": 4492,
      "Ġgrou": 4493,
      "kraji": 4494,
      "tve": 4495,
      "Ġspravnich": 4496,
      "Ġzkousky": 4497,
      "Ġvoda": 4498,
      "Ġinicia": 4499,
      "delne": 4500,
      "dniho": 4501,
      "Ðº": 4502,
      "Ġovli": 4503,
      "Ġmetoda": 4504,
      "Ġramcove": 4505,
      "Ġspravedli": 4506,
      "Ġnorem": 4507,
      "Ġfinal": 4508,
      "Ġpredkladajiciho": 4509,
      "Ġkvoty": 4510,
      "Ġobti": 4511,
      "Ġrepre": 4512,
      "Ġ265": 4513,
      "cenych": 4514,
      "Ġveri": 4515,
      "Ġzlepseni": 4516,
      "Ġinformacni": 4517,
      "Ġoleje": 4518,
      "Ġpozadovane": 4519,
      "Ġztraty": 4520,
      "81": 4521,
      "Ġdivi": 4522,
      "Ġprijimani": 4523,
      "Ġazy": 4524,
      "Ġmla": 4525,
      "Ġ109": 4526,
      "Ġpokynu": 4527,
      "Ġdemo": 4528,
      "Ġcerstve": 4529,
      "Ġpouzity": 4530,
      "Ġrespe": 4531,
      "Ġinsol": 4532,
      "Ġneoprav": 4533,
      "Ġslouzi": 4534,
      "Ġdostatec": 4535,
      "Ġvykladat": 4536,
      "Ġnemaji": 4537,
      "Ġprovozovatele": 4538,
      "Ġgi": 4539,
      "Ġcelkovy": 4540,
      "Ġue": 4541,
      "Ġlikvi": 4542,
      "Ġ870": 4543,
      "Ġpripoje": 4544,
      "Ġmalo": 4545,
      "toru": 4546,
      "Ġoverit": 4547,
      "Ġdiskriminace": 4548,
      "Ġkni": 4549,
      "Ġ210": 4550,
      "Ġradi": 4551,
      "Ġskutkove": 4552,
      "Ġkopi": 4553,
      "slost": 4554,
      "Ġcili": 4555,
      "Ġkolektivni": 4556,
      "Ġbankovni": 4557,
      "Ġuplynuti": 4558,
      "os": 4559,
      "Ġ1991": 4560,
      "87": 4561,
      "Ġcivi": 4562,
      "Ġdvorem": 4563,
      "Ġnavraceni": 4564,
      "Ġsamostat": 4565,
      "43": 4566,
      "Ġkodexu": 4567,
      "Ġ070": 4568,
      "Ġprispi": 4569,
      "noveho": 4570,
      "novana": 4571,
      "Ġpriori": 4572,
      "pustne": 4573,
      "Ġzalobe": 4574,
      "Ġatd": 4575,
      "Ġpouzivane": 4576,
      "leti": 4577,
      "sova": 4578,
      "Ïĥ": 4579,
      "Ġopodstatne": 4580,
      "kovani": 4581,
      "Ġhodin": 4582,
      "Ġpalu": 4583,
      "Ġzemedelskych": 4584,
      "zor": 4585,
      "Ġprodukce": 4586,
      "rin": 4587,
      "Ġtrhem": 4588,
      "Ġspolecnych": 4589,
      "Ġpohledavky": 4590,
      "Ġnezahr": 4591,
      "Ġchla": 4592,
      "pora": 4593,
      "Ġudele": 4594,
      "Ġdos": 4595,
      "Ġder": 4596,
      "tnosti": 4597,
      "Ġbli": 4598,
      "42": 4599,
      "sneho": 4600,
      "Ġiniciati": 4601,
      "Ġplatebni": 4602,
      "logicke": 4603,
      "Ġvli": 4604,
      "Ġpraxi": 4605,
      "chybni": 4606,
      "Ġzalozeni": 4607,
      "Ġdoza": 4608,
      "Ġou": 4609,
      "Ġzaroven": 4610,
      "cove": 4611,
      "nosu": 4612,
      "Ġvici": 4613,
      "Ġglo": 4614,
      "Ġpaten": 4615,
      "Ġpoznamka": 4616,
      "ktivi": 4617,
      "Ġjednotky": 4618,
      "Ġprodlouzeni": 4619,
      "Ġclr": 4620,
      "jde": 4621,
      "Ġstanoveneho": 4622,
      "Ġackoli": 4623,
      "Ġkonecnem": 4624,
      "Ġukraji": 4625,
      "Ġanalyzy": 4626,
      "Ġinternational": 4627,
      "Ġpreshranicni": 4628,
      "Ġziskane": 4629,
      "Ġukolu": 4630,
      "Ġnik": 4631,
      "Ġproka": 4632,
      "Ġobecna": 4633,
      "Ġdataba": 4634,
      "Ġzamysle": 4635,
      "Ġsty": 4636,
      "Ġzprostred": 4637,
      "suji": 4638,
      "Ġchi": 4639,
      "Ġnapadenem": 4640,
      "Ġzaznamena": 4641,
      "Ġvybaveni": 4642,
      "Ġstruktura": 4643,
      "Ġsporneho": 4644,
      "Ġjakou": 4645,
      "Ġmezinarodnich": 4646,
      "rci": 4647,
      "Ġcyk": 4648,
      "Ġevi": 4649,
      "Ġzapa": 4650,
      "pera": 4651,
      "Ġcharakte": 4652,
      "Ġupl": 4653,
      "Ġkartelove": 4654,
      "Ġude": 4655,
      "eny": 4656,
      "Ġumoznit": 4657,
      "Ġzaca": 4658,
      "rus": 4659,
      "Ġpoplatky": 4660,
      "Ġpravidlo": 4661,
      "Ġjimi": 4662,
      "Ġvynaloze": 4663,
      "Ġuctu": 4664,
      "Ġdanem": 4665,
      "Ð´": 4666,
      "Ġdil": 4667,
      "Ġnabidky": 4668,
      "dlech": 4669,
      "Ġfyzicke": 4670,
      "Ġhtt": 4671,
      "Ġmethyl": 4672,
      "Ġkapacity": 4673,
      "Ġcelo": 4674,
      "Ġevropskem": 4675,
      "52": 4676,
      "Ġprislusniky": 4677,
      "Ġcinu": 4678,
      "Ġposkytnuta": 4679,
      "Ġjistoty": 4680,
      "Ġnyb": 4681,
      "Ġtakovem": 4682,
      "Ġcleny": 4683,
      "jicimi": 4684,
      "Ġautor": 4685,
      "Ġudalosti": 4686,
      "Ġvyhradne": 4687,
      "Ġzalovany": 4688,
      "Ġpravidelne": 4689,
      "vnitr": 4690,
      "novany": 4691,
      "pt": 4692,
      "Ġpotvrzeni": 4693,
      "Ġsdi": 4694,
      "Ġmiry": 4695,
      "Ġ540": 4696,
      "Ġprepravu": 4697,
      "Ġspolecny": 4698,
      "tovych": 4699,
      "Ġ116": 4700,
      "Ġdocas": 4701,
      "Ġkapitole": 4702,
      "Ġuchova": 4703,
      "Ġpodavani": 4704,
      "Ġsmi": 4705,
      "Ġzalozena": 4706,
      "Ġponecha": 4707,
      "Ġpredem": 4708,
      "Ġzrusuje": 4709,
      "Ġucastnik": 4710,
      "Ġvlak": 4711,
      "Ġindividualni": 4712,
      "treti": 4713,
      "Ġzduraz": 4714,
      "port": 4715,
      "Ġuvnitr": 4716,
      "Ġopatre": 4717,
      "znive": 4718,
      "Ġochrannou": 4719,
      "Ġuvade": 4720,
      "Ġzahranicni": 4721,
      "Ġposkytovat": 4722,
      "Ġprijatych": 4723,
      "Ġisla": 4724,
      "Ġecb": 4725,
      "Ġstanovenymi": 4726,
      "Ġpet": 4727,
      "Ġspocivajici": 4728,
      "Ġuznavani": 4729,
      "kcni": 4730,
      "obu": 4731,
      "cla": 4732,
      "Ġrozhodovani": 4733,
      "Ġenergeti": 4734,
      "pove": 4735,
      "Ġoxi": 4736,
      "Ġzau": 4737,
      "Ġobecnych": 4738,
      "Ġuplne": 4739,
      "zujicich": 4740,
      "Ġustanovenim": 4741,
      "Ġnezverej": 4742,
      "Õ¸": 4743,
      "Ġjp": 4744,
      "Ġspravu": 4745,
      "Ġprona": 4746,
      "Ġspociva": 4747,
      "Ġvyh": 4748,
      "Ġdosud": 4749,
      "Ġpouzivat": 4750,
      "Ġjednou": 4751,
      "Ġhodnot": 4752,
      "Ġrozsireni": 4753,
      "Ġosobami": 4754,
      "Ġjo": 4755,
      "Ġcenu": 4756,
      "Ġzatreti": 4757,
      "seno": 4758,
      "Ġpovazuji": 4759,
      "Ġshr": 4760,
      "riti": 4761,
      "Ġobsahovat": 4762,
      "Ġtretim": 4763,
      "Ġkoe": 4764,
      "Ġpodpurne": 4765,
      "Ġregistraci": 4766,
      "Ġindex": 4767,
      "mni": 4768,
      "Ġ250": 4769,
      "Ġpubli": 4770,
      "mani": 4771,
      "Ġpeci": 4772,
      "ring": 4773,
      "Ġ117": 4774,
      "Ġgran": 4775,
      "Ġnikoliv": 4776,
      "Ġodstraneni": 4777,
      "Ġprovadecich": 4778,
      "Ġsankci": 4779,
      "Ġhostitel": 4780,
      "Ġture": 4781,
      "Ġpovazovana": 4782,
      "pira": 4783,
      "Ġzadnou": 4784,
      "Ġharmonizaci": 4785,
      "til": 4786,
      "Ġspolecna": 4787,
      "bira": 4788,
      "Ġaktivni": 4789,
      "vosti": 4790,
      "Ġair": 4791,
      "Ġnavrhy": 4792,
      "Ġtakovou": 4793,
      "Ġneexistuje": 4794,
      "Ġuveden": 4795,
      "nenim": 4796,
      "Ġradou": 4797,
      "Ġneplatnost": 4798,
      "Ġdruhem": 4799,
      "Ġzpravodaj": 4800,
      "Ġ138": 4801,
      "Ġjusti": 4802,
      "51": 4803,
      "tys": 4804,
      "ril": 4805,
      "Ġtitu": 4806,
      "Ġrovneho": 4807,
      "Ġcharakteristi": 4808,
      "Ġvypla": 4809,
      "Ġbyva": 4810,
      "Ġspp": 4811,
      "moz": 4812,
      "Ġstanovenou": 4813,
      "ÏĢ": 4814,
      "Ġoperaci": 4815,
      "Ġodmitnuti": 4816,
      "Ġnepresahujici": 4817,
      "Ġneprod": 4818,
      "Ġpredmetu": 4819,
      "Ġnavrhovatelka": 4820,
      "Ġteplo": 4821,
      "Ġneslu": 4822,
      "Ġprogramy": 4823,
      "Ġpochazejicich": 4824,
      "ovano": 4825,
      "Ġlidskych": 4826,
      "Ġvyzkumu": 4827,
      "Ġsluzbu": 4828,
      "Ġskod": 4829,
      "Ġpravidly": 4830,
      "Ġdr": 4831,
      "Ġvzdy": 4832,
      "Ġevro": 4833,
      "Ġproducen": 4834,
      "rnim": 4835,
      "Ġsoutezi": 4836,
      "Ġ126": 4837,
      "Ġhli": 4838,
      "Ġjimz": 4839,
      "Ġsama": 4840,
      "Ġpredchaze": 4841,
      "Ġkancelare": 4842,
      "Ġpozna": 4843,
      "Ġmajet": 4844,
      "Ġuvadeni": 4845,
      "pozor": 4846,
      "Ġ123": 4847,
      "Ġnespo": 4848,
      "Ġ520": 4849,
      "Ġslova": 4850,
      "Ġobecny": 4851,
      "Ġindu": 4852,
      "Ġkriterium": 4853,
      "Ġnari": 4854,
      "Ġschengen": 4855,
      "Ġdova": 4856,
      "Ġspolecnostmi": 4857,
      "Ġzalovane": 4858,
      "96": 4859,
      "ine": 4860,
      "Ġnybrz": 4861,
      "Ġjednotliv": 4862,
      "Ġucinnost": 4863,
      "Ġbulhar": 4864,
      "Ġnesluci": 4865,
      "Ġpas": 4866,
      "Ġpodane": 4867,
      "Ġ140": 4868,
      "Ġkou": 4869,
      "Ġjsem": 4870,
      "Ġpobo": 4871,
      "Ġer": 4872,
      "Ġodpovedet": 4873,
      "Ġumluva": 4874,
      "Ġsezna": 4875,
      "Ġukoly": 4876,
      "lp": 4877,
      "Ġhmo": 4878,
      "Ġpausalni": 4879,
      "ovny": 4880,
      "Ġtabulka": 4881,
      "Ġutva": 4882,
      "Ġcelkoveho": 4883,
      "Ġmozno": 4884,
      "Ġxx": 4885,
      "ficien": 4886,
      "Ġpy": 4887,
      "las": 4888,
      "Ġuzivatele": 4889,
      "Ġupozor": 4890,
      "Ġhk": 4891,
      "Ġtelevi": 4892,
      "Ġsouhrn": 4893,
      "Ġtaba": 4894,
      "Ġ400": 4895,
      "Ġpozadavcich": 4896,
      "Ġdopisem": 4897,
      "Ġsledova": 4898,
      "Ġstiznosti": 4899,
      "Ġkontrole": 4900,
      "Ġteze": 4901,
      "Ġzvlaste": 4902,
      "Ġshody": 4903,
      "cal": 4904,
      "Ġprezkoumat": 4905,
      "Ġrozpoctove": 4906,
      "Ġdomaha": 4907,
      "Ġgloba": 4908,
      "Ġnarozeni": 4909,
      "Ġdele": 4910,
      "Ġulozena": 4911,
      "Ġvzdu": 4912,
      "ks": 4913,
      "Ġ130": 4914,
      "Ġbelgie": 4915,
      "Ġkazdo": 4916,
      "Ġelektronicke": 4917,
      "Ġpriblizne": 4918,
      "Ġun": 4919,
      "Ġdanoveho": 4920,
      "seny": 4921,
      "Ġpovolani": 4922,
      "Ġneexistence": 4923,
      "Ġverejnou": 4924,
      "telneho": 4925,
      "Ġupresni": 4926,
      "Ġuverova": 4927,
      "Ġslovni": 4928,
      "Ġdokumentace": 4929,
      "rata": 4930,
      "Ġucelu": 4931,
      "Ġreziden": 4932,
      "cneho": 4933,
      "Ġoznam": 4934,
      "Ġidentifikacni": 4935,
      "Ġpodvodu": 4936,
      "Ġ320": 4937,
      "Ġpredlozila": 4938,
      "Ġfaci": 4939,
      "Ġuplatnovat": 4940,
      "Ġprovedena": 4941,
      "Ġregulacni": 4942,
      "Ġanalyza": 4943,
      "Ġokre": 4944,
      "48": 4945,
      "Ġ600": 4946,
      "rejme": 4947,
      "Ġ127": 4948,
      "ser": 4949,
      "cc": 4950,
      "Ġmaso": 4951,
      "Ġpredlozeny": 4952,
      "Ġeuratom": 4953,
      "Ġvyrabe": 4954,
      "Ġuznani": 4955,
      "Ġnaleha": 4956,
      "Ġmotoru": 4957,
      "sion": 4958,
      "ston": 4959,
      "Ġgroup": 4960,
      "Ġmeli": 4961,
      "Ġ267": 4962,
      "rovo": 4963,
      "Ġ230": 4964,
      "Ġtrestu": 4965,
      "dove": 4966,
      "zovany": 4967,
      "bnich": 4968,
      "Ġhranice": 4969,
      "Ġgo": 4970,
      "Ġveskera": 4971,
      "Ġporaden": 4972,
      "Ġpriznani": 4973,
      "Ġkrom": 4974,
      "Ġneprodlene": 4975,
      "au": 4976,
      "Ġvyv": 4977,
      "Ġkonstatoval": 4978,
      "Ġstanovenym": 4979,
      "Ġkoncentra": 4980,
      "Ġpuj": 4981,
      "Ġnaklada": 4982,
      "Ġpraze": 4983,
      "Ġexistuji": 4984,
      "Ġuver": 4985,
      "Ġpraxe": 4986,
      "Ġ119": 4987,
      "Ġdvoji": 4988,
      "Ġchranenym": 4989,
      "Ġvysky": 4990,
      "Ġxi": 4991,
      "obchodni": 4992,
      "Ġis": 4993,
      "zniho": 4994,
      "Ġinova": 4995,
      "Ġucet": 4996,
      "Ġpochybnosti": 4997,
      "Ġzucastnene": 4998,
      "ndes": 4999,
      "lada": 5000,
      "82": 5001,
      "Ġzneci": 5002,
      "Ġpodnikum": 5003,
      "Ġvyzi": 5004,
      "zil": 5005,
      "Ġpozemku": 5006,
      "Ġunijnim": 5007,
      "Ġelektriny": 5008,
      "Ġznacne": 5009,
      "Ġtechnologii": 5010,
      "Ġzadavani": 5011,
      "Ġnektery": 5012,
      "Ġzivoci": 5013,
      "Ġvyzad": 5014,
      "Ġnepod": 5015,
      "Ġkole": 5016,
      "Ġmonitorovani": 5017,
      "tum": 5018,
      "Ġpredlozene": 5019,
      "89": 5020,
      "Ġdopravce": 5021,
      "Ġdreva": 5022,
      "Ġobchodniho": 5023,
      "Ġuspoko": 5024,
      "Ġjinou": 5025,
      "Ġviii": 5026,
      "Ġrozsudkem": 5027,
      "Ġpripominky": 5028,
      "roveho": 5029,
      "Ġinformu": 5030,
      "latek": 5031,
      "tnost": 5032,
      "live": 5033,
      "Ġpotrebu": 5034,
      "Ġkru": 5035,
      "Ġvznikle": 5036,
      "jicimu": 5037,
      "Ġelektronickych": 5038,
      "Ġtkani": 5039,
      "Ġzahrnuji": 5040,
      "Ġzasil": 5041,
      "Ġzohledneni": 5042,
      "Ġjednim": 5043,
      "Ġneop": 5044,
      "Ġtransakce": 5045,
      "Ġkonkuren": 5046,
      "ton": 5047,
      "Ġkazdou": 5048,
      "Ġ113": 5049,
      "Ġpoho": 5050,
      "ovaciho": 5051,
      "Ġtajem": 5052,
      "Ġstavajicich": 5053,
      "Ġruz": 5054,
      "Ġzmenit": 5055,
      "rozu": 5056,
      "Ġceska": 5057,
      "Ġneroz": 5058,
      "Ġudrz": 5059,
      "Ġzalezitosti": 5060,
      "Ġkoeficien": 5061,
      "Ġstranou": 5062,
      "Ġvozidlo": 5063,
      "Ġsidlo": 5064,
      "enta": 5065,
      "tovo": 5066,
      "Ġshleda": 5067,
      "stavi": 5068,
      "Ġpridele": 5069,
      "Ġotazek": 5070,
      "Ġww": 5071,
      "cor": 5072,
      "Ġvykonavat": 5073,
      "ktem": 5074,
      "Ġodpocet": 5075,
      "Ġameri": 5076,
      "83": 5077,
      "matu": 5078,
      "Ġvyberu": 5079,
      "pl": 5080,
      "Ġ2574": 5081,
      "Ġulov": 5082,
      "Ġpripady": 5083,
      "Ġvymeny": 5084,
      "Ġcps": 5085,
      "ziden": 5086,
      "Ġmeri": 5087,
      "Ġobchodovani": 5088,
      "Ġvypracova": 5089,
      "Ġobil": 5090,
      "Ġjednu": 5091,
      "Ġpravnicke": 5092,
      "beni": 5093,
      "blo": 5094,
      "konec": 5095,
      "Ġmedi": 5096,
      "vatel": 5097,
      "Ġtac": 5098,
      "56": 5099,
      "Ġnamitek": 5100,
      "Ġzememi": 5101,
      "ktor": 5102,
      "Ġdocasne": 5103,
      "lozky": 5104,
      "ktivne": 5105,
      "pred": 5106,
      "Ġsmernic": 5107,
      "Ġzisk": 5108,
      "Ġporovna": 5109,
      "schop": 5110,
      "Ġ111": 5111,
      "novanych": 5112,
      "ovalo": 5113,
      "ws": 5114,
      "Ġdoplnuje": 5115,
      "lec": 5116,
      "rato": 5117,
      "Ġpozadovat": 5118,
      "zenim": 5119,
      "Îº": 5120,
      "Ġneopod": 5121,
      "Ġuzavrene": 5122,
      "Ġpomer": 5123,
      "Ġkupu": 5124,
      "010": 5125,
      "tnim": 5126,
      "Ġtribunalem": 5127,
      "Ġspecificke": 5128,
      "Ġuskutecni": 5129,
      "tuje": 5130,
      "Ġexist": 5131,
      "Ġudeleni": 5132,
      "Ġwi": 5133,
      "Ġinvesto": 5134,
      "Ġae": 5135,
      "Ġvladou": 5136,
      "Ġdvoustran": 5137,
      "Õ¥": 5138,
      "Ġuvedenemu": 5139,
      "rei": 5140,
      "Ġjmenovani": 5141,
      "Ġ721": 5142,
      "Ġpravdepodobne": 5143,
      "ktory": 5144,
      "Ġprijato": 5145,
      "Ġsjedna": 5146,
      "Ġspoj": 5147,
      "Ġzvyhod": 5148,
      "Ġkvalifikaci": 5149,
      "Ġstatnim": 5150,
      "gericht": 5151,
      "Ġsynte": 5152,
      "Ġderiva": 5153,
      "Ġvyvazejici": 5154,
      "Ġstatniho": 5155,
      "Ġsouhlas": 5156,
      "Ġzpusobilost": 5157,
      "Ġzeleznicni": 5158,
      "Ġfinancnim": 5159,
      "Ġkolate": 5160,
      "Ġolej": 5161,
      "Ġpredkladajicim": 5162,
      "oby": 5163,
      "ovacich": 5164,
      "Ð¸Ñ": 5165,
      "Ġsoudnich": 5166,
      "Ġmereni": 5167,
      "Ġshromaz": 5168,
      "Ġfil": 5169,
      "Ġdvema": 5170,
      "Ġkonfe": 5171,
      "Ġpodobe": 5172,
      "Ġirsko": 5173,
      "Ġsdeli": 5174,
      "Ġbodem": 5175,
      "Ġdosazeno": 5176,
      "Ġchor": 5177,
      "Ġnepouzi": 5178,
      "let": 5179,
      "Ġnakladech": 5180,
      "pc": 5181,
      "Ġpreferen": 5182,
      "Ġklasifikace": 5183,
      "Ġexte": 5184,
      "Ġsoudrz": 5185,
      "100": 5186,
      "Ġzati": 5187,
      "Ġnestan": 5188,
      "Ġpotreba": 5189,
      "Ġvzniku": 5190,
      "lori": 5191,
      "zce": 5192,
      "Ġctyr": 5193,
      "Ġctyri": 5194,
      "Ġsmlouvou": 5195,
      "Ġmono": 5196,
      "pni": 5197,
      "ovnim": 5198,
      "Ġzneuziti": 5199,
      "Ġduchodu": 5200,
      "pel": 5201,
      "Ġjednozna": 5202,
      "Ġusnad": 5203,
      "mz": 5204,
      "Ġsv": 5205,
      "Ġuspech": 5206,
      "Ġjednodu": 5207,
      "lech": 5208,
      "jich": 5209,
      "Ġspadaji": 5210,
      "Ġport": 5211,
      "Ġsvetle": 5212,
      "Ġcizi": 5213,
      "Ġostatne": 5214,
      "Ġjakych": 5215,
      "cty": 5216,
      "Ġchorvat": 5217,
      "Ġpovazovany": 5218,
      "Ġtext": 5219,
      "Ġvyuzit": 5220,
      "Ġdostupne": 5221,
      "Ġpodpore": 5222,
      "Ġplnem": 5223,
      "nge": 5224,
      "Ġzva": 5225,
      "Ġpraha": 5226,
      "Ġspravce": 5227,
      "Ġpodnetu": 5228,
      "Ġridici": 5229,
      "Ġimo": 5230,
      "Ġzahrnovat": 5231,
      "miny": 5232,
      "Ġmanzel": 5233,
      "Ġprokazani": 5234,
      "Ġveli": 5235,
      "Ġlepe": 5236,
      "Ġnesrovna": 5237,
      "Ġcelnim": 5238,
      "Ġtransakci": 5239,
      "Ġomezit": 5240,
      "Ġsubjektum": 5241,
      "9900": 5242,
      "solu": 5243,
      "Ġznamek": 5244,
      "Ġholding": 5245,
      "Ġfer": 5246,
      "Ġduver": 5247,
      "Ġobratu": 5248,
      "Ġproc": 5249,
      "Ġkonecneho": 5250,
      "Ġdomi": 5251,
      "Ġzaplaceni": 5252,
      "Ġnaproti": 5253,
      "Ġdobrovo": 5254,
      "Ġzrusit": 5255,
      "Ġtrestne": 5256,
      "Ġsil": 5257,
      "Ġobcanu": 5258,
      "Ġprenos": 5259,
      "Ġtrestniho": 5260,
      "Ġreprezen": 5261,
      "Ġiz": 5262,
      "Ġslouceni": 5263,
      "Ġvladu": 5264,
      "73": 5265,
      "Ġsesti": 5266,
      "Ġvlastnich": 5267,
      "pravi": 5268,
      "Ġkonanem": 5269,
      "Ġane": 5270,
      "Ġobsazene": 5271,
      "Ġvlaj": 5272,
      "Ġuzavi": 5273,
      "Ġzucastnenych": 5274,
      "Ġposkytne": 5275,
      "Ġinsta": 5276,
      "luji": 5277,
      "65": 5278,
      "produ": 5279,
      "Ġprosa": 5280,
      "Ġdoprave": 5281,
      "Ġ850": 5282,
      "Ġargumentace": 5283,
      "Ġkovu": 5284,
      "Ġprodavajici": 5285,
      "Ġvysvetleni": 5286,
      "Ġpreru": 5287,
      "Ġnemela": 5288,
      "Ġmasa": 5289,
      "ld": 5290,
      "Ġenvi": 5291,
      "79": 5292,
      "Ġkvot": 5293,
      "Ġpopisu": 5294,
      "Ġpodnikani": 5295,
      "Ġnavaznosti": 5296,
      "delene": 5297,
      "Ġmuseji": 5298,
      "nesenim": 5299,
      "Ġuskutec": 5300,
      "Ġvyhody": 5301,
      "Ġ1990": 5302,
      "Ġcertifika": 5303,
      "nech": 5304,
      "Ġpobre": 5305,
      "Ġtero": 5306,
      "Ġvlivu": 5307,
      "Ġneopodstatne": 5308,
      "Ġnamiste": 5309,
      "Ġobchodnim": 5310,
      "Ġpredsedy": 5311,
      "Ġwww": 5312,
      "Ġznalosti": 5313,
      "Ġ620": 5314,
      "Ġjakem": 5315,
      "ben": 5316,
      "Ġmetod": 5317,
      "Ġrozva": 5318,
      "Ġodkazy": 5319,
      "rodnim": 5320,
      "Ġ440": 5321,
      "Ġzamitnout": 5322,
      "ranit": 5323,
      "vka": 5324,
      "Ġsoulad": 5325,
      "Ġupravene": 5326,
      "Ġnakladum": 5327,
      "Ġvybra": 5328,
      "Ġjakehokoli": 5329,
      "Ġnomen": 5330,
      "ticky": 5331,
      "Ġprozatimni": 5332,
      "Ġevropskemu": 5333,
      "61": 5334,
      "Ġlotys": 5335,
      "Ġzpochybni": 5336,
      "Ġnesplni": 5337,
      "200": 5338,
      "Ġlatka": 5339,
      "klatu": 5340,
      "Ġaplika": 5341,
      "Ġpochy": 5342,
      "nus": 5343,
      "Ġnezavis": 5344,
      "nii": 5345,
      "Ġzakladu": 5346,
      "Ġkvalifikace": 5347,
      "lujici": 5348,
      "Ġ121": 5349,
      "Ġanglicti": 5350,
      "Ġkomunikaci": 5351,
      "Ġvyj": 5352,
      "Ġpodal": 5353,
      "Ġkm": 5354,
      "Ġcinske": 5355,
      "Ġnomenklatu": 5356,
      "Ġcastek": 5357,
      "Ġpapiry": 5358,
      "Ġpozadat": 5359,
      "Ġ139": 5360,
      "Ġpozastaveni": 5361,
      "Ġprislusna": 5362,
      "Ġother": 5363,
      "kona": 5364,
      "Ġexe": 5365,
      "tiny": 5366,
      "Ġmetodi": 5367,
      "Ġpodnet": 5368,
      "telnou": 5369,
      "Ġvolny": 5370,
      "Ġ135": 5371,
      "strova": 5372,
      "Ġteleko": 5373,
      "Ġspolecnem": 5374,
      "Ġkancelari": 5375,
      "Ġprimy": 5376,
      "Ġujmu": 5377,
      "Ġprijimat": 5378,
      "Ġban": 5379,
      "Ġwit": 5380,
      "fon": 5381,
      "Ġber": 5382,
      "Ġhroz": 5383,
      "Ġhodnote": 5384,
      "Ġskupin": 5385,
      "Ġzakotve": 5386,
      "Ġlodi": 5387,
      "Ġodpovidajicim": 5388,
      "bri": 5389,
      "ok": 5390,
      "Ġprizpusobeny": 5391,
      "Ġregistrace": 5392,
      "Ġprotiprav": 5393,
      "Ġnalezi": 5394,
      "Ġexcl": 5395,
      "Ġzakonodarce": 5396,
      "Ġvklada": 5397,
      "Ġnahradi": 5398,
      "Ġasi": 5399,
      "Ġopravy": 5400,
      "Ġveku": 5401,
      "soli": 5402,
      "mobi": 5403,
      "Ġciny": 5404,
      "63": 5405,
      "Ġzaplatit": 5406,
      "Ġovlivni": 5407,
      "tee": 5408,
      "Ġnega": 5409,
      "bro": 5410,
      "Ġmesta": 5411,
      "Ġdy": 5412,
      "Ġprumyslu": 5413,
      "Ġsloupci": 5414,
      "Ġintegra": 5415,
      "Ġsplnuji": 5416,
      "Ġargumentu": 5417,
      "dcich": 5418,
      "Ġhodnoti": 5419,
      "tografi": 5420,
      "Ġspecifikace": 5421,
      "Ġpouzita": 5422,
      "Ġvyvi": 5423,
      "Ġobsahuji": 5424,
      "Ġterori": 5425,
      "lezitost": 5426,
      "Ġmire": 5427,
      "Ġâī": 5428,
      "Ġalternativni": 5429,
      "Ġnestanovi": 5430,
      "Ġusnesenim": 5431,
      "Ġles": 5432,
      "Ġlabo": 5433,
      "Ġnizozemsko": 5434,
      "Ġstrategie": 5435,
      "Ġhlava": 5436,
      "Ġsoudci": 5437,
      "Ġvnitrniho": 5438,
      "Ġtem": 5439,
      "Ġpuvodne": 5440,
      "Ġvina": 5441,
      "Ġzahaji": 5442,
      "Ġkrize": 5443,
      "zeti": 5444,
      "Ġvypove": 5445,
      "Ġdoplnk": 5446,
      "Ġuzavrena": 5447,
      "Ġprepravy": 5448,
      "Ġdanovych": 5449,
      "Ġvyu": 5450,
      "Ġposta": 5451,
      "zdu": 5452,
      "Ġfacilita": 5453,
      "Ġtari": 5454,
      "Ġrozlisovaci": 5455,
      "Ġvysilani": 5456,
      "Ġfond": 5457,
      "nila": 5458,
      "Ġnedi": 5459,
      "Ġschvali": 5460,
      "Ġmezinarodniho": 5461,
      "Ġmori": 5462,
      "Ġtradi": 5463,
      "mensim": 5464,
      "Ġministerstvo": 5465,
      "Ġprovin": 5466,
      "Ġpoukaza": 5467,
      "Ġspanelske": 5468,
      "Ġzastupi": 5469,
      "Ġdovolavat": 5470,
      "Ġdotycneho": 5471,
      "Ġcdo": 5472,
      "Ġpodminkach": 5473,
      "ff": 5474,
      "dnu": 5475,
      "rky": 5476,
      "Ġodvolacim": 5477,
      "Ġelektricke": 5478,
      "Ġpodlehaji": 5479,
      "Ġpotraviny": 5480,
      "Ġposkytnuty": 5481,
      "Ġozname": 5482,
      "Ġplavidlo": 5483,
      "Ġrozvi": 5484,
      "stuji": 5485,
      "Ġset": 5486,
      "Ġzemich": 5487,
      "Ġ160": 5488,
      "nicke": 5489,
      "Ġlecivych": 5490,
      "mery": 5491,
      "Ġprofi": 5492,
      "ovna": 5493,
      "Ġakciona": 5494,
      "Ġposileni": 5495,
      "lenou": 5496,
      "Ġzem": 5497,
      "67": 5498,
      "Ġrozli": 5499,
      "Ġnepredstavu": 5500,
      "Ġnaposle": 5501,
      "Ġneumoz": 5502,
      "Ġing": 5503,
      "Ġcompa": 5504,
      "Ġkody": 5505,
      "Ġ263": 5506,
      "Ġdlouhodobe": 5507,
      "Ġdoklady": 5508,
      "69": 5509,
      "Ġ720": 5510,
      "Ġvymezeni": 5511,
      "Ġjich": 5512,
      "Ġsan": 5513,
      "Ġprinej": 5514,
      "Ġprispevky": 5515,
      "Ġskutkovych": 5516,
      "dnosti": 5517,
      "ces": 5518,
      "Ġodraz": 5519,
      "Ġ611": 5520,
      "Ġjudr": 5521,
      "Ġovliv": 5522,
      "Ġobhajobu": 5523,
      "Ġ132": 5524,
      "Ġukazatele": 5525,
      "ÏĤ": 5526,
      "Ġprinejmensim": 5527,
      "Ġ141": 5528,
      "Ġ124": 5529,
      "Ġzavazek": 5530,
      "Ġvyvola": 5531,
      "Ġpolozek": 5532,
      "Ġvystav": 5533,
      "Ġocekavani": 5534,
      "ger": 5535,
      "Ġnastroj": 5536,
      "dte": 5537,
      "des": 5538,
      "Ġduvodem": 5539,
      "covany": 5540,
      "Ġvyta": 5541,
      "Ġzaznamu": 5542,
      "Ġboj": 5543,
      "Ġleteckych": 5544,
      "Ïī": 5545,
      "Ġmedia": 5546,
      "Ġclenskemu": 5547,
      "ktni": 5548,
      "ler": 5549,
      "Ġ122": 5550,
      "Ġdopravu": 5551,
      "Ġuk": 5552,
      "Ġuspora": 5553,
      "veni": 5554,
      "Ġ145": 5555,
      "meji": 5556,
      "Ġprodeji": 5557,
      "Ġtuna": 5558,
      "Ġmaterial": 5559,
      "Ġsoucast": 5560,
      "Ġekonomicke": 5561,
      "ur": 5562,
      "Ġabsolu": 5563,
      "Ġrs": 5564,
      "Ġpozdeji": 5565,
      "Ġprijetim": 5566,
      "ned": 5567,
      "Ġnavrhovatelky": 5568,
      "Ġnr": 5569,
      "Ġprijaty": 5570,
      "dena": 5571,
      "mile": 5572,
      "Ġnasta": 5573,
      "Ġ050": 5574,
      "Ġtranzi": 5575,
      "Ġctvrteho": 5576,
      "wal": 5577,
      "Ġrozhodujici": 5578,
      "Ġpropa": 5579,
      "Ġzasadni": 5580,
      "Ġhospodarska": 5581,
      "Ġprozatimniho": 5582,
      "Ġposkytuji": 5583,
      "covych": 5584,
      "Ġakcii": 5585,
      "Ġsluzbami": 5586,
      "Ġodesla": 5587,
      "Ġodmitnout": 5588,
      "Ġponese": 5589,
      "Ġ730": 5590,
      "Ġchemickych": 5591,
      "Ġkoli": 5592,
      "am": 5593,
      "Ġprojekt": 5594,
      "din": 5595,
      "Ġposkytovane": 5596,
      "Ġvin": 5597,
      "Ġnosi": 5598,
      "Ġstavebnictvi": 5599,
      "Ġspotrebitelu": 5600,
      "Ġslovin": 5601,
      "Ġ134": 5602,
      "Ġnaruseni": 5603,
      "Ġjednotek": 5604,
      "Ġplyne": 5605,
      "Ġvyc": 5606,
      "rila": 5607,
      "Ġsmiseny": 5608,
      "Ġben": 5609,
      "Ġpodporovat": 5610,
      "Ġstrategi": 5611,
      "Ġpodpisu": 5612,
      "Ġzkoumat": 5613,
      "sor": 5614,
      "Ġupresne": 5615,
      "Ġplynou": 5616,
      "cnou": 5617,
      "Ġvztahujici": 5618,
      "Ġ128": 5619,
      "novala": 5620,
      "Ġ218": 5621,
      "Ġodpad": 5622,
      "Ġopra": 5623,
      "Ġsoukromeho": 5624,
      "Ġdohled": 5625,
      "telske": 5626,
      "Ġnaposledy": 5627,
      "Ġzpusobile": 5628,
      "Ġsli": 5629,
      "Ġwto": 5630,
      "Ġvztahy": 5631,
      "Ġ129": 5632,
      "Ġdospel": 5633,
      "Ġsluzbach": 5634,
      "Ġpoplatek": 5635,
      "Ġsport": 5636,
      "Ġkor": 5637,
      "Ġpotencialni": 5638,
      "Ġkonsoli": 5639,
      "tive": 5640,
      "Ġnasledek": 5641,
      "Ġdopustil": 5642,
      "Ġnamita": 5643,
      "Ġtype": 5644,
      "dno": 5645,
      "Ġobnoveni": 5646,
      "Î»": 5647,
      "Ġobnovi": 5648,
      "Ġnemusi": 5649,
      "Ġprovozovani": 5650,
      "rio": 5651,
      "Ġpouzitelna": 5652,
      "Ġif": 5653,
      "Ġpodstatou": 5654,
      "Ġsystemati": 5655,
      "kod": 5656,
      "Ġhospodarskem": 5657,
      "com": 5658,
      "Ġtykajiciho": 5659,
      "Ġucinit": 5660,
      "Ġdalsiho": 5661,
      "vymi": 5662,
      "Ġnepresahujicim": 5663,
      "Ġvyloucit": 5664,
      "sat": 5665,
      "Ġbis": 5666,
      "pisech": 5667,
      "Ġobce": 5668,
      "Ġverejny": 5669,
      "Ġprezkumneho": 5670,
      "Ġtretimi": 5671,
      "jo": 5672,
      "Ġzkusebni": 5673,
      "Ġhodnotou": 5674,
      "Ġcukr": 5675,
      "Ġjas": 5676,
      "rea": 5677,
      "mann": 5678,
      "Ġzprostredkova": 5679,
      "nia": 5680,
      "Ġxxx": 5681,
      "krat": 5682,
      "Ġsul": 5683,
      "Ġic": 5684,
      "Ġcerpa": 5685,
      "Ġjakmile": 5686,
      "zila": 5687,
      "Ġdovolaci": 5688,
      "Ġvyvoje": 5689,
      "quis": 5690,
      "Ġzpristupneni": 5691,
      "Ġditete": 5692,
      "Ġvyplyvajicich": 5693,
      "Ġuj": 5694,
      "Ġnespl": 5695,
      "Ġchzo": 5696,
      "Ġramcoveho": 5697,
      "Ġvhodna": 5698,
      "Ġ350": 5699,
      "Ġnazor": 5700,
      "64": 5701,
      "Ġkyselina": 5702,
      "tar": 5703,
      "Ġdopisu": 5704,
      "tami": 5705,
      "Ġzduraznuje": 5706,
      "taria": 5707,
      "Ġazyl": 5708,
      "Ġstudie": 5709,
      "Ġrn": 5710,
      "97": 5711,
      "Ġloka": 5712,
      "Ġsprava": 5713,
      "Ġbanka": 5714,
      "Ġanebo": 5715,
      "Ġkolo": 5716,
      "Ġoddile": 5717,
      "Ġvysledek": 5718,
      "Ġsmerujici": 5719,
      "lovane": 5720,
      "Ġzavadi": 5721,
      "Ġflu": 5722,
      "Ġdigitalni": 5723,
      "Ġcennych": 5724,
      "Ġpole": 5725,
      "Ġpripravy": 5726,
      "Ġzkusenosti": 5727,
      "Ġoduvodnene": 5728,
      "Ġvydele": 5729,
      "Ġvystave": 5730,
      "Ġkoordinaci": 5731,
      "Ġkomo": 5732,
      "Ġtextilie": 5733,
      "Ġsmiseneho": 5734,
      "Ġrybolovnych": 5735,
      "cov": 5736,
      "Ġzabranit": 5737,
      "psi": 5738,
      "Ġprovedene": 5739,
      "Ġzpetne": 5740,
      "Ġbro": 5741,
      "Ġspolehli": 5742,
      "Ġvenkova": 5743,
      "Ġmajetek": 5744,
      "Ġfyzickych": 5745,
      "Ġkomplex": 5746,
      "Ġpovinny": 5747,
      "Ġumoznuji": 5748,
      "wer": 5749,
      "Ġzvirata": 5750,
      "kar": 5751,
      "Ġbaleni": 5752,
      "dene": 5753,
      "Ġopravnene": 5754,
      "Ġzavere": 5755,
      "Ġkvalifikova": 5756,
      "Ġeston": 5757,
      "vym": 5758,
      "Ġnimz": 5759,
      "Ġpripomina": 5760,
      "stna": 5761,
      "Ġeta": 5762,
      "Ġnar": 5763,
      "Ġvypocte": 5764,
      "Ġcelku": 5765,
      "Ġsrov": 5766,
      "Ġzasahu": 5767,
      "Ġclenove": 5768,
      "Ġproml": 5769,
      "Î¼": 5770,
      "Ġmikro": 5771,
      "Ġmou": 5772,
      "Ġnevyza": 5773,
      "Ġenviron": 5774,
      "Ġtextilnich": 5775,
      "Ġ157": 5776,
      "Ġservice": 5777,
      "zin": 5778,
      "Ġzasah": 5779,
      "Ġem": 5780,
      "Ġacquis": 5781,
      "Ġplni": 5782,
      "Ġzprave": 5783,
      "mno": 5784,
      "Ġ133": 5785,
      "Ġkumu": 5786,
      "Ġlhutu": 5787,
      "Ġvztahovat": 5788,
      "Ġsigna": 5789,
      "Ġdelce": 5790,
      "Ġkombina": 5791,
      "Ġalkoholu": 5792,
      "Ġurcity": 5793,
      "Ġpopta": 5794,
      "Ġprilohou": 5795,
      "Ġvycerpana": 5796,
      "Ġspotrebni": 5797,
      "Ġneplatnosti": 5798,
      "Ġjednotneho": 5799,
      "Ġnedostatku": 5800,
      "Ġnavrhuji": 5801,
      "tosti": 5802,
      "Ġbav": 5803,
      "Ġund": 5804,
      "Ġdoklad": 5805,
      "Ġvydane": 5806,
      "jet": 5807,
      "Ġzod": 5808,
      "Ġinsolven": 5809,
      "Ġprezkoumani": 5810,
      "Ġzalozene": 5811,
      "rice": 5812,
      "Ġpolozka": 5813,
      "Ġ170": 5814,
      "Ġotazkou": 5815,
      "Ġostatnimi": 5816,
      "lena": 5817,
      "Ġizo": 5818,
      "Ġtzv": 5819,
      "Ġtrq": 5820,
      "Ġfunkcni": 5821,
      "Ġskutkovy": 5822,
      "Ġrozhodnuto": 5823,
      "Ġuvodni": 5824,
      "Ġucinnou": 5825,
      "Ġnemel": 5826,
      "Ġoverovani": 5827,
      "Ġovlada": 5828,
      "Ġuvedte": 5829,
      "Ġjakosti": 5830,
      "Ġindustri": 5831,
      "Ġpat": 5832,
      "vana": 5833,
      "obra": 5834,
      "Ġplyn": 5835,
      "Ġnedodr": 5836,
      "Ġzamitnuta": 5837,
      "Ġkol": 5838,
      "Ġupravuje": 5839,
      "bniho": 5840,
      "nn": 5841,
      "Ġharmonizova": 5842,
      "Ġlekar": 5843,
      "Ġspolecnym": 5844,
      "Ġukonce": 5845,
      "Ġusazovani": 5846,
      "Ġdopr": 5847,
      "Ġjmena": 5848,
      "Ġshode": 5849,
      "Ġuvery": 5850,
      "Ġpori": 5851,
      "Ġrozdily": 5852,
      "Ġslovy": 5853,
      "Ġzrejme": 5854,
      "Ġvseobecne": 5855,
      "Ġpaliva": 5856,
      "cher": 5857,
      "Ġneposky": 5858,
      "Ġzastupitel": 5859,
      "Ġzdroj": 5860,
      "Ġskladovani": 5861,
      "Ġorienta": 5862,
      "Ġpev": 5863,
      "Ġpota": 5864,
      "Ġstranka": 5865,
      "Ġprodleni": 5866,
      "Ġodsou": 5867,
      "Ġucinkem": 5868,
      "Ġ182": 5869,
      "Ġ529900": 5870,
      "Ġhodi": 5871,
      "Ġplatnych": 5872,
      "Ġjazyce": 5873,
      "Ġkralovstvim": 5874,
      "Ġobalu": 5875,
      "Ġkonkretnich": 5876,
      "Ġanalyzu": 5877,
      "Ġustni": 5878,
      "Ġvyhodno": 5879,
      "Ġprirodnich": 5880,
      "ments": 5881,
      "Ġperso": 5882,
      "Ġdispo": 5883,
      "nc": 5884,
      "Ġvysoko": 5885,
      "Ġformula": 5886,
      "Ġviceleteho": 5887,
      "Ġprumyslove": 5888,
      "Ġsablo": 5889,
      "Ġblo": 5890,
      "Ġdodavatele": 5891,
      "kovane": 5892,
      "Ġefsa": 5893,
      "Ġvedlo": 5894,
      "kovym": 5895,
      "Ġvyvozce": 5896,
      "Ġwith": 5897,
      "Õ¡Õ": 5898,
      "kyni": 5899,
      "Ġsystemem": 5900,
      "Ġdomaci": 5901,
      "Ġreprezentativni": 5902,
      "Ġvznika": 5903,
      "Ġindo": 5904,
      "Ġexeku": 5905,
      "Ġnegativni": 5906,
      "Ġnepra": 5907,
      "Ġ180": 5908,
      "Ġsbli": 5909,
      "dkyne": 5910,
      "Ġuspe": 5911,
      "Ġpobyt": 5912,
      "Ġsilnicni": 5913,
      "ir": 5914,
      "sme": 5915,
      "Ġprideleni": 5916,
      "Ġ137": 5917,
      "redi": 5918,
      "Ġdojde": 5919,
      "Ġposkytnutych": 5920,
      "Ġml": 5921,
      "Ġvodach": 5922,
      "Ġodru": 5923,
      "Ġvzory": 5924,
      "Ġprojekty": 5925,
      "Õ«": 5926,
      "stavy": 5927,
      "Ġvodi": 5928,
      "Ġhroma": 5929,
      "Ġpotrebne": 5930,
      "Ġtakovym": 5931,
      "Ġdozor": 5932,
      "Ġtelekomunika": 5933,
      "Ġrefor": 5934,
      "Ġuvazeni": 5935,
      "Ġzkre": 5936,
      "Ġenergeticke": 5937,
      "Ġletiste": 5938,
      "Ġobraz": 5939,
      "Ġnejvet": 5940,
      "klo": 5941,
      "Ġkapitalove": 5942,
      "Ġsocialnich": 5943,
      "Ġdefinici": 5944,
      "Ġjuris": 5945,
      "Ġekvi": 5946,
      "senstvi": 5947,
      "Ġhorizonta": 5948,
      "Ġkau": 5949,
      "Ġstranam": 5950,
      "Ġprovozovatel": 5951,
      "Ġpokro": 5952,
      "Ñĥ": 5953,
      "Ġudr": 5954,
      "Ġnapadeny": 5955,
      "Ġvelikosti": 5956,
      "Ġshrnuti": 5957,
      "Ġprodejni": 5958,
      "Ġpokut": 5959,
      "Ġvydavani": 5960,
      "Ġautono": 5961,
      "Ġpredchoziho": 5962,
      "Ġsoubor": 5963,
      "kladem": 5964,
      "Ġurciteho": 5965,
      "ktech": 5966,
      "Ġpusobnost": 5967,
      "Ġpripravek": 5968,
      "Ġprislusenstvi": 5969,
      "Ġzbyvajici": 5970,
      "Ġdeu": 5971,
      "dor": 5972,
      "mas": 5973,
      "Ġlisi": 5974,
      "Ġtest": 5975,
      "Ġmam": 5976,
      "Ġnektera": 5977,
      "Ġkonstatovani": 5978,
      "Ġpost": 5979,
      "Ġ131": 5980,
      "Ġdomne": 5981,
      "renim": 5982,
      "Ġplatna": 5983,
      "Ġanglictina": 5984,
      "Ġnabyti": 5985,
      "Ġpouzitim": 5986,
      "zenymi": 5987,
      "Ġvstupni": 5988,
      "Ġstanovisku": 5989,
      "pusoby": 5990,
      "Ġinvest": 5991,
      "rec": 5992,
      "Ġexpozic": 5993,
      "Ġmnoho": 5994,
      "Ġ143": 5995,
      "Ġuvo": 5996,
      "Ġzavisi": 5997,
      "finan": 5998,
      "Ġsuve": 5999,
      "Ġobja": 6000,
      "Ġsame": 6001,
      "Ġstatus": 6002,
      "Ġrestruktu": 6003,
      "Ġveterinarni": 6004,
      "Ġneuvede": 6005,
      "ĠÂ°": 6006,
      "ang": 6007,
      "fc": 6008,
      "Ġulozene": 6009,
      "lovaci": 6010,
      "Ġmeta": 6011,
      "Ġzeleniny": 6012,
      "Ġvykladany": 6013,
      "dence": 6014,
      "Ġumoznujici": 6015,
      "Ġdie": 6016,
      "Ġletu": 6017,
      "Ġdividen": 6018,
      "Ġprekro": 6019,
      "78": 6020,
      "Ġopatrenim": 6021,
      "Ġmotorovych": 6022,
      "Ġzpusoby": 6023,
      "Ġformou": 6024,
      "Ġuniver": 6025,
      "Ġnespada": 6026,
      "Ġmechanismus": 6027,
      "Ġneprimo": 6028,
      "Ġspotreby": 6029,
      "Ġpredbezna": 6030,
      "wie": 6031,
      "Ġvystup": 6032,
      "Ġuredniku": 6033,
      "cil": 6034,
      "Ġuzemni": 6035,
      "Ġpoti": 6036,
      "Ġfaze": 6037,
      "Ġskutkoveho": 6038,
      "Ġdostupnych": 6039,
      "Ġvystupu": 6040,
      "Ġ1049": 6041,
      "Ġrozdilu": 6042,
      "Ġlaborato": 6043,
      "valen": 6044,
      "pravit": 6045,
      "Ġautomobi": 6046,
      "Ġaktualizova": 6047,
      "Ġpozdejsich": 6048,
      "Ġkonzer": 6049,
      "Ġopravne": 6050,
      "Ġzalozeny": 6051,
      "Ġdodat": 6052,
      "Ġcestujicich": 6053,
      "Ġtechnicka": 6054,
      "Ġsplnovat": 6055,
      "Ġusnadni": 6056,
      "Ġrestruktura": 6057,
      "Ġpravne": 6058,
      "Ġchapa": 6059,
      "Ġzaznam": 6060,
      "Ġprestoze": 6061,
      "cteni": 6062,
      "Ġnadepsany": 6063,
      "Ġlogi": 6064,
      "Ġkandi": 6065,
      "Ġnajem": 6066,
      "Ġvyborem": 6067,
      "lil": 6068,
      "Ġletectvi": 6069,
      "Ġ340": 6070,
      "leho": 6071,
      "pol": 6072,
      "Ġpravidlech": 6073,
      "hlavi": 6074,
      "Ġzkouska": 6075,
      "Ġvznese": 6076,
      "Ġdocu": 6077,
      "Ġprvek": 6078,
      "Ġzasadami": 6079,
      "Ġprednost": 6080,
      "Ġkrajsky": 6081,
      "Ġctvrty": 6082,
      "Ġdeseti": 6083,
      "im": 6084,
      "tie": 6085,
      "Ġrozmno": 6086,
      "Ġpolitik": 6087,
      "vida": 6088,
      "Ġfarma": 6089,
      "bezpec": 6090,
      "Ġstiznost": 6091,
      "Ġproblemu": 6092,
      "Ġstredo": 6093,
      "Ġ900": 6094,
      "Ġomezujici": 6095,
      "Ġprovadeji": 6096,
      "Ġdusi": 6097,
      "neu": 6098,
      "Ġuzivatelu": 6099,
      "Ġtier": 6100,
      "Ġsplni": 6101,
      "Ġopravnen": 6102,
      "Ġpodany": 6103,
      "Ġkupni": 6104,
      "Ġtitulu": 6105,
      "Ġpovr": 6106,
      "Ġformy": 6107,
      "Ġgru": 6108,
      "Ġqu": 6109,
      "Ġsubsi": 6110,
      "Ġ640": 6111,
      "Ġoznacovani": 6112,
      "Ġkombinovane": 6113,
      "Ġpodminkami": 6114,
      "Ġvzoru": 6115,
      "Ġsol": 6116,
      "Ġhttp": 6117,
      "mys": 6118,
      "Ġposkytovatel": 6119,
      "Ġtechnologie": 6120,
      "Ġvymahani": 6121,
      "Ġpruzku": 6122,
      "Ġnemecku": 6123,
      "Ġ168": 6124,
      "Ġjedine": 6125,
      "Ġodlisne": 6126,
      "Ġurceno": 6127,
      "dace": 6128,
      "casti": 6129,
      "Ġveta": 6130,
      "Ġdesti": 6131,
      "Ġtotoznosti": 6132,
      "Ġdokumentaci": 6133,
      "Ġ700": 6134,
      "mino": 6135,
      "Ġdotcenym": 6136,
      "Ġpredlozenych": 6137,
      "Ġrozhodla": 6138,
      "Ġneopravnene": 6139,
      "Ġhlavnich": 6140,
      "rd": 6141,
      "Ġvymenu": 6142,
      "Ġdrivejsi": 6143,
      "missi": 6144,
      "int": 6145,
      "Ġinformacim": 6146,
      "Ġtrhy": 6147,
      "Ġvyzadova": 6148,
      "Ġzarizenim": 6149,
      "tis": 6150,
      "Ġpredstavovat": 6151,
      "Ġfle": 6152,
      "Ġsklada": 6153,
      "Ġobez": 6154,
      "Ġpozaduje": 6155,
      "Ġpodobnych": 6156,
      "Ġidentifikace": 6157,
      "Ġprijemci": 6158,
      "Ġsoudce": 6159,
      "Ġdemokra": 6160,
      "Ġdrube": 6161,
      "Ġzelenina": 6162,
      "Ïħ": 6163,
      "Ġpojistne": 6164,
      "bec": 6165,
      "Ġenergii": 6166,
      "Ġuroky": 6167,
      "Ġcelou": 6168,
      "Ġfin": 6169,
      "Ġ234": 6170,
      "Ġomezena": 6171,
      "Ġvyvod": 6172,
      "Ġjapon": 6173,
      "Ġzvysit": 6174,
      "Ġ148": 6175,
      "Ġpostoj": 6176,
      "gne": 6177,
      "Ġpodnikem": 6178,
      "Ġdominan": 6179,
      "Ġtykajicim": 6180,
      "Ġinteg": 6181,
      "Ġgminy": 6182,
      "Ġpouzivaji": 6183,
      "Ġmed": 6184,
      "Ġslozky": 6185,
      "Ġpracovniky": 6186,
      "sse": 6187,
      "Ġnejd": 6188,
      "Ġnevyp": 6189,
      "dav": 6190,
      "Ġschopnosti": 6191,
      "hat": 6192,
      "Ġpredchazejici": 6193,
      "bp": 6194,
      "Ġgeme": 6195,
      "vanych": 6196,
      "Ġzakladem": 6197,
      "Ġsouboru": 6198,
      "Ġsireni": 6199,
      "mon": 6200,
      "Ġeuropa": 6201,
      "Ġdoslym": 6202,
      "Ġsrovnatelne": 6203,
      "Ġdochazi": 6204,
      "Ġsuveren": 6205,
      "Ġpoznamenat": 6206,
      "Ġ147": 6207,
      "Ġpopulace": 6208,
      "jak": 6209,
      "Ġnezo": 6210,
      "Ġvykonavajici": 6211,
      "Ġsubsidia": 6212,
      "line": 6213,
      "ree": 6214,
      "Ġ610": 6215,
      "Ġzavest": 6216,
      "Ġprovedeno": 6217,
      "Ġintenzi": 6218,
      "clanek": 6219,
      "Ġpropusteni": 6220,
      "Ġdodrzeni": 6221,
      "Ġbri": 6222,
      "Ġstezova": 6223,
      "Ġvyhotove": 6224,
      "Ġnezpo": 6225,
      "Ġsubjektem": 6226,
      "Ġvyhleda": 6227,
      "Ġnapad": 6228,
      "Ġseu": 6229,
      "covanych": 6230,
      "Ġnazvu": 6231,
      "cnost": 6232,
      "Ġtabulky": 6233,
      "Ġesvo": 6234,
      "Ġdotycny": 6235,
      "Ġneexistenci": 6236,
      "lite": 6237,
      "Ġprekroci": 6238,
      "Ġmajitel": 6239,
      "Ġzvlastniho": 6240,
      "Ġopo": 6241,
      "Ġ480": 6242,
      "Ġpoko": 6243,
      "Ġhlavnim": 6244,
      "Ġdozoru": 6245,
      "Ġ142": 6246,
      "Ġlidove": 6247,
      "rn": 6248,
      "Ġnejvyiho": 6249,
      "Ġprislusnemu": 6250,
      "Ġletadla": 6251,
      "Ġplanovani": 6252,
      "Ġdokumentum": 6253,
      "Ġrespekt": 6254,
      "Ġdatem": 6255,
      "Ġobjedna": 6256,
      "Ġjurisdi": 6257,
      "Ġpsy": 6258,
      "Ġjudikaturou": 6259,
      "Ġvydan": 6260,
      "Ġekvivalen": 6261,
      "Ġsbi": 6262,
      "Ġpovaha": 6263,
      "Ġ1234": 6264,
      "Ġneome": 6265,
      "Ġumisteni": 6266,
      "tova": 6267,
      "nujicich": 6268,
      "Ġtvrdila": 6269,
      "Ġvykaza": 6270,
      "tovi": 6271,
      "Ġrizenich": 6272,
      "Ġretailove": 6273,
      "metri": 6274,
      "Ġmimoradne": 6275,
      "mbo": 6276,
      "Ġspi": 6277,
      "lozil": 6278,
      "rami": 6279,
      "Ġzivota": 6280,
      "Ġomezujicich": 6281,
      "Ġsamotne": 6282,
      "Ġvydano": 6283,
      "Ġdana": 6284,
      "Ġ241": 6285,
      "Ġnejdrive": 6286,
      "leno": 6287,
      "Ġzak": 6288,
      "Ġvyroku": 6289,
      "Ġobyvatel": 6290,
      "Ġvcas": 6291,
      "Ġodneti": 6292,
      "ngu": 6293,
      "Ġprijal": 6294,
      "Ġvladni": 6295,
      "cation": 6296,
      "Ġvolnem": 6297,
      "Ġnemohla": 6298,
      "tini": 6299,
      "Ġkomunikace": 6300,
      "Ġpotvrzuje": 6301,
      "Ġdluhu": 6302,
      "Ġzodpove": 6303,
      "hova": 6304,
      "brane": 6305,
      "Ġ2150": 6306,
      "Ġjimiz": 6307,
      "cre": 6308,
      "Ġ151": 6309,
      "Ġmajitele": 6310,
      "Ġoduvodnit": 6311,
      "Ġost": 6312,
      "Ġrozpocet": 6313,
      "reneho": 6314,
      "Ġmonta": 6315,
      "Ġnalezite": 6316,
      "Ġvety": 6317,
      "Ġrybar": 6318,
      "Ġdalsim": 6319,
      "Ġprumerne": 6320,
      "Ġpovazovan": 6321,
      "Ġstredi": 6322,
      "Ġminera": 6323,
      "Ġsenatem": 6324,
      "ard": 6325,
      "Ġbezprostredne": 6326,
      "tora": 6327,
      "Ġpripravu": 6328,
      "noval": 6329,
      "Ġkyseliny": 6330,
      "Ġusili": 6331,
      "Ġeuropean": 6332,
      "Ġire": 6333,
      "Ġpovrch": 6334,
      "ÐµÐ½": 6335,
      "Ġvysoce": 6336,
      "Ġcimz": 6337,
      "Ġkratkod": 6338,
      "Ġ722": 6339,
      "Ġpry": 6340,
      "Ġcenne": 6341,
      "Ġpan": 6342,
      "Ġpredsedkyne": 6343,
      "Ġdcerine": 6344,
      "Ġirska": 6345,
      "Ġskleni": 6346,
      "Ġ310": 6347,
      "Ġporadenstvi": 6348,
      "Ġ800": 6349,
      "Ġ178": 6350,
      "Ġzajistuje": 6351,
      "Ġvyre": 6352,
      "Ġjednom": 6353,
      "Ġdekla": 6354,
      "ovatel": 6355,
      "nam": 6356,
      "Ġbudouci": 6357,
      "ssa": 6358,
      "Ġmaterske": 6359,
      "Ġuvah": 6360,
      "Ġukonci": 6361,
      "Ġdozada": 6362,
      "Ġstejny": 6363,
      "Ġmaloobchodni": 6364,
      "Ġdukazni": 6365,
      "pp": 6366,
      "Ġdotazni": 6367,
      "Ġpochybeni": 6368,
      "Ġsnizit": 6369,
      "cion": 6370,
      "Ġbazi": 6371,
      "Ġkonkurence": 6372,
      "Ġtypy": 6373,
      "Ġ243": 6374,
      "Ġodmitl": 6375,
      "Ġtepla": 6376,
      "Ġzavaza": 6377,
      "Ġpovaze": 6378,
      "Ġmg": 6379,
      "cionalni": 6380,
      "wo": 6381,
      "Ġopatrenimi": 6382,
      "Ġkdo": 6383,
      "Ġautomaticky": 6384,
      "Ġumele": 6385,
      "Ġryb": 6386,
      "Ġnemuz": 6387,
      "Ġuprch": 6388,
      "Ġzaclene": 6389,
      "Ġzameny": 6390,
      "tila": 6391,
      "Ġinformuje": 6392,
      "Ġantidumpingove": 6393,
      "Ġdeuts": 6394,
      "Ġnavrhem": 6395,
      "Ġzre": 6396,
      "Ġ060": 6397,
      "Ġveskerych": 6398,
      "Ġvzit": 6399,
      "stej": 6400,
      "Ġnesrovnalosti": 6401,
      "Ġpredani": 6402,
      "Ġvychazet": 6403,
      "09": 6404,
      "Ġmol": 6405,
      "Ġantidumpingoveho": 6406,
      "rny": 6407,
      "Ġdiskriminaci": 6408,
      "Ġprislusnici": 6409,
      "hof": 6410,
      "Ġportfo": 6411,
      "Ġvydal": 6412,
      "Ġ152": 6413,
      "Ġcasove": 6414,
      "Ġ149": 6415,
      "onech": 6416,
      "Ġovlivnit": 6417,
      "Ġmani": 6418,
      "smy": 6419,
      "Ġpneu": 6420,
      "Ġstruktury": 6421,
      "Ġtkaniny": 6422,
      "Ġduverne": 6423,
      "Ġ146": 6424,
      "Ġ167": 6425,
      "Ġhlaseni": 6426,
      "malne": 6427,
      "Ġ155": 6428,
      "berg": 6429,
      "sniho": 6430,
      "verzi": 6431,
      "Ġara": 6432,
      "Ġplatebnich": 6433,
      "Ġpresved": 6434,
      "reno": 6435,
      "Ġmsc": 6436,
      "beru": 6437,
      "nopravni": 6438,
      "Ġradek": 6439,
      "Ġprevede": 6440,
      "Ġjednat": 6441,
      "Ġtabulce": 6442,
      "Ġskoly": 6443,
      "Ġspolecnostem": 6444,
      "ĠâĢ²": 6445,
      "alni": 6446,
      "Ġvyrazne": 6447,
      "Ġgov": 6448,
      "Ġpudy": 6449,
      "novaly": 6450,
      "Ġline": 6451,
      "Ġposla": 6452,
      "Ġrozhodci": 6453,
      "Ġfrance": 6454,
      "Ġ1068": 6455,
      "Ġodpovidaji": 6456,
      "Ġkolateral": 6457,
      "Ġvelky": 6458,
      "ĠÂ±": 6459,
      "Ġfrancouzska": 6460,
      "Ġstandardni": 6461,
      "lli": 6462,
      "Ġmeze": 6463,
      "Ġpneumati": 6464,
      "Ġtrida": 6465,
      "Ġ630": 6466,
      "Ġdulezi": 6467,
      "Ġjakekoliv": 6468,
      "Ġkle": 6469,
      "Ġziskany": 6470,
      "Ġvazne": 6471,
      "Ġprevysujici": 6472,
      "Ġdelega": 6473,
      "Ġpredbeznou": 6474,
      "Ġtrzich": 6475,
      "Ġvyzaduji": 6476,
      "Ġvojen": 6477,
      "Ġomezuje": 6478,
      "Ġobecnou": 6479,
      "Ġpripustnosti": 6480,
      "Ġtransparentnosti": 6481,
      "Ġcharakter": 6482,
      "Ġneutra": 6483,
      "Ġdodavatel": 6484,
      "Ġdojit": 6485,
      "ĠÎµ": 6486,
      "Ġzakladnim": 6487,
      "Ġstanovil": 6488,
      "Ġprovedeny": 6489,
      "ovanim": 6490,
      "Ġlesni": 6491,
      "Ġnebezpec": 6492,
      "Ġvyznamu": 6493,
      "Ġmezinarodnim": 6494,
      "chten": 6495,
      "Ġprokazano": 6496,
      "df": 6497,
      "Ġstatutu": 6498,
      "Ġnezverejneny": 6499,
      "Ġznamkou": 6500,
      "Ġjevi": 6501,
      "Ġ261": 6502,
      "72": 6503,
      "socia": 6504,
      "Ġindone": 6505,
      "Ġskla": 6506,
      "Ġreprodu": 6507,
      "lon": 6508,
      "Ġdluho": 6509,
      "Ġjednoznacne": 6510,
      "Ġskol": 6511,
      "sh": 6512,
      "Ġ330": 6513,
      "Ġdiplo": 6514,
      "Ġodmeny": 6515,
      "Ġsly": 6516,
      "Ġnovou": 6517,
      "Ġpracovnici": 6518,
      "Ġvzdale": 6519,
      "Ġxii": 6520,
      "Ġverejnopravni": 6521,
      "Ġpodez": 6522,
      "Ġkasacnim": 6523,
      "Ġopravnem": 6524,
      "Ġace": 6525,
      "Ġrq": 6526,
      "Ġzvu": 6527,
      "Ġ550": 6528,
      "Ġdalsimi": 6529,
      "Ġfrancouzske": 6530,
      "vla": 6531,
      "Ġrodiny": 6532,
      "Ġvl": 6533,
      "Ġpozby": 6534,
      "Ġpredavani": 6535,
      "Ġpozice": 6536,
      "Ġdusevniho": 6537,
      "ĠÎ±": 6538,
      "Ġnaprav": 6539,
      "ticka": 6540,
      "Ġspravedl": 6541,
      "Ġopravnena": 6542,
      "Ġzpracovane": 6543,
      "Ġstejnou": 6544,
      "Ġnese": 6545,
      "ire": 6546,
      "Ġjediny": 6547,
      "Ġneobsahuje": 6548,
      "Ġauditu": 6549,
      "Ġtlou": 6550,
      "Ġprocesnich": 6551,
      "Ġzjednoduseni": 6552,
      "Ġuprchli": 6553,
      "Ġdospela": 6554,
      "Ġuse": 6555,
      "Ġmodu": 6556,
      "Ġth": 6557,
      "Ġlepsi": 6558,
      "Ġore": 6559,
      "Ġ410": 6560,
      "Ġprodukci": 6561,
      "Ġhranic": 6562,
      "Ġeco": 6563,
      "Ġmohli": 6564,
      "Ġzduraznit": 6565,
      "Ġtloust": 6566,
      "Ġlecive": 6567,
      "Ġpalube": 6568,
      "Ġprepravni": 6569,
      "Ġobu": 6570,
      "Ġzazna": 6571,
      "Ġnebudou": 6572,
      "flu": 6573,
      "svet": 6574,
      "Ġrez": 6575,
      "Ġprevysujicim": 6576,
      "Ġzadavatel": 6577,
      "Ġspravnim": 6578,
      "Ġskonceni": 6579,
      "Ġokamzite": 6580,
      "Ġgeo": 6581,
      "Ġkodex": 6582,
      "Ġschopnost": 6583,
      "Ġuroku": 6584,
      "Ġklien": 6585,
      "Ġpristavu": 6586,
      "Ġnasledujiciho": 6587,
      "ĠÐ¿": 6588,
      "Ġnavrhovatele": 6589,
      "Ġzachovat": 6590,
      "Ġziskanych": 6591,
      "Ġzamestnavatele": 6592,
      "Ġnedisk": 6593,
      "Ġspotrebe": 6594,
      "Ġutr": 6595,
      "rbi": 6596,
      "Ġprilezitosti": 6597,
      "Ġcelkovou": 6598,
      "Ġ1989": 6599,
      "Ġnetyka": 6600,
      "Ġfaktory": 6601,
      "Ġland": 6602,
      "mid": 6603,
      "Ġkompen": 6604,
      "Ġdopis": 6605,
      "Ġpodminku": 6606,
      "pady": 6607,
      "vost": 6608,
      "jne": 6609,
      "Ġly": 6610,
      "Ġobsazena": 6611,
      "Ġzvire": 6612,
      "lovi": 6613,
      "Ġretez": 6614,
      "Ġbundes": 6615,
      "tla": 6616,
      "Ġsplatnosti": 6617,
      "Ġdedi": 6618,
      "Ġitalska": 6619,
      "mat": 6620,
      "Ġdelka": 6621,
      "cle": 6622,
      "Ġgemein": 6623,
      "Ġnational": 6624,
      "Ġplochy": 6625,
      "Ġnasl": 6626,
      "Ġautori": 6627,
      "Ġmin": 6628,
      "Ġprumysloveho": 6629,
      "Ġprici": 6630,
      "Ġsouhlasu": 6631,
      "Ġkonkretnim": 6632,
      "Ġrozhodovaci": 6633,
      "Ġpoplatni": 6634,
      "Ġporusila": 6635,
      "Ġvypracovani": 6636,
      "Ġzpusobene": 6637,
      "Ġproblemy": 6638,
      "Ġsmot": 6639,
      "Ġjader": 6640,
      "Ġodstou": 6641,
      "Ġsar": 6642,
      "Ġpovolen": 6643,
      "Ġdavek": 6644,
      "Ġrovna": 6645,
      "Ġprislusnik": 6646,
      "Ġmoderni": 6647,
      "Ġzpochybnuje": 6648,
      "Ġstaro": 6649,
      "Ġvlastniho": 6650,
      "Ġodkazem": 6651,
      "Ġ0207": 6652,
      "Ġcelek": 6653,
      "Ġzucastnenymi": 6654,
      "Ġpovazovano": 6655,
      "Ġpruvod": 6656,
      "Ġrychle": 6657,
      "Ġ165": 6658,
      "Ġzvlastnim": 6659,
      "Ġodstavcich": 6660,
      "Ġpredpisech": 6661,
      "Ġrozdilne": 6662,
      "00000": 6663,
      "Ġose": 6664,
      "Ġreto": 6665,
      "ed": 6666,
      "Ġpreprave": 6667,
      "Ġpredchozim": 6668,
      "Ġnedostatek": 6669,
      "vuli": 6670,
      "lovou": 6671,
      "Ġpolska": 6672,
      "Ġdotcen": 6673,
      "Ġnezbytnych": 6674,
      "Ġprotipravnim": 6675,
      "Ġkur": 6676,
      "Ġdotycnych": 6677,
      "ĠâĪļ": 6678,
      "siona": 6679,
      "Ġpostovni": 6680,
      "Ġzalobkyn": 6681,
      "Ġ999": 6682,
      "Ġrsms": 6683,
      "Ġpohlavi": 6684,
      "Ġklimatu": 6685,
      "Ġstihani": 6686,
      "Ġnakonec": 6687,
      "Ġstejnych": 6688,
      "skod": 6689,
      "Ġsit": 6690,
      "mp": 6691,
      "Ġdruz": 6692,
      "Ġstanoven": 6693,
      "Ġpredchazeni": 6694,
      "Ġ144": 6695,
      "Ġpracovnim": 6696,
      "Ġuzitec": 6697,
      "Ġspolkove": 6698,
      "Ġrqrr": 6699,
      "toku": 6700,
      "Ġvysledkem": 6701,
      "Ġkvuli": 6702,
      "Ġhmotne": 6703,
      "Ġinn": 6704,
      "76": 6705,
      "Ġslozi": 6706,
      "Ġderivaty": 6707,
      "Ġdolo": 6708,
      "Ġ1987": 6709,
      "padne": 6710,
      "Ġdovolaciho": 6711,
      "Ġplete": 6712,
      "Ġpostupne": 6713,
      "Ġpriznava": 6714,
      "Ġpromen": 6715,
      "vene": 6716,
      "Ġnesporne": 6717,
      "oba": 6718,
      "Ġsod": 6719,
      "Ġ153": 6720,
      "Ġzdani": 6721,
      "Ġodchylne": 6722,
      "Ġvyslechnuti": 6723,
      "Ġpapir": 6724,
      "Ġrakousko": 6725,
      "Ġinternetove": 6726,
      "Ġdokud": 6727,
      "Ġinspekce": 6728,
      "Ġsha": 6729,
      "Ġopira": 6730,
      "pit": 6731,
      "Ġmaro": 6732,
      "Ġtvaru": 6733,
      "ĠpoÅĤ": 6734,
      "Ġfaktoru": 6735,
      "Ġprihlaska": 6736,
      "Ġadvokati": 6737,
      "Ġvyuzivat": 6738,
      "Ġzahranici": 6739,
      "Ġzjisteno": 6740,
      "1000": 6741,
      "Ġsest": 6742,
      "Ġdoprava": 6743,
      "Ġsoukromy": 6744,
      "Ġnavy": 6745,
      "Ġovsem": 6746,
      "Ġbezpecnostnich": 6747,
      "Ġnijak": 6748,
      "Ġpohledavek": 6749,
      "Ġupravena": 6750,
      "Ġstrategii": 6751,
      "cat": 6752,
      "Ġplc": 6753,
      "sin": 6754,
      "ĠÎ¼": 6755,
      "Ġix": 6756,
      "ficialni": 6757,
      "Ġodpovedny": 6758,
      "Ġmz": 6759,
      "odit": 6760,
      "zf": 6761,
      "Ġposkytla": 6762,
      "Ġnevyplyva": 6763,
      "tivne": 6764,
      "Ġpozadavkum": 6765,
      "Ġpreprav": 6766,
      "Ġsekre": 6767,
      "Ġsal": 6768,
      "zol": 6769,
      "Ġvyjimka": 6770,
      "Ġjakykoli": 6771,
      "sm": 6772,
      "Ġhisto": 6773,
      "Ġ1107": 6774,
      "Ġnemcina": 6775,
      "dri": 6776,
      "Ġscho": 6777,
      "delit": 6778,
      "Ġenvironmenta": 6779,
      "leha": 6780,
      "Ġdoplnujici": 6781,
      "Ġplany": 6782,
      "Ġnite": 6783,
      "Ġvsemi": 6784,
      "Î¹Î±": 6785,
      "Ġminu": 6786,
      "Ġupravou": 6787,
      "Ġpodile": 6788,
      "Ġvelko": 6789,
      "sichni": 6790,
      "sch": 6791,
      "Ġpravda": 6792,
      "cio": 6793,
      "rti": 6794,
      "Ġbrz": 6795,
      "Ġriziku": 6796,
      "Ġzalobnimu": 6797,
      "Ġzadavatele": 6798,
      "Ġsouvislost": 6799,
      "ciden": 6800,
      "Ġzastoupeni": 6801,
      "Ġvsichni": 6802,
      "Ġrati": 6803,
      "bank": 6804,
      "Ġnedostatecne": 6805,
      "sce": 6806,
      "Ġmala": 6807,
      "pustit": 6808,
      "Ġneprokaza": 6809,
      "Ġsplnena": 6810,
      "Ġvkladu": 6811,
      "Ġopravneny": 6812,
      "Ġpreklad": 6813,
      "Ġmana": 6814,
      "Ġprofesni": 6815,
      "Ġzvlast": 6816,
      "Ġzadnem": 6817,
      "Ġumyslu": 6818,
      "Ġzameru": 6819,
      "Ġrybolovne": 6820,
      "Ġnahradit": 6821,
      "Ġ1408": 6822,
      "Ġprekra": 6823,
      "Ġdovolava": 6824,
      "Ġuradem": 6825,
      "Ġ414": 6826,
      "Ġprize": 6827,
      "Ġobdrzeni": 6828,
      "Ġshromazd": 6829,
      "sul": 6830,
      "Ġjednotny": 6831,
      "Ġnavrhovane": 6832,
      "Ġzivocisneho": 6833,
      "Ġ1515": 6834,
      "Ġ0003": 6835,
      "Ġkonfedera": 6836,
      "ctem": 6837,
      "Ġvykonem": 6838,
      "Ġslozek": 6839,
      "Ġ940": 6840,
      "Ġzamestnanec": 6841,
      "Ġdanovym": 6842,
      "Ġpodrobnosti": 6843,
      "Ġzastupcu": 6844,
      "Ġszbp": 6845,
      "Ġsad": 6846,
      "Ġmau": 6847,
      "Ġiec": 6848,
      "Ġpotvrdil": 6849,
      "Î¿Ïħ": 6850,
      "Ġprevzeti": 6851,
      "ĠÑģ": 6852,
      "Ġjakakoli": 6853,
      "Ġprohli": 6854,
      "Ġska": 6855,
      "Ġarchi": 6856,
      "Ġspolkova": 6857,
      "Ġdodatek": 6858,
      "Ġskola": 6859,
      "lovodi": 6860,
      "Ġaro": 6861,
      "Ġ2694": 6862,
      "Ġpobi": 6863,
      "Ġrozvoji": 6864,
      "Ġpovoleno": 6865,
      "Ġone": 6866,
      "ovatele": 6867,
      "lti": 6868,
      "ham": 6869,
      "Ġridic": 6870,
      "Ġargumentaci": 6871,
      "Ġpojiste": 6872,
      "Ġzabyvat": 6873,
      "Ġbliz": 6874,
      "Ġfinanci": 6875,
      "Ġpredlozil": 6876,
      "Ġven": 6877,
      "Ġeti": 6878,
      "Ġ175": 6879,
      "Ġ237": 6880,
      "Ġ2023": 6881,
      "Ġ154": 6882,
      "Ġ156": 6883,
      "Ġnehod": 6884,
      "Ġduvodne": 6885,
      "Ġekologi": 6886,
      "Ġverejnost": 6887,
      "Ġmira": 6888,
      "Ġlichten": 6889,
      "Ġáĥ": 6890,
      "Ġpridelovani": 6891,
      "Ġportugalsko": 6892,
      "tace": 6893,
      "Ġkonkurenceschop": 6894,
      "fikovane": 6895,
      "Ġuziti": 6896,
      "cnimi": 6897,
      "Ġmleka": 6898,
      "ee": 6899,
      "Ġurcita": 6900,
      "Ġitalske": 6901,
      "mentem": 6902,
      "Ġdovozce": 6903,
      "Ġvecne": 6904,
      "Ġzcasti": 6905,
      "Ġnediskrimina": 6906,
      "Ð¼": 6907,
      "Ġnakup": 6908,
      "Ġhorizontalni": 6909,
      "Ġdefinova": 6910,
      "Ġpotravina": 6911,
      "Ġtelefon": 6912,
      "Ġnezaji": 6913,
      "Ġdomacnosti": 6914,
      "Ġreditele": 6915,
      "daci": 6916,
      "Ġdodrzovat": 6917,
      "Ġzemepisne": 6918,
      "Ġzahrnuty": 6919,
      "Ġglu": 6920,
      "Ġfakti": 6921,
      "Ġnepredstavuje": 6922,
      "Ġdopady": 6923,
      "Ġobsazenych": 6924,
      "cialne": 6925,
      "Ġrizenim": 6926,
      "Ġpouzivanych": 6927,
      "Ġkomer": 6928,
      "Ġkabe": 6929,
      "Ġmozna": 6930,
      "Ġvlakna": 6931,
      "Ġtuzem": 6932,
      "covana": 6933,
      "Ġlichtenstej": 6934,
      "nol": 6935,
      "Ġnaroky": 6936,
      "Ġvrch": 6937,
      "Ġmer": 6938,
      "Ġjudikaturu": 6939,
      "Ġzarazene": 6940,
      "methyl": 6941,
      "Ġnejlep": 6942,
      "Ġspecifickych": 6943,
      "Ġlovi": 6944,
      "Ġlov": 6945,
      "Ġola": 6946,
      "Ġ158": 6947,
      "Ġudaji": 6948,
      "Ġodpady": 6949,
      "Ġ184": 6950,
      "Ġministerstva": 6951,
      "Ġfrancouzstina": 6952,
      "Ġvyjimku": 6953,
      "Ġaspekty": 6954,
      "Ġdumpingu": 6955,
      "Ġpripustne": 6956,
      "lice": 6957,
      "Ġposuzovaci": 6958,
      "Ġsoucasnosti": 6959,
      "Ġdanovy": 6960,
      "ovanou": 6961,
      "Ġneprimerene": 6962,
      "Ġdopustila": 6963,
      "Ġobo": 6964,
      "Ġuzavrenych": 6965,
      "vkem": 6966,
      "Ġarti": 6967,
      "Ġspadajici": 6968,
      "nita": 6969,
      "Ġdialo": 6970,
      "cus": 6971,
      "Ġprosazovani": 6972,
      "Ġ239": 6973,
      "Ġnemoh": 6974,
      "nic": 6975,
      "Ġprovadecim": 6976,
      "Ġpreve": 6977,
      "dra": 6978,
      "bility": 6979,
      "Ġchemicke": 6980,
      "regi": 6981,
      "Ġbali": 6982,
      "ktivity": 6983,
      "Ġusnadneni": 6984,
      "Ġporad": 6985,
      "Ġnemecka": 6986,
      "Ġprovi": 6987,
      "Ġdatabaze": 6988,
      "ys": 6989,
      "Ġzminene": 6990,
      "rovat": 6991,
      "Ġmiru": 6992,
      "Ġoproti": 6993,
      "Ġvnitrostatnimu": 6994,
      "Ġsluzebni": 6995,
      "Ġsh": 6996,
      "Ġsho": 6997,
      "Ġstejnym": 6998,
      "Ġbrusel": 6999,
      "Ġkonsta": 7000,
      "Ġdodavek": 7001,
      "Ġprira": 7002,
      "Ġvynalozene": 7003,
      "Ġceleho": 7004,
      "Ġabsolutni": 7005,
      "mes": 7006,
      "Ġcasu": 7007,
      "ctovani": 7008,
      "Ġvubec": 7009,
      "Ġvyrobnich": 7010,
      "Ġupresnuje": 7011,
      "ses": 7012,
      "Ġodkaza": 7013,
      "mber": 7014,
      "Ġschengenskeho": 7015,
      "Ġdansko": 7016,
      "Ġucastnika": 7017,
      "Ġorigi": 7018,
      "oni": 7019,
      "telnym": 7020,
      "Ġbezplat": 7021,
      "Ġinciden": 7022,
      "Ġvydelecne": 7023,
      "Ġpresu": 7024,
      "Ġ847": 7025,
      "Ġpodminkou": 7026,
      "Ġnesouhla": 7027,
      "Ġslyseni": 7028,
      "Ġnezi": 7029,
      "Ġzatyka": 7030,
      "Ġpolitika": 7031,
      "Ġ169": 7032,
      "Ð·": 7033,
      "povida": 7034,
      "Ġnasledovne": 7035,
      "san": 7036,
      "ropera": 7037,
      "Ġodol": 7038,
      "Ġodep": 7039,
      "Ġzatizeni": 7040,
      "stevni": 7041,
      "snych": 7042,
      "Ġnakupu": 7043,
      "Ġvyjedna": 7044,
      "Ġstejnem": 7045,
      "Ġinteropera": 7046,
      "Ġvychozi": 7047,
      "Ġpreven": 7048,
      "Ġprani": 7049,
      "Ġodvo": 7050,
      "Ġdohodly": 7051,
      "Ġvykazuji": 7052,
      "toto": 7053,
      "Ġ543": 7054,
      "cts": 7055,
      "Ġstyku": 7056,
      "Ġnaviga": 7057,
      "Ġtemer": 7058,
      "Ġspecificky": 7059,
      "zdo": 7060,
      "Ġurednich": 7061,
      "nula": 7062,
      "Ġ1988": 7063,
      "Ġzahajit": 7064,
      "Ġpodpis": 7065,
      "kta": 7066,
      "Ġuvadeji": 7067,
      "Ġgemeinde": 7068,
      "Ġschvalovani": 7069,
      "3800": 7070,
      "Ġ185": 7071,
      "Ġnabidek": 7072,
      "znost": 7073,
      "Ġ166": 7074,
      "Ġvykladana": 7075,
      "Ġstudii": 7076,
      "Ġyl": 7077,
      "Ġdrzitele": 7078,
      "Ġzkresle": 7079,
      "Ġ176": 7080,
      "Ġnamitku": 7081,
      "Ġsklenikovych": 7082,
      "zovych": 7083,
      "Ġdiky": 7084,
      "Ġrelevantnich": 7085,
      "stry": 7086,
      "Ġpredkladajicimu": 7087,
      "Ġpolozene": 7088,
      "Ġzmir": 7089,
      "ĠÃĹ": 7090,
      "rian": 7091,
      "Ġnizozemske": 7092,
      "Ġsebe": 7093,
      "Ġcho": 7094,
      "Ġinformacnich": 7095,
      "Ġpozmenene": 7096,
      "Ġsdele": 7097,
      "Ġvedecke": 7098,
      "Ġrecko": 7099,
      "Ġpodavajici": 7100,
      "rka": 7101,
      "Ġzajisteno": 7102,
      "Ġzohledneny": 7103,
      "Ġlegality": 7104,
      "Ġinst": 7105,
      "Ġnakladni": 7106,
      "Ġobvyk": 7107,
      "Î³": 7108,
      "dae": 7109,
      "Ġzjistit": 7110,
      "Ġrws": 7111,
      "sahujici": 7112,
      "Ġzeleza": 7113,
      "Ġfir": 7114,
      "muz": 7115,
      "Ġdovolatel": 7116,
      "Ġsekretaria": 7117,
      "Ġmodi": 7118,
      "Ġ213800": 7119,
      "slav": 7120,
      "Ġpolitiku": 7121,
      "jte": 7122,
      "Ġjedineho": 7123,
      "tera": 7124,
      "Ġisland": 7125,
      "Ġvysa": 7126,
      "Ġjednotka": 7127,
      "mne": 7128,
      "Ġ161": 7129,
      "Ġnedoslo": 7130,
      "Ð³": 7131,
      "Ġgeneral": 7132,
      "staven": 7133,
      "louzi": 7134,
      "Ġmigra": 7135,
      "zejici": 7136,
      "Ġdotcenou": 7137,
      "Ġnezmene": 7138,
      "Ġmimorad": 7139,
      "Ġmon": 7140,
      "Ġzakonu": 7141,
      "Ġurcovani": 7142,
      "Ġkladne": 7143,
      "Ġpopulaci": 7144,
      "Ġzavazna": 7145,
      "Ġjinde": 7146,
      "Ġmr": 7147,
      "Ġzasila": 7148,
      "Ġznamo": 7149,
      "kuje": 7150,
      "Ġregistrova": 7151,
      "Ġinvesticnich": 7152,
      "gani": 7153,
      "Ġtextilni": 7154,
      "Ġneumoznuje": 7155,
      "Ġzate": 7156,
      "Ġzarazeny": 7157,
      "Ġ171": 7158,
      "Ġzneuzivajici": 7159,
      "Ġprumeru": 7160,
      "Ġsportovni": 7161,
      "Ġpouzivany": 7162,
      "Ġinternetu": 7163,
      "Ġ840": 7164,
      "Ġnabyva": 7165,
      "Ġpredtim": 7166,
      "Ġzahajenim": 7167,
      "Ġuznava": 7168,
      "Ġ258": 7169,
      "Ġumiste": 7170,
      "Ġsvymi": 7171,
      "Ġlidi": 7172,
      "Ġverejnem": 7173,
      "Ġdelsi": 7174,
      "Ġnachazeji": 7175,
      "Ġneprove": 7176,
      "dnost": 7177,
      "Ġregistr": 7178,
      "Ġzapsana": 7179,
      "Ġreditelstvi": 7180,
      "Ġvzni": 7181,
      "Ġwil": 7182,
      "Ġrecka": 7183,
      "Ġzba": 7184,
      "Ġneurci": 7185,
      "Ġobiloviny": 7186,
      "Ġsekuriti": 7187,
      "Ġdilci": 7188,
      "Ġ290": 7189,
      "Ġradneho": 7190,
      "Ġsuverenni": 7191,
      "Ġpaliv": 7192,
      "Ġkalendarni": 7193,
      "Ġidentifikaci": 7194,
      "Ġlinii": 7195,
      "Ġtotozne": 7196,
      "Ġjakoukoli": 7197,
      "Ġnikdy": 7198,
      "Ġlitev": 7199,
      "Ġcasto": 7200,
      "okrou": 7201,
      "Ġadres": 7202,
      "Ġucinna": 7203,
      "Ġnadra": 7204,
      "Ġnemecke": 7205,
      "Ġorganismu": 7206,
      "Ġprukazu": 7207,
      "Õ¥Õ": 7208,
      "Ġprerusit": 7209,
      "Ġctvrte": 7210,
      "ropy": 7211,
      "Ġstatnimi": 7212,
      "Î¹Îº": 7213,
      "zove": 7214,
      "Ġtuku": 7215,
      "Ġprocentni": 7216,
      "Ġnakladani": 7217,
      "Ġporovnani": 7218,
      "chaft": 7219,
      "Ġzaokrou": 7220,
      "Ġprevza": 7221,
      "zovana": 7222,
      "Ġsolida": 7223,
      "Ġvysoky": 7224,
      "ĠÃ°": 7225,
      "Ġpodporuje": 7226,
      "Ġnedostatec": 7227,
      "Ġ226": 7228,
      "burg": 7229,
      "Ġjednanim": 7230,
      "Ġdokonceni": 7231,
      "Ġprou": 7232,
      "Ġnahrazuji": 7233,
      "Ġhrube": 7234,
      "Ġskro": 7235,
      "Ġ172": 7236,
      "Ġztrat": 7237,
      "Ġsblizovani": 7238,
      "Ġname": 7239,
      "ĠâĹ": 7240,
      "Ġoznameny": 7241,
      "Ġobvod": 7242,
      "Ġdila": 7243,
      "Ġhospodarskym": 7244,
      "Ġdvaca": 7245,
      "Ġolaf": 7246,
      "Ġdet": 7247,
      "Ġresp": 7248,
      "hodnoceni": 7249,
      "Ġvzne": 7250,
      "Ġdrzitel": 7251,
      "Ġobehu": 7252,
      "jsich": 7253,
      "Ġurednici": 7254,
      "latu": 7255,
      "sic": 7256,
      "Ġuh": 7257,
      "Ġvykonnosti": 7258,
      "ceu": 7259,
      "Ġnepriznive": 7260,
      "Ġnele": 7261,
      "Ġplatba": 7262,
      "Ġvyrobcem": 7263,
      "Ġprimych": 7264,
      "Ġvolba": 7265,
      "Ġnedovo": 7266,
      "cao": 7267,
      "Ġchra": 7268,
      "Ġtro": 7269,
      "ĠâĪĴ": 7270,
      "Ġnazna": 7271,
      "Ġterorismu": 7272,
      "Ġpredbeznych": 7273,
      "Ġlegislativniho": 7274,
      "Ġpodporit": 7275,
      "Ġpreziden": 7276,
      "Ġodmen": 7277,
      "nacti": 7278,
      "Ġkapacita": 7279,
      "Ġdoka": 7280,
      "Ġrozme": 7281,
      "Ġucastnic": 7282,
      "Ġnarodu": 7283,
      "Ġ253": 7284,
      "Ġfotografi": 7285,
      "Ġ347": 7286,
      "Ġnepuvod": 7287,
      "Ġodborniku": 7288,
      "tori": 7289,
      "Ġuplatnuji": 7290,
      "zkou": 7291,
      "Ġfyzicka": 7292,
      "Ġzapojeni": 7293,
      "ĠÏĦ": 7294,
      "Ġ337": 7295,
      "Ġpredlozen": 7296,
      "Ġzobra": 7297,
      "Ġzme": 7298,
      "predseda": 7299,
      "metru": 7300,
      "Ġ190": 7301,
      "Ġexterni": 7302,
      "Ġobvininy": 7303,
      "trva": 7304,
      "Ġsnizovani": 7305,
      "Ġnevyzaduje": 7306,
      "Ġrocne": 7307,
      "Ġoduvodneno": 7308,
      "vetv": 7309,
      "Ġ260": 7310,
      "Ġpolsko": 7311,
      "Ġcislem": 7312,
      "Ġucetnictvi": 7313,
      "Ġkaucu": 7314,
      "fer": 7315,
      "Ġustanovenich": 7316,
      "dujici": 7317,
      "Ġ204": 7318,
      "Ġprospe": 7319,
      "Ġdoruceni": 7320,
      "Ġstanovila": 7321,
      "Ġdovoznich": 7322,
      "ÑĢÐ°": 7323,
      "cro": 7324,
      "Ġ0805": 7325,
      "Ġtechnicky": 7326,
      "Ġ1001": 7327,
      "Ġcommissi": 7328,
      "Ġjedinym": 7329,
      "Ġvyhrady": 7330,
      "Ġinternetovych": 7331,
      "sed": 7332,
      "Ġ270": 7333,
      "Ġslucitelnosti": 7334,
      "Ġomezene": 7335,
      "Ġnesmeji": 7336,
      "Ġspis": 7337,
      "Ġstanoviskem": 7338,
      "Ġmanipu": 7339,
      "zdory": 7340,
      "Ġ510": 7341,
      "Ð½Ð°": 7342,
      "Ġmax": 7343,
      "Ġhlu": 7344,
      "renou": 7345,
      "Ġvis": 7346,
      "Ġnavzdory": 7347,
      "Ġusi": 7348,
      "Ġskupine": 7349,
      "Ġsklene": 7350,
      "kladne": 7351,
      "Ġskupinu": 7352,
      "Ġprinci": 7353,
      "Ġobdrzi": 7354,
      "Ġ164": 7355,
      "tka": 7356,
      "mor": 7357,
      "Ġpevne": 7358,
      "lio": 7359,
      "Ġvyjadrit": 7360,
      "Ġmarke": 7361,
      "zeji": 7362,
      "Ġservi": 7363,
      "Ġklu": 7364,
      "lymi": 7365,
      "lome": 7366,
      "Ġ343": 7367,
      "skopravni": 7368,
      "ovina": 7369,
      "Ġpolozit": 7370,
      "fy": 7371,
      "Ġvhodnych": 7372,
      "vity": 7373,
      "Ġpokracovat": 7374,
      "Ġkontrolou": 7375,
      "Ġobvinineho": 7376,
      "race": 7377,
      "Ġjejimi": 7378,
      "Ġzamitnut": 7379,
      "Ġmadarsko": 7380,
      "Ġdanova": 7381,
      "Ġzalozeno": 7382,
      "Ġpododstavcem": 7383,
      "Ġmalych": 7384,
      "Ġspravedlnosti": 7385,
      "Ġ187": 7386,
      "Ġzamestnanosti": 7387,
      "Ġurcil": 7388,
      "vidla": 7389,
      "Ġprisne": 7390,
      "Ġzavaznosti": 7391,
      "Ġministe": 7392,
      "Ġnektereho": 7393,
      "Ġverze": 7394,
      "Ġiniciativy": 7395,
      "Ġ240": 7396,
      "Ġokruh": 7397,
      "sie": 7398,
      "Ġpredchozich": 7399,
      "Ġexistujici": 7400,
      "Ġpritomnosti": 7401,
      "Ġ450": 7402,
      "Ġletadel": 7403,
      "Ġradio": 7404,
      "Ġhorni": 7405,
      "Ġ256": 7406,
      "Ġprovoznich": 7407,
      "Ġpouzitelnosti": 7408,
      "ceneho": 7409,
      "Ġpenezni": 7410,
      "Ġ299": 7411,
      "Ġurcen": 7412,
      "Ġvysokou": 7413,
      "Ġ205": 7414,
      "ĠâĮ": 7415,
      "Ġskutecneho": 7416,
      "Ġlimitu": 7417,
      "Ġpodstaty": 7418,
      "Ġkontaktni": 7419,
      "Ġvydat": 7420,
      "Ġrizikove": 7421,
      "Ġzpochybnit": 7422,
      "Ġcestujici": 7423,
      "Ġrezimy": 7424,
      "nale": 7425,
      "Ġocekava": 7426,
      "Ġptaku": 7427,
      "Ġomezeny": 7428,
      "Ġrovnova": 7429,
      "Ġpredlozenim": 7430,
      "Ġpristoupi": 7431,
      "Ġnemeni": 7432,
      "Ġadvokatem": 7433,
      "Ġdisku": 7434,
      "Ġvyznamnou": 7435,
      "nutych": 7436,
      "Ġakcie": 7437,
      "bl": 7438,
      "Ġorganizacemi": 7439,
      "Ġvyvoznich": 7440,
      "Ġrafi": 7441,
      "tos": 7442,
      "Ġâī¤": 7443,
      "Ġintegr": 7444,
      "Ġpravnickych": 7445,
      "Ġpoliticke": 7446,
      "Ġdospet": 7447,
      "Ġsazebniku": 7448,
      "Ġkal": 7449,
      "Ġzlepsit": 7450,
      "Ġkazdoro": 7451,
      "Ġprilis": 7452,
      "Ġkuku": 7453,
      "Ġnemohl": 7454,
      "Ġtrub": 7455,
      "Ġspojenem": 7456,
      "Ġpropojeni": 7457,
      "Ġmilni": 7458,
      "Ġvychazejicimu": 7459,
      "leva": 7460,
      "Ġuredniho": 7461,
      "Ġprekazky": 7462,
      "raci": 7463,
      "mestna": 7464,
      "Ġrychlosti": 7465,
      "Ġzachova": 7466,
      "Ġias": 7467,
      "Ġprovedenych": 7468,
      "Ġlist": 7469,
      "Ġelec": 7470,
      "hydro": 7471,
      "Ġostatnim": 7472,
      "znim": 7473,
      "Ġpenzi": 7474,
      "Ġpodava": 7475,
      "Ġopakovane": 7476,
      "Ġtito": 7477,
      "Ġzacle": 7478,
      "ech": 7479,
      "Ġneschop": 7480,
      "ras": 7481,
      "Ġprojednani": 7482,
      "Ġproducentu": 7483,
      "Ġorganizacni": 7484,
      "Ġsmluvnimi": 7485,
      "Ġvyrovnani": 7486,
      "ndu": 7487,
      "hodne": 7488,
      "tost": 7489,
      "ker": 7490,
      "Ġrust": 7491,
      "Ġnepodleha": 7492,
      "Ġkrajskeho": 7493,
      "Ġkroky": 7494,
      "nder": 7495,
      "Ġodeslani": 7496,
      "Ġvyvazejicich": 7497,
      "Ġvon": 7498,
      "Ġlegitimniho": 7499,
      "Ġlegitimni": 7500,
      "Ġzakazuje": 7501,
      "Ġtechnickou": 7502,
      "Ġnejvetsi": 7503,
      "Ġlea": 7504,
      "Ġpodpisy": 7505,
      "ovanym": 7506,
      "nga": 7507,
      "Ġprumyslovych": 7508,
      "Ġpodepsana": 7509,
      "rach": 7510,
      "Ġrokem": 7511,
      "Ġcest": 7512,
      "Ġ211": 7513,
      "Ġnejedna": 7514,
      "Ġposuzovaneho": 7515,
      "Ġusporadani": 7516,
      "Ġotazkach": 7517,
      "Ġpozadala": 7518,
      "blem": 7519,
      "zovala": 7520,
      "Ġodchylky": 7521,
      "Ġque": 7522,
      "put": 7523,
      "Ġdocument": 7524,
      "Ġextra": 7525,
      "Ġ163": 7526,
      "setz": 7527,
      "zovanych": 7528,
      "Ġ162": 7529,
      "Ġpracovnika": 7530,
      "Ġofc": 7531,
      "Ġiran": 7532,
      "Ġlou": 7533,
      "Ġobezret": 7534,
      "Ġposkytl": 7535,
      "Ġskodu": 7536,
      "Ġinstitucemi": 7537,
      "Ġvlastnim": 7538,
      "Ġrozum": 7539,
      "Ġpodvodum": 7540,
      "nosy": 7541,
      "Ġznamce": 7542,
      "lila": 7543,
      "Ġchro": 7544,
      "Ġlit": 7545,
      "Ġvyjimec": 7546,
      "Ġpristroju": 7547,
      "Ġpacien": 7548,
      "Ġkoordinace": 7549,
      "Ġobci": 7550,
      "Ġpal": 7551,
      "Ġpovinnou": 7552,
      "mocni": 7553,
      "Ġneznamena": 7554,
      "Ġpisemnosti": 7555,
      "Ġcompany": 7556,
      "Ġprovedla": 7557,
      "Ġvyznamny": 7558,
      "Ġkoru": 7559,
      "senych": 7560,
      "vrop": 7561,
      "Ġcourt": 7562,
      "Ġsmerem": 7563,
      "Ġzkousek": 7564,
      "Ġrostliny": 7565,
      "Ġzahranicnich": 7566,
      "Ġnejz": 7567,
      "Ġnestran": 7568,
      "Ġbou": 7569,
      "Ġvyskytu": 7570,
      "Ġosi": 7571,
      "Ġnesta": 7572,
      "ÖĢ": 7573,
      "Ġreakci": 7574,
      "Ġzpravidla": 7575,
      "Ġodbornych": 7576,
      "Ġnew": 7577,
      "Ġprihlasky": 7578,
      "Ġdelky": 7579,
      "Ġpuvodnich": 7580,
      "Ġpenez": 7581,
      "skol": 7582,
      "Ġifrs": 7583,
      "Ġsoustavy": 7584,
      "Ġvytvorit": 7585,
      "Ġkva": 7586,
      "Ġsvoji": 7587,
      "Ġtakovemu": 7588,
      "Ġeast": 7589,
      "Ġposilit": 7590,
      "byt": 7591,
      "Ġrumun": 7592,
      "Ġsoudrznosti": 7593,
      "bny": 7594,
      "Ġjinemu": 7595,
      "Ġ296": 7596,
      "Ġdovozy": 7597,
      "Ġnot": 7598,
      "Ġtloustce": 7599,
      "Ġneuvedene": 7600,
      "jmem": 7601,
      "Ġstroju": 7602,
      "lop": 7603,
      "kazuji": 7604,
      "zoval": 7605,
      "Ġnomenklatury": 7606,
      "Ġnahradni": 7607,
      "Ġostra": 7608,
      "Ġucelum": 7609,
      "Ġrovne": 7610,
      "ĠÐ½": 7611,
      "dan": 7612,
      "Ġodskod": 7613,
      "sily": 7614,
      "Ġdovolene": 7615,
      "Ġvedly": 7616,
      "Ġwy": 7617,
      "spo": 7618,
      "taci": 7619,
      "trebi": 7620,
      "Ġpodri": 7621,
      "Ġkazdopadne": 7622,
      "Ġverejna": 7623,
      "Ġvyvoji": 7624,
      "Ġpriznive": 7625,
      "Ġpilo": 7626,
      "ana": 7627,
      "Ġuvedomi": 7628,
      "Ġstuden": 7629,
      "Ġvybu": 7630,
      "Ġfrancii": 7631,
      "Ġspotrebiteli": 7632,
      "Ġnalez": 7633,
      "Ġodpovedne": 7634,
      "Ġobcanskeho": 7635,
      "Ð¾Ð²": 7636,
      "Ġdrahy": 7637,
      "Ġsekunda": 7638,
      "Ġcely": 7639,
      "Ġneji": 7640,
      "Ġcze": 7641,
      "Ġbor": 7642,
      "Ġviet": 7643,
      "Ġtechnickeho": 7644,
      "Ġopti": 7645,
      "Ġvlastne": 7646,
      "Ġvyzadovat": 7647,
      "Ġschopen": 7648,
      "Ġmore": 7649,
      "Ġ189": 7650,
      "Ġdluznika": 7651,
      "Ġpodminkam": 7652,
      "Ġuskutecneni": 7653,
      "Ġzkra": 7654,
      "zenem": 7655,
      "Ġsvr": 7656,
      "Ġzvyhodneni": 7657,
      "Ġfondy": 7658,
      "Ġvycvi": 7659,
      "Ġkw": 7660,
      "Ġporadi": 7661,
      "Ġtelefo": 7662,
      "Ġseda": 7663,
      "Ġkrmiva": 7664,
      "Ġrozkazu": 7665,
      "Ġkrizi": 7666,
      "Ġsvedsko": 7667,
      "Ġskodli": 7668,
      "Ġstaci": 7669,
      "Ġprovedl": 7670,
      "nenym": 7671,
      "Ġ820": 7672,
      "Ġneprija": 7673,
      "Ġvypora": 7674,
      "Ġrelativni": 7675,
      "cujicich": 7676,
      "Ġzamezeni": 7677,
      "Ġpersona": 7678,
      "Ġare": 7679,
      "Ġsleduje": 7680,
      "Ġenergy": 7681,
      "Ġplatit": 7682,
      "ej": 7683,
      "Ġdopravci": 7684,
      "Ġcorpora": 7685,
      "Ġulohu": 7686,
      "Ġodbera": 7687,
      "ritanie": 7688,
      "Ġvodnich": 7689,
      "Ġprijimaji": 7690,
      "Ġ1985": 7691,
      "Ġchranit": 7692,
      "Ġ159": 7693,
      "Ġdovednosti": 7694,
      "ami": 7695,
      "Ġ183": 7696,
      "hoxy": 7697,
      "dal": 7698,
      "Ġumluve": 7699,
      "Ġokruhu": 7700,
      "Ġvytvareni": 7701,
      "leny": 7702,
      "gram": 7703,
      "Ġregion": 7704,
      "Ġdusledkem": 7705,
      "Ġzpoz": 7706,
      "Ġsnizi": 7707,
      "Ġzajistena": 7708,
      "Ġpritomnost": 7709,
      "kli": 7710,
      "Ġobjektivne": 7711,
      "Ġpodlehajici": 7712,
      "Ġhack": 7713,
      "Ġed": 7714,
      "Ġfos": 7715,
      "Ġoddelene": 7716,
      "Ġuspokoji": 7717,
      "Ġmotory": 7718,
      "Ġevropa": 7719,
      "Ġzverejni": 7720,
      "Ġctvrt": 7721,
      "vuje": 7722,
      "Ġ580": 7723,
      "Ġobdr": 7724,
      "Ġzbozim": 7725,
      "Ġprista": 7726,
      "Ġdeci": 7727,
      "Ġreferencniho": 7728,
      "Ġ177": 7729,
      "Ġprovadene": 7730,
      "Ġkarty": 7731,
      "Ġpismeno": 7732,
      "ssel": 7733,
      "ĠprostÃ¸e": 7734,
      "Ġ236": 7735,
      "Ġvzdelani": 7736,
      "Ġvnitrnich": 7737,
      "Ġpoukazuje": 7738,
      "sujici": 7739,
      "Ġdanou": 7740,
      "Ġsporna": 7741,
      "Ġfro": 7742,
      "Ġplatnymi": 7743,
      "Ġpravech": 7744,
      "Ġmesto": 7745,
      "Ġpodanim": 7746,
      "tiva": 7747,
      "Ġpovolit": 7748,
      "Ġ173": 7749,
      "Ġjmenovi": 7750,
      "Ġosobne": 7751,
      "ction": 7752,
      "tyl": 7753,
      "Ġdali": 7754,
      "Ġdotceno": 7755,
      "Ġefg": 7756,
      "Ġprekroceni": 7757,
      "Ġaromati": 7758,
      "Ġnarodniho": 7759,
      "Ġnazvem": 7760,
      "Ġpreventivni": 7761,
      "rel": 7762,
      "Ġstandardi": 7763,
      "Ġzivocich": 7764,
      "Ġwor": 7765,
      "Ġprilezitost": 7766,
      "ĠâĹ»": 7767,
      "con": 7768,
      "Ġodmita": 7769,
      "Ġzbrani": 7770,
      "Ġakredi": 7771,
      "Ġvelikost": 7772,
      "Ġsocie": 7773,
      "dlum": 7774,
      "Ġprze": 7775,
      "Ġzasilky": 7776,
      "tinu": 7777,
      "Ġmgr": 7778,
      "Ġtel": 7779,
      "Ġpopri": 7780,
      "Ġ192": 7781,
      "xo": 7782,
      "Ġpin": 7783,
      "Ġpracovnik": 7784,
      "Ġustavniho": 7785,
      "wy": 7786,
      "Ġslucitelne": 7787,
      "jove": 7788,
      "Ġcenou": 7789,
      "Ġnejvyssiho": 7790,
      "Ġackoliv": 7791,
      "Ġzapotrebi": 7792,
      "Ġpopripade": 7793,
      "Ġprimerena": 7794,
      "Ġmanu": 7795,
      "Ġzavaznych": 7796,
      "Ġstrankach": 7797,
      "Ġ209": 7798,
      "Ġzahajeno": 7799,
      "Ġprodlouzi": 7800,
      "platni": 7801,
      "Ġdov": 7802,
      "tika": 7803,
      "Ġtransforma": 7804,
      "Ġodesila": 7805,
      "Ġkonecnych": 7806,
      "minu": 7807,
      "Ġbv": 7808,
      "Ġpoprve": 7809,
      "Ġinterni": 7810,
      "Ġstrance": 7811,
      "dt": 7812,
      "Ġmlade": 7813,
      "Ġupraveny": 7814,
      "Ġstatisticke": 7815,
      "Ġodrazka": 7816,
      "Ġhlavne": 7817,
      "Ġudrzitelne": 7818,
      "Ġprehled": 7819,
      "Ġprotisou": 7820,
      "Ġzpusobily": 7821,
      "hovych": 7822,
      "Ġkusu": 7823,
      "Ġeg": 7824,
      "sis": 7825,
      "Ġvnitrozem": 7826,
      "motvur": 7827,
      "Ġeulp": 7828,
      "sny": 7829,
      "Ġzalozen": 7830,
      "Ġ221": 7831,
      "zneno": 7832,
      "Ġvznikla": 7833,
      "Ġnezahrnute": 7834,
      "Ġzatez": 7835,
      "Ġ181": 7836,
      "Ġ388": 7837,
      "Ġzlo": 7838,
      "Ġnekterym": 7839,
      "myslne": 7840,
      "Ġskutecny": 7841,
      "Ġvetsina": 7842,
      "Ġrybolovna": 7843,
      "Ġobrat": 7844,
      "Ġ228": 7845,
      "Ġkopie": 7846,
      "eeni": 7847,
      "Ġodstran": 7848,
      "Ġzustava": 7849,
      "uji": 7850,
      "sivni": 7851,
      "Ġvlajky": 7852,
      "Ġcesty": 7853,
      "Ġzustat": 7854,
      "Ġvyplaceni": 7855,
      "Ġverzi": 7856,
      "Ġrezervy": 7857,
      "Ġpismene": 7858,
      "pracovane": 7859,
      "Ġvybi": 7860,
      "Ġvole": 7861,
      "Ġalobce": 7862,
      "Ġdeli": 7863,
      "Ġidentifik": 7864,
      "Ġvlo": 7865,
      "Ġ216": 7866,
      "Ġclu": 7867,
      "ie": 7868,
      "tan": 7869,
      "dlu": 7870,
      "Ġleda": 7871,
      "Ġzmenena": 7872,
      "Ġpozitivni": 7873,
      "stupech": 7874,
      "Ġpredmetne": 7875,
      "Ġpravnicka": 7876,
      "Ġkdykoli": 7877,
      "Ġadresu": 7878,
      "mt": 7879,
      "zolu": 7880,
      "Ġaspektu": 7881,
      "Ġstranu": 7882,
      "Ġpriznat": 7883,
      "Ġodvetv": 7884,
      "Ġdotycna": 7885,
      "metry": 7886,
      "Ġtetra": 7887,
      "tok": 7888,
      "Ġtrestneho": 7889,
      "Ġalobkyni": 7890,
      "Ġmezinarodnimi": 7891,
      "Ġcisteni": 7892,
      "Ġthi": 7893,
      "Ġzruseno": 7894,
      "mout": 7895,
      "Ġneodpovida": 7896,
      "Ġ191": 7897,
      "Ġchar": 7898,
      "Ġdotace": 7899,
      "Ġpovolenek": 7900,
      "Ġoh": 7901,
      "Ġuvodem": 7902,
      "Ġoffi": 7903,
      "Ġsplnit": 7904,
      "Ġsubsidiarity": 7905,
      "Ġzabra": 7906,
      "ties": 7907,
      "seneho": 7908,
      "Ġspojena": 7909,
      "sahne": 7910,
      "sna": 7911,
      "Ġact": 7912,
      "Ġbelgicke": 7913,
      "Ġperi": 7914,
      "stvu": 7915,
      "Ġfis": 7916,
      "Ġnedodrzeni": 7917,
      "Ġkopii": 7918,
      "Ġchlor": 7919,
      "Ġverejnym": 7920,
      "Ġcelkovych": 7921,
      "Ġpotvrzuji": 7922,
      "Ġesma": 7923,
      "Ġchranenych": 7924,
      "Ġlibera": 7925,
      "Ġzmocnenky": 7926,
      "Ġvyberove": 7927,
      "zsi": 7928,
      "Ġlaw": 7929,
      "Ġnezamestna": 7930,
      "Ġhranici": 7931,
      "Ġspecifikaci": 7932,
      "kazy": 7933,
      "Ġchemicky": 7934,
      "Ġupozorneni": 7935,
      "Ġpridru": 7936,
      "Ġhno": 7937,
      "Ġucastnit": 7938,
      "Ġtrid": 7939,
      "Ġrozvahove": 7940,
      "Ġvydany": 7941,
      "Ġvyjime": 7942,
      "Ġprizpusobeni": 7943,
      "Ġuea": 7944,
      "Ġnabo": 7945,
      "Ġvizu": 7946,
      "Ġein": 7947,
      "Ġpotvrdi": 7948,
      "Ġrumunsko": 7949,
      "Ġdobrovolne": 7950,
      "Ġobsazeny": 7951,
      "Ġcinnostech": 7952,
      "Ġcisty": 7953,
      "Ġsoft": 7954,
      "Ġpokroku": 7955,
      "ĠÏĢ": 7956,
      "Ġfur": 7957,
      "Ġ575": 7958,
      "Ġjichz": 7959,
      "Ġvyzvy": 7960,
      "Ġeng": 7961,
      "Ġpokutu": 7962,
      "Ġvyuziva": 7963,
      "kosti": 7964,
      "Ġoddele": 7965,
      "Ġsrb": 7966,
      "Ġvyvodit": 7967,
      "Ġroli": 7968,
      "ena": 7969,
      "Ġsvetove": 7970,
      "Ġobcanskopravni": 7971,
      "Ġpodnikatel": 7972,
      "Ġnemoci": 7973,
      "Ġukonu": 7974,
      "Ġkomplexni": 7975,
      "Ġledaze": 7976,
      "Ġinput": 7977,
      "Ġcitli": 7978,
      "rg": 7979,
      "Ġnatu": 7980,
      "Ġ090": 7981,
      "pusteni": 7982,
      "Ġpresta": 7983,
      "Ġ251": 7984,
      "Ġupravujici": 7985,
      "Ġspolee": 7986,
      "Ġpane": 7987,
      "Ġinformovat": 7988,
      "chts": 7989,
      "Ġ194": 7990,
      "Ġvyhlaska": 7991,
      "Ġdomnivam": 7992,
      "Ġuverovych": 7993,
      "kyne": 7994,
      "non": 7995,
      "Ġecha": 7996,
      "vacich": 7997,
      "Ġjakychkoli": 7998,
      "Ġzachaze": 7999,
      "ony": 8000,
      "Ġrozsa": 8001,
      "Ġvyrovnavaci": 8002,
      "Ġplatbu": 8003,
      "Ġnezpochyb": 8004,
      "Ġzen": 8005,
      "Ġucinnych": 8006,
      "Ġzacleneni": 8007,
      "Ġbezci": 8008,
      "Ġvyznamem": 8009,
      "Ġnadradu": 8010,
      "Ġzahrnujici": 8011,
      "Ġnormotvur": 8012,
      "Ġznaky": 8013,
      "Ġpenezi": 8014,
      "nat": 8015,
      "Ġneja": 8016,
      "Ġ0001": 8017,
      "Ġegy": 8018,
      "Ġhodla": 8019,
      "Ġnemely": 8020,
      "Ġschvaluje": 8021,
      "Ġsvycarsko": 8022,
      "Ġoperacni": 8023,
      "Ġoc": 8024,
      "Ġum": 8025,
      "Ġplynouci": 8026,
      "Ġudeli": 8027,
      "Ġpredvida": 8028,
      "Ġinspekci": 8029,
      "Ġproblem": 8030,
      "Ġnemocni": 8031,
      "Ġbezpe": 8032,
      "Ġagri": 8033,
      "Ġtoku": 8034,
      "Ġ255": 8035,
      "Ġmodelu": 8036,
      "ya": 8037,
      "Ġzasi": 8038,
      "Ġvyhlasky": 8039,
      "nenem": 8040,
      "Ġkaka": 8041,
      "Ġprijat": 8042,
      "Ġhygie": 8043,
      "rozumi": 8044,
      "Ġlimited": 8045,
      "Ġ174": 8046,
      "Ġprovadeny": 8047,
      "dos": 8048,
      "Ġsoudcu": 8049,
      "Ġpricita": 8050,
      "kovem": 8051,
      "Ġcelosvet": 8052,
      "oven": 8053,
      "dny": 8054,
      "Ġposkytovana": 8055,
      "Ġzarucit": 8056,
      "Ġvolby": 8057,
      "Ġ217": 8058,
      "Ġudrzitelneho": 8059,
      "meho": 8060,
      "Ġspacha": 8061,
      "Ġrakouska": 8062,
      "Ġirelevantni": 8063,
      "Ġsolas": 8064,
      "Ġ1177": 8065,
      "Ġspotreba": 8066,
      "rovou": 8067,
      "Ġinvali": 8068,
      "Ġdnech": 8069,
      "Ġkazdemu": 8070,
      "Ġled": 8071,
      "lozila": 8072,
      "Ġvyrobene": 8073,
      "Ġzadavaci": 8074,
      "Ġruznymi": 8075,
      "Ġvyjimek": 8076,
      "Ġmail": 8077,
      "Ġprir": 8078,
      "Ġdrzeni": 8079,
      "Ġ208": 8080,
      "Ġprobe": 8081,
      "sing": 8082,
      "Ġ750": 8083,
      "ÑģÑĤ": 8084,
      "Ġproblemati": 8085,
      "Ġkilo": 8086,
      "Ġimpli": 8087,
      "Ġzkoumani": 8088,
      "Ġ011": 8089,
      "Ġzapoje": 8090,
      "Ġ229": 8091,
      "Ġclena": 8092,
      "Ġneuplatni": 8093,
      "Ġinformovani": 8094,
      "Ġ420": 8095,
      "Ġsoukromych": 8096,
      "Ġzemepisnych": 8097,
      "Ġhlavniho": 8098,
      "Ġseverni": 8099,
      "Ġsily": 8100,
      "Ġvyve": 8101,
      "Ġ193": 8102,
      "Ġstatusu": 8103,
      "Ġnemelo": 8104,
      "tia": 8105,
      "Ġnizozemsku": 8106,
      "Ġvysokoskol": 8107,
      "Ġnepripustnosti": 8108,
      "Ġdoprova": 8109,
      "Ġzaokrouhle": 8110,
      "Ġregistru": 8111,
      "Ġpodily": 8112,
      "vetvi": 8113,
      "Ġstavby": 8114,
      "Ġ621": 8115,
      "Ġschvaleny": 8116,
      "Ġzmrazene": 8117,
      "Ġevidence": 8118,
      "Ġtoxi": 8119,
      "Õ¸Õ": 8120,
      "Ġspolecni": 8121,
      "Ġpriloh": 8122,
      "Ġdiag": 8123,
      "Ġzacina": 8124,
      "Ġposkytovateli": 8125,
      "ĠÎº": 8126,
      "lostni": 8127,
      "Ġoprava": 8128,
      "Ġ238": 8129,
      "Ġschvalene": 8130,
      "Ġvyvra": 8131,
      "Ġlod": 8132,
      "Ġzakonne": 8133,
      "Ġpredlozily": 8134,
      "Ġprispiva": 8135,
      "Ġbiologi": 8136,
      "kultu": 8137,
      "Ġnovym": 8138,
      "Ġ179": 8139,
      "Ġantidumpingovych": 8140,
      "Ġhovo": 8141,
      "Ġdepa": 8142,
      "zvla": 8143,
      "peri": 8144,
      "sco": 8145,
      "Ġzkresleni": 8146,
      "Ġznamku": 8147,
      "Ġprispet": 8148,
      "Ġhydroxy": 8149,
      "Ġzacatku": 8150,
      "Ġdovolenou": 8151,
      "Ġsubvence": 8152,
      "Ġneoduvod": 8153,
      "Ġzemedelskeho": 8154,
      "Ġdesky": 8155,
      "Ġafri": 8156,
      "los": 8157,
      "Ġtrestnych": 8158,
      "Ġnepova": 8159,
      "Ġodstavcem": 8160,
      "Ġpasu": 8161,
      "Ġbranit": 8162,
      "Ġpododvetvi": 8163,
      "Ġjor": 8164,
      "Ġvnejsich": 8165,
      "hledni": 8166,
      "Ġ202": 8167,
      "kom": 8168,
      "Ġrecht": 8169,
      "Ġkonstatuje": 8170,
      "Ġnahrad": 8171,
      "Ġprepo": 8172,
      "Ġindie": 8173,
      "Ġrop": 8174,
      "ĠpÃ¸is": 8175,
      "Ġkryti": 8176,
      "ologi": 8177,
      "Ġprechodneho": 8178,
      "Ġpromlce": 8179,
      "Ġpride": 8180,
      "Ġodpoctu": 8181,
      "cd": 8182,
      "bel": 8183,
      "Ġsirce": 8184,
      "Ġnesplnuje": 8185,
      "Ġprislusnikem": 8186,
      "organi": 8187,
      "Ġporusuje": 8188,
      "polu": 8189,
      "Ġposkytovany": 8190,
      "Ġopetovne": 8191,
      "Ġplnit": 8192,
      "Ġzaznamy": 8193,
      "Ġprijaly": 8194,
      "Ġvazby": 8195,
      "Ġ235": 8196,
      "Ġpokracovani": 8197,
      "Ġpredkladaciho": 8198,
      "Ġ2645": 8199,
      "Ġwo": 8200,
      "jm": 8201,
      "Ġcivilni": 8202,
      "Ġutvaru": 8203,
      "Ġlinie": 8204,
      "Ġoduvodni": 8205,
      "Ġ760": 8206,
      "Ġzamer": 8207,
      "ĠÃ¸a": 8208,
      "Ġodskodneni": 8209,
      "Ġpropaga": 8210,
      "mie": 8211,
      "Ġzhotove": 8212,
      "Ġpaty": 8213,
      "Ġstranky": 8214,
      "Ġvydana": 8215,
      "Ġklic": 8216,
      "Ġpoklada": 8217,
      "Ġdeve": 8218,
      "Ġprikazu": 8219,
      "Ġnezmenenem": 8220,
      "Ġitalii": 8221,
      "Ġ883": 8222,
      "ĠpÃ¸ipa": 8223,
      "Ġpohledu": 8224,
      "Ġpropuste": 8225,
      "Ġdokazovani": 8226,
      "sove": 8227,
      "Ġnavrhovych": 8228,
      "Ġcir": 8229,
      "Ġdotcenymi": 8230,
      "Ġpripustna": 8231,
      "ling": 8232,
      "Ġnedostatky": 8233,
      "Ġvyhodu": 8234,
      "Ġsolven": 8235,
      "Ġpletene": 8236,
      "Ġtlu": 8237,
      "Ġefektivni": 8238,
      "Ġsouhlasi": 8239,
      "Ġplav": 8240,
      "Ġpouhe": 8241,
      "Ġrodinne": 8242,
      "Ġpouzila": 8243,
      "Ġodpovidajicich": 8244,
      "Ġuzivatel": 8245,
      "Ġprasat": 8246,
      "Ġrodicov": 8247,
      "Ġpocatecni": 8248,
      "Ġzemepisnym": 8249,
      "Ġplocha": 8250,
      "Ġvedomi": 8251,
      "Ġkvan": 8252,
      "Ġ225": 8253,
      "Ġ280": 8254,
      "Ġpropou": 8255,
      "Ġpreruseni": 8256,
      "ÏīÎ½": 8257,
      "Ġ206": 8258,
      "Ġpredepsa": 8259,
      "Ġkonecnou": 8260,
      "zione": 8261,
      "Ġnezleti": 8262,
      "Ġ203": 8263,
      "Ġ659": 8264,
      "Ġpolice": 8265,
      "mnych": 8266,
      "red": 8267,
      "Ġ268": 8268,
      "cnym": 8269,
      "Ġdoplneni": 8270,
      "Ġprotisoute": 8271,
      "Ġkov": 8272,
      "gia": 8273,
      "Ġprislusnou": 8274,
      "Ġrezerv": 8275,
      "Ġ530": 8276,
      "Ġbydlistem": 8277,
      "Ġ215": 8278,
      "Ġ213": 8279,
      "Ġuvadet": 8280,
      "Ġdg": 8281,
      "Ġptaci": 8282,
      "Ġdotaznik": 8283,
      "0010": 8284,
      "rost": 8285,
      "Ġfarmaceu": 8286,
      "Ġnizke": 8287,
      "Ġ950": 8288,
      "Ġcenove": 8289,
      "dam": 8290,
      "Ġbil": 8291,
      "ovacim": 8292,
      "Ġpome": 8293,
      "lik": 8294,
      "Ġcenach": 8295,
      "Ġusnadnit": 8296,
      "Ġdenni": 8297,
      "Ġlode": 8298,
      "Ġpobrezi": 8299,
      "lovat": 8300,
      "Ġvyjimecne": 8301,
      "Ġmechanismy": 8302,
      "Ġvyfu": 8303,
      "Ġpocina": 8304,
      "Ġira": 8305,
      "Ġnepa": 8306,
      "Ġzarazenych": 8307,
      "Ġuplatnova": 8308,
      "Ġschopna": 8309,
      "Ġeste": 8310,
      "Ġukazatelu": 8311,
      "Ġ2204": 8312,
      "nni": 8313,
      "Ġporusovani": 8314,
      "Ġostrov": 8315,
      "Ġleteckeho": 8316,
      "Ġurcuje": 8317,
      "020": 8318,
      "Ġvyrazu": 8319,
      "Ġgene": 8320,
      "Ġvedla": 8321,
      "Ġdodatecnych": 8322,
      "Ġresit": 8323,
      "Ġobal": 8324,
      "lorid": 8325,
      "Ġkonzerv": 8326,
      "nostni": 8327,
      "Ġnasledujicim": 8328,
      "Ġlekarske": 8329,
      "Ġitalia": 8330,
      "Ġrestri": 8331,
      "ght": 8332,
      "Ġspornych": 8333,
      "Ġvymena": 8334,
      "Ġservices": 8335,
      "cenou": 8336,
      "vyhod": 8337,
      "Ġkonf": 8338,
      "Ġobdrzela": 8339,
      "Ġmotorem": 8340,
      "Ġinovace": 8341,
      "Ġzalobnich": 8342,
      "Ġodpovidat": 8343,
      "Ġupresnete": 8344,
      "Ġzastupu": 8345,
      "datu": 8346,
      "Ġprotipravnosti": 8347,
      "lizovane": 8348,
      "Ġoz": 8349,
      "Ġrezolu": 8350,
      "Ġministr": 8351,
      "Ġnenahra": 8352,
      "Ġrodu": 8353,
      "Ġrepubliku": 8354,
      "Ġdoplnkova": 8355,
      "gt": 8356,
      "Ġviza": 8357,
      "Ġuplynutim": 8358,
      "Ġpostupech": 8359,
      "tiv": 8360,
      "tach": 8361,
      "Ġodkazu": 8362,
      "Ġkonkretniho": 8363,
      "Ġukon": 8364,
      "Ġzavadeni": 8365,
      "gle": 8366,
      "ros": 8367,
      "Ġmod": 8368,
      "Ġsyntetickych": 8369,
      "Ġnapravy": 8370,
      "Ġjakostni": 8371,
      "Ġ288": 8372,
      "Ġposlednich": 8373,
      "Ġ195": 8374,
      "Ġneprizni": 8375,
      "Ġzpracovanim": 8376,
      "Ġupresneni": 8377,
      "Ġ249": 8378,
      "Ġtrestnim": 8379,
      "klu": 8380,
      "Ġnezavislost": 8381,
      "Ġsouvisi": 8382,
      "Ġvyziv": 8383,
      "para": 8384,
      "Ġspojeny": 8385,
      "Ġucetnich": 8386,
      "Ġpodobnosti": 8387,
      "Ġpripustnost": 8388,
      "Ġupad": 8389,
      "Ġjednalo": 8390,
      "Ð¸Ñı": 8391,
      "Ġduvodova": 8392,
      "Ġkorpora": 8393,
      "Ġ590": 8394,
      "skemu": 8395,
      "Ġvide": 8396,
      "munity": 8397,
      "Ġsber": 8398,
      "Ġzbave": 8399,
      "Ġalba": 8400,
      "Ġsau": 8401,
      "Ġprechodna": 8402,
      "Ġkoncese": 8403,
      "dleni": 8404,
      "Ġ212": 8405,
      "Ġseverniho": 8406,
      "ĠÐ¸": 8407,
      "Ġznacka": 8408,
      "Ġspolufinan": 8409,
      "Ġstejna": 8410,
      "Ġmajici": 8411,
      "gar": 8412,
      "Ġhotovo": 8413,
      "Ġnamisto": 8414,
      "ing": 8415,
      "Ġvydavajici": 8416,
      "Ġhmotnepravni": 8417,
      "Ġnevi": 8418,
      "fen": 8419,
      "Ġrovnocenne": 8420,
      "mluvni": 8421,
      "Ġtlaku": 8422,
      "Ġsazbu": 8423,
      "Ġsesku": 8424,
      "Ġobema": 8425,
      "Ġnezohledni": 8426,
      "Ġvylucuje": 8427,
      "Ġpok": 8428,
      "Ġdomnivat": 8429,
      "Ġcharakteru": 8430,
      "Ġ231": 8431,
      "Ġdvacatym": 8432,
      "id": 8433,
      "Ġmc": 8434,
      "Ġmistnich": 8435,
      "Ġzalezito": 8436,
      "Ġdesetin": 8437,
      "pce": 8438,
      "Ġzaruk": 8439,
      "Ġnarodnich": 8440,
      "Ġlisty": 8441,
      "stavit": 8442,
      "Ġ224": 8443,
      "Ġprohlasil": 8444,
      "Ġobcanskych": 8445,
      "Ġdatabazi": 8446,
      "Ġprumerna": 8447,
      "Ġspolecnou": 8448,
      "Ġdotyka": 8449,
      "Ġudelovani": 8450,
      "Ġxvi": 8451,
      "Ġformular": 8452,
      "Ġ232": 8453,
      "Ġpremisteni": 8454,
      "Ġlatku": 8455,
      "Ġph": 8456,
      "Ġreal": 8457,
      "Ġln": 8458,
      "Ġtestu": 8459,
      "Ġ257": 8460,
      "Ġziskovo": 8461,
      "Ġsirsi": 8462,
      "stich": 8463,
      "Ġprechodne": 8464,
      "Ġhackovane": 8465,
      "Ġplatnem": 8466,
      "ĠpÃ¸ipust": 8467,
      "Ġ2025": 8468,
      "Ġlisa": 8469,
      "Ġodstavcu": 8470,
      "Ġhodnotici": 8471,
      "ngo": 8472,
      "Ġ222": 8473,
      "Ġujma": 8474,
      "Ġusazeni": 8475,
      "denci": 8476,
      "Ġskolni": 8477,
      "Ġzhor": 8478,
      "duvod": 8479,
      "Ġprilohach": 8480,
      "Ġsetkani": 8481,
      "Ġsmeruje": 8482,
      "Ġlucemburku": 8483,
      "Ġpodvod": 8484,
      "Ġnejv": 8485,
      "mesi": 8486,
      "Ġvyzada": 8487,
      "Ġzrizuje": 8488,
      "Ġbavlny": 8489,
      "Ġsusene": 8490,
      "Ġss": 8491,
      "Ġposa": 8492,
      "Ġmilionech": 8493,
      "Ġ188": 8494,
      "Ġdomacim": 8495,
      "Ġspojenym": 8496,
      "Ġaplikace": 8497,
      "zny": 8498,
      "stava": 8499,
      "Ġoduvodnena": 8500,
      "Ġpozornost": 8501,
      "sticke": 8502,
      "Ġporusil": 8503,
      "Ġpromlceci": 8504,
      "Ġodepreni": 8505,
      "wor": 8506,
      "Ġvic": 8507,
      "tungs": 8508,
      "Ġuniverza": 8509,
      "Ġvstupem": 8510,
      "Ã¸eni": 8511,
      "Ġobjektivnich": 8512,
      "Ġamino": 8513,
      "Ġdruhym": 8514,
      "Ġzdravotniho": 8515,
      "Ġprevazne": 8516,
      "Ġrozhodciho": 8517,
      "Ġplastu": 8518,
      "Ġurady": 8519,
      "Ġnalezitosti": 8520,
      "Ġkali": 8521,
      "Ġkve": 8522,
      "Ġvydaneho": 8523,
      "Ġol": 8524,
      "Ġucinneho": 8525,
      "Ġutrpe": 8526,
      "Ġkomu": 8527,
      "Ġrev": 8528,
      "gue": 8529,
      "Ġpatentu": 8530,
      "Ġzrusuji": 8531,
      "Ġvidi": 8532,
      "Ġkarbo": 8533,
      "Ġharmonizace": 8534,
      "Ġonx": 8535,
      "Ġpic": 8536,
      "tai": 8537,
      "Ġtrestny": 8538,
      "Ġzpro": 8539,
      "Ġzalobcu": 8540,
      "Ġobnovitelnych": 8541,
      "ag": 8542,
      "Ġsnadno": 8543,
      "Ġprenosu": 8544,
      "Ġhnoji": 8545,
      "Ġobzvla": 8546,
      "hlizet": 8547,
      "Ġnas": 8548,
      "Ġ278": 8549,
      "Ġposkytovatelu": 8550,
      "Ġpateho": 8551,
      "Ġsis": 8552,
      "Ġpp": 8553,
      "Ġvar": 8554,
      "Ġridice": 8555,
      "Ġethyl": 8556,
      "Ġsamy": 8557,
      "sia": 8558,
      "Ġkoncentrace": 8559,
      "Î¿ÏĤ": 8560,
      "Ġkap": 8561,
      "Ġnedil": 8562,
      "Ġskonci": 8563,
      "Ġzdravotnim": 8564,
      "Ġposoudi": 8565,
      "Ġspravedlive": 8566,
      "rici": 8567,
      "ÑĬ": 8568,
      "Ġvedeckych": 8569,
      "Ġsurovin": 8570,
      "Ġmesic": 8571,
      "chen": 8572,
      "Ġpouzitelnych": 8573,
      "Ġceli": 8574,
      "Ġsoube": 8575,
      "Ġchyb": 8576,
      "cker": 8577,
      "zel": 8578,
      "Ġprijateho": 8579,
      "Ġ254": 8580,
      "Ġsubven": 8581,
      "Ġvet": 8582,
      "Ġfinancnimi": 8583,
      "Ġodhadovany": 8584,
      "Ġ186": 8585,
      "Ġnutnosti": 8586,
      "Ġzamestnavatel": 8587,
      "Ġvynalozenych": 8588,
      "pustil": 8589,
      "Ġulovku": 8590,
      "Ġ223": 8591,
      "Ġkriti": 8592,
      "Ġuzavrit": 8593,
      "Ġkvanti": 8594,
      "Ġpriru": 8595,
      "Ġomezen": 8596,
      "Ġskutee": 8597,
      "Ġlistu": 8598,
      "Ġdepozi": 8599,
      "Ġvyrocni": 8600,
      "Ġpolovi": 8601,
      "Ġvyssim": 8602,
      "fenyl": 8603,
      "Ġzabyva": 8604,
      "Ġmnohostran": 8605,
      "Ġ293": 8606,
      "Ġlistina": 8607,
      "Ġassocia": 8608,
      "Ġhove": 8609,
      "Ġ@": 8610,
      "Ġhistori": 8611,
      "tina": 8612,
      "Ġintegrova": 8613,
      "ziho": 8614,
      "Ġsviti": 8615,
      "Ġprofesiona": 8616,
      "Ġobcany": 8617,
      "Ġzavedeny": 8618,
      "Ġobsahujicich": 8619,
      "Ġprimerenou": 8620,
      "Ġvseobecnych": 8621,
      "ranne": 8622,
      "Ġdoplni": 8623,
      "Ġbezpecne": 8624,
      "Ġnezpusob": 8625,
      "Ġfinance": 8626,
      "Ġzamestnane": 8627,
      "9000": 8628,
      "Ġhs": 8629,
      "Ġnevylu": 8630,
      "Ġznevyhod": 8631,
      "Ġnamitka": 8632,
      "puj": 8633,
      "ĠÐ´": 8634,
      "novaci": 8635,
      "Ġcod": 8636,
      "Ġspra": 8637,
      "Ġuct": 8638,
      "Ġspolupracovat": 8639,
      "Ġobcanstvi": 8640,
      "Ġvydanych": 8641,
      "lozene": 8642,
      "Ġzastoupena": 8643,
      "Ġrustu": 8644,
      "Ġrozhodovat": 8645,
      "Ġcrr": 8646,
      "gua": 8647,
      "Ġnevztahuji": 8648,
      "Ġurednika": 8649,
      "Ġneexistuji": 8650,
      "Ġ2024": 8651,
      "Ġtuni": 8652,
      "Ġpredbezneho": 8653,
      "Ġinterven": 8654,
      "Ġpolozce": 8655,
      "Ġchu": 8656,
      "Ġ247": 8657,
      "Ġdoplnkovych": 8658,
      "Ġsoftwa": 8659,
      "Ġurceneho": 8660,
      "Ġpripadnych": 8661,
      "vel": 8662,
      "Ġobchazeni": 8663,
      "Ġreforma": 8664,
      "Ġboje": 8665,
      "Ġoxidu": 8666,
      "Ġprovincie": 8667,
      "Ġclenem": 8668,
      "Ġdopise": 8669,
      "Ġspoji": 8670,
      "ene": 8671,
      "Ġspotrebu": 8672,
      "Ġbudov": 8673,
      "Ġnavste": 8674,
      "Ġcorporation": 8675,
      "Ġhospoda": 8676,
      "Ġteo": 8677,
      "Ġmusela": 8678,
      "Ġvymen": 8679,
      "Ġnou": 8680,
      "Ġ321": 8681,
      "Ġotazkam": 8682,
      "Ġpozadoval": 8683,
      "Ġ1986": 8684,
      "Ġdoplnuji": 8685,
      "Ġueastni": 8686,
      "Ġnara": 8687,
      "Ġjurisdikci": 8688,
      "Ġodklad": 8689,
      "Ġzjistovani": 8690,
      "tho": 8691,
      "stici": 8692,
      "Ġsebou": 8693,
      "laceni": 8694,
      "Ġpomerne": 8695,
      "900": 8696,
      "Ġoznamu": 8697,
      "Ġpozadovana": 8698,
      "Ġneje": 8699,
      "Ġuzitecne": 8700,
      "Ġjednotlivymi": 8701,
      "Ġobtizne": 8702,
      "Ġprislusnika": 8703,
      "Ġuvedenim": 8704,
      "Ġrybarske": 8705,
      "Ġtextu": 8706,
      "Ġvratit": 8707,
      "Ġpseni": 8708,
      "Ġmleko": 8709,
      "Ġpokryti": 8710,
      "Ġohla": 8711,
      "Ġprvnimu": 8712,
      "Ġneuva": 8713,
      "Ġvedo": 8714,
      "jnich": 8715,
      "Ġbelo": 8716,
      "Ġfederace": 8717,
      "Ġnevyh": 8718,
      "Ġoleju": 8719,
      "Ġtrubky": 8720,
      "Ġzakazniku": 8721,
      "Ġ262": 8722,
      "Ġbelgii": 8723,
      "Ġtema": 8724,
      "Ġstar": 8725,
      "Ġvynosu": 8726,
      "Ġimpre": 8727,
      "Ġmemo": 8728,
      "Ġnabidku": 8729,
      "Ġodrazky": 8730,
      "Ġvyri": 8731,
      "Ġhmotnostni": 8732,
      "lete": 8733,
      "Ġshromazdovani": 8734,
      "lizovat": 8735,
      "chus": 8736,
      "Ġodpu": 8737,
      "Ġvrchni": 8738,
      "Ġres": 8739,
      "Ġakva": 8740,
      "Ġnerov": 8741,
      "Ġnebe": 8742,
      "Ġudajum": 8743,
      "stine": 8744,
      "Ġsestavajici": 8745,
      "Ġvzajemneho": 8746,
      "Ġjudikature": 8747,
      "Ġprimeho": 8748,
      "Ġnastroji": 8749,
      "Ġmusel": 8750,
      "Ġnizky": 8751,
      "Ġpodporou": 8752,
      "Ġrozmani": 8753,
      "zujiciho": 8754,
      "Ġkapacit": 8755,
      "Ġevropy": 8756,
      "Ġtakoveto": 8757,
      "Ġduvery": 8758,
      "Ġ245": 8759,
      "Ġnabidka": 8760,
      "Ġnek": 8761,
      "Ġnejlepsi": 8762,
      "Ġrealne": 8763,
      "ncem": 8764,
      "Ġnavrat": 8765,
      "Ġcyklu": 8766,
      "Ġklade": 8767,
      "Ġznaku": 8768,
      "030": 8769,
      "ia": 8770,
      "Ġnereziden": 8771,
      "Ġoliv": 8772,
      "zacni": 8773,
      "Ġtrvaleho": 8774,
      "Ġodbornou": 8775,
      "Ġzaslala": 8776,
      "Ġusazene": 8777,
      "Ġdomov": 8778,
      "its": 8779,
      "smluvni": 8780,
      "Ġucinny": 8781,
      "ncu": 8782,
      "Ġrocniho": 8783,
      "Ġdubli": 8784,
      "Ġucini": 8785,
      "sig": 8786,
      "Ġrozhoduje": 8787,
      "Ġelektronickeho": 8788,
      "Ġznini": 8789,
      "Ġpodpolozky": 8790,
      "Ġplatfor": 8791,
      "Ġposuzovat": 8792,
      "Ġzavedena": 8793,
      "Ġpoma": 8794,
      "Ġ2933": 8795,
      "Ġregionalnich": 8796,
      "Ġdumpingove": 8797,
      "Ġprijemcu": 8798,
      "Ġsiroke": 8799,
      "kladky": 8800,
      "Ġnadmerne": 8801,
      "Ġgovt": 8802,
      "nas": 8803,
      "Ġ248": 8804,
      "Ġobcanske": 8805,
      "Ġulovky": 8806,
      "wn": 8807,
      "vace": 8808,
      "larni": 8809,
      "Ġ570": 8810,
      "Ġjade": 8811,
      "Ġ266": 8812,
      "Ġprostredkem": 8813,
      "Ġzauja": 8814,
      "Ġhl": 8815,
      "Ġboji": 8816,
      "Ġvykazuje": 8817,
      "Ġsvedci": 8818,
      "Ġpoptavky": 8819,
      "Ġjakehokoliv": 8820,
      "Ġporadku": 8821,
      "terie": 8822,
      "Ġpocho": 8823,
      "Ġreformy": 8824,
      "Ġtuky": 8825,
      "Ġnevyuzi": 8826,
      "Ġfaktury": 8827,
      "Ġpresah": 8828,
      "Ġurcitym": 8829,
      "Ġuzce": 8830,
      "Ġ302": 8831,
      "Ġnedilnou": 8832,
      "Ġpokle": 8833,
      "ture": 8834,
      "Ġkvalitu": 8835,
      "Ġok": 8836,
      "Ġnapoje": 8837,
      "Ã¸a": 8838,
      "Ġnesoula": 8839,
      "110": 8840,
      "Ġsoustav": 8841,
      "Ġkam": 8842,
      "zilo": 8843,
      "Ġunion": 8844,
      "Ġkos": 8845,
      "nnych": 8846,
      "trzi": 8847,
      "Ġ1980": 8848,
      "vc": 8849,
      "Ġfax": 8850,
      "thi": 8851,
      "Ġdeva": 8852,
      "Ġtydnu": 8853,
      "Ġvstoupila": 8854,
      "Ġopoz": 8855,
      "Ġodvetvich": 8856,
      "ĠÐ²": 8857,
      "ovky": 8858,
      "Ġtaze": 8859,
      "Ġtaric": 8860,
      "Ġklau": 8861,
      "Ġpostoje": 8862,
      "áĥĲ": 8863,
      "Ġprislusnem": 8864,
      "Ġpozadovanych": 8865,
      "Ġzmrazeni": 8866,
      "Ġkulturni": 8867,
      "Ġoveri": 8868,
      "Ġsmluvniho": 8869,
      "Ġulozenych": 8870,
      "Ġhttps": 8871,
      "rance": 8872,
      "Ġpacha": 8873,
      "ctvr": 8874,
      "Ġslovenske": 8875,
      "rev": 8876,
      "Ġpredstaven": 8877,
      "Ġ259": 8878,
      "Ġpovrchu": 8879,
      "cini": 8880,
      "Ġsvycarska": 8881,
      "Ġkoeficient": 8882,
      "Ġmoldav": 8883,
      "Ġregulace": 8884,
      "Ġnezbytny": 8885,
      "Ġeib": 8886,
      "Ġodmenu": 8887,
      "Ġpojistovny": 8888,
      "Ġpusobici": 8889,
      "Ġpocatku": 8890,
      "Ġnezajistene": 8891,
      "Ġnastup": 8892,
      "Ġzmeneno": 8893,
      "Ġstezovatel": 8894,
      "Ġpredkladani": 8895,
      "Ġupravit": 8896,
      "Ġmakro": 8897,
      "Ġneurcitou": 8898,
      "ovali": 8899,
      "Ġ283": 8900,
      "Ġnepretrzi": 8901,
      "Ġpour": 8902,
      "Ġneprekra": 8903,
      "Ġcpa": 8904,
      "Ġhou": 8905,
      "Ġprovadenim": 8906,
      "Ġmal": 8907,
      "Ġrecke": 8908,
      "Ġnamitkoveho": 8909,
      "Ġsluzbe": 8910,
      "Ġhan": 8911,
      "Ġryze": 8912,
      "Ġpouzitelny": 8913,
      "Ġregistracni": 8914,
      "Ġ680": 8915,
      "douci": 8916,
      "Ġdlouhodoby": 8917,
      "Ġelektronicky": 8918,
      "Ġsrovnavaci": 8919,
      "Ġzrusena": 8920,
      "Ġafg": 8921,
      "Ġgro": 8922,
      "Ġzivi": 8923,
      "Ġpodpur": 8924,
      "Ġlih": 8925,
      "Ġdorucovani": 8926,
      "Ġcoo": 8927,
      "Ġ219": 8928,
      "Ġreklamy": 8929,
      "Ġneder": 8930,
      "Ġtotez": 8931,
      "Ġmari": 8932,
      "Ġmajetkove": 8933,
      "Ġupresnit": 8934,
      "Ġ521": 8935,
      "leneho": 8936,
      "Ġfp": 8937,
      "Ġsyry": 8938,
      "Ġdovozci": 8939,
      "Ġpodstatnych": 8940,
      "Ġleh": 8941,
      "Ġexistovat": 8942,
      "sovat": 8943,
      "Ġzpusobila": 8944,
      "Ġbarvi": 8945,
      "Ġvarian": 8946,
      "Ġzduraznil": 8947,
      "Ġgy": 8948,
      "Ġom": 8949,
      "Ġmezni": 8950,
      "ovid": 8951,
      "Ġformatu": 8952,
      "gan": 8953,
      "jniho": 8954,
      "Ġodlov": 8955,
      "ĠÐ¾": 8956,
      "Ġposkytujici": 8957,
      "dovani": 8958,
      "Ġharmono": 8959,
      "Ġtlak": 8960,
      "Õ«Õ": 8961,
      "Ġbeznych": 8962,
      "Ġsmlouvach": 8963,
      "rovane": 8964,
      "Ġzjistena": 8965,
      "syste": 8966,
      "ĠÐ½Ð°": 8967,
      "Ġurednik": 8968,
      "hosp": 8969,
      "Ġnezakon": 8970,
      "Ġinformacemi": 8971,
      "Ġvykonavaji": 8972,
      "Ġnizozemska": 8973,
      "knout": 8974,
      "Ġulozeny": 8975,
      "Ġinternet": 8976,
      "Ġdopravnich": 8977,
      "Ġpolske": 8978,
      "Ġkombinace": 8979,
      "tus": 8980,
      "Ġglobalni": 8981,
      "silo": 8982,
      "Ġprure": 8983,
      "Ġletecky": 8984,
[...]
