{
  "version": "1.0",
  "truncation": null,
  "padding": null,
  "added_tokens": [
    {
      "id": 0,
      "content": "<pad>",
      "single_word": false,
      "lstrip": false,
      "rstrip": false,
      "normalized": false,
      "special": true
    },
    {
      "id": 1,
      "content": "<s>",
      "single_word": false,
      "lstrip": false,
      "rstrip": false,
      "normalized": false,
      "special": true
    },
    {
      "id": 2,
      "content": "</s>",
      "single_word": false,
      "lstrip": false,
      "rstrip": false,
      "normalized": false,
      "special": true
    },
    {
      "id": 3,
      "content": "<unk>",
      "single_word": false,
      "lstrip": false,
      "rstrip": false,
      "normalized": false,
      "special": true
    },
    {
      "id": 4,
      "content": "<mask>",
      "single_word": false,
      "lstrip": false,
      "rstrip": false,
      "normalized": false,
      "special": true
    }
  ],
  "normalizer": {
    "type": "Sequence",
    "normalizers": [
      {
        "type": "NFKD"
      },
      {
        "type": "BertNormalizer",
        "clean_text": true,
        "handle_chinese_chars": true,
        "strip_accents": null,
        "lowercase": true
      }
    ]
  },
  "pre_tokenizer": {
    "type": "Sequence",
    "pretokenizers": [
      {
        "type": "BertPreTokenizer"
      },
      {
        "type": "ByteLevel",
        "add_prefix_space": true,
        "trim_offsets": true,
        "use_regex": true
      }
    ]
  },
  "post_processor": {
    "type": "RobertaProcessing",
    "sep": [
      "</s>",
      2
    ],
    "cls": [
      "<s>",
      1
    ],
    "trim_offsets": true,
    "add_prefix_space": true
  },
  "decoder": {
    "type": "ByteLevel",
    "add_prefix_space": true,
    "trim_offsets": true,
    "use_regex": true
  },
  "model": {
    "type": "BPE",
    "dropout": null,
    "unk_token": "<unk>",
    "continuing_subword_prefix": null,
    "end_of_word_suffix": null,
    "fuse_unk": false,
    "vocab": {
      "<pad>": 0,
      "<s>": 1,
      "</s>": 2,
      "<unk>": 3,
      "<mask>": 4,
      "!": 5,
      "\"": 6,
      "#": 7,
      "$": 8,
      "%": 9,
      "&": 10,
      "'": 11,
      "(": 12,
      ")": 13,
      "*": 14,
      "+": 15,
      ",": 16,
      "-": 17,
      ".": 18,
      "/": 19,
      "0": 20,
      "1": 21,
      "2": 22,
      "3": 23,
      "4": 24,
      "5": 25,
      "6": 26,
      "7": 27,
      "8": 28,
      "9": 29,
      ":": 30,
      ";": 31,
      "<": 32,
      "=": 33,
      ">": 34,
      "?": 35,
      "@": 36,
      "[": 37,
      "\\": 38,
      "]": 39,
      "^": 40,
      "_": 41,
      "`": 42,
      "a": 43,
      "b": 44,
      "c": 45,
      "d": 46,
      "e": 47,
      "f": 48,
      "g": 49,
      "h": 50,
      "i": 51,
      "j": 52,
      "k": 53,
      "l": 54,
      "m": 55,
      "n": 56,
      "o": 57,
      "p": 58,
      "q": 59,
      "r": 60,
      "s": 61,
      "t": 62,
      "u": 63,
      "v": 64,
      "w": 65,
      "x": 66,
      "y": 67,
      "z": 68,
      "{": 69,
      "|": 70,
      "}": 71,
      "~": 72,
      "¡": 73,
      "¢": 74,
      "£": 75,
      "¤": 76,
      "¥": 77,
      "¦": 78,
      "§": 79,
      "¨": 80,
      "©": 81,
      "ª": 82,
      "«": 83,
      "¬": 84,
      "®": 85,
      "¯": 86,
      "°": 87,
      "±": 88,
      "²": 89,
      "³": 90,
      "´": 91,
      "µ": 92,
      "¶": 93,
      "·": 94,
      "¸": 95,
      "¹": 96,
      "º": 97,
      "»": 98,
      "¼": 99,
      "½": 100,
      "¾": 101,
      "¿": 102,
      "Â": 103,
      "Ã": 104,
      "Ä": 105,
      "Å": 106,
      "Æ": 107,
      "É": 108,
      "Ê": 109,
      "Ë": 110,
      "Í": 111,
      "Î": 112,
      "Ï": 113,
      "Ð": 114,
      "Ñ": 115,
      "Ø": 116,
      "Ù": 117,
      "Ú": 118,
      "Û": 119,
      "ß": 120,
      "à": 121,
      "á": 122,
      "â": 123,
      "ã": 124,
      "ä": 125,
      "å": 126,
      "æ": 127,
      "ç": 128,
      "è": 129,
      "é": 130,
      "ð": 131,
      "Ġ": 132,
      "Ģ": 133,
      "ģ": 134,
      "Ĥ": 135,
      "ĥ": 136,
      "Ħ": 137,
      "ħ": 138,
      "Ĩ": 139,
      "ĩ": 140,
      "Ī": 141,
      "ī": 142,
      "Ĭ": 143,
      "ĭ": 144,
      "Į": 145,
      "į": 146,
      "İ": 147,
      "ı": 148,
      "Ĳ": 149,
      "ĳ": 150,
      "Ĵ": 151,
      "ĵ": 152,
      "Ķ": 153,
      "ķ": 154,
      "ĸ": 155,
      "Ĺ": 156,
      "ĺ": 157,
      "Ļ": 158,
      "ļ": 159,
      "Ľ": 160,
      "ľ": 161,
      "Ŀ": 162,
      "ŀ": 163,
      "Ł": 164,
      "ł": 165,
      "Ń": 166,
      "Ġd": 167,
      "on": 168,
      "Ġa": 169,
      "Ġc": 170,
      "re": 171,
      "to": 172,
      "Ġp": 173,
      "ti": 174,
      "Ġ,": 175,
      "Ġi": 176,
      "en": 177,
      "Ġde": 178,
      "ta": 179,
      "Ġs": 180,
      "ri": 181,
      "la": 182,
      "le": 183,
      "Ġdi": 184,
      "li": 185,
      "Ġ.": 186,
      "te": 187,
      "Ġe": 188,
      "Ġn": 189,
      "ion": 190,
      "ra": 191,
      "Ġdel": 192,
      "Ġ1": 193,
      "zion": 194,
      "ca": 195,
      "er": 196,
      "Ġin": 197,
      "or": 198,
      "Ġm": 199,
      "un": 200,
      "ss": 201,
      "Ġcon": 202,
      "Ġ2": 203,
      "ro": 204,
      "Ġal": 205,
      "men": 206,
      "Ġnon": 207,
      "bi": 208,
      "Ġâ": 209,
      "ĠâĢ": 210,
      "zione": 211,
      "Ġco": 212,
      "an": 213,
      "Ġ)": 214,
      "ci": 215,
      "Ġf": 216,
      "pp": 217,
      "si": 218,
      "di": 219,
      "Ġo": 220,
      "he": 221,
      "Ġg": 222,
      "Ġri": 223,
      "Ġre": 224,
      "Ġla": 225,
      "Ġ(": 226,
      "lica": 227,
      "Ġapp": 228,
      "mi": 229,
      "Ġl": 230,
      "Ġcom": 231,
      "Ġda": 232,
      "Ġ/": 233,
      "Ġapplica": 234,
      "Ġil": 235,
      "Ġ'": 236,
      "vi": 237,
      "Ġun": 238,
      "co": 239,
      "bile": 240,
      "qu": 241,
      "mento": 242,
      "Ġ0": 243,
      "lo": 244,
      "ĠâĢĻ": 245,
      "do": 246,
      "za": 247,
      "Ġpa": 248,
      "Ġapplicabile": 249,
      "el": 250,
      "va": 251,
      "Ġt": 252,
      "Ġ-": 253,
      "pe": 254,
      "Ġper": 255,
      "Ġche": 256,
      "ce": 257,
      "Ġ3": 258,
      "go": 259,
      "Ġ_": 260,
      "Ġpro": 261,
      "Ġdella": 262,
      "Ġqu": 263,
      "ione": 264,
      "tto": 265,
      "Ġpre": 266,
      "tti": 267,
      "in": 268,
      "ale": 269,
      "Ġsu": 270,
      "Ġse": 271,
      "Ġle": 272,
      "Ġb": 273,
      "tu": 274,
      "Ġ20": 275,
      "Ġca": 276,
      "se": 277,
      "zioni": 278,
      "zi": 279,
      "na": 280,
      "ma": 281,
      "mp": 282,
      "de": 283,
      "Ġar": 284,
      "ch": 285,
      "Ġnel": 286,
      "fi": 287,
      "vo": 288,
      "sti": 289,
      "Ġ5": 290,
      "Ġdell": 291,
      "gli": 292,
      "Ġso": 293,
      "ve": 294,
      "tta": 295,
      "Ġ4": 296,
      "Ġrego": 297,
      "sp": 298,
      "Ġsi": 299,
      "lamento": 300,
      "io": 301,
      "Ġ:": 302,
      "Ġme": 303,
      "Ġdal": 304,
      "so": 305,
      "Ġ9": 306,
      "Ġsta": 307,
      "no": 308,
      "Ġregolamento": 309,
      "Ġall": 310,
      "ali": 311,
      "Ġu": 312,
      "me": 313,
      "ten": 314,
      "ono": 315,
      "ar": 316,
      "ter": 317,
      "Ġ7": 318,
      "Ġta": 319,
      "tico": 320,
      "Ġ19": 321,
      "sa": 322,
      "Ġdelle": 323,
      "Ġimp": 324,
      "Ġ8": 325,
      "bb": 326,
      "Ġ6": 327,
      "ente": 328,
      "ni": 329,
      "sta": 330,
      "iu": 331,
      "cor": 332,
      "ssione": 333,
      "ui": 334,
      "rio": 335,
      "Ġris": 336,
      "tro": 337,
      "tra": 338,
      "da": 339,
      "ga": 340,
      "Ġeu": 341,
      "sse": 342,
      "mb": 343,
      "ssi": 344,
      "Ġdei": 345,
      "ĠÂ": 346,
      "Ġh": 347,
      "gg": 348,
      "Ġpar": 349,
      "Ġtra": 350,
      "mente": 351,
      "missione": 352,
      "che": 353,
      "Ġmo": 354,
      "zza": 355,
      "ul": 356,
      "Ġpo": 357,
      "Ġce": 358,
      "ssa": 359,
      "Ġartico": 360,
      "00": 361,
      "Ġcommissione": 362,
      "ver": 363,
      "gu": 364,
      "fe": 365,
      "Ġarticolo": 366,
      "Ġma": 367,
      "ran": 368,
      "mo": 369,
      "Ġvi": 370,
      "uni": 371,
      "Ġra": 372,
      "fa": 373,
      "is": 374,
      "Ġ200": 375,
      "Ġalla": 376,
      "lu": 377,
      "Ġai": 378,
      "Ġuna": 379,
      "du": 380,
      "enti": 381,
      "tte": 382,
      "tri": 383,
      "Ġdo": 384,
      "menti": 385,
      "Ġconsi": 386,
      "ia": 387,
      "ĠâĢĶ": 388,
      "po": 389,
      "fica": 390,
      "Ġ;": 391,
      "Ġcui": 392,
      "Ġfin": 393,
      "Ġcor": 394,
      "Ġfa": 395,
      "Ġsen": 396,
      "Ġne": 397,
      "Ġspe": 398,
      "Ġan": 399,
      "Ġpres": 400,
      "ren": 401,
      "Ġalle": 402,
      "sto": 403,
      "sso": 404,
      "ria": 405,
      "Ġ10": 406,
      "bili": 407,
      "Ġcomuni": 408,
      "rb": 409,
      "Ġ*": 410,
      "uto": 411,
      "ven": 412,
      "zia": 413,
      "chio": 414,
      "spo": 415,
      "sione": 416,
      "orta": 417,
      "Ġpri": 418,
      "gra": 419,
      "ru": 420,
      "Ġcontro": 421,
      "Ġha": 422,
      "Ġsul": 423,
      "glio": 424,
      "Ġli": 425,
      "Ġ201": 426,
      "Ġac": 427,
      "Ġricor": 428,
      "Ġgiu": 429,
      "ĠâĢĵ": 430,
      "orma": 431,
      "Ġeuro": 432,
      "Ġav": 433,
      "one": 434,
      "Ġva": 435,
      "cu": 436,
      "Ġque": 437,
      "ne": 438,
      "Ġfi": 439,
      "Ġrischio": 440,
      "Ġeurope": 441,
      "Ġesse": 442,
      "ene": 443,
      "Ġcomunita": 444,
      "Ġba": 445,
      "sposi": 446,
      "Ġdefa": 447,
      "Ġdefaul": 448,
      "sc": 449,
      "pera": 450,
      "Ġ11": 451,
      "Ġpu": 452,
      "Ġcomp": 453,
      "Ġessere": 454,
      "lati": 455,
      "Ġdire": 456,
      "Ġad": 457,
      "Ġnella": 458,
      "fici": 459,
      "ano": 460,
      "ste": 461,
      "Ġprodo": 462,
      "Ġquan": 463,
      "Ġstato": 464,
      "Ġpe": 465,
      "Ġ12": 466,
      "Ġ00": 467,
      "Ġspeci": 468,
      "Ġpara": 469,
      "Ġr": 470,
      "Ġart": 471,
      "ĠÂ»": 472,
      "Ġtale": 473,
      "stitu": 474,
      "ge": 475,
      "ĠÂ«": 476,
      "Ġdeci": 477,
      "tre": 478,
      "ie": 479,
      "Ġam": 480,
      "al": 481,
      "Ġmemb": 482,
      "Ġgli": 483,
      "ze": 484,
      "Ġsono": 485,
      "gna": 486,
      "rie": 487,
      "Ġter": 488,
      "fo": 489,
      "Ġtu": 490,
      "Ġga": 491,
      "Ġte": 492,
      "Ġ199": 493,
      "Ġparagra": 494,
      "Ġno": 495,
      "Ġproce": 496,
      "Ġpun": 497,
      "enta": 498,
      "enza": 499,
      "Ġopera": 500,
      "Ġfinan": 501,
      "Ġinter": 502,
      "ero": 503,
      "Ġpag": 504,
      "Ġdegli": 505,
      "man": 506,
      "Ġparagrafo": 507,
      "zo": 508,
      "tin": 509,
      "Ġfinanzia": 510,
      "Ġci": 511,
      "mina": 512,
      "ttiva": 513,
      "cip": 514,
      "con": 515,
      "Ġ%": 516,
      "Ġconside": 517,
      "Ġna": 518,
      "Ġor": 519,
      "gato": 520,
      "gi": 521,
      "Ġcre": 522,
      "Ġdalla": 523,
      "Ġrelati": 524,
      "tenza": 525,
      "Ġcee": 526,
      "Ġparte": 527,
      "ttu": 528,
      "gge": 529,
      "sposizioni": 530,
      "Ġconte": 531,
      "Ġpresente": 532,
      "cia": 533,
      "Ġlu": 534,
      "dito": 535,
      "Ġ15": 536,
      "oro": 537,
      "Ġgu": 538,
      "gno": 539,
      "Ġdecisione": 540,
      "ffe": 541,
      "Ġinte": 542,
      "Ġk": 543,
      "Ġmeto": 544,
      "Ġindi": 545,
      "Ġ13": 546,
      "cato": 547,
      "Ġmer": 548,
      "Ġeur": 549,
      "tivo": 550,
      "Ġauto": 551,
      "Ġstati": 552,
      "Ġ50": 553,
      "Ġprodotti": 554,
      "Ġfor": 555,
      "Ġricorren": 556,
      "Ġconsiglio": 557,
      "Ġinf": 558,
      "rebb": 559,
      "Ġmetodo": 560,
      "ffici": 561,
      "lare": 562,
      "Ġ17": 563,
      "Ġcau": 564,
      "Ġpunto": 565,
      "Ġconf": 566,
      "Ġnell": 567,
      "Ġdiri": 568,
      "Ġdiver": 569,
      "Ġ14": 570,
      "Ġcome": 571,
      "Ġsoci": 572,
      "bbli": 573,
      "Ġbase": 574,
      "Ġ\"": 575,
      "pa": 576,
      "10": 577,
      "Ġcredito": 578,
      "Ġti": 579,
      "Ġtratta": 580,
      "Ġsecon": 581,
      "par": 582,
      "Ġ=": 583,
      "Ġ16": 584,
      "gan": 585,
      "Ġes": 586,
      "Ġquanto": 587,
      "ting": 588,
      "alizza": 589,
      "Ġ30": 590,
      "Ġoperazioni": 591,
      "Ġen": 592,
      "Ġsa": 593,
      "anza": 594,
      "Ġirb": 595,
      "tuale": 596,
      "Ġml": 597,
      "mbre": 598,
      "orto": 599,
      "Ġv": 600,
      "razione": 601,
      "Ġdall": 602,
      "eta": 603,
      "Ġmln": 604,
      "Ġautori": 605,
      "Ġdirettiva": 606,
      "Ġdu": 607,
      "Ġele": 608,
      "Ġmar": 609,
      "Ġdefault": 610,
      "zio": 611,
      "Ġtri": 612,
      "Ġimporta": 613,
      "Ġcausa": 614,
      "st": 615,
      "tiva": 616,
      "Ġesp": 617,
      "Ġricorrente": 618,
      "Ġvo": 619,
      "ted": 620,
      "Ġeffe": 621,
      "Ġallegato": 622,
      "Ġcontropar": 623,
      "rebbe": 624,
      "Ġ18": 625,
      "ggio": 626,
      "Ġlo": 627,
      "ioni": 628,
      "Ġunione": 629,
      "Ġmis": 630,
      "Ġ21": 631,
      "lazione": 632,
      "Ġ90": 633,
      "Ġch": 634,
      "Ġcontroparte": 635,
      "qui": 636,
      "Ġsocieta": 637,
      "tivi": 638,
      "Ġmodi": 639,
      "Ġaltri": 640,
      "Ġcontes": 641,
      "tura": 642,
      "Ġquesti": 643,
      "Ġcontestuale": 644,
      "Ġ25": 645,
      "tori": 646,
      "oni": 647,
      "Ġ|": 648,
      "Ġdefaulted": 649,
      "Ġrating": 650,
      "Ġquel": 651,
      "dente": 652,
      "Ġpmi": 653,
      "Ġmembri": 654,
      "Ġimpre": 655,
      "stra": 656,
      "Ġ22": 657,
      "tazione": 658,
      "Ġconc": 659,
      "Ġquali": 660,
      "Ġsentenza": 661,
      "Ġ>": 662,
      "tore": 663,
      "Ġ23": 664,
      "stan": 665,
      "Ġve": 666,
      "guar": 667,
      "Ġsecondo": 668,
      "Ġ198": 669,
      "Ġprin": 670,
      "Ġ29": 671,
      "Ġeuropea": 672,
      "Ġprincip": 673,
      "Ġii": 674,
      "mer": 675,
      "Ġec": 676,
      "Ġuni": 677,
      "ttore": 678,
      "Ġgra": 679,
      "Ġcorte": 680,
      "Ġuffici": 681,
      "Ġcons": 682,
      "Ġdiritto": 683,
      "Ġmisu": 684,
      "Ġriguar": 685,
      "Ġnu": 686,
      "mita": 687,
      "Ġim": 688,
      "Ġ31": 689,
      "lti": 690,
      "alizzati": 691,
      "Ġatti": 692,
      "Ġtrib": 693,
      "pi": 694,
      "dere": 695,
      "bblica": 696,
      "Ġ<": 697,
      "Ġser": 698,
      "Ġed": 699,
      "Ġparti": 700,
      "ine": 701,
      "Ġmodifica": 702,
      "eno": 703,
      "Ġcaso": 704,
      "Ġsuo": 705,
      "Ġfinanziamenti": 706,
      "Ġman": 707,
      "Ġprodu": 708,
      "Ġspecializzati": 709,
      "ini": 710,
      "mini": 711,
      "tan": 712,
      "Ġag": 713,
      "Ġtali": 714,
      "chi": 715,
      "Ġpartico": 716,
      "Ġdeve": 717,
      "ggi": 718,
      "ff": 719,
      "dice": 720,
      "Ġloro": 721,
      "feri": 722,
      "lan": 723,
      "zionale": 724,
      "Ġsia": 725,
      "riore": 726,
      "orme": 727,
      "Ġdiverse": 728,
      "Ġ27": 729,
      "vita": 730,
      "Ġ26": 731,
      "Ġpuo": 732,
      "ron": 733,
      "bilita": 734,
      "Ġprez": 735,
      "Ġver": 736,
      "Ġuti": 737,
      "Ġste": 738,
      "Ġprop": 739,
      "Ġtribun": 740,
      "chia": 741,
      "Ġnorma": 742,
      "Ġmate": 743,
      "Ġ28": 744,
      "Ġprevi": 745,
      "Ġdoman": 746,
      "Ġsulla": 747,
      "Ġmembro": 748,
      "Ġesposizioni": 749,
      "Ġ24": 750,
      "Ġricorso": 751,
      "Ġapplicazione": 752,
      "Ġpresenta": 753,
      "stri": 754,
      "Ġsensi": 755,
      "Ġservi": 756,
      "Ġado": 757,
      "Ġintere": 758,
      "Ġcontra": 759,
      "Ġeuropee": 760,
      "Ġavanza": 761,
      "Ġz": 762,
      "Ġtribunale": 763,
      "Ġgene": 764,
      "Ġobbli": 765,
      "Ġven": 766,
      "chie": 767,
      "Ġsotto": 768,
      "Ġinforma": 769,
      "une": 770,
      "Ġairb": 771,
      "Ġavanzato": 772,
      "dimento": 773,
      "Ġfissa": 774,
      "llo": 775,
      "20": 776,
      "Ġutili": 777,
      "Ġbi": 778,
      "Ġpae": 779,
      "Ġsme": 780,
      "Ġdetta": 781,
      "Ġulti": 782,
      "Ġcondi": 783,
      "Ġfatto": 784,
      "are": 785,
      "Ġparticolare": 786,
      "Ġrapp": 787,
      "res": 788,
      "Ġpiu": 789,
      "Ġj": 790,
      "rando": 791,
      "zze": 792,
      "menta": 793,
      "uta": 794,
      "Ġsegu": 795,
      "Ġ100": 796,
      "gni": 797,
      "Ġgiuri": 798,
      "azione": 799,
      "Ġmercato": 800,
      "anno": 801,
      "Ġex": 802,
      "Ġlette": 803,
      "Ġreg": 804,
      "Ġat": 805,
      "Ġid": 806,
      "Ġdeter": 807,
      "Ġconsiderando": 808,
      "Ġgaran": 809,
      "zzazione": 810,
      "ere": 811,
      "Ġstabili": 812,
      "Ġcate": 813,
      "ina": 814,
      "Ġau": 815,
      "Ġorgan": 816,
      "rale": 817,
      "Ġw": 818,
      "Ġto": 819,
      "Ġdomanda": 820,
      "Ġanche": 821,
      "Ġge": 822,
      "Ġcatego": 823,
      "Ġautorita": 824,
      "bre": 825,
      "rato": 826,
      "Ġufficiale": 827,
      "Ġ197": 828,
      "Ġesporta": 829,
      "Ġaccor": 830,
      "Ġori": 831,
      "Ġoc": 832,
      "Ġnece": 833,
      "ort": 834,
      "ĠâĢĲ": 835,
      "Ġdisposizioni": 836,
      "pu": 837,
      "Ġimprese": 838,
      "denza": 839,
      "Ġquale": 840,
      "Ġperio": 841,
      "Ġfe": 842,
      "Ġcorp": 843,
      "40": 844,
      "Ġnei": 845,
      "Ġct": 846,
      "Ġadotta": 847,
      "Ġaltre": 848,
      "Ġambi": 849,
      "cita": 850,
      "Ġqua": 851,
      "Ġprocedimento": 852,
      "spon": 853,
      "zzetta": 854,
      "Ġistitu": 855,
      "Ġdello": 856,
      "Ġgazzetta": 857,
      "ante": 858,
      "Ġdetermina": 859,
      "ur": 860,
      "lle": 861,
      "Ġmedi": 862,
      "Ġ000": 863,
      "Ġsmec": 864,
      "Ġogge": 865,
      "uti": 866,
      "Ġrichie": 867,
      "Ġmi": 868,
      "erva": 869,
      "Ġtras": 870,
      "Ġ]": 871,
      "Ġ[": 872,
      "Ġsettore": 873,
      "sioni": 874,
      "cati": 875,
      "Ġese": 876,
      "Ġfon": 877,
      "ziona": 878,
      "Ġ01": 879,
      "ministra": 880,
      "Ġten": 881,
      "iudi": 882,
      "rati": 883,
      "Ġspese": 884,
      "Ġ02": 885,
      "Ġtrattato": 886,
      "Ġpers": 887,
      "Ġab": 888,
      "Ġcostitu": 889,
      "Ġprima": 890,
      "Ġap": 891,
      "Ġvalu": 892,
      "Ġmisure": 893,
      "Ġtal": 894,
      "Ġimpu": 895,
      "tali": 896,
      "Ġforni": 897,
      "cazione": 898,
      "via": 899,
      "rico": 900,
      "Ġpi": 901,
      "Ġtito": 902,
      "Ġconse": 903,
      "Ġpropo": 904,
      "gui": 905,
      "Ġesa": 906,
      "Ġcategoria": 907,
      "Ġdichia": 908,
      "pre": 909,
      "onomi": 910,
      "Ġcamp": 911,
      "ol": 912,
      "tanto": 913,
      "Ġlettera": 914,
      "Ġcar": 915,
      "Ġconclu": 916,
      "Ġamministra": 917,
      "Ġposs": 918,
      "ona": 919,
      "ziale": 920,
      "Ġimpugna": 921,
      "ppo": 922,
      "Ġrisul": 923,
      "Ġnecessa": 924,
      "Ġprocedu": 925,
      "Ġattivita": 926,
      "Ġprimo": 927,
      "Ġx": 928,
      "Ġdef": 929,
      "Ġrispe": 930,
      "Ġesc": 931,
      "cio": 932,
      "Ġagli": 933,
      "corre": 934,
      "Ġconten": 935,
      "Ġaltro": 936,
      "Ġro": 937,
      "Ġperiodo": 938,
      "Ġ40": 939,
      "Ġvalo": 940,
      "sce": 941,
      "Ġquestione": 942,
      "Ġsua": 943,
      "Ġcir": 944,
      "Ġue": 945,
      "Ġdisposi": 946,
      "alita": 947,
      "stina": 948,
      "Ġimporto": 949,
      "Ġrappres": 950,
      "Ġsca": 951,
      "tt": 952,
      "rate": 953,
      "Ġfun": 954,
      "Ġcompe": 955,
      "Ġera": 956,
      "Ġtutti": 957,
      "Ġuno": 958,
      "Ġrappresenta": 959,
      "Ġorig": 960,
      "Ġrepu": 961,
      "teri": 962,
      "Ġutilizza": 963,
      "Ġcondizioni": 964,
      "Ġrac": 965,
      "Ġprodotto": 966,
      "Ġkg": 967,
      "rito": 968,
      "Ġdata": 969,
      "Ġriferi": 970,
      "Ġgi": 971,
      "que": 972,
      "Ġdice": 973,
      "Ġfran": 974,
      "Ġelementi": 975,
      "Ġcomune": 976,
      "gua": 977,
      "Ġesclu": 978,
      "Ġeconomi": 979,
      "Ġdicembre": 980,
      "len": 981,
      "Ġcri": 982,
      "Ġesi": 983,
      "Ġdestina": 984,
      "Ġ010": 985,
      "Ġann": 986,
      "ffa": 987,
      "Ġessa": 988,
      "Ġfo": 989,
      "Ġconto": 990,
      "Ġgran": 991,
      "Ġsenza": 992,
      "Ġlavo": 993,
      "colo": 994,
      "Ġdev": 995,
      "Ġpossono": 996,
      "Ġoggetto": 997,
      "Ġservizi": 998,
      "Ġcommer": 999,
      "Ġdefini": 1000,
      "scri": 1001,
      "sten": 1002,
      "Ġaiu": 1003,
      "Ġ85": 1004,
      "Ġpaesi": 1005,
      "Ġnonche": 1006,
      "Ġaccordo": 1007,
      "Ġrelativo": 1008,
      "Ġinformazioni": 1009,
      "ffer": 1010,
      "Ġpubbli": 1011,
      "Ġ33": 1012,
      "Ġhanno": 1013,
      "Ġmaggio": 1014,
      "Ġrepubblica": 1015,
      "Ġambito": 1016,
      "Ġ39": 1017,
      "anti": 1018,
      "Ġgaranti": 1019,
      "tifica": 1020,
      "Ġmod": 1021,
      "Ġsiste": 1022,
      "Ġassi": 1023,
      "Ġben": 1024,
      "sia": 1025,
      "Ġgo": 1026,
      "trib": 1027,
      "Ġ35": 1028,
      "Ġgiugno": 1029,
      "Ġ+": 1030,
      "Ġsupe": 1031,
      "Ġpreg": 1032,
      "Ġcan": 1033,
      "Ġcal": 1034,
      "Ġ32": 1035,
      "Ġnazionale": 1036,
      "hi": 1037,
      "dita": 1038,
      "lta": 1039,
      "Ġforma": 1040,
      "Ġalc": 1041,
      "ello": 1042,
      "Ġrelativa": 1043,
      "Ġriguarda": 1044,
      "Ġcia": 1045,
      "Ġregola": 1046,
      "lie": 1047,
      "Ġcla": 1048,
      "Ġpregiudi": 1049,
      "Ġ07": 1050,
      "Ġinteressa": 1051,
      "Ġconven": 1052,
      "Ġcer": 1053,
      "uno": 1054,
      "Ġregi": 1055,
      "isce": 1056,
      "Ġluo": 1057,
      "Ġdai": 1058,
      "entra": 1059,
      "Ġ99": 1060,
      "Ġstata": 1061,
      "Ġordi": 1062,
      "lato": 1063,
      "Ġeffettu": 1064,
      "Ġentra": 1065,
      "Ġ0106": 1066,
      "Ġsezione": 1067,
      "Ġvio": 1068,
      "Ġciasc": 1069,
      "Ġquin": 1070,
      "Ġali": 1071,
      "Ġvisto": 1072,
      "rata": 1073,
      "Ġ38": 1074,
      "Ġluglio": 1075,
      "den": 1076,
      "Ġrile": 1077,
      "Ġluogo": 1078,
      "tato": 1079,
      "can": 1080,
      "Ġdati": 1081,
      "tten": 1082,
      "Ġdogan": 1083,
      "sci": 1084,
      "Ġimportazione": 1085,
      "elle": 1086,
      "zionali": 1087,
      "cessi": 1088,
      "mine": 1089,
      "ttori": 1090,
      "Ġconcor": 1091,
      "Ġcr": 1092,
      "Ġ36": 1093,
      "Ġsuc": 1094,
      "30": 1095,
      "Ġprezzi": 1096,
      "Ġvalore": 1097,
      "Ġultimo": 1098,
      "Ġsig": 1099,
      "Ġgenerale": 1100,
      "Ġconforme": 1101,
      "Ġdalle": 1102,
      "Ġorgani": 1103,
      "Ġinterpre": 1104,
      "Ġasse": 1105,
      "86": 1106,
      "uncia": 1107,
      "Ġsolo": 1108,
      "Ġimpo": 1109,
      "Ġcapi": 1110,
      "Ġ37": 1111,
      "Ġmateria": 1112,
      "be": 1113,
      "ato": 1114,
      "Ġ91": 1115,
      "ts": 1116,
      "mero": 1117,
      "Ġcomma": 1118,
      "Ġoccorre": 1119,
      "renza": 1120,
      "Ġpubblica": 1121,
      "Ġdov": 1122,
      "ani": 1123,
      "Ġspa": 1124,
      "Ġfirb": 1125,
      "Ġmen": 1126,
      "tare": 1127,
      "ttamente": 1128,
      "Ġst": 1129,
      "Ġcara": 1130,
      "Ġprezzo": 1131,
      "Ġopp": 1132,
      "Ġacce": 1133,
      "spe": 1134,
      "sizione": 1135,
      "Ġdettaglio": 1136,
      "lmente": 1137,
      "ggiun": 1138,
      "Ġfini": 1139,
      "Ġ84": 1140,
      "orti": 1141,
      "Ġquesto": 1142,
      "pen": 1143,
      "gore": 1144,
      "Ġcc": 1145,
      "Ġotto": 1146,
      "Ġ95": 1147,
      "ati": 1148,
      "mbi": 1149,
      "ing": 1150,
      "lli": 1151,
      "Ġvigore": 1152,
      "Ġconsegu": 1153,
      "Ġade": 1154,
      "Ġ75": 1155,
      "Ġgen": 1156,
      "Ġesecu": 1157,
      "Ġnumero": 1158,
      "Ġdocu": 1159,
      "Ġfine": 1160,
      "ella": 1161,
      "Ġave": 1162,
      "tita": 1163,
      "Ġnelle": 1164,
      "sca": 1165,
      "Ġprocedura": 1166,
      "Ġcirco": 1167,
      "Ġdevono": 1168,
      "Ġcompre": 1169,
      "Ġinol": 1170,
      "Ġgiudice": 1171,
      "Ġsuperiore": 1172,
      "Ġcodice": 1173,
      "Ġregime": 1174,
      "Ġ34": 1175,
      "Ġcaratte": 1176,
      "cono": 1177,
      "Ġru": 1178,
      "Ġban": 1179,
      "Ġconce": 1180,
      "Ġindu": 1181,
      "Ġriferimento": 1182,
      "Ġ92": 1183,
      "Ġottobre": 1184,
      "Ġdisp": 1185,
      "Ġsistema": 1186,
      "Ġtermine": 1187,
      "Ġinfe": 1188,
      "Ġinoltre": 1189,
      "Ġcompeten": 1190,
      "Ġpertanto": 1191,
      "Ġregis": 1192,
      "Ġgior": 1193,
      "Ġattu": 1194,
      "cch": 1195,
      "Ġdue": 1196,
      "Ġprov": 1197,
      "denti": 1198,
      "Ġ80": 1199,
      "Ġequi": 1200,
      "Ġtutta": 1201,
      "Ġquantita": 1202,
      "Ġeser": 1203,
      "Ġcomple": 1204,
      "tamente": 1205,
      "Ġgiudi": 1206,
      "Ġcol": 1207,
      "Ġ08": 1208,
      "Ġsostan": 1209,
      "Ġir": 1210,
      "Ġannul": 1211,
      "tion": 1212,
      "Ġpossi": 1213,
      "Ġogni": 1214,
      "Ġbe": 1215,
      "Ġprece": 1216,
      "Ġit": 1217,
      "Ġimpugnata": 1218,
      "Ġ2009": 1219,
      "Ġnorme": 1220,
      "sito": 1221,
      "Ġleg": 1222,
      "Ġsenso": 1223,
      "Ġmodificato": 1224,
      "Ġmarzo": 1225,
      "Ġcomunitario": 1226,
      "Ġpunti": 1227,
      "Ġsuoi": 1228,
      "Ġsitu": 1229,
      "Ġcorpo": 1230,
      "Ġnuo": 1231,
      "Ġmodo": 1232,
      "tive": 1233,
      "Ġrin": 1234,
      "rante": 1235,
      "Ġsulle": 1236,
      "Ġsiano": 1237,
      "vano": 1238,
      "nan": 1239,
      "Ġrisulta": 1240,
      "Ġconfor": 1241,
      "Ġ60": 1242,
      "tale": 1243,
      "una": 1244,
      "Ġ70": 1245,
      "Ġesecuzione": 1246,
      "Ġpari": 1247,
      "Ġitali": 1248,
      "Ġsogge": 1249,
      "Ġpron": 1250,
      "Ġrestitu": 1251,
      "Ġoss": 1252,
      "bo": 1253,
      "Ġinc": 1254,
      "ddi": 1255,
      "Ġ2003": 1256,
      "Ġtari": 1257,
      "Ġcommerci": 1258,
      "Ġbene": 1259,
      "Ġmassi": 1260,
      "elli": 1261,
      "Ġsin": 1262,
      "Ġvalutazione": 1263,
      "Ġ05": 1264,
      "Ġgiusti": 1265,
      "rare": 1266,
      "Ġ2001": 1267,
      "21": 1268,
      "Ġcontrollo": 1269,
      "Ġprelie": 1270,
      "Ġcriteri": 1271,
      "Ġ41": 1272,
      "Ġeuropeo": 1273,
      "ttivo": 1274,
      "rile": 1275,
      "Ġ93": 1276,
      "Ġproduzione": 1277,
      "naio": 1278,
      "Ġprincipio": 1279,
      "Ġstesso": 1280,
      "Ġgennaio": 1281,
      "ba": 1282,
      "Ġ87": 1283,
      "Ġzu": 1284,
      "lora": 1285,
      "guito": 1286,
      "Ġpen": 1287,
      "Ġrelative": 1288,
      "Ġ04": 1289,
      "Ġ2006": 1290,
      "Ġ96": 1291,
      "tica": 1292,
      "Ġmotivo": 1293,
      "Ġargo": 1294,
      "Ġdis": 1295,
      "glia": 1296,
      "Ġtuttavia": 1297,
      "Ġlin": 1298,
      "ute": 1299,
      "Ġprote": 1300,
      "Ġmarchio": 1301,
      "sie": 1302,
      "Ġpresta": 1303,
      "Ġesportazione": 1304,
      "mu": 1305,
      "Ġpeso": 1306,
      "Ġmotivi": 1307,
      "Ġcampione": 1308,
      "94": 1309,
      "Ġconformemente": 1310,
      "Ġ94": 1311,
      "sidente": 1312,
      "Ġatto": 1313,
      "Ġqual": 1314,
      "Ġqualita": 1315,
      "Ġquest": 1316,
      "Ġdiritti": 1317,
      "Ġindica": 1318,
      "Ġfinanziarie": 1319,
      "Ġsette": 1320,
      "mpo": 1321,
      "mma": 1322,
      "Ġana": 1323,
      "Ġnove": 1324,
      "Ġfonda": 1325,
      "Ġbo": 1326,
      "Ġquindi": 1327,
      "almente": 1328,
      "Ġtrasp": 1329,
      "Ġprova": 1330,
      "fiche": 1331,
      "Ġliv": 1332,
      "Ġabbi": 1333,
      "Ġlegge": 1334,
      "Ġsuccessi": 1335,
      "Ġ71": 1336,
      "Ġmerci": 1337,
      "Ġelen": 1338,
      "min": 1339,
      "endo": 1340,
      "Ġgiuridi": 1341,
      "Ġsull": 1342,
      "mitato": 1343,
      "Ġcorporate": 1344,
      "Ġinferiore": 1345,
      "per": 1346,
      "gono": 1347,
      "Ġ73": 1348,
      "Ġenti": 1349,
      "ghi": 1350,
      "Ġ45": 1351,
      "Ġ2013": 1352,
      "pra": 1353,
      "stenza": 1354,
      "zzo": 1355,
      "Ġ44": 1356,
      "Ġdetto": 1357,
      "Ġ42": 1358,
      "Ġlav": 1359,
      "Ġtitolo": 1360,
      "Ġ43": 1361,
      "Ġer": 1362,
      "Ġ03": 1363,
      "dan": 1364,
      "coli": 1365,
      "Ġ54": 1366,
      "Ġchie": 1367,
      "Ġpreve": 1368,
      "Ġsettembre": 1369,
      "Ġpaga": 1370,
      "Ġosserva": 1371,
      "gnazione": 1372,
      "Ġlavoro": 1373,
      "Ġnovembre": 1374,
      "Ġparlamento": 1375,
      "Ġ2004": 1376,
      "Ġ51": 1377,
      "Ġregistra": 1378,
      "Ġaprile": 1379,
      "stru": 1380,
      "cri": 1381,
      "Ġof": 1382,
      "Ġass": 1383,
      "Ġaggiun": 1384,
      "Ġasso": 1385,
      "Ġesso": 1386,
      "Ġgesti": 1387,
      "Ġlimi": 1388,
      "Ġviolazione": 1389,
      "Ġ2002": 1390,
      "su": 1391,
      "razioni": 1392,
      "Ġqualora": 1393,
      "Ġsarebbe": 1394,
      "Ġ2008": 1395,
      "rali": 1396,
      "Ġ1999": 1397,
      "nanzi": 1398,
      "Ġ72": 1399,
      "Ġmin": 1400,
      "Ġmort": 1401,
      "Ġ52": 1402,
      "ghe": 1403,
      "Ġbeni": 1404,
      "Ġspecie": 1405,
      "Ġ55": 1406,
      "Ġ2000": 1407,
      "vato": 1408,
      "rebbero": 1409,
      "Ġrispetto": 1410,
      "Ġ97": 1411,
      "bie": 1412,
      "Ġ2011": 1413,
      "Ġ48": 1414,
      "Ġcontrover": 1415,
      "Ġ98": 1416,
      "Ġstatu": 1417,
      "Ġdirettamente": 1418,
      "Ġ61": 1419,
      "Ġgia": 1420,
      "Ġsal": 1421,
      "Ġpoli": 1422,
      "Ġappro": 1423,
      "Ġagrico": 1424,
      "Ġindustri": 1425,
      "fatti": 1426,
      "Ġ89": 1427,
      "th": 1428,
      "Ġavrebbe": 1429,
      "Ġseguito": 1430,
      "Ġtec": 1431,
      "01": 1432,
      "Ġquando": 1433,
      "Ġfra": 1434,
      "Ġdopo": 1435,
      "Ġgrandi": 1436,
      "Ġmodalita": 1437,
      "raio": 1438,
      "Ġgrado": 1439,
      "Ġ68": 1440,
      "Ġregno": 1441,
      "Ġotten": 1442,
      "der": 1443,
      "Ġ0086": 1444,
      "Ġassicu": 1445,
      "Ġ77": 1446,
      "gia": 1447,
      "Ġ196": 1448,
      "Ġfebb": 1449,
      "Ġbenefici": 1450,
      "veni": 1451,
      "cure": 1452,
      "Â°": 1453,
      "Ġ81": 1454,
      "Ġ59": 1455,
      "Ġ67": 1456,
      "cer": 1457,
      "Ġfebbraio": 1458,
      "spru": 1459,
      "Ġsui": 1460,
      "tata": 1461,
      "Ġtutte": 1462,
      "Ġgiurispru": 1463,
      "Ġ76": 1464,
      "bbri": 1465,
      "cca": 1466,
      "ty": 1467,
      "Ġdisposizione": 1468,
      "Ġracc": 1469,
      "Ġveri": 1470,
      "Ġquesta": 1471,
      "Ġfabbri": 1472,
      "Ġcorri": 1473,
      "Ġini": 1474,
      "Ġanti": 1475,
      "Ġriso": 1476,
      "Ġprincipale": 1477,
      "Ġgiurisprudenza": 1478,
      "ordi": 1479,
      "Ġ06": 1480,
      "dono": 1481,
      "Ġ2014": 1482,
      "Ġ79": 1483,
      "Ġpartecip": 1484,
      "Ġ88": 1485,
      "Ġresp": 1486,
      "mobili": 1487,
      "vio": 1488,
      "las": 1489,
      "Ġ2007": 1490,
      "Ġecce": 1491,
      "Ġlavora": 1492,
      "dia": 1493,
      "Ġesame": 1494,
      "Ġmeno": 1495,
      "Ġ46": 1496,
      "Ġimportazioni": 1497,
      "Ġ49": 1498,
      "Ġlivello": 1499,
      "il": 1500,
      "Ġsosten": 1501,
      "Ġinterno": 1502,
      "Ġdinanzi": 1503,
      "Ġtipo": 1504,
      "Ġteno": 1505,
      "Ġimpresa": 1506,
      "Ġaiuto": 1507,
      "Ġthe": 1508,
      "fu": 1509,
      "Ġnatura": 1510,
      "Ġinterna": 1511,
      "Ġseconda": 1512,
      "Ġproprie": 1513,
      "Ġriten": 1514,
      "Ġgover": 1515,
      "Ġinve": 1516,
      "rsi": 1517,
      "Ġtempo": 1518,
      "Ġpote": 1519,
      "Ġ65": 1520,
      "Ġdoganale": 1521,
      "Ġpronuncia": 1522,
      "Ġmotiva": 1523,
      "Ġcere": 1524,
      "Ġtariffa": 1525,
      "Ġtenore": 1526,
      "Ġadottato": 1527,
      "Ġlegis": 1528,
      "Ġcomitato": 1529,
      "Ġsvi": 1530,
      "ficazione": 1531,
      "Ġentro": 1532,
      "duzione": 1533,
      "Ġpoi": 1534,
      "Ġderi": 1535,
      "Ġseguenti": 1536,
      "siasi": 1537,
      "ito": 1538,
      "desi": 1539,
      "Ġbru": 1540,
      "Ġricorrenti": 1541,
      "Ġsol": 1542,
      "Ġeven": 1543,
      "Ġstru": 1544,
      "Ġrespin": 1545,
      "Ġobie": 1546,
      "Ġ2012": 1547,
      "Ġqualsiasi": 1548,
      "Ġallo": 1549,
      "Ġugu": 1550,
      "Ġsp": 1551,
      "Ġobbligo": 1552,
      "ng": 1553,
      "Ġgestione": 1554,
      "Ġorganis": 1555,
      "tario": 1556,
      "Ġquello": 1557,
      "ffi": 1558,
      "Ġterzo": 1559,
      "Ġpaese": 1560,
      "Ġ56": 1561,
      "Ġmon": 1562,
      "Ġstessa": 1563,
      "Ġmisura": 1564,
      "Ġ040": 1565,
      "Ġsan": 1566,
      "siti": 1567,
      "ronti": 1568,
      "Ġ78": 1569,
      "Ġterzi": 1570,
      "ssu": 1571,
      "Ġ74": 1572,
      "Ġquo": 1573,
      "Ġsituazione": 1574,
      "cen": 1575,
      "Ġ47": 1576,
      "Ġ57": 1577,
      "Ġcio": 1578,
      "Ġ53": 1579,
      "Ġani": 1580,
      "Ġquelli": 1581,
      "Ġ69": 1582,
      "Ġrequi": 1583,
      "lla": 1584,
      "Ġcosi": 1585,
      "Ġ86": 1586,
      "Ġservizio": 1587,
      "Ġpreci": 1588,
      "dio": 1589,
      "Ġseguente": 1590,
      "02": 1591,
      "viso": 1592,
      "Ġimpe": 1593,
      "ari": 1594,
      "Ġpresidente": 1595,
      "Ġriguardo": 1596,
      "vol": 1597,
      "Ġcu": 1598,
      "Ġorigina": 1599,
      "vamente": 1600,
      "Ġconsu": 1601,
      "Ġaccesso": 1602,
      "gitti": 1603,
      "Ġcondan": 1604,
      "Ġsupp": 1605,
      "Ġfatti": 1606,
      "Ġcertifica": 1607,
      "Ġdurante": 1608,
      "Ġdesi": 1609,
      "Ġesclusi": 1610,
      "Ġsco": 1611,
      "Ġpare": 1612,
      "ck": 1613,
      "Ġpubblico": 1614,
      "Ġfrance": 1615,
      "Ġiii": 1616,
      "Ġlingua": 1617,
      "fficiente": 1618,
      "Ġcereali": 1619,
      "Ġcondanna": 1620,
      "meno": 1621,
      "Ġnormativa": 1622,
      "Ġcorre": 1623,
      "Ġverifica": 1624,
      "Ġ09": 1625,
      "Ġinfatti": 1626,
      "lio": 1627,
      "Ġlc": 1628,
      "Ġcircostan": 1629,
      "lari": 1630,
      "roga": 1631,
      "cco": 1632,
      "elles": 1633,
      "Ġoffer": 1634,
      "Ġ66": 1635,
      "Ġresi": 1636,
      "Ġmomento": 1637,
      "Ġ58": 1638,
      "Ġconformita": 1639,
      "Ġproduttori": 1640,
      "Ġvoce": 1641,
      "Ġautorizza": 1642,
      "sponsa": 1643,
      "Ġfru": 1644,
      "Ġimmobili": 1645,
      "Ġsud": 1646,
      "colta": 1647,
      "Ġricono": 1648,
      "Ġgru": 1649,
      "Ġvale": 1650,
      "Ġidenti": 1651,
      "Ġtran": 1652,
      "Ġrelazione": 1653,
      "Ġgre": 1654,
      "Ġarticoli": 1655,
      "Ġrice": 1656,
      "Ġbrux": 1657,
      "Ġtrattamento": 1658,
      "Ġorganizzazione": 1659,
      "Ġuguale": 1660,
      "Ġvan": 1661,
      "zz": 1662,
      "Ġconsiderazione": 1663,
      "Ġbruxelles": 1664,
      "Ġresponsa": 1665,
      "Ġtecni": 1666,
      "ensa": 1667,
      "Ġ62": 1668,
      "rre": 1669,
      "Ġzucch": 1670,
      "Ġesen": 1671,
      "Ġ82": 1672,
      "Ġdagli": 1673,
      "Ġlett": 1674,
      "Ġrag": 1675,
      "ziali": 1676,
      "Ġconcer": 1677,
      "gere": 1678,
      "Ġmedesi": 1679,
      "Ġ83": 1680,
      "Ġobbligato": 1681,
      "50": 1682,
      "Ġciascuno": 1683,
      "Ġeconomica": 1684,
      "Ġzucchero": 1685,
      "Ġnecessario": 1686,
      "Ġfu": 1687,
      "Ġeserci": 1688,
      "Ġgoverno": 1689,
      "Ġ2015": 1690,
      "Ġtre": 1691,
      "des": 1692,
      "Ġcorrispon": 1693,
      "Ġcontrib": 1694,
      "Ġ2005": 1695,
      "Ġuso": 1696,
      "Ġaffer": 1697,
      "Ġanno": 1698,
      "Ġnazionali": 1699,
      "Ġsicure": 1700,
      "Ġabbia": 1701,
      "Ġrappresentan": 1702,
      "dro": 1703,
      "forma": 1704,
      "Ġstate": 1705,
      "cchi": 1706,
      "ĠâĢľ": 1707,
      "Ġsicurezza": 1708,
      "Ġvia": 1709,
      "Ġdiffe": 1710,
      "zzi": 1711,
      "Ġcontratto": 1712,
      "Ġ2016": 1713,
      "ĠâĢĿ": 1714,
      "mania": 1715,
      "ture": 1716,
      "Ġperson": 1717,
      "cante": 1718,
      "male": 1719,
      "gen": 1720,
      "Ġsostitu": 1721,
      "Ġger": 1722,
      "Ġ2010": 1723,
      "Ġconclusioni": 1724,
      "Ġprotezione": 1725,
      "Ġterrito": 1726,
      "Ġdimo": 1727,
      "Ġsub": 1728,
      "ak": 1729,
      "Ġconsta": 1730,
      "Ġorigine": 1731,
      "Ġacqui": 1732,
      "Ġvei": 1733,
      "us": 1734,
      "Ġpregiudiziale": 1735,
      "Ġ63": 1736,
      "Ġterritorio": 1737,
      "mili": 1738,
      "Ġquella": 1739,
      "Ġopport": 1740,
      "Ġavvo": 1741,
      "cre": 1742,
      "Ġprovve": 1743,
      "Ġesenzione": 1744,
      "riori": 1745,
      "Ġcomporta": 1746,
      "Ġnor": 1747,
      "messo": 1748,
      "Ġchia": 1749,
      "Ġcanc": 1750,
      "ata": 1751,
      "Ġpresso": 1752,
      "Ġsmer": 1753,
      "ana": 1754,
      "Ġconseguenza": 1755,
      "Ġrilas": 1756,
      "Ġmercati": 1757,
      "Ġagg": 1758,
      "Ġcapito": 1759,
      "Ġquelle": 1760,
      "Ġrelativi": 1761,
      "ttivi": 1762,
      "ure": 1763,
      "mentare": 1764,
      "Ġdiversi": 1765,
      "Ġproge": 1766,
      "Ġcolle": 1767,
      "Ġbel": 1768,
      "Ġcorso": 1769,
      "Ġ64": 1770,
      "Ġmediante": 1771,
      "09": 1772,
      "Ġprogra": 1773,
      "Ġparere": 1774,
      "ber": 1775,
      "mato": 1776,
      "Ġrichiesta": 1777,
      "Ġinten": 1778,
      "Ġistituisce": 1779,
      "11": 1780,
      "Ġproposta": 1781,
      "Ġelenco": 1782,
      "Ġrinvio": 1783,
      "ordina": 1784,
      "Ġinclu": 1785,
      "Ġacqu": 1786,
      "Ġcompo": 1787,
      "Ġinterven": 1788,
      "ddis": 1789,
      "Ġultima": 1790,
      "stiche": 1791,
      "Ġpersone": 1792,
      "Ġfunziona": 1793,
      "Ġanni": 1794,
      "Ġprocessu": 1795,
      "Ġapplicabili": 1796,
      "Ġaiuti": 1797,
      "ges": 1798,
      "08": 1799,
      "Ġespre": 1800,
      "mentari": 1801,
      "Ġsoddis": 1802,
      "Ġconcorrenza": 1803,
      "vere": 1804,
      "Ġmateri": 1805,
      "nanza": 1806,
      "Ġprati": 1807,
      "Ġtute": 1808,
      "Ġconfronti": 1809,
      "olo": 1810,
      "Ġrileva": 1811,
      "99": 1812,
      "Ġcen": 1813,
      "rente": 1814,
      "05": 1815,
      "04": 1816,
      "nea": 1817,
      "Ġpreviste": 1818,
      "Ġclassi": 1819,
      "Ġsudde": 1820,
      "Ġesercizio": 1821,
      "Ġporto": 1822,
      "gazione": 1823,
      "Ġstra": 1824,
      "Ġviene": 1825,
      "ssioni": 1826,
      "Ġfigu": 1827,
      "Ġdocumenti": 1828,
      "Ġ2017": 1829,
      "lina": 1830,
      "Ġcarattere": 1831,
      "Ġporta": 1832,
      "ttivamente": 1833,
      "Ġaltra": 1834,
      "Ġcompensa": 1835,
      "Ġtrattasi": 1836,
      "es": 1837,
      "Ġrip": 1838,
      "Ġcomunicazione": 1839,
      "late": 1840,
      "Ġdipen": 1841,
      "Ġsemp": 1842,
      "Ġmini": 1843,
      "Ġfar": 1844,
      "Ġinterpretazione": 1845,
      "Ġvendita": 1846,
      "Ġdimostra": 1847,
      "Ġprocessuale": 1848,
      "Ġchi": 1849,
      "ionale": 1850,
      "Ġconta": 1851,
      "Ġnotifica": 1852,
      "Ġannullamento": 1853,
      "Ġargomenti": 1854,
      "Ġdivi": 1855,
      "Ġartt": 1856,
      "lto": 1857,
      "Ġimposta": 1858,
      "Ġrequisiti": 1859,
      "Ġessi": 1860,
      "Ġpesca": 1861,
      "Ġobblighi": 1862,
      "minazione": 1863,
      "Ġmerito": 1864,
      "Ġadegua": 1865,
      "Ġlimita": 1866,
      "Ġess": 1867,
      "Ġappare": 1868,
      "ire": 1869,
      "isca": 1870,
      "Ġintegra": 1871,
      "ttive": 1872,
      "orre": 1873,
      "Ġmotivazione": 1874,
      "Ġaccer": 1875,
      "Ġcontesta": 1876,
      "Ġsegue": 1877,
      "Ġfino": 1878,
      "Ġpagamento": 1879,
      "Ġautorizzazione": 1880,
      "Ġgiorno": 1881,
      "tiene": 1882,
      "03": 1883,
      "gio": 1884,
      "Ġgermania": 1885,
      "Ġcompetente": 1886,
      "Ġindivi": 1887,
      "Ġforza": 1888,
      "camente": 1889,
      "Ġinco": 1890,
      "Ġufficio": 1891,
      "07": 1892,
      "Ġrestituzione": 1893,
      "Ġsoltanto": 1894,
      "mette": 1895,
      "Ġinvesti": 1896,
      "Ġdeno": 1897,
      "Ġcapitolo": 1898,
      "Ġspecifica": 1899,
      "Ġfer": 1900,
      "mali": 1901,
      "Ġprevisto": 1902,
      "cche": 1903,
      "Ġsede": 1904,
      "Ġtermini": 1905,
      "ate": 1906,
      "break": 1907,
      "Ġecu": 1908,
      "ando": 1909,
      "Ġmaterie": 1910,
      "Ġsvilu": 1911,
      "Ġdazi": 1912,
      "Ġprevede": 1913,
      "Ġand": 1914,
      "Ġsue": 1915,
      "Ġcaratteri": 1916,
      "vati": 1917,
      "Ġriconosci": 1918,
      "Ġdispositivo": 1919,
      "Î±": 1920,
      "Ġdisti": 1921,
      "Ġton": 1922,
      "Ġpage": 1923,
      "Ġsegna": 1924,
      "mentazione": 1925,
      "Ġpoiche": 1926,
      "sposto": 1927,
      "Ġluce": 1928,
      "Ġprelievi": 1929,
      "Ġ0094": 1930,
      "Ġdiscip": 1931,
      "Ġtrasforma": 1932,
      "Ġassocia": 1933,
      "Ġni": 1934,
      "Ġprepa": 1935,
      "mping": 1936,
      "Ġden": 1937,
      "Ġpagebreak": 1938,
      "Ġtab": 1939,
      "Ġtotale": 1940,
      "Ġaver": 1941,
      "gre": 1942,
      "Ġeffetto": 1943,
      "renti": 1944,
      "Ġassegnazione": 1945,
      "Ġindividu": 1946,
      "Ġprecedente": 1947,
      "Ġrestri": 1948,
      "Ġlatte": 1949,
      "Ġproposto": 1950,
      "Ġinteresse": 1951,
      "Ġscambi": 1952,
      "Î¿": 1953,
      "Ġbu": 1954,
      "Ġgarantire": 1955,
      "Ġimporti": 1956,
      "guo": 1957,
      "Ġinteressato": 1958,
      "ttura": 1959,
      "Ġindicato": 1960,
      "Ġalmeno": 1961,
      "Ġvali": 1962,
      "Ġindustria": 1963,
      "Ġsti": 1964,
      "Ġcompren": 1965,
      "Ġ1995": 1966,
      "Ġunita": 1967,
      "Ġmone": 1968,
      "Ġprecisa": 1969,
      "lte": 1970,
      "Ġcitta": 1971,
      "Ġus": 1972,
      "Ġtro": 1973,
      "val": 1974,
      "Ġtrasporto": 1975,
      "luzione": 1976,
      "13": 1977,
      "unque": 1978,
      "Ġdescri": 1979,
      "Ġ1998": 1980,
      "Ġprosie": 1981,
      "Ġprosieguo": 1982,
      "Ġsvol": 1983,
      "Ġrecante": 1984,
      "12": 1985,
      "Ġpossibilita": 1986,
      "06": 1987,
      "Ġobbligatorio": 1988,
      "dimenti": 1989,
      "Ġcentra": 1990,
      "Ġprofe": 1991,
      "glie": 1992,
      "Ġintervento": 1993,
      "dite": 1994,
      "Ġquar": 1995,
      "mon": 1996,
      "Ġon": 1997,
      "Ġcasi": 1998,
      "Ġsupple": 1999,
      "ho": 2000,
      "moni": 2001,
      "Ġagenti": 2002,
      "Ġeffetti": 2003,
      "mbur": 2004,
      "Ġlegitti": 2005,
      "tiche": 2006,
      "dato": 2007,
      "Ġesamina": 2008,
      "Ġtenuto": 2009,
      "Ġdecisioni": 2010,
      "Ġol": 2011,
      "Ġpr": 2012,
      "Ġbas": 2013,
      "Ġlt": 2014,
      "Ġcalco": 2015,
      "Ġ2018": 2016,
      "uzione": 2017,
      "Ġgiustifica": 2018,
      "Ġ1992": 2019,
      "Ġpossa": 2020,
      "Ġosservazioni": 2021,
      "Ġfavo": 2022,
      "Ġbasa": 2023,
      "uri": 2024,
      "Ġtele": 2025,
      "Ġamministrazione": 2026,
      "Ġmortga": 2027,
      "Ġdichiarazione": 2028,
      "Ġlato": 2029,
      "15": 2030,
      "Ġmortgages": 2031,
      "Ġordinanza": 2032,
      "Ġfrancese": 2033,
      "Ġunito": 2034,
      "Ġnegli": 2035,
      "gati": 2036,
      "Ġlibe": 2037,
      "Ġsoste": 2038,
      "Ġavvocato": 2039,
      "Ġfunzione": 2040,
      "Ġanali": 2041,
      "Ġtaluni": 2042,
      "Ġeventu": 2043,
      "Ġopportuno": 2044,
      "tari": 2045,
      "Ġprescri": 2046,
      "Ġconsenti": 2047,
      "ha": 2048,
      "rica": 2049,
      "Ġmeta": 2050,
      "cy": 2051,
      "Ġutilizzati": 2052,
      "Ġsostegno": 2053,
      "Ġrifi": 2054,
      "Ġef": 2055,
      "Ġsopra": 2056,
      "Ġquadro": 2057,
      "Ġtutela": 2058,
      "rano": 2059,
      "Ġriguard": 2060,
      "nd": 2061,
      "Ġattuazione": 2062,
      "93": 2063,
      "Ġpol": 2064,
      "Ġattrib": 2065,
      "Ġago": 2066,
      "Ġ1994": 2067,
      "Ġcalcolo": 2068,
      "Ġaveva": 2069,
      "Ġammen": 2070,
      "Ġdebb": 2071,
      "Ġtrasferi": 2072,
      "Ġsl": 2073,
      "Ġfede": 2074,
      "Ġquestioni": 2075,
      "Ġriserva": 2076,
      "Ġcoo": 2077,
      "Ġaddi": 2078,
      "Ġaventi": 2079,
      "Ġregistrazione": 2080,
      "Ġ1996": 2081,
      "Ġiso": 2082,
      "mmi": 2083,
      "Ġconting": 2084,
      "Ġprelievo": 2085,
      "Ġmesi": 2086,
      "Ġgruppo": 2087,
      "Ġgenerali": 2088,
      "000": 2089,
      "Ġimportan": 2090,
      "Ġcitata": 2091,
      "Ġpersona": 2092,
      "ggior": 2093,
      "Ġsostanza": 2094,
      "Ġdepo": 2095,
      "vole": 2096,
      "Ġagosto": 2097,
      "Ġspagna": 2098,
      "Ġesistenza": 2099,
      "Ġsov": 2100,
      "Ġentrata": 2101,
      "voca": 2102,
      "Ġoltre": 2103,
      "Ġpertin": 2104,
      "sk": 2105,
      "Ġfissato": 2106,
      "Ġinse": 2107,
      "Ġ1997": 2108,
      "Ġformu": 2109,
      "cla": 2110,
      "Ġtasso": 2111,
      "Ġstabilisce": 2112,
      "Ġnome": 2113,
      "Ġversa": 2114,
      "mici": 2115,
      "Ġgara": 2116,
      "Ġerano": 2117,
      "labo": 2118,
      "Ġdan": 2119,
      "Ġsufficiente": 2120,
      "Ġpresentato": 2121,
      "fico": 2122,
      "Ġrientra": 2123,
      "Ġcittadi": 2124,
      "Ġmani": 2125,
      "Ġtabella": 2126,
      "Ġy": 2127,
      "lata": 2128,
      "Ġconvenzione": 2129,
      "Ġfabbricazione": 2130,
      "gine": 2131,
      "Ġdisciplina": 2132,
      "Ġanimali": 2133,
      "Ġstatuto": 2134,
      "Ġafferma": 2135,
      "Ġarti": 2136,
      "Ġqueste": 2137,
      "Ġfrumento": 2138,
      "lazioni": 2139,
      "Ġitalia": 2140,
      "ndere": 2141,
      "alizzazione": 2142,
      "22": 2143,
      "Ġfissati": 2144,
      "Ġerro": 2145,
      "Ġcostituisce": 2146,
      "Ġminis": 2147,
      "tture": 2148,
      "16": 2149,
      "18": 2150,
      "Ġproveni": 2151,
      "verso": 2152,
      "fue": 2153,
      "Ġcomunica": 2154,
      "bina": 2155,
      "Ġ1993": 2156,
      "Ġdisponi": 2157,
      "Ġpossibile": 2158,
      "Ġtfue": 2159,
      "Ġconsul": 2160,
      "Ġconsiderato": 2161,
      "Ġposizione": 2162,
      "cina": 2163,
      "Ġimb": 2164,
      "tenze": 2165,
      "ttri": 2166,
      "Ġesemp": 2167,
      "Ġcircostanze": 2168,
      "Ġcapo": 2169,
      "Ġ2019": 2170,
      "17": 2171,
      "Ġinfrazione": 2172,
      "toco": 2173,
      "imento": 2174,
      "Ġinci": 2175,
      "Ġsoddisfa": 2176,
      "Ġequity": 2177,
      "mburgo": 2178,
      "Ġcondizione": 2179,
      "Ġrapporto": 2180,
      "Ġsviluppo": 2181,
      "Ġchiede": 2182,
      "Ġlusse": 2183,
      "Ġdistin": 2184,
      "Ġquantitativi": 2185,
      "mar": 2186,
      "Ġnc": 2187,
      "Ġacco": 2188,
      "14": 2189,
      "ung": 2190,
      "Ġcosti": 2191,
      "Ġalcun": 2192,
      "Ġsoggetti": 2193,
      "Ġsociale": 2194,
      "Ġimpie": 2195,
      "Ġsottopo": 2196,
      "ĠÎ": 2197,
      "Ġsentenze": 2198,
      "Ġcoopera": 2199,
      "Ġpersonale": 2200,
      "Ġlimiti": 2201,
      "Ġdato": 2202,
      "Ġzona": 2203,
      "tati": 2204,
      "Ġdeterminato": 2205,
      "Ġsimili": 2206,
      "Ġoppure": 2207,
      "Ġmassimo": 2208,
      "Ġdurata": 2209,
      "Ġintro": 2210,
      "Ġslsc": 2211,
      "Ġconcern": 2212,
      "Ġvolu": 2213,
      "Ġpotre": 2214,
      "Ġfavore": 2215,
      "Ġinteressi": 2216,
      "Ġiv": 2217,
      "cel": 2218,
      "Ġcarta": 2219,
      "Ġcompresi": 2220,
      "Ġina": 2221,
      "Ġille": 2222,
      "Ġpubblicazione": 2223,
      "Ġproprio": 2224,
      "Ġprevista": 2225,
      "Ġpotrebb": 2226,
      "ino": 2227,
      "Ġcoe": 2228,
      "Ġpresentate": 2229,
      "Ġdispone": 2230,
      "Ġprogramma": 2231,
      "Ġoriginari": 2232,
      "quo": 2233,
      "Ġfase": 2234,
      "parti": 2235,
      "Ġcomunitaria": 2236,
      "ke": 2237,
      "Ġcarico": 2238,
      "riamente": 2239,
      "Ġorganismo": 2240,
      "Ġcontesto": 2241,
      "Ġprotoco": 2242,
      "Ġpotere": 2243,
      "Ġdazio": 2244,
      "Ġprestazioni": 2245,
      "Ġaggiudi": 2246,
      "Ġstu": 2247,
      "Ġsosti": 2248,
      "Ġinchie": 2249,
      "stante": 2250,
      "Ġgiustizia": 2251,
      "Ġprocedure": 2252,
      "Ġpartire": 2253,
      "ssero": 2254,
      "dici": 2255,
      "Ġprincipali": 2256,
      "Ġlavoratori": 2257,
      "Ġragione": 2258,
      "bito": 2259,
      "pacita": 2260,
      "Ġsostiene": 2261,
      "vanti": 2262,
      "Ġlibera": 2263,
      "Ġpresentazione": 2264,
      "zie": 2265,
      "Ġpur": 2266,
      "Ġcombina": 2267,
      "Ġcontin": 2268,
      "Ġfisca": 2269,
      "Ġnota": 2270,
      "Ġbis": 2271,
      "Ġrestituzioni": 2272,
      "Ġscopo": 2273,
      "Ġtesto": 2274,
      "ita": 2275,
      "Ġdanno": 2276,
      "Ġprincipi": 2277,
      "Ġdomande": 2278,
      "Ġverso": 2279,
      "Ġazioni": 2280,
      "Ġcarb": 2281,
      "Ġrispo": 2282,
      "Ġcompetenti": 2283,
      "Ġdeterminazione": 2284,
      "Ġdecre": 2285,
      "Ġcarni": 2286,
      "ral": 2287,
      "27": 2288,
      "Ġhe": 2289,
      "Ġoli": 2290,
      "Ġspecifiche": 2291,
      "Ġesercita": 2292,
      "Ġcono": 2293,
      "gano": 2294,
      "Ġrilascia": 2295,
      "dare": 2296,
      "tezza": 2297,
      "dizione": 2298,
      "sio": 2299,
      "Ġcontenuto": 2300,
      "Ġvalere": 2301,
      "Ġavente": 2302,
      "Ġbilan": 2303,
      "Ġaffi": 2304,
      "Ġlinea": 2305,
      "Ġsupera": 2306,
      "Ġener": 2307,
      "Ġness": 2308,
      "Ġtitoli": 2309,
      "as": 2310,
      "zialmente": 2311,
      "19": 2312,
      "cie": 2313,
      "Ġracco": 2314,
      "venti": 2315,
      "Ġsci": 2316,
      "Ġnecessarie": 2317,
      "Ġiscri": 2318,
      "ment": 2319,
      "Ġsuccessivo": 2320,
      "Ġdife": 2321,
      "Ġcommercio": 2322,
      "agna": 2323,
      "Ġgiorni": 2324,
      "Ġordine": 2325,
      "Ġinchiesta": 2326,
      "Ġcivi": 2327,
      "Ġosta": 2328,
      "Ġfr": 2329,
      "Ġresponsabilita": 2330,
      "ori": 2331,
      "Ġprovviso": 2332,
      "Ġindipen": 2333,
      "land": 2334,
      "Ġsor": 2335,
      "Ġnello": 2336,
      "Ġconsuma": 2337,
      "Ġemer": 2338,
      "Ġappal": 2339,
      "Ġvista": 2340,
      "Ġlussemburgo": 2341,
      "Ġsopp": 2342,
      "23": 2343,
      "Ġlun": 2344,
      "Ġfosse": 2345,
      "Ġpolitica": 2346,
      "for": 2347,
      "pro": 2348,
      "Ġsolle": 2349,
      "Ġgiudici": 2350,
      "Ġcapacita": 2351,
      "Ġdestinati": 2352,
      "Ġgarantite": 2353,
      "scono": 2354,
      "Ġsiffa": 2355,
      "Ġsemi": 2356,
      "Ġsempli": 2357,
      "amento": 2358,
      "Ġadozione": 2359,
      "Ġclasse": 2360,
      "Î¹": 2361,
      "Ġanalo": 2362,
      "Ġmanten": 2363,
      "Ð°": 2364,
      "dotto": 2365,
      "Ġcontratti": 2366,
      "Ġdetti": 2367,
      "Ġconfer": 2368,
      "Ġdove": 2369,
      "Ġ&": 2370,
      "Ġdesignazione": 2371,
      "Ġapplicare": 2372,
      "Ġrespinto": 2373,
      "Ġtonn": 2374,
      "Ġcompetenza": 2375,
      "Ġriduzione": 2376,
      "vante": 2377,
      "Ġmanife": 2378,
      "Ġmm": 2379,
      "Ġdoganali": 2380,
      "Ġivi": 2381,
      "Ġdocumento": 2382,
      "Ġstabilito": 2383,
      "Ġparagrafi": 2384,
      "diti": 2385,
      "Ġcertificato": 2386,
      "correre": 2387,
      "Ġconcessione": 2388,
      "ry": 2389,
      "Ġdistri": 2390,
      "Ġadottare": 2391,
      "Ġgaranzia": 2392,
      "Ġdecreto": 2393,
      "Ġcli": 2394,
      "Ġdisposto": 2395,
      "lita": 2396,
      "Ġho": 2397,
      "Ġnavi": 2398,
      "Ġaty": 2399,
      "Ġvalori": 2400,
      "Ġconvenuta": 2401,
      "Ġprotocollo": 2402,
      "Ġvaria": 2403,
      "Ġ1991": 2404,
      "Ġpropria": 2405,
      "Ġmcy": 2406,
      "tente": 2407,
      "damento": 2408,
      "Ġimme": 2409,
      "Ġ1990": 2410,
      "Ġconserva": 2411,
      "Ġbar": 2412,
      "uso": 2413,
      "Ġofferta": 2414,
      "rane": 2415,
      "Ġfunzionamento": 2416,
      "landa": 2417,
      "Ġ020": 2418,
      "onia": 2419,
      "Ġprofess": 2420,
      "Ġsuper": 2421,
      "Ġveicolo": 2422,
      "Ġmateriali": 2423,
      "Ġiva": 2424,
      "Ġciascuna": 2425,
      "Ġanalisi": 2426,
      "Ġante": 2427,
      "Ġcommerciale": 2428,
      "Ġinteressati": 2429,
      "Ġrie": 2430,
      "Ġstabilire": 2431,
      "Ġbre": 2432,
      "Ġmarchi": 2433,
      "stica": 2434,
      "Ġordina": 2435,
      "Ġelettri": 2436,
      "cora": 2437,
      "Ġfissazione": 2438,
      "Ġcaratteristiche": 2439,
      "Ġaper": 2440,
      "Ġistituzione": 2441,
      "Ġtonnella": 2442,
      "ir": 2443,
      "ka": 2444,
      "Ġorganismi": 2445,
      "Ġproposito": 2446,
      "Ġapparecchi": 2447,
      "ble": 2448,
      "Ġregolamenti": 2449,
      "Ġrimb": 2450,
      "Ġqualifica": 2451,
      "Ġbassi": 2452,
      "Ġsostanze": 2453,
      "mati": 2454,
      "Ġsupra": 2455,
      "Ġalcuni": 2456,
      "Ġimpi": 2457,
      "Ġrimbor": 2458,
      "Ġdistrib": 2459,
      "Ġcolo": 2460,
      "Ġalcuna": 2461,
      "Ġvin": 2462,
      "line": 2463,
      "Ġdecorrere": 2464,
      "tate": 2465,
      "25": 2466,
      "Ġsch": 2467,
      "Ġmenziona": 2468,
      "Ġscri": 2469,
      "Ġspetta": 2470,
      "Ġoppo": 2471,
      "latore": 2472,
      "Ġgiuridico": 2473,
      "Ġrappresentanti": 2474,
      "Ġing": 2475,
      "ranno": 2476,
      "Ġmedesimo": 2477,
      "Ġlettere": 2478,
      "Ġaut": 2479,
      "Ġerrore": 2480,
      "Ġsigni": 2481,
      "Ġmu": 2482,
      "Ġnetto": 2483,
      "24": 2484,
      "Ġsoggetto": 2485,
      "ard": 2486,
      "Ġconver": 2487,
      "Ġloca": 2488,
      "Ġcondannare": 2489,
      "Ġ1988": 2490,
      "Ġbilancio": 2491,
      "Ġconferi": 2492,
      "Ġvolta": 2493,
      "Ġcause": 2494,
      "Ġconne": 2495,
      "Ġaccordi": 2496,
      "enze": 2497,
      "31": 2498,
      "Ġua": 2499,
      "Ġelemento": 2500,
      "Ġsee": 2501,
      "Ġ1987": 2502,
      "Ġcommerciali": 2503,
      "Ġsussi": 2504,
      "Ġatte": 2505,
      "ĠÂ°": 2506,
      "Ġpartecipazione": 2507,
      "34": 2508,
      "Ġ106": 2509,
      "era": 2510,
      "85": 2511,
      "Ġaven": 2512,
      "77": 2513,
      "Ġeste": 2514,
      "Ġpropor": 2515,
      "roni": 2516,
      "spen": 2517,
      "Ġlavori": 2518,
      "Ġdovrebbe": 2519,
      "Ġunico": 2520,
      "Ġprove": 2521,
      "Ġprestazione": 2522,
      "Ġtedes": 2523,
      "dese": 2524,
      "ps": 2525,
      "Ġcontenenti": 2526,
      "ko": 2527,
      "Ġltd": 2528,
      "Ġpiano": 2529,
      "uito": 2530,
      "ccia": 2531,
      "Ġprevisti": 2532,
      "Ġobiettivo": 2533,
      "Ġsignifica": 2534,
      "ramente": 2535,
      "Ġliqui": 2536,
      "Ġesempio": 2537,
      "Ġossi": 2538,
      "Ġeconomico": 2539,
      "Ġprogetto": 2540,
      "vero": 2541,
      "ÏĦ": 2542,
      "Ġazi": 2543,
      "Ġaere": 2544,
      "Ġaff": 2545,
      "Ġ2020": 2546,
      "Ġ104": 2547,
      "Ġ1985": 2548,
      "Ġnozione": 2549,
      "Ġaci": 2550,
      "Ġquota": 2551,
      "Ġazione": 2552,
      "ĠÐ": 2553,
      "Ġmassima": 2554,
      "Ġsubordina": 2555,
      "Ġ1989": 2556,
      "Ġcapitale": 2557,
      "Ġbanca": 2558,
      "Ġagente": 2559,
      "Ġone": 2560,
      "Ġnote": 2561,
      "Ġcooperazione": 2562,
      "Ġfrancia": 2563,
      "Ġren": 2564,
      "Ġcostru": 2565,
      "Ġmacch": 2566,
      "Ġapprova": 2567,
      "Ġritiene": 2568,
      "Ġancora": 2569,
      "ena": 2570,
      "Ġsospen": 2571,
      "Ġmiglio": 2572,
      "ndo": 2573,
      "iti": 2574,
      "Ġudi": 2575,
      "Ġaero": 2576,
      "Ġmese": 2577,
      "74": 2578,
      "Ġcommi": 2579,
      "Ġannu": 2580,
      "Ġequival": 2581,
      "Ġsottovo": 2582,
      "Ġamp": 2583,
      "Ġdiscri": 2584,
      "Ġgiuris": 2585,
      "Ġuo": 2586,
      "Ġrx": 2587,
      "Ġdenomina": 2588,
      "ane": 2589,
      "Ġdestinazione": 2590,
      "Ġavv": 2591,
      "Ġov": 2592,
      "Ġbian": 2593,
      "Ġcambi": 2594,
      "Ġrispon": 2595,
      "arci": 2596,
      "Ġacque": 2597,
      "Ġobiettivi": 2598,
      "Ġder": 2599,
      "Ġnuovo": 2600,
      "Ġcontinu": 2601,
      "Ġel": 2602,
      "Ġconformi": 2603,
      "Ġcif": 2604,
      "isto": 2605,
      "Ġinternazionale": 2606,
      "Ġrisarci": 2607,
      "Ġcrediti": 2608,
      "Ġannullare": 2609,
      "Ġammenda": 2610,
      "ssili": 2611,
      "Ġmedia": 2612,
      "Ġgiudizio": 2613,
      "Ġconclusione": 2614,
      "stria": 2615,
      "muni": 2616,
      "33": 2617,
      "Ġrisposta": 2618,
      "Ġora": 2619,
      "60": 2620,
      "Ġottenere": 2621,
      "Ġfir": 2622,
      "Ġoperatori": 2623,
      "Ġagen": 2624,
      "90": 2625,
      "Ġnomina": 2626,
      "data": 2627,
      "mettere": 2628,
      "Ġadde": 2629,
      "Ġsingo": 2630,
      "Ġentita": 2631,
      "Ġtalune": 2632,
      "Ġazien": 2633,
      "Ġvendite": 2634,
      "Ġfre": 2635,
      "Ġudienza": 2636,
      "Ġprofi": 2637,
      "sch": 2638,
      "Ġpassi": 2639,
      "Ġpubblici": 2640,
      "Ġdiversa": 2641,
      "Ġdomici": 2642,
      "Ġaustria": 2643,
      "Ġdebba": 2644,
      "Ġdeterminare": 2645,
      "ther": 2646,
      "Ġstrumenti": 2647,
      "Ġaccetta": 2648,
      "Ġquantitativo": 2649,
      "Ġfari": 2650,
      "Ġipo": 2651,
      "Ġscadenza": 2652,
      "orse": 2653,
      "Ġmanu": 2654,
      "rire": 2655,
      "metri": 2656,
      "eto": 2657,
      "Ġnega": 2658,
      "Ġistru": 2659,
      "Ġdovuto": 2660,
      "Ġriun": 2661,
      "Ġbovi": 2662,
      "Ġrilevare": 2663,
      "Ġproprieta": 2664,
      "Ġassicurazione": 2665,
      "Ġdeten": 2666,
      "gne": 2667,
      "Ġavere": 2668,
      "Ġfornire": 2669,
      "Ġorienta": 2670,
      "Ĥ¬": 2671,
      "Ġapplicano": 2672,
      "Ġinfine": 2673,
      "Ġessen": 2674,
      "Ġeffica": 2675,
      "Ġspeciale": 2676,
      "Ġesportazioni": 2677,
      "taggio": 2678,
      "Ġ1975": 2679,
      "tesi": 2680,
      "38": 2681,
      "Ġtitolare": 2682,
      "Ġinterpretato": 2683,
      "Ġgiuridica": 2684,
      "Ġmentre": 2685,
      "ggia": 2686,
      "66": 2687,
      "35": 2688,
      "Ġpregiudizio": 2689,
      "limina": 2690,
      "Ġemi": 2691,
      "til": 2692,
      "Ġdichiarato": 2693,
      "fr": 2694,
      "specie": 2695,
      "Ġtutto": 2696,
      "Ġarmoni": 2697,
      "Ġconsumo": 2698,
      "cht": 2699,
      "Ġorganizza": 2700,
      "Ġdisc": 2701,
      "ĠâĤ¬": 2702,
      "Ġagricoli": 2703,
      "Ġbelgio": 2704,
      "Ġindiri": 2705,
      "Ġcontrolli": 2706,
      "Ġdes": 2707,
      "Ġdefinizione": 2708,
      "Ġirlanda": 2709,
      "Ġcircolazione": 2710,
      "missi": 2711,
      "bene": 2712,
      "Ġidone": 2713,
      "Ġpresentare": 2714,
      "Ġtener": 2715,
      "Ġente": 2716,
      "um": 2717,
      "Ġexc": 2718,
      "dati": 2719,
      "Ġcivile": 2720,
      "45": 2721,
      "ttro": 2722,
      "azioni": 2723,
      "Ġgio": 2724,
      "Ġimpugnazione": 2725,
      "ssita": 2726,
      "Ġrichiedente": 2727,
      "cupa": 2728,
      "Ġuami": 2729,
      "Ġrisco": 2730,
      "we": 2731,
      "Ġdette": 2732,
      "ppi": 2733,
      "Ġmancan": 2734,
      "ft": 2735,
      "Ġflu": 2736,
      "Ġcompon": 2737,
      "Ġaltresi": 2738,
      "Ġzione": 2739,
      "Ġrispetta": 2740,
      "Ġunicamente": 2741,
      "Ġmento": 2742,
      "Ġfondamenta": 2743,
      "Ġderoga": 2744,
      "ll": 2745,
      "rita": 2746,
      "28": 2747,
      "Ġassenza": 2748,
      "Ġomo": 2749,
      "29": 2750,
      "Ġsara": 2751,
      "ii": 2752,
      "Ġorbene": 2753,
      "Ġvolume": 2754,
      "Ġquote": 2755,
      "Ġlimite": 2756,
      "Ġfattispecie": 2757,
      "ad": 2758,
      "Ġq": 2759,
      "onna": 2760,
      "Ġposto": 2761,
      "Ġattra": 2762,
      "Ġsalvo": 2763,
      "zionalita": 2764,
      "Ġprovvedimenti": 2765,
      "Ġsto": 2766,
      "Ð¸": 2767,
      "Ġveicoli": 2768,
      "Ġfisi": 2769,
      "Ġconcentra": 2770,
      "Ġcontroversia": 2771,
      "ario": 2772,
      "gh": 2773,
      "Ġterza": 2774,
      "Ġindicati": 2775,
      "Ġester": 2776,
      "Ġvarie": 2777,
      "Ġpl": 2778,
      "Ġpotrebbe": 2779,
      "Ġperiodi": 2780,
      "Ġlegislati": 2781,
      "Ġeffettuate": 2782,
      "Ġeccezione": 2783,
      "Ġconge": 2784,
      "Ġzone": 2785,
      "Ġregole": 2786,
      "Ġargomento": 2787,
      "Ġcomprese": 2788,
      "vin": 2789,
      "Ġrisultati": 2790,
      "Ġconcernente": 2791,
      "Ġsoli": 2792,
      "Ġrive": 2793,
      "Ġacquisto": 2794,
      "ms": 2795,
      "Ġofferte": 2796,
      "Ġdiverso": 2797,
      "Ġsomma": 2798,
      "Ġtipi": 2799,
      "sita": 2800,
      "Ġgb": 2801,
      "Ġsistemi": 2802,
      "mbh": 2803,
      "Ġinden": 2804,
      "fetta": 2805,
      "Ġconvenuto": 2806,
      "ttroni": 2807,
      "Ġinformazione": 2808,
      "Ġpratica": 2809,
      "Ġposi": 2810,
      "genza": 2811,
      "Ġantidu": 2812,
      "Ġaliquo": 2813,
      "Ġvoglia": 2814,
      "Ġdele": 2815,
      "Ġcirca": 2816,
      "Ġantidumping": 2817,
      "Ġatten": 2818,
      "Ġcin": 2819,
      "Ġsuperfici": 2820,
      "Ġelettroni": 2821,
      "stente": 2822,
      "Ġmili": 2823,
      "fru": 2824,
      "Ġminimo": 2825,
      "Ġmala": 2826,
      "Ġtratti": 2827,
      "Ġtonnellate": 2828,
      "Ġgmbh": 2829,
      "Ġsugli": 2830,
      "Ġopposizione": 2831,
      "Ġtedesco": 2832,
      "alla": 2833,
      "Ġirri": 2834,
      "Ġnormale": 2835,
      "gn": 2836,
      "Ġadesione": 2837,
      "Ġgro": 2838,
      "messa": 2839,
      "Ġinca": 2840,
      "Ġgas": 2841,
      "Ġmancanza": 2842,
      "Ġvoci": 2843,
      "Ġrappresentante": 2844,
      "Ġfinanziario": 2845,
      "orte": 2846,
      "Ġsarebbero": 2847,
      "44": 2848,
      "Ġfigura": 2849,
      "Ġpercen": 2850,
      "Ġtr": 2851,
      "Ġfornitura": 2852,
      "ttuale": 2853,
      "Ġinsie": 2854,
      "Ġ125": 2855,
      "Ġconsegna": 2856,
      "Ġrecu": 2857,
      "Ġintesa": 2858,
      "Ġsemo": 2859,
      "Ġop": 2860,
      "Ġet": 2861,
      "Ġtessili": 2862,
      "Ġclassifica": 2863,
      "Ġtess": 2864,
      "Ġsigno": 2865,
      "Ġfondi": 2866,
      "Ġruolo": 2867,
      "Ġdesigna": 2868,
      "Ġrisorse": 2869,
      "Ġpremi": 2870,
      "Ġdiretto": 2871,
      "Ġmodello": 2872,
      "Ġove": 2873,
      "Ġtransito": 2874,
      "Ġtecniche": 2875,
      "Ġcit": 2876,
      "Ġutilizzato": 2877,
      "terio": 2878,
      "tamento": 2879,
      "Ġdk": 2880,
      "Ġcop": 2881,
      "vvi": 2882,
      "Ïģ": 2883,
      "iscono": 2884,
      "trice": 2885,
      "duce": 2886,
      "Ġistituzioni": 2887,
      "Ġcase": 2888,
      "gue": 2889,
      "Ġdeli": 2890,
      "Ġie": 2891,
      "Ġclauso": 2892,
      "stre": 2893,
      "pc": 2894,
      "Ġsk": 2895,
      "Ġnecessita": 2896,
      "van": 2897,
      "Ġlatti": 2898,
      "Ġeffettivamente": 2899,
      "Ġeffettuata": 2900,
      "Ġestra": 2901,
      "Ġraccolta": 2902,
      "Ġinda": 2903,
      "26": 2904,
      "Ġvengono": 2905,
      "nor": 2906,
      "80": 2907,
      "Ġcategorie": 2908,
      "Ġfres": 2909,
      "Ġdivieto": 2910,
      "Ġprendere": 2911,
      "Ġassociazione": 2912,
      "Ġovvero": 2913,
      "Ġuc": 2914,
      "nita": 2915,
      "Ġricev": 2916,
      "mica": 2917,
      "Ġolio": 2918,
      "vis": 2919,
      "Ġesclusivamente": 2920,
      "Ġaggiunto": 2921,
      "Ġulte": 2922,
      "Ġrilevato": 2923,
      "Ġmessa": 2924,
      "durre": 2925,
      "Ġitaliana": 2926,
      "Ġsani": 2927,
      "Ġfederale": 2928,
      "Ġvol": 2929,
      "Ġcalcolato": 2930,
      "Ġnuovi": 2931,
      "dotti": 2932,
      "Ġcomportamento": 2933,
      "sura": 2934,
      "Ġpresentata": 2935,
      "Ġoggetti": 2936,
      "Ġciascun": 2937,
      "tor": 2938,
      "tuto": 2939,
      "Ġfiscale": 2940,
      "Ġsesta": 2941,
      "Ġcentrali": 2942,
      "Ġtrasferimento": 2943,
      "Ġinsieme": 2944,
      "Ġdomicilio": 2945,
      "Ġcompa": 2946,
      "Ġ101": 2947,
      "Ġgiurisdi": 2948,
      "Ġcircostanza": 2949,
      "Ġoperazione": 2950,
      "vata": 2951,
      "Ġdie": 2952,
      "ranti": 2953,
      "Ġdifferenza": 2954,
      "Ġ1986": 2955,
      "Ġindicazione": 2956,
      "Ġinteressate": 2957,
      "Ġconosc": 2958,
      "Ġacqua": 2959,
      "Ġine": 2960,
      "Ġnuova": 2961,
      "Ġdumping": 2962,
      "Ġka": 2963,
      "sposizione": 2964,
      "Ġassun": 2965,
      "Ġrisarcimento": 2966,
      "ccani": 2967,
      "Ġforfetta": 2968,
      "Ġgarantito": 2969,
      "Ġraggiun": 2970,
      "landese": 2971,
      "bri": 2972,
      "ionamento": 2973,
      "Ġdiretta": 2974,
      "Ġmacchine": 2975,
      "Ġvalutare": 2976,
      "Ġriparti": 2977,
      "Ġmodifiche": 2978,
      "Ġmodificare": 2979,
      "cata": 2980,
      "nolo": 2981,
      "Ġrico": 2982,
      "Ġtenendo": 2983,
      "Ġza": 2984,
      "cchia": 2985,
      "Ġsignor": 2986,
      "Ġvieta": 2987,
      "Ġadottate": 2988,
      "39": 2989,
      "Ġpropri": 2990,
      "Ġinde": 2991,
      "Ġportata": 2992,
      "Ġeta": 2993,
      "Ġaspe": 2994,
      "Ġsega": 2995,
      "Ġpresu": 2996,
      "Ġmari": 2997,
      "Ġsele": 2998,
      "Ġferro": 2999,
      "wa": 3000,
      "Ġpotuto": 3001,
      "Ġko": 3002,
      "Ġproduttore": 3003,
      "Ġare": 3004,
      "Ġgeo": 3005,
      "Ġusa": 3006,
      "bbi": 3007,
      "Ġaf": 3008,
      "dri": 3009,
      "bu": 3010,
      "Ġsalu": 3011,
      "Ġperse": 3012,
      "Ġcoper": 3013,
      "Ġcomplessi": 3014,
      "Ġpertinenti": 3015,
      "Ġ2021": 3016,
      "Ðµ": 3017,
      "Ġpla": 3018,
      "Ġevita": 3019,
      "Ġnego": 3020,
      "Ġamministrazioni": 3021,
      "entale": 3022,
      "tur": 3023,
      "Ġriesa": 3024,
      "sche": 3025,
      "Ġanzi": 3026,
      "Ġcompreso": 3027,
      "Ġhu": 3028,
      "cle": 3029,
      "Ġscel": 3030,
      "Ġfasci": 3031,
      "Ġother": 3032,
      "cevi": 3033,
      "Ġsuccessivamente": 3034,
      "Ġapr": 3035,
      "Ġdallo": 3036,
      "Ġdimin": 3037,
      "tone": 3038,
      "ger": 3039,
      "cro": 3040,
      "Ġpopo": 3041,
      "Ġdipendenti": 3042,
      "Ġmateriale": 3043,
      "Ġnn": 3044,
      "Ġirricevi": 3045,
      "Ġmeccani": 3046,
      "tante": 3047,
      "Ġtan": 3048,
      "Ġvir": 3049,
      "Ġdefinitiva": 3050,
      "Ð¾": 3051,
      "Ġenergia": 3052,
      "98": 3053,
      "58": 3054,
      "36": 3055,
      "Ġattribui": 3056,
      "Ġbio": 3057,
      "at": 3058,
      "Ġpromo": 3059,
      "Ġ500": 3060,
      "ssazione": 3061,
      "Ġamministrativo": 3062,
      "Ġomolo": 3063,
      "Ġprovenienti": 3064,
      "Ġcompati": 3065,
      "giun": 3066,
      "Ġperman": 3067,
      "ding": 3068,
      "Ġsoluzione": 3069,
      "Ġwe": 3070,
      "Ġcampagna": 3071,
      "Ġ107": 3072,
      "Ġquarto": 3073,
      "Ġtrasformazione": 3074,
      "Ġconsiderazioni": 3075,
      "Ġsola": 3076,
      "cci": 3077,
      "Ġrischi": 3078,
      "ritori": 3079,
      "Ġimballa": 3080,
      "Ġod": 3081,
      "Ġrilascio": 3082,
      "Ġparita": 3083,
      "54": 3084,
      "Ġrichiesto": 3085,
      "Ġcine": 3086,
      "Ġaffa": 3087,
      "vanza": 3088,
      "Ġoperatore": 3089,
      "Ġ1983": 3090,
      "Ġavviso": 3091,
      "Ġconsentire": 3092,
      "Ġprp": 3093,
      "dendo": 3094,
      "37": 3095,
      "Ġidro": 3096,
      "Ġria": 3097,
      "geri": 3098,
      "Ġesaminare": 3099,
      "Ġeventualmente": 3100,
      "Ġcomunitarie": 3101,
      "Ġspecifico": 3102,
      "Ġvertente": 3103,
      "Ġsetti": 3104,
      "Ġconsiderati": 3105,
      "Ġammissi": 3106,
      "Ġdimostrare": 3107,
      "it": 3108,
      "Ġconcluso": 3109,
      "Ġdifesa": 3110,
      "ĠÃ": 3111,
      "Ġvita": 3112,
      "Ġgr": 3113,
      "56": 3114,
      "Ġvalidita": 3115,
      "dotta": 3116,
      "renze": 3117,
      "Ġfinanziaria": 3118,
      "Ġaccia": 3119,
      "Ġespressa": 3120,
      "Ġmodificata": 3121,
      "Ġfinanziari": 3122,
      "Ġambiente": 3123,
      "Ġcontributo": 3124,
      "59": 3125,
      "Ġricevi": 3126,
      "zzato": 3127,
      "Ġdebi": 3128,
      "dazione": 3129,
      "Ġterritori": 3130,
      "Ġfondo": 3131,
      "Ġ1981": 3132,
      "Ġabbiano": 3133,
      "mano": 3134,
      "Ġrimborso": 3135,
      "Ġ1984": 3136,
      "Ġdisponibili": 3137,
      "Ġsostituito": 3138,
      "Ġdiven": 3139,
      "Ġaumento": 3140,
      "Î¿Ï": 3141,
      "Ġsalute": 3142,
      "arsi": 3143,
      "Ġidentificazione": 3144,
      "mpimento": 3145,
      "gallo": 3146,
      "Ġdiscu": 3147,
      "Ġrealizza": 3148,
      "Ġtur": 3149,
      "Ġeletto": 3150,
      "Ġ300": 3151,
      "Ġverificare": 3152,
      "Ġ120": 3153,
      "Ġcontroversa": 3154,
      "voli": 3155,
      "Îµ": 3156,
      "Ġpassa": 3157,
      "Ġmondi": 3158,
      "Ġintende": 3159,
      "ionali": 3160,
      "Ġavuto": 3161,
      "Ġdimen": 3162,
      "Ġultimi": 3163,
      "Ġimma": 3164,
      "Ġportogallo": 3165,
      "Ġlegislazione": 3166,
      "Ġtassi": 3167,
      "Ġammon": 3168,
      "Ġsve": 3169,
      "ki": 3170,
      "Ġutilizzata": 3171,
      "Ġsostenute": 3172,
      "Ġeventuali": 3173,
      "47": 3174,
      "Ġattraverso": 3175,
      "46": 3176,
      "Ġserie": 3177,
      "Ġperal": 3178,
      "Ġavendo": 3179,
      "49": 3180,
      "Ġmetalli": 3181,
      "Ġassistenza": 3182,
      "Ġriuni": 3183,
      "Ġcollega": 3184,
      "Ġevitare": 3185,
      "care": 3186,
      "57": 3187,
      "Ġfinanziamento": 3188,
      "Ġfibre": 3189,
      "Ġregione": 3190,
      "Ġimpiego": 3191,
      "genti": 3192,
      "Ġmedesima": 3193,
      "Ġstabilite": 3194,
      "Ġelabo": 3195,
      "Ġsepa": 3196,
      "Ġperaltro": 3197,
      "Ġcomunitari": 3198,
      "Ġnl": 3199,
      "Ġcontingente": 3200,
      "Ġparo": 3201,
      "Ġfuori": 3202,
      "Ġemerge": 3203,
      "tere": 3204,
      "Ġpubbliche": 3205,
      "Ġgrano": 3206,
      "Ġritenuto": 3207,
      "Ġriporta": 3208,
      "Ġsettori": 3209,
      "Ġappar": 3210,
      "Ġ1982": 3211,
      "Ġ1968": 3212,
      "Ġore": 3213,
      "Ġagenzia": 3214,
      "Ġindipendente": 3215,
      "Ġsemplice": 3216,
      "Ġnecessari": 3217,
      "lese": 3218,
      "Ġtar": 3219,
      "Ġprocesso": 3220,
      "Ġstessi": 3221,
      "Ġeffettuato": 3222,
      "Ġricordare": 3223,
      "Ġmezzi": 3224,
      "Ġinade": 3225,
      "Ġcollabo": 3226,
      "mite": 3227,
      "Ġricer": 3228,
      "Ġbianco": 3229,
      "Ġconsiderata": 3230,
      "Ġitaliano": 3231,
      "Ġbr": 3232,
      "Ġ1977": 3233,
      "Ġaa": 3234,
      "Ġirre": 3235,
      "Ġ207": 3236,
      "Ġdeposi": 3237,
      "ster": 3238,
      "Ġdichiara": 3239,
      "Ġmanifesta": 3240,
      "Ġcomprende": 3241,
      "tazioni": 3242,
      "Ġpossano": 3243,
      "Ġconversione": 3244,
      "Ġresponsabile": 3245,
      "Ġdeterminati": 3246,
      "meri": 3247,
      "Ġbor": 3248,
      "Ġindicazioni": 3249,
      "Ġrica": 3250,
      "51": 3251,
      "Ġidentifica": 3252,
      "Ġdise": 3253,
      "Ġspagno": 3254,
      "fficienti": 3255,
      "Ġagricol": 3256,
      "Ġja": 3257,
      "Ġ\\": 3258,
      "ds": 3259,
      "Ġregionale": 3260,
      "amente": 3261,
      "Ġlicen": 3262,
      "53": 3263,
      "Ġspazio": 3264,
      "tional": 3265,
      "Î½": 3266,
      "Ġdenominazione": 3267,
      "Ġrappresentata": 3268,
      "Ġillegitti": 3269,
      "Ġdichiarare": 3270,
      "Ġprofessionale": 3271,
      "Ġ1976": 3272,
      "glianza": 3273,
      "duto": 3274,
      "Ġcn": 3275,
      "taria": 3276,
      "Ġcodici": 3277,
      "Ġsuddetto": 3278,
      "Ġcentrale": 3279,
      "lin": 3280,
      "elliere": 3281,
      "Ġvirtu": 3282,
      "Ġsottovoce": 3283,
      "Ġee": 3284,
      "Ġmezzo": 3285,
      "Ġsegnatamente": 3286,
      "Ġinterveni": 3287,
      "Ġmondiale": 3288,
      "Ġtemporane": 3289,
      "mpe": 3290,
      "Ġstabiliti": 3291,
      "and": 3292,
      "Ġinizia": 3293,
      "Ġabroga": 3294,
      "Ġformazione": 3295,
      "Ġfunzioni": 3296,
      "bale": 3297,
      "áĥ": 3298,
      "Ġ400": 3299,
      "Ġ136": 3300,
      "41": 3301,
      "tito": 3302,
      "Ġvini": 3303,
      "Ġcoordina": 3304,
      "Ġprocedere": 3305,
      "Ġliber": 3306,
      "Ġdia": 3307,
      "Ġadottata": 3308,
      "Ġretti": 3309,
      "Ġsovven": 3310,
      "Ġpezzi": 3311,
      "Ġcorrispondente": 3312,
      "Ġrifiuti": 3313,
      "Ġprecedenti": 3314,
      "Ġpresti": 3315,
      "mpati": 3316,
      "Ġraff": 3317,
      "vali": 3318,
      "Ġlavoratore": 3319,
      "0000": 3320,
      "Ġretrib": 3321,
      "mata": 3322,
      "cente": 3323,
      "Ġutilizzo": 3324,
      "Ġperche": 3325,
      "Ġdescrizione": 3326,
      "95": 3327,
      "Ġincomb": 3328,
      "Ġnul": 3329,
      "guire": 3330,
      "Ġcommercializzazione": 3331,
      "Ġrige": 3332,
      "Ġapprovazione": 3333,
      "Ġcontemp": 3334,
      "Ġcittadini": 3335,
      "Ġposta": 3336,
      "Ġacido": 3337,
      "tanti": 3338,
      "Ġimmedia": 3339,
      "Ġzucche": 3340,
      "Ġarmonizzazione": 3341,
      "Ġparziale": 3342,
      "Ġtrova": 3343,
      "Ġipotesi": 3344,
      "tz": 3345,
      "Ġstre": 3346,
      "Ġis": 3347,
      "Ġgui": 3348,
      "Ġvari": 3349,
      "70": 3350,
      "Ġ148": 3351,
      "Ġassegna": 3352,
      "Ġorto": 3353,
      "Ġindirizzo": 3354,
      "Ġrichia": 3355,
      "tero": 3356,
      "Ġrete": 3357,
      "Ġriconoscimento": 3358,
      "unci": 3359,
      "Ġgreggio": 3360,
      "ler": 3361,
      "Ġclassificazione": 3362,
      "Ġfranco": 3363,
      "Ġeventuale": 3364,
      "Ġevi": 3365,
      "Ġconcerne": 3366,
      "elleria": 3367,
      "Ġcostante": 3368,
      "Ġgiurisdizionale": 3369,
      "Ġcosto": 3370,
      "Ġfascicolo": 3371,
      "Ġpoter": 3372,
      "Ġalcune": 3373,
      "Ġsalva": 3374,
      "Ġmonete": 3375,
      "plica": 3376,
      "Ġpon": 3377,
      "Ġliberta": 3378,
      "32": 3379,
      "Ġstabilita": 3380,
      "Ġcandi": 3381,
      "Ġ1510": 3382,
      "Ġfacolta": 3383,
      "Ġbanche": 3384,
      "Ġmodelli": 3385,
      "Ġpercentuale": 3386,
      "stico": 3387,
      "nti": 3388,
      "Ġimpianti": 3389,
      "Ġami": 3390,
      "Ġderivanti": 3391,
      "ton": 3392,
      "Ġparticolari": 3393,
      "Ġstesse": 3394,
      "Ġdestinato": 3395,
      "stenti": 3396,
      "gie": 3397,
      "peri": 3398,
      "Ġnecessaria": 3399,
      "Ġegli": 3400,
      "Ġdeciso": 3401,
      "Ġterm": 3402,
      "Ġnomen": 3403,
      "Ġalimentari": 3404,
      "turco": 3405,
      "Ġpt": 3406,
      "Ġrichieste": 3407,
      "Ġglo": 3408,
      "Î·": 3409,
      "Ġfissare": 3410,
      "ccio": 3411,
      "Ġconstatare": 3412,
      "Ġpronunciato": 3413,
      "Ġposte": 3414,
      "Ġaliquota": 3415,
      "Ġrispettivamente": 3416,
      "Ġvinco": 3417,
      "Ġinvestimenti": 3418,
      "Ġcriterio": 3419,
      "Ġriesame": 3420,
      "Ġspecifici": 3421,
      "Ġgeogra": 3422,
      "Ġeffettuare": 3423,
      "Ġconfe": 3424,
      "Ġottenuti": 3425,
      "Ġpregiudiziali": 3426,
      "Ġconsidera": 3427,
      "Ġesportatori": 3428,
      "Ġnomencla": 3429,
      "Ġriguardanti": 3430,
      "ĠÏ": 3431,
      "Ġcancelliere": 3432,
      "Ġiniziale": 3433,
      "Ġimposte": 3434,
      "sivo": 3435,
      "Ġ0406": 3436,
      "Ġsubito": 3437,
      "Ġindicare": 3438,
      "Ġapplicato": 3439,
      "Ġversione": 3440,
      "Ã¸": 3441,
      "Ġoccupa": 3442,
      "91": 3443,
      "Ġbur": 3444,
      "Ġaffin": 3445,
      "trici": 3446,
      "gliere": 3447,
      "Ġcomunque": 3448,
      "Ġdeterminate": 3449,
      "Ġnegozia": 3450,
      "Ġconsente": 3451,
      "Ġgrasse": 3452,
      "Ġanteriore": 3453,
      "Ġavvi": 3454,
      "rone": 3455,
      "Ġcas": 3456,
      "Ġtramite": 3457,
      "Ġsempre": 3458,
      "Ġcro": 3459,
      "Ġossia": 3460,
      "Ġpensione": 3461,
      "Ġnomenclatura": 3462,
      "Ð½": 3463,
      "Ġcl": 3464,
      "Ġdiscre": 3465,
      "Ġeffettivo": 3466,
      "68": 3467,
      "Ġ1979": 3468,
      "Ġconcre": 3469,
      "Ġcancelleria": 3470,
      "Ġinterne": 3471,
      "Ġconoscenza": 3472,
      "Ġposse": 3473,
      "Ġfondamentali": 3474,
      "Ġgranturco": 3475,
      "Ġsoggior": 3476,
      "cito": 3477,
      "Ġconsegue": 3478,
      "Ġvantaggio": 3479,
      "Ġdettagli": 3480,
      "Ġpresi": 3481,
      "sco": 3482,
      "Ġinglese": 3483,
      "Ġcostitui": 3484,
      "up": 3485,
      "Ġceca": 3486,
      "Ġperce": 3487,
      "Ġcolonna": 3488,
      "Ġjuri": 3489,
      "Ġprovvedimento": 3490,
      "Ġaggiudica": 3491,
      "Ġcontrolla": 3492,
      "52": 3493,
      "Ġimputa": 3494,
      "84": 3495,
      "Ġmalatti": 3496,
      "dano": 3497,
      "Ġpra": 3498,
      "cuo": 3499,
      "Ġreddi": 3500,
      "Ġfamili": 3501,
      "Ġomologazione": 3502,
      "71": 3503,
      "Ġ112": 3504,
      "Ġequivalente": 3505,
      "mme": 3506,
      "Ġspeciali": 3507,
      "Ġeffettiva": 3508,
      "pero": 3509,
      "mpa": 3510,
      "Ġbasato": 3511,
      "Ġdovrebbero": 3512,
      "Ġaffinche": 3513,
      "Ġzuccheri": 3514,
      "Ġmalto": 3515,
      "Ġapertura": 3516,
      "Ġpresenza": 3517,
      "Ġnord": 3518,
      "Ġappalto": 3519,
      "Ġamministrative": 3520,
      "clo": 3521,
      "tail": 3522,
      "Ġdiscriminazione": 3523,
      "smo": 3524,
      "Ġ030": 3525,
      "Ġalimentare": 3526,
      "Ġsh": 3527,
      "Ġconsen": 3528,
      "tici": 3529,
      "Ġpoteva": 3530,
      "Ġslo": 3531,
      "scia": 3532,
      "scita": 3533,
      "Ġdani": 3534,
      "Ġvigi": 3535,
      "Ġtessuti": 3536,
      "Ġrecip": 3537,
      "nale": 3538,
      "55": 3539,
      "Ġwa": 3540,
      "gimento": 3541,
      "Ġeui": 3542,
      "Ġdirettive": 3543,
      "Ġproble": 3544,
      "stici": 3545,
      "Ġquarta": 3546,
      "Ġ1978": 3547,
      "Ġistituito": 3548,
      "visione": 3549,
      "Ġjo": 3550,
      "Ġchiu": 3551,
      "usione": 3552,
      "Ġcampo": 3553,
      "Ġinvece": 3554,
      "Ġ108": 3555,
      "Ġmargine": 3556,
      "Ġallegati": 3557,
      "Ġ5493": 3558,
      "Ġdisa": 3559,
      "Ġsimi": 3560,
      "Ġfinale": 3561,
      "Ġcancel": 3562,
      "Ġtrattino": 3563,
      "Ġcy": 3564,
      "zzati": 3565,
      "Ġartifici": 3566,
      "Ġeuipo": 3567,
      "Ġprogrammi": 3568,
      "Ġpurche": 3569,
      "Ġautono": 3570,
      "Ġabb": 3571,
      "Ġesportatore": 3572,
      "Ġpatri": 3573,
      "Ġderivati": 3574,
      "Ġprelimina": 3575,
      "Ġavrebbero": 3576,
      "Ġcostituiscono": 3577,
      "Ġada": 3578,
      "ghezza": 3579,
      "Ġdanni": 3580,
      "eri": 3581,
      "Ġlar": 3582,
      "mere": 3583,
      "Ġalimenti": 3584,
      "Ġprogetti": 3585,
      "anto": 3586,
      "Ġesten": 3587,
      "Ġimplica": 3588,
      "Ġgenere": 3589,
      "Ġattualmente": 3590,
      "messi": 3591,
      "42": 3592,
      "Ġuniti": 3593,
      "Ġber": 3594,
      "Ġconti": 3595,
      "gini": 3596,
      "Ġsostenuto": 3597,
      "Ġconsumatori": 3598,
      "Ġcondannata": 3599,
      "Ġquattro": 3600,
      "Ġforme": 3601,
      "genze": 3602,
      "Ġindire": 3603,
      "Ġstand": 3604,
      "zionati": 3605,
      "Ġsuperficie": 3606,
      "ÑĢ": 3607,
      "Ġpratiche": 3608,
      "Ġinfli": 3609,
      "Ġprocedimenti": 3610,
      "frutti": 3611,
      "rmente": 3612,
      "Ġ549300": 3613,
      "Ġamministrativa": 3614,
      "Ġ102": 3615,
      "Ġindennita": 3616,
      "Ġconcesso": 3617,
      "Ġconsiderate": 3618,
      "Ġgiudizia": 3619,
      "cc": 3620,
      "Ġaddebi": 3621,
      "69": 3622,
      "43": 3623,
      "cole": 3624,
      "Ġinizio": 3625,
      "Ġimmissione": 3626,
      "Ġ1006": 3627,
      "Ġinseri": 3628,
      "Ġretail": 3629,
      "Ġnr": 3630,
      "Ġspie": 3631,
      "Ġortofrutti": 3632,
      "Ġbreve": 3633,
      "Ġ103": 3634,
      "Ġfornite": 3635,
      "Ġchiesto": 3636,
      "Ġlega": 3637,
      "ulti": 3638,
      "Ġsenti": 3639,
      "Ġdirettore": 3640,
      "tutto": 3641,
      "rne": 3642,
      "Ġ118": 3643,
      "dui": 3644,
      "Ġispe": 3645,
      "Ġ1972": 3646,
      "Ġcontributi": 3647,
      "Ġavis": 3648,
      "ramento": 3649,
      "Ġmine": 3650,
      "Ġragioni": 3651,
      "Ġtassa": 3652,
      "Ġ1980": 3653,
      "Ġperven": 3654,
      "Ġpresun": 3655,
      "Ġ177": 3656,
      "Ġpagina": 3657,
      "Ġwi": 3658,
      "Ġjuridi": 3659,
      "Ġbg": 3660,
      "Ġministero": 3661,
      "corso": 3662,
      "Ġapparten": 3663,
      "Ġ110": 3664,
      "Ġutilizzare": 3665,
      "Ġsospensione": 3666,
      "ghese": 3667,
      "Ġsg": 3668,
      "Ġripro": 3669,
      "Ġpoten": 3670,
      "Ġbeneficiario": 3671,
      "Ġimpegno": 3672,
      "Ġrelatore": 3673,
      "Ġpolvere": 3674,
      "leni": 3675,
      "Ġimportant": 3676,
      "Ġjuridique": 3677,
      "Ġconservazione": 3678,
      "iera": 3679,
      "Ġritenere": 3680,
      "Ġrigetto": 3681,
      "gente": 3682,
      "Ġortofrutticoli": 3683,
      "ers": 3684,
      "Ġcontingenti": 3685,
      "lini": 3686,
      "Ġinsta": 3687,
      "Ġocca": 3688,
      "Ġfarine": 3689,
      "Ġinternazionali": 3690,
      "Ġscambio": 3691,
      "Ġas": 3692,
      "Ġpresentati": 3693,
      "gs": 3694,
      "Ġgrecia": 3695,
      "Ġsegala": 3696,
      "Ġrestrizioni": 3697,
      "Ġclausola": 3698,
      "tenti": 3699,
      "Ġred": 3700,
      "Ġsinte": 3701,
      "Ġpertinente": 3702,
      "marca": 3703,
      "Ġlocali": 3704,
      "Ġdunque": 3705,
      "lano": 3706,
      "76": 3707,
      "cenza": 3708,
      "Ġth": 3709,
      "Ġdiffi": 3710,
      "Ġpresenti": 3711,
      "Ġvii": 3712,
      "Ġcinque": 3713,
      "Ġanticip": 3714,
      "fen": 3715,
      "Ġpia": 3716,
      "zionamento": 3717,
      "Ġdeterminata": 3718,
      "Ġinteressata": 3719,
      "gare": 3720,
      "Ġdetra": 3721,
      "Ġpermanente": 3722,
      "cate": 3723,
      "Ġrientrano": 3724,
      "Ġlattiero": 3725,
      "landia": 3726,
      "Ġgaranzie": 3727,
      "Ġdistribuzione": 3728,
      "75": 3729,
      "Ġinsu": 3730,
      "Ġju": 3731,
      "Ġindagine": 3732,
      "Ġstudio": 3733,
      "Ġcompensazione": 3734,
      "Ġterre": 3735,
      "81": 3736,
      "Ġdanimarca": 3737,
      "Ġesclusione": 3738,
      "Ġemissioni": 3739,
      "Ġautorizzato": 3740,
      "Ġscienti": 3741,
      "Ġrilevante": 3742,
      "Ġ1967": 3743,
      "Ġprefe": 3744,
      "Ġcombinato": 3745,
      "Ġ?": 3746,
      "Ġpie": 3747,
      "mana": 3748,
      "Ġpubblicata": 3749,
      "Ġbri": 3750,
      "Ġrecupero": 3751,
      "tar": 3752,
      "Ġpresa": 3753,
      "Ġcoefficiente": 3754,
      "Ġprescrizioni": 3755,
      "mbo": 3756,
      "Ġdichiarazioni": 3757,
      "Ġcertificati": 3758,
      "Ġassicurare": 3759,
      "Ġnessuna": 3760,
      "Ġmetodi": 3761,
      "Ġdipendente": 3762,
      "Ġcontrol": 3763,
      "Ġcz": 3764,
      "Ġirrego": 3765,
      "Ġimpa": 3766,
      "uire": 3767,
      "minante": 3768,
      "Ġsiffatta": 3769,
      "Ġfilati": 3770,
      "Ġfami": 3771,
      "Ġinvo": 3772,
      "pria": 3773,
      "Ġsegre": 3774,
      "Ġecc": 3775,
      "Ġerrone": 3776,
      "Ġ210": 3777,
      "Ġreale": 3778,
      "ct": 3779,
      "Ġveni": 3780,
      "Ġmotore": 3781,
      "Ġdispositivi": 3782,
      "terna": 3783,
      "Ġtenuta": 3784,
      "Ġcomponenti": 3785,
      "spi": 3786,
      "Ġriunione": 3787,
      "Ġmedio": 3788,
      "Ġfossero": 3789,
      "gata": 3790,
      "Ġcambio": 3791,
      "Ġacciaio": 3792,
      "Ġsupplementari": 3793,
      "Ġanimale": 3794,
      "Ġdirezione": 3795,
      "Ġripartizione": 3796,
      "Ġlan": 3797,
      "Ġreda": 3798,
      "bli": 3799,
      "Ġtrasmissione": 3800,
      "Ġdenuncia": 3801,
      "Ġmaniera": 3802,
      "cce": 3803,
      "Ġinvia": 3804,
      "Ġsei": 3805,
      "Ġ117": 3806,
      "Ġavverso": 3807,
      "ys": 3808,
      "Ġ150": 3809,
      "Ġpersonali": 3810,
      "Ġinvestimento": 3811,
      "Ġpriva": 3812,
      "Ġinadempimento": 3813,
      "Ġaffari": 3814,
      "stanza": 3815,
      "stano": 3816,
      "ÅĤ": 3817,
      "Ġincompati": 3818,
      "Ġconsumatore": 3819,
      "Ġricerca": 3820,
      "Ġfornito": 3821,
      "Ġscelta": 3822,
      "done": 3823,
      "48": 3824,
      "Ġgruppi": 3825,
      "Ġsvizze": 3826,
      "dire": 3827,
      "Ġregimi": 3828,
      "lanza": 3829,
      "Ġabi": 3830,
      "Ġrisultato": 3831,
      "Ġsigg": 3832,
      "Ġmedicina": 3833,
      "Ġproro": 3834,
      "Ġmt": 3835,
      "Ġinterme": 3836,
      "sh": 3837,
      "arco": 3838,
      "Ġvenga": 3839,
      "Ġcorsi": 3840,
      "Ġfattori": 3841,
      "zionato": 3842,
      "Ġhr": 3843,
      "Ġviolato": 3844,
      "gericht": 3845,
      "Ġcollo": 3846,
      "Ġedi": 3847,
      "Ġappen": 3848,
      "mann": 3849,
      "Ġutile": 3850,
      "96": 3851,
      "Ġammende": 3852,
      "Ġnet": 3853,
      "Ġrequisito": 3854,
      "Ġsche": 3855,
      "Ġfinalita": 3856,
      "je": 3857,
      "Ġesposizione": 3858,
      "Ġfatta": 3859,
      "Ġconferma": 3860,
      "Ġraccoman": 3861,
      "Ġbra": 3862,
      "mpera": 3863,
      "ologi": 3864,
      "Ġottenuto": 3865,
      "Ġcaseari": 3866,
      "ly": 3867,
      "Ġrelativamente": 3868,
      "cili": 3869,
      "zzata": 3870,
      "72": 3871,
      "Ġtecnica": 3872,
      "ÑĤ": 3873,
      "Ġcontiene": 3874,
      "Ġaffermato": 3875,
      "Ġpreso": 3876,
      "Ġcompro": 3877,
      "Ġsufficientemente": 3878,
      "Ġriunite": 3879,
      "Ġline": 3880,
      "Ġconsiderare": 3881,
      "Ġcioe": 3882,
      "Ġesigenze": 3883,
      "Ġur": 3884,
      "Ġ1973": 3885,
      "Ġland": 3886,
      "Ġsottoposto": 3887,
      "Ġfrase": 3888,
      "Ġdiv": 3889,
      "Ġdelibe": 3890,
      "ang": 3891,
      "Ġprovin": 3892,
      "Ġmemo": 3893,
      "Ġsito": 3894,
      "73": 3895,
      "volta": 3896,
      "65": 3897,
      "Ġmono": 3898,
      "Ġconcorso": 3899,
      "sol": 3900,
      "Ġarre": 3901,
      "Ġindicate": 3902,
      "Ġazienda": 3903,
      "Ġrevoca": 3904,
      "Ġgrani": 3905,
      "Ġimpone": 3906,
      "Ġconseguenze": 3907,
      "Ġcontroverso": 3908,
      "Ġtrasformati": 3909,
      "Ġpan": 3910,
      "Ġsanzioni": 3911,
      "Ġsottoline": 3912,
      "Ġfron": 3913,
      "82": 3914,
      "Ġdestinate": 3915,
      "89": 3916,
      "Ġscor": 3917,
      "hr": 3918,
      "Ġcoin": 3919,
      "Ġresto": 3920,
      "Ġzz": 3921,
      "Ġattiva": 3922,
      "Ġmodu": 3923,
      "au": 3924,
      "Ġcongiun": 3925,
      "Ġnave": 3926,
      "Ġcomposta": 3927,
      "Ġpenale": 3928,
      "Ġ105": 3929,
      "Ġsimile": 3930,
      "Ġassicura": 3931,
      "Ġutilizzazione": 3932,
      "Ġrealizzazione": 3933,
      "mino": 3934,
      "Ġaffidamento": 3935,
      "Ġsvizzera": 3936,
      "Ġrecla": 3937,
      "Ġdefinito": 3938,
      "Ġprevedere": 3939,
      "Ġfattu": 3940,
      "ces": 3941,
      "Ġmilioni": 3942,
      "Ġaggiunta": 3943,
      "od": 3944,
      "messe": 3945,
      "ddo": 3946,
      "Ġmolto": 3947,
      "Ġmaggiore": 3948,
      "92": 3949,
      "sili": 3950,
      "Ġtrasporta": 3951,
      "87": 3952,
      "Ġpor": 3953,
      "pri": 3954,
      "Ġeffettuati": 3955,
      "sen": 3956,
      "Ġimmediatamente": 3957,
      "Ġelleni": 3958,
      "Ġmerce": 3959,
      "Ġcontrario": 3960,
      "Ġtanto": 3961,
      "Ġnessun": 3962,
      "Ġesiste": 3963,
      "Ġvigilanza": 3964,
      "Ġagricola": 3965,
      "Ġfili": 3966,
      "wi": 3967,
      "Ġprivato": 3968,
      "Ġefficacia": 3969,
      "Ġstruttura": 3970,
      "Ġproporzionalita": 3971,
      "Ġintero": 3972,
      "Ġkr": 3973,
      "Ġuniver": 3974,
      "Ġespressamente": 3975,
      "ssion": 3976,
      "Ġstabilimento": 3977,
      "Ġvege": 3978,
      "Ġlv": 3979,
      "Ġdiscussione": 3980,
      "erve": 3981,
      "Ġjp": 3982,
      "Ġdimensioni": 3983,
      "gazioni": 3984,
      "010": 3985,
      "Ġrettifica": 3986,
      "Ġappo": 3987,
      "Ġair": 3988,
      "Ġillu": 3989,
      "Ġsuddetta": 3990,
      "Ġvice": 3991,
      "63": 3992,
      "lus": 3993,
      "Ġdeposito": 3994,
      "Ġreddito": 3995,
      "64": 3996,
      "Ġdiso": 3997,
      "Ġcm": 3998,
      "Ġbun": 3999,
      "Ġportoghese": 4000,
      "Ġvino": 4001,
      "Ġinfra": 4002,
      "Ġstipu": 4003,
      "Ġref": 4004,
      "Ġcfr": 4005,
      "Ġtecnolo": 4006,
      "tru": 4007,
      "minato": 4008,
      "Ġresidenza": 4009,
      "Ġriguardante": 4010,
      "83": 4011,
      "Ġcensura": 4012,
      "Ġje": 4013,
      "Ġsoggiorno": 4014,
      "Ġaggiudicazione": 4015,
      "79": 4016,
      "Ñģ": 4017,
      "Ġappalti": 4018,
      "date": 4019,
      "Ġrespinta": 4020,
      "Ġinclusi": 4021,
      "Ġacquista": 4022,
      "Ġimpatto": 4023,
      "Ġaereo": 4024,
      "Ġmancata": 4025,
      "Ġregioni": 4026,
      "Ġavevano": 4027,
      "Ġunica": 4028,
      "Ġrapporti": 4029,
      "Ġimpegni": 4030,
      "Ġfio": 4031,
      "Ġprovvisorio": 4032,
      "ervanza": 4033,
      "Ġ130": 4034,
      "Ġlegittimita": 4035,
      "Ġope": 4036,
      "Ġperdite": 4037,
      "Ġamministratore": 4038,
      "forme": 4039,
      "Ġincon": 4040,
      "cola": 4041,
      "Ġorientamenti": 4042,
      "Ã¦": 4043,
      "Ġdimostrato": 4044,
      "Ġlegittimo": 4045,
      "Ġage": 4046,
      "Ġgrave": 4047,
      "Ġcancellazione": 4048,
      "ite": 4049,
      "Ġnaturale": 4050,
      "Ġesercitare": 4051,
      "terior": 4052,
      "tter": 4053,
      "Ġpreparazioni": 4054,
      "Ġagi": 4055,
      "Ġquinta": 4056,
      "Ġcontenute": 4057,
      "Ġ109": 4058,
      "Ġintra": 4059,
      "Ġedizione": 4060,
      "Ġcana": 4061,
      "Ġcostituito": 4062,
      "Ġconso": 4063,
      "Ġappropria": 4064,
      "Ġmalattia": 4065,
      "onta": 4066,
      "xe": 4067,
      "Ġ0402": 4068,
      "Ġsegno": 4069,
      "Ġnuove": 4070,
      "Ġaerop": 4071,
      "Ġfronti": 4072,
      "tile": 4073,
      "Ġrelazioni": 4074,
      "Ġsignori": 4075,
      "Ġadatta": 4076,
      "Ġlicenza": 4077,
      "Ġbb": 4078,
      "Ġmangi": 4079,
      "Ġ115": 4080,
      "Ġlib": 4081,
      "Ġcommesso": 4082,
      "Ġradio": 4083,
      "Ġcentro": 4084,
      "Ġingre": 4085,
      "Ġpubblicita": 4086,
      "Ġposti": 4087,
      "Ġdelegato": 4088,
      "Ġvero": 4089,
      "Ġeconomici": 4090,
      "Ġessendo": 4091,
      "88": 4092,
      "Ġtotali": 4093,
      "Ġsottop": 4094,
      "Ġval": 4095,
      "Ġsuccessivi": 4096,
      "Ġcompi": 4097,
      "und": 4098,
      "Ġresidente": 4099,
      "lib": 4100,
      "Ġbul": 4101,
      "Ġ2309": 4102,
      "Ġrinno": 4103,
      "Ġdifficolta": 4104,
      "Ġinvali": 4105,
      "Ġclienti": 4106,
      "Ġhk": 4107,
      "Ġalterna": 4108,
      "61": 4109,
      "Ġhol": 4110,
      "ws": 4111,
      "Ġriti": 4112,
      "Ġ{": 4113,
      "Ġcarne": 4114,
      "Ġoriginario": 4115,
      "Ġcorrispondenti": 4116,
      "Ġrpc": 4117,
      "Ġoliva": 4118,
      "Ġ119": 4119,
      "Ġregistrato": 4120,
      "Ġaccertamento": 4121,
      "scere": 4122,
      "comuni": 4123,
      "cured": 4124,
      "Ġcorrente": 4125,
      "Ġchiedere": 4126,
      "gy": 4127,
      "Ġsoggette": 4128,
      "Ġnormativo": 4129,
      "Ġaggior": 4130,
      "Ġassogge": 4131,
      "Ġbando": 4132,
      "Ġrifiuto": 4133,
      "Ġrisoluzione": 4134,
      "Ġevo": 4135,
      "Ġriconosciuto": 4136,
      "Ġpolonia": 4137,
      "Ġfigurano": 4138,
      "Ġcostituire": 4139,
      "Ġconcludere": 4140,
      "Ġoccasione": 4141,
      "Ġassolu": 4142,
      "lante": 4143,
      "Ġsy": 4144,
      "ore": 4145,
      "Ġiscrizione": 4146,
      "renziale": 4147,
      "ranza": 4148,
      "Ġsupplementare": 4149,
      "mpi": 4150,
      "Ġpensioni": 4151,
      "Ġforniti": 4152,
      "Ġ113": 4153,
      "Ġ2574": 4154,
      "Ġincor": 4155,
      "Ġino": 4156,
      "Ġcompresa": 4157,
      "cion": 4158,
      "Ġbeneficiare": 4159,
      "Ġfissate": 4160,
      "Ġinterventi": 4161,
      "ĠâĢĺ": 4162,
      "ction": 4163,
      "Ġmuni": 4164,
      "teriormente": 4165,
      "Ġacp": 4166,
      "Ġutilizz": 4167,
      "Ġund": 4168,
      "Ġgiuridiche": 4169,
      "ph": 4170,
      "Ġmulti": 4171,
      "larita": 4172,
      "Ġindividuale": 4173,
      "Ġpagamenti": 4174,
      "Ġaggiorna": 4175,
      "Ġmedicinali": 4176,
      "Ġammontare": 4177,
      "Ġfal": 4178,
      "Ġeconomia": 4179,
      "Ġcittadino": 4180,
      "Ð²": 4181,
      "Ġagricoltura": 4182,
      "Ġautonomi": 4183,
      "Ġ}": 4184,
      "78": 4185,
      "Ġsaranno": 4186,
      "Ġfunzionari": 4187,
      "Ġgiun": 4188,
      "Ġabu": 4189,
      "Ġcreditizi": 4190,
      "Ġaccomp": 4191,
      "Ġprime": 4192,
      "Ġassoggetta": 4193,
      "Ġpero": 4194,
      "ania": 4195,
      "Ġcomplesso": 4196,
      "Ġbovine": 4197,
      "Ġassu": 4198,
      "Ġcapitali": 4199,
      "Ġlivelli": 4200,
      "Ġcps": 4201,
      "Ġ1974": 4202,
      "Ġtene": 4203,
      "Ġmobili": 4204,
      "bbene": 4205,
      "Ġchiaramente": 4206,
      "gazz": 4207,
      "Ġsituazioni": 4208,
      "Ġoff": 4209,
      "Ġcompetenze": 4210,
      "Ġattre": 4211,
      "Ġscritta": 4212,
      "Ġorganizzazioni": 4213,
      "Ġhi": 4214,
      "Ġavvia": 4215,
      "Ġlimitato": 4216,
      "Ġfac": 4217,
      "Ġcontenente": 4218,
      "Ġconstatato": 4219,
      "Ġpassivo": 4220,
      "stro": 4221,
      "Ġunghe": 4222,
      "Ġdisegni": 4223,
      "Ġsingoli": 4224,
      "tos": 4225,
      "Ġreti": 4226,
      "Ġpren": 4227,
      "Ġnecessariamente": 4228,
      "Ġmano": 4229,
      "Ġcomposizione": 4230,
      "Ġdefiniti": 4231,
      "cs": 4232,
      "Ġautove": 4233,
      "vale": 4234,
      "Ġaccompagna": 4235,
      "Ġpresuppo": 4236,
      "uo": 4237,
      "Ġetiche": 4238,
      "Ġderiva": 4239,
      "Ġfondamento": 4240,
      "Ġriscossione": 4241,
      "matica": 4242,
      "Ġdefinitivo": 4243,
      "Ġ600": 4244,
      "Ġavven": 4245,
      "Ġ1971": 4246,
      "Ġconcentrazione": 4247,
      "Ġesistenti": 4248,
      "Ġvarieta": 4249,
      "Ġperico": 4250,
      "Ġmedici": 4251,
      "67": 4252,
      "dre": 4253,
      "Ġcostituzione": 4254,
      "Ġimportati": 4255,
      "Ġ114": 4256,
      "Ġcomposti": 4257,
      "Ġtubi": 4258,
      "Ġtor": 4259,
      "Ġdiscrezionale": 4260,
      "Ġscar": 4261,
      "Ġpiena": 4262,
      "Ġconclude": 4263,
      "Ġglu": 4264,
      "ditore": 4265,
      "Ġregolamentazione": 4266,
      "Ġregistro": 4267,
      "Ġsel": 4268,
      "Ġvolte": 4269,
      "Ġaccertare": 4270,
      "Ġinternational": 4271,
      "Ġlie": 4272,
      "Ġelevato": 4273,
      "Ġriferisce": 4274,
      "ja": 4275,
      "Ġinqu": 4276,
      "Ġorgano": 4277,
      "Ġlegale": 4278,
      "Ġappendice": 4279,
      "Ġaccessori": 4280,
      "Ġ140": 4281,
      "Ġ999": 4282,
      "Ġtecnico": 4283,
      "Ġriman": 4284,
      "cha": 4285,
      "Ġelencati": 4286,
      "Ġperdita": 4287,
      "Ġlimitata": 4288,
      "Ġtrasporti": 4289,
      "cao": 4290,
      "Ġalta": 4291,
      "simo": 4292,
      "Ġexp": 4293,
      "Ġulteriori": 4294,
      "Ġtenero": 4295,
      "Ġsemolini": 4296,
      "Ġpromozione": 4297,
      "Ġpasse": 4298,
      "Ġalimentazione": 4299,
      "Ġgiustificare": 4300,
      "Ġqui": 4301,
      "Ġrispondere": 4302,
      "Ġindice": 4303,
      "Ġrilasciato": 4304,
      "Ġprassi": 4305,
      "Ġprevia": 4306,
      "Ġcotone": 4307,
      "Ġburro": 4308,
      "Ġ900": 4309,
      "uro": 4310,
      "Ġprecede": 4311,
      "ong": 4312,
      "Ġconsenta": 4313,
      "Ġimpugnato": 4314,
      "Ġdeduce": 4315,
      "Ġsospe": 4316,
      "Ġguida": 4317,
      "Ġindipendentemente": 4318,
      "Ġfirma": 4319,
      "Ġdecidere": 4320,
      "Ġforo": 4321,
      "Ġfondata": 4322,
      "Ġavvocati": 4323,
      "Ġeman": 4324,
      "Ġfissata": 4325,
      "Ġusi": 4326,
      "Ġpremio": 4327,
      "tal": 4328,
      "Ġtempera": 4329,
      "Ġvolo": 4330,
      "Ġriga": 4331,
      "Ġpiante": 4332,
      "Ġaumenta": 4333,
      "Ġtraspa": 4334,
      "Ġinvoca": 4335,
      "Ġoneri": 4336,
      "Ġsvezia": 4337,
      "zzare": 4338,
      "Ġdatore": 4339,
      "Ġsubordi": 4340,
      "Ġpure": 4341,
      "Ġartificiali": 4342,
      "Ġprovenienza": 4343,
      "97": 4344,
      "Ġesperi": 4345,
      "Ġeconomiche": 4346,
      "ardi": 4347,
      "Ġpiani": 4348,
      "Ġest": 4349,
      "Ġcostruzione": 4350,
      "Ġimportanza": 4351,
      "Ġdivul": 4352,
      "Ġprede": 4353,
      "Ġavesse": 4354,
      "Ġfrutta": 4355,
      "metro": 4356,
      "ppone": 4357,
      "Ġbeneficio": 4358,
      "Ġsecca": 4359,
      "Î¼": 4360,
      "Ġnascita": 4361,
      "Ġriunioni": 4362,
      "Ġgeme": 4363,
      "Ġconforma": 4364,
      "Ġonere": 4365,
      "Ġfanno": 4366,
      "Ġ250": 4367,
      "sale": 4368,
      "Ġistruzioni": 4369,
      "ls": 4370,
      "Ġpesche": 4371,
      "Ġgiuridici": 4372,
      "Ġenuncia": 4373,
      "Ġpotrebbero": 4374,
      "Ġdubbi": 4375,
      "Ġappli": 4376,
      "Ġace": 4377,
      "Ġmangimi": 4378,
      "Ġotti": 4379,
      "Ġintegrazione": 4380,
      "alta": 4381,
      "Ġelettronica": 4382,
      "Ġattuale": 4383,
      "Ġglobale": 4384,
      "dra": 4385,
      "Ġcertezza": 4386,
      "Ġprospe": 4387,
      "dale": 4388,
      "Ġsociali": 4389,
      "Ġproba": 4390,
      "Ġturchia": 4391,
      "Ġstatuire": 4392,
      "Ġanzitutto": 4393,
      "Ġessenziali": 4394,
      "Ġmassa": 4395,
      "Ġconfron": 4396,
      "Ġappello": 4397,
      "Ġsorve": 4398,
      "Ġaggiungere": 4399,
      "Ġbeneficiari": 4400,
      "Ġresidui": 4401,
      "Ġlegislazioni": 4402,
      "Ġlegislatore": 4403,
      "Ġea": 4404,
      "Ġespresso": 4405,
      "Ġkm": 4406,
      "Ġponde": 4407,
      "ungs": 4408,
      "Ġbuona": 4409,
      "Ġrota": 4410,
      "Ġmaggior": 4411,
      "Ġforfettari": 4412,
      "Ġbensi": 4413,
      "Ġconseguente": 4414,
      "Ġinflu": 4415,
      "Ġimpianto": 4416,
      "Ġutilizzate": 4417,
      "Ġlungo": 4418,
      "Ġnono": 4419,
      "Ġtraduzione": 4420,
      "Ġfare": 4421,
      "Ġciclo": 4422,
      "Ġbro": 4423,
      "nte": 4424,
      "62": 4425,
      "wal": 4426,
      "Ġsb": 4427,
      "Ġimposizione": 4428,
      "Ġstudi": 4429,
      "Ġsacca": 4430,
      "Ġfisiche": 4431,
      "raggio": 4432,
      "Ġescluse": 4433,
      "Ġ160": 4434,
      "Ġcomposto": 4435,
      "Ġconcernenti": 4436,
      "Ġvanno": 4437,
      "Ġ123": 4438,
      "ich": 4439,
      "Ġrif": 4440,
      "Ġspo": 4441,
      "im": 4442,
      "onne": 4443,
      "Ġespo": 4444,
      "Ġriguardano": 4445,
      "Ġulteriore": 4446,
      "Ġformula": 4447,
      "Ġsopporte": 4448,
      "mamente": 4449,
      "dor": 4450,
      "Ġcauzione": 4451,
      "tivita": 4452,
      "Ġagevo": 4453,
      "Ġinterveniente": 4454,
      "Ġmisto": 4455,
      "Ġcontrariamente": 4456,
      "Ġrichiede": 4457,
      "Ġdestinatario": 4458,
      "Ġpossesso": 4459,
      "Ġolandese": 4460,
      "Ġ111": 4461,
      "Ġmicro": 4462,
      "Ġmoni": 4463,
      "Ġpelli": 4464,
      "Ġrespingere": 4465,
      "Ġstandard": 4466,
      "venire": 4467,
      "Ġpreparati": 4468,
      "Ġdiff": 4469,
      "Ġcorrisponde": 4470,
      "ssen": 4471,
      "Ġaccu": 4472,
      "Ġrestrittive": 4473,
      "Ġ145": 4474,
      "Ġpronunci": 4475,
      "Ġcontestato": 4476,
      "Ġirregolarita": 4477,
      "Ġsemole": 4478,
      "Ġbordo": 4479,
      "Ġ129": 4480,
      "Ġirricevibile": 4481,
      "int": 4482,
      "scha": 4483,
      "Ġpoteri": 4484,
      "Ġconfi": 4485,
      "Ġaspetti": 4486,
      "licita": 4487,
      "Ġespressione": 4488,
      "Ġlegislative": 4489,
      "Ð»": 4490,
      "Ġ1001": 4491,
      "Ġlegno": 4492,
      "Ġprofilo": 4493,
      "Ġreclamo": 4494,
      "sion": 4495,
      "Ġmolti": 4496,
      "uiti": 4497,
      "Ġproposte": 4498,
      "Ġconcedere": 4499,
      "ccati": 4500,
      "Ġconcorrenti": 4501,
      "Ġordinamento": 4502,
      "Ġpreliminare": 4503,
      "uts": 4504,
      "Ġcopia": 4505,
      "Ġimportatori": 4506,
      "Ġredditi": 4507,
      "Ġprivati": 4508,
      "Ġinfon": 4509,
      "Ġautorizzati": 4510,
      "Ġsali": 4511,
      "Ġmantenimento": 4512,
      "ggeri": 4513,
      "ben": 4514,
      "Ġspesso": 4515,
      "Ġari": 4516,
      "Ġaddebiti": 4517,
      "Ġtributa": 4518,
      "Ġ0207": 4519,
      "zzate": 4520,
      "Ġspagnolo": 4521,
      "Ġgravi": 4522,
      "dotte": 4523,
      "Ġregolamentari": 4524,
      "Ġridurre": 4525,
      "Ġ138": 4526,
      "Ġassisti": 4527,
      "Ġarea": 4528,
      "Ġimpossi": 4529,
      "Ġfarma": 4530,
      "Ġosservato": 4531,
      "Ġgesto": 4532,
      "Ġfabbrica": 4533,
      "Ġpericolo": 4534,
      "chts": 4535,
      "Ïĥ": 4536,
      "Ġsufficienti": 4537,
      "Ġ1970": 4538,
      "busti": 4539,
      "Ġ234": 4540,
      "Ġgroup": 4541,
      "Ġbundes": 4542,
      "Ġsebbene": 4543,
      "Ġdivenuto": 4544,
      "Ġpercepi": 4545,
      "Ġsalvaguar": 4546,
      "Ġduro": 4547,
      "Ġescluso": 4548,
      "Ġpervenuta": 4549,
      "tono": 4550,
      "Ġimponi": 4551,
      "Ġcrr": 4552,
      "Ġgal": 4553,
      "cal": 4554,
      "Ġimballaggio": 4555,
      "carb": 4556,
      "Ġrecipro": 4557,
      "Ġnorve": 4558,
      "muo": 4559,
      "dine": 4560,
      "Ġinfrastru": 4561,
      "nie": 4562,
      "Ġeli": 4563,
      "Ġfattore": 4564,
      "Ġconnessi": 4565,
      "Ġtrans": 4566,
      "Ġuova": 4567,
      "Ġ121": 4568,
      "Ġsiffatto": 4569,
      "Ġsuperiori": 4570,
      "Ġdar": 4571,
      "Ġorigin": 4572,
      "Ġincluso": 4573,
      "Ġbasata": 4574,
      "Ġcour": 4575,
      "Ġsemb": 4576,
      "Ġcerto": 4577,
      "Ġdisponibile": 4578,
      "Ġroma": 4579,
      "xi": 4580,
      "Ġcontabile": 4581,
      "ell": 4582,
      "Ġparimenti": 4583,
      "Ġricevuto": 4584,
      "Ġsintetiche": 4585,
      "Ġ116": 4586,
      "ratori": 4587,
      "Ġritar": 4588,
      "Ġambientale": 4589,
      "Ġmaritti": 4590,
      "Ġricorsi": 4591,
      "Ġsupplementi": 4592,
      "minio": 4593,
      "Ġsovra": 4594,
      "Ġdivisione": 4595,
      "Ġ134": 4596,
      "ppe": 4597,
      "Ġcinese": 4598,
      "Ġ0805": 4599,
      "cz": 4600,
      "Ġdare": 4601,
      "Ġcitato": 4602,
      "Ġconcessi": 4603,
      "Ġallor": 4604,
      "Ġequipa": 4605,
      "monio": 4606,
      "Ġrisol": 4607,
      "Ġfresche": 4608,
      "Ġcontraenti": 4609,
      "Ġpolla": 4610,
      "aria": 4611,
      "Ġverte": 4612,
      "Ġbelga": 4613,
      "Ïī": 4614,
      "Ġricon": 4615,
      "Ġcontraddi": 4616,
      "Ġdispon": 4617,
      "Ġrappresentato": 4618,
      "ĠÃ°": 4619,
      "Ġfamiliari": 4620,
      "Ġimballaggi": 4621,
      "Ġimportatore": 4622,
      "Ġelettrica": 4623,
      "Ġevoluzione": 4624,
      "Ġ180": 4625,
      "mobile": 4626,
      "Ġ135": 4627,
      "rea": 4628,
      "Ġliquidazione": 4629,
      "Ġsino": 4630,
      "Ġconsiste": 4631,
      "Ġfarina": 4632,
      "Ġpopolare": 4633,
      "ks": 4634,
      "Ġ!": 4635,
      "Ġultime": 4636,
      "Ġfatturato": 4637,
      "gle": 4638,
      "Ġcompensativi": 4639,
      "Ġsubordinata": 4640,
      "Ġ320": 4641,
      "Ġtenere": 4642,
      "Ġprestiti": 4643,
      "guita": 4644,
      "vare": 4645,
      "Ġaltrimenti": 4646,
      "Ġvelo": 4647,
      "Ġattribuzione": 4648,
      "Ġmette": 4649,
      "volmente": 4650,
      "Ġsussiste": 4651,
      "Ġparola": 4652,
      "zionata": 4653,
      "Ġcombusti": 4654,
      "Ġsorveglianza": 4655,
      "Ġmai": 4656,
      "Ġtardi": 4657,
      "Ġmisce": 4658,
      "Ġeuropa": 4659,
      "Ġinfluenza": 4660,
      "Ġ122": 4661,
      "ĠÂ£": 4662,
      "Ġ1107": 4663,
      "mare": 4664,
      "Ġfis": 4665,
      "Ġescludere": 4666,
      "dt": 4667,
      "Ġrichiesti": 4668,
      "Ġprese": 4669,
      "Ġfrequ": 4670,
      "Ġvetro": 4671,
      "Ġbandi": 4672,
      "Ġfiscali": 4673,
      "Ġmoneta": 4674,
      "Ġetichetta": 4675,
      "Ġ141": 4676,
      "Ġ267": 4677,
      "Ġapprovvi": 4678,
      "Ġrece": 4679,
      "Ġintito": 4680,
      "9900": 4681,
      "Ġefficace": 4682,
      "Ġul": 4683,
      "ya": 4684,
      "Ġimo": 4685,
      "Ġcopertura": 4686,
      "Ġsoppre": 4687,
      "mmen": 4688,
      "Ġgrassi": 4689,
      "Ġsvolgimento": 4690,
      "Ġsocco": 4691,
      "Ġxi": 4692,
      "Ġfur": 4693,
      "Ġ281": 4694,
      "Ġinvita": 4695,
      "Ġfro": 4696,
      "Ġ1408": 4697,
      "Ġellenica": 4698,
      "Ġcirc": 4699,
      "Ġsoccomb": 4700,
      "Ġapprovvig": 4701,
      "sb": 4702,
      "gico": 4703,
      "Ġadeguamento": 4704,
      "Ġpreventi": 4705,
      "Ġexcl": 4706,
      "Ġ139": 4707,
      "Ġdisporre": 4708,
      "Ġpetro": 4709,
      "stono": 4710,
      "Ġchilo": 4711,
      "ner": 4712,
      "Ġrifiuta": 4713,
      "Ġ131": 4714,
      "Ġ700": 4715,
      "Ġannuale": 4716,
      "Ġfogli": 4717,
      "rr": 4718,
      "fano": 4719,
      "Ġbce": 4720,
      "Ġcessione": 4721,
      "Ġlascia": 4722,
      "Ġgomma": 4723,
      "Ġsubordine": 4724,
      "Ġconsoli": 4725,
      "Ġcatture": 4726,
      "Ġcostituisca": 4727,
      "Ġgrande": 4728,
      "Ġmovi": 4729,
      "Ġnaturali": 4730,
      "siva": 4731,
      "Ġcoordinamento": 4732,
      "Ġampli": 4733,
      "tando": 4734,
      "Ġfamiglia": 4735,
      "Ġcumu": 4736,
      "Ġravvi": 4737,
      "Ġtribunal": 4738,
      "rosio": 4739,
      "Ġincari": 4740,
      "Ġarri": 4741,
      "Ġtemperatura": 4742,
      "Ġmanuten": 4743,
      "Ġfronte": 4744,
      "yn": 4745,
      "Ġdena": 4746,
      "terina": 4747,
      "Ġprivi": 4748,
      "Ġfonte": 4749,
      "Îº": 4750,
      "Ġpressione": 4751,
      "Ġconsultazione": 4752,
      "les": 4753,
      "cin": 4754,
      "gica": 4755,
      "Ġsoddisfare": 4756,
      "Ġmantenere": 4757,
      "ttono": 4758,
      "Ġ128": 4759,
      "Ġminerali": 4760,
      "Ġnonostante": 4761,
      "Ġem": 4762,
      "Ġattesta": 4763,
      "Ġpartecipanti": 4764,
      "Ġretribuzione": 4765,
      "Ġfil": 4766,
      "Ġdate": 4767,
      "hof": 4768,
      "Ġdeuts": 4769,
      "Ġcomplessivo": 4770,
      "Ġcomunicazioni": 4771,
      "Ġveterina": 4772,
      "Ġcontenuti": 4773,
      "Ġcontabili": 4774,
      "Ġcomunicato": 4775,
      "Ġpic": 4776,
      "ken": 4777,
      "llazione": 4778,
      "Ġrendere": 4779,
      "ttente": 4780,
      "Ġnesso": 4781,
      "Ġragionevole": 4782,
      "Ġdefinita": 4783,
      "Ġresidenti": 4784,
      "tom": 4785,
      "Ġrs": 4786,
      "Ġsinda": 4787,
      "Ġgeografica": 4788,
      "Ġstatus": 4789,
      "Ġ124": 4790,
      "mber": 4791,
      "Ġ169": 4792,
      "Ġtaba": 4793,
      "Ġautore": 4794,
      "Ġsullo": 4795,
      "Ġquinto": 4796,
      "Ġpriori": 4797,
      "Ġminimi": 4798,
      "Ġminima": 4799,
      "Ġrispettare": 4800,
      "fon": 4801,
      "Ġame": 4802,
      "str": 4803,
      "Ġpow": 4804,
      "Ġsione": 4805,
      "Ġsottoscri": 4806,
      "Ġ529900": 4807,
      "Ġsaccarosio": 4808,
      "Ġ170": 4809,
      "Ġallu": 4810,
      "Ġara": 4811,
      "Ġcina": 4812,
      "Ġtariffario": 4813,
      "Ġdiminuito": 4814,
      "Ġuniforme": 4815,
      "Ġtraffi": 4816,
      "Ġgravita": 4817,
      "Ġinternet": 4818,
      "Ġsuddetti": 4819,
      "Ġcontribu": 4820,
      "Ġagricolo": 4821,
      "Ġautovei": 4822,
      "Ġdebito": 4823,
      "Ġfornitori": 4824,
      "Ġprecisato": 4825,
      "berg": 4826,
      "Ġrisultante": 4827,
      "Ġdebbano": 4828,
      "Ġsignora": 4829,
      "cosio": 4830,
      "ddove": 4831,
      "linea": 4832,
      "Ġincidenza": 4833,
      "Ġladdove": 4834,
      "Ġriven": 4835,
      "Ġmodificati": 4836,
      "Ġ142": 4837,
      "Ġdoveva": 4838,
      "Ġ126": 4839,
      "Î¿Ïħ": 4840,
      "Ġpollame": 4841,
      "Ġvenuta": 4842,
      "sile": 4843,
      "Ġintroduzione": 4844,
      "Ġsanzione": 4845,
      "Ġridotto": 4846,
      "Ġ190": 4847,
      "Ġfatte": 4848,
      "Ġinteg": 4849,
      "Ġistruzione": 4850,
      "Ġiscritto": 4851,
      "Ġreso": 4852,
      "ux": 4853,
      "duti": 4854,
      "Ġcondu": 4855,
      "Ġcontrollata": 4856,
      "df": 4857,
      "cl": 4858,
      "Ġqualificate": 4859,
      "Ġdefin": 4860,
      "rogato": 4861,
      "Ġdifferenze": 4862,
      "Ġ133": 4863,
      "bilmente": 4864,
      "Ġfreschi": 4865,
      "Ġprofessionali": 4866,
      "Ġmanutenzione": 4867,
      "Ġesaminato": 4868,
      "Ġmare": 4869,
      "Ġingresso": 4870,
      "Ġdocumentazione": 4871,
      "Ġmira": 4872,
      "Ġprovvisoria": 4873,
      "Ġ173": 4874,
      "Ġrilevanti": 4875,
      "vola": 4876,
      "Ġintrodu": 4877,
      "Ġmanifesto": 4878,
      "Ġsemina": 4879,
      "Ġdepositato": 4880,
      "Ġosservare": 4881,
      "Ġlor": 4882,
      "Ġmedico": 4883,
      "Ġversamento": 4884,
      "Ġby": 4885,
      "ÏĤ": 4886,
      "Ġrappresentativi": 4887,
      "Ġviii": 4888,
      "Ġblo": 4889,
      "Ġindustriale": 4890,
      "Ġcontraente": 4891,
      "Ġorzo": 4892,
      "Ġinvi": 4893,
      "Ġoccupazione": 4894,
      "Ġ151": 4895,
      "Ġcliente": 4896,
      "Ġcontrasto": 4897,
      "Ġdip": 4898,
      "Ġamido": 4899,
      "Ġadeguato": 4900,
      "Ġbevan": 4901,
      "Ġextra": 4902,
      "Ġricevibilita": 4903,
      "urg": 4904,
      "Ġpaci": 4905,
      "uita": 4906,
      "Ġbulga": 4907,
      "Ġconcessa": 4908,
      "Ġfornitore": 4909,
      "Ġrestrizione": 4910,
      "stor": 4911,
      "Ġcontempo": 4912,
      "Ġlabo": 4913,
      "Ġpartita": 4914,
      "Ġassunzione": 4915,
      "Ġuomo": 4916,
      "Ġlunghezza": 4917,
      "Ġtrattati": 4918,
      "Ġ1969": 4919,
      "Ġemissione": 4920,
      "Ġaro": 4921,
      "Ġsollevato": 4922,
      "mt": 4923,
      "Ġfoto": 4924,
      "tano": 4925,
      "Ġtraffico": 4926,
      "Ġcomunitaa": 4927,
      "Ġ230": 4928,
      "Ġcompara": 4929,
      "contra": 4930,
      "Ġcarte": 4931,
      "Ġdistintivo": 4932,
      "Ġscre": 4933,
      "ĠÎº": 4934,
      "Ġdifferen": 4935,
      "Ġstock": 4936,
      "cura": 4937,
      "ersi": 4938,
      "Ġelimina": 4939,
      "Ġcassazione": 4940,
      "centi": 4941,
      "Ġstrumento": 4942,
      "Ġparole": 4943,
      "Ġistituto": 4944,
      "Ġfrontiera": 4945,
      "Ġconformarsi": 4946,
      "Ġlgs": 4947,
      "trico": 4948,
      "Ġ0404": 4949,
      "Ġlocale": 4950,
      "Ġretro": 4951,
      "Ġcarbu": 4952,
      "Ġcorrettamente": 4953,
      "Ġimportante": 4954,
      "Ġdisciplinare": 4955,
      "Ġ164": 4956,
      "Ġtradi": 4957,
      "Ġfondato": 4958,
      "Ġfornita": 4959,
      "Ġsuddette": 4960,
      "Ġsr": 4961,
      "fficienza": 4962,
      "Ġsucce": 4963,
      "Ġpromuo": 4964,
      "Ġcompiti": 4965,
      "Ġantici": 4966,
      "Ġ166": 4967,
      "Ġ172": 4968,
      "Ġou": 4969,
      "Ġ540": 4970,
      "Ġstrate": 4971,
      "Ġ132": 4972,
      "Ġderivante": 4973,
      "Ġptom": 4974,
      "Ġmaglia": 4975,
      "Ġerrori": 4976,
      "ĠÏĢ": 4977,
      "Ġae": 4978,
      "Ġoffe": 4979,
      "Ġpotra": 4980,
      "Ġnoti": 4981,
      "Ġrisulti": 4982,
      "Ġspedizione": 4983,
      "Ġformato": 4984,
      "Ġpermettere": 4985,
      "sare": 4986,
      "Î³": 4987,
      "Ġraccolti": 4988,
      "ration": 4989,
      "Ġinformato": 4990,
      "lanti": 4991,
      "Ġrealta": 4992,
      "matici": 4993,
      "Ġindia": 4994,
      "Ġ143": 4995,
      "tuali": 4996,
      "larmente": 4997,
      "vate": 4998,
      "Ġesportati": 4999,
      "Ġnullita": 5000,
      "Ġrevisione": 5001,
      "Ġrivesti": 5002,
      "Ġ1701": 5003,
      "Ġrifu": 5004,
      "Ġzo": 5005,
      "Ġstatistiche": 5006,
      "Ġillustra": 5007,
      "Ġsovrano": 5008,
      "Ġ204": 5009,
      "Ġmeccanismo": 5010,
      "Ġapplicata": 5011,
      "Ġfinlandia": 5012,
      "Ġ263": 5013,
      "Ġsemplicemente": 5014,
      "Ġdovuta": 5015,
      "gene": 5016,
      "Ġristru": 5017,
      "Ġ127": 5018,
      "Ġpubblicato": 5019,
      "Ġrima": 5020,
      "Ġungheria": 5021,
      "Ġsanita": 5022,
      "Ġintelle": 5023,
      "Ġ220": 5024,
      "Ġmg": 5025,
      "Ġcalo": 5026,
      "hl": 5027,
      "Ġillegittimita": 5028,
      "Ġcel": 5029,
      "Ġlavorazione": 5030,
      "Ġallorche": 5031,
      "mico": 5032,
      "Ġsottovoci": 5033,
      "Ġorale": 5034,
      "Ġtorre": 5035,
      "Ġsentite": 5036,
      "Ġprodurre": 5037,
      "Ġsubi": 5038,
      "Ġstrani": 5039,
      "Ġarbi": 5040,
      "Ġfile": 5041,
      "del": 5042,
      "tes": 5043,
      "Ġ156": 5044,
      "Ġappre": 5045,
      "Ġ137": 5046,
      "Ġadeguata": 5047,
      "Ġdenominativo": 5048,
      "Ġnoto": 5049,
      "Ġbei": 5050,
      "Ġattivo": 5051,
      "Ġministro": 5052,
      "Ġlimitare": 5053,
      "Ġriserve": 5054,
      "et": 5055,
      "Ġapporta": 5056,
      "Ġpartenza": 5057,
      "Ġintese": 5058,
      "dc": 5059,
      "Ġspp": 5060,
      "Ġdemo": 5061,
      "Ġsostanziale": 5062,
      "Ġvegetali": 5063,
      "Ġreali": 5064,
      "Ġautorizzazioni": 5065,
      "Ġ1068": 5066,
      "Ġprogetta": 5067,
      "Ġcompatibilita": 5068,
      "Ġapprovvigionamento": 5069,
      "ttivita": 5070,
      "Ġoriginarie": 5071,
      "Ġacci": 5072,
      "Ġinizialmente": 5073,
      "Ġinferiori": 5074,
      "Ġdiretti": 5075,
      "Ġefsa": 5076,
      "Ġvelocita": 5077,
      "fia": 5078,
      "Ġvaluta": 5079,
      "Ġidentita": 5080,
      "Ġsuccessiva": 5081,
      "ĠÏĦ": 5082,
      "Ġ2727": 5083,
      "Ġucra": 5084,
      "ed": 5085,
      "Ġincorpo": 5086,
      "Ġcassa": 5087,
      "Ġesperienza": 5088,
      "Ġtariffari": 5089,
      "Ġristruttu": 5090,
      "Ġriscuo": 5091,
      "Ġdefinite": 5092,
      "Ġfisica": 5093,
      "Ġamerica": 5094,
      "ssia": 5095,
      "Ġpeschere": 5096,
      "Ġmal": 5097,
      "Ġdivulgazione": 5098,
      "Ġ388": 5099,
      "Ġcompiu": 5100,
      "Ġtesti": 5101,
      "Ġmetil": 5102,
      "ziamento": 5103,
      "Ġsmo": 5104,
      "Ġpatrimoni": 5105,
      "poli": 5106,
      "Ġ178": 5107,
      "Ġanticipo": 5108,
      "ld": 5109,
      "Ġmancato": 5110,
      "Ġmotivato": 5111,
      "Ġlegislativo": 5112,
      "Ġapparecchia": 5113,
      "Ġslova": 5114,
      "Ġpolitiche": 5115,
      "dali": 5116,
      "Ġsopportera": 5117,
      "Ġ2150": 5118,
      "Ġfornisce": 5119,
      "ue": 5120,
      "Ġcontenuta": 5121,
      "Ġ620": 5122,
      "Ġromania": 5123,
      "Ġlinee": 5124,
      "Ġattin": 5125,
      "Ġproduc": 5126,
      "Ġmonito": 5127,
      "Ġdominante": 5128,
      "Ġtelef": 5129,
      "Ġgenera": 5130,
      "ttenti": 5131,
      "Ġlimitazione": 5132,
      "Ġgiorna": 5133,
      "Ġsoccombente": 5134,
      "cinamento": 5135,
      "Ġesistente": 5136,
      "Ġprecisare": 5137,
      "Ġdm": 5138,
      "Ġcollaborazione": 5139,
      "Ġinteso": 5140,
      "Ġadditivo": 5141,
      "tions": 5142,
      "Ġesteri": 5143,
      "Ġmanifestamente": 5144,
      "Ġpartecipato": 5145,
      "Ġtrime": 5146,
      "Ġ147": 5147,
      "Ġuk": 5148,
      "deva": 5149,
      "Ġio": 5150,
      "Ġridu": 5151,
      "Ġintendono": 5152,
      "ao": 5153,
      "chino": 5154,
      "veri": 5155,
      "Ġesito": 5156,
      "Ġdedotti": 5157,
      "rs": 5158,
      "Ġinvalidita": 5159,
      "Ġcorretta": 5160,
      "Ġtecnici": 5161,
      "Ġmotori": 5162,
      "Ġsembra": 5163,
      "Ġesterno": 5164,
      "Ġbevande": 5165,
      "100": 5166,
      "rieta": 5167,
      "ese": 5168,
      "Ġ152": 5169,
      "Ġconfermato": 5170,
      "Ġmaro": 5171,
      "Ġveniva": 5172,
      "Ġleggi": 5173,
      "Ġ163": 5174,
      "ban": 5175,
      "ĠÎµ": 5176,
      "Ġaffermazione": 5177,
      "Ġcostituita": 5178,
      "Ġprogre": 5179,
      "Ġeccessi": 5180,
      "Ġcompleto": 5181,
      "Ġ721": 5182,
      "Ġelaborazione": 5183,
      "flu": 5184,
      "Ġaria": 5185,
      "Ġsovvenzioni": 5186,
      "ppia": 5187,
      "Ġeroga": 5188,
      "ker": 5189,
      "Ġvalida": 5190,
      "cchio": 5191,
      "Ġcompen": 5192,
      "Ġdol": 5193,
      "Ġindone": 5194,
      "Î»": 5195,
      "Ġgemein": 5196,
      "Ġ175": 5197,
      "Ġindicata": 5198,
      "Ġprincipalmente": 5199,
      "taggi": 5200,
      "Ġconfusione": 5201,
      "Ġsostituita": 5202,
      "Ġintellettuale": 5203,
      "Ġconsentito": 5204,
      "Ġvon": 5205,
      "Ġplc": 5206,
      "Ġindipendenti": 5207,
      "dina": 5208,
      "Ġtesi": 5209,
      "Ġferrovia": 5210,
      "bor": 5211,
      "Ġripe": 5212,
      "Ġcontrattuale": 5213,
      "Ġcandidati": 5214,
      "Ġsciro": 5215,
      "Ġpresentano": 5216,
      "Ġcondotta": 5217,
      "Ġinteramente": 5218,
      "Ġ189": 5219,
      "Ġprescrizione": 5220,
      "Ġautoveicoli": 5221,
      "Ġmagazz": 5222,
      "Ġpotenza": 5223,
      "eva": 5224,
      "Ġapprovato": 5225,
      "Ġgiudiziaria": 5226,
      "Ġpicco": 5227,
      "Ġsesso": 5228,
      "Ġsoddisfatte": 5229,
      "ratom": 5230,
      "Ġgioco": 5231,
      "Ġrati": 5232,
      "Ġisole": 5233,
      "Ġlon": 5234,
      "Ġ0003": 5235,
      "Ġattenu": 5236,
      "Ġimponibile": 5237,
      "Ġricordato": 5238,
      "Ġeuratom": 5239,
      "Ġstampa": 5240,
      "Ġsottoposti": 5241,
      "dersi": 5242,
      "Ġsottoporre": 5243,
      "Ġparzialmente": 5244,
      "Ġcasella": 5245,
      "Ġumano": 5246,
      "presidente": 5247,
      "Ġdiparti": 5248,
      "cher": 5249,
      "Ġ149": 5250,
      "Ġbovini": 5251,
      "Ġrue": 5252,
      "Ġ168": 5253,
      "Ġneu": 5254,
      "Ġqualunque": 5255,
      "Ġalcole": 5256,
      "Ġ157": 5257,
      "Ġinterpretata": 5258,
      "Ġdettaglia": 5259,
      "Ġcittadinanza": 5260,
      "Ġirricevibilita": 5261,
      "zionate": 5262,
      "Ġpagare": 5263,
      "dn": 5264,
      "fera": 5265,
      "Ġnumeri": 5266,
      "mark": 5267,
      "ĠÃĹ": 5268,
      "Ġalto": 5269,
      "Ġapplicati": 5270,
      "Ġsovvenzione": 5271,
      "Ġfunzionario": 5272,
      "Ġsostenere": 5273,
      "Ġdetrazione": 5274,
      "Ġsecured": 5275,
      "Ġinfrazioni": 5276,
      "Ġholding": 5277,
      "Ġrisolvere": 5278,
      "rige": 5279,
      "Ġimbarco": 5280,
      "els": 5281,
      "Ġcombinata": 5282,
      "Ðº": 5283,
      "Ġtransa": 5284,
      "Ġsospendere": 5285,
      "Ġimpar": 5286,
      "eneri": 5287,
      "Ġnormali": 5288,
      "stin": 5289,
      "Ġscorte": 5290,
      "ggere": 5291,
      "Ġuve": 5292,
      "Ġtest": 5293,
      "Ġcontanti": 5294,
      "Ġ440": 5295,
      "Ġvicepresidente": 5296,
      "Ġmoltiplica": 5297,
      "Ġformale": 5298,
      "Ġ155": 5299,
      "Ġnoci": 5300,
      "Ġ167": 5301,
      "Ġproblema": 5302,
      "Ġ310": 5303,
      "Ġagire": 5304,
      "Ġchiave": 5305,
      "Ġmodulo": 5306,
      "Ġequ": 5307,
      "Ġcul": 5308,
      "guiti": 5309,
      "Ġtavola": 5310,
      "Ġog": 5311,
      "Ġcru": 5312,
      "Ġnucle": 5313,
      "Ġ340": 5314,
      "Ġom": 5315,
      "Ġ171": 5316,
      "Ġtariffe": 5317,
      "Ġâī": 5318,
      "Ġanteriori": 5319,
      "rd": 5320,
      "Ġpassivita": 5321,
      "Ġlicenze": 5322,
      "Ġpermesso": 5323,
      "Ġmonte": 5324,
      "Ġnavigazione": 5325,
      "Ġsolu": 5326,
      "Ġrotative": 5327,
      "200": 5328,
      "wo": 5329,
      "Ġammissibili": 5330,
      "Ġ720": 5331,
      "Ġsur": 5332,
      "Ġsalvaguardia": 5333,
      "bato": 5334,
      "Ġessenziale": 5335,
      "Ġsostanzialmente": 5336,
      "Ġmina": 5337,
      "Ġspi": 5338,
      "Ġcp": 5339,
      "Ġelle": 5340,
      "Ġpresupposti": 5341,
      "Ġristrutturazione": 5342,
      "Ġprea": 5343,
      "Ġammissione": 5344,
      "Ġpronunciarsi": 5345,
      "Ġ520": 5346,
      "Ġadottati": 5347,
      "Ġ730": 5348,
      "Ġrq": 5349,
      "Ġ181": 5350,
      "Ġ800": 5351,
      "Ġimpegna": 5352,
      "Ġconsistente": 5353,
      "Ġ1702": 5354,
      "gos": 5355,
      "Ġufficiali": 5356,
      "jo": 5357,
      "Ġcompagni": 5358,
      "nia": 5359,
      "Ġsopporta": 5360,
      "logia": 5361,
      "Ġpasseggeri": 5362,
      "Ġconfigu": 5363,
      "eni": 5364,
      "Ġdedotto": 5365,
      "Ġcostruzioni": 5366,
      "Ġtede": 5367,
      "Ġripri": 5368,
      "tosani": 5369,
      "Ġgov": 5370,
      "Ġfonti": 5371,
      "Ġconnesse": 5372,
      "Ġcode": 5373,
      "Ġrotture": 5374,
      "Ġ404": 5375,
      "Ġesclusiva": 5376,
      "Ġammesso": 5377,
      "Ġsoggetta": 5378,
      "zionare": 5379,
      "Ġindustriali": 5380,
      "Ġincombenti": 5381,
      "Ġincidente": 5382,
      "ĠâĢ¢": 5383,
      "Ġproroga": 5384,
      "Ġcommuni": 5385,
      "Ġfitosani": 5386,
      "denze": 5387,
      "Ġmessi": 5388,
      "mane": 5389,
      "Ġtedesca": 5390,
      "Ġcontinua": 5391,
      "tis": 5392,
      "sivi": 5393,
      "sin": 5394,
      "Ġposizioni": 5395,
      "Ġrapi": 5396,
      "Ġovi": 5397,
      "Ġbandiera": 5398,
      "Ġreto": 5399,
      "ttan": 5400,
      "Ġdestinata": 5401,
      "Ġchilogra": 5402,
      "sure": 5403,
      "Ġsomme": 5404,
      "Ġ161": 5405,
      "Ġprovincia": 5406,
      "020": 5407,
      "Ġdedu": 5408,
      "Ġsuddi": 5409,
      "Ġvuo": 5410,
      "Ġammissibile": 5411,
      "Ġrsms": 5412,
      "lia": 5413,
      "Ġsmot": 5414,
      "Ġrqrr": 5415,
      "Ġsottolinea": 5416,
      "Ġqrre": 5417,
      "Ġ154": 5418,
      "Ġ165": 5419,
      "Ġassociazioni": 5420,
      "Ġintitolato": 5421,
      "Ġperme": 5422,
      "Ġscarico": 5423,
      "Ġcompleta": 5424,
      "Ġfinali": 5425,
      "Ġ146": 5426,
      "Ġmente": 5427,
      "ccupa": 5428,
      "Ġ0403": 5429,
      "Ġparalle": 5430,
      "entali": 5431,
      "turi": 5432,
      "Ġacquisizione": 5433,
      "Ġobbligazioni": 5434,
      "Ġ174": 5435,
      "Ġff": 5436,
      "Ġob": 5437,
      "Ġ184": 5438,
      "Ġripa": 5439,
      "cho": 5440,
      "Ġsostengono": 5441,
      "Ġ1234": 5442,
      "Ġcommis": 5443,
      "Ġselezione": 5444,
      "Ġmenzionati": 5445,
      "ons": 5446,
      "Ġww": 5447,
      "Ġarma": 5448,
      "stein": 5449,
      "canti": 5450,
      "Ġbarba": 5451,
      "bita": 5452,
      "Ġappartenenti": 5453,
      "Ġequo": 5454,
      "Ġcap": 5455,
      "ssata": 5456,
      "mbro": 5457,
      "ÃŁ": 5458,
      "Ġconiu": 5459,
      "Ġcomplementare": 5460,
      "Ġricorre": 5461,
      "Ġaggiudicatario": 5462,
      "Ġredatto": 5463,
      "ling": 5464,
      "Ġfore": 5465,
      "Ġcontatto": 5466,
      "fin": 5467,
      "Ġ153": 5468,
      "Ġrifle": 5469,
      "ments": 5470,
      "Ġincompatibile": 5471,
      "Ġriscuotere": 5472,
      "Ġinnanzi": 5473,
      "Ġsvolgere": 5474,
      "Ġsuperare": 5475,
      "sionale": 5476,
      "Ġher": 5477,
      "Ġsalve": 5478,
      "Ġcasca": 5479,
      "Ġcifre": 5480,
      "Ġdifetto": 5481,
      "Ġinserito": 5482,
      "Ġ144": 5483,
      "Ġraffor": 5484,
      "Ġpin": 5485,
      "Ġorientamento": 5486,
      "Ġgiustificata": 5487,
      "Ġampia": 5488,
      "Ġelencate": 5489,
      "Ġdra": 5490,
      "Ġimmedi": 5491,
      "Ġconfli": 5492,
      "Ġindividuali": 5493,
      "Ġgiusta": 5494,
      "Ġprimi": 5495,
      "Ġpendente": 5496,
      "Ġosservanza": 5497,
      "Ġscremato": 5498,
      "Ġvengano": 5499,
      "Ġsolamente": 5500,
      "Ġsc": 5501,
      "dera": 5502,
      "Ġconteni": 5503,
      "Ġbank": 5504,
      "Ġacquirente": 5505,
      "Ġucraina": 5506,
      "Ġgestore": 5507,
      "Ġsala": 5508,
      "Ġforniture": 5509,
      "Ġmsc": 5510,
      "Ġmonetario": 5511,
      "schi": 5512,
      "Ġdome": 5513,
      "Ġargomentazione": 5514,
      "Ġmac": 5515,
      "Ġinterpretati": 5516,
      "Ġconfronto": 5517,
      "Ġverbale": 5518,
      "Ġpacifico": 5519,
      "Ġsvolto": 5520,
      "Ġalluminio": 5521,
      "Ġdestinazioni": 5522,
      "Ġaccertato": 5523,
      "Ġattrezza": 5524,
      "Ġscopi": 5525,
      "Ġ182": 5526,
      "Ġbiso": 5527,
      "Ġ158": 5528,
      "id": 5529,
      "Ġcompatibile": 5530,
      "Ġfattura": 5531,
      "Ġ2694": 5532,
      "cini": 5533,
      "Ġdistor": 5534,
      "Ġsupporto": 5535,
      "Ġaccerta": 5536,
      "Ġprestito": 5537,
      "Ġanteriormente": 5538,
      "Ġutilizzando": 5539,
      "rop": 5540,
      "Ġdifferenzia": 5541,
      "Ġ337": 5542,
      "Ġpreparazione": 5543,
      "laterali": 5544,
      "all": 5545,
      "Ġsummen": 5546,
      "Ġproblemi": 5547,
      "lea": 5548,
      "Ġsottoposte": 5549,
      "Ġdieci": 5550,
      "Ġlitu": 5551,
      "Ġgiustificato": 5552,
      "Ġcinesi": 5553,
      "Ġclausole": 5554,
      "Ġ162": 5555,
      "Ġattiene": 5556,
      "Ġbenche": 5557,
      "Ġix": 5558,
      "Ġconsenso": 5559,
      "Ġinno": 5560,
      "walt": 5561,
      "Ġemesso": 5562,
      "Ġcertificazione": 5563,
      "Ġ159": 5564,
      "Ġrefrige": 5565,
      "Ġimpedire": 5566,
      "Ġanalogia": 5567,
      "Ġ2022": 5568,
      "ttuali": 5569,
      "Ġcollegamento": 5570,
      "Ġinflitta": 5571,
      "Ġestero": 5572,
      "Ġcifra": 5573,
      "Ġsvilupp": 5574,
      "Ġtha": 5575,
      "Ġopportuni": 5576,
      "Ġmutu": 5577,
      "Ġcarbon": 5578,
      "Ġcpa": 5579,
      "Ġdirette": 5580,
      "Ġimmatrico": 5581,
      "Ġtai": 5582,
      "Ġ299": 5583,
      "Ġospi": 5584,
      "Ġvisi": 5585,
      "Ġtrasparenza": 5586,
      "ris": 5587,
      "Ġchiusura": 5588,
      "Ġelettrici": 5589,
      "denziale": 5590,
      "Ġlui": 5591,
      "Ġcompan": 5592,
      "Ġcato": 5593,
      "Ġesauri": 5594,
      "Ġfavorevole": 5595,
      "wer": 5596,
      "Ġhtt": 5597,
      "Ġbasso": 5598,
      "Ġspessore": 5599,
      "Ġuscita": 5600,
      "Ġcampioni": 5601,
      "lui": 5602,
      "cano": 5603,
      "Ġ270": 5604,
      "Ġ2138": 5605,
      "Ġcellu": 5606,
      "rus": 5607,
      "Ġfrancesi": 5608,
      "Ġdefinire": 5609,
      "Ġassemb": 5610,
      "dorf": 5611,
      "col": 5612,
      "Ġfondamentale": 5613,
      "Ġvedi": 5614,
      "Ġautomatica": 5615,
      "Ġbv": 5616,
      "Ġarbitra": 5617,
      "Ġlarghezza": 5618,
      "geno": 5619,
      "Ġaus": 5620,
      "Ġasseri": 5621,
      "Ġapplicate": 5622,
      "Ġresta": 5623,
      "Ġdebitore": 5624,
      "Ġpart": 5625,
      "Ġanne": 5626,
      "Ġrilie": 5627,
      "Ġ1103": 5628,
      "Ġcura": 5629,
      "Ġaspetto": 5630,
      "Ġvariabile": 5631,
      "Ġispezione": 5632,
      "venzione": 5633,
      "Ġbambi": 5634,
      "Ġwith": 5635,
      "Ġamma": 5636,
      "Ġsar": 5637,
      "Ġ1104": 5638,
      "Ġdebitamente": 5639,
      "Ġrecupera": 5640,
      "Ġurb": 5641,
      "Ġestre": 5642,
      "Ġmol": 5643,
      "Ġindonesia": 5644,
      "Ġiu": 5645,
      "Ġprofessioni": 5646,
      "Ġlingue": 5647,
      "Ġrestano": 5648,
      "Ġcomponente": 5649,
      "Ġsma": 5650,
      "Ġnegoziati": 5651,
      "duta": 5652,
      "Ġcur": 5653,
      "Ġseparata": 5654,
      "Ġversare": 5655,
      "Ġrisposte": 5656,
      "Ġconstatazione": 5657,
      "Ġriservato": 5658,
      "Ġprevidenza": 5659,
      "Ġporre": 5660,
      "Ġclassificati": 5661,
      "Ġprose": 5662,
      "versa": 5663,
      "rende": 5664,
      "Ġconclusi": 5665,
      "dosi": 5666,
      "Ġsignificativo": 5667,
      "Ġifr": 5668,
      "Ġepo": 5669,
      "Ð´": 5670,
      "Ġak": 5671,
      "Ġtitolari": 5672,
      "Ġaccettazione": 5673,
      "Ġpagato": 5674,
      "Ġamministrativi": 5675,
      "Ġvariazioni": 5676,
      "Ġconsentono": 5677,
      "Ġdogana": 5678,
      "fatto": 5679,
      "Ġresponsabili": 5680,
      "Ġutenti": 5681,
      "Ġriproduzione": 5682,
      "Ġesple": 5683,
      "Ġdisponibilita": 5684,
      "Ġrws": 5685,
      "Ġregistrati": 5686,
      "Ġbulgaria": 5687,
      "miche": 5688,
      "Ġ213800": 5689,
      "matico": 5690,
      "Ġpost": 5691,
      "Ġvolonta": 5692,
      "Ġ@": 5693,
      "Ġneder": 5694,
      "Ġoccor": 5695,
      "ties": 5696,
      "Ġvantaggi": 5697,
      "Ġerroneamente": 5698,
      "Ġstri": 5699,
      "Ġentrate": 5700,
      "Ġautonoma": 5701,
      "Ġrurale": 5702,
      "Ġ215": 5703,
      "Ġ253": 5704,
      "990": 5705,
      "Ġsostituzione": 5706,
      "tivamente": 5707,
      "Ġtech": 5708,
      "Ġperseguito": 5709,
      "Ġdici": 5710,
      "miny": 5711,
      "Ġmacel": 5712,
      "Ġbiologi": 5713,
      "Ġlibero": 5714,
      "Ġjean": 5715,
      "Ġfle": 5716,
      "Ġadministra": 5717,
      "Ġqualificazione": 5718,
      "Ġdero": 5719,
      "Ġpresunzione": 5720,
      "Ġincluse": 5721,
      "Ġriba": 5722,
      "Ġpesci": 5723,
      "Ġesper": 5724,
      "giche": 5725,
      "Ġparticolarmente": 5726,
      "Ġrilevanza": 5727,
      "Ġvigente": 5728,
      "Ġesclude": 5729,
      "Ġgiappone": 5730,
      "Ġstruttu": 5731,
      "Ġsegni": 5732,
      "Ġdefinisce": 5733,
      "Ġlit": 5734,
      "030": 5735,
      "Ġsuperi": 5736,
      "Ġumana": 5737,
      "Ġnominati": 5738,
      "Ġgminy": 5739,
      "ele": 5740,
      "Ġ610": 5741,
      "Ġlea": 5742,
      "Ġpromuovere": 5743,
      "Ġ187": 5744,
      "Ġibri": 5745,
      "Ġripre": 5746,
      "Ġcostr": 5747,
      "Ġaziende": 5748,
      "Ġterritoriale": 5749,
      "cli": 5750,
      "Ġ176": 5751,
      "Ġpartecipare": 5752,
      "Î±Ïģ": 5753,
      "metrico": 5754,
      "Ġtabacco": 5755,
      "ppure": 5756,
      "Ġcata": 5757,
      "Ġprecedentemente": 5758,
      "Ġravvicinamento": 5759,
      "Ġautorizzata": 5760,
      "Ġcontraria": 5761,
      "ann": 5762,
      "Ġrivol": 5763,
      "dis": 5764,
      "Ġ239": 5765,
      "Ġscon": 5766,
      "Ġcessazione": 5767,
      "Ġscuo": 5768,
      "Ġoriginale": 5769,
      "Ġflo": 5770,
      "stino": 5771,
      "Ġrep": 5772,
      "Ġlavorato": 5773,
      "Ġanticipata": 5774,
      "minati": 5775,
      "Ġ226": 5776,
      "Ġiec": 5777,
      "Ġmandato": 5778,
      "Ġmed": 5779,
      "Ġvalido": 5780,
      "Ġproducts": 5781,
      "Ġmie": 5782,
      "Ġwww": 5783,
      "Ġimposto": 5784,
      "ring": 5785,
      "Ġdiplo": 5786,
      "Ġequilib": 5787,
      "Ġposteriori": 5788,
      "Ġcondannato": 5789,
      "Ġrilasciati": 5790,
      "Ġoperativo": 5791,
      "Ġaerei": 5792,
      "Ġcoltiva": 5793,
      "Ġclo": 5794,
      "Ġarro": 5795,
      "mera": 5796,
      "cazioni": 5797,
      "Ġadi": 5798,
      "Ġsuccessive": 5799,
      "Ġfratta": 5800,
      "Ġritardo": 5801,
      "Ġrien": 5802,
      "Ġriassi": 5803,
      "Ġcomun": 5804,
      "Ġ9000": 5805,
      "Ġtomo": 5806,
      "Ġpotevano": 5807,
      "Ġmarocco": 5808,
      "Ġperfe": 5809,
      "Ġrinuncia": 5810,
      "Ġceneri": 5811,
      "Ġformulazione": 5812,
      "Ġtenuti": 5813,
      "vamento": 5814,
      "Ġrafforza": 5815,
      "Ġcomplementari": 5816,
      "Ġandamento": 5817,
      "Ġpatrimonio": 5818,
      "ratorio": 5819,
      "Ġdistanza": 5820,
      "Ġannullata": 5821,
      "Ġnotificato": 5822,
      "ditori": 5823,
      "Ġze": 5824,
      "gici": 5825,
      "Ġcpc": 5826,
      "Ġinst": 5827,
      "Ġformalita": 5828,
      "Ġrisie": 5829,
      "Ġfrattaglie": 5830,
      "frutta": 5831,
      "Ġtiene": 5832,
      "Ġmonitoraggio": 5833,
      "Ġanaloga": 5834,
      "tudine": 5835,
      "Ġtac": 5836,
      "dit": 5837,
      "Ġinteri": 5838,
      "Ġph": 5839,
      "Ġcascami": 5840,
      "Ġadditivi": 5841,
      "Ġram": 5842,
      "Ġeviden": 5843,
      "Ġdeca": 5844,
      "Ġcosta": 5845,
      "Ġcarburante": 5846,
      "Ġapparecchiature": 5847,
      "Ġricoper": 5848,
      "Ġsingolo": 5849,
      "bia": 5850,
      "Ġarchi": 5851,
      "Ġraggiungere": 5852,
      "Ġspecificato": 5853,
      "cali": 5854,
      "Ġregolare": 5855,
      "Ġpersi": 5856,
      "Ġprocede": 5857,
      "Ġole": 5858,
      "Ġrame": 5859,
      "Ġ1049": 5860,
      "Ġcomunicare": 5861,
      "rle": 5862,
      "dde": 5863,
      "Ġtrasposizione": 5864,
      "Ġ1515": 5865,
      "nes": 5866,
      "Ġelettro": 5867,
      "Ġminuto": 5868,
      "Ġavvio": 5869,
      "Ġestensione": 5870,
      "Ġvalutazioni": 5871,
      "Ġlamento": 5872,
      "ski": 5873,
      "ĠÎ¼": 5874,
      "Ġpermette": 5875,
      "Ġgratu": 5876,
      "Ġavena": 5877,
      "Ġasi": 5878,
      "Ġaccolto": 5879,
      "Ġomesso": 5880,
      "uli": 5881,
      "Ġimpedi": 5882,
      "Ġutilizzatori": 5883,
      "Ġnulla": 5884,
      "Ġviaggio": 5885,
      "Ġcoinvol": 5886,
      "Ġvigenti": 5887,
      "Ġfacendo": 5888,
      "mbe": 5889,
      "Ġscritte": 5890,
      "Ġcha": 5891,
      "Ġprele": 5892,
      "Ġavvale": 5893,
      "Ġaccen": 5894,
      "smi": 5895,
      "Ġ179": 5896,
      "Ġcongiuntamente": 5897,
      "Ġsvolte": 5898,
      "Ġnastri": 5899,
      "dam": 5900,
      "Ġconoscere": 5901,
      "guimento": 5902,
      "Ġdovuti": 5903,
      "Ġsottolineato": 5904,
      "Ġprivile": 5905,
      "Ġdipende": 5906,
      "Ġstrutture": 5907,
      "Ġopere": 5908,
      "Ġrilasciata": 5909,
      "Ġconcreto": 5910,
      "Ġimpon": 5911,
      "Ġintera": 5912,
      "Ġattivi": 5913,
      "Ġbanane": 5914,
      "Ġmassimale": 5915,
      "Ġiniziativa": 5916,
      "Ġidrossi": 5917,
      "Ġnorvegia": 5918,
      "Ġsottoposta": 5919,
      "Ġsedi": 5920,
      "Ġenerge": 5921,
      "Ġvalutato": 5922,
      "Ġsfrutta": 5923,
      "Ġias": 5924,
      "schaft": 5925,
      "Ġrea": 5926,
      "Ġcitate": 5927,
      "Ġidonei": 5928,
      "Ġsrl": 5929,
      "rono": 5930,
      "Ġwor": 5931,
      "Ġcircolare": 5932,
      "Ġistanza": 5933,
      "Ġdistinzione": 5934,
      "sive": 5935,
      "Ġdisossa": 5936,
      "venza": 5937,
      "Ġdovra": 5938,
      "Ġ1966": 5939,
      "Ġautorizzate": 5940,
      "Ġles": 5941,
      "Ġcultura": 5942,
      "ji": 5943,
      "Ġmettere": 5944,
      "wn": 5945,
      "Ġtasse": 5946,
      "Ġfalli": 5947,
      "stanti": 5948,
      "Ġpopolazione": 5949,
      "Ġstrada": 5950,
      "Ġmagne": 5951,
      "Ġeuropean": 5952,
      "Ġchimica": 5953,
      "ĠÂ±": 5954,
      "Ġtagli": 5955,
      "Ġcollaborato": 5956,
      "Ġfabbricati": 5957,
      "Ġprevisione": 5958,
      "Ġrisultanti": 5959,
      "Ġsupre": 5960,
      "Ġcostruttore": 5961,
      "Ġchilogrammi": 5962,
      "gate": 5963,
      "Ġtesta": 5964,
      "Ġeccezionali": 5965,
      "Ġsim": 5966,
      "Ġottenute": 5967,
      "Ġmenzionata": 5968,
      "tili": 5969,
      "tena": 5970,
      "Ġdepositi": 5971,
      "Ġgiustificazione": 5972,
      "Ġcompensato": 5973,
      "Ġtotalita": 5974,
      "Ġofc": 5975,
      "Ġinserimento": 5976,
      "Ġdisegno": 5977,
      "Ġcomprendono": 5978,
      "ric": 5979,
      "ska": 5980,
      "Ġamo": 5981,
      "mune": 5982,
      "Ġifrs": 5983,
      "Ġ192": 5984,
      "deci": 5985,
      "Ġintenzione": 5986,
      "Ġstamp": 5987,
      "Ġ261": 5988,
      "Ġ216": 5989,
      "Ġwo": 5990,
      "Ġattribuito": 5991,
      "Ġospitante": 5992,
      "Ġcampionamento": 5993,
      "Ġhan": 5994,
      "uzioni": 5995,
      "yer": 5996,
      "Ġindisp": 5997,
      "Ġty": 5998,
      "Ġmenzionate": 5999,
      "Ġprivata": 6000,
      "Ġdiscen": 6001,
      "Ġcusto": 6002,
      "Ġanaloghi": 6003,
      "Ġconseguentemente": 6004,
      "Ġdemoc": 6005,
      "Ġequivalenti": 6006,
      "Ġmiglioramento": 6007,
      "Ġrinnovo": 6008,
      "Ġprevenzione": 6009,
      "Ġ183": 6010,
      "car": 6011,
      "Ġsorgo": 6012,
      "Ġidoneo": 6013,
      "Ġalcoli": 6014,
      "Ġfamiliare": 6015,
      "cidi": 6016,
      "Ġneppure": 6017,
      "Ġspecificamente": 6018,
      "Ġimportato": 6019,
      "zionalmente": 6020,
      "Ġterra": 6021,
      "denziali": 6022,
      "turo": 6023,
      "Ġindustrie": 6024,
      "Ġindenni": 6025,
      "Ġchiaro": 6026,
      "mani": 6027,
      "Ġcompany": 6028,
      "Ġale": 6029,
      "Ġsil": 6030,
      "Ġvoor": 6031,
      "Ġtel": 6032,
      "try": 6033,
      "Ġpreval": 6034,
      "Ġ296": 6035,
      "Ġrecipi": 6036,
      "Ġdefinizioni": 6037,
      "Ġprecedenza": 6038,
      "Ġannuali": 6039,
      "Ġrappresentativo": 6040,
      "Ġsoddisfano": 6041,
      "Ġmodifi": 6042,
      "Ġentrambi": 6043,
      "Ġsoprattu": 6044,
      "Ġsollevata": 6045,
      "Ġnotificata": 6046,
      "Ġmenzionato": 6047,
      "Ġtemporanea": 6048,
      "Ġminore": 6049,
      "Ġattenzione": 6050,
      "Ġviolazioni": 6051,
      "Ġproporre": 6052,
      "Ġsussistenza": 6053,
      "Ġquasi": 6054,
      "Ġpes": 6055,
      "Ġunite": 6056,
      "Ġmassimi": 6057,
      "mbolo": 6058,
      "Ġversato": 6059,
      "Ġsoprattutto": 6060,
      "com": 6061,
      "Ġversati": 6062,
      "Ġappa": 6063,
      "Ġgua": 6064,
      "Ġesplicita": 6065,
      "Ġmessaggio": 6066,
      "Ġriferimenti": 6067,
      "Ġzioni": 6068,
      "Ġrime": 6069,
      "Ġ188": 6070,
      "Ġ256": 6071,
      "Ġistan": 6072,
      "organ": 6073,
      "gar": 6074,
      "Ġplu": 6075,
      "Ġdiffici": 6076,
      "Ġtransitorie": 6077,
      "Ġrientranti": 6078,
      "Ġfax": 6079,
      "Ġimporre": 6080,
      "Ġsubordinato": 6081,
      "ght": 6082,
      "bra": 6083,
      "Ġpotesse": 6084,
      "Ġcontrattuali": 6085,
      "Ġxii": 6086,
      "Ġtorrefatto": 6087,
      "Ġprescritto": 6088,
      "Ġ0709": 6089,
      "Ġaree": 6090,
      "Ġriassicu": 6091,
      "Ġcomme": 6092,
      "fer": 6093,
      "Ġfacili": 6094,
      "Ġ206": 6095,
      "Ġ543": 6096,
      "Ġregionali": 6097,
      "Ġcreazione": 6098,
      "Ġcie": 6099,
      "Ġaddizionale": 6100,
      "Ġ202": 6101,
      "ĠâĢ²": 6102,
      "ttosio": 6103,
      "Ġindirettamente": 6104,
      "Ġpec": 6105,
      "Ġmarca": 6106,
      "Ġesclusa": 6107,
      "minale": 6108,
      "Ġresidu": 6109,
      "Ġpieno": 6110,
      "Ġvolati": 6111,
      "Ġcera": 6112,
      "ae": 6113,
      "orts": 6114,
      "Ġsegnalazione": 6115,
      "Ġdichiarando": 6116,
      "Ġcontroversie": 6117,
      "Ġpolveri": 6118,
      "Ġforfettario": 6119,
      "Ð¸Ñ": 6120,
      "Ġ185": 6121,
      "Ġ193": 6122,
      "Ġ236": 6123,
      "Ġagricole": 6124,
      "cker": 6125,
      "Ġsvolta": 6126,
      "Ġassegnato": 6127,
      "Ġ228": 6128,
      "Ġnormalmente": 6129,
      "Ġcontinuare": 6130,
      "am": 6131,
      "Ġcombinazione": 6132,
      "rin": 6133,
      "Ġonde": 6134,
      "Ġindagini": 6135,
      "Ġrispettivi": 6136,
      "Ġcessa": 6137,
      "Ġ319": 6138,
      "Ġquestiona": 6139,
      "Ġtariffarie": 6140,
      "Ġ191": 6141,
      "Ġraggiunto": 6142,
      "mate": 6143,
      "Ġevidente": 6144,
      "Ġke": 6145,
      "Ġcanada": 6146,
      "neo": 6147,
      "Ġ240": 6148,
      "Ġotta": 6149,
      "Ġaliquote": 6150,
      "Ġaggiunge": 6151,
      "Ġregolamenta": 6152,
      "andosi": 6153,
      "Ġimposti": 6154,
      "Ġzi": 6155,
      "Ġredditivita": 6156,
      "Ġcosa": 6157,
      "Ġpresci": 6158,
      "Ġintracomuni": 6159,
      "Ġgreggi": 6160,
      "Ġreplica": 6161,
      "gese": 6162,
      "Ġcontemplati": 6163,
      "Ġsgra": 6164,
      "Ġ212": 6165,
      "Ġmaggioranza": 6166,
      "Ġessenzialmente": 6167,
      "Ġaeromobili": 6168,
      "Ġretroa": 6169,
      "Ġ209": 6170,
      "Ġprevedono": 6171,
      "Ġmuta": 6172,
      "Ġ350": 6173,
      "Ġ235": 6174,
      "Ġderoghe": 6175,
      "Ġprodotta": 6176,
      "Ġfabbricante": 6177,
      "Ġaumentare": 6178,
      "Ġ208": 6179,
      "chen": 6180,
      "Ġ414": 6181,
      "Ġprescindere": 6182,
      "Ġapplicarsi": 6183,
      "Ġillecito": 6184,
      "Ġterreni": 6185,
      "Ġappena": 6186,
      "Ġritiro": 6187,
      "Ġampio": 6188,
      "iere": 6189,
      "Ġfigurativo": 6190,
      "Ġdifferenti": 6191,
      "Ġ0808": 6192,
      "Ġautorizzare": 6193,
      "Ġdigi": 6194,
      "turb": 6195,
      "Ġpassaggio": 6196,
      "Ġinver": 6197,
      "Ġcoefficienti": 6198,
      "stando": 6199,
      "Ġespressi": 6200,
      "Ġcontestata": 6201,
      "Ġgiustamente": 6202,
      "anta": 6203,
      "Ġdinie": 6204,
      "Ġ260": 6205,
      "Ġcarca": 6206,
      "Ġmesso": 6207,
      "Ġapplicabilita": 6208,
      "Ġcontengono": 6209,
      "Ġperi": 6210,
      "Ġincre": 6211,
      "Ġglucosio": 6212,
      "Ġsale": 6213,
      "onato": 6214,
      "Ġsiero": 6215,
      "Ġritor": 6216,
      "Ġcentri": 6217,
      "Ġmanufatti": 6218,
      "ware": 6219,
      "Ġdovesse": 6220,
      "Ġcontroin": 6221,
      "Ġorizz": 6222,
      "Ġlimited": 6223,
      "Ġspesa": 6224,
      "Ġmemoria": 6225,
      "Ġinerenti": 6226,
      "Ġepoca": 6227,
      "Ġpredi": 6228,
      "Ġconsigliere": 6229,
      "oli": 6230,
      "arita": 6231,
      "ĠpoÅĤ": 6232,
      "Ġselva": 6233,
      "Ġ0001": 6234,
      "yo": 6235,
      "Ġsomi": 6236,
      "Ġestratti": 6237,
      "Ġdecide": 6238,
      "Ġpronunciata": 6239,
      "Ġtuni": 6240,
      "Ġporti": 6241,
      "Ġsmalti": 6242,
      "Ġformaggi": 6243,
      "Ġpena": 6244,
      "Ġsodio": 6245,
      "cando": 6246,
      "Ġstatuisce": 6247,
      "Ġloco": 6248,
      "Ġfasi": 6249,
      "Ġacquisi": 6250,
      "Ġumi": 6251,
      "Ġ211": 6252,
      "Ġmedicinale": 6253,
      "Ġfb": 6254,
      "Ġrein": 6255,
      "Ġintegralmente": 6256,
      "Ġsbarco": 6257,
      "Ġdonna": 6258,
      "Ġaerea": 6259,
      "tene": 6260,
      "Ġindicatori": 6261,
      "Ġsce": 6262,
      "Ġeffettua": 6263,
      "Ġcipro": 6264,
      "Ġademp": 6265,
      "Ġdimensione": 6266,
      "Ġautonomo": 6267,
      "citi": 6268,
      "Ġobbligatoria": 6269,
      "Ġavviare": 6270,
      "Ġaggre": 6271,
      "Ġ205": 6272,
      "Ġinterva": 6273,
      "neu": 6274,
      "Ġtrovano": 6275,
      "Ġammasso": 6276,
      "Ġdiniego": 6277,
      "Ġ194": 6278,
      "Ġstatistica": 6279,
      "Ġdou": 6280,
      "zina": 6281,
      "Ġ640": 6282,
      "Ġki": 6283,
      "Ġ213": 6284,
      "inamento": 6285,
      "los": 6286,
      "Ġgar": 6287,
      "dute": 6288,
      "tagna": 6289,
      "Ġespri": 6290,
      "Ġ249": 6291,
      "Ġsezioni": 6292,
      "Ġvie": 6293,
      "Ġ804": 6294,
      "bro": 6295,
      "Ġpartite": 6296,
      "cino": 6297,
      "sato": 6298,
      "sciuto": 6299,
      "Ġhet": 6300,
      "Ġritenuta": 6301,
      "Ġcourt": 6302,
      "Ġattrezzature": 6303,
      "Ġorizzon": 6304,
      "Ġesterna": 6305,
      "lice": 6306,
      "Ġcontrointere": 6307,
      "Ġfos": 6308,
      "Ġinoss": 6309,
      "Ġdro": 6310,
      "gosla": 6311,
      "Ġcontenere": 6312,
      "Ġcorrispondenza": 6313,
      "Ġcomprendere": 6314,
      "Ġintermedia": 6315,
      "Ġmonetari": 6316,
      "Ġ186": 6317,
      "Ġstan": 6318,
      "Ġ221": 6319,
      "Ġmedica": 6320,
      "Ġaccessi": 6321,
      "Ġchiari": 6322,
      "Ġfecola": 6323,
      "Ġnv": 6324,
      "Ġ195": 6325,
      "Ġrende": 6326,
      "Ġsettimana": 6327,
      "Ġpronun": 6328,
      "viazione": 6329,
      "Ġcompito": 6330,
      "tel": 6331,
      "Ġdenominazioni": 6332,
      "Ġ0401": 6333,
      "Ġarticle": 6334,
      "Ġide": 6335,
      "Ġinterni": 6336,
      "Ġfen": 6337,
      "metica": 6338,
      "nica": 6339,
      "Ġbambini": 6340,
      "pia": 6341,
      "Ġcostituiti": 6342,
      "Ġagre": 6343,
      "valu": 6344,
      "Ġsinis": 6345,
      "Ġusati": 6346,
      "red": 6347,
      "lome": 6348,
      "Ġintroduttivo": 6349,
      "Ġelenchi": 6350,
      "Ġcomando": 6351,
      "Ġmy": 6352,
      "Ġ231": 6353,
      "Ġrealizzare": 6354,
      "Ġbasi": 6355,
      "chtshof": 6356,
      "Ġipote": 6357,
      "Ġsvedese": 6358,
      "Ġrispettive": 6359,
      "Ġesta": 6360,
      "Ġvivi": 6361,
      "oruro": 6362,
      "Ġcalza": 6363,
      "Ġfaci": 6364,
      "Ġistituti": 6365,
      "Ġindispensa": 6366,
      "Ġchar": 6367,
      "Ġcongelate": 6368,
      "ser": 6369,
      "Ġimpossibile": 6370,
      "Ġcolore": 6371,
      "Ġprogressi": 6372,
      "Ġcorrezione": 6373,
      "Ġrendimento": 6374,
      "Ġgg": 6375,
      "Ġassunto": 6376,
      "Ġpotenziale": 6377,
      "ropor": 6378,
      "Ġdesignato": 6379,
      "Ġrifusione": 6380,
      "bl": 6381,
      "mor": 6382,
      "Ġesser": 6383,
      "Ġ203": 6384,
      "Ġ222": 6385,
      "Ġ335": 6386,
      "Ġtonnellata": 6387,
      "Ġspropor": 6388,
      "Ġprocedurali": 6389,
      "Ġdiscriminato": 6390,
      "Ġmr": 6391,
      "Ġconduce": 6392,
      "rlo": 6393,
      "Ġpatrimoniale": 6394,
      "Ġcodi": 6395,
      "Ġpere": 6396,
      "Ġdeterminante": 6397,
      "Ġ2645": 6398,
      "Ġingiun": 6399,
      "Ġorta": 6400,
      "Ġtariffaria": 6401,
      "Ġsloven": 6402,
      "Ġfrequenza": 6403,
      "Ġvolumi": 6404,
      "Ġfri": 6405,
      "Ġimpiegati": 6406,
      "Ġmigliorare": 6407,
      "Ġconflitto": 6408,
      "Ġprezio": 6409,
      "ttezza": 6410,
      "Ġpescherecci": 6411,
      "Ġnegativo": 6412,
      "Ġdeduzione": 6413,
      "Ġsintesi": 6414,
      "Ġunited": 6415,
      "Ġlituania": 6416,
      "dy": 6417,
      "scio": 6418,
      "fc": 6419,
      "telli": 6420,
      "Ġcontroversi": 6421,
      "Ġprecedono": 6422,
      "dibile": 6423,
      "Ġfoglie": 6424,
      "Ġacidi": 6425,
      "Ġ295": 6426,
      "Ġellementi": 6427,
      "Ġricorda": 6428,
      "Ġrealizzato": 6429,
      "Ġcapri": 6430,
      "Ġindividualmente": 6431,
      "Ġorario": 6432,
      "Ġirrile": 6433,
      "Ġcoun": 6434,
      "Ġtemporaneo": 6435,
      "Ġgri": 6436,
      "Ġallegata": 6437,
      "Ġ280": 6438,
      "Ġmissione": 6439,
      "Ġ630": 6440,
      "Ġ302": 6441,
      "Ġinosservanza": 6442,
      "Ġflusso": 6443,
      "Ġsvolge": 6444,
      "Ġostano": 6445,
      "Ġcerta": 6446,
      "Ġdisciplin": 6447,
      "Ġdiffusione": 6448,
      "Ġparametri": 6449,
      "Ġsancito": 6450,
      "Ġsemplifica": 6451,
      "Ġsuperamento": 6452,
      "scano": 6453,
      "Ġortaggi": 6454,
      "Ġmadre": 6455,
      "Ġdanese": 6456,
      "Ġcuo": 6457,
      "zzano": 6458,
      "Ġwin": 6459,
      "gru": 6460,
      "Ġdci": 6461,
      "Ġriscosso": 6462,
      "Ġtolle": 6463,
      "Ġpesce": 6464,
      "Ġ247": 6465,
      "hn": 6466,
      "Ġdonne": 6467,
      "Ġ347": 6468,
      "Ġpis": 6469,
      "Ġlotta": 6470,
      "Ġfigli": 6471,
      "Ġcorrispe": 6472,
      "Ġdebbono": 6473,
      "Ġrecita": 6474,
      "Ġinsol": 6475,
      "Ġkir": 6476,
      "Ġds": 6477,
      "Ġ233": 6478,
      "Ġinviato": 6479,
      "Ġrichiedere": 6480,
      "Ġnegoziazione": 6481,
      "cr": 6482,
      "Ġnegativa": 6483,
      "Ġ225": 6484,
      "ico": 6485,
      "Ġpartecipazioni": 6486,
      "Ġdescritto": 6487,
      "Ġgemeinde": 6488,
      "Ġbij": 6489,
      "Ġlana": 6490,
      "Ġcomportamenti": 6491,
      "Ġlavorativa": 6492,
      "Ġesposto": 6493,
      "Ġpraticati": 6494,
      "Ġcensure": 6495,
      "Ġsfera": 6496,
      "tendo": 6497,
      "Ġintegrato": 6498,
      "Ġqualificata": 6499,
      "Ġsostanziali": 6500,
      "Ġlocazione": 6501,
      "ida": 6502,
      "Ġformulato": 6503,
      "Ġkw": 6504,
      "Ġss": 6505,
      "Ġcontradditto": 6506,
      "Ġpru": 6507,
      "the": 6508,
      "dentale": 6509,
      "Ġvettori": 6510,
      "Ġcalcolare": 6511,
      "Ġindumenti": 6512,
      "Ġrilievo": 6513,
      "Ġll": 6514,
      "Ġmobile": 6515,
      "Ġ282": 6516,
      "Ġobbligazione": 6517,
      "Ġuniversita": 6518,
      "Ġcarbonio": 6519,
      "Ġtranne": 6520,
      "Ġbir": 6521,
      "Ġindebi": 6522,
      "Ġtributaria": 6523,
      "Ġeccezioni": 6524,
      "Ġdolci": 6525,
      "xx": 6526,
      "stamento": 6527,
      "Ġres": 6528,
      "Ġcorretto": 6529,
      "Ġimmobiliare": 6530,
      "Ġrodri": 6531,
      "Ġeliminazione": 6532,
      "Ġriconosciuti": 6533,
      "ras": 6534,
      "Ġriassicurazione": 6535,
      "Ġcontrollare": 6536,
      "Ġ1008": 6537,
      "Ġremune": 6538,
      "Ġedifici": 6539,
      "Ġeuropei": 6540,
      "ut": 6541,
      "dendi": 6542,
      "lt": 6543,
      "Ġ258": 6544,
      "Ġraga": 6545,
      "fato": 6546,
      "Ġvecchia": 6547,
      "Ġimportate": 6548,
      "bs": 6549,
      "Ġincombono": 6550,
      "Ġimpren": 6551,
      "Ġanaloghe": 6552,
      "Ġinstau": 6553,
      "deo": 6554,
      "Ġincaricato": 6555,
      "Ġ1785": 6556,
      "Ġpriorita": 6557,
      "Ġdestinatari": 6558,
      "Ġtetra": 6559,
      "Ġ318": 6560,
      "Ġdio": 6561,
      "mr": 6562,
      "pil": 6563,
      "Î¿ÏĤ": 6564,
      "Ġfondatezza": 6565,
      "Ġverificato": 6566,
      "Ġperturb": 6567,
      "Ġsoglia": 6568,
      "Ġreca": 6569,
      "Ġproie": 6570,
      "Ġprofitto": 6571,
      "lar": 6572,
      "Ġ2204": 6573,
      "Ġdep": 6574,
      "Ġson": 6575,
      "Ġcari": 6576,
      "finan": 6577,
      "Ġopportunita": 6578,
      "Ġpienamente": 6579,
      "Ġcorea": 6580,
      "Ġspal": 6581,
      "Ġprete": 6582,
      "Ġinfondato": 6583,
      "040": 6584,
      "Ġpneu": 6585,
      "Ġkon": 6586,
      "Ġconsultazioni": 6587,
      "Ġafrica": 6588,
      "Ġdescritte": 6589,
      "Ġaggiudicatrice": 6590,
      "Ġnederland": 6591,
      "pito": 6592,
      "gis": 6593,
      "Ġriconoscere": 6594,
      "ttendo": 6595,
      "Ġrinvia": 6596,
      "lag": 6597,
      "Ġ343": 6598,
      "Ġdifen": 6599,
      "Ġoperativi": 6600,
      "Ġsesto": 6601,
      "Ġ268": 6602,
      "Ġpesc": 6603,
      "Ġassicurato": 6604,
      "Ġcomportare": 6605,
      "renziali": 6606,
      "Ġcolza": 6607,
      "Ġcorrettivo": 6608,
      "Ġstatali": 6609,
      "Ġseta": 6610,
      "ziato": 6611,
      "Ġcompensativo": 6612,
      "Ġln": 6613,
      "Ġhl": 6614,
      "Ġriferiscono": 6615,
      "Ġ223": 6616,
      "pore": 6617,
      "Ġmacchina": 6618,
      "Ġmanda": 6619,
      "Ġescl": 6620,
      "Ġlaboratorio": 6621,
      "Ġ255": 6622,
      "Ġprofessione": 6623,
      "Ġlunghi": 6624,
      "Ġ241": 6625,
      "Ġcontestare": 6626,
      "Ġtelecomuni": 6627,
      "Ġmisurazione": 6628,
      "Ġscheda": 6629,
      "Ġango": 6630,
      "Ġ217": 6631,
      "Ġverifiche": 6632,
      "Ġgradu": 6633,
      "Ġappresso": 6634,
      "Ġato": 6635,
      "Ġetichettatura": 6636,
      "Ġesperti": 6637,
      "Ġresa": 6638,
      "guay": 6639,
      "Ġnotevole": 6640,
      "Ġpiutto": 6641,
      "Ġpiuttosto": 6642,
      "Ġscarto": 6643,
      "Ġmatura": 6644,
      "Ġire": 6645,
      "mmer": 6646,
      "Ġpour": 6647,
      "Ġeliminare": 6648,
      "datura": 6649,
      "Ġnazioni": 6650,
      "Ġstima": 6651,
      "Ġ232": 6652,
      "Ġestratto": 6653,
      "kistan": 6654,
      "Ġaeroporto": 6655,
      "geria": 6656,
      "Ġerronea": 6657,
      "ssel": 6658,
      "Ġpilo": 6659,
      "esel": 6660,
      "Ġvalle": 6661,
      "Ġweb": 6662,
      "Ġbarre": 6663,
      "Ġsolas": 6664,
      "Ġchimici": 6665,
      "Ġcalzature": 6666,
      "rina": 6667,
      "Ġsomiglianza": 6668,
      "Ġabba": 6669,
      "chten": 6670,
      "concor": 6671,
      "Ġgrandu": 6672,
      "Ġriforma": 6673,
      "fron": 6674,
      "terebbe": 6675,
      "Ġrepubli": 6676,
      "Ġapn": 6677,
      "ĠÎºÎ±": 6678,
      "Ġassimi": 6679,
      "Ġ271": 6680,
      "Ġvenuto": 6681,
      "Ġtransitorio": 6682,
      "Ġcomunicati": 6683,
      "Ġvar": 6684,
      "Ġ1602": 6685,
      "Ġavviene": 6686,
      "zen": 6687,
      "Ġvettore": 6688,
      "Ġripristina": 6689,
      "glu": 6690,
      "Ġconcorrente": 6691,
      "Ġ252": 6692,
      "Ġalt": 6693,
      "versi": 6694,
      "Ġdiminuzione": 6695,
      "Ġriguardi": 6696,
      "dica": 6697,
      "Ġfranchi": 6698,
      "Ġinnova": 6699,
      "Ġtrasmette": 6700,
      "dom": 6701,
      "Ġ251": 6702,
      "Ġonx": 6703,
      "Ġpio": 6704,
      "Ġefficienza": 6705,
      "din": 6706,
      "Ġtex": 6707,
      "Ġepi": 6708,
      "vie": 6709,
      "Ġluci": 6710,
      "Ġriconosciuta": 6711,
      "Ġelu": 6712,
      "tus": 6713,
      "0010": 6714,
      "Ġricorrere": 6715,
      "Ġadeguate": 6716,
      "Ġpolizia": 6717,
      "Ġincenti": 6718,
      "ticolo": 6719,
      "Ġgiurisdizione": 6720,
      "Ġidentici": 6721,
      "Ġalo": 6722,
      "clu": 6723,
      "Ġanticoncor": 6724,
      "Ġprecisione": 6725,
      "Ġseguire": 6726,
      "Ġrisposto": 6727,
      "Ġidonea": 6728,
      "Ġdeutsch": 6729,
      "Ġdecor": 6730,
      "sposte": 6731,
      "Ġacquisti": 6732,
      "Ġtecnologia": 6733,
      "Ġmela": 6734,
      "Ġinterru": 6735,
      "Ġ259": 6736,
      "Ġig": 6737,
      "Ġdividendi": 6738,
      "Ġ288": 6739,
      "Ġmerlu": 6740,
      "Ġ262": 6741,
      "Ġreato": 6742,
      "Ġdovute": 6743,
      "Ġcommunity": 6744,
      "viare": 6745,
      "Ġ510": 6746,
      "Ġcommesti": 6747,
      "ÏĢ": 6748,
      "Ġpercio": 6749,
      "Ġquarti": 6750,
      "Ġ396": 6751,
      "Ġrussia": 6752,
      "ÏĦÎ±": 6753,
      "Ġannuo": 6754,
      "Ġmedesimi": 6755,
      "Ġcalcolata": 6756,
      "Ġesercitato": 6757,
      "Ġarit": 6758,
      "Ġregu": 6759,
      "Ġcorporation": 6760,
      "Ġdifferi": 6761,
      "toni": 6762,
      "Ġinfici": 6763,
      "Ġsolido": 6764,
      "Ġbretagna": 6765,
      "nato": 6766,
      "Ġammessi": 6767,
      "Ġcloro": 6768,
      "Ġindividuare": 6769,
      "Ġproprietario": 6770,
      "Ġsvia": 6771,
      "Ġcos": 6772,
      "Ġlati": 6773,
      "ote": 6774,
      "Ġrotta": 6775,
      "Ġindeter": 6776,
      "Ġmio": 6777,
      "Ġcerti": 6778,
      "Ġcontrointeressata": 6779,
      "Ġtrasferimenti": 6780,
      "Ġnem": 6781,
      "dimeno": 6782,
      "Ġbeneficiano": 6783,
      "tie": 6784,
      "colare": 6785,
      "Ġcomunicate": 6786,
      "Ġcomm": 6787,
      "Ġ214": 6788,
      "Ġrichiedenti": 6789,
      "Ġaffida": 6790,
      "chel": 6791,
      "Ġking": 6792,
      "Ġproduce": 6793,
      "goro": 6794,
      "Ġbuon": 6795,
      "Ġesigenza": 6796,
      "Ġ359": 6797,
      "Ġsottolineare": 6798,
      "Ġtutelare": 6799,
      "Ġvariazione": 6800,
      "Ġpetrolio": 6801,
      "Ġcass": 6802,
      "Ġ269": 6803,
      "Ġcivili": 6804,
      "Ġiran": 6805,
      "Ġ297": 6806,
      "Ġfirmato": 6807,
      "Ġmigliore": 6808,
      "by": 6809,
      "Ġfuturo": 6810,
      "Ġlordo": 6811,
      "Ġsiti": 6812,
      "trage": 6813,
      "Ġ245": 6814,
      "dizioni": 6815,
      "Ġriscontra": 6816,
      "Ġcalcolati": 6817,
      "dos": 6818,
      "Ġlicenziamento": 6819,
      "Î¹Îº": 6820,
      "Ġpiccole": 6821,
      "Ġsot": 6822,
      "Ġ410": 6823,
      "Ġcomplessiva": 6824,
      "Ġela": 6825,
      "Ġ1766": 6826,
      "bank": 6827,
      "Ġlegati": 6828,
      "Ġannullato": 6829,
      "Ġstraordina": 6830,
      "Ġconcesse": 6831,
      "Ġportafo": 6832,
      "Ġfederazione": 6833,
      "Ġgiacche": 6834,
      "Ġdeutschland": 6835,
      "Ġmor": 6836,
      "volti": 6837,
      "cus": 6838,
      "waltungs": 6839,
      "Ġpsi": 6840,
      "Ġraccomanda": 6841,
      "Ġein": 6842,
      "ici": 6843,
      "Ġsaldo": 6844,
      "Ġisola": 6845,
      "Ġâī¤": 6846,
      "Ġavvalersi": 6847,
      "Ġmenzione": 6848,
      "Ġlettura": 6849,
      "Ġassor": 6850,
      "Ġinsufficiente": 6851,
      "Ġsfor": 6852,
      "Ġresistenza": 6853,
      "sing": 6854,
      "Ġ1177": 6855,
      "cur": 6856,
      "Ġacciai": 6857,
      "Ġatta": 6858,
      "utili": 6859,
      "Ġflux": 6860,
      "Ġ308": 6861,
      "Ġpone": 6862,
      "Ġeventi": 6863,
      "Ġ331": 6864,
      "Ġazo": 6865,
      "Ġsez": 6866,
      "Ġapplicando": 6867,
      "Ġiugosla": 6868,
      "losa": 6869,
      "stat": 6870,
      "Ġridotta": 6871,
      "Ġfinito": 6872,
      "landesi": 6873,
      "Ġcontrollate": 6874,
      "Ġstadio": 6875,
      "mando": 6876,
      "xo": 6877,
      "Ġ229": 6878,
      "Ġcollegate": 6879,
      "fs": 6880,
      "zy": 6881,
      "metil": 6882,
      "trato": 6883,
      "Ġeg": 6884,
      "mos": 6885,
      "Ġabuso": 6886,
      "Ġautonomia": 6887,
      "Ġlei": 6888,
      "Ġpota": 6889,
      "Ġconferisce": 6890,
      "Ġlingui": 6891,
      "nici": 6892,
      "Ġfinlandese": 6893,
      "ud": 6894,
      "Ġcongelati": 6895,
      "Ġdelibera": 6896,
      "Ġcontabilita": 6897,
      "Ġcartone": 6898,
      "Ġgeni": 6899,
      "Ġuru": 6900,
      "Ġ275": 6901,
      "Ġbovina": 6902,
      "Ġdistributo": 6903,
      "Ġdisciplinano": 6904,
      "Ġfeno": 6905,
      "Ġsanitario": 6906,
      "chler": 6907,
      "Ġsupplemento": 6908,
      "ses": 6909,
      "vel": 6910,
      "Ġscono": 6911,
      "Ġelettricita": 6912,
      "Ġlimitazioni": 6913,
      "grafia": 6914,
      "Ġ450": 6915,
      "Ġstrettamente": 6916,
      "Ġgovt": 6917,
      "Ġ218": 6918,
      "Ġuten": 6919,
      "Ġep": 6920,
      "Ġ289": 6921,
      "gro": 6922,
      "qua": 6923,
      "Ġfidu": 6924,
      "Ġsettimane": 6925,
      "Ġaer": 6926,
      "frontali": 6927,
      "Ġapparecchio": 6928,
      "ies": 6929,
      "Ġgiudica": 6930,
      "Ġcontemporane": 6931,
      "Ġirl": 6932,
      "Ġ219": 6933,
      "Ġesau": 6934,
      "bine": 6935,
      "Ġagglome": 6936,
      "unto": 6937,
      "Ġesterne": 6938,
      "Ġireland": 6939,
      "Ġtransfrontali": 6940,
      "poso": 6941,
      "Ġcrisi": 6942,
      "Ġattive": 6943,
      "Ġdichiarata": 6944,
      "Ġdispongono": 6945,
      "Ġ278": 6946,
      "Ġ9100": 6947,
      "inati": 6948,
      "Ġconseguire": 6949,
      "matiche": 6950,
      "Ġ847": 6951,
      "Ġdece": 6952,
      "Ġviola": 6953,
      "Ġdubbio": 6954,
      "Ġquesiti": 6955,
      "Ġpreparato": 6956,
      "Ġammissibilita": 6957,
      "Ġrappresentano": 6958,
      "Ġnational": 6959,
      "idro": 6960,
      "Ġforte": 6961,
      "zolo": 6962,
      "Ġdenominato": 6963,
      "Ġavviato": 6964,
      "Ġwil": 6965,
      "Ġinfor": 6966,
      "mas": 6967,
      "Ġ238": 6968,
      "Ġregolarmente": 6969,
      "Ġgeneral": 6970,
      "Ġpir": 6971,
      "Ġesposti": 6972,
      "Ġdistorsioni": 6973,
      "Ġpredetto": 6974,
      "Ġcarto": 6975,
      "Ġdemocrati": 6976,
      "Ġtrasmesso": 6977,
      "Ġvalue": 6978,
      "Ġattua": 6979,
      "Ġindipendenza": 6980,
      "ny": 6981,
      "Ġ303": 6982,
      "Ġbeneficia": 6983,
      "Ġtin": 6984,
      "Ġ305": 6985,
      "ires": 6986,
      "ordn": 6987,
      "Ġturi": 6988,
      "Ġpaste": 6989,
      "Ġ266": 6990,
      "Ġgranducato": 6991,
      "Ġalte": 6992,
      "Ġoltremare": 6993,
      "Ġtabelle": 6994,
      "Ġprotetta": 6995,
      "Ġrientri": 6996,
      "Ġcarbone": 6997,
      "mba": 6998,
      "Ġesterni": 6999,
      "Ġcollettivo": 7000,
      "Ġ243": 7001,
      "Ġsosteni": 7002,
      "motiva": 7003,
      "Ġdistingu": 7004,
      "Ġ254": 7005,
      "Ġaggiunti": 7006,
      "Ġtessuto": 7007,
      "Ġgrazie": 7008,
      "orzio": 7009,
      "Ġsensibili": 7010,
      "Ġcontribui": 7011,
      "Ġseg": 7012,
      "Ġesecutivo": 7013,
      "Ġallora": 7014,
      "Ġfischler": 7015,
      "Ġtrimestre": 7016,
      "Ġsviamento": 7017,
      "Ġ360": 7018,
      "mmissi": 7019,
      "Ġ264": 7020,
      "Ġestin": 7021,
      "Ġsocie": 7022,
      "Ġaccolta": 7023,
      "Ġinfrastruttura": 7024,
      "talmente": 7025,
      "Ġcollegio": 7026,
      "Ġiden": 7027,
      "Ġricevere": 7028,
      "Ġsoluzioni": 7029,
      "Ġfigurante": 7030,
      "Ġnegativi": 7031,
      "Ġregolari": 7032,
      "Ġsemplici": 7033,
      "Ġrecipienti": 7034,
      "Ġdiametro": 7035,
      "Ġregistrata": 7036,
      "Ġaffatto": 7037,
      "Ġconstru": 7038,
      "Ġfiducia": 7039,
      "xa": 7040,
      "Ġcontroverse": 7041,
      "Ġitaliane": 7042,
      "Ġuruguay": 7043,
      "bal": 7044,
      "Ġrispettato": 7045,
      "Ġcoprire": 7046,
      "Ġintermedi": 7047,
      "Ġulteriormente": 7048,
      "Ġsottra": 7049,
      "Ġplastica": 7050,
      "rupp": 7051,
      "Ġparigi": 7052,
      "Ġnessuno": 7053,
      "Ġpossibili": 7054,
      "Ġconstatati": 7055,
      "Ġdistillazione": 7056,
      "Ġquestionario": 7057,
      "Ġcomprendente": 7058,
      "Ñĥ": 7059,
      "Ġragionamento": 7060,
      "fuhr": 7061,
      "Ġinformativo": 7062,
      "Ġprovare": 7063,
      "celle": 7064,
      "Ġcausato": 7065,
      "Ġsom": 7066,
      "Ġvenduti": 7067,
      "Ġvideo": 7068,
      "Ġ050": 7069,
      "Ġabrogato": 7070,
      "Ġedili": 7071,
      "Ġaperto": 7072,
      "Ġidentico": 7073,
      "Ġestonia": 7074,
      "Ġricevute": 7075,
      "Ġaltrove": 7076,
      "Ġriparazione": 7077,
      "Ġhttp": 7078,
      "bieto": 7079,
      "Ġalcolo": 7080,
      "Ġlaminati": 7081,
      "Ġvecchiaia": 7082,
      "onati": 7083,
      "gione": 7084,
      "mazione": 7085,
      "Ġaritmetica": 7086,
      "Ġcamera": 7087,
      "Ġinsolvenza": 7088,
      "Ġface": 7089,
      "Ġdisoccupa": 7090,
      "Ġdop": 7091,
      "Ġseparatamente": 7092,
      "Ġmargini": 7093,
      "Ġincludere": 7094,
      "ennale": 7095,
      "Ġsoft": 7096,
      "Ġmaglie": 7097,
      "ku": 7098,
      "ĠÏĥ": 7099,
      "Ġpuli": 7100,
      "Ġchimiche": 7101,
      "trati": 7102,
      "Ġpola": 7103,
      "Ġbarbabieto": 7104,
      "Ïħ": 7105,
      "Ġlq": 7106,
      "Ġ940": 7107,
      "Ġcambiamento": 7108,
      "Ġemittente": 7109,
      "Ġmora": 7110,
      "wan": 7111,
      "Ġ052": 7112,
      "Ġrestando": 7113,
      "Ġevento": 7114,
      "Ġesclusivo": 7115,
      "Ġnero": 7116,
      "Ġcomunicano": 7117,
      "Ġsollevate": 7118,
      "pr": 7119,
      "dad": 7120,
      "ceuti": 7121,
      "lenda": 7122,
      "Ġamoun": 7123,
      "Ġsuolo": 7124,
      "Ġfiglio": 7125,
      "Ġdetenuti": 7126,
      "Ġ224": 7127,
      "Ġunder": 7128,
      "rla": 7129,
      "Ġstabilimenti": 7130,
      "Ġalias": 7131,
      "Ġmeccanismi": 7132,
      "entesimo": 7133,
      "Ġinfrastrutture": 7134,
      "Ġinclude": 7135,
      "Ġpercentuali": 7136,
      "Ġvolatili": 7137,
      "Ġtrovi": 7138,
      "Ġventi": 7139,
      "Ġcostituzionale": 7140,
      "Ġimportanti": 7141,
      "Ġimmediati": 7142,
      "Ġcreare": 7143,
      "aog": 7144,
      "gin": 7145,
      "Ġtotalmente": 7146,
      "Ġfeaog": 7147,
      "Ġmontan": 7148,
      "Ġdocumenta": 7149,
      "Ġistanta": 7150,
      "162": 7151,
      "Ġ290": 7152,
      "Ġhen": 7153,
      "Ġgeneralmente": 7154,
      "Ġgarantiti": 7155,
      "Ġcongedo": 7156,
      "Ġghi": 7157,
      "Ġadempimento": 7158,
      "Ġurgenza": 7159,
      "Ġtren": 7160,
      "Ġminime": 7161,
      "Ġconstata": 7162,
      "son": 7163,
      "Ġambientali": 7164,
      "Ġpreferenziale": 7165,
      "Ġmiscu": 7166,
      "Ġaudizione": 7167,
      "Ġ1962": 7168,
      "Ġaeromobile": 7169,
      "celli": 7170,
      "Ġattesa": 7171,
      "Ġistituita": 7172,
      "Ġcommissioni": 7173,
      "Ġindicativo": 7174,
      "Ġsegretario": 7175,
      "Ġemergenza": 7176,
      "Ġprestatore": 7177,
      "Ġminaccia": 7178,
      "Ġpal": 7179,
      "Ġinammissi": 7180,
      "Ġentrambe": 7181,
      "Ġrigoro": 7182,
      "ye": 7183,
      "spositivo": 7184,
      "yz": 7185,
      "mio": 7186,
      "Ġricevibile": 7187,
      "mbia": 7188,
      "Ġregion": 7189,
      "Ġpagg": 7190,
      "Ġsmaltimento": 7191,
      "Ġpietre": 7192,
      "Ġragionevolmente": 7193,
      "Ġdissu": 7194,
      "Ġedu": 7195,
      "Ġ659": 7196,
      "Ġlettonia": 7197,
      "Ġtempe": 7198,
      "Ġcarica": 7199,
      "Ġelettronico": 7200,
      "rance": 7201,
      "Ġsfruttamento": 7202,
      "Ġerrata": 7203,
      "Ġ246": 7204,
      "Ġbrasile": 7205,
      "Ġesenti": 7206,
      "dispositivo": 7207,
      "Ġcomunale": 7208,
      "Ġformulate": 7209,
      "Ġravi": 7210,
      "Ġprotette": 7211,
      "Ġfp": 7212,
      "Ġstatale": 7213,
      "inaggio": 7214,
      "lando": 7215,
      "Î¹Ïĥ": 7216,
      "Ġdipartimento": 7217,
      "Ġaltezza": 7218,
      "pplica": 7219,
      "spar": 7220,
      "Ġdiscende": 7221,
      "Ġricoperti": 7222,
      "Ġutente": 7223,
      "Ġdissua": 7224,
      "Ġmit": 7225,
      "Ġriscal": 7226,
      "Ġcavi": 7227,
      "Ġeco": 7228,
      "Ġtradizionali": 7229,
      "hm": 7230,
      "Ġimmuni": 7231,
      "Ġseno": 7232,
      "Ġ273": 7233,
      "Ġtelevi": 7234,
      "Ġsanitaria": 7235,
      "Ġimpossibilita": 7236,
      "Ġcollegati": 7237,
      "Ġasilo": 7238,
      "Ġimpera": 7239,
      "Ġfrui": 7240,
      "ĠÎ±": 7241,
      "alizzato": 7242,
      "Ġvul": 7243,
      "Ġdisparita": 7244,
      "Ġshe": 7245,
      "Ġingiu": 7246,
      "Ġesenta": 7247,
      "Ġnormative": 7248,
      "Ġapproccio": 7249,
      "gnati": 7250,
      "Ġconvenzionali": 7251,
      "Ġinvocato": 7252,
      "Ġmacellazione": 7253,
      "Ġaccogli": 7254,
      "dier": 7255,
      "nl": 7256,
      "Ġconverti": 7257,
      "Ġcatena": 7258,
      "Ġcompeti": 7259,
      "Ġcs": 7260,
      "Ġconsidere": 7261,
      "Ġnuovamente": 7262,
      "Ġrespinge": 7263,
      "Ġdiscrimina": 7264,
      "Ġsho": 7265,
      "Ġproveniente": 7266,
      "zzone": 7267,
      "Ġaffermativa": 7268,
      "Ġspagnola": 7269,
      "Ġcompagnie": 7270,
      "Ġober": 7271,
      "Ġtenta": 7272,
      "rino": 7273,
      "Ġfiguranti": 7274,
      "Ġmovimenti": 7275,
      "Ġdifficile": 7276,
      "Ġpropone": 7277,
      "Ġ248": 7278,
      "Ġanch": 7279,
      "Ġnemmeno": 7280,
      "Ġaromati": 7281,
      "var": 7282,
      "Ġfrutti": 7283,
      "motivazione": 7284,
      "Ġprodotte": 7285,
      "Ġbedra": 7286,
      "Ġcalcio": 7287,
      "Ġconsiderarsi": 7288,
      "han": 7289,
      "Ġnew": 7290,
      "Ġmilano": 7291,
      "Ġubi": 7292,
      "Ġoggi": 7293,
      "Ġpeli": 7294,
      "Ġasserita": 7295,
      "Ġriconosce": 7296,
      "Ġprocessi": 7297,
      "Ġassegno": 7298,
      "carburi": 7299,
      "Ġ279": 7300,
      "Ġconferito": 7301,
      "Ġtratten": 7302,
      "Ġscientifico": 7303,
      "Ġzin": 7304,
      "ellschaft": 7305,
      "Ġ283": 7306,
      "Ġmusi": 7307,
      "Ġlegittimamente": 7308,
      "Ġriservate": 7309,
      "amenti": 7310,
      "Ġpecuni": 7311,
      "Ġassicurazioni": 7312,
      "put": 7313,
      "decisione": 7314,
      "Ġluxe": 7315,
      "Ġricevimento": 7316,
      "Ġrese": 7317,
      "Ġ301": 7318,
      "Ġvoto": 7319,
      "uter": 7320,
      "Ġriportata": 7321,
      "bus": 7322,
      "ziata": 7323,
      "Ġ354": 7324,
      "Ġostacoli": 7325,
      "Ġacquisito": 7326,
      "Ġistituire": 7327,
      "Ġcosidde": 7328,
      "gon": 7329,
      "Ġmel": 7330,
      "Ġadito": 7331,
      "Ġsopportare": 7332,
      "Ġsentenzadecisione": 7333,
      "Ġspesedispositivo": 7334,
      "Ġbou": 7335,
      "Ġritenendo": 7336,
      "Ġcompatibili": 7337,
      "Ġ257": 7338,
      "Ġpolie": 7339,
      "Ġvertica": 7340,
      "Ġprevenire": 7341,
      "Ġ420": 7342,
      "Ġrisultano": 7343,
      "Ġchiare": 7344,
      "Ġgeografiche": 7345,
      "sis": 7346,
      "Ġincer": 7347,
      "Ġcaus": 7348,
      "Ġvolon": 7349,
      "Ġsostenuta": 7350,
      "let": 7351,
      "Ġprevio": 7352,
      "Ġaccre": 7353,
      "Ġguar": 7354,
      "Ġ227": 7355,
      "Ġdovevano": 7356,
      "Ġmrw": 7357,
      "don": 7358,
      "Ġmaschi": 7359,
      "Ġcoa": 7360,
      "Ġsoftware": 7361,
      "Ġarmi": 7362,
      "Ġconoscenze": 7363,
      "Ġsignificato": 7364,
      "Ġabilita": 7365,
      "ent": 7366,
      "Ġservices": 7367,
      "Ġ805": 7368,
      "Ġinquad": 7369,
      "Ġaumentato": 7370,
      "Ġfirme": 7371,
      "Ġclassificate": 7372,
      "Ġcalenda": 7373,
      "Ġprivo": 7374,
      "Ġagricoltori": 7375,
      "Ġopin": 7376,
      "Ġcompletamente": 7377,
      "Ġ1005": 7378,
      "Ġterreno": 7379,
      "Ġacquirenti": 7380,
      "Ġseguita": 7381,
      "Ġmedesime": 7382,
      "Ġ314": 7383,
      "Ġ285": 7384,
      "Ġassistito": 7385,
      "mm": 7386,
      "Ġdichiarati": 7387,
      "Ġprovo": 7388,
      "Ġproposti": 7389,
      "Ġlavorati": 7390,
      "Ġmc": 7391,
      "Ġ338": 7392,
      "Ġpossie": 7393,
      "Ġspecificati": 7394,
      "Ġcarbo": 7395,
      "dori": 7396,
      "natura": 7397,
      "Ġsape": 7398,
      "Ġserra": 7399,
      "Ġsolici": 7400,
      "Ġsili": 7401,
      "formi": 7402,
      "Ġtaric": 7403,
      "Ġdeterio": 7404,
      "Ġsuini": 7405,
      "Ġsole": 7406,
      "Ġnace": 7407,
      "Ġfinanze": 7408,
      "Ġplastiche": 7409,
      "Ġscola": 7410,
      "lino": 7411,
      "Ġesistono": 7412,
      "Ġnetti": 7413,
      "Ġattuare": 7414,
      "bel": 7415,
      "Ġlattosio": 7416,
      "Ġ840": 7417,
      "Ġdodici": 7418,
      "Ġ1101": 7419,
      "Ġshar": 7420,
      "Ġsconosciuto": 7421,
      "Ġadeguati": 7422,
      "Ġdesignati": 7423,
      "Ġ1806": 7424,
      "Ġoperare": 7425,
      "Ġequilibrio": 7426,
      "Ġravizzone": 7427,
      "001": 7428,
      "Ġpreferenze": 7429,
      "Ġconsiderano": 7430,
      "Ġquad": 7431,
      "Ġunse": 7432,
      "Ġtermina": 7433,
      "Ġaccisa": 7434,
      "Ġjose": 7435,
      "Ġverde": 7436,
      "Ġforniscono": 7437,
      "Î¹Î±": 7438,
      "Ġdg": 7439,
      "Ġcorrispettivo": 7440,
      "vono": 7441,
      "Ġintegrita": 7442,
      "Ġmagazzinaggio": 7443,
      "Ġamb": 7444,
      "Ġindennizzo": 7445,
      "Ġcasa": 7446,
      "Ġbal": 7447,
      "Ġgiunta": 7448,
      "Ġutensili": 7449,
      "Ġdispo": 7450,
      "cale": 7451,
      "Ġunsecured": 7452,
      "mple": 7453,
      "Ġsubordinati": 7454,
      "zona": 7455,
      "Ġofferente": 7456,
      "uer": 7457,
      "Ġ61162": 7458,
      "nelli": 7459,
      "Ġ244": 7460,
      "Ġdom": 7461,
      "Ġstandardi": 7462,
      "Ġcarenza": 7463,
      "dae": 7464,
      "Ġimmobile": 7465,
      "Ġcolori": 7466,
      "Ġsolicitor": 7467,
      "Ġaperta": 7468,
      "Ġeva": 7469,
      "Ġassemblea": 7470,
      "Ġcontrasse": 7471,
      "Ġrisponde": 7472,
      "Ġutilizzano": 7473,
      "Ġespletamento": 7474,
      "Ġegi": 7475,
      "Ġliq": 7476,
      "Ġ292": 7477,
      "Ġattinenti": 7478,
      "ide": 7479,
      "Ġpenali": 7480,
      "zzanti": 7481,
      "Ġtassazione": 7482,
      "Ġincidere": 7483,
      "Ġfavorevoli": 7484,
      "Ġimmunita": 7485,
      "Ġsperi": 7486,
      "Ġinterpretare": 7487,
      "gnano": 7488,
      "Ġcommestibili": 7489,
      "ei": 7490,
      "Ġfel": 7491,
      "Ġvalutata": 7492,
      "Ġassumere": 7493,
      "Ġprevalente": 7494,
      "Ġisoglu": 7495,
      "Ð°Ð½": 7496,
      "Ġdefinitivamente": 7497,
      "esi": 7498,
      "Ġinstallazione": 7499,
      "nando": 7500,
      "zu": 7501,
      "Ġcontribuire": 7502,
      "Ġconsulenza": 7503,
      "ssio": 7504,
      "Ġsvin": 7505,
      "Ġspecificate": 7506,
      "Ġ304": 7507,
      "Ġrussa": 7508,
      "Ġ028": 7509,
      "Ġinclusione": 7510,
      "Ġnomi": 7511,
      "Ġpatate": 7512,
      "Ġsie": 7513,
      "Ġriservatezza": 7514,
      "kel": 7515,
      "rid": 7516,
      "Ġmorale": 7517,
      "stere": 7518,
      "Ġesportato": 7519,
      "Ġcapitoli": 7520,
      "tina": 7521,
      "Ġprocura": 7522,
      "Ġmax": 7523,
      "Ġcrm": 7524,
      "Ġallevamento": 7525,
      "Ġaffermazioni": 7526,
      "lind": 7527,
      "fice": 7528,
      "Ġformulata": 7529,
      "Ġmassimaparti": 7530,
      "Ġpreambolo": 7531,
      "Ġrecente": 7532,
      "mide": 7533,
      "Ġproceduto": 7534,
      "Ġfamiglie": 7535,
      "Ġefta": 7536,
      "Ġcumulati": 7537,
      "Ġpelle": 7538,
      "Ġquantitative": 7539,
      "Ġtrasportati": 7540,
      "Ġibrido": 7541,
      "Ġgol": 7542,
      "jk": 7543,
      "Ġuccelli": 7544,
      "Ġneutra": 7545,
      "Ġfabbi": 7546,
      "Ġxvi": 7547,
      "Ġaccertamenti": 7548,
      "ĠÑģ": 7549,
      "Ġalber": 7550,
      "Ġfinanz": 7551,
      "Ġvincolante": 7552,
      "ves": 7553,
      "Ġconstruction": 7554,
      "Ġ^": 7555,
      "Ġfacilitare": 7556,
      "pol": 7557,
      "Ġtempesti": 7558,
      "Ġsementi": 7559,
      "050": 7560,
      "Ġgeor": 7561,
      "Ġfitosanitari": 7562,
      "Ġinquinamento": 7563,
      "dfÃ¸": 7564,
      "Ġprovvisori": 7565,
      "Ġlastre": 7566,
      "Ġgoverni": 7567,
      "Ġmassimali": 7568,
      "Ġeccezionale": 7569,
      "Ġelettronici": 7570,
      "Ġincarica": 7571,
      "Ġsoppressione": 7572,
      "Ġumidita": 7573,
      "rese": 7574,
      "Ġindebitamente": 7575,
      "Ġhabita": 7576,
      "riera": 7577,
      "Ġesplica": 7578,
      "Ġ265": 7579,
      "Ġproporzione": 7580,
      "Ġmadri": 7581,
      "Ġ309": 7582,
      "Ġcolli": 7583,
      "Ġintrodotto": 7584,
      "gt": 7585,
      "rar": 7586,
      "sole": 7587,
      "Ã¸b": 7588,
      "fere": 7589,
      "ant": 7590,
      "Ġomc": 7591,
      "Ġfabbiso": 7592,
      "Ġscuola": 7593,
      "Ġcompar": 7594,
      "Ġstabile": 7595,
      "Ġ307": 7596,
      "ales": 7597,
      "Ġalternativa": 7598,
      "tualmente": 7599,
      "laterale": 7600,
      "Ġhand": 7601,
      "Ġ370": 7602,
      "Ġsecco": 7603,
      "Ġtema": 7604,
      "Ġelevata": 7605,
      "Ġmetallo": 7606,
      "Ġassoluto": 7607,
      "Ġ291": 7608,
      "Ġ328": 7609,
      "Ġattribuire": 7610,
      "Ġ442": 7611,
      "Ġimpli": 7612,
      "Ġ327": 7613,
      "Ġriduzioni": 7614,
      "Ġusato": 7615,
      "Ġ#": 7616,
      "cere": 7617,
      "Ġclu": 7618,
      "Ġbelgi": 7619,
      "Ġintegrale": 7620,
      "Ġaccogliere": 7621,
      "Ġvariabili": 7622,
      "Ġdovere": 7623,
      "Ġku": 7624,
      "Ġelevati": 7625,
      "chtenstein": 7626,
      "Ġinvio": 7627,
      "Ġsuine": 7628,
      "Ġlmr": 7629,
      "Ġdetenute": 7630,
      "Ġlegali": 7631,
      "Ġshall": 7632,
      "Ġdemocratica": 7633,
      "Ġmil": 7634,
      "Ġconvenzioni": 7635,
      "Ġsignificativa": 7636,
      "Ġhabitat": 7637,
      "Ġpays": 7638,
      "ot": 7639,
      "Ġtelex": 7640,
      "Ġhigh": 7641,
      "hol": 7642,
      "Ġ330": 7643,
      "Ġfair": 7644,
      "mentato": 7645,
      "Ġodier": 7646,
      "Ġcentre": 7647,
      "Ġsostituire": 7648,
      "Ġira": 7649,
      "Ġtelefoni": 7650,
      "Ġpomo": 7651,
      "Ġ329": 7652,
      "namento": 7653,
      "ĠÂ§": 7654,
      "Ġrosso": 7655,
      "Ġrapida": 7656,
      "dini": 7657,
      "Ġbrevetto": 7658,
      "Ġgiudicatrice": 7659,
      "Ġprovvedere": 7660,
      "Ġconcessioni": 7661,
      "Ġpiccoli": 7662,
      "tum": 7663,
      "Ġcacao": 7664,
      "Ġdkr": 7665,
      "Ġampliata": 7666,
      "Ġprovoca": 7667,
      "ulta": 7668,
      "Ġalfa": 7669,
      "Ġtransazione": 7670,
      "Ġinnanzitutto": 7671,
      "Ġigno": 7672,
      "zioso": 7673,
      "Ġavver": 7674,
      "Ġassegni": 7675,
      "teur": 7676,
      "Ġliechtenstein": 7677,
      "Ġcontrori": 7678,
      "os": 7679,
      "Ġlavorativi": 7680,
      "Ġsorgere": 7681,
      "gliamento": 7682,
      "coltura": 7683,
      "Ġcilind": 7684,
      "Ġbattenti": 7685,
      "Ġkingdom": 7686,
      "Ġintervenire": 7687,
      "Ġcloruro": 7688,
      "Ġstipulato": 7689,
      "Ġseme": 7690,
      "Ġanalogo": 7691,
      "Ġadeguatamente": 7692,
      "Ġcontroparti": 7693,
      "Ġud": 7694,
      "Ġesposte": 7695,
      "Ġrettan": 7696,
      "Ġuomini": 7697,
      "Ġmalta": 7698,
      "Ġcomporti": 7699,
      "ries": 7700,
      "Ð¼": 7701,
      "Ġsciroppo": 7702,
      "Ġdeco": 7703,
      "Ġ277": 7704,
      "Ġappropriato": 7705,
      "ttare": 7706,
      "Ġmessaggi": 7707,
      "Ġospe": 7708,
      "Ġvenduto": 7709,
      "Ġrettango": 7710,
      "Ġigi": 7711,
      "Ġapplichi": 7712,
      "Ġprze": 7713,
      "Ġcpz": 7714,
      "latori": 7715,
      "Ġbran": 7716,
      "Ð¾Ð²": 7717,
      "Ġsider": 7718,
      "Ġnominale": 7719,
      "Ġrisulterebbe": 7720,
      "vani": 7721,
      "Ġnazionalita": 7722,
      "Ġausili": 7723,
      "Ġgarantisce": 7724,
      "Ġaeroporti": 7725,
      "Ġmassime": 7726,
      "Ġadeguamenti": 7727,
      "Ġspor": 7728,
      "Ġintervallo": 7729,
      "Ġalcolometrico": 7730,
      "lun": 7731,
      "Ġbassa": 7732,
      "Ġanziani": 7733,
      "mia": 7734,
      "Ġargenti": 7735,
      "Ġcommessa": 7736,
      "Ġsacchi": 7737,
      "Ġregistri": 7738,
      "Ġciem": 7739,
      "Ġcontemporaneamente": 7740,
      "Ġportato": 7741,
      "Ġ349": 7742,
      "tv": 7743,
      "Ġeseguire": 7744,
      "Ġmoduli": 7745,
      "Ġlotto": 7746,
      "Ġavvenuto": 7747,
      "Ġconducente": 7748,
      "Ġ0040": 7749,
      "guez": 7750,
      "Ġcasse": 7751,
      "Ġ293": 7752,
      "Ġsindacato": 7753,
      "Ġconsentano": 7754,
      "ju": 7755,
      "Ġdettagliate": 7756,
      "Ġaffe": 7757,
      "Ġ317": 7758,
      "Ġfusione": 7759,
      "propil": 7760,
      "Ġtempi": 7761,
      "Ġistantaneo": 7762,
      "yl": 7763,
      "Ġconcili": 7764,
      "Ġquater": 7765,
      "Ġinge": 7766,
      "Ġcontrollante": 7767,
      "guite": 7768,
      "Ġgreco": 7769,
      "Ġforesta": 7770,
      "Ġmalattie": 7771,
      "Ġsfa": 7772,
      "Ġalb": 7773,
      "Ġ272": 7774,
      "Ġ016": 7775,
      "Ġ325": 7776,
      "Ġconiuge": 7777,
      "Ġ315": 7778,
      "Ġcanto": 7779,
      "Ġatteso": 7780,
      "Ġestrazione": 7781,
      "tio": 7782,
      "Ġvitti": 7783,
      "use": 7784,
      "Ġinvestito": 7785,
      "Ġmotivata": 7786,
      "Ġarresto": 7787,
      "Ġ311": 7788,
      "mettono": 7789,
      "Ġconseguimento": 7790,
      "gues": 7791,
      "Ġfaccia": 7792,
      "Ġatlan": 7793,
      "forza": 7794,
      "Ġcosicche": 7795,
      "Ġchiara": 7796,
      "Ġemen": 7797,
      "Ġumani": 7798,
      "onendo": 7799,
      "Ġ521": 7800,
      "Ġray": 7801,
      "Ġliquidi": 7802,
      "Ġragg": 7803,
      "Ġsostituiti": 7804,
      "Ġtransp": 7805,
      "Ġ312": 7806,
      "Ġpoco": 7807,
      "Ġ820": 7808,
      "Ġscaduto": 7809,
      "Ġretribuzioni": 7810,
      "mes": 7811,
      "Ġcommission": 7812,
      "Ġportafoglio": 7813,
      "sas": 7814,
      "Ġimpor": 7815,
      "Ġindividuazione": 7816,
      "Ġaffermare": 7817,
      "Ġcandidato": 7818,
      "Ġgiornali": 7819,
      "Ġcalendario": 7820,
      "Ġinesa": 7821,
      "120": 7822,
      "Ġproven": 7823,
      "Ġprovinci": 7824,
      "Ġtru": 7825,
      "Ġgoo": 7826,
      "Ġfermo": 7827,
      "Ġavvenuta": 7828,
      "conto": 7829,
      "Ġcontemplate": 7830,
      "Ġintegrare": 7831,
      "Ġorali": 7832,
      "Ġadottano": 7833,
      "cto": 7834,
      "uris": 7835,
      "Ġmun": 7836,
      "Ġcaldo": 7837,
      "Ġpresuppone": 7838,
      "Ġcircuito": 7839,
      "Ġpuramente": 7840,
      "oru": 7841,
      "Ġlitri": 7842,
      "Ġcrescita": 7843,
      "Ġ710": 7844,
      "Ġmarke": 7845,
      "Ġtrasmesse": 7846,
      "Ġpiatta": 7847,
      "Ġsvan": 7848,
      "Ġsospeso": 7849,
      "Ġgrafo": 7850,
      "beri": 7851,
      "Ġamounts": 7852,
      "Ġimpedimento": 7853,
      "Ġpotenziali": 7854,
      "Ġnutri": 7855,
      "Ġ284": 7856,
      "Ġprende": 7857,
      "Ġautomaticamente": 7858,
      "Ġevin": 7859,
      "Ġuit": 7860,
      "Ġdili": 7861,
      "Ġdisco": 7862,
      "ÐµÐ½": 7863,
      "ins": 7864,
      "Ġdisponeva": 7865,
      "Ġtype": 7866,
      "Ġventesimo": 7867,
      "Ġsoc": 7868,
      "ticamente": 7869,
      "Ġdecadenza": 7870,
      "Ġstrategia": 7871,
      "cherebbe": 7872,
      "Ġjusti": 7873,
      "Ġaccertata": 7874,
      "Ġetil": 7875,
      "Ġ366": 7876,
      "Ġsingole": 7877,
      "Ġslovacca": 7878,
      "Ġautenti": 7879,
      "Ġimputazione": 7880,
      "Ġesigere": 7881,
      "Ġpassivi": 7882,
      "ep": 7883,
      "Ġriper": 7884,
      "Ġfisso": 7885,
      "Ġbatte": 7886,
      "Ġved": 7887,
      "Ġclassificare": 7888,
      "Ġact": 7889,
      "Ġaggiu": 7890,
      "Ġesplicitamente": 7891,
      "Ġala": 7892,
      "Ġconvali": 7893,
      "Ġnot": 7894,
      "Ġspedizioni": 7895,
      "Ġperseguiti": 7896,
      "Ġrecepi": 7897,
      "Ġricezione": 7898,
      "vk": 7899,
      "Ġprecon": 7900,
      "Ġassume": 7901,
      "Ġgun": 7902,
      "Ġ287": 7903,
      "tscha": 7904,
      "Ġimmatricolazione": 7905,
      "Ġcondotto": 7906,
      "Ġ286": 7907,
      "ĠÐ¿": 7908,
      "missioni": 7909,
      "Ġcostituirebbe": 7910,
      "Ġetta": 7911,
      "Ġfatture": 7912,
      "Ġcarcasse": 7913,
      "Ġcomand": 7914,
      "Ġqualificato": 7915,
      "Ġforze": 7916,
      "Ġemb": 7917,
      "Ġ025": 7918,
      "Ġrappresentanza": 7919,
      "Ġ530": 7920,
      "Ġidrogeno": 7921,
      "Ġ336": 7922,
      "Ġstranieri": 7923,
      "Ġtecnologie": 7924,
      "Ġpneumatici": 7925,
      "Ġ1102": 7926,
      "Ġdecisionale": 7927,
      "Ġidrocarburi": 7928,
      "Ġchemica": 7929,
      "Ġregistrate": 7930,
      "tia": 7931,
      "Ġcorrispondono": 7932,
      "Ġthis": 7933,
      "Ġ429": 7934,
      "Ġequivalenza": 7935,
      "Ġraad": 7936,
      "Ġveli": 7937,
      "Ġdista": 7938,
      "Ġwer": 7939,
      "Ġbritan": 7940,
      "Ġirrilevante": 7941,
      "Ġ294": 7942,
      "Ġ313": 7943,
      "Ġopzione": 7944,
      "mentazioni": 7945,
      "Ġmultilaterali": 7946,
      "Ġcuoio": 7947,
      "king": 7948,
      "Ġispezioni": 7949,
      "Ġotte": 7950,
      "Ġaccedere": 7951,
      "Ġversata": 7952,
      "Ġincompatibili": 7953,
      "Ġmaggiorazione": 7954,
      "ficato": 7955,
      "Ġinvocare": 7956,
      "Ġtagliati": 7957,
      "Ġdup": 7958,
      "Ġvolto": 7959,
      "Ġperfezionamento": 7960,
      "Ġaccredita": 7961,
      "Ġmus": 7962,
      "Ġprogrammazione": 7963,
      "Ġtera": 7964,
      "Ġsuddivi": 7965,
      "Ġpluri": 7966,
      "Ġprossi": 7967,
      "Ġformulario": 7968,
      "Ġaccumu": 7969,
      "Ġpreziosi": 7970,
      "cendo": 7971,
      "Ġono": 7972,
      "Ġtunisia": 7973,
      "Ġrealizzate": 7974,
      "Ġofferenti": 7975,
      "Ġ333": 7976,
      "Ġmole": 7977,
      "Ġvietato": 7978,
      "Ġimplicita": 7979,
      "Ġsuprema": 7980,
      "ise": 7981,
      "Ġriportato": 7982,
      "Ġconfermata": 7983,
      "llato": 7984,
      "Ġaggiuntivo": 7985,
      "Ġsyste": 7986,
      "fos": 7987,
      "Ġesige": 7988,
      "Ġesenzioni": 7989,
      "Ġune": 7990,
      "Ġpresupposto": 7991,
      "Ġgiochi": 7992,
      "Ġeurostat": 7993,
      "Ġpositivo": 7994,
      "Ġminori": 7995,
      "Ġacca": 7996,
      "rli": 7997,
      "Ġkra": 7998,
      "Ġ9695": 7999,
      "Ġmiscela": 8000,
      "Ġpatente": 8001,
      "Ġtrasmettere": 8002,
      "Ġvalidi": 8003,
      "Ġchiedono": 8004,
      "Ġstipen": 8005,
      "Ġbedragen": 8006,
      "Î´": 8007,
      "Ġ357": 8008,
      "Ġindiretta": 8009,
      "Ġquesito": 8010,
      "Ġcorro": 8011,
      "Ġcomunicata": 8012,
      "Ġcoerenza": 8013,
      "Ġscritto": 8014,
      "Ġriportati": 8015,
      "Ġscientifici": 8016,
      "ppa": 8017,
      "060": 8018,
      "Ġdeutsche": 8019,
      "130": 8020,
      "Ġgeneri": 8021,
      "Ġpasta": 8022,
      "Ġiniziative": 8023,
      "Ġadattamento": 8024,
      "Ġano": 8025,
      "Ġ384": 8026,
      "ttino": 8027,
      "Ġriprodu": 8028,
      "Ġconservati": 8029,
      "Ġsettimo": 8030,
      "Ġcontroricorso": 8031,
      "Ġidonee": 8032,
      "Ġ575": 8033,
      "ssido": 8034,
      "Ġoperative": 8035,
      "Ġcq": 8036,
      "lis": 8037,
      "Ġcorrispondere": 8038,
      "Ġspiegato": 8039,
      "Ġmontants": 8040,
      "Ġzero": 8041,
      "ĠÎ´": 8042,
      "Ġindeterminato": 8043,
      "Ġecceda": 8044,
      "ley": 8045,
      "Ġnondimeno": 8046,
      "Ġslovenia": 8047,
      "Ġammino": 8048,
      "Ġscala": 8049,
      "ttoli": 8050,
      "Ġmiscugli": 8051,
      "Ġaccele": 8052,
      "Ġsottoscritto": 8053,
      "Ġfavorire": 8054,
      "Ġetat": 8055,
      "hu": 8056,
      "Ġcellulosa": 8057,
      "Ġcausalita": 8058,
      "Ġconcentrati": 8059,
      "Ġpreventiva": 8060,
      "Ġ242": 8061,
      "Ġola": 8062,
      "vando": 8063,
      "Ġimbar": 8064,
      "Ġsiderur": 8065,
      "Î¸": 8066,
      "lavo": 8067,
      "Ġpas": 8068,
      "Ġavia": 8069,
      "Ġmunicip": 8070,
      "Ġaggiornamento": 8071,
      "Ġconferimento": 8072,
      "Ġleghe": 8073,
      "Ġwei": 8074,
      "Ġarrivo": 8075,
      "Ġ740": 8076,
      "chet": 8077,
      "Ġtarif": 8078,
      "varia": 8079,
      "Ġindispensabile": 8080,
      "wor": 8081,
      "mentale": 8082,
      "mettendo": 8083,
      "Ġroto": 8084,
      "ward": 8085,
      "Ġliquido": 8086,
      "Ġaccettare": 8087,
      "Ġimmediata": 8088,
      "Ġcontenitore": 8089,
      "Ġtraccia": 8090,
      "Ġdenaro": 8091,
      "Ġcoinci": 8092,
      "bar": 8093,
      "Ġratiti": 8094,
      "Ġcondizionamento": 8095,
      "Ġsentito": 8096,
      "Ġfabbisogno": 8097,
      "tc": 8098,
      "Ġconcreti": 8099,
      "elux": 8100,
      "Ġritengono": 8101,
      "Ġprivate": 8102,
      "Ġcomportano": 8103,
      "Ġassunti": 8104,
      "Ġraccomandazioni": 8105,
      "Ġvenditore": 8106,
      "nei": 8107,
      "Ġpp": 8108,
      "Ġgira": 8109,
      "Ġsiffatte": 8110,
      "Ġriposo": 8111,
      "Ġsocio": 8112,
      "Ġversioni": 8113,
      "Ġ298": 8114,
      "Ġostacolo": 8115,
      "viene": 8116,
      "Ġlumino": 8117,
      "Ġcondivi": 8118,
      "Ġportare": 8119,
      "Ġprovvisorie": 8120,
      "enne": 8121,
      "Ġletto": 8122,
      "Ġovini": 8123,
      "Ġequipaggio": 8124,
      "Ġbenelux": 8125,
      "Ġvietata": 8126,
      "110": 8127,
      "Ġ621": 8128,
      "Ġvene": 8129,
      "Ġnegato": 8130,
      "Ġcostituiva": 8131,
      "struzione": 8132,
      "ira": 8133,
      "Ġminuti": 8134,
      "Ġ387": 8135,
      "vision": 8136,
      "Ġbon": 8137,
      "Ġstori": 8138,
      "Ġposition": 8139,
      "Ġcongelamento": 8140,
      "Ġ468": 8141,
      "Ġsciroppi": 8142,
      "Ġoriginaria": 8143,
      "Ġrealizzati": 8144,
      "Ġ237": 8145,
      "Ġrisultare": 8146,
      "Ġlino": 8147,
      "Ġderivato": 8148,
      "Ġfarmaceuti": 8149,
      "Ġsituati": 8150,
      "Ġcd": 8151,
      "Ġgarantita": 8152,
      "Ġpregiudicare": 8153,
      "Ġamm": 8154,
      "Ġsituato": 8155,
      "Ġisra": 8156,
      "dar": 8157,
      "Ġvietare": 8158,
      "Ġesaurimento": 8159,
      "Ġnume": 8160,
      "Ġluoghi": 8161,
      "Ġimpugnate": 8162,
      "Ġ316": 8163,
      "Ġ00017": 8164,
      "Ġaudit": 8165,
      "Ġasten": 8166,
      "Ġponderazione": 8167,
      "Ġcorrenti": 8168,
      "Ġrettifiche": 8169,
      "Ġlevi": 8170,
      "Ġdina": 8171,
      "Ġmanuale": 8172,
      "Ġ1905": 8173,
      "Ġhy": 8174,
      "Ġterro": 8175,
      "Ġtrattamenti": 8176,
      "Ġgrasso": 8177,
      "Ġ352": 8178,
      "Ġagree": 8179,
      "sal": 8180,
      "Ġemessa": 8181,
      "fluoro": 8182,
      "Ġomissi": 8183,
      "Ġrimasta": 8184,
      "Ġkirch": 8185,
      "Ġimmagazz": 8186,
      "Ġagevolare": 8187,
      "Ġ039": 8188,
      "Ġsec": 8189,
      "Ġblu": 8190,
      "Ġmaria": 8191,
      "Ġraggrupp": 8192,
      "Ġconcordato": 8193,
      "Ġcoerente": 8194,
      "Ġconsolidata": 8195,
      "ÏīÎ½": 8196,
      "Ġgul": 8197,
      "Ġ351": 8198,
      "Ġpareri": 8199,
      "Ġrene": 8200,
      "Ġmia": 8201,
      "Ġtv": 8202,
      "Ġstaccati": 8203,
      "Ġdedurre": 8204,
      "Ġpremesso": 8205,
      "nc": 8206,
      "bali": 8207,
      "Ġdoppia": 8208,
      "Ġtensione": 8209,
      "kt": 8210,
      "Ġ276": 8211,
      "Ġaccettato": 8212,
      "Î¿Ïĥ": 8213,
      "Ġfunzionale": 8214,
      "Ġ274": 8215,
      "Ġammettere": 8216,
      "Ġparla": 8217,
      "orsi": 8218,
      "Ġosti": 8219,
      "Ġinput": 8220,
      "Ġasserito": 8221,
      "Ġderivano": 8222,
      "ming": 8223,
      "Ġintermedio": 8224,
      "Ġaustriaco": 8225,
      "Ġ0210": 8226,
      "Ġmaggiorato": 8227,
      "Ġselvatica": 8228,
      "Ġapprofon": 8229,
      "Ġ355": 8230,
      "Ġugualmente": 8231,
      "Ġkar": 8232,
      "Ġconsorzio": 8233,
      "Ġwhi": 8234,
      "ratura": 8235,
      "minanti": 8236,
      "Ġquanti": 8237,
      "Ġaggra": 8238,
      "Ġidentificare": 8239,
      "Ġcle": 8240,
      "Ġinfort": 8241,
      "ou": 8242,
      "sporta": 8243,
      "Ġtrasver": 8244,
      "Ġresistente": 8245,
      "Ġiscritti": 8246,
      "Ġaumenti": 8247,
      "ndosi": 8248,
      "Ġâĸ": 8249,
      "Ġbarri": 8250,
      "Ġmedie": 8251,
      "Ġtenute": 8252,
      "Ġinvocati": 8253,
      "Ġcze": 8254,
      "Ġmiscele": 8255,
      "terra": 8256,
      "ns": 8257,
      "Ġcontestazione": 8258,
      "Ġriservata": 8259,
      "Ġfiori": 8260,
      "Ġdichiarate": 8261,
      "ggiare": 8262,
      "Ġdr": 8263,
      "ens": 8264,
      "ok": 8265,
      "Ġrispar": 8266,
      "Ġ306": 8267,
      "Ġproteine": 8268,
      "Ġprescritti": 8269,
      "Ġmalay": 8270,
      "mie": 8271,
      "arma": 8272,
      "0020": 8273,
      "Ġgare": 8274,
      "alizzata": 8275,
      "Ġtrasmessi": 8276,
      "Ġexporta": 8277,
      "Ġsaint": 8278,
      "Ġaerona": 8279,
      "Ġveterinari": 8280,
      "Ð³": 8281,
      "Ġocci": 8282,
      "Ġriguardava": 8283,
      "Ġrilasciate": 8284,
      "para": 8285,
      "Ġfegato": 8286,
      "Ġmaggiori": 8287,
      "Ġcanna": 8288,
      "bian": 8289,
      "Ġpreparate": 8290,
      "Ġagenzie": 8291,
      "Ġ037": 8292,
      "Ġstatuito": 8293,
      "Ġconsultivo": 8294,
      "Ġpreliminari": 8295,
      "lm": 8296,
      "Ġlampa": 8297,
      "grazione": 8298,
      "Ġurbani": 8299,
      "Ġdelega": 8300,
      "Ġtelecomunicazioni": 8301,
      "Ġmalaysia": 8302,
      "Ġhar": 8303,
      "Ġpreciso": 8304,
      "Ġ969500": 8305,
      "Ġelettrico": 8306,
      "Ġnumerosi": 8307,
      "Ġmondo": 8308,
      "Ġdiversamente": 8309,
      "Ġprimario": 8310,
      "Ġ341": 8311,
      "Ġcontribuente": 8312,
      "Ġsucchi": 8313,
      "Ġ0809": 8314,
      "Ġdenunci": 8315,
      "Ġeccetto": 8316,
      "Ġtrovare": 8317,
      "Ġintegrante": 8318,
      "pt": 8319,
      "Ġselvati": 8320,
      "Ġfila": 8321,
      "Ġdanmark": 8322,
      "Ġcitati": 8323,
      "ĠÐ½": 8324,
      "my": 8325,
      "rendo": 8326,
      "terrane": 8327,
      "Ġtossi": 8328,
      "Ġposteriore": 8329,
      "iecie": 8330,
      "Ġunion": 8331,
      "Ġillegittimo": 8332,
      "Ġluxembo": 8333,
      "Ġ528": 8334,
      "Ġgh": 8335,
      "090": 8336,
      "Ġchri": 8337,
      "Ġdenatura": 8338,
      "Ġteo": 8339,
      "catori": 8340,
      "Ġappropriate": 8341,
      "Ġye": 8342,
      "Ġerb": 8343,
      "Ġtue": 8344,
      "Ġinformare": 8345,
      "Ġraccomandazione": 8346,
      "gesetz": 8347,
      "ĠÂ·": 8348,
      "Ġcontinuita": 8349,
      "Ġinsegna": 8350,
      "dino": 8351,
      "Ġintrodurre": 8352,
      "Ġmostra": 8353,
      "Ġcontingentale": 8354,
      "Ġevince": 8355,
      "Ġazoto": 8356,
      "lico": 8357,
      "Ġattribuiti": 8358,
      "Ġpilota": 8359,
      "Ġcrema": 8360,
      "Ġmobilita": 8361,
      "Ġscientifica": 8362,
      "Ġservice": 8363,
      "Ġprecise": 8364,
      "Ġpowiecie": 8365,
      "Ġcruz": 8366,
      "glo": 8367,
      "Ġmovimento": 8368,
      "Ġ910": 8369,
      "Ġ413": 8370,
      "logo": 8371,
      "Ġesercizi": 8372,
      "Ġconserve": 8373,
      "ricul": 8374,
      "heim": 8375,
      "Ġconvenuti": 8376,
      "Ġbarrister": 8377,
      "Ġcoloranti": 8378,
      "Ġaffron": 8379,
      "Ġtaglia": 8380,
      "fenil": 8381,
      "Ġesami": 8382,
      "ggiamento": 8383,
      "Ġ348": 8384,
      "Ġpunte": 8385,
      "Ġcoloro": 8386,
      "Ġstradale": 8387,
      "Ġ2913": 8388,
      "Ġ2658": 8389,
      "Ġnime": 8390,
      "Ġistrutto": 8391,
      "Ġprendendo": 8392,
      "Ġattinente": 8393,
      "Ġenergy": 8394,
      "Ġbeta": 8395,
      "burg": 8396,
      "Ġpakistan": 8397,
      "ziamenti": 8398,
      "Ġserbato": 8399,
      "Ġ375": 8400,
      "Ġconnessione": 8401,
      "Ġindugio": 8402,
      "fichi": 8403,
      "Ġmode": 8404,
      "Ġassegnati": 8405,
      "cional": 8406,
      "Ġnucleare": 8407,
      "mentali": 8408,
      "ders": 8409,
      "Ġattestato": 8410,
      "Ġattribuita": 8411,
      "Ġliberamente": 8412,
      "Ġsolida": 8413,
      "Ġflessi": 8414,
      "Ġbasati": 8415,
      "Î½Î¿": 8416,
      "Ġcontatti": 8417,
      "Ġghisa": 8418,
      "Ġilleg": 8419,
      "Ġordinario": 8420,
      "Ġunitario": 8421,
      "Ġintervenienti": 8422,
      "Ġdicitura": 8423,
      "nico": 8424,
      "Ġconi": 8425,
      "Ġ00000": 8426,
      "Ġsanitari": 8427,
      "Ġvitivi": 8428,
      "Ġfem": 8429,
      "vra": 8430,
      "Ġmantenuto": 8431,
      "Ġelettriche": 8432,
      "Ġtemporaneamente": 8433,
      "ssida": 8434,
      "Ġrifor": 8435,
      "Ġprevidenziale": 8436,
      "Ġtechnolo": 8437,
      "Ġassociati": 8438,
      "Ġ512": 8439,
      "Ġ1964": 8440,
      "Ġvitivini": 8441,
      "ppio": 8442,
      "Ġdefinitive": 8443,
      "Ġbirra": 8444,
      "Ġpresunta": 8445,
      "Ġappel": 8446,
      "prodotti": 8447,
      "Ġseparazione": 8448,
      "Ġporte": 8449,
      "inato": 8450,
      "Ġcolloca": 8451,
      "Ġcontenitori": 8452,
      "wei": 8453,
      "tariato": 8454,
      "Ġingra": 8455,
      "Ġnotificazione": 8456,
      "Ġinviata": 8457,
      "Ġsuina": 8458,
      "Ġaustra": 8459,
      "Ġvisita": 8460,
      "Ġriportate": 8461,
      "Ġnichel": 8462,
      "Ġple": 8463,
      "Ġpassap": 8464,
      "Ġcose": 8465,
      "turazione": 8466,
      "Ġpostale": 8467,
      "erra": 8468,
      "Ġtondi": 8469,
      "Ġflussi": 8470,
      "Ġ358": 8471,
      "Ġraccolto": 8472,
      "Ġsanitarie": 8473,
      "vich": 8474,
      "Ġattenuazione": 8475,
      "Ġcattura": 8476,
      "Ġsolf": 8477,
      "Ġinserire": 8478,
      "Ġprogettazione": 8479,
      "ec": 8480,
      "Ġavessero": 8481,
      "Ġpotassio": 8482,
      "tretto": 8483,
      "Ġunitamente": 8484,
      "tex": 8485,
      "Ġtratte": 8486,
      "Ġomissis": 8487,
      "uite": 8488,
      "Ġdri": 8489,
      "Ġriceve": 8490,
      "Ġrodriguez": 8491,
      "Ġincomple": 8492,
      "Ġbiodi": 8493,
      "Ġzinco": 8494,
      "Ġcontraddittorio": 8495,
      "chu": 8496,
      "Ġincremento": 8497,
      "ficanti": 8498,
      "Ġsapere": 8499,
      "Ġpreveda": 8500,
      "Ġscegliere": 8501,
      "Ġschen": 8502,
      "Ġremunerazione": 8503,
      "Ġcomandante": 8504,
      "Ġfissi": 8505,
      "Ġabbigliamento": 8506,
      "Ġidoneita": 8507,
      "Ġponderata": 8508,
      "Ġfrontiere": 8509,
      "Ġmartin": 8510,
      "Ġ365": 8511,
      "Ġ750": 8512,
      "Ġdisoccupazione": 8513,
      "Ġinseriti": 8514,
      "Ġammessa": 8515,
      "Ġ430": 8516,
      "Ġhsc": 8517,
      "Ġvoli": 8518,
      "Ġesattezza": 8519,
      "Ġcompiuti": 8520,
      "Ġesercitata": 8521,
      "sina": 8522,
      "Ġosservazione": 8523,
      "Ġuniversale": 8524,
      "Ġmarittima": 8525,
      "00000": 8526,
      "Ġimputato": 8527,
      "rt": 8528,
      "Ġbeneficiato": 8529,
      "Ġconvin": 8530,
      "Ġcartolari": 8531,
      "Ġ1003": 8532,
      "Ġif": 8533,
      "tera": 8534,
      "ceno": 8535,
      "Ġpolimeri": 8536,
      "Ġlini": 8537,
      "Ġ950": 8538,
      "Ġgiurisdizionali": 8539,
      "Ġ2093": 8540,
      "Ġaddizionali": 8541,
      "ummer": 8542,
      "Ġlegalmente": 8543,
      "Ġcumulo": 8544,
      "Ġcento": 8545,
      "Ġcombustibile": 8546,
      "Ġdomicili": 8547,
      "Ġrecuperare": 8548,
      "Ġ665": 8549,
      "Ġdesu": 8550,
      "Ġargentina": 8551,
      "valen": 8552,
      "Ġprecis": 8553,
      "Ġovest": 8554,
      "gal": 8555,
      "Ġsemigre": 8556,
      "uis": 8557,
      "Ġround": 8558,
      "Ġanzianita": 8559,
      "cite": 8560,
      "Ġluxembourg": 8561,
      "vven": 8562,
      "Ġsvolgono": 8563,
      "Ġtroppo": 8564,
      "Ġiugoslavia": 8565,
      "Ġrisolta": 8566,
      "Ġriscaldamento": 8567,
      "Ġagreement": 8568,
      "Ġeffettivita": 8569,
      "Ġinterpreta": 8570,
      "Ġverwaltungs": 8571,
      "Ġtrasbor": 8572,
      "Ġviti": 8573,
      "Ġfl": 8574,
      "Ġolaf": 8575,
      "op": 8576,
      "Ġconcession": 8577,
      "Ġaziendale": 8578,
      "Ġnimexe": 8579,
      "Ġip": 8580,
      "ssano": 8581,
      "Ġindizi": 8582,
      "Ġcomu": 8583,
      "Ġfacente": 8584,
      "Ġvincolanti": 8585,
      "Ġindicano": 8586,
      "Ġaddestra": 8587,
      "Ġfreddo": 8588,
      "Ġcombustibili": 8589,
      "nn": 8590,
      "ssan": 8591,
      "Ġaccensione": 8592,
      "sky": 8593,
      "Ġsegalato": 8594,
      "cloro": 8595,
      "Ġtrade": 8596,
      "Ġjann": 8597,
      "Ġcaffe": 8598,
      "Ġgoverna": 8599,
      "Ġimmagine": 8600,
      "stalli": 8601,
      "Ġisoglucosio": 8602,
      "Ġrimo": 8603,
      "Ġ1151": 8604,
      "ttato": 8605,
      "Ġritenga": 8606,
      "Ġfiocco": 8607,
      "Ġdepar": 8608,
      "Ġsemigreggio": 8609,
      "Ġpiombo": 8610,
      "Ġâĸł": 8611,
      "Ġnm": 8612,
      "Ġverra": 8613,
      "Ġmontaggio": 8614,
      "Ġfotogra": 8615,
      "Ġmilitare": 8616,
      "Ġriscossi": 8617,
      "Ġcertamente": 8618,
      "Ġ1035": 8619,
      "Ġzol": 8620,
      "Ġ380": 8621,
      "upt": 8622,
      "nel": 8623,
      "Ġcreditore": 8624,
      "tec": 8625,
      "Ġlegato": 8626,
      "Ġusu": 8627,
      "riale": 8628,
      "Ġintensita": 8629,
      "Ġ0405": 8630,
      "Ġdesignare": 8631,
      "Ġfla": 8632,
      "cei": 8633,
      "Ġ409": 8634,
      "riere": 8635,
      "Ġsicu": 8636,
      "Ġrammentare": 8637,
      "Ġapposi": 8638,
      "Ġpreca": 8639,
      "Ġricostitu": 8640,
      "ggre": 8641,
      "Ġorganici": 8642,
      "Ġstabiliscono": 8643,
      "Ġimpiegato": 8644,
      "Ġrimborsa": 8645,
      "Ġsignificative": 8646,
      "Ġinstitu": 8647,
      "ciata": 8648,
      "Ġconcentrato": 8649,
      "dibili": 8650,
      "Ġlomb": 8651,
      "Ġcompensare": 8652,
      "Ġinven": 8653,
      "Ġprevedeva": 8654,
      "Ġ378": 8655,
      "Ġoleo": 8656,
      "Ġinvitato": 8657,
      "ĠfÃ¦": 8658,
      "Ġusare": 8659,
      "Ġwest": 8660,
      "Ġingiusti": 8661,
      "Ġran": 8662,
      "Ġ0204": 8663,
      "wy": 8664,
      "Ġfrom": 8665,
      "Ġ376": 8666,
      "Ġaddizionati": 8667,
      "gner": 8668,
      "Ġconcorrenziale": 8669,
      "Ġdistributori": 8670,
      "das": 8671,
      "Ġ060": 8672,
      "Ġsaraceno": 8673,
      "Ġgiovani": 8674,
      "Ġcarriera": 8675,
      "ureau": 8676,
      "Ġincarico": 8677,
      "Ġavoca": 8678,
      "Ġreati": 8679,
      "Ġspecificare": 8680,
      "Ġdescritta": 8681,
      "Ġinflitte": 8682,
      "Ġchiarezza": 8683,
      "betrage": 8684,
      "Ġpermetta": 8685,
      "fino": 8686,
      "Ġsottose": 8687,
      "Ġlongi": 8688,
      "Ġprecisamente": 8689,
      "tona": 8690,
      "Ġdisaggre": 8691,
      "Ġrimp": 8692,
      "Ġstrutturali": 8693,
      "Ġassorbi": 8694,
      "Ġbanco": 8695,
      "Ġxiv": 8696,
      "enna": 8697,
      "Ġlasci": 8698,
      "Ġtrarre": 8699,
      "Ġoperano": 8700,
      "Ġdisossate": 8701,
      "Ġerogazione": 8702,
      "Ġmail": 8703,
      "Ġ321": 8704,
      "gerichtshof": 8705,
      "Ġveterinario": 8706,
      "Ġgon": 8707,
      "ude": 8708,
      "Ġmediche": 8709,
      "Ġnitro": 8710,
      "Ġmerluzzo": 8711,
      "Ġletterale": 8712,
      "eti": 8713,
      "Ġriconosciute": 8714,
      "ÏĦÎ·": 8715,
      "Ġdanne": 8716,
      "Ġsconti": 8717,
      "Ġster": 8718,
      "Ġstampati": 8719,
      "bbia": 8720,
      "Ġaggiuntivi": 8721,
      "Ġministeri": 8722,
      "Ġshi": 8723,
      "Ġfranz": 8724,
      "Ġprzez": 8725,
      "Ġguy": 8726,
      "Ġmemorie": 8727,
      "ume": 8728,
      "vviso": 8729,
      "Ġproteggere": 8730,
      "Ġ323": 8731,
      "Ġrinnova": 8732,
      "Ġdiscrezionalita": 8733,
      "Ġrimane": 8734,
      "Ġrici": 8735,
      "Ġislanda": 8736,
      "Ġstaat": 8737,
      "Ġredatta": 8738,
      "Ġdon": 8739,
      "Ġpiatti": 8740,
      "Ġnb": 8741,
      "Ġprobabile": 8742,
      "Ġoccorra": 8743,
      "Ġpomodori": 8744,
      "Ġterrori": 8745,
      "Ġtaglio": 8746,
      "Ġschema": 8747,
      "Ġ3184": 8748,
      "Ġsupporti": 8749,
      "Ġdetenzione": 8750,
      "Ġcollegato": 8751,
      "hal": 8752,
      "Ġsecche": 8753,
      "nare": 8754,
      "Ġprevedibile": 8755,
      "Ġcondo": 8756,
      "Ġpervenute": 8757,
      "Ġyang": 8758,
      "ml": 8759,
      "Ġomogene": 8760,
      "Ġtrattate": 8761,
      "Ġregolarita": 8762,
      "Ġbuti": 8763,
      "Ġadegu": 8764,
      "gian": 8765,
      "Ġinvestitore": 8766,
      "Ġintracomunitari": 8767,
      "tele": 8768,
      "Ġquinqu": 8769,
      "Ġattuali": 8770,
      "Ġsuperato": 8771,
      "Ġup": 8772,
      "grado": 8773,
      "Ġnotevolmente": 8774,
      "ccaggio": 8775,
      "Ġlami": 8776,
      "Ġquantifica": 8777,
      "Ġreite": 8778,
      "ssistenza": 8779,
      "Ġapprovata": 8780,
      "Ġdistinguere": 8781,
      "zer": 8782,
      "Ġmig": 8783,
      "Ġsemilavo": 8784,
      "Ġcala": 8785,
      "Ġ334": 8786,
      "Ġonero": 8787,
      "Ġanziche": 8788,
      "Ġthai": 8789,
      "Ġsostenibile": 8790,
      "Ġtaiwan": 8791,
      "Ġrub": 8792,
      "Ġ391": 8793,
      "nam": 8794,
      "Ġcessioni": 8795,
      "Ġcollegata": 8796,
      "Ġlegg": 8797,
      "contrattuale": 8798,
      "Ġobbliga": 8799,
      "Ġocchi": 8800,
      "mone": 8801,
      "Ġalimento": 8802,
      "Ġrimettere": 8803,
      "siste": 8804,
      "Ġpubblicati": 8805,
      "Ġfabbricato": 8806,
      "Ġfinanzgericht": 8807,
      "Ġcare": 8808,
      "Ġkre": 8809,
      "003": 8810,
      "Ġinformativa": 8811,
      "Ġfruire": 8812,
      "Ġgiudicato": 8813,
      "Ġ00007": 8814,
      "Ġcolture": 8815,
      "gel": 8816,
      "Ġrientrare": 8817,
      "Ġ00001": 8818,
      "rsel": 8819,
      "Ġly": 8820,
      "bilitazione": 8821,
      "lation": 8822,
      "Ġattuato": 8823,
      "Ġincora": 8824,
      "Ġprolun": 8825,
      "Ġnole": 8826,
      "its": 8827,
      "Ġpubli": 8828,
      "Ġgamma": 8829,
[...]
