{
  "version": "1.0",
  "truncation": null,
  "padding": null,
  "added_tokens": [
    {
      "id": 0,
      "content": "<pad>",
      "single_word": false,
      "lstrip": false,
      "rstrip": false,
      "normalized": false,
      "special": true
    },
    {
      "id": 1,
      "content": "<s>",
      "single_word": false,
      "lstrip": false,
      "rstrip": false,
      "normalized": false,
      "special": true
    },
    {
      "id": 2,
      "content": "</s>",
      "single_word": false,
      "lstrip": false,
      "rstrip": false,
      "normalized": false,
      "special": true
    },
    {
      "id": 3,
      "content": "<unk>",
      "single_word": false,
      "lstrip": false,
      "rstrip": false,
      "normalized": false,
      "special": true
    },
    {
      "id": 4,
      "content": "<mask>",
      "single_word": false,
      "lstrip": false,
      "rstrip": false,
      "normalized": false,
      "special": true
    }
  ],
  "normalizer": {
    "type": "Sequence",
    "normalizers": [
      {
        "type": "NFKD"
      },
      {
        "type": "BertNormalizer",
        "clean_text": true,
        "handle_chinese_chars": true,
        "strip_accents": null,
        "lowercase": true
      }
    ]
  },
  "pre_tokenizer": {
    "type": "Sequence",
    "pretokenizers": [
      {
        "type": "BertPreTokenizer"
      },
      {
        "type": "ByteLevel",
        "add_prefix_space": true,
        "trim_offsets": true,
        "use_regex": true
      }
    ]
  },
  "post_processor": {
    "type": "RobertaProcessing",
    "sep": [
      "</s>",
      2
    ],
    "cls": [
      "<s>",
      1
    ],
    "trim_offsets": true,
    "add_prefix_space": true
  },
  "decoder": {
    "type": "ByteLevel",
    "add_prefix_space": true,
    "trim_offsets": true,
    "use_regex": true
  },
  "model": {
    "type": "BPE",
    "dropout": null,
    "unk_token": "<unk>",
    "continuing_subword_prefix": null,
    "end_of_word_suffix": null,
    "fuse_unk": false,
    "vocab": {
      "<pad>": 0,
      "<s>": 1,
      "</s>": 2,
      "<unk>": 3,
      "<mask>": 4,
      "!": 5,
      "\"": 6,
      "#": 7,
      "$": 8,
      "%": 9,
      "&": 10,
      "'": 11,
      "(": 12,
      ")": 13,
      "*": 14,
      "+": 15,
      ",": 16,
      "-": 17,
      ".": 18,
      "/": 19,
      "0": 20,
      "1": 21,
      "2": 22,
      "3": 23,
      "4": 24,
      "5": 25,
      "6": 26,
      "7": 27,
      "8": 28,
      "9": 29,
      ":": 30,
      ";": 31,
      "<": 32,
      "=": 33,
      ">": 34,
      "?": 35,
      "@": 36,
      "[": 37,
      "\\": 38,
      "]": 39,
      "^": 40,
      "_": 41,
      "`": 42,
      "a": 43,
      "b": 44,
      "c": 45,
      "d": 46,
      "e": 47,
      "f": 48,
      "g": 49,
      "h": 50,
      "i": 51,
      "j": 52,
      "k": 53,
      "l": 54,
      "m": 55,
      "n": 56,
      "o": 57,
      "p": 58,
      "q": 59,
      "r": 60,
      "s": 61,
      "t": 62,
      "u": 63,
      "v": 64,
      "w": 65,
      "x": 66,
      "y": 67,
      "z": 68,
      "{": 69,
      "|": 70,
      "}": 71,
      "~": 72,
      "¡": 73,
      "¢": 74,
      "£": 75,
      "¤": 76,
      "¥": 77,
      "¦": 78,
      "§": 79,
      "¨": 80,
      "©": 81,
      "ª": 82,
      "«": 83,
      "¬": 84,
      "®": 85,
      "¯": 86,
      "°": 87,
      "±": 88,
      "²": 89,
      "³": 90,
      "´": 91,
      "µ": 92,
      "¶": 93,
      "·": 94,
      "¸": 95,
      "¹": 96,
      "º": 97,
      "»": 98,
      "¼": 99,
      "½": 100,
      "¾": 101,
      "¿": 102,
      "Â": 103,
      "Ã": 104,
      "Ä": 105,
      "Å": 106,
      "Æ": 107,
      "Ç": 108,
      "È": 109,
      "É": 110,
      "Ê": 111,
      "Ë": 112,
      "Î": 113,
      "Ï": 114,
      "Ð": 115,
      "Ñ": 116,
      "Ò": 117,
      "Õ": 118,
      "Ö": 119,
      "Ø": 120,
      "Ù": 121,
      "Ú": 122,
      "Û": 123,
      "ß": 124,
      "à": 125,
      "á": 126,
      "â": 127,
      "ã": 128,
      "ä": 129,
      "å": 130,
      "æ": 131,
      "ç": 132,
      "è": 133,
      "é": 134,
      "ï": 135,
      "ð": 136,
      "Ġ": 137,
      "Ģ": 138,
      "ģ": 139,
      "Ĥ": 140,
      "ĥ": 141,
      "Ħ": 142,
      "ħ": 143,
      "Ĩ": 144,
      "ĩ": 145,
      "Ī": 146,
      "ī": 147,
      "Ĭ": 148,
      "ĭ": 149,
      "Į": 150,
      "į": 151,
      "İ": 152,
      "ı": 153,
      "Ĳ": 154,
      "ĳ": 155,
      "Ĵ": 156,
      "ĵ": 157,
      "Ķ": 158,
      "ķ": 159,
      "ĸ": 160,
      "Ĺ": 161,
      "ĺ": 162,
      "Ļ": 163,
      "ļ": 164,
      "Ľ": 165,
      "ľ": 166,
      "Ŀ": 167,
      "ŀ": 168,
      "Ł": 169,
      "ł": 170,
      "Ń": 171,
      "Ġp": 172,
      "Ġs": 173,
      "ne": 174,
      "Ġv": 175,
      "ni": 176,
      "Ġ,": 177,
      "na": 178,
      "Ġ.": 179,
      "ov": 180,
      "Ġa": 181,
      "Ġz": 182,
      "la": 183,
      "st": 184,
      "od": 185,
      "re": 186,
      "ra": 187,
      "Ġk": 188,
      "to": 189,
      "ri": 190,
      "ch": 191,
      "Ġc": 192,
      "Ġna": 193,
      "je": 194,
      "Ġo": 195,
      "Ġd": 196,
      "Ġu": 197,
      "ro": 198,
      "ny": 199,
      "nu": 200,
      "Ġ1": 201,
      "ci": 202,
      "Ġ2": 203,
      "Ġsa": 204,
      "Ġne": 205,
      "le": 206,
      "Ġm": 207,
      "no": 208,
      "Ġt": 209,
      "Ġpo": 210,
      "ho": 211,
      "at": 212,
      "Ġza": 213,
      "de": 214,
      "ko": 215,
      "Ġ)": 216,
      "ie": 217,
      "lo": 218,
      "Ġvy": 219,
      "Ġb": 220,
      "Ġâ": 221,
      "up": 222,
      "lat": 223,
      "nie": 224,
      "ky": 225,
      "ĠâĢ": 226,
      "Ġe": 227,
      "Ġi": 228,
      "Ġpri": 229,
      "Ġ(": 230,
      "va": 231,
      "Ġpre": 232,
      "nia": 233,
      "ova": 234,
      "ia": 235,
      "me": 236,
      "ce": 237,
      "po": 238,
      "ku": 239,
      "00": 240,
      "ka": 241,
      "mi": 242,
      "li": 243,
      "nuje": 244,
      "ta": 245,
      "Ġ/": 246,
      "zi": 247,
      "latnuje": 248,
      "Ġneup": 249,
      "Ġneuplatnuje": 250,
      "te": 251,
      "Ġko": 252,
      "ju": 253,
      "Ġsu": 254,
      "Ġod": 255,
      "Ġdo": 256,
      "Ġ_": 257,
      "ve": 258,
      "Ġpod": 259,
      "Ġ3": 260,
      "sti": 261,
      "Ġkto": 262,
      "vo": 263,
      "ti": 264,
      "ke": 265,
      "Ġje": 266,
      "ove": 267,
      "nych": 268,
      "neho": 269,
      "Ġ-": 270,
      "Ġro": 271,
      "bo": 272,
      "se": 273,
      "ru": 274,
      "Ġ0": 275,
      "da": 276,
      "ria": 277,
      "Ġf": 278,
      "ly": 279,
      "Ġ5": 280,
      "lu": 281,
      "Ġto": 282,
      "Ġst": 283,
      "nej": 284,
      "is": 285,
      "Ġ4": 286,
      "ob": 287,
      "Ġ:": 288,
      "Ġroz": 289,
      "ze": 290,
      "Ġale": 291,
      "Ġze": 292,
      "rav": 293,
      "Ġcla": 294,
      "Ġspo": 295,
      "ĠâĢĵ": 296,
      "di": 297,
      "hod": 298,
      "Ġeu": 299,
      "Ġalebo": 300,
      "za": 301,
      "Ġma": 302,
      "Ġ20": 303,
      "Ġob": 304,
      "ma": 305,
      "ry": 306,
      "mo": 307,
      "ca": 308,
      "cie": 309,
      "lad": 310,
      "Ġ200": 311,
      "Ġsp": 312,
      "sta": 313,
      "nut": 314,
      "Ġ9": 315,
      "riade": 316,
      "Ġktore": 317,
      "ske": 318,
      "nosti": 319,
      "Ġpred": 320,
      "Ġ|": 321,
      "Ġ6": 322,
      "Ġve": 323,
      "sa": 324,
      "tu": 325,
      "Ġra": 326,
      "or": 327,
      "Ġte": 328,
      "ha": 329,
      "ez": 330,
      "si": 331,
      "Ġ7": 332,
      "Ġre": 333,
      "Ġako": 334,
      "ty": 335,
      "pa": 336,
      "Ġ8": 337,
      "cia": 338,
      "Ġpro": 339,
      "sky": 340,
      "mu": 341,
      "in": 342,
      "kov": 343,
      "om": 344,
      "Ġnariade": 345,
      "ate": 346,
      "Ġsta": 347,
      "Ġin": 348,
      "stup": 349,
      "Ġta": 350,
      "Ġmo": 351,
      "Ġh": 352,
      "len": 353,
      "Ġ201": 354,
      "Ġme": 355,
      "Ġclan": 356,
      "Ġuve": 357,
      "nost": 358,
      "Ġvo": 359,
      "by": 360,
      "su": 361,
      "Ġty": 362,
      "pe": 363,
      "hu": 364,
      "tne": 365,
      "plat": 366,
      "Ġpra": 367,
      "nove": 368,
      "sia": 369,
      "nc": 370,
      "klad": 371,
      "Ġkomi": 372,
      "Ġby": 373,
      "zna": 374,
      "oda": 375,
      "Ġsud": 376,
      "do": 377,
      "stat": 378,
      "Ġuvede": 379,
      "Ġsme": 380,
      "Ġri": 381,
      "rb": 382,
      "ja": 383,
      "ste": 384,
      "sob": 385,
      "Ġr": 386,
      "Ġspolo": 387,
      "Ġde": 388,
      "mie": 389,
      "nov": 390,
      "ina": 391,
      "Ġ10": 392,
      "Ġods": 393,
      "Ġktory": 394,
      "Ġclanku": 395,
      "ĠâĢŀ": 396,
      "ĠâĢľ": 397,
      "Ġbez": 398,
      "Ġ00": 399,
      "nom": 400,
      "lne": 401,
      "Ġnez": 402,
      "nok": 403,
      "Ġak": 404,
      "vy": 405,
      "ovod": 406,
      "Ġbo": 407,
      "vr": 408,
      "Ġ19": 409,
      "Ġrizi": 410,
      "Ġstat": 411,
      "rob": 412,
      "nt": 413,
      "Ġda": 414,
      "Ġrozhod": 415,
      "Ġprav": 416,
      "ga": 417,
      "Ġvz": 418,
      "Ġce": 419,
      "il": 420,
      "Ġl": 421,
      "Ġ;": 422,
      "uje": 423,
      "redi": 424,
      "Ġes": 425,
      "Ġzo": 426,
      "dy": 427,
      "Ġbod": 428,
      "sp": 429,
      "Ġkona": 430,
      "nym": 431,
      "Ġpodla": 432,
      "Ġop": 433,
      "Ġpodni": 434,
      "ba": 435,
      "Ġriziko": 436,
      "sle": 437,
      "Ġkredi": 438,
      "lade": 439,
      "Ġg": 440,
      "Ġka": 441,
      "sie": 442,
      "Ġex": 443,
      "Ġclen": 444,
      "lyha": 445,
      "Ġzalo": 446,
      "my": 447,
      "lyhane": 448,
      "Ġal": 449,
      "Ġkreditne": 450,
      "Ġnezlyhane": 451,
      "ng": 452,
      "Ġclanok": 453,
      "ou": 454,
      "nic": 455,
      "Ġsmer": 456,
      "du": 457,
      "Ġpa": 458,
      "Ġvyrob": 459,
      "ĠâĢĶ": 460,
      "juce": 461,
      "Ġvse": 462,
      "rov": 463,
      "ovania": 464,
      "cne": 465,
      "cha": 466,
      "inanc": 467,
      "Ġeuro": 468,
      "kom": 469,
      "Ġpok": 470,
      "uzi": 471,
      "nim": 472,
      "Ġpr": 473,
      "lov": 474,
      "kre": 475,
      "Ġpripa": 476,
      "Ġ12": 477,
      "dza": 478,
      "cov": 479,
      "Ġnariadenia": 480,
      "Ġca": 481,
      "Ġci": 482,
      "Ġvyko": 483,
      "Ġ11": 484,
      "Ġor": 485,
      "Ġso": 486,
      "Ġeurop": 487,
      "Ġnie": 488,
      "Ġall": 489,
      "stra": 490,
      "Ġosob": 491,
      "Ġpov": 492,
      "Ġpristup": 493,
      "Ġfinanc": 494,
      "Ġpoz": 495,
      "zova": 496,
      "Ġ%": 497,
      "vi": 498,
      "zu": 499,
      "Ġproti": 500,
      "fi": 501,
      "Ġkomisia": 502,
      "juci": 503,
      "Ġkon": 504,
      "Ġorga": 505,
      "bra": 506,
      "Ġur": 507,
      "Ġsmerni": 508,
      "cii": 509,
      "Ġdoda": 510,
      "kych": 511,
      "Ġse": 512,
      "Ġusta": 513,
      "Ġeur": 514,
      "Ġho": 515,
      "hy": 516,
      "lom": 517,
      "tre": 518,
      "ed": 519,
      "Ġmu": 520,
      "Ġspoloc": 521,
      "Ġpris": 522,
      "Ġaby": 523,
      "Ġjed": 524,
      "Ġpouzi": 525,
      "cen": 526,
      "Ġtre": 527,
      "ych": 528,
      "Ġkonania": 529,
      "10": 530,
      "pu": 531,
      "hodno": 532,
      "Ġsi": 533,
      "Ġrozhodnut": 534,
      "nute": 535,
      "he": 536,
      "red": 537,
      "Ġokre": 538,
      "skej": 539,
      "ĠâĢĲ": 540,
      "kto": 541,
      "Ġco": 542,
      "Ġ50": 543,
      "sku": 544,
      "Ġaj": 545,
      "Ġspe": 546,
      "Ġrozsu": 547,
      "ovanie": 548,
      "Ġokrem": 549,
      "Ġ13": 550,
      "Ġle": 551,
      "Ġvykona": 552,
      "Ġju": 553,
      "platne": 554,
      "Ġzalob": 555,
      "Ġup": 556,
      "Ġnaj": 557,
      "ran": 558,
      "Ġunie": 559,
      "Ġtr": 560,
      "Ġ15": 561,
      "skeho": 562,
      "rej": 563,
      "Ġhodno": 564,
      "kaz": 565,
      "hra": 566,
      "for": 567,
      "men": 568,
      "be": 569,
      "Ġtie": 570,
      "Ġzia": 571,
      "dzi": 572,
      "Ġtyka": 573,
      "cke": 574,
      "nymi": 575,
      "bez": 576,
      "Ġsku": 577,
      "Ġsvo": 578,
      "ska": 579,
      "Ġnavr": 580,
      "cu": 581,
      "lus": 582,
      "sko": 583,
      "Ġopat": 584,
      "Ġpripade": 585,
      "vis": 586,
      "tom": 587,
      "Ġirb": 588,
      "irb": 589,
      "Ġ]": 590,
      "Ġ[": 591,
      "dla": 592,
      "Ġoch": 593,
      "stva": 594,
      "gi": 595,
      "Ġzm": 596,
      "atel": 597,
      "Ġpis": 598,
      "Ġdovod": 599,
      "pis": 600,
      "hlad": 601,
      "dz": 602,
      "bu": 603,
      "tov": 604,
      "Ġdru": 605,
      "Ġustanove": 606,
      "Ġprilo": 607,
      "Ġsk": 608,
      "Ġtej": 609,
      "Ġzmlu": 610,
      "hto": 611,
      "Ġprislus": 612,
      "Ġ14": 613,
      "Ġtohto": 614,
      "Ġposky": 615,
      "pozi": 616,
      "ply": 617,
      "Ġch": 618,
      "Ġmil": 619,
      "Ġdvo": 620,
      "nou": 621,
      "Ġinfor": 622,
      "Ġsmernice": 623,
      "ji": 624,
      "hla": 625,
      "so": 626,
      "Ġopatre": 627,
      "Ġtejto": 628,
      "Ġbezod": 629,
      "Ġide": 630,
      "Ġslu": 631,
      "Ġtom": 632,
      "rie": 633,
      "Ġmi": 634,
      "Ġprotistra": 635,
      "Ġzna": 636,
      "obe": 637,
      "Ġnep": 638,
      "Ġ16": 639,
      "Ġnariadenie": 640,
      "Ġked": 641,
      "dob": 642,
      "sahu": 643,
      "Ġ17": 644,
      "Ġbyt": 645,
      "ting": 646,
      "Ġprotistrany": 647,
      "Ġmedzi": 648,
      "skych": 649,
      "Ġcie": 650,
      "Ġvset": 651,
      "Ġdodanie": 652,
      "chod": 653,
      "statne": 654,
      "Ġspolocen": 655,
      "Ġvnut": 656,
      "Ġine": 657,
      "bezpe": 658,
      "Ġbezodplatne": 659,
      "vie": 660,
      "stni": 661,
      "lizova": 662,
      "toc": 663,
      "Ġsluz": 664,
      "20": 665,
      "Ġdop": 666,
      "Ġzaklad": 667,
      "ial": 668,
      "die": 669,
      "jek": 670,
      "Ġkra": 671,
      "kol": 672,
      "Ġspecia": 673,
      "ovo": 674,
      "Ġzak": 675,
      "Ġpodmie": 676,
      "Ġvnutro": 677,
      "Ġuplat": 678,
      "ati": 679,
      "Ġsulade": 680,
      "Ġstanov": 681,
      "Ġli": 682,
      "treb": 683,
      "zne": 684,
      "fe": 685,
      "Ġrating": 686,
      "Ġstra": 687,
      "Ġ30": 688,
      "Ġ199": 689,
      "Ġvla": 690,
      "Ġja": 691,
      "Ġpovin": 692,
      "Ġich": 693,
      "Ġozna": 694,
      "tel": 695,
      "Ġsub": 696,
      "Ġpravo": 697,
      "Ġ25": 698,
      "chadza": 699,
      "Ġstanove": 700,
      "on": 701,
      "it": 702,
      "Ġsy": 703,
      "ruse": 704,
      "dku": 705,
      "ovane": 706,
      "Ġexpozi": 707,
      "Ġspecializova": 708,
      "Ġram": 709,
      "pove": 710,
      "ovat": 711,
      "Ġjeho": 712,
      "Ġzabezpe": 713,
      "rom": 714,
      "spoda": 715,
      "Ġprij": 716,
      "Ġveci": 717,
      "nit": 718,
      "Ġuda": 719,
      "Ġsprav": 720,
      "Ġinforma": 721,
      "Ġ18": 722,
      "Ġtoho": 723,
      "mbra": 724,
      "niu": 725,
      "Ġpodniky": 726,
      "Ġzaklade": 727,
      "ciu": 728,
      "Ġbu": 729,
      "dok": 730,
      "Ġrady": 731,
      "Ġva": 732,
      "Ġ21": 733,
      "Ġba": 734,
      "Ġexpozicie": 735,
      "Ġuvedene": 736,
      "taz": 737,
      "Ġ29": 738,
      "Ġpokial": 739,
      "Ġvseobe": 740,
      "Ġktora": 741,
      "Ġplat": 742,
      "ge": 743,
      "spodar": 744,
      "Ġura": 745,
      "Ġpism": 746,
      "Ġlen": 747,
      "losti": 748,
      "cin": 749,
      "Ġsuvis": 750,
      "Ġx": 751,
      "kove": 752,
      "odu": 753,
      "ist": 754,
      "Ġuce": 755,
      "Ġpe": 756,
      "roci": 757,
      "kon": 758,
      "Ġcin": 759,
      "cas": 760,
      "Ġvnutrostat": 761,
      "Ġno": 762,
      "Ġzme": 763,
      "mysle": 764,
      "Ġuva": 765,
      "dav": 766,
      "Ġfinancovania": 767,
      "Ġ31": 768,
      "Ġvykonava": 769,
      "Ġsyste": 770,
      "Ġairb": 771,
      "Ġtieto": 772,
      "Ġpokroci": 773,
      "atu": 774,
      "Ġpokrocily": 775,
      "Ġramci": 776,
      "Ġkomisie": 777,
      "Ġ28": 778,
      "Ġzmysle": 779,
      "Ġ26": 780,
      "Ġmoze": 781,
      "Ġ=": 782,
      "Ġii": 783,
      "Ġ23": 784,
      "Ġverej": 785,
      "Ġtych": 786,
      "Ġsubjek": 787,
      "Ġtoto": 788,
      "Ġ90": 789,
      "cky": 790,
      "Ġodvo": 791,
      "Ġvys": 792,
      "Ġten": 793,
      "Ġpozia": 794,
      "kou": 795,
      "Ġprost": 796,
      "rod": 797,
      "loze": 798,
      "Ġ22": 799,
      "Ġposu": 800,
      "Ġnahra": 801,
      "Ġspecializovaneho": 802,
      "nuti": 803,
      "lej": 804,
      "Ġuz": 805,
      "Ġzd": 806,
      "Ġposkyt": 807,
      "Ġdohod": 808,
      "Ġaz": 809,
      "plyva": 810,
      "Ġrozhodnutia": 811,
      "Ġvzta": 812,
      "Ġucin": 813,
      "Ġspolocenstva": 814,
      "dne": 815,
      "tiv": 816,
      "Ġ24": 817,
      "Ġprie": 818,
      "rne": 819,
      "com": 820,
      "jucich": 821,
      "nd": 822,
      "Ġjedno": 823,
      "nky": 824,
      "Ġtak": 825,
      "Ġprava": 826,
      "Ġpotreb": 827,
      "Ġct": 828,
      "Ġkaz": 829,
      "Ġvyplyva": 830,
      "lna": 831,
      "Ġzi": 832,
      "sak": 833,
      "lneho": 834,
      "zy": 835,
      "Ġnavrh": 836,
      "pad": 837,
      "Ġmie": 838,
      "Ġjej": 839,
      "Ġw": 840,
      "Ġurad": 841,
      "Ġtychto": 842,
      "pi": 843,
      "Ġcor": 844,
      "Ġtvr": 845,
      "Ġostatne": 846,
      "Ġvseobec": 847,
      "Ġtento": 848,
      "bli": 849,
      "Ġ27": 850,
      "Ġopatrenia": 851,
      "Ġni": 852,
      "Ġsch": 853,
      "ovodne": 854,
      "Ġpomo": 855,
      "Ġzasa": 856,
      "Ġuca": 857,
      "Ġmoz": 858,
      "Ġurci": 859,
      "sto": 860,
      "Ġmusi": 861,
      "Ġzame": 862,
      "Ġodse": 863,
      "Ġpostup": 864,
      "lno": 865,
      "Ġpla": 866,
      "Ġau": 867,
      "Ġpoda": 868,
      "prav": 869,
      "Ġotaz": 870,
      "Ġdovo": 871,
      "Ġeuropskej": 872,
      "Ġrozsudok": 873,
      "tvo": 874,
      "Ġpozri": 875,
      "Ġpar": 876,
      "Ġrov": 877,
      "Ġtomto": 878,
      "tk": 879,
      "Ġspolocnosti": 880,
      "stvo": 881,
      "jov": 882,
      "Ġ<": 883,
      "med": 884,
      "Ġcorp": 885,
      "Ġpova": 886,
      "Ġstatu": 887,
      "Ġn": 888,
      "Ġla": 889,
      "vu": 890,
      "Ġboli": 891,
      "kova": 892,
      "denie": 893,
      "Ġpravi": 894,
      "Ġpreto": 895,
      "Ġvel": 896,
      "Ġfa": 897,
      "Ġobdob": 898,
      "Ġurce": 899,
      "moz": 900,
      "Ġnajma": 901,
      "40": 902,
      "loz": 903,
      "Ġ+": 904,
      "Ġstred": 905,
      "Ġvra": 906,
      "znam": 907,
      "Ġmsp": 908,
      "Ġprve": 909,
      "lny": 910,
      "lie": 911,
      "Ġvsetky": 912,
      "Ġochra": 913,
      "Ġpredme": 914,
      "ntro": 915,
      "gu": 916,
      "Ġsmec": 917,
      "ode": 918,
      "Ġpotrebne": 919,
      "kt": 920,
      "Ġdotk": 921,
      "Ġktorym": 922,
      "Ġhospodar": 923,
      "Ġbe": 924,
      "Ġad": 925,
      "Ġzava": 926,
      "Ġrozhodnutie": 927,
      "tie": 928,
      "vat": 929,
      "Ġustanovenia": 930,
      "zo": 931,
      "Ġvia": 932,
      "Ġspoje": 933,
      "30": 934,
      "Ġobchod": 935,
      "Ġodvola": 936,
      "Ġziado": 937,
      "Ġodovodne": 938,
      "Ġobla": 939,
      "Ġeh": 940,
      "nti": 941,
      "Ġktorych": 942,
      "Ġpodnik": 943,
      "Ġkri": 944,
      "Ġsuvislosti": 945,
      "Ġpreva": 946,
      "Ġbolo": 947,
      "dna": 948,
      "spe": 949,
      "Ġucely": 950,
      "stna": 951,
      "lia": 952,
      "kla": 953,
      "Ġvztahu": 954,
      "odpove": 955,
      "Ġskutoc": 956,
      "ĠÂ": 957,
      "Ġfor": 958,
      "rna": 959,
      "Ġpovo": 960,
      "xi": 961,
      "Ġpredpis": 962,
      "Ġzastup": 963,
      "Ġkontro": 964,
      "rz": 965,
      "Ġmale": 966,
      "medze": 967,
      "Ġpracov": 968,
      "Ġ100": 969,
      "Ġkedze": 970,
      "Ġpot": 971,
      "Ġnapad": 972,
      "Ġtu": 973,
      "Ġtova": 974,
      "Ġzodpove": 975,
      "Ġjednot": 976,
      "Ġ2006": 977,
      "lozi": 978,
      "diel": 979,
      "lova": 980,
      "Ġge": 981,
      "Ġzalobky": 982,
      "Ġvi": 983,
      "rava": 984,
      "Ġstredne": 985,
      "Ġvlast": 986,
      "50": 987,
      "Ġprevadz": 988,
      "Ġzabezpece": 989,
      "rac": 990,
      "Ġtym": 991,
      "Ġhodnote": 992,
      "Ġnevy": 993,
      "iska": 994,
      "Ġochran": 995,
      "Ġ2009": 996,
      "Ġucastni": 997,
      "Ġ40": 998,
      "Ġrepu": 999,
      "stitu": 1000,
      "Ġrepubli": 1001,
      "Ġtreba": 1002,
      "Ġpouziva": 1003,
      "miet": 1004,
      "pri": 1005,
      "21": 1006,
      "hnut": 1007,
      "Ġbola": 1008,
      "hladom": 1009,
      "Ġpoziadav": 1010,
      "Ġdi": 1011,
      "Ġ01": 1012,
      "Ġvsak": 1013,
      "Ġstaty": 1014,
      "tua": 1015,
      "Ġku": 1016,
      "Ġtykajuce": 1017,
      "nova": 1018,
      "gra": 1019,
      "Ġ010": 1020,
      "skom": 1021,
      "Ġzariade": 1022,
      "raz": 1023,
      "tova": 1024,
      "vne": 1025,
      "Ġ2004": 1026,
      "mot": 1027,
      "Ġuvadza": 1028,
      "Ġzamestna": 1029,
      "tor": 1030,
      "Ġreta": 1031,
      "Ġkomisi": 1032,
      "Ġcasti": 1033,
      "Ġinstitu": 1034,
      "Ġinformacie": 1035,
      "Ġfu": 1036,
      "Ġos": 1037,
      "tane": 1038,
      "Ġry": 1039,
      "Ġpria": 1040,
      "Ġsubjekty": 1041,
      "Ġ\"": 1042,
      "Ġzne": 1043,
      "Ġtake": 1044,
      "sled": 1045,
      "Ġpodpo": 1046,
      "ara": 1047,
      "Ġporuse": 1048,
      "Ġzako": 1049,
      "vet": 1050,
      "lnej": 1051,
      "chy": 1052,
      "Ġretail": 1053,
      "Ġj": 1054,
      "Ġmozu": 1055,
      "nk": 1056,
      "Ġvyvo": 1057,
      "tocne": 1058,
      "Ġuvedenych": 1059,
      "vali": 1060,
      "Ġdalej": 1061,
      "nik": 1062,
      "vek": 1063,
      "Ġclensky": 1064,
      "kolvek": 1065,
      "Ġktorej": 1066,
      "Ġeuropskeho": 1067,
      "mov": 1068,
      "mena": 1069,
      "hov": 1070,
      "Ġoblasti": 1071,
      "Ġpreda": 1072,
      "ody": 1073,
      "ovej": 1074,
      "Ġsvoje": 1075,
      "Ġkg": 1076,
      "Ġbol": 1077,
      "Ġtato": 1078,
      "Ġ39": 1079,
      "Ġhla": 1080,
      "Ġinte": 1081,
      "Ġvzor": 1082,
      "Ġcielom": 1083,
      "Ġpripo": 1084,
      "ona": 1085,
      "Ġclankom": 1086,
      "Ġparla": 1087,
      "zad": 1088,
      "Ġrozsudku": 1089,
      "Ġsudu": 1090,
      "ment": 1091,
      "Ġbode": 1092,
      "Ġvratane": 1093,
      "Ġ2008": 1094,
      "mentu": 1095,
      "Ġnove": 1096,
      "kami": 1097,
      "Ġsposob": 1098,
      "Ġpresku": 1099,
      "Ġlu": 1100,
      "jedna": 1101,
      "Ġ0106": 1102,
      "Ġ32": 1103,
      "Ġmate": 1104,
      "Ġvyhla": 1105,
      "ckych": 1106,
      "Ġ2013": 1107,
      "Ġpocas": 1108,
      "Ġtech": 1109,
      "Ġria": 1110,
      "mp": 1111,
      "denia": 1112,
      "fika": 1113,
      "Ġfe": 1114,
      "Ġ2003": 1115,
      "Ġzave": 1116,
      "Ġ>": 1117,
      "Ġnaklad": 1118,
      "Ġhy": 1119,
      "Ġehs": 1120,
      "Ġmaju": 1121,
      "Ġrovna": 1122,
      "Ġkrite": 1123,
      "86": 1124,
      "Ġdovodu": 1125,
      "Ġregi": 1126,
      "Ġcinnosti": 1127,
      "niza": 1128,
      "Ġvyda": 1129,
      "oveho": 1130,
      "Ġdece": 1131,
      "Ġclenskych": 1132,
      "Ġstup": 1133,
      "Ġkapi": 1134,
      "ĠÂ§": 1135,
      "Ġele": 1136,
      "Ġvyklad": 1137,
      "Ġoprav": 1138,
      "rat": 1139,
      "set": 1140,
      "Ġznam": 1141,
      "Ġvozi": 1142,
      "Ġzac": 1143,
      "Ġ33": 1144,
      "nika": 1145,
      "Ġha": 1146,
      "racie": 1147,
      "Ġclenske": 1148,
      "Ġdl": 1149,
      "Ġzakladny": 1150,
      "Ġdruhe": 1151,
      "Ġteda": 1152,
      "Ġpodmienky": 1153,
      "Ġmar": 1154,
      "telom": 1155,
      "Ġ2007": 1156,
      "stav": 1157,
      "Ġ36": 1158,
      "11": 1159,
      "vok": 1160,
      "iste": 1161,
      "ieb": 1162,
      "lnych": 1163,
      "res": 1164,
      "Ġpovole": 1165,
      "90": 1166,
      "Ġrozhodnuti": 1167,
      "Ġnemo": 1168,
      "Ġtrhu": 1169,
      "Ġprodu": 1170,
      "rave": 1171,
      "Ġnadob": 1172,
      "Ġzmluvy": 1173,
      "Ġ000": 1174,
      "Ġhodnotenie": 1175,
      "Ġ35": 1176,
      "tok": 1177,
      "Ġvzhladom": 1178,
      "Ġ38": 1179,
      "Ġ37": 1180,
      "go": 1181,
      "Ġpodnikatel": 1182,
      "Ġfirb": 1183,
      "den": 1184,
      "Ġspolocnost": 1185,
      "ata": 1186,
      "Ġsudny": 1187,
      "nene": 1188,
      "dele": 1189,
      "Ġroku": 1190,
      "Ġnapadnute": 1191,
      "Ġdis": 1192,
      "Ġmini": 1193,
      "Ġcha": 1194,
      "Ġru": 1195,
      "Ġ34": 1196,
      "Ġ2011": 1197,
      "Ġdecembra": 1198,
      "Ġus": 1199,
      "Ġ2014": 1200,
      "Ġsluzby": 1201,
      "dia": 1202,
      "Ġprostred": 1203,
      "qu": 1204,
      "Ġodseku": 1205,
      "jom": 1206,
      "Ġpovod": 1207,
      "Ġktoreho": 1208,
      "Ġcr": 1209,
      "Ġobsahu": 1210,
      "nicke": 1211,
      "Ġprilohe": 1212,
      "nemu": 1213,
      "Ġneza": 1214,
      "Ġelekt": 1215,
      "klada": 1216,
      "Ġcel": 1217,
      "dik": 1218,
      "Ġdvor": 1219,
      "Ġani": 1220,
      "Ġpodnikov": 1221,
      "vod": 1222,
      "Ġokol": 1223,
      "Ġ2005": 1224,
      "Ġvsetkych": 1225,
      "Ġorgan": 1226,
      "uju": 1227,
      "cit": 1228,
      "atie": 1229,
      "Ġuze": 1230,
      "Ġnadobu": 1231,
      "Ġnesp": 1232,
      "Ġ02": 1233,
      "Ġuprav": 1234,
      "dicia": 1235,
      "Ġspa": 1236,
      "Ġcast": 1237,
      "80": 1238,
      "jem": 1239,
      "ym": 1240,
      "Ġuvie": 1241,
      "Ġzaloze": 1242,
      "Ġpravomo": 1243,
      "co": 1244,
      "cich": 1245,
      "Ġnebo": 1246,
      "Ġneu": 1247,
      "Ġvypo": 1248,
      "Ġdoku": 1249,
      "Ġpreju": 1250,
      "Ġpodnikatelske": 1251,
      "Ġdal": 1252,
      "Ġcitova": 1253,
      "Ġzb": 1254,
      "Ġ2001": 1255,
      "Ġprejudicia": 1256,
      "stro": 1257,
      "Ġzre": 1258,
      "Ġjudik": 1259,
      "Ġpravidla": 1260,
      "via": 1261,
      "ktu": 1262,
      "Ġtomu": 1263,
      "Ġjudikatu": 1264,
      "Ġ99": 1265,
      "Ġuvedeneho": 1266,
      "Ġratingove": 1267,
      "hnute": 1268,
      "Ġskup": 1269,
      "Ġmusia": 1270,
      "Ġzvy": 1271,
      "Ġtiez": 1272,
      "sah": 1273,
      "dit": 1274,
      "Ġpovinnosti": 1275,
      "jednava": 1276,
      "oven": 1277,
      "Ġparlamentu": 1278,
      "Ġvyssie": 1279,
      "Ġozname": 1280,
      "Ġprveho": 1281,
      "Ġvyrobky": 1282,
      "Ġnaz": 1283,
      "Ġpoloz": 1284,
      "Ġsmernica": 1285,
      "Ġorganiza": 1286,
      "Ġstanovuje": 1287,
      "rova": 1288,
      "nikov": 1289,
      "Ġclenskeho": 1290,
      "senie": 1291,
      "Ġkvali": 1292,
      "000": 1293,
      "Ġ2012": 1294,
      "Ġuplatni": 1295,
      "pec": 1296,
      "nictvo": 1297,
      "vot": 1298,
      "odi": 1299,
      "Ġobmedze": 1300,
      "Ġrozsahu": 1301,
      "Ġsie": 1302,
      "94": 1303,
      "Ġnema": 1304,
      "Ġvylu": 1305,
      "Ġpreskuma": 1306,
      "Ġsitua": 1307,
      "Ġsluzieb": 1308,
      "Ġ60": 1309,
      "Ġ41": 1310,
      "Ġmateria": 1311,
      "Ġudajov": 1312,
      "Ġ84": 1313,
      "cnych": 1314,
      "lezi": 1315,
      "Ġtran": 1316,
      "Ġvestni": 1317,
      "Ġpriloha": 1318,
      "Ġ05": 1319,
      "Ġktoru": 1320,
      "Ġdu": 1321,
      "Ġ2002": 1322,
      "Ġnasle": 1323,
      "Ġzavaz": 1324,
      "lob": 1325,
      "rt": 1326,
      "Ġzah": 1327,
      "Ġcc": 1328,
      "ved": 1329,
      "ried": 1330,
      "Ġdohody": 1331,
      "stave": 1332,
      "Ġnad": 1333,
      "Ġvyro": 1334,
      "cita": 1335,
      "Ġviac": 1336,
      "cieho": 1337,
      "Ġzohlad": 1338,
      "Ġzakon": 1339,
      "Ġ*": 1340,
      "Ġ85": 1341,
      "Ġzretelom": 1342,
      "mera": 1343,
      "mer": 1344,
      "Ġmno": 1345,
      "Ġjuna": 1346,
      "nka": 1347,
      "Ġschva": 1348,
      "mec": 1349,
      "Ġvynim": 1350,
      "Ġuc": 1351,
      "Ġmet": 1352,
      "Ġhmot": 1353,
      "stami": 1354,
      "Ġsl": 1355,
      "rovna": 1356,
      "Ġumoz": 1357,
      "Ġ43": 1358,
      "Ġosoba": 1359,
      "Ġpreu": 1360,
      "Ġ2010": 1361,
      "sne": 1362,
      "Ġleho": 1363,
      "koch": 1364,
      "sla": 1365,
      "Ġbezpec": 1366,
      "Ġpomoc": 1367,
      "Ġlat": 1368,
      "Ġjula": 1369,
      "kym": 1370,
      "Ġdatu": 1371,
      "Ġnor": 1372,
      "Ġâī": 1373,
      "Ġzau": 1374,
      "Ġ42": 1375,
      "Ġzni": 1376,
      "Ġana": 1377,
      "Ġprilohy": 1378,
      "Ġ54": 1379,
      "telne": 1380,
      "Ġ45": 1381,
      "Ġ44": 1382,
      "Ġspol": 1383,
      "Ġdokaz": 1384,
      "Ġstatov": 1385,
      "Ġzmluv": 1386,
      "70": 1387,
      "Ġpoziadavky": 1388,
      "Ġudaje": 1389,
      "Ġmozno": 1390,
      "sk": 1391,
      "Ġ2016": 1392,
      "Ġstanovene": 1393,
      "Ġ75": 1394,
      "Ġnepre": 1395,
      "ckej": 1396,
      "Ġ2015": 1397,
      "dar": 1398,
      "och": 1399,
      "mb": 1400,
      "Ġkor": 1401,
      "Ġrezi": 1402,
      "cet": 1403,
      "mej": 1404,
      "Ġmali": 1405,
      "Ġzakona": 1406,
      "60": 1407,
      "Ġziadosti": 1408,
      "juceho": 1409,
      "Ġ91": 1410,
      "Ġokolnosti": 1411,
      "Ġziad": 1412,
      "Ġinve": 1413,
      "spo": 1414,
      "Ġof": 1415,
      "ing": 1416,
      "Ġosoby": 1417,
      "tia": 1418,
      "Ġvyrobkov": 1419,
      "Ġiba": 1420,
      "Ġkraj": 1421,
      "Ġinych": 1422,
      "Ġpomoci": 1423,
      "nuju": 1424,
      "Ġpovinnost": 1425,
      "Ġkriteria": 1426,
      "hom": 1427,
      "Ġoznace": 1428,
      "ĠÎ": 1429,
      "iny": 1430,
      "Ġnavrhu": 1431,
      "rs": 1432,
      "ovych": 1433,
      "op": 1434,
      "Ġtri": 1435,
      "Ġokto": 1436,
      "covia": 1437,
      "Ġkraji": 1438,
      "Ġsudneho": 1439,
      "Ġpodob": 1440,
      "Ġ52": 1441,
      "Ġ80": 1442,
      "Ġgene": 1443,
      "Ġprijat": 1444,
      "Ġdovoz": 1445,
      "Ġniekto": 1446,
      "Ġkonanie": 1447,
      "kaza": 1448,
      "ol": 1449,
      "Ġpricom": 1450,
      "ovani": 1451,
      "logi": 1452,
      "Ġdane": 1453,
      "Ġzauj": 1454,
      "Ġhodnoty": 1455,
      "Ġnarod": 1456,
      "ber": 1457,
      "Ġvzorka": 1458,
      "Ġpodmienok": 1459,
      "Ġpat": 1460,
      "Ġrozpo": 1461,
      "tych": 1462,
      "rou": 1463,
      "Ġzara": 1464,
      "Ġodpo": 1465,
      "pte": 1466,
      "Ġlie": 1467,
      "Ġcu": 1468,
      "Ġtakto": 1469,
      "Ġâī¤": 1470,
      "Ġprostried": 1471,
      "Ġrada": 1472,
      "Ġcia": 1473,
      "eni": 1474,
      "pr": 1475,
      "Ġjanu": 1476,
      "vania": 1477,
      "Ġ95": 1478,
      "hli": 1479,
      "Ġbi": 1480,
      "Ġstrany": 1481,
      "Ġoktobra": 1482,
      "Ġstate": 1483,
      "Ġ2017": 1484,
      "Ġbude": 1485,
      "31": 1486,
      "Ġexist": 1487,
      "Ġprogra": 1488,
      "Ġ70": 1489,
      "Ġ46": 1490,
      "Ġziska": 1491,
      "lnoho": 1492,
      "Ġpredloze": 1493,
      "Ġar": 1494,
      "Ġpredmet": 1495,
      "Ġnapadnuteho": 1496,
      "Ġ0086": 1497,
      "Ġnariadenim": 1498,
      "mina": 1499,
      "Ġ49": 1500,
      "Ġmarca": 1501,
      "Ġpolnoho": 1502,
      "Ġvybo": 1503,
      "Ġmnoz": 1504,
      "Ġkorpo": 1505,
      "Ġorgany": 1506,
      "Ġspotreb": 1507,
      "Ġcer": 1508,
      "atelov": 1509,
      "gen": 1510,
      "Ġusku": 1511,
      "Ġzakaz": 1512,
      "Ġdotknute": 1513,
      "Ġsvoji": 1514,
      "Ġ51": 1515,
      "jucim": 1516,
      "vanie": 1517,
      "Ġkonkre": 1518,
      "Ġbody": 1519,
      "Ġ48": 1520,
      "Ġdod": 1521,
      "Ġ55": 1522,
      "Ġnehnute": 1523,
      "Ġcis": 1524,
      "ner": 1525,
      "Ġkorporacie": 1526,
      "bi": 1527,
      "Ġkonstat": 1528,
      "Ġkonani": 1529,
      "sobo": 1530,
      "cka": 1531,
      "Ġkralov": 1532,
      "ntra": 1533,
      "Ġpovaz": 1534,
      "Ġsepte": 1535,
      "Ġziadost": 1536,
      "Ġ96": 1537,
      "Ġproduk": 1538,
      "Ġsamej": 1539,
      "Ġzalobkyna": 1540,
      "feu": 1541,
      "tej": 1542,
      "Ġake": 1543,
      "vaju": 1544,
      "fere": 1545,
      "Ġzfeu": 1546,
      "atego": 1547,
      "el": 1548,
      "Ġdopl": 1549,
      "Ġspeci": 1550,
      "Ġ2000": 1551,
      "Ġdom": 1552,
      "Ġopatreni": 1553,
      "Ġvec": 1554,
      "Ġnepri": 1555,
      "financ": 1556,
      "sledku": 1557,
      "Ġporia": 1558,
      "Ġzdro": 1559,
      "nenie": 1560,
      "Ġkapito": 1561,
      "Ġmozne": 1562,
      "Ġy": 1563,
      "dlo": 1564,
      "Ġ2018": 1565,
      "Ġzvie": 1566,
      "Ġvyuzi": 1567,
      "Ġzariadenia": 1568,
      "Ġdosia": 1569,
      "Ġspojene": 1570,
      "Ġ92": 1571,
      "Ġobdobia": 1572,
      "nictvom": 1573,
      "Ġktorom": 1574,
      "Ġzodpoved": 1575,
      "kovych": 1576,
      "Ġfra": 1577,
      "Ġdosta": 1578,
      "Ġapri": 1579,
      "Ġstupna": 1580,
      "Ġsvoj": 1581,
      "Ġvseobecny": 1582,
      "Ġpoli": 1583,
      "Ġvnutrostatny": 1584,
      "Ġ53": 1585,
      "Ġvelkych": 1586,
      "Ġniz": 1587,
      "Ġprostrednictvom": 1588,
      "Ġstrane": 1589,
      "Ġpredpo": 1590,
      "Ġkatego": 1591,
      "en": 1592,
      "Ġsystem": 1593,
      "cneho": 1594,
      "stu": 1595,
      "Ġlc": 1596,
      "Ġuni": 1597,
      "Ġpredchadza": 1598,
      "rusi": 1599,
      "Ġdvora": 1600,
      "Ġcas": 1601,
      "narod": 1602,
      "Ġodpove": 1603,
      "Ġseptembra": 1604,
      "22": 1605,
      "Ġtreti": 1606,
      "vky": 1607,
      "Ġtvrdi": 1608,
      "Ġnovembra": 1609,
      "Ġinformacii": 1610,
      "Ġzda": 1611,
      "Ġschvale": 1612,
      "Ġposkytnut": 1613,
      "Ġposob": 1614,
      "Ġmedzinarod": 1615,
      "Ġ47": 1616,
      "Ġpredstav": 1617,
      "plyv": 1618,
      "Ġpredlozi": 1619,
      "xx": 1620,
      "Ġrozsud": 1621,
      "Ġpl": 1622,
      "Ġdoplne": 1623,
      "vom": 1624,
      "Ġiii": 1625,
      "Ġmaja": 1626,
      "Ġsystemu": 1627,
      "Ġidenti": 1628,
      "Ġuplatne": 1629,
      "Ġjanuara": 1630,
      "Ġ93": 1631,
      "ter": 1632,
      "Ġtrh": 1633,
      "toch": 1634,
      "Ġpolnohospodar": 1635,
      "Ġnefinanc": 1636,
      "Ġzruse": 1637,
      "atela": 1638,
      "Ġurov": 1639,
      "Ġnedo": 1640,
      "Ġen": 1641,
      "Ġgenera": 1642,
      "kovej": 1643,
      "rych": 1644,
      "Ġrea": 1645,
      "er": 1646,
      "zuju": 1647,
      "Ġdomnie": 1648,
      "Ġove": 1649,
      "Ġ59": 1650,
      "Ġ1999": 1651,
      "Ġpriamo": 1652,
      "Ġjazy": 1653,
      "Ġ94": 1654,
      "tva": 1655,
      "rit": 1656,
      "stli": 1657,
      "Ġaprila": 1658,
      "Ġtovaru": 1659,
      "Ġprimera": 1660,
      "Ġzamiet": 1661,
      "Ġmat": 1662,
      "uz": 1663,
      "bru": 1664,
      "cny": 1665,
      "sc": 1666,
      "Ġpotvr": 1667,
      "rak": 1668,
      "Ġ57": 1669,
      "Ġlo": 1670,
      "um": 1671,
      "Ġnariadeniu": 1672,
      "Ġkone": 1673,
      "Ġtymto": 1674,
      "skor": 1675,
      "Ġhodnota": 1676,
      "Ġvyrobku": 1677,
      "Ġkazde": 1678,
      "Ġ61": 1679,
      "Ġpodie": 1680,
      "Ġosobit": 1681,
      "Ġnefinancne": 1682,
      "Ġceny": 1683,
      "menta": 1684,
      "Ġmesia": 1685,
      "Ġanaly": 1686,
      "leva": 1687,
      "Ġtrov": 1688,
      "Ġzaru": 1689,
      "rzia": 1690,
      "Ġzodpoveda": 1691,
      "jad": 1692,
      "stne": 1693,
      "Ġmalo": 1694,
      "Ġprejednava": 1695,
      "Ġostat": 1696,
      "fa": 1697,
      "ciou": 1698,
      "Ġvhod": 1699,
      "Ġzacatie": 1700,
      "Ġ56": 1701,
      "Ġmala": 1702,
      "Ġustanoveni": 1703,
      "ckeho": 1704,
      "Ġspolup": 1705,
      "Ġdoprav": 1706,
      "nak": 1707,
      "senia": 1708,
      "Ġzele": 1709,
      "land": 1710,
      "Ġskutocnosti": 1711,
      "tou": 1712,
      "Ġ65": 1713,
      "cnej": 1714,
      "Ġspotrebi": 1715,
      "Ġply": 1716,
      "ciach": 1717,
      "Ġodvet": 1718,
      "Ġ87": 1719,
      "Ġvyp": 1720,
      "Ġopis": 1721,
      "wa": 1722,
      "ktiv": 1723,
      "Ġmal": 1724,
      "Ġ98": 1725,
      "Ġuctov": 1726,
      "tiz": 1727,
      "Ġdosledku": 1728,
      "Ġtex": 1729,
      "stru": 1730,
      "Ġzapis": 1731,
      "Ġ71": 1732,
      "Ġuvedenej": 1733,
      "Ġat": 1734,
      "Ġener": 1735,
      "Ġsocia": 1736,
      "Ġ2019": 1737,
      "Ġskutocnost": 1738,
      "Ġvyjad": 1739,
      "Ġpi": 1740,
      "roch": 1741,
      "sich": 1742,
      "Ġproce": 1743,
      "Ġfranc": 1744,
      "Ġvstup": 1745,
      "Ġzabezpecene": 1746,
      "Ġdruhej": 1747,
      "Ġosobi": 1748,
      "xima": 1749,
      "Ġrok": 1750,
      "Ġzastupeni": 1751,
      "Ġfebru": 1752,
      "Ġsko": 1753,
      "Ġnevyhnut": 1754,
      "Ġprevadzkov": 1755,
      "Ġvozidla": 1756,
      "Ġkomisii": 1757,
      "Ġznamky": 1758,
      "Ġfrancuz": 1759,
      "Ġochrany": 1760,
      "Ġspor": 1761,
      "Ġjednotli": 1762,
      "iach": 1763,
      "fo": 1764,
      "ph": 1765,
      "verej": 1766,
      "Ġuplatn": 1767,
      "Ġfunk": 1768,
      "nta": 1769,
      "Ġtotiz": 1770,
      "Ġnepo": 1771,
      "Ġadvok": 1772,
      "Ġpoku": 1773,
      "Ġinstitucie": 1774,
      "Ġvie": 1775,
      "Ġclenskom": 1776,
      "Ġ58": 1777,
      "Ġodkaz": 1778,
      "Ġpotrav": 1779,
      "Ġuzna": 1780,
      "pote": 1781,
      "mom": 1782,
      "Ġnesprav": 1783,
      "Ġpravomoci": 1784,
      "99": 1785,
      "Ġdie": 1786,
      "dov": 1787,
      "Ġ08": 1788,
      "Ġspolupra": 1789,
      "Ġnemoze": 1790,
      "Ġ64": 1791,
      "rmi": 1792,
      "Ġuradny": 1793,
      "Ġreleva": 1794,
      "Ġsposobo": 1795,
      "Ġpotre": 1796,
      "Ġfebruara": 1797,
      "Ġvyhra": 1798,
      "Ġdotknut": 1799,
      "lieha": 1800,
      "Ġminima": 1801,
      "Ġvestnik": 1802,
      "Ġfinancovanie": 1803,
      "stve": 1804,
      "Ġhypote": 1805,
      "oval": 1806,
      "ovanych": 1807,
      "novat": 1808,
      "Ġkomo": 1809,
      "Ġsposobom": 1810,
      "Ġ73": 1811,
      "zenie": 1812,
      "Ġnadobud": 1813,
      "Ġdna": 1814,
      "chyb": 1815,
      "Ġnemec": 1816,
      "nostou": 1817,
      "Ġvztahuje": 1818,
      "Ġzis": 1819,
      "Ġov": 1820,
      "rzi": 1821,
      "Ġnariadeni": 1822,
      "Ġbudu": 1823,
      "Ġpredpisov": 1824,
      "Ġpodod": 1825,
      "jucej": 1826,
      "Ġprija": 1827,
      "Ġkrajiny": 1828,
      "Ġtykaju": 1829,
      "Î±": 1830,
      "Ġpodrob": 1831,
      "Ġuvedeny": 1832,
      "Ġponu": 1833,
      "Ġsamo": 1834,
      "Ġpriprav": 1835,
      "Ġsadz": 1836,
      "Ġ62": 1837,
      "Ġosobitne": 1838,
      "Ġ97": 1839,
      "Ġ?": 1840,
      "Ġpozad": 1841,
      "Ġtuto": 1842,
      "Ġsuvisia": 1843,
      "Ġpravne": 1844,
      "Ġnapo": 1845,
      "liza": 1846,
      "Ġ81": 1847,
      "dom": 1848,
      "Ġpoznam": 1849,
      "Ġochranu": 1850,
      "Ġprizna": 1851,
      "Ġsuca": 1852,
      "Ġnastro": 1853,
      "Ġmaje": 1854,
      "Ġprejudicialneho": 1855,
      "Ġktori": 1856,
      "Ġfi": 1857,
      "Ġ63": 1858,
      "Ġrefere": 1859,
      "Ġobdobie": 1860,
      "Ġ88": 1861,
      "hol": 1862,
      "Ġper": 1863,
      "Ġinvesti": 1864,
      "Ġemi": 1865,
      "Ġzahrna": 1866,
      "koveho": 1867,
      "Ġsmernic": 1868,
      "cuje": 1869,
      "Ġvyzad": 1870,
      "Ġpolozky": 1871,
      "Ġposudenie": 1872,
      "Ġ0094": 1873,
      "Ġpoliti": 1874,
      "Ġkonce": 1875,
      "Ġpravnej": 1876,
      "Ġsprac": 1877,
      "Ġnemoz": 1878,
      "Ġ09": 1879,
      "ster": 1880,
      "Ġplne": 1881,
      "Ġnes": 1882,
      "lis": 1883,
      "Ġmor": 1884,
      "Ġprislusne": 1885,
      "Ġmaxima": 1886,
      "Ġ72": 1887,
      "Ġsvojich": 1888,
      "Ġtaketo": 1889,
      "Ġuverej": 1890,
      "Ġopravne": 1891,
      "Ġrepublika": 1892,
      "dene": 1893,
      "Ġnov": 1894,
      "lian": 1895,
      "Ġpodporu": 1896,
      "mat": 1897,
      "Ġab": 1898,
      "Ġ07": 1899,
      "cy": 1900,
      "Ġga": 1901,
      "ncia": 1902,
      "Ġporovna": 1903,
      "qui": 1904,
      "Î¿": 1905,
      "Ġobsah": 1906,
      "hladu": 1907,
      "Ġuvahy": 1908,
      "Ġvyvoz": 1909,
      "Ġzat": 1910,
      "Ġ198": 1911,
      "Ġuprave": 1912,
      "Ġporiadku": 1913,
      "nutia": 1914,
      "nici": 1915,
      "Ġbezpecnost": 1916,
      "dat": 1917,
      "cenie": 1918,
      "Ġneo": 1919,
      "Ġpravnych": 1920,
      "ĠâĢĺ": 1921,
      "ct": 1922,
      "Ġspecifi": 1923,
      "Ġprvy": 1924,
      "Ġpododse": 1925,
      "sy": 1926,
      "Ġdruhy": 1927,
      "Ġineho": 1928,
      "rza": 1929,
      "Ġzu": 1930,
      "Ġmoznost": 1931,
      "12": 1932,
      "Ġrepubliky": 1933,
      "Ġ74": 1934,
      "cenia": 1935,
      "Ġpouzitie": 1936,
      "Ġtalian": 1937,
      "Ġuskutoc": 1938,
      "Ġochrannej": 1939,
      "Ġfo": 1940,
      "stov": 1941,
      "Ġpredmetom": 1942,
      "Ġotazky": 1943,
      "Ġspravy": 1944,
      "Ġcharak": 1945,
      "Ġsvojej": 1946,
      "Ġ67": 1947,
      "Ġexiste": 1948,
      "Ġnaro": 1949,
      "Ġvykladat": 1950,
      "Ġelektro": 1951,
      "Ġ66": 1952,
      "Ġlatky": 1953,
      "Ġvykon": 1954,
      "pie": 1955,
      "Ġ68": 1956,
      "Ġpoziada": 1957,
      "93": 1958,
      "ctu": 1959,
      "niel": 1960,
      "Ġkazdy": 1961,
      "Ġnemozno": 1962,
      "Ġti": 1963,
      "Ġhe": 1964,
      "Ġche": 1965,
      "Ġsudom": 1966,
      "Ġzasady": 1967,
      "Ġrokov": 1968,
      "Ġuzemi": 1969,
      "Ġkom": 1970,
      "15": 1971,
      "Ġdlz": 1972,
      "Ġpredaj": 1973,
      "Ġnaklady": 1974,
      "Ġnap": 1975,
      "ncie": 1976,
      "nil": 1977,
      "lost": 1978,
      "Ġ78": 1979,
      "Ġsplne": 1980,
      "Ġhlad": 1981,
      "stie": 1982,
      "Ġcy": 1983,
      "Ġhra": 1984,
      "Ġnasledu": 1985,
      "Ġodovodnenia": 1986,
      "kovy": 1987,
      "Ġdovody": 1988,
      "Ġope": 1989,
      "Ġbra": 1990,
      "Ġlt": 1991,
      "Ġosved": 1992,
      "Ġcitovany": 1993,
      "Ġvyznam": 1994,
      "Ġpredse": 1995,
      "13": 1996,
      "Ġtele": 1997,
      "Ġplavi": 1998,
      "Ġrozhodol": 1999,
      "Ġkar": 2000,
      "Ġustanov": 2001,
      "stava": 2002,
      "Ġvoci": 2003,
      "Ġstanovis": 2004,
      "Ġvseobecne": 2005,
      "lnostami": 2006,
      "Ġnehnutelnostami": 2007,
      "Ġsprava": 2008,
      "Ġzivo": 2009,
      "Ġspaniel": 2010,
      "nickych": 2011,
      "bor": 2012,
      "tion": 2013,
      "Ġciel": 2014,
      "Î¹": 2015,
      "rii": 2016,
      "che": 2017,
      "Ġke": 2018,
      "Ġzaob": 2019,
      "Ġzmene": 2020,
      "Ġpisom": 2021,
      "Ġ89": 2022,
      "Ġcom": 2023,
      "zit": 2024,
      "Ġstatoch": 2025,
      "Ġregu": 2026,
      "Ġmeni": 2027,
      "Ġhu": 2028,
      "Ġdph": 2029,
      "cna": 2030,
      "Ġrozsudky": 2031,
      "Ġ77": 2032,
      "Ġzaplat": 2033,
      "Ġdoplna": 2034,
      "Ġdovodov": 2035,
      "lnu": 2036,
      "Ġslob": 2037,
      "Ġhypoteky": 2038,
      "doch": 2039,
      "nce": 2040,
      "Ġorganu": 2041,
      "gie": 2042,
      "Ġpripu": 2043,
      "Ġvnu": 2044,
      "Ġfy": 2045,
      "sov": 2046,
      "Ġvnutrostatne": 2047,
      "Ġstvr": 2048,
      "Ġtomuto": 2049,
      "Ġspecializovane": 2050,
      "Ġdan": 2051,
      "lit": 2052,
      "Ġnee": 2053,
      "Ġviace": 2054,
      "Ġelektri": 2055,
      "nenia": 2056,
      "ncov": 2057,
      "Ġden": 2058,
      "Ġuza": 2059,
      "Ġthe": 2060,
      "Ġtabu": 2061,
      "Ġjednej": 2062,
      "Ġcinnost": 2063,
      "Ġ76": 2064,
      "priklad": 2065,
      "Ġnapriklad": 2066,
      "mocne": 2067,
      "Ġ06": 2068,
      "Ġdosiahnut": 2069,
      "Ġcislo": 2070,
      "teri": 2071,
      "Ġ83": 2072,
      "Ġpredstavuje": 2073,
      "Ġreferenc": 2074,
      "Ġtvrdenia": 2075,
      "Ġuloze": 2076,
      "tyl": 2077,
      "renie": 2078,
      "slo": 2079,
      "Ġ79": 2080,
      "Ġzdra": 2081,
      "Ġbodu": 2082,
      "Ġpodniku": 2083,
      "Ġtykajucich": 2084,
      "Ġ69": 2085,
      "ar": 2086,
      "Ġkod": 2087,
      "Ġuh": 2088,
      "Ġvysled": 2089,
      "Ġvynimkou": 2090,
      "Ġsplna": 2091,
      "ĠâĢļ": 2092,
      "Ġotazku": 2093,
      "Ġdalsie": 2094,
      "vou": 2095,
      "nuta": 2096,
      "Ġucinnost": 2097,
      "Ġprispe": 2098,
      "Ġvymedze": 2099,
      "znamena": 2100,
      "kladu": 2101,
      "dli": 2102,
      "Ġurcite": 2103,
      "Ġstatom": 2104,
      "stiev": 2105,
      "sty": 2106,
      "Ġprijate": 2107,
      "Ġsloven": 2108,
      "Ġim": 2109,
      "setr": 2110,
      "Ġfinancne": 2111,
      "Ġvseobecneho": 2112,
      "Ġ2020": 2113,
      "Ġuplatnuje": 2114,
      "Ġsuta": 2115,
      "Ġnachadza": 2116,
      "stred": 2117,
      "Ġnahradza": 2118,
      "Ġodvolat": 2119,
      "Ġzaobchadza": 2120,
      "Ġsposobi": 2121,
      "Ġvplyv": 2122,
      "Ġstro": 2123,
      "Ġudaj": 2124,
      "Ġ03": 2125,
      "Ġulo": 2126,
      "dol": 2127,
      "Ġsekto": 2128,
      "ndar": 2129,
      "Ġpocet": 2130,
      "nutie": 2131,
      "Ġfyzi": 2132,
      "Ġtabul": 2133,
      "Ġhladiska": 2134,
      "nila": 2135,
      "niz": 2136,
      "Ġzmie": 2137,
      "xy": 2138,
      "Ġpripomie": 2139,
      "deni": 2140,
      "ovy": 2141,
      "ns": 2142,
      "stou": 2143,
      "Ġprejednavanej": 2144,
      "nde": 2145,
      "lati": 2146,
      "Ġzvierat": 2147,
      "ation": 2148,
      "Ġvyso": 2149,
      "Ġzalobca": 2150,
      "Ġzalobkyne": 2151,
      "Ġucastnici": 2152,
      "Ġkrajin": 2153,
      "Ġ86": 2154,
      "Ġap": 2155,
      "Ġurovni": 2156,
      "kach": 2157,
      "Ġposkytov": 2158,
      "Ġky": 2159,
      "Ġsplno": 2160,
      "Ġchemi": 2161,
      "Ġpretoze": 2162,
      "Ġagen": 2163,
      "Ġequi": 2164,
      "cej": 2165,
      "Ġindi": 2166,
      "Ġobsta": 2167,
      "Ġdomnieva": 2168,
      "Ġriade": 2169,
      "Ġnamiet": 2170,
      "Ġcase": 2171,
      "Ġiny": 2172,
      "ovala": 2173,
      "Ġpriji": 2174,
      "ts": 2175,
      "Ġtrest": 2176,
      "mping": 2177,
      "lada": 2178,
      "Ġkapita": 2179,
      "ovany": 2180,
      "Ġpripadoch": 2181,
      "Ġzabezpecit": 2182,
      "tela": 2183,
      "Ġkralovstvo": 2184,
      "Ġtrie": 2185,
      "ir": 2186,
      "Ġand": 2187,
      "Ġmoto": 2188,
      "Ġmimo": 2189,
      "Ġdoma": 2190,
      "Ġfon": 2191,
      "Ġzaloba": 2192,
      "Ġhospodarskej": 2193,
      "14": 2194,
      "kazu": 2195,
      "Ġprislusny": 2196,
      "Ġzverej": 2197,
      "Ġskupiny": 2198,
      "Ġpozi": 2199,
      "cene": 2200,
      "Ġzach": 2201,
      "Ġkontroly": 2202,
      "Ġdni": 2203,
      "Ġodovodnenie": 2204,
      "Ġdatum": 2205,
      "Ġpovodu": 2206,
      "Ġverejneho": 2207,
      "Ġporusenia": 2208,
      "sej": 2209,
      "Ġpovazovat": 2210,
      "Ġodo": 2211,
      "Ġ82": 2212,
      "Ġodsek": 2213,
      "Ġuzav": 2214,
      "tra": 2215,
      "Ġiste": 2216,
      "Ġidentifika": 2217,
      "Ġbel": 2218,
      "merne": 2219,
      "vz": 2220,
      "Ġvlada": 2221,
      "Ġziadne": 2222,
      "Ġnevyhnutne": 2223,
      "Ġuviest": 2224,
      "Ġobra": 2225,
      "Ġtrovy": 2226,
      "Ġnahradu": 2227,
      "Ġrie": 2228,
      "telov": 2229,
      "ren": 2230,
      "fikova": 2231,
      "Ġsucas": 2232,
      "Ġdoh": 2233,
      "vych": 2234,
      "Ġsplnomocne": 2235,
      "zenia": 2236,
      "Ġpripadne": 2237,
      "Ġvyme": 2238,
      "myse": 2239,
      "Ġzalova": 2240,
      "Ġvnutor": 2241,
      "Ġpoiste": 2242,
      "Ġvytvo": 2243,
      "Ġlete": 2244,
      "Ġmm": 2245,
      "Ġequity": 2246,
      "Ġaktiv": 2247,
      "Ġpohy": 2248,
      "Ġ04": 2249,
      "ciona": 2250,
      "py": 2251,
      "Ġurcene": 2252,
      "Ġpredbez": 2253,
      "Ġsena": 2254,
      "zia": 2255,
      "Ġvlad": 2256,
      "Ġinter": 2257,
      "Ġpoist": 2258,
      "Ġskut": 2259,
      "Ġzozna": 2260,
      "Ġvnutrostatneho": 2261,
      "Ġpravomoc": 2262,
      "Ġbio": 2263,
      "Ġrybo": 2264,
      "tol": 2265,
      "renia": 2266,
      "Ġpostave": 2267,
      "Ġzaradenie": 2268,
      "Ġud": 2269,
      "lity": 2270,
      "skym": 2271,
      "Ġkde": 2272,
      "Ġuplatnitelne": 2273,
      "Ġoslob": 2274,
      "ck": 2275,
      "Ġadvokat": 2276,
      "vatel": 2277,
      "Ġpripome": 2278,
      "nte": 2279,
      "ll": 2280,
      "Ġdove": 2281,
      "23": 2282,
      "riek": 2283,
      "Ġuprava": 2284,
      "Ġstu": 2285,
      "Ġzaloby": 2286,
      "mini": 2287,
      "Ġrade": 2288,
      "Ġustanovenie": 2289,
      "01": 2290,
      "Ġiv": 2291,
      "Ġtra": 2292,
      "Ġned": 2293,
      "Ġstru": 2294,
      "Ġpoby": 2295,
      "Ġznamena": 2296,
      "Ġagentu": 2297,
      "Ġtechnicke": 2298,
      "Ġvysky": 2299,
      "Ġpodlieha": 2300,
      "Ġucastnikov": 2301,
      "Ġorganom": 2302,
      "Ġkomisiu": 2303,
      "Ġhoci": 2304,
      "Ġzoznam": 2305,
      "rene": 2306,
      "Ġporusenie": 2307,
      "Ġpreprav": 2308,
      "Ġnavrhov": 2309,
      "Ġposobnosti": 2310,
      "Ġlud": 2311,
      "Ġeuropska": 2312,
      "Ġzneni": 2313,
      "Ġzmeny": 2314,
      "Ġrastli": 2315,
      "cku": 2316,
      "Ġdopln": 2317,
      "Ġurcitych": 2318,
      "niny": 2319,
      "tim": 2320,
      "Ġtest": 2321,
      "cer": 2322,
      "Ġprojek": 2323,
      "Ġupravy": 2324,
      "Ġregistra": 2325,
      "Ġstandar": 2326,
      "Ġeuropskych": 2327,
      "Ġmaterialov": 2328,
      "Ġdochod": 2329,
      "Ġdanove": 2330,
      "Ġtep": 2331,
      "seli": 2332,
      "Ġodvolaci": 2333,
      "Ġrovnake": 2334,
      "ovanej": 2335,
      "Ġsuk": 2336,
      "Ġdoru": 2337,
      "Ġtransak": 2338,
      "ok": 2339,
      "Ġeko": 2340,
      "Ġzavazne": 2341,
      "Ġpoplat": 2342,
      "Ġplatnosti": 2343,
      "skou": 2344,
      "ĠÐ": 2345,
      "mia": 2346,
      "Ġzakladneho": 2347,
      "19": 2348,
      "Ġ197": 2349,
      "Ġvac": 2350,
      "Ġdocas": 2351,
      "Ġcentra": 2352,
      "Ġprvom": 2353,
      "Ġvod": 2354,
      "Ġtovar": 2355,
      "Ġdanov": 2356,
      "Ġtretej": 2357,
      "Ġpor": 2358,
      "Ġjudikatury": 2359,
      "ovali": 2360,
      "Ġzdravot": 2361,
      "Ġmajet": 2362,
      "ver": 2363,
      "Ġrybolov": 2364,
      "Ġkr": 2365,
      "ble": 2366,
      "Ġholand": 2367,
      "Ġpora": 2368,
      "Ġpravneho": 2369,
      "Ġposkytu": 2370,
      "Ġukon": 2371,
      "Ġ101": 2372,
      "pod": 2373,
      "Ġhlav": 2374,
      "spech": 2375,
      "kti": 2376,
      "Ġposudenia": 2377,
      "Ġzdo": 2378,
      "Ġpol": 2379,
      "Ġzmluvu": 2380,
      "Ġnezavis": 2381,
      "Ġnakladov": 2382,
      "Ġuzne": 2383,
      "al": 2384,
      "Ġjedi": 2385,
      "Ġpapie": 2386,
      "Ġstrana": 2387,
      "zem": 2388,
      "kat": 2389,
      "atelom": 2390,
      "Ġuzavre": 2391,
      "Ġfinancnych": 2392,
      "Ġkup": 2393,
      "Ġtla": 2394,
      "Ġvhodne": 2395,
      "dzova": 2396,
      "ene": 2397,
      "Ġpodobne": 2398,
      "leg": 2399,
      "Ġvydav": 2400,
      "Ġrozhodnutim": 2401,
      "dou": 2402,
      "Ġziste": 2403,
      "Ġjazyk": 2404,
      "Ġdohovo": 2405,
      "Ġkonkretne": 2406,
      "Ġsutaze": 2407,
      "Ġvyboru": 2408,
      "Ġnavy": 2409,
      "Ġkvo": 2410,
      "Ġchra": 2411,
      "Ġdokumen": 2412,
      "24": 2413,
      "Ġprihla": 2414,
      "Ġclenskym": 2415,
      "Ġpoj": 2416,
      "Ġsle": 2417,
      "Ġmohli": 2418,
      "Ġoh": 2419,
      "Ġdva": 2420,
      "Ġzlu": 2421,
      "Ġ040": 2422,
      "Ġvyzaduje": 2423,
      "Ġostatnych": 2424,
      "Ġstre": 2425,
      "Ġdvoch": 2426,
      "Ġzaveru": 2427,
      "Ġauto": 2428,
      "Ġrizika": 2429,
      "Ġoslobode": 2430,
      "Ġstave": 2431,
      "Ġhod": 2432,
      "nice": 2433,
      "dro": 2434,
      "Ġpovolenia": 2435,
      "Ġvykonavacie": 2436,
      "33": 2437,
      "iek": 2438,
      "Ġkazdom": 2439,
      "Ġvedla": 2440,
      "Ġvyrobcov": 2441,
      "Ġregula": 2442,
      "Ġkomora": 2443,
      "pro": 2444,
      "Ġsukrom": 2445,
      "rus": 2446,
      "Ġproto": 2447,
      "Ġbruse": 2448,
      "Ġrozvo": 2449,
      "Ġprijala": 2450,
      "enia": 2451,
      "Ġspolu": 2452,
      "Ġhmotnosti": 2453,
      "Ġ0000": 2454,
      "bave": 2455,
      "cou": 2456,
      "Ġorganov": 2457,
      "Ġag": 2458,
      "Ġskor": 2459,
      "Ġriadi": 2460,
      "nne": 2461,
      "Ġmesiacov": 2462,
      "Ġinform": 2463,
      "bou": 2464,
      "Ġstran": 2465,
      "Ġkonkret": 2466,
      "ovana": 2467,
      "Ġnavrhy": 2468,
      "ministra": 2469,
      "Ġpotreby": 2470,
      "Ġzariadeni": 2471,
      "Ġspolocenstiev": 2472,
      "les": 2473,
      "Ġ110": 2474,
      "Ġvedlaj": 2475,
      "Ġpravidiel": 2476,
      "Ġdispozi": 2477,
      "Ġnavyse": 2478,
      "ĠâĢĻ": 2479,
      "Ġdefi": 2480,
      "Ġnazov": 2481,
      "fin": 2482,
      "Ġzdrav": 2483,
      "suje": 2484,
      "Ġzrusi": 2485,
      "ine": 2486,
      "Ġplo": 2487,
      "isti": 2488,
      "Ð°": 2489,
      "Ġoce": 2490,
      "Ġmort": 2491,
      "hou": 2492,
      "Ġzamie": 2493,
      "Ġprijem": 2494,
      "Ġuzi": 2495,
      "isto": 2496,
      "Ġtaky": 2497,
      "34": 2498,
      "Ġanti": 2499,
      "ps": 2500,
      "Ġ2021": 2501,
      "Ġuj": 2502,
      "Ġvyva": 2503,
      "Ġbelgi": 2504,
      "Ġpripad": 2505,
      "Ġpena": 2506,
      "Ġmiesto": 2507,
      "0000": 2508,
      "hr": 2509,
      "Ġfung": 2510,
      "Ġmenej": 2511,
      "Ġprislusnych": 2512,
      "Ġnemecko": 2513,
      "Ġtrva": 2514,
      "Ġdispozicii": 2515,
      "Ġrozpore": 2516,
      "Ġtvo": 2517,
      "sit": 2518,
      "chu": 2519,
      "Ġpres": 2520,
      "bera": 2521,
      "Ġpatria": 2522,
      "lezito": 2523,
      "tedy": 2524,
      "Ġstanovenych": 2525,
      "neni": 2526,
      "Ġpravna": 2527,
      "25": 2528,
      "Ġkonku": 2529,
      "Ġkla": 2530,
      "Ġehp": 2531,
      "Ġpou": 2532,
      "Ġpodmien": 2533,
      "16": 2534,
      "Ġ104": 2535,
      "Ġnepresahu": 2536,
      "Ġrozdiel": 2537,
      "Ġneob": 2538,
      "Ġif": 2539,
      "kri": 2540,
      "ntov": 2541,
      "Ġobdobi": 2542,
      "Ġschop": 2543,
      "17": 2544,
      "roz": 2545,
      "Ġvzo": 2546,
      "Ġverejnej": 2547,
      "Ġpreklad": 2548,
      "vosti": 2549,
      "spon": 2550,
      "Ġforme": 2551,
      "Ġvyske": 2552,
      "Ġpreukaz": 2553,
      "Ġprida": 2554,
      "Ġadministra": 2555,
      "hranic": 2556,
      "nomi": 2557,
      "Ġdostup": 2558,
      "Ġsuhla": 2559,
      "Ġ'": 2560,
      "Ġspravne": 2561,
      "Ġjeden": 2562,
      "nutim": 2563,
      "Ġzahr": 2564,
      "Ġslsc": 2565,
      "Ġvznik": 2566,
      "Ġvyhod": 2567,
      "Ġpojem": 2568,
      "Ġpravny": 2569,
      "Ġrelevant": 2570,
      "setrovania": 2571,
      "dzuje": 2572,
      "Ġvyra": 2573,
      "Ĥ¬": 2574,
      "Ġstatmi": 2575,
      "lp": 2576,
      "Ġzabezpecenie": 2577,
      "Ġdostatocne": 2578,
      "teho": 2579,
      "kovane": 2580,
      "Ġucel": 2581,
      "Ġforma": 2582,
      "Ġmecha": 2583,
      "Ġzavis": 2584,
      "Ġorganizacie": 2585,
      "Ġuvedena": 2586,
      "cina": 2587,
      "ovaneho": 2588,
      "Ġbodoch": 2589,
      "leho": 2590,
      "Ġucastnik": 2591,
      "Ġeste": 2592,
      "Ġsvojho": 2593,
      "Ġnepria": 2594,
      "ĠâĤ¬": 2595,
      "Ġdohoda": 2596,
      "Ġsmernicou": 2597,
      "Ġdob": 2598,
      "tivne": 2599,
      "29": 2600,
      "rmo": 2601,
      "kar": 2602,
      "Ġgu": 2603,
      "Ġusa": 2604,
      "Ġrokova": 2605,
      "zer": 2606,
      "Ġzhod": 2607,
      "Ġakti": 2608,
      "xe": 2609,
      "pre": 2610,
      "Ġcl": 2611,
      "sen": 2612,
      "Ġtakych": 2613,
      "ceni": 2614,
      "state": 2615,
      "Ġdokument": 2616,
      "tym": 2617,
      "Ġoznamenie": 2618,
      "Ġzasada": 2619,
      "Ġdruhu": 2620,
      "munika": 2621,
      "Ġcien": 2622,
      "zajom": 2623,
      "ficia": 2624,
      "Ġvysvet": 2625,
      "Ġzdoraz": 2626,
      "Ġzivot": 2627,
      "cuju": 2628,
      "Ġtretich": 2629,
      "Ġbas": 2630,
      "Ġaspon": 2631,
      "Ġprvej": 2632,
      "Ġnu": 2633,
      "Ġpravom": 2634,
      "sil": 2635,
      "zene": 2636,
      "Ġuplatnova": 2637,
      "Ġvyroba": 2638,
      "Ġneplat": 2639,
      "Ġkapitola": 2640,
      "Ġzamestnancov": 2641,
      "Ġpovolenie": 2642,
      "Ġsank": 2643,
      "Ġsudnemu": 2644,
      "Ġstanovit": 2645,
      "Ġvede": 2646,
      "Ġpritom": 2647,
      "Ġskutocne": 2648,
      "Ġ1998": 2649,
      "por": 2650,
      "podob": 2651,
      "Ġodstra": 2652,
      "68": 2653,
      "Ġporuseni": 2654,
      "fu": 2655,
      "Ġvestniku": 2656,
      "Ġprace": 2657,
      "Ġdodrzia": 2658,
      "Ġuplatnitel": 2659,
      "Ġkomb": 2660,
      "luje": 2661,
      "depodob": 2662,
      "sou": 2663,
      "Ġzdrojov": 2664,
      "Ġobsahuje": 2665,
      "Ġpu": 2666,
      "Ġtvrdenie": 2667,
      "Ġnadobuda": 2668,
      "Ġzmluva": 2669,
      "kam": 2670,
      "Ġnahradit": 2671,
      "Ġciasto": 2672,
      "Ġstav": 2673,
      "Ġneboli": 2674,
      "ntne": 2675,
      "stavu": 2676,
      "Ġdruhov": 2677,
      "Ġodbor": 2678,
      "Ġspotre": 2679,
      "Ġuro": 2680,
      "Ġkomisiou": 2681,
      "Ġpodstate": 2682,
      "Ġpodmienka": 2683,
      "ÏĦ": 2684,
      "Ġpreukaza": 2685,
      "Ġdohovoru": 2686,
      "vt": 2687,
      "enie": 2688,
      "Ġkategorie": 2689,
      "Ġpouzivanie": 2690,
      "Ġmnozstvo": 2691,
      "Ġneskor": 2692,
      "18": 2693,
      "Ġit": 2694,
      "kvi": 2695,
      "Ġ&": 2696,
      "Ġplati": 2697,
      "Ġobe": 2698,
      "Ġprijima": 2699,
      "Ġobmedzenia": 2700,
      "Ġcena": 2701,
      "Ġunii": 2702,
      "Ġoznamenia": 2703,
      "Ġnet": 2704,
      "Ġnich": 2705,
      "Ġvyslov": 2706,
      "Ġprostriedkov": 2707,
      "bok": 2708,
      "Ġpostupu": 2709,
      "Ġakom": 2710,
      "Ġzja": 2711,
      "Ġdvoru": 2712,
      "Ġchar": 2713,
      "Ġsty": 2714,
      "Ġsvojom": 2715,
      "Ġopatrenie": 2716,
      "Ġprave": 2717,
      "Ġlicen": 2718,
      "74": 2719,
      "Ġuradnom": 2720,
      "Ġkrajina": 2721,
      "Ġvylucne": 2722,
      "Ġir": 2723,
      "tex": 2724,
      "Ġuply": 2725,
      "Ġobsa": 2726,
      "Ġclanky": 2727,
      "Ġuroven": 2728,
      "Ġodvolatel": 2729,
      "Ġvysku": 2730,
      "Ġvlak": 2731,
      "Ġpripomenut": 2732,
      "Ġrozsah": 2733,
      "Ġpodpis": 2734,
      "Ġltd": 2735,
      "dua": 2736,
      "sim": 2737,
      "Ġpredpisy": 2738,
      "Ġpredov": 2739,
      "Ġhmotnost": 2740,
      "Ġsplat": 2741,
      "stri": 2742,
      "nikom": 2743,
      "setkym": 2744,
      "Ġkyseli": 2745,
      "Ġpovazuje": 2746,
      "Ġpredovsetkym": 2747,
      "Ġtretie": 2748,
      "Ġvyrobok": 2749,
      "Ġvnutrostatnym": 2750,
      "as": 2751,
      "Ġnajme": 2752,
      "Ġinak": 2753,
      "Ġmnozstva": 2754,
      "an": 2755,
      "Ġsumy": 2756,
      "Ġtrans": 2757,
      "Ġodporu": 2758,
      "02": 2759,
      "Ġsvoju": 2760,
      "spek": 2761,
      "Ġpojednava": 2762,
      "Ġvyrobu": 2763,
      "Ġvykonat": 2764,
      "Ġmiest": 2765,
      "Ġposudzova": 2766,
      "Ġpredpokladu": 2767,
      "Ġmlie": 2768,
      "Ġlimi": 2769,
      "Ġniektorych": 2770,
      "Ġniektore": 2771,
      "novanie": 2772,
      "Ġdospe": 2773,
      "Ġifrs": 2774,
      "Ġvlastne": 2775,
      "ft": 2776,
      "ativ": 2777,
      "Ġktorymi": 2778,
      "Î½": 2779,
      "ciami": 2780,
      "Ð¸": 2781,
      "Ġzloze": 2782,
      "krimina": 2783,
      "Ġnasled": 2784,
      "Ġochranna": 2785,
      "som": 2786,
      "Ġcez": 2787,
      "Ġlatok": 2788,
      "Ġkvality": 2789,
      "Ġpohla": 2790,
      "Ġtyp": 2791,
      "Ġudele": 2792,
      "Ïģ": 2793,
      "Ġpravdepodob": 2794,
      "Ġznamka": 2795,
      "Ġjedneho": 2796,
      "Ġvtedy": 2797,
      "Ġslov": 2798,
      "Ġstruktu": 2799,
      "seni": 2800,
      "Ġnajmenej": 2801,
      "Ġuvedenym": 2802,
      "Ġrozdie": 2803,
      "Ġvody": 2804,
      "zor": 2805,
      "Ġvykonu": 2806,
      "Ġzakladnych": 2807,
      "hi": 2808,
      "Ġramec": 2809,
      "Ġpouzit": 2810,
      "Ġtaz": 2811,
      "liz": 2812,
      "Ġpodal": 2813,
      "Ġspolocne": 2814,
      "met": 2815,
      "Ġsled": 2816,
      "Ġcelom": 2817,
      "gal": 2818,
      "Ġvyroby": 2819,
      "Ġpara": 2820,
      "we": 2821,
      "Ġobme": 2822,
      "Ġpreskumanie": 2823,
      "nitel": 2824,
      "Ġmera": 2825,
      "Ġuplne": 2826,
      "Ġnorma": 2827,
      "Ġaty": 2828,
      "Ġstatnej": 2829,
      "Ġminister": 2830,
      "poje": 2831,
      "cnom": 2832,
      "Ġprek": 2833,
      "Ġkn": 2834,
      "mple": 2835,
      "Ġtexti": 2836,
      "Ġrod": 2837,
      "Ġpy": 2838,
      "Ġpotravin": 2839,
      "hlia": 2840,
      "Ġuzat": 2841,
      "mbu": 2842,
      "Ġtrhov": 2843,
      "Ġkapa": 2844,
      "Ġpove": 2845,
      "Ġvozidiel": 2846,
      "Ġrozsi": 2847,
      "nili": 2848,
      "Ġuplatnovania": 2849,
      "Ġpristro": 2850,
      "Ġzisti": 2851,
      "pusti": 2852,
      "ron": 2853,
      "Ġucinnosti": 2854,
      "man": 2855,
      "Ġpali": 2856,
      "Ġplavidla": 2857,
      "Ġfr": 2858,
      "Ġmcy": 2859,
      "ymi": 2860,
      "Ġzuca": 2861,
      "Ġwe": 2862,
      "Ġsamot": 2863,
      "rec": 2864,
      "lnom": 2865,
      "lych": 2866,
      "Ġdeleg": 2867,
      "Ġstanovisko": 2868,
      "Ġoblast": 2869,
      "45": 2870,
      "Ġpriemyse": 2871,
      "Ġzohladnit": 2872,
      "Ġsubjekt": 2873,
      "Ġnazo": 2874,
      "Ġautom": 2875,
      "Ġmiesta": 2876,
      "Ġlehoty": 2877,
      "lene": 2878,
      "Ġman": 2879,
      "Ġpostupy": 2880,
      "Ġpokuty": 2881,
      "ii": 2882,
      "lep": 2883,
      "Ġproduktov": 2884,
      "nicky": 2885,
      "Ġet": 2886,
      "odex": 2887,
      "Ġvyvaza": 2888,
      "Ġclenov": 2889,
      "Ġzrusenie": 2890,
      "Ġjednak": 2891,
      "Ġmoni": 2892,
      "vodu": 2893,
      "Ġaugu": 2894,
      "Ġrovnako": 2895,
      "Ġprevadzkovatel": 2896,
      "Ġpodiel": 2897,
      "Ġodpad": 2898,
      "Ġbud": 2899,
      "Ġposled": 2900,
      "Ġvyd": 2901,
      "Ġzabra": 2902,
      "Ġude": 2903,
      "Ġulozi": 2904,
      "Ġpriebe": 2905,
      "Ġsved": 2906,
      "Ġfakto": 2907,
      "Ġie": 2908,
      "Ġvztah": 2909,
      "Ġpododseku": 2910,
      "Ġurcit": 2911,
      "Ġpredaja": 2912,
      "siu": 2913,
      "Ġpovinny": 2914,
      "tob": 2915,
      "Ġformu": 2916,
      "Ġuhvt": 2917,
      "Ġexisten": 2918,
      "siela": 2919,
      "nos": 2920,
      "Ġvlady": 2921,
      "Ġbezpecnosti": 2922,
      "dela": 2923,
      "Ġec": 2924,
      "08": 2925,
      "Ġstanovuju": 2926,
      "Ġclenskymi": 2927,
      "Ġindivi": 2928,
      "Ġspolocnostou": 2929,
      "Ġsuma": 2930,
      "Ġuplatnovat": 2931,
      "Ġopa": 2932,
      "Ġodovodneni": 2933,
      "Ġohladu": 2934,
      "Ġmajetku": 2935,
      "ltu": 2936,
      "ujuce": 2937,
      "Ġuviedol": 2938,
      "Ġzabezpecenia": 2939,
      "Ġvybave": 2940,
      "hove": 2941,
      "Ġprotoko": 2942,
      "nodu": 2943,
      "Ġgra": 2944,
      "Ġovo": 2945,
      "Ġgeneralny": 2946,
      "Ġharmo": 2947,
      "Ġprimerane": 2948,
      "struktu": 2949,
      "Ġplatob": 2950,
      "Ġnasledne": 2951,
      "Ġnav": 2952,
      "mito": 2953,
      "cnu": 2954,
      "Ġprechod": 2955,
      "Ġcuk": 2956,
      "cami": 2957,
      "Ġzviera": 2958,
      "Ġvelko": 2959,
      "Ġsituacii": 2960,
      "38": 2961,
      "nostami": 2962,
      "Ġumie": 2963,
      "Ġrx": 2964,
      "Ġclankov": 2965,
      "Ġudrz": 2966,
      "Ġmohla": 2967,
      "77": 2968,
      "39": 2969,
      "Ġdefini": 2970,
      "Ġspolocnej": 2971,
      "Ġskon": 2972,
      "Ġnej": 2973,
      "Ġobo": 2974,
      "Ġzasad": 2975,
      "Ġbie": 2976,
      "Ġjudikaturu": 2977,
      "Ġspochyb": 2978,
      "lnym": 2979,
      "nejsie": 2980,
      "Ġobjek": 2981,
      "Îµ": 2982,
      "Ġkonta": 2983,
      "Ġgb": 2984,
      "Ġobsahom": 2985,
      "Ġmohol": 2986,
      "Ġcit": 2987,
      "Ġsche": 2988,
      "Ġzalobu": 2989,
      "Ġpoly": 2990,
      "Ġ220": 2991,
      "Ġoznami": 2992,
      "Ġmim": 2993,
      "Ġsmernici": 2994,
      "Ðµ": 2995,
      "Ġodha": 2996,
      "Ġkodex": 2997,
      "Ġvzajom": 2998,
      "Ð¾": 2999,
      "Ġvyhlasenie": 3000,
      "mar": 3001,
      "citel": 3002,
      "Ġuplatnit": 3003,
      "Ġnespo": 3004,
      "Ġchy": 3005,
      "juca": 3006,
      "jucimi": 3007,
      "Ġskody": 3008,
      "stom": 3009,
      "Ġdve": 3010,
      "Ġstaro": 3011,
      "cim": 3012,
      "Ġpripomienky": 3013,
      "ckym": 3014,
      "Ġpredseda": 3015,
      "Ġrastlin": 3016,
      "35": 3017,
      "Ġcon": 3018,
      "Ġprislusneho": 3019,
      "odli": 3020,
      "Ġodmiet": 3021,
      "vatelov": 3022,
      "kra": 3023,
      "rd": 3024,
      "covi": 3025,
      "Ġprospech": 3026,
      "Ġprip": 3027,
      "Ġurcenia": 3028,
      "Ġlieta": 3029,
      "Ġbruseli": 3030,
      "Ġmoznosti": 3031,
      "Ġobstarava": 3032,
      "Ġkonstatovat": 3033,
      "Ġnamie": 3034,
      "dzat": 3035,
      "Ġbydli": 3036,
      "tiona": 3037,
      "Ġvychadza": 3038,
      "ovne": 3039,
      "zok": 3040,
      "Ġportu": 3041,
      "Ġzloz": 3042,
      "Ġtou": 3043,
      "Ġhlavne": 3044,
      "Ġrych": 3045,
      "Ġopera": 3046,
      "Ġnao": 3047,
      "Ġteplo": 3048,
      "rove": 3049,
      "Ġ125": 3050,
      "Ġdoslo": 3051,
      "Ġvyna": 3052,
      "Ġorganmi": 3053,
      "hlo": 3054,
      "Ġoddie": 3055,
      "Ġuplatnovanie": 3056,
      "Ġklasi": 3057,
      "Ġvykonavat": 3058,
      "rea": 3059,
      "Ġoba": 3060,
      "Ġekonomi": 3061,
      "Ġzasob": 3062,
      "Ġprostriedky": 3063,
      "Ġvyz": 3064,
      "Ġproces": 3065,
      "Ġotazka": 3066,
      "Ġprirod": 3067,
      "Ġdokazy": 3068,
      "Ġtechno": 3069,
      "kup": 3070,
      "26": 3071,
      "Ġprodukty": 3072,
      "Ġktorou": 3073,
      "Ġkonzu": 3074,
      "Ġslovenskej": 3075,
      "lt": 3076,
      "Ġodvolanie": 3077,
      "Ġraku": 3078,
      "Ġfina": 3079,
      "Ġzjavne": 3080,
      "Ġnepripu": 3081,
      "Ġdani": 3082,
      "Ġodvetvia": 3083,
      "Ġpodstat": 3084,
      "Ġstatisti": 3085,
      "27": 3086,
      "Ġcerti": 3087,
      "Ġpriebehu": 3088,
      "lta": 3089,
      "ven": 3090,
      "Ġste": 3091,
      "Ġprina": 3092,
      "Ġsluzba": 3093,
      "Ġzastupcovia": 3094,
      "lic": 3095,
      "Ġban": 3096,
      "ficialny": 3097,
      "Ġzva": 3098,
      "novi": 3099,
      "Ġvzdela": 3100,
      "Ġeuropsky": 3101,
      "nilo": 3102,
      "Ġslova": 3103,
      "reni": 3104,
      "Ġnahrady": 3105,
      "Ġusmerne": 3106,
      "Ġspoci": 3107,
      "Ġpodrobne": 3108,
      "Ġ1994": 3109,
      "Ġzaujme": 3110,
      "Ġdes": 3111,
      "ms": 3112,
      "Ġpriesto": 3113,
      "Ġkazdeho": 3114,
      "Ġ080": 3115,
      "Ġdovozu": 3116,
      "Ġurcenie": 3117,
      "Ġnepred": 3118,
      "ssi": 3119,
      "Ġon": 3120,
      "Ġaky": 3121,
      "Ġvelke": 3122,
      "Ġdnom": 3123,
      "dina": 3124,
      "Ġnevz": 3125,
      "Ġneoficialny": 3126,
      "Ġaugusta": 3127,
      "Ġuplatnuju": 3128,
      "Ġsluzob": 3129,
      "rovych": 3130,
      "Ġair": 3131,
      "Ġdolezi": 3132,
      "Ġzamietnut": 3133,
      "Ġkontex": 3134,
      "stor": 3135,
      "dumping": 3136,
      "Ġzalobny": 3137,
      "cian": 3138,
      "Ġenergie": 3139,
      "Ġkva": 3140,
      "Ġzasade": 3141,
      "Ġnebolo": 3142,
      "85": 3143,
      "Ġodchy": 3144,
      "Ġvybor": 3145,
      "Ġprijati": 3146,
      "Ġuplatnenie": 3147,
      "Ġoddele": 3148,
      "Ġobje": 3149,
      "Ġpan": 3150,
      "Ġnija": 3151,
      "Ġpreskumat": 3152,
      "Ġargu": 3153,
      "nyl": 3154,
      "cht": 3155,
      "Ġpau": 3156,
      "Ġvyska": 3157,
      "Ġantidumping": 3158,
      "Ġvztahuju": 3159,
      "44": 3160,
      "Î¿Ï": 3161,
      "Ġdefin": 3162,
      "Ġindividua": 3163,
      "Ġstaz": 3164,
      "Ġnajvy": 3165,
      "viek": 3166,
      "spie": 3167,
      "Ġnazoru": 3168,
      "Ġspres": 3169,
      "love": 3170,
      "Ġkredit": 3171,
      "Ġexc": 3172,
      "Ġdoklad": 3173,
      "95": 3174,
      "zd": 3175,
      "Ġspra": 3176,
      "Ġsporu": 3177,
      "sene": 3178,
      "meri": 3179,
      "ujem": 3180,
      "tt": 3181,
      "dlom": 3182,
      "Ġnapr": 3183,
      "Ġprogramu": 3184,
      "Ġneex": 3185,
      "tenie": 3186,
      "Ġdoby": 3187,
      "ribu": 3188,
      "Ġpracovnikov": 3189,
      "Ġaktua": 3190,
      "Ġzavie": 3191,
      "cho": 3192,
      "Ġan": 3193,
      "Ġumoznuje": 3194,
      "Ġnesmie": 3195,
      "Ġodvolacieho": 3196,
      "nictva": 3197,
      "Ġobchodnych": 3198,
      "Ġvybe": 3199,
      "Ġobcian": 3200,
      "Ġsuvisiace": 3201,
      "Ġjasne": 3202,
      "Ġsklad": 3203,
      "Ġnebola": 3204,
      "Ġ1996": 3205,
      "Ġvnutrostatnych": 3206,
      "Ġnapriek": 3207,
      "36": 3208,
      "Ġdatumu": 3209,
      "Ġveciach": 3210,
      "Ġpatri": 3211,
      "Ġuklada": 3212,
      "Ġdruheho": 3213,
      "tit": 3214,
      "Ġcolne": 3215,
      "Ġuviedla": 3216,
      "ien": 3217,
      "atku": 3218,
      "Ġdrzi": 3219,
      "Ġsplnene": 3220,
      "Ġple": 3221,
      "Ġzata": 3222,
      "Ġdoty": 3223,
      "Ġvyzna": 3224,
      "cnym": 3225,
      "Ġpreskumania": 3226,
      "kona": 3227,
      "Ġlehote": 3228,
      "Ġtakej": 3229,
      "Ġdiskrimina": 3230,
      "Ġsucastou": 3231,
      "ss": 3232,
      "Ġtam": 3233,
      "late": 3234,
      "fikacie": 3235,
      "pen": 3236,
      "Ġhydro": 3237,
      "Ġtymito": 3238,
      "Ġpojednavani": 3239,
      "Ġneexist": 3240,
      "Ġtakychto": 3241,
      "Ġpovazova": 3242,
      "Ġmieste": 3243,
      "Ġportugal": 3244,
      "ovanim": 3245,
      "Ġdruh": 3246,
      "ral": 3247,
      "Ġnarok": 3248,
      "Ġvypocita": 3249,
      "Ġpridele": 3250,
      "Ġzmenene": 3251,
      "Ġstarostli": 3252,
      "Ġsva": 3253,
      "28": 3254,
      "Ġriadia": 3255,
      "dil": 3256,
      "Ġcise": 3257,
      "Ġsutaz": 3258,
      "Ġ1995": 3259,
      "pak": 3260,
      "Ġstanovi": 3261,
      "Ġznizenie": 3262,
      "07": 3263,
      "37": 3264,
      "Ġmene": 3265,
      "Ġuskutocne": 3266,
      "Ġucinky": 3267,
      "Ġvyma": 3268,
      "Ġkomunika": 3269,
      "Ġvykladu": 3270,
      "Ġtakeho": 3271,
      "Ġpripust": 3272,
      "Ġhru": 3273,
      "Ġzalobcu": 3274,
      "66": 3275,
      "ding": 3276,
      "Ġvyslovne": 3277,
      "Ġefe": 3278,
      "Â°": 3279,
      "Ġtypu": 3280,
      "one": 3281,
      "tve": 3282,
      "Ġrozdele": 3283,
      "Ġexistuje": 3284,
      "Ġpru": 3285,
      "mor": 3286,
      "Ġmechaniz": 3287,
      "Ġaktu": 3288,
      "jcia": 3289,
      "Ġinstitucii": 3290,
      "Ġrelevantne": 3291,
      "Ġtroch": 3292,
      "Ġvzorky": 3293,
      "gy": 3294,
      "Ġzabezpeci": 3295,
      "Ġadre": 3296,
      "Ġq": 3297,
      "Ġprevod": 3298,
      "Ġinf": 3299,
      "viac": 3300,
      "Ġleg": 3301,
      "sieho": 3302,
      "Ġviacerych": 3303,
      "Ġdohode": 3304,
      "Ġmaji": 3305,
      "Ġregiona": 3306,
      "Ġneod": 3307,
      "Ġinterne": 3308,
      "05": 3309,
      "Ġ1997": 3310,
      "nci": 3311,
      "Ġproble": 3312,
      "Ġpochadza": 3313,
      "rek": 3314,
      "Ġzoznamu": 3315,
      "vku": 3316,
      "Ġsom": 3317,
      "Ġohladom": 3318,
      "Ġsituacie": 3319,
      "Ġuradu": 3320,
      "Ġaktiva": 3321,
      "lar": 3322,
      "Ġnl": 3323,
      "Ġnada": 3324,
      "kovo": 3325,
      "Ġpredstavu": 3326,
      "Ġzmena": 3327,
      "Ġdruhom": 3328,
      "Ġ020": 3329,
      "49": 3330,
      "Ġodovod": 3331,
      "Ġpolitiky": 3332,
      "Ġpotom": 3333,
      "Ġzvierata": 3334,
      "Ð½": 3335,
      "Ġjednotky": 3336,
      "ris": 3337,
      "Ġakt": 3338,
      "Ġvyrobe": 3339,
      "Ġval": 3340,
      "Ġspojeni": 3341,
      "Ġpodana": 3342,
      "Ġtaka": 3343,
      "Ġzalozeny": 3344,
      "Ġcharakteri": 3345,
      "Ġzaver": 3346,
      "Ġpresahu": 3347,
      "Ġvykonavanie": 3348,
      "tove": 3349,
      "lin": 3350,
      "Ġzakladne": 3351,
      "Ġvyhlasenia": 3352,
      "Ġochrane": 3353,
      "Ġpartne": 3354,
      "Ġpoziadaviek": 3355,
      "Ġustanoveniami": 3356,
      "Ġaudi": 3357,
      "Ġrezimu": 3358,
      "Ġhodnotu": 3359,
      "Ġpozo": 3360,
      "Ġobsahujuce": 3361,
      "Ġsubjektov": 3362,
      "Ġramc": 3363,
      "us": 3364,
      "Ġaku": 3365,
      "ki": 3366,
      "roma": 3367,
      "Ġdotknutych": 3368,
      "Ġvlastni": 3369,
      "Ġ115": 3370,
      "que": 3371,
      "Ġser": 3372,
      "Ġtakisto": 3373,
      "czy": 3374,
      "Ġroka": 3375,
      "Ġnaopak": 3376,
      "Ġposkytnute": 3377,
      "Ġpt": 3378,
      "vani": 3379,
      "Ġvodi": 3380,
      "Ġskupina": 3381,
      "Ġmetody": 3382,
      "04": 3383,
      "Ġnajviac": 3384,
      "Ġose": 3385,
      "Ġzdru": 3386,
      "Ġoznacenie": 3387,
      "ten": 3388,
      "xxxx": 3389,
      "Ġdovozne": 3390,
      "Ġ107": 3391,
      "Ġposk": 3392,
      "Ġmy": 3393,
      "Ġvlastnosti": 3394,
      "Ġpovahy": 3395,
      "Ġneme": 3396,
      "pla": 3397,
      "Ġminimalne": 3398,
      "covat": 3399,
      "gna": 3400,
      "Ġtouto": 3401,
      "Ġvyprac": 3402,
      "Ġstanovenej": 3403,
      "Ġorganizacii": 3404,
      "rma": 3405,
      "pusta": 3406,
      "Ġpredava": 3407,
      "Ġpomocou": 3408,
      "Ġdist": 3409,
      "Ġpausa": 3410,
      "Ġnemozu": 3411,
      "Ġano": 3412,
      "Ġbanky": 3413,
      "caj": 3414,
      "Ġvyber": 3415,
      "Ġsto": 3416,
      "Ġvaz": 3417,
      "Ġoznacenia": 3418,
      "Ġmode": 3419,
      "Ġang": 3420,
      "Ġinom": 3421,
      "Ġpredpoklada": 3422,
      "Ġstaveb": 3423,
      "Ġstanovena": 3424,
      "ane": 3425,
      "Ġpristupu": 3426,
      "Ġvyplat": 3427,
      "bie": 3428,
      "nicka": 3429,
      "Ġodpa": 3430,
      "Ġotvo": 3431,
      "nar": 3432,
      "Ġnespravne": 3433,
      "Ġsplnomocneni": 3434,
      "Ġrozhodnutiu": 3435,
      "Ġzru": 3436,
      "Ġodporuca": 3437,
      "Ġpresetrovania": 3438,
      "ceho": 3439,
      "Ġdobu": 3440,
      "Ġ105": 3441,
      "Ġcielov": 3442,
      "Ġznenie": 3443,
      "Ġcharty": 3444,
      "Ġparlament": 3445,
      "Ġpredl": 3446,
      "Ġvelmi": 3447,
      "91": 3448,
      "Ġakekolvek": 3449,
      "06": 3450,
      "Ġinstitucia": 3451,
      "84": 3452,
      "Ġspotrebitel": 3453,
      "Ġposkytovanie": 3454,
      "Ġvypocu": 3455,
      "Ġnena": 3456,
      "Ġdodatoc": 3457,
      "Ġsystemov": 3458,
      "Ġuvod": 3459,
      "ls": 3460,
      "Ġsudnym": 3461,
      "Ġdoplnene": 3462,
      "Ġciastocne": 3463,
      "Ġpriemer": 3464,
      "vneho": 3465,
      "tr": 3466,
      "Ġriad": 3467,
      "Ġtakyto": 3468,
      "Ġobca": 3469,
      "Ġdcer": 3470,
      "sii": 3471,
      "Ġsir": 3472,
      "Ġkov": 3473,
      "Ġmonitor": 3474,
      "mbur": 3475,
      "Ġpobyt": 3476,
      "lah": 3477,
      "Ġrodi": 3478,
      "Ġukaz": 3479,
      "iam": 3480,
      "Ġzavia": 3481,
      "Ġinymi": 3482,
      "Ġspravu": 3483,
      "Ġochranne": 3484,
      "Ġnajne": 3485,
      "Ġprostredia": 3486,
      "ÅĤ": 3487,
      "Ġzalozene": 3488,
      "zeni": 3489,
      "Ġpreukazat": 3490,
      "Ġpoza": 3491,
      "Ġsulad": 3492,
      "Ġinde": 3493,
      "Ġdistribu": 3494,
      "Ġvystup": 3495,
      "Ġvol": 3496,
      "neny": 3497,
      "tro": 3498,
      "Ġnavrhuje": 3499,
      "Ġzriade": 3500,
      "Ġautomati": 3501,
      "Ġdosled": 3502,
      "Ġef": 3503,
      "Ġnapokon": 3504,
      "Ġsup": 3505,
      "Ġvr": 3506,
      "sledy": 3507,
      "Ġnaposledy": 3508,
      "Ġrovno": 3509,
      "Ġspolocenstvo": 3510,
      "Ġbg": 3511,
      "lita": 3512,
      "Ġolej": 3513,
      "Ġuci": 3514,
      "Ġeura": 3515,
      "Ġprijmu": 3516,
      "Ġnajneskor": 3517,
      "dena": 3518,
      "Ġkontrolu": 3519,
      "Ġzaujem": 3520,
      "Ġobmedzenie": 3521,
      "pula": 3522,
      "Ġdel": 3523,
      "Ġziada": 3524,
      "Ġposkytuje": 3525,
      "latu": 3526,
      "Ġpovinna": 3527,
      "ovalo": 3528,
      "Ġprislusnym": 3529,
      "Ġmater": 3530,
      "Ġustale": 3531,
      "Ġinej": 3532,
      "duju": 3533,
      "Ġpostupov": 3534,
      "kazuju": 3535,
      "65": 3536,
      "bar": 3537,
      "Ġcolneho": 3538,
      "Ġzavazky": 3539,
      "Ġcle": 3540,
      "Ġjudikatura": 3541,
      "47": 3542,
      "Ġ207": 3543,
      "tyka": 3544,
      "Ġuzatvo": 3545,
      "viz": 3546,
      "Ġciste": 3547,
      "xa": 3548,
      "id": 3549,
      "Ġspri": 3550,
      "Ġnedosta": 3551,
      "lou": 3552,
      "Ġzelez": 3553,
      "Ġroznych": 3554,
      "Ġpovahu": 3555,
      "Ġvan": 3556,
      "xiste": 3557,
      "Ġciarou": 3558,
      "Ġnebezpe": 3559,
      "Ġil": 3560,
      "Ġzodpovednosti": 3561,
      "Ġpredlozene": 3562,
      "Ġrozp": 3563,
      "Ġsiete": 3564,
      "Ġkry": 3565,
      "rr": 3566,
      "Ġzariadenie": 3567,
      "cnosti": 3568,
      "Ġnevzta": 3569,
      "mou": 3570,
      "Ġdosiahnutie": 3571,
      "Ġvykaz": 3572,
      "Ġdra": 3573,
      "Ġkapitoly": 3574,
      "Ġ030": 3575,
      "03": 3576,
      "Ġuvedenom": 3577,
      "Ġprijmov": 3578,
      "Ġpercen": 3579,
      "Ġrekla": 3580,
      "pred": 3581,
      "Ġkoncentra": 3582,
      "ticke": 3583,
      "Ġverejne": 3584,
      "tovych": 3585,
      "sol": 3586,
      "Ġ500": 3587,
      "Ġjednotlivych": 3588,
      "niku": 3589,
      "Ġrodin": 3590,
      "noprav": 3591,
      "Ġ112": 3592,
      "Ġosobnych": 3593,
      "Ġspojenych": 3594,
      "Ġverejnych": 3595,
      "Ġkvoty": 3596,
      "Î·": 3597,
      "Ġnapadnut": 3598,
      "Ġkole": 3599,
      "ipo": 3600,
      "Ġriaditel": 3601,
      "Ġlehota": 3602,
      "nica": 3603,
      "Ġ300": 3604,
      "Ġpostupom": 3605,
      "Ġsucasti": 3606,
      "Ġzdanitel": 3607,
      "Ġkoor": 3608,
      "Ġsystemy": 3609,
      "Ġspat": 3610,
      "Ġzatial": 3611,
      "Ġas": 3612,
      "Ġcitovanu": 3613,
      "Ġ1992": 3614,
      "Ġkomple": 3615,
      "Ġmetoda": 3616,
      "Ġovplyv": 3617,
      "Ġpredlozit": 3618,
      "Ġzivotneho": 3619,
      "Ġ1993": 3620,
      "Ġneexiste": 3621,
      "Ġnaprav": 3622,
      "Ġver": 3623,
      "Ġpouzitia": 3624,
      "69": 3625,
      "tional": 3626,
      "rium": 3627,
      "Ġcho": 3628,
      "Ġciele": 3629,
      "Ġ102": 3630,
      "Ġplatby": 3631,
      "Ġoby": 3632,
      "32": 3633,
      "Ġverejnosti": 3634,
      "Ġzaznamena": 3635,
      "Ġgr": 3636,
      "Ġnebu": 3637,
      "skymi": 3638,
      "Ġvymen": 3639,
      "mber": 3640,
      "Ïĥ": 3641,
      "kovu": 3642,
      "Ġtva": 3643,
      "per": 3644,
      "Ġprotokolu": 3645,
      "vit": 3646,
      "Ġpouzite": 3647,
      "riz": 3648,
      "Ġktoremu": 3649,
      "Ġciast": 3650,
      "Ġuchadza": 3651,
      "Ġinym": 3652,
      "ÑĢ": 3653,
      "Ġsti": 3654,
      "Ġaf": 3655,
      "puste": 3656,
      "Ġkazdej": 3657,
      "Ġav": 3658,
      "88": 3659,
      "Ġdopravy": 3660,
      "Ġsvet": 3661,
      "41": 3662,
      "Ġmadar": 3663,
      "Ġdotyczy": 3664,
      "Ġinfra": 3665,
      "Ġmohlo": 3666,
      "Ġotazke": 3667,
      "Ġuhra": 3668,
      "covanie": 3669,
      "nkaj": 3670,
      "lnou": 3671,
      "kaze": 3672,
      "Ġtka": 3673,
      "Ġvonkaj": 3674,
      "62": 3675,
      "Ġkre": 3676,
      "ovacie": 3677,
      "Ġprakti": 3678,
      "Ġluxe": 3679,
      "Ġzaobchadzania": 3680,
      "Ġeuipo": 3681,
      "Ġvyplyvaju": 3682,
      "Ġochrana": 3683,
      "Ġtext": 3684,
      "Ġzmenit": 3685,
      "vkov": 3686,
      "75": 3687,
      "Ġsposobe": 3688,
      "Ġdruha": 3689,
      "Ġmeno": 3690,
      "Ġml": 3691,
      "Ġpododsek": 3692,
      "Ġspociva": 3693,
      "Ġsumu": 3694,
      "Ġakej": 3695,
      "Ġpredklada": 3696,
      "Ġtro": 3697,
      "Ġspristup": 3698,
      "Ġosobam": 3699,
      "Ġrokovacieho": 3700,
      "Ġdk": 3701,
      "Ġapr": 3702,
      "Ġnemu": 3703,
      "Ġprp": 3704,
      "Ġnevztahu": 3705,
      "Ġdohladu": 3706,
      "Ġkance": 3707,
      "Ġnadalej": 3708,
      "torov": 3709,
      "Ġpovinne": 3710,
      "Ġdokumenty": 3711,
      "mati": 3712,
      "ruje": 3713,
      "city": 3714,
      "Ġpokry": 3715,
      "Ġpas": 3716,
      "Ġkrmi": 3717,
      "slu": 3718,
      "Ġplnenia": 3719,
      "Ġlegis": 3720,
      "Ġriadenia": 3721,
      "mbh": 3722,
      "Ġnehnutel": 3723,
      "Ġkli": 3724,
      "Ġklu": 3725,
      "Ġuplatnenia": 3726,
      "hliad": 3727,
      "Ġee": 3728,
      "Ġtrova": 3729,
      "rent": 3730,
      "Ġprva": 3731,
      "deny": 3732,
      "Ġprislu": 3733,
      "ski": 3734,
      "setrova": 3735,
      "atia": 3736,
      "Ġzaklada": 3737,
      "Ġdotknuteho": 3738,
      "Ġopravnene": 3739,
      "Ġsve": 3740,
      "Ġ103": 3741,
      "Ġzmien": 3742,
      "Ġdodatocne": 3743,
      "Ġspolocneho": 3744,
      "Ġcharakter": 3745,
      "kovat": 3746,
      "hoch": 3747,
      "Ġgmbh": 3748,
      "Ġeurope": 3749,
      "Ġrozvoj": 3750,
      "Ġsamostatne": 3751,
      "Ġzodpovednost": 3752,
      "Ġpozem": 3753,
      "Ġnazor": 3754,
      "Ġprogram": 3755,
      "Ġclo": 3756,
      "Ġzasie": 3757,
      "Ġdopusti": 3758,
      "nizova": 3759,
      "Ġupravu": 3760,
      "Ġzmluvne": 3761,
      "Ġroky": 3762,
      "Ġrezim": 3763,
      "Ġobmedzi": 3764,
      "Ġslobod": 3765,
      "Ġ108": 3766,
      "46": 3767,
      "tickych": 3768,
      "Ġameri": 3769,
      "lenie": 3770,
      "Ġpoznamena": 3771,
      "Ġlegislati": 3772,
      "Ġnakup": 3773,
      "Ġgro": 3774,
      "Ġzmesi": 3775,
      "logicky": 3776,
      "Ġnormy": 3777,
      "lezitosti": 3778,
      "Ġcn": 3779,
      "Ġtriedy": 3780,
      "chi": 3781,
      "vla": 3782,
      "71": 3783,
      "nutom": 3784,
      "Ġuzemia": 3785,
      "Ġakym": 3786,
      "Ġben": 3787,
      "Ġac": 3788,
      "Ġzeme": 3789,
      "Ġdvorom": 3790,
      "Ġspracovanie": 3791,
      "Ġprevadzky": 3792,
      "Ġpote": 3793,
      "Ġucast": 3794,
      "Ġucasti": 3795,
      "Ġviest": 3796,
      "Ġporu": 3797,
      "grafi": 3798,
      "ĠâĢ²": 3799,
      "rid": 3800,
      "Ġskusob": 3801,
      "55": 3802,
      "Ġucinok": 3803,
      "Ġuvedenymi": 3804,
      "98": 3805,
      "Ġcestu": 3806,
      "Ġvyplyvajuce": 3807,
      "Ġkvalifikova": 3808,
      "Ġvydanie": 3809,
      "Ġizo": 3810,
      "Ġvynimky": 3811,
      "Ġnim": 3812,
      "vice": 3813,
      "Ġstroje": 3814,
      "Ġchlo": 3815,
      "Ġpoznamke": 3816,
      "Ġcharakteristi": 3817,
      "ana": 3818,
      "Ġspis": 3819,
      "ĠÂ°": 3820,
      "Ġvyrobca": 3821,
      "Ġustanovuju": 3822,
      "Ġenerge": 3823,
      "zda": 3824,
      "Ġustred": 3825,
      "nnych": 3826,
      "Ġpolo": 3827,
      "Ġvacsi": 3828,
      "Ġpravide": 3829,
      "tami": 3830,
      "inte": 3831,
      "Ġhranic": 3832,
      "venc": 3833,
      "vatela": 3834,
      "Ġfin": 3835,
      "Ġmt": 3836,
      "Ġpostavenie": 3837,
      "Ġspoluprace": 3838,
      "Ġodvetvi": 3839,
      "Ġzz": 3840,
      "nes": 3841,
      "Ġsoli": 3842,
      "Ġpouzivat": 3843,
      "Ġfrancuzsko": 3844,
      "Ġvyho": 3845,
      "Ġcar": 3846,
      "Ġprekaz": 3847,
      "Ġstrate": 3848,
      "Ġosi": 3849,
      "obra": 3850,
      "Ġriadne": 3851,
      "vost": 3852,
      "Ġzaujmu": 3853,
      "Ġgh": 3854,
      "Ġcyk": 3855,
      "Ġzahranic": 3856,
      "Ġvybra": 3857,
      "Ġmanze": 3858,
      "Ġias": 3859,
      "Ġdotknuta": 3860,
      "Ġdotknuty": 3861,
      "Ġhr": 3862,
      "Ġobjem": 3863,
      "Ġpredtym": 3864,
      "nami": 3865,
      "terna": 3866,
      "porciona": 3867,
      "Ġmen": 3868,
      "Ġspravodli": 3869,
      "Ġole": 3870,
      "haj": 3871,
      "Ġvnutrostatnej": 3872,
      "Ġlegi": 3873,
      "09": 3874,
      "Ġkrat": 3875,
      "Ġnovych": 3876,
      "Ġslobody": 3877,
      "Ġdalsi": 3878,
      "Ġsubjektu": 3879,
      "67": 3880,
      "Ġurcenych": 3881,
      "her": 3882,
      "chova": 3883,
      "Ġpredstavuju": 3884,
      "tvara": 3885,
      "ktom": 3886,
      "lovane": 3887,
      "Ġpovodom": 3888,
      "Ġpoistenia": 3889,
      "kcie": 3890,
      "Ġ5493": 3891,
      "Ġziadatel": 3892,
      "Ġzdroje": 3893,
      "fikovane": 3894,
      "Ġnastroje": 3895,
      "Ġzneuzi": 3896,
      "Ġtechnickych": 3897,
      "Ġznasa": 3898,
      "ier": 3899,
      "skemu": 3900,
      "vadza": 3901,
      "ÑĤ": 3902,
      "Ġzeleznic": 3903,
      "Ġbr": 3904,
      "Ġtajom": 3905,
      "Ġosobe": 3906,
      "klatu": 3907,
      "Ġrezer": 3908,
      "menklatu": 3909,
      "Ġvyni": 3910,
      "Ġcerpa": 3911,
      "Ġsr": 3912,
      "Ġpribli": 3913,
      "Ġsamostat": 3914,
      "Ġnomenklatu": 3915,
      "Ġuzemie": 3916,
      "Ġpotencia": 3917,
      "zni": 3918,
      "Ġukazov": 3919,
      "niach": 3920,
      "Ġdotknutej": 3921,
      "Ġpozor": 3922,
      "Ġinfrastruktu": 3923,
      "Ġplan": 3924,
      "Ġodovodnene": 3925,
      "Ġpouzivania": 3926,
      "Ġucinne": 3927,
      "Ġskuma": 3928,
      "Ġpredpisu": 3929,
      "lika": 3930,
      "Ġprijatie": 3931,
      "Ġsituaciu": 3932,
      "Ġtermi": 3933,
      "es": 3934,
      "Ġstanovenie": 3935,
      "mok": 3936,
      "Ġrozlis": 3937,
      "rena": 3938,
      "Ġspolocenstve": 3939,
      "kro": 3940,
      "Ġfil": 3941,
      "Ġkriterii": 3942,
      "Ġfunkcie": 3943,
      "Ġprotiprav": 3944,
      "Ġstupen": 3945,
      "Ġmg": 3946,
      "Ġdokon": 3947,
      "Ġcz": 3948,
      "58": 3949,
      "Ġnebol": 3950,
      "Ġzavazkov": 3951,
      "Ġuspo": 3952,
      "Ġvypocet": 3953,
      "Ġexe": 3954,
      "caka": 3955,
      "Ġstret": 3956,
      "Ġrozhodne": 3957,
      "Ġmeta": 3958,
      "Ġ549300": 3959,
      "Ġosobitnych": 3960,
      "ticky": 3961,
      "Ġposkytnutie": 3962,
      "Ġplatnost": 3963,
      "Ġiso": 3964,
      "Ġdia": 3965,
      "Ġdre": 3966,
      "Ġsposobilosti": 3967,
      "Ġprena": 3968,
      "Ġleti": 3969,
      "Ġkralovstva": 3970,
      "Ġdokumenta": 3971,
      "Ġpisme": 3972,
      "Ġschvalenie": 3973,
      "Ġsporne": 3974,
      "Ġpodat": 3975,
      "Ġpoky": 3976,
      "Ġosobne": 3977,
      "Ġume": 3978,
      "Ġisteho": 3979,
      "Ġtovarov": 3980,
      "Ġinterna": 3981,
      "Ġjednodu": 3982,
      "gh": 3983,
      "lok": 3984,
      "din": 3985,
      "Ġok": 3986,
      "ckou": 3987,
      "Ġoddiel": 3988,
      "Ġexistenciu": 3989,
      "Ġcp": 3990,
      "Ġproporciona": 3991,
      "Ġstavu": 3992,
      "Ġelektronicke": 3993,
      "Ġprepoje": 3994,
      "Ġdavky": 3995,
      "Ġzdravia": 3996,
      "Ġzivoci": 3997,
      "zin": 3998,
      "Ġurovne": 3999,
      "Ġpracovnych": 4000,
      "Ġpodpory": 4001,
      "Ġustanovuje": 4002,
      "Ġot": 4003,
      "Ġdumping": 4004,
      "Ġtaliansko": 4005,
      "Ġcestov": 4006,
      "Ġnahrad": 4007,
      "Ġsadzby": 4008,
      "Ġosvedcenia": 4009,
      "Ġzasadu": 4010,
      "Ġplynov": 4011,
      "Ġprijatia": 4012,
      "niky": 4013,
      "Ġzamietol": 4014,
      "Ġkancela": 4015,
      "denych": 4016,
      "Ġskusky": 4017,
      "Ġexistu": 4018,
      "Ġvysledky": 4019,
      "Ġzemepis": 4020,
      "Ġziskat": 4021,
      "Ġfran": 4022,
      "nal": 4023,
      "Ġpenaz": 4024,
      "Ġobchodne": 4025,
      "Ġkonecne": 4026,
      "Ġluxembur": 4027,
      "Ġdanej": 4028,
      "Ġdolezite": 4029,
      "har": 4030,
      "Ġadres": 4031,
      "Ġocele": 4032,
      "Ġdaneho": 4033,
      "Ġcm": 4034,
      "Ġdro": 4035,
      "Ġjednotka": 4036,
      "Ġ106": 4037,
      "Ġodli": 4038,
      "Ġdokumentov": 4039,
      "kej": 4040,
      "Ġvedu": 4041,
      "Ġsocialneho": 4042,
      "rca": 4043,
      "Ġspotrebitelov": 4044,
      "cko": 4045,
      "Ġsurov": 4046,
      "Ġporusi": 4047,
      "Ġdokazov": 4048,
      "Ġzasla": 4049,
      "Ġzar": 4050,
      "chop": 4051,
      "Ġniekol": 4052,
      "der": 4053,
      "Ġkvot": 4054,
      "Ġvii": 4055,
      "Ġpreve": 4056,
      "zen": 4057,
      "Ġobsia": 4058,
      "Ġlv": 4059,
      "Ġpresne": 4060,
      "Ġvyrok": 4061,
      "nec": 4062,
      "Ñģ": 4063,
      "Ġcukru": 4064,
      "Ġzapo": 4065,
      "Ġuznesenie": 4066,
      "Ġefektiv": 4067,
      "Ġzrusil": 4068,
      "Ġzavislosti": 4069,
      "Ġresp": 4070,
      "odaj": 4071,
      "laca": 4072,
      "Ġvolne": 4073,
      "lle": 4074,
      "Ġnespravneho": 4075,
      "54": 4076,
      "Ġvykonanie": 4077,
      "Ġvyrobcovia": 4078,
      "Ġalterna": 4079,
      "riad": 4080,
      "Ġrestri": 4081,
      "Ġkombin": 4082,
      "Ġvyrovna": 4083,
      "Ġnizsou": 4084,
      "Ġpouzitych": 4085,
      "Ġinspek": 4086,
      "Ġrepre": 4087,
      "Ġlekar": 4088,
      "Ġoxi": 4089,
      "200": 4090,
      "Ġprieme": 4091,
      "Ġstandard": 4092,
      "Ġposudit": 4093,
      "Ġvlakien": 4094,
      "64": 4095,
      "rovane": 4096,
      "rato": 4097,
      "pone": 4098,
      "Ġrybar": 4099,
      "Ġtypove": 4100,
      "Ġpocita": 4101,
      "Ġmotor": 4102,
      "noch": 4103,
      "ÏĢ": 4104,
      "Ġvply": 4105,
      "hat": 4106,
      "Ġye": 4107,
      "Ġinc": 4108,
      "Ġvydane": 4109,
      "Ġ1510": 4110,
      "nujuce": 4111,
      "Ġkrajine": 4112,
      "Ġzaobchadzanie": 4113,
      "rin": 4114,
      "sneho": 4115,
      "Ġrepublike": 4116,
      "ili": 4117,
      "Ġpohybu": 4118,
      "Ġustalenej": 4119,
      "Ġzalozeni": 4120,
      "Ġzmenu": 4121,
      "Ġfaktu": 4122,
      "hne": 4123,
      "Ġmetyl": 4124,
      "lnenie": 4125,
      "Ġkonkure": 4126,
      "Ġprislusnej": 4127,
      "Ġchrane": 4128,
      "lozene": 4129,
      "Ġpriestor": 4130,
      "Ġed": 4131,
      "vyk": 4132,
      "Ġodov": 4133,
      "lovanie": 4134,
      "Ġsuvisiacich": 4135,
      "zent": 4136,
      "Ġodpoved": 4137,
      "Ġzatrie": 4138,
      "Ġkazda": 4139,
      "Ġclankoch": 4140,
      "Ġvyrobcu": 4141,
      "Ġsidlom": 4142,
      "Ġnepripust": 4143,
      "Ġzaroven": 4144,
      "jucou": 4145,
      "Ġhodin": 4146,
      "Ġcou": 4147,
      "Ġpome": 4148,
      "Ġkategorii": 4149,
      "Ġpisomne": 4150,
      "vol": 4151,
      "Ġkontrola": 4152,
      "th": 4153,
      "os": 4154,
      "Ġsg": 4155,
      "Ġzalobe": 4156,
      "Ġsektora": 4157,
      "57": 4158,
      "tar": 4159,
      "Ġdalsich": 4160,
      "Ġodpocita": 4161,
      "Ġprvky": 4162,
      "Ġenvi": 4163,
      "ciam": 4164,
      "interes": 4165,
      "Ġ120": 4166,
      "Ġadministrativ": 4167,
      "zuje": 4168,
      "senim": 4169,
      "Ġzainteres": 4170,
      "Ġprep": 4171,
      "Ġprejudicialne": 4172,
      "Ġpodnikom": 4173,
      "Ġnehnutelnosti": 4174,
      "Ġzastupca": 4175,
      "43": 4176,
      "Ġveteri": 4177,
      "Ġustanovene": 4178,
      "Ġkarte": 4179,
      "Ġpride": 4180,
      "Ġseku": 4181,
      "Ġhol": 4182,
      "Ġrovnocen": 4183,
      "Ġvykonavaju": 4184,
      "Ġmili": 4185,
      "Ġuvadzaju": 4186,
      "Ġprislusnikov": 4187,
      "gia": 4188,
      "Ġkontrol": 4189,
      "Ġplynu": 4190,
      "Ġpovodne": 4191,
      "Ġspravodaj": 4192,
      "Ġodkazuje": 4193,
      "strov": 4194,
      "moch": 4195,
      "Ġzaca": 4196,
      "Ġzivotne": 4197,
      "82": 4198,
      "Ġnielen": 4199,
      "Ġmaterialy": 4200,
      "lovania": 4201,
      "Ġpochyb": 4202,
      "Ġocaka": 4203,
      "val": 4204,
      "geri": 4205,
      "Ġdostatoc": 4206,
      "Ġuverejneni": 4207,
      "Ġochrannych": 4208,
      "63": 4209,
      "sledok": 4210,
      "Ġregio": 4211,
      "59": 4212,
      "Ġkonzulta": 4213,
      "ovu": 4214,
      "Ġnepod": 4215,
      "Ġ2022": 4216,
      "cc": 4217,
      "kor": 4218,
      "Ġosobu": 4219,
      "Ġpoznamka": 4220,
      "Ġpriamy": 4221,
      "53": 4222,
      "Ġdata": 4223,
      "81": 4224,
      "Ġujmy": 4225,
      "Ġakty": 4226,
      "Ġpoziadavkami": 4227,
      "Ġnadobudnutia": 4228,
      "Ġodlis": 4229,
      "Ġtransakcie": 4230,
      "Ġvzdu": 4231,
      "Ġuvedenu": 4232,
      "Ġupravene": 4233,
      "Ġkedy": 4234,
      "Ġvykonavacieho": 4235,
      "Ġpremie": 4236,
      "ted": 4237,
      "ds": 4238,
      "zaj": 4239,
      "Ġkriz": 4240,
      "Ġrozne": 4241,
      "Ġponuka": 4242,
      "Ġspro": 4243,
      "Ġspanielsko": 4244,
      "Ġderi": 4245,
      "Ġsvojim": 4246,
      "ativne": 4247,
      "Ġvyvoj": 4248,
      "Ġemisii": 4249,
      "Ġpripoje": 4250,
      "Ġvypoctu": 4251,
      "pli": 4252,
      "ril": 4253,
      "Ġstatnych": 4254,
      "Ġvykonavania": 4255,
      "chadzat": 4256,
      "Ġexistuju": 4257,
      "Ġvydavky": 4258,
      "Ġprislusnymi": 4259,
      "Ġkalen": 4260,
      "obchod": 4261,
      "Ġagentura": 4262,
      "necha": 4263,
      "Ġposkytovania": 4264,
      "ĠÎ¼": 4265,
      "Ġkompone": 4266,
      "Ġpovazuju": 4267,
      "rg": 4268,
      "Ġpredpismi": 4269,
      "Ġnimi": 4270,
      "Ġstlp": 4271,
      "Ġkonstru": 4272,
      "Ġhospodarskeho": 4273,
      "Ġhospodarsku": 4274,
      "Ġtakom": 4275,
      "Ġkapitalu": 4276,
      "Ġobstarav": 4277,
      "Ġgeo": 4278,
      "Ġklad": 4279,
      "Ġzlucitel": 4280,
      "Ġtykajucej": 4281,
      "atelne": 4282,
      "Ġsenat": 4283,
      "Ġplatne": 4284,
      "Ġpristroje": 4285,
      "Ġzaujmov": 4286,
      "Ġfinancneho": 4287,
      "Ġpolnohospodarskych": 4288,
      "Ġprenos": 4289,
      "riem": 4290,
      "Ġfinancnej": 4291,
      "Ġstraty": 4292,
      "Ġpoukaz": 4293,
      "Ġtakehoto": 4294,
      "Ġmaximalne": 4295,
      "Ġvyvod": 4296,
      "Ġpredmetne": 4297,
      "Î»": 4298,
      "Ġmajetok": 4299,
      "Ġnemaju": 4300,
      "zat": 4301,
      "52": 4302,
      "Ġpodala": 4303,
      "61": 4304,
      "Ġgre": 4305,
      "sse": 4306,
      "Ġdocasne": 4307,
      "Ġima": 4308,
      "vane": 4309,
      "Ġvyraz": 4310,
      "obu": 4311,
      "Ġpovr": 4312,
      "87": 4313,
      "Ġneuplat": 4314,
      "Ġzaraz": 4315,
      "ml": 4316,
      "jciar": 4317,
      "Ġodpovede": 4318,
      "Ġsluzbu": 4319,
      "ila": 4320,
      "Ġel": 4321,
      "Ġsluzobneho": 4322,
      "Ġpredchadzajuce": 4323,
      "rre": 4324,
      "Ġpohladav": 4325,
      "Ġvyrobneho": 4326,
      "Ġkoordina": 4327,
      "Ġvedie": 4328,
      "Ġdoj": 4329,
      "brani": 4330,
      "Ġ}": 4331,
      "Ġkontexte": 4332,
      "Ġzamera": 4333,
      "Ġneg": 4334,
      "42": 4335,
      "Ġohro": 4336,
      "Ġpriprave": 4337,
      "Ġvolneho": 4338,
      "Ġnesta": 4339,
      "Ġvyrobne": 4340,
      "kosti": 4341,
      "Ġnevztahuje": 4342,
      "Ġmax": 4343,
      "Ġsvajciar": 4344,
      "Ġposkode": 4345,
      "Ġ{": 4346,
      "Ġanalyzy": 4347,
      "Ġstabi": 4348,
      "tovej": 4349,
      "Ġpojmu": 4350,
      "Ġzvo": 4351,
      "Ġtrovach": 4352,
      "Ġ070": 4353,
      "Ġkoe": 4354,
      "Ġodvetvie": 4355,
      "Ġpripravky": 4356,
      "cte": 4357,
      "Ġpoctu": 4358,
      "Ġpravnu": 4359,
      "Ġzvysenie": 4360,
      "ficie": 4361,
      "stej": 4362,
      "ld": 4363,
      "Ġpyta": 4364,
      "Ġvnutorneho": 4365,
      "Ġpredpoklad": 4366,
      "Ġyear": 4367,
      "Ġposudz": 4368,
      "Ġchce": 4369,
      "Ġsituacia": 4370,
      "Ġenviron": 4371,
      "Ġzosta": 4372,
      "ujuci": 4373,
      "Ġpripadu": 4374,
      "Ġvyhlasil": 4375,
      "Ġpohyb": 4376,
      "las": 4377,
      "Ġnalezi": 4378,
      "Ġghs": 4379,
      "Ġlegitim": 4380,
      "Ġtakato": 4381,
      "Ġecb": 4382,
      "Ġokolnost": 4383,
      "Ġneho": 4384,
      "vode": 4385,
      "Ġbul": 4386,
      "51": 4387,
      "Ġnesu": 4388,
      "vid": 4389,
      "Ġkomory": 4390,
      "Ġosvedcenie": 4391,
      "Ġcasu": 4392,
      "Ġsysteme": 4393,
      "Ġkompen": 4394,
      "Ġimo": 4395,
      "Ġvysiela": 4396,
      "Ġpoziadavka": 4397,
      "Ġzlep": 4398,
      "Ġfungovani": 4399,
      "Ġumoznit": 4400,
      "Ġzakazu": 4401,
      "Ġtribu": 4402,
      "Ġnedostat": 4403,
      "Ġnarodnej": 4404,
      "Ġae": 4405,
      "zb": 4406,
      "Ġodpovedat": 4407,
      "Ġpozostava": 4408,
      "lozky": 4409,
      "Ġhor": 4410,
      "Ġinteg": 4411,
      "Ġsenatu": 4412,
      "Ġdodrza": 4413,
      "Ġsporneho": 4414,
      "Ġzamieta": 4415,
      "Ġ400": 4416,
      "krat": 4417,
      "sli": 4418,
      "produ": 4419,
      "Ġziadny": 4420,
      "lka": 4421,
      "Îº": 4422,
      "Ġsprostred": 4423,
      "Ġryb": 4424,
      "jucom": 4425,
      "Ġneobsahu": 4426,
      "Ġprostredie": 4427,
      "Ġzaruky": 4428,
      "Ġzaiste": 4429,
      "Ġuzem": 4430,
      "Ġodovzda": 4431,
      "Ġzalobcovia": 4432,
      "Ġzaznam": 4433,
      "Ġjednotlive": 4434,
      "Ġbri": 4435,
      "Ġziskane": 4436,
      "sok": 4437,
      "Ġkoncent": 4438,
      "Ġcertifi": 4439,
      "Ġinformu": 4440,
      "Ġtakze": 4441,
      "Ġargumenta": 4442,
      "Ġunia": 4443,
      "Ġgo": 4444,
      "Ġisto": 4445,
      "Ġmr": 4446,
      "Ġriesenie": 4447,
      "Ġakeho": 4448,
      "Ġposudeni": 4449,
      "kazova": 4450,
      "Ġcpa": 4451,
      "Ġ150": 4452,
      "lizacie": 4453,
      "Ġciela": 4454,
      "Ġvina": 4455,
      "jektom": 4456,
      "Ġ109": 4457,
      "Ġzacati": 4458,
      "Ġobstaravania": 4459,
      "rky": 4460,
      "atelovi": 4461,
      "Ġlietadla": 4462,
      "Ġwa": 4463,
      "Ġkapitole": 4464,
      "anie": 4465,
      "Ġsektore": 4466,
      "Ġdlhod": 4467,
      "nca": 4468,
      "Ġobvyk": 4469,
      "Ġvozidlo": 4470,
      "ceny": 4471,
      "Ġpouzitim": 4472,
      "Ġzdravie": 4473,
      "jucu": 4474,
      "cs": 4475,
      "Ġcelkove": 4476,
      "Ġudajne": 4477,
      "Ġjp": 4478,
      "koho": 4479,
      "Ġtranspa": 4480,
      "Ġpotravina": 4481,
      "snych": 4482,
      "Ġakych": 4483,
      "Ġpopula": 4484,
      "Ġsla": 4485,
      "Ġkazdu": 4486,
      "Ġvoda": 4487,
      "Ġznize": 4488,
      "Ġopatreniach": 4489,
      "Ġnom": 4490,
      "Ġpovoleni": 4491,
      "Ġpredlozili": 4492,
      "Ġdvoj": 4493,
      "Ġtretia": 4494,
      "89": 4495,
      "dera": 4496,
      "Ġzosu": 4497,
      "Ġsiro": 4498,
      "Ġhova": 4499,
      "Ġkonstatoval": 4500,
      "Ġprov": 4501,
      "Ġzmluvnych": 4502,
      "Ġjedna": 4503,
      "Ġton": 4504,
      "Ġsucasne": 4505,
      "ovaniu": 4506,
      "Ġobchodu": 4507,
      "Ġmaterialu": 4508,
      "Ġ1991": 4509,
      "Ġsadzba": 4510,
      "Ġmoj": 4511,
      "Ġprvu": 4512,
      "Ġprispie": 4513,
      "Ġspotrebitela": 4514,
      "Ġkalendar": 4515,
      "Ġvedlajsi": 4516,
      "Ġvzoriek": 4517,
      "Ġoznameni": 4518,
      "Ġneoprav": 4519,
      "Ġspecificke": 4520,
      "Ġpravnymi": 4521,
      "wi": 4522,
      "ravou": 4523,
      "Ġrestriktiv": 4524,
      "Ġkombina": 4525,
      "Ġadresa": 4526,
      "Ġgroup": 4527,
      "mun": 4528,
      "Ġuverove": 4529,
      "Ġobil": 4530,
      "Ġprofe": 4531,
      "Ġobsahovat": 4532,
      "rba": 4533,
      "Ġnas": 4534,
      "sobou": 4535,
      "Ġlebo": 4536,
      "Ġneprimera": 4537,
      "viden": 4538,
      "Ġschvalenia": 4539,
      "Ġkyselina": 4540,
      "posob": 4541,
      "Ġopatovne": 4542,
      "Ġplnenie": 4543,
      "Ġnastrojov": 4544,
      "Ġnazvom": 4545,
      "Ġspojeneho": 4546,
      "Ġdanom": 4547,
      "Ġfondu": 4548,
      "nge": 4549,
      "Ġjo": 4550,
      "Ġpate": 4551,
      "Ġpouzivaju": 4552,
      "nin": 4553,
      "cimi": 4554,
      "lky": 4555,
      "Ġlikvi": 4556,
      "denim": 4557,
      "Ġder": 4558,
      "tory": 4559,
      "Ġpracovneho": 4560,
      "Ġprisposob": 4561,
      "Ġpoznamky": 4562,
      "Ġlist": 4563,
      "atich": 4564,
      "inu": 4565,
      "Ġcerstve": 4566,
      "Ġodna": 4567,
      "Ġkategoria": 4568,
      "Ġakejkolvek": 4569,
      "Ġlatka": 4570,
      "Ġzaplatit": 4571,
      "Ġveri": 4572,
      "Ġosobou": 4573,
      "Ġnizsie": 4574,
      "dila": 4575,
      "Ġspolocny": 4576,
      "Ġinsta": 4577,
      "Î¼": 4578,
      "Ġzaci": 4579,
      "Ġotazkou": 4580,
      "Ġam": 4581,
      "Ġmana": 4582,
      "Ġvyraba": 4583,
      "100": 4584,
      "Ġpripadov": 4585,
      "Ġpriblizne": 4586,
      "Ġvseobecnym": 4587,
      "Ġspolupracu": 4588,
      "Ġznenia": 4589,
      "ntu": 4590,
      "Ġprogramov": 4591,
      "Ġorganizacia": 4592,
      "rok": 4593,
      "Ġkoeficie": 4594,
      "ckymi": 4595,
      "Ġ138": 4596,
      "Ġspp": 4597,
      "dal": 4598,
      "Ġcenu": 4599,
      "lovat": 4600,
      "Ġneexistuje": 4601,
      "mino": 4602,
      "Ġvykone": 4603,
      "Ġucelom": 4604,
      "reny": 4605,
      "Ġobmed": 4606,
      "Ġbodov": 4607,
      "Ġobja": 4608,
      "Ġpolozka": 4609,
      "Ġakehokolvek": 4610,
      "Ġpracovne": 4611,
      "Ġponuky": 4612,
      "lon": 4613,
      "znosti": 4614,
      "Ġhk": 4615,
      "Ġporovnani": 4616,
      "Ġneuverej": 4617,
      "Ġ050": 4618,
      "Ġlabo": 4619,
      "Ġnajvys": 4620,
      "tla": 4621,
      "Ġ210": 4622,
      "Ġharmoniza": 4623,
      "Ġkonci": 4624,
      "Ġnut": 4625,
      "Ġspravneho": 4626,
      "Ġoslobodenie": 4627,
      "Ġzalobneho": 4628,
      "Ġcolny": 4629,
      "Ġenvironmenta": 4630,
      "Ġnavrhnute": 4631,
      "jed": 4632,
      "Ġpodmienkou": 4633,
      "Ġtrvania": 4634,
      "Ġstarostlivosti": 4635,
      "Ġhodnotou": 4636,
      "mus": 4637,
      "kamzi": 4638,
      "Ġvydavkov": 4639,
      "Ġindex": 4640,
      "Ġokamzi": 4641,
      "Ġklie": 4642,
      "Ġbank": 4643,
      "Ġviaza": 4644,
      "min": 4645,
      "Ġkvalifika": 4646,
      "ngen": 4647,
      "Ġverejnom": 4648,
      "Ġneplatnost": 4649,
      "Ð»": 4650,
      "Ġcest": 4651,
      "strova": 4652,
      "Ġdeti": 4653,
      "Ġdovolen": 4654,
      "Ġrs": 4655,
      "Ġtakejto": 4656,
      "Ġvysledok": 4657,
      "zal": 4658,
      "Ġmedi": 4659,
      "Ġtabulka": 4660,
      "Ġzmluve": 4661,
      "lovych": 4662,
      "Ġmaterial": 4663,
      "Ġprijatych": 4664,
      "Ġpodany": 4665,
      "Ġponuk": 4666,
      "Ġposti": 4667,
      "lenia": 4668,
      "Ġodvolania": 4669,
      "hovor": 4670,
      "Ġrumun": 4671,
      "Ġovocia": 4672,
      "Ġrozli": 4673,
      "Ġhospodarsky": 4674,
      "Ïī": 4675,
      "Ġobraz": 4676,
      "Ġpredbezne": 4677,
      "Ġzalovana": 4678,
      "92": 4679,
      "tora": 4680,
      "Ġvta": 4681,
      "Ġznie": 4682,
      "Ġurceny": 4683,
      "Ġina": 4684,
      "Ġnebude": 4685,
      "Ġhospodarskych": 4686,
      "Ġzrusit": 4687,
      "Ġuhli": 4688,
      "Ġoverit": 4689,
      "Ð²": 4690,
      "Ġusu": 4691,
      "Ġurob": 4692,
      "Ġ127": 4693,
      "Ġradi": 4694,
      "iera": 4695,
      "nikmi": 4696,
      "nima": 4697,
      "Ġurcitu": 4698,
      "Ġoddiele": 4699,
      "Ġmetod": 4700,
      "Ġinternational": 4701,
      "Ġexistencie": 4702,
      "Ġuplatnovani": 4703,
      "Ġnapadnutom": 4704,
      "Ġlicencie": 4705,
      "Ġstanoveny": 4706,
      "Ġ117": 4707,
      "Ġfrek": 4708,
      "ks": 4709,
      "Ġpriame": 4710,
      "Ġkriterium": 4711,
      "Ġ118": 4712,
      "Ġpozadovane": 4713,
      "Ġpoplatkov": 4714,
      "Ġzazna": 4715,
      "Ġriadenie": 4716,
      "Ġproporcionality": 4717,
      "Ġnezakon": 4718,
      "Ġposkytovat": 4719,
      "niec": 4720,
      "Ġkoz": 4721,
      "Ġzakonom": 4722,
      "48": 4723,
      "Ġtovary": 4724,
      "Ġodme": 4725,
      "lizaciu": 4726,
      "Ġprijme": 4727,
      "Ġzrusuje": 4728,
      "Ġprispevok": 4729,
      "Ġmikro": 4730,
      "Ġzaplate": 4731,
      "Ġpobytu": 4732,
      "Ġdy": 4733,
      "Ġspl": 4734,
      "Ġposkytovatel": 4735,
      "Ġkomplex": 4736,
      "Ġkata": 4737,
      "Ġtaku": 4738,
      "Ġcelkova": 4739,
      "Ġpalu": 4740,
      "Ġtykajuceho": 4741,
      "Ġ250": 4742,
      "ĠÃ": 4743,
      "Ġpoloziek": 4744,
      "Ġziadna": 4745,
      "tene": 4746,
      "Ġnasledujuce": 4747,
      "Ġulohy": 4748,
      "Ġhodnotenia": 4749,
      "Ġanalyza": 4750,
      "Ġkm": 4751,
      "Ġoznaceni": 4752,
      "lla": 4753,
      "Ġpost": 4754,
      "Ġulah": 4755,
      "Ġzastava": 4756,
      "Ġvytvara": 4757,
      "ĠÎ´": 4758,
      "dl": 4759,
      "sad": 4760,
      "Ġinvesticie": 4761,
      "Ġpodklad": 4762,
      "vny": 4763,
      "Ġreprezent": 4764,
      "Ġvznikli": 4765,
      "Ġsubjektom": 4766,
      "Ġeta": 4767,
      "Ġcitovana": 4768,
      "Ġsigna": 4769,
      "Ġobhaj": 4770,
      "ÏĤ": 4771,
      "56": 4772,
      "Ġhosti": 4773,
      "novy": 4774,
      "Ġzh": 4775,
      "Ġreferencne": 4776,
      "Ġzve": 4777,
      "Ġzverejnovanie": 4778,
      "forma": 4779,
      "Ġpovola": 4780,
      "Ġmojho": 4781,
      "Ġrovnosti": 4782,
      "valen": 4783,
      "Ġodbo": 4784,
      "Ġzist": 4785,
      "Ġcolnych": 4786,
      "Ġpolozi": 4787,
      "ngs": 4788,
      "Ġpani": 4789,
      "Ġjednu": 4790,
      "novania": 4791,
      "ff": 4792,
      "Ġcelkovy": 4793,
      "Ġflu": 4794,
      "lym": 4795,
      "Ġdlh": 4796,
      "Ġdat": 4797,
      "Ġduse": 4798,
      "ovodi": 4799,
      "Ġkolektiv": 4800,
      "Ġposla": 4801,
      "Ġaka": 4802,
      "Ġspolupraci": 4803,
      "Ġindu": 4804,
      "lezitost": 4805,
      "Ġdostupne": 4806,
      "Ġuctovnej": 4807,
      "Ġvzdy": 4808,
      "Ġsam": 4809,
      "Ġumiest": 4810,
      "Ġexeku": 4811,
      "Ġnasledok": 4812,
      "vil": 4813,
      "Ġpouzivane": 4814,
      "Ġefsa": 4815,
      "rovat": 4816,
      "Ġpaliva": 4817,
      "rc": 4818,
      "bri": 4819,
      "Ġbrani": 4820,
      "loch": 4821,
      "aty": 4822,
      "Ġvymaha": 4823,
      "Ġsuladu": 4824,
      "Ġkeby": 4825,
      "Ġoperacie": 4826,
      "Ġvnutrostatnemu": 4827,
      "Ġdekre": 4828,
      "Ġkodexu": 4829,
      "tal": 4830,
      "ving": 4831,
      "Ġtrhom": 4832,
      "Ġnarodenia": 4833,
      "Ġzeleniny": 4834,
      "sidia": 4835,
      "Ġ114": 4836,
      "Ġ123": 4837,
      "Ġvlastnych": 4838,
      "Ġprevadzku": 4839,
      "Ġzavadza": 4840,
      "Ġporiadok": 4841,
      "Ġfull": 4842,
      "Ġbre": 4843,
      "Ġpodstatne": 4844,
      "rejme": 4845,
      "Ġmiery": 4846,
      "Ġ136": 4847,
      "Ġvychod": 4848,
      "Ġsmernicu": 4849,
      "Ġpripis": 4850,
      "Ġ600": 4851,
      "Ġavsak": 4852,
      "lovi": 4853,
      "Ġrybolovu": 4854,
      "Ġsprave": 4855,
      "Ġcentralne": 4856,
      "Ġcelkovej": 4857,
      "Ġzalovany": 4858,
      "Ġupravuje": 4859,
      "Ġsil": 4860,
      "Ġstanoviska": 4861,
      "Ġkana": 4862,
      "Ġpopla": 4863,
      "Ġvopred": 4864,
      "Ġvidie": 4865,
      "Ġprinalezi": 4866,
      "Ġpodmienkach": 4867,
      "Ġmaso": 4868,
      "Ġhospodarske": 4869,
      "cion": 4870,
      "Ġvyhlaseni": 4871,
      "kladne": 4872,
      "Ġvyzi": 4873,
      "Ġsvojou": 4874,
      "tenia": 4875,
      "Ġstatna": 4876,
      "odstatne": 4877,
      "ndes": 4878,
      "Ġtrestneho": 4879,
      "Ġobjektiv": 4880,
      "Ġsubsidia": 4881,
      "Ġcezhranic": 4882,
      "Ġodhad": 4883,
      "Ġtari": 4884,
      "Ġznak": 4885,
      "Ġsplnaju": 4886,
      "noveho": 4887,
      "nus": 4888,
      "Ġodpadu": 4889,
      "Ġspada": 4890,
      "Ġvyhrada": 4891,
      "Ġvklad": 4892,
      "Ġtabulke": 4893,
      "stina": 4894,
      "nda": 4895,
      "ori": 4896,
      "Ġulov": 4897,
      "Î¿Ïħ": 4898,
      "Ġvyhody": 4899,
      "deli": 4900,
      "Ġuchova": 4901,
      "Ġzmluvnej": 4902,
      "dle": 4903,
      "Ġbulhar": 4904,
      "Ġstanoviskom": 4905,
      "83": 4906,
      "Ġekvi": 4907,
      "mami": 4908,
      "Ġpotraviny": 4909,
      "Ġistej": 4910,
      "Ġvseobecnych": 4911,
      "Ġ119": 4912,
      "Ġcelkoveho": 4913,
      "lnymi": 4914,
      "Ġprebra": 4915,
      "Ġveta": 4916,
      "Ġzdroj": 4917,
      "Ġki": 4918,
      "Ġtransparent": 4919,
      "Ġbyva": 4920,
      "Ġvratenie": 4921,
      "Ġekvivalen": 4922,
      "cil": 4923,
      "Ġtykajuci": 4924,
      "tes": 4925,
      "Ġdanoveho": 4926,
      "Ġsiestej": 4927,
      "stvu": 4928,
      "Ġspotrebu": 4929,
      "Ġzada": 4930,
      "Ġletu": 4931,
      "Ġoblastiach": 4932,
      "ad": 4933,
      "Ġzasadou": 4934,
      "Ġtechnolo": 4935,
      "Ġosn": 4936,
      "Ġaktov": 4937,
      "Ġsankcie": 4938,
      "cena": 4939,
      "Ġpausalne": 4940,
      "Ġvystave": 4941,
      "Ġpercentua": 4942,
      "dte": 4943,
      "riedok": 4944,
      "Ġucinnej": 4945,
      "Ġnasledujucich": 4946,
      "suju": 4947,
      "79": 4948,
      "ciek": 4949,
      "ovom": 4950,
      "Ġrizik": 4951,
      "rez": 4952,
      "ovatel": 4953,
      "Ġtvoria": 4954,
      "Ġvlastnictva": 4955,
      "Ġxi": 4956,
      "novych": 4957,
      "Ġnara": 4958,
      "vlast": 4959,
      "tina": 4960,
      "Ġderivat": 4961,
      "Ġperso": 4962,
      "Ġpravdepodobne": 4963,
      "ĠÎ±": 4964,
      "Ġanglic": 4965,
      "Ġprostriedok": 4966,
      "Ġsudy": 4967,
      "Ġhostitel": 4968,
      "tickej": 4969,
      "Ġhodnot": 4970,
      "Ġneumoz": 4971,
      "Ġ267": 4972,
      "vatelom": 4973,
      "ur": 4974,
      "Ġjednotliv": 4975,
      "Ġ540": 4976,
      "Ġspracu": 4977,
      "Ġmiere": 4978,
      "ration": 4979,
      "gne": 4980,
      "Ġponecha": 4981,
      "Ġpracovny": 4982,
      "Ġzneci": 4983,
      "Ġrozpoc": 4984,
      "Ġsuhr": 4985,
      "Ġpredsedu": 4986,
      "Ġholding": 4987,
      "Ġucet": 4988,
      "Ġdohodu": 4989,
      "ovanym": 4990,
      "Ġobsahuju": 4991,
      "dze": 4992,
      "Ġkym": 4993,
      "Ġpodane": 4994,
      "Ġtvrdia": 4995,
      "Ġmoci": 4996,
      "Ġzozname": 4997,
      "Ġdohovor": 4998,
      "Ġtakym": 4999,
      "zaduju": 5000,
      "Ġposkytne": 5001,
      "Ġucastnikom": 5002,
      "Ġneposky": 5003,
      "novej": 5004,
      "Ġpoplatky": 5005,
      "Ġzhroma": 5006,
      "010": 5007,
      "Ġnezlu": 5008,
      "Ġprihliad": 5009,
      "vity": 5010,
      "diale": 5011,
      "ovi": 5012,
      "cujuce": 5013,
      "Ġvklada": 5014,
      "Ġtechnologi": 5015,
      "Ġpochybnosti": 5016,
      "Ġnastroj": 5017,
      "Ġnik": 5018,
      "Ġidentifi": 5019,
      "Ġvolnej": 5020,
      "Ġnezavisle": 5021,
      "Ġ1990": 5022,
      "Ġkompenza": 5023,
      "Ġobmedzit": 5024,
      "Ġautori": 5025,
      "Ġznamok": 5026,
      "Ġnezo": 5027,
      "Ġskupin": 5028,
      "Ġpridanej": 5029,
      "Ġporovnatel": 5030,
      "dzie": 5031,
      "Ġdokumentu": 5032,
      "Ġtransakcii": 5033,
      "Ġuvedie": 5034,
      "cnou": 5035,
      "Ġokami": 5036,
      "Ġopravneny": 5037,
      "ckom": 5038,
      "Ġdispo": 5039,
      "Ġnazva": 5040,
      "Ġnajskor": 5041,
      "Ġnezna": 5042,
      "Ġpodania": 5043,
      "pon": 5044,
      "73": 5045,
      "Ġnic": 5046,
      "9900": 5047,
      "Ġzostava": 5048,
      "ncii": 5049,
      "Ġneka": 5050,
      "Ġ999": 5051,
      "Ġvysoko": 5052,
      "Ġdospel": 5053,
      "Ġzad": 5054,
      "Ġusi": 5055,
      "Ġmedzinarodnej": 5056,
      "Ġobchodnej": 5057,
      "nutych": 5058,
      "Ġmena": 5059,
      "Ġ130": 5060,
      "Ġnasta": 5061,
      "Ġagentury": 5062,
      "Ġvykonavani": 5063,
      "Ġnesmu": 5064,
      "Ġzavodu": 5065,
      "ndi": 5066,
      "Ġvyvozu": 5067,
      "ovacej": 5068,
      "Ġpouzije": 5069,
      "Ġkapacity": 5070,
      "Ġ113": 5071,
      "Ġodstup": 5072,
      "Ġjad": 5073,
      "Ġznizenia": 5074,
      "Ġtabulky": 5075,
      "Ġuko": 5076,
      "Ġ620": 5077,
      "klade": 5078,
      "Ġpredbezneho": 5079,
      "Ġprepravu": 5080,
      "Ġdoplneni": 5081,
      "Ġdovode": 5082,
      "Ġprepuste": 5083,
      "Ġpostavenia": 5084,
      "Ġtoxi": 5085,
      "Ġek": 5086,
      "Ġpartner": 5087,
      "Ġ001": 5088,
      "pat": 5089,
      "dru": 5090,
      "Ġvysetrovania": 5091,
      "Ġsucasnosti": 5092,
      "spekt": 5093,
      "Ġdataba": 5094,
      "Ġvyhov": 5095,
      "Ġuctovna": 5096,
      "Ġpozna": 5097,
      "Ġuvedenie": 5098,
      "Ġohlade": 5099,
      "Ġhi": 5100,
      "Ġhroz": 5101,
      "Ġnepresahuje": 5102,
      "Ġverejny": 5103,
      "chlo": 5104,
      "Ġkolate": 5105,
      "Ġkonecnom": 5106,
      "Ġvymedzenie": 5107,
      "Ġ140": 5108,
      "Ġhmotnostou": 5109,
      "Ġuvedte": 5110,
      "Ġjednozna": 5111,
      "Ġrozme": 5112,
      "Ġlah": 5113,
      "Ġstanoveneho": 5114,
      "Ġformula": 5115,
      "Ġzho": 5116,
      "Ġpravidlo": 5117,
      "Ġhli": 5118,
      "Ġpriklad": 5119,
      "Ġbodom": 5120,
      "Ġgeneralneho": 5121,
      "gericht": 5122,
      "Ġinfrastruktury": 5123,
      "Ġzalozena": 5124,
      "Ġbar": 5125,
      "Ġgi": 5126,
      "Ġhtt": 5127,
      "Ġdodatku": 5128,
      "Ġodvolatelka": 5129,
      "cnymi": 5130,
      "Ġkultu": 5131,
      "Ġ320": 5132,
      "setrovanie": 5133,
      "stavuje": 5134,
      "Ġpravidlami": 5135,
      "Ġcukor": 5136,
      "Ġporad": 5137,
      "Ġrozvoja": 5138,
      "Ġdanovej": 5139,
      "Ġstanovenymi": 5140,
      "Ġposkytuju": 5141,
      "Ġmin": 5142,
      "Ġucastnika": 5143,
      "Ġzaujmy": 5144,
      "covania": 5145,
      "Ġteraz": 5146,
      "ovacich": 5147,
      "ĠÃĹ": 5148,
      "Ġhospodarstva": 5149,
      "Ġoli": 5150,
      "Ġvyrobcom": 5151,
      "Ġ160": 5152,
      "Ġprocesu": 5153,
      "Ġstudi": 5154,
      "Ġzeleni": 5155,
      "Ġmotora": 5156,
      "Ġodsu": 5157,
      "Ġstale": 5158,
      "Ġww": 5159,
      "Ġvseobecnosti": 5160,
      "Ġsubo": 5161,
      "Ġpredne": 5162,
      "Ġdova": 5163,
      "Ġmasa": 5164,
      "Ġdodavatel": 5165,
      "jte": 5166,
      "Ġplanu": 5167,
      "Ġrokoch": 5168,
      "rovej": 5169,
      "Ġlaborato": 5170,
      "yl": 5171,
      "Ġzjed": 5172,
      "Ġbliz": 5173,
      "Ġspisu": 5174,
      "Ġpredchadzajuceho": 5175,
      "Ġpolnohospodarske": 5176,
      "Ġzucast": 5177,
      "Ġ611": 5178,
      "Ġcps": 5179,
      "Ġvyno": 5180,
      "Ġnepat": 5181,
      "Ġvytyka": 5182,
      "cerpa": 5183,
      "Ġcele": 5184,
      "Ġbelgicko": 5185,
      "Ġ2574": 5186,
      "Ġchyba": 5187,
      "Ġvysledkov": 5188,
      "Ġnadva": 5189,
      "Ġpozastave": 5190,
      "Ġzabranit": 5191,
      "Ġodra": 5192,
      "Ġuvedenemu": 5193,
      "Ġimp": 5194,
      "Ġvznika": 5195,
      "Ġ111": 5196,
      "Ġvyrobene": 5197,
      "Ġzahrnute": 5198,
      "Ġnr": 5199,
      "Ġkru": 5200,
      "Ġrelati": 5201,
      "Ïħ": 5202,
      "Ġnepresahujucim": 5203,
      "Ġpredlozila": 5204,
      "dent": 5205,
      "Ġfaci": 5206,
      "Ġpoplatok": 5207,
      "stre": 5208,
      "Ġministerstvo": 5209,
      "Ġtrieda": 5210,
      "Ġnamor": 5211,
      "Ġnovy": 5212,
      "Ġantidumpingove": 5213,
      "cep": 5214,
      "ces": 5215,
      "Ġstar": 5216,
      "solu": 5217,
      "Ġprvkov": 5218,
      "Ġzabezpecia": 5219,
      "ger": 5220,
      "Ġmedzinarodne": 5221,
      "riu": 5222,
      "Ġvynimka": 5223,
      "Ġrq": 5224,
      "Ġinvest": 5225,
      "nena": 5226,
      "zenych": 5227,
      "Ġclr": 5228,
      "ziada": 5229,
      "Ġfrancuzska": 5230,
      "Ġdover": 5231,
      "Ġchemika": 5232,
      "Ġzdoraznuje": 5233,
      "Ġalkoho": 5234,
      "Ġnamietky": 5235,
      "Ġsidlo": 5236,
      "Ġbydlisko": 5237,
      "Ġdizaj": 5238,
      "lahli": 5239,
      "rovanie": 5240,
      "Ġodmie": 5241,
      "Ġprofesi": 5242,
      "Ġmob": 5243,
      "novu": 5244,
      "Ġpredchadzajucich": 5245,
      "mid": 5246,
      "Ġzucastni": 5247,
      "Ġulozit": 5248,
      "990": 5249,
      "Ġvyskytu": 5250,
      "tiek": 5251,
      "Ġhlavy": 5252,
      "Ġpoho": 5253,
      "Ġobjedna": 5254,
      "Ġ139": 5255,
      "Ġverejnu": 5256,
      "zol": 5257,
      "Ġosebe": 5258,
      "kovou": 5259,
      "Ġblo": 5260,
      "Ġzistenia": 5261,
      "Ġrez": 5262,
      "Ġ@": 5263,
      "regi": 5264,
      "Ġzodpovedny": 5265,
      "Ġvnutrostatnymi": 5266,
      "Ġinvesticii": 5267,
      "Ġsna": 5268,
      "Ġnepreu": 5269,
      "Ġodosla": 5270,
      "Ġoznam": 5271,
      "Ġeuropskym": 5272,
      "Ġsul": 5273,
      "Ġskuska": 5274,
      "Ġou": 5275,
      "Ġspi": 5276,
      "Ġatd": 5277,
      "vej": 5278,
      "Ġprac": 5279,
      "Ġstranami": 5280,
      "citat": 5281,
      "Ġvysledku": 5282,
      "Ġopodstatne": 5283,
      "Ġvnutrostatna": 5284,
      "Ġkonanim": 5285,
      "mon": 5286,
      "Ġfarb": 5287,
      "Ġpovolene": 5288,
      "nera": 5289,
      "Ġzahrnaju": 5290,
      "Ġvyplyvajucich": 5291,
      "Ġnormo": 5292,
      "Ġneroz": 5293,
      "Ġviii": 5294,
      "Ġ121": 5295,
      "Ġloka": 5296,
      "Ġprijmy": 5297,
      "Ġtykajuca": 5298,
      "Ġnormotvo": 5299,
      "Ġmono": 5300,
      "wy": 5301,
      "Ġ145": 5302,
      "Ġukra": 5303,
      "nis": 5304,
      "sul": 5305,
      "tan": 5306,
      "Ġveterinar": 5307,
      "Ġpana": 5308,
      "Ġplavidiel": 5309,
      "Ġreto": 5310,
      "Ġ870": 5311,
      "nickej": 5312,
      "ovanu": 5313,
      "bel": 5314,
      "Ġaplika": 5315,
      "Ġdiet": 5316,
      "Ġ116": 5317,
      "Ġhydi": 5318,
      "Ġweb": 5319,
      "Ġnemal": 5320,
      "Ġrsms": 5321,
      "Ġbezodkladne": 5322,
      "Ġprev": 5323,
      "Ġdokonca": 5324,
      "Ġstlpci": 5325,
      "Ġposle": 5326,
      "Ġtvrdeni": 5327,
      "Ġsmot": 5328,
      "ratu": 5329,
      "Ġrqrr": 5330,
      "Ġirsko": 5331,
      "Ġtalianska": 5332,
      "Ġskutkove": 5333,
      "ston": 5334,
      "Ġun": 5335,
      "sel": 5336,
      "kovym": 5337,
      "Ġspolocnostami": 5338,
      "Ġrovnaky": 5339,
      "Ġpie": 5340,
      "Ġdrzitel": 5341,
      "Ġniekolko": 5342,
      "vacie": 5343,
      "Ġpredmetneho": 5344,
      "Ġvyuziva": 5345,
      "Ġcisla": 5346,
      "Ġkro": 5347,
      "sny": 5348,
      "Ġtaba": 5349,
      "Ġsv": 5350,
      "Ġpreno": 5351,
      "Ġujmu": 5352,
      "Ġ135": 5353,
      "Ġdodat": 5354,
      "Ġzaobe": 5355,
      "Ġprilohou": 5356,
      "Ġpredmetnej": 5357,
      "Ġsied": 5358,
      "Ġnem": 5359,
      "Ġspravny": 5360,
      "Ġprihliadnutim": 5361,
      "Ġpev": 5362,
      "Ġtretieho": 5363,
      "Ġkola": 5364,
      "Ġpoziadat": 5365,
      "ser": 5366,
      "Ġmsc": 5367,
      "Ġzaciatku": 5368,
      "oz": 5369,
      "Ġara": 5370,
      "lii": 5371,
      "metyl": 5372,
      "Ġurcena": 5373,
      "Ġ122": 5374,
      "lid": 5375,
      "Ġpredlozenie": 5376,
      "Ġpapierov": 5377,
      "renych": 5378,
      "Ġkrmiva": 5379,
      "Ġvlastneho": 5380,
      "lava": 5381,
      "nty": 5382,
      "Ġdekla": 5383,
      "Ġindust": 5384,
      "Ġautor": 5385,
      "Ġprax": 5386,
      "Ġnoveho": 5387,
      "Ġsieti": 5388,
      "Ġspolocenstvom": 5389,
      "ot": 5390,
      "Ġodvolate": 5391,
      "ws": 5392,
      "97": 5393,
      "Ġovlada": 5394,
      "Ġ124": 5395,
      "Ġjednom": 5396,
      "Ġusmernenia": 5397,
      "zujuce": 5398,
      "Ġzrusenia": 5399,
      "Ġhl": 5400,
      "Ġrevol": 5401,
      "Ġvyplaca": 5402,
      "Ġprodukt": 5403,
      "Ġpodanie": 5404,
      "Ġtajomnik": 5405,
      "Ġpokrac": 5406,
      "Ġspecifika": 5407,
      "Ġprojektu": 5408,
      "Ġholandsko": 5409,
      "ovym": 5410,
      "Ġzakonov": 5411,
      "Ġsucast": 5412,
      "Ġnere": 5413,
      "Ġcisto": 5414,
      "Ġsuhlas": 5415,
      "mann": 5416,
      "Ġkancelarie": 5417,
      "Ġvykonane": 5418,
      "Ġpravnym": 5419,
      "stran": 5420,
      "lti": 5421,
      "Ġpodobnych": 5422,
      "Ġklasifika": 5423,
      "nzi": 5424,
      "Ġbru": 5425,
      "cao": 5426,
      "Ġnesplna": 5427,
      "Ġakcie": 5428,
      "Ġnezohlad": 5429,
      "Ġkoncentracie": 5430,
      "keho": 5431,
      "Ġdany": 5432,
      "Ġpismena": 5433,
      "Ġpoistov": 5434,
      "Ġupo": 5435,
      "Ġudalosti": 5436,
      "Ġnespl": 5437,
      "Ġkvalifikovany": 5438,
      "Ġtepla": 5439,
      "Ġvylucit": 5440,
      "Ġ529900": 5441,
      "Ġnedod": 5442,
      "Ġabsolu": 5443,
      "let": 5444,
      "Ġkyseliny": 5445,
      "Ġuloh": 5446,
      "ton": 5447,
      "Ġzruseni": 5448,
      "rum": 5449,
      "Ġsudne": 5450,
      "001": 5451,
      "Ġvzdiale": 5452,
      "Ġsposobilost": 5453,
      "prostred": 5454,
      "Ġvyznamne": 5455,
      "Ġciselny": 5456,
      "recko": 5457,
      "Ġlov": 5458,
      "Ġvyberu": 5459,
      "Ġnahrada": 5460,
      "fon": 5461,
      "Ġuskutocnit": 5462,
      "Ġprebie": 5463,
      "Ġnemala": 5464,
      "Ġnaruse": 5465,
      "muni": 5466,
      "Ġspravanie": 5467,
      "Ġplatieb": 5468,
      "Ġuverov": 5469,
      "cute": 5470,
      "covani": 5471,
      "Ġvyhodno": 5472,
      "Ġbezprostred": 5473,
      "Ġ025": 5474,
      "Ġposta": 5475,
      "Ġzosulade": 5476,
      "Ġ520": 5477,
      "cal": 5478,
      "Ġodbornej": 5479,
      "Ġrevolving": 5480,
      "Ġdusi": 5481,
      "Ġrovnakeho": 5482,
      "nol": 5483,
      "Ġvyskum": 5484,
      "Ġtykajucu": 5485,
      "rovania": 5486,
      "Ġkartelu": 5487,
      "Ġspolahli": 5488,
      "beru": 5489,
      "Ġdovodom": 5490,
      "Ġstaznosti": 5491,
      "Ġzabezpecenim": 5492,
      "Ġwww": 5493,
      "Ġ126": 5494,
      "Ġdav": 5495,
      "Ġspolocnych": 5496,
      "Ġzhody": 5497,
      "Ġprislusen": 5498,
      "Ġjednym": 5499,
      "Ġust": 5500,
      "Ġemisie": 5501,
      "logicke": 5502,
      "Ġ129": 5503,
      "Ġakychkolvek": 5504,
      "Ġpouzivanych": 5505,
      "Ġnebrani": 5506,
      "Ġramca": 5507,
      "Ġzlozeni": 5508,
      "Ġskol": 5509,
      "Ġcrr": 5510,
      "Ġadvokata": 5511,
      "Ġmaximalna": 5512,
      "Ġzapisu": 5513,
      "Ġvl": 5514,
      "Ġvyvozne": 5515,
      "jen": 5516,
      "Ġspracovania": 5517,
      "Ġpravidelne": 5518,
      "Ġpodliehaju": 5519,
      "Ġdozor": 5520,
      "Ġexcl": 5521,
      "Ġcennych": 5522,
      "Ġsude": 5523,
      "Ġpridru": 5524,
      "nictve": 5525,
      "Ġpreskumani": 5526,
      "rila": 5527,
      "zeny": 5528,
      "Ġvino": 5529,
      "Ġsplnat": 5530,
      "Ġcompa": 5531,
      "Ġpodnika": 5532,
      "Ġlistom": 5533,
      "Ġinformuje": 5534,
      "Ġ141": 5535,
      "Ġodsekom": 5536,
      "78": 5537,
      "cle": 5538,
      "Ġosobitneho": 5539,
      "Ġ263": 5540,
      "kuje": 5541,
      "Ġobchodneho": 5542,
      "Ġdiskriminacie": 5543,
      "Ġumiestne": 5544,
      "Ġber": 5545,
      "Ġnepouzi": 5546,
      "Ġobjektivne": 5547,
      "Ġosobami": 5548,
      "Ġ350": 5549,
      "Ġvidieka": 5550,
      "Ġhlas": 5551,
      "Ġpohladavky": 5552,
      "Ġvyrobkami": 5553,
      "Ġproku": 5554,
      "Ġzarob": 5555,
      "iet": 5556,
      "Ġodrod": 5557,
      "stavy": 5558,
      "Ġbro": 5559,
      "Ġplanova": 5560,
      "seny": 5561,
      "Ġulozene": 5562,
      "Ġumoznuju": 5563,
      "Ðº": 5564,
      "Ġnevykona": 5565,
      "Ġyl": 5566,
      "Ġvzniku": 5567,
      "Ġuverejnenia": 5568,
      "Ġneskorsich": 5569,
      "Ġeuropskom": 5570,
      "Ġist": 5571,
      "Ġzakaza": 5572,
      "Ġpresetrova": 5573,
      "Ġrocne": 5574,
      "Ġpokut": 5575,
      "flu": 5576,
      "Ġvlaj": 5577,
      "ned": 5578,
      "mula": 5579,
      "litu": 5580,
      "Ġelektrickej": 5581,
      "Ġzamestnania": 5582,
      "Ġopisa": 5583,
      "Ġskutkovych": 5584,
      "Ġzobra": 5585,
      "reak": 5586,
      "metri": 5587,
      "Ġ721": 5588,
      "Ġzdoraznit": 5589,
      "Ġpovrch": 5590,
      "Ġvplyvu": 5591,
      "Ġlep": 5592,
      "Ġeuratom": 5593,
      "Ġustanoveniach": 5594,
      "Ġsice": 5595,
      "lan": 5596,
      "Ġstruktura": 5597,
      "Ġpodmienkami": 5598,
      "Ġnadobudnutie": 5599,
      "Ġcoho": 5600,
      "Ġstupanie": 5601,
      "dae": 5602,
      "Ġvseobecnej": 5603,
      "Ġnoriem": 5604,
      "Ġpodielu": 5605,
      "lc": 5606,
      "Ġpripady": 5607,
      "ĠÂ±": 5608,
      "line": 5609,
      "riet": 5610,
      "son": 5611,
      "Ġakykolvek": 5612,
      "racovat": 5613,
      "los": 5614,
      "Ġkreditnej": 5615,
      "Ġ132": 5616,
      "Ġkovov": 5617,
      "Ġpreml": 5618,
      "Ġher": 5619,
      "Ġbav": 5620,
      "Ġraz": 5621,
      "Ġorie": 5622,
      "Ġvypusta": 5623,
      "Ġcim": 5624,
      "nn": 5625,
      "Ġzavazok": 5626,
      "Ġspecialne": 5627,
      "Ġfacilita": 5628,
      "Ġ134": 5629,
      "tis": 5630,
      "Ġbis": 5631,
      "toku": 5632,
      "Ġpoistenie": 5633,
      "ring": 5634,
      "Ġclenskemu": 5635,
      "break": 5636,
      "hodne": 5637,
      "Ġrozpoctu": 5638,
      "Ġpracu": 5639,
      "stich": 5640,
      "Ġ1234": 5641,
      "rka": 5642,
      "Ġvydava": 5643,
      "Ġprepravy": 5644,
      "Ġdosledky": 5645,
      "Ġnalieha": 5646,
      "Ġavi": 5647,
      "Ġund": 5648,
      "Ġtac": 5649,
      "Ġfarma": 5650,
      "vra": 5651,
      "Ġsystemom": 5652,
      "Ġidentifikacne": 5653,
      "ĠÏĦ": 5654,
      "Ġsmeru": 5655,
      "Ġzakazky": 5656,
      "Ġreprodu": 5657,
      "Ġdesti": 5658,
      "Ġakcii": 5659,
      "Ġnako": 5660,
      "nuty": 5661,
      "Ġvstupu": 5662,
      "Ġprispevku": 5663,
      "Ġsuva": 5664,
      "Ġjedine": 5665,
      "Ġdomnievam": 5666,
      "Ġsprostredkov": 5667,
      "Ġodvolacim": 5668,
      "Ġfla": 5669,
      "Ġprijal": 5670,
      "Ġ850": 5671,
      "rami": 5672,
      "votne": 5673,
      "cyk": 5674,
      "Ġtitu": 5675,
      "Ġusmerneni": 5676,
      "Ġpodne": 5677,
      "Ġvypove": 5678,
      "Ġpomer": 5679,
      "Ġfoto": 5680,
      "Ġunive": 5681,
      "Ġzjednodu": 5682,
      "Ġkontrole": 5683,
      "Ġore": 5684,
      "Ġdlzka": 5685,
      "96": 5686,
      "302": 5687,
      "Ġrepublikou": 5688,
      "Ġly": 5689,
      "Ġistoty": 5690,
      "kovanie": 5691,
      "Ġsplnenie": 5692,
      "rig": 5693,
      "Ġvsetkym": 5694,
      "Ġep": 5695,
      "Ġ016": 5696,
      "Ġdovery": 5697,
      "Ġth": 5698,
      "scha": 5699,
      "Ġ230": 5700,
      "Ġstatneho": 5701,
      "Ġobmedzeni": 5702,
      "Ġupozor": 5703,
      "Ġnakoniec": 5704,
      "Ġveku": 5705,
      "Ġclankami": 5706,
      "ncom": 5707,
      "Ġpotvrdzuje": 5708,
      "Ġprevadzkovatela": 5709,
      "Ġsest": 5710,
      "Ġostrov": 5711,
      "Ġlode": 5712,
      "Ġea": 5713,
      "Ġnezi": 5714,
      "Ġpripomienok": 5715,
      "Ġpripomina": 5716,
      "tovo": 5717,
      "Ġdobre": 5718,
      "Ġznizi": 5719,
      "lil": 5720,
      "Ġpozadovat": 5721,
      "vac": 5722,
      "Ġprvok": 5723,
      "Ġprislusnemu": 5724,
      "Î¹Î±": 5725,
      "Ġpredstavovat": 5726,
      "cenim": 5727,
      "Ġulozil": 5728,
      "Ġzalobne": 5729,
      "Ġindividualne": 5730,
      "Ġprebieha": 5731,
      "Ġrozsudkom": 5732,
      "ler": 5733,
      "Ġmaloobchod": 5734,
      "luju": 5735,
      "Ġqu": 5736,
      "dic": 5737,
      "Ġsol": 5738,
      "Ġpriznava": 5739,
      "ning": 5740,
      "obec": 5741,
      "Ġdovaza": 5742,
      "Ġpremlca": 5743,
      "Ġrovnakej": 5744,
      "72": 5745,
      "Ġmra": 5746,
      "Ġpodpisa": 5747,
      "Ġstanovenia": 5748,
      "Ġnepriazni": 5749,
      "Ġzlozky": 5750,
      "Ġnit": 5751,
      "Ġanalogicky": 5752,
      "Ġobhajobu": 5753,
      "Ġziadatela": 5754,
      "Ġobnove": 5755,
      "Ġkvapa": 5756,
      "Ġpredlozil": 5757,
      "Ġradu": 5758,
      "rusit": 5759,
      "Ġpodpora": 5760,
      "Ġmedzinarodnych": 5761,
      "Ġprevz": 5762,
      "miny": 5763,
      "Ġdatumom": 5764,
      "Ġpoznamenat": 5765,
      "Ġurcity": 5766,
      "Ġpredlozenych": 5767,
      "Ġrelevantnych": 5768,
      "Ġtroj": 5769,
      "Ġkolo": 5770,
      "Ġnosi": 5771,
      "Ġzisku": 5772,
      "Ġodvolava": 5773,
      "Ġdigi": 5774,
      "Ġzahra": 5775,
      "tna": 5776,
      "Ġuznesenia": 5777,
      "Ġnezrovna": 5778,
      "Ġcpc": 5779,
      "Ġmanzel": 5780,
      "Ġskle": 5781,
      "Ġtechnickej": 5782,
      "Ġhlu": 5783,
      "Ġzavazku": 5784,
      "Ġsum": 5785,
      "Ġvolny": 5786,
      "tovat": 5787,
      "Ġservice": 5788,
      "Ġbydliska": 5789,
      "Ġdobrov": 5790,
      "Ġchro": 5791,
      "Ġdial": 5792,
      "Ġexistencia": 5793,
      "Î³": 5794,
      "Ġanalyzu": 5795,
      "Ġuradnikov": 5796,
      "Ġprechodne": 5797,
      "Ġvykaza": 5798,
      "mysla": 5799,
      "Ġstadi": 5800,
      "cove": 5801,
      "Ġrychlost": 5802,
      "Ġmenia": 5803,
      "Ġodpovedi": 5804,
      "Ġprojektov": 5805,
      "Ġinici": 5806,
      "Ġvobec": 5807,
      "Ġ720": 5808,
      "Ġakciona": 5809,
      "Ġustredne": 5810,
      "Ġode": 5811,
      "Ġliekov": 5812,
      "Ġpredmetnych": 5813,
      "Ġnachadzaju": 5814,
      "Ġceleho": 5815,
      "Ġucinkov": 5816,
      "Ġfar": 5817,
      "Ġobjemu": 5818,
      "Ġglu": 5819,
      "Ġprijatim": 5820,
      "kovom": 5821,
      "Ġupravou": 5822,
      "Ġnarodne": 5823,
      "Ġ610": 5824,
      "Ġdeu": 5825,
      "rio": 5826,
      "Ġbezne": 5827,
      "Ġaspek": 5828,
      "Ġfedera": 5829,
      "Ġsama": 5830,
      "Ġnesplnenie": 5831,
      "Ġzapisa": 5832,
      "Ġdoplnit": 5833,
      "Ġspolocnom": 5834,
      "Ġzrejme": 5835,
      "Ġcelej": 5836,
      "Ġmetodi": 5837,
      "Ġdokumentom": 5838,
      "Ġcitli": 5839,
      "Ġodovodnit": 5840,
      "Ġsynte": 5841,
      "Ġkreditna": 5842,
      "Ġobstaravatel": 5843,
      "Ġstrojov": 5844,
      "Ġpridav": 5845,
      "Ġspotreby": 5846,
      "xo": 5847,
      "Ġbrz": 5848,
      "Ġdosah": 5849,
      "Ġspecifikacie": 5850,
      "Ġ0805": 5851,
      "Ġludi": 5852,
      "Ġnajlep": 5853,
      "Ġdochodku": 5854,
      "Ġdomnievat": 5855,
      "ujuceho": 5856,
      "Ġdieta": 5857,
      "Ġnegativ": 5858,
      "Ġdocu": 5859,
      "Ġdlho": 5860,
      "jne": 5861,
      "Ġodvolatelky": 5862,
      "Ġmer": 5863,
      "Ġzakladu": 5864,
      "Ð´": 5865,
      "Ġkore": 5866,
      "Ġziadnu": 5867,
      "Ġzapa": 5868,
      "Ġjednotiek": 5869,
      "Ġhranice": 5870,
      "seniu": 5871,
      "Ġ128": 5872,
      "prv": 5873,
      "spiet": 5874,
      "Ġvynimku": 5875,
      "Ġzavery": 5876,
      "Ġsever": 5877,
      "Ġuplynuti": 5878,
      "Ġokamzite": 5879,
      "Ġome": 5880,
      "Ġzvys": 5881,
      "Ġobratu": 5882,
      "Ġzdruzenia": 5883,
      "rieb": 5884,
      "Ġter": 5885,
      "Ġvyklada": 5886,
      "Ġpubli": 5887,
      "vija": 5888,
      "Ġcolnej": 5889,
      "Ġzapoje": 5890,
      "Ġarti": 5891,
      "mas": 5892,
      "Ġqrre": 5893,
      "Ġrestruktu": 5894,
      "komunika": 5895,
      "vencie": 5896,
      "Ġkw": 5897,
      "Ġvyzaduju": 5898,
      "Ġporus": 5899,
      "zaduje": 5900,
      "Ġamericke": 5901,
      "Ġzisk": 5902,
      "Ġurcuje": 5903,
      "Ġobsiahnute": 5904,
      "Ġfinancny": 5905,
      "Ġxxxxx": 5906,
      "Ġnajprv": 5907,
      "Ġkonstruk": 5908,
      "Ġhovadzie": 5909,
      "Ġnemecku": 5910,
      "ĠÎº": 5911,
      "Ġnamieta": 5912,
      "Ġsudcovia": 5913,
      "Ġoboch": 5914,
      "Ġsubsidiarne": 5915,
      "Ġuspe": 5916,
      "Ġpodrobnosti": 5917,
      "Ġzachovanie": 5918,
      "Ġmed": 5919,
      "ries": 5920,
      "Ġkonso": 5921,
      "Ġprevodu": 5922,
      "Ġzakonnika": 5923,
      "Ġ131": 5924,
      "Ġvyuzivanie": 5925,
      "Ġpreukazu": 5926,
      "Ġuhl": 5927,
      "Ġtechnicky": 5928,
      "telnych": 5929,
      "Ġzalobkyni": 5930,
      "Ġdopustil": 5931,
      "Ġmlieka": 5932,
      "Ġmajitel": 5933,
      "Ġzmluvou": 5934,
      "Ġpracovnej": 5935,
      "rn": 5936,
      "zovanie": 5937,
      "nz": 5938,
      "onov": 5939,
      "Ġstatnu": 5940,
      "Ġzona": 5941,
      "Ġprojekt": 5942,
      "Ġvztahovat": 5943,
      "Ġrestruktura": 5944,
      "Ġdelegovane": 5945,
      "Ġtepe": 5946,
      "Ġpojmov": 5947,
      "Ġvin": 5948,
      "Ġiec": 5949,
      "tiez": 5950,
      "Ġ133": 5951,
      "Ġvydany": 5952,
      "Ġokamihu": 5953,
      "Ġtradi": 5954,
      "Ġnaria": 5955,
      "Ġ021": 5956,
      "Ġpotrebu": 5957,
      "Ġvyfu": 5958,
      "Ġpoloze": 5959,
      "Ġjazyku": 5960,
      "pise": 5961,
      "Ġdietata": 5962,
      "riada": 5963,
      "Ġone": 5964,
      "Ġ1987": 5965,
      "Ġnaroku": 5966,
      "Ġcharakte": 5967,
      "Ġulohu": 5968,
      "Ġloty": 5969,
      "Ġdrza": 5970,
      "Ġschvali": 5971,
      "wie": 5972,
      "Ġsocialne": 5973,
      "Ġvysledkom": 5974,
      "Ġpotvrdenie": 5975,
      "sila": 5976,
      "Ġdohlad": 5977,
      "deneho": 5978,
      "Ġstatutu": 5979,
      "Ġgov": 5980,
      "Ġzacina": 5981,
      "Ġkrajinach": 5982,
      "Ġvelkost": 5983,
      "Ġzaviazal": 5984,
      "Ġsvie": 5985,
      "cher": 5986,
      "Ġisla": 5987,
      "Ġnemali": 5988,
      "Ġzahrnat": 5989,
      "Ġkapital": 5990,
      "cila": 5991,
      "tin": 5992,
      "bit": 5993,
      "Ġei": 5994,
      "Ġorganiz": 5995,
      "Ġceli": 5996,
      "han": 5997,
      "Ġzakonoda": 5998,
      "Ġchi": 5999,
      "Ġis": 6000,
      "Ġrozdiely": 6001,
      "Ġpolnohospodarstvo": 6002,
      "citu": 6003,
      "mensom": 6004,
      "Ġpiatich": 6005,
      "Ġprinaj": 6006,
      "Ġskodu": 6007,
      "Ġvodach": 6008,
      "Ġkody": 6009,
      "mno": 6010,
      "Ġzacate": 6011,
      "nat": 6012,
      "Ġplochy": 6013,
      "Ġneplatnosti": 6014,
      "stavi": 6015,
      "Ġreviz": 6016,
      "Ġpob": 6017,
      "Ġ340": 6018,
      "Ġtvori": 6019,
      "Ġnasl": 6020,
      "Ġprislusnosti": 6021,
      "Ġpreja": 6022,
      "Ġcent": 6023,
      "Ġgeme": 6024,
      "Ġelektronickych": 6025,
      "Ġinu": 6026,
      "Ġzmluvna": 6027,
      "Ġclenovia": 6028,
      "Ġ440": 6029,
      "Ġpodobe": 6030,
      "Ġtaktiez": 6031,
      "Ġstyri": 6032,
      "Ġpriesku": 6033,
      "im": 6034,
      "nickeho": 6035,
      "Ġdoplnkovej": 6036,
      "Ġvymedzenia": 6037,
      "port": 6038,
      "Ġdodrziavanie": 6039,
      "Ġhydroxy": 6040,
      "Ġpoplatku": 6041,
      "Ġschvalova": 6042,
      "tosti": 6043,
      "Ġnova": 6044,
      "00000": 6045,
      "Ġuhlovodi": 6046,
      "Ġpropa": 6047,
      "Ġnebezpecen": 6048,
      "Ġnamiesto": 6049,
      "Ġrozhodcov": 6050,
      "Ġramcovej": 6051,
      "pp": 6052,
      "Ġpravidlach": 6053,
      "Ġ1049": 6054,
      "jo": 6055,
      "Ġzivota": 6056,
      "Ġmieru": 6057,
      "Ġprekroci": 6058,
      "Ġposkytol": 6059,
      "Ġobmedzene": 6060,
      "Ġport": 6061,
      "Ġschemy": 6062,
      "Ġnemecka": 6063,
      "Ġdvoji": 6064,
      "Ġvyhove": 6065,
      "Ġdanovych": 6066,
      "yka": 6067,
      "Ġprinajmensom": 6068,
      "Ġhospoda": 6069,
      "Ġvysetrova": 6070,
      "Ġ148": 6071,
      "Ġpovolit": 6072,
      "Ġzamysla": 6073,
      "Ġanglictina": 6074,
      "Ġmani": 6075,
      "Ġuspech": 6076,
      "Ġvojen": 6077,
      "Ġsuvislost": 6078,
      "Ġmesiace": 6079,
      "Ġsoft": 6080,
      "lizovat": 6081,
      "Ġprogramy": 6082,
      "Ġpne": 6083,
      "Ġ142": 6084,
      "ben": 6085,
      "Ġprinci": 6086,
      "Ġspome": 6087,
      "Ġsocialnej": 6088,
      "roti": 6089,
      "Ġreprezentativ": 6090,
      "ras": 6091,
      "Ġvstupe": 6092,
      "rei": 6093,
      "Ġzatyka": 6094,
      "Ġpokyny": 6095,
      "Ġvyrazne": 6096,
      "Ġmember": 6097,
      "Ġuctu": 6098,
      "san": 6099,
      "Ġkonzer": 6100,
      "Ġcerpana": 6101,
      "Ġpriestoru": 6102,
      "Ġsod": 6103,
      "Ġ157": 6104,
      "Ġnedis": 6105,
      "pov": 6106,
      "Ġ414": 6107,
      "Ġneuvadza": 6108,
      "Ġexistujucich": 6109,
      "Ġ730": 6110,
      "Ġposobia": 6111,
      "Ġstrategi": 6112,
      "Ġzra": 6113,
      "toxy": 6114,
      "kuri": 6115,
      "Ġharmonizova": 6116,
      "Ġsemena": 6117,
      "Ġzname": 6118,
      "Ġ147": 6119,
      "Ġdocument": 6120,
      "Ġuspoko": 6121,
      "Ġodsekoch": 6122,
      "Ġsudnej": 6123,
      "Ġpravda": 6124,
      "Ġimania": 6125,
      "Ġnezlucitel": 6126,
      "Ġoperacii": 6127,
      "umati": 6128,
      "Ġdefinovane": 6129,
      "schop": 6130,
      "Ġzvu": 6131,
      "Ġotazok": 6132,
      "Ġkontak": 6133,
      "Ġvyc": 6134,
      "Ġleka": 6135,
      "Ġcestujucich": 6136,
      "kazala": 6137,
      "leni": 6138,
      "Ġnahradzaju": 6139,
      "Ġposobnost": 6140,
      "Ġvystav": 6141,
      "Ġzmiesa": 6142,
      "Ġudrzatel": 6143,
      "Ġzamestnanca": 6144,
      "Ġnomenklatury": 6145,
      "Ġmotorovych": 6146,
      "Ġother": 6147,
      "Ġlotys": 6148,
      "vnej": 6149,
      "Ġzakazuje": 6150,
      "Ġdospela": 6151,
      "ovanymi": 6152,
      "Ġlod": 6153,
      "Ġnadvaznosti": 6154,
      "pera": 6155,
      "stan": 6156,
      "ovacieho": 6157,
      "Ġdodavky": 6158,
      "Ġprevadzka": 6159,
      "Ġstaznost": 6160,
      "Ġkrm": 6161,
      "Ġautomaticky": 6162,
      "Ġprekro": 6163,
      "Ġpage": 6164,
      "cajne": 6165,
      "myslu": 6166,
      "rze": 6167,
      "Ġcudzi": 6168,
      "ys": 6169,
      "Ġodlisne": 6170,
      "nenim": 6171,
      "ngu": 6172,
      "Ġplatobnych": 6173,
      "Ġzostat": 6174,
      "Ġpravnou": 6175,
      "Ġpresahujucim": 6176,
      "Ġudrzia": 6177,
      "Ġdovola": 6178,
      "Ġtretim": 6179,
      "Ġoverenie": 6180,
      "Ġmesiaca": 6181,
      "bil": 6182,
      "Ġnajvyssi": 6183,
      "Ġpriemysel": 6184,
      "Ġfunkciu": 6185,
      "Ġtelekomunika": 6186,
      "Ġtakuto": 6187,
      "Ġopatov": 6188,
      "Ġzacat": 6189,
      "Ġ178": 6190,
      "Ġ270": 6191,
      "Ġnepriamo": 6192,
      "Ġmedia": 6193,
      "cnost": 6194,
      "Ġps": 6195,
      "Ġakou": 6196,
      "ret": 6197,
      "Ġriesenia": 6198,
      "Ġzamietnutia": 6199,
      "Ġzodpovedajucim": 6200,
      "Ġstavebnictvo": 6201,
      "Ġiz": 6202,
      "des": 6203,
      "Ġuzatva": 6204,
      "Ġchranene": 6205,
      "Ġdospiet": 6206,
      "Ġ143": 6207,
      "wer": 6208,
      "Ġvyvoznych": 6209,
      "Ġutva": 6210,
      "Ġovplyvnit": 6211,
      "dra": 6212,
      "Ġvyvodit": 6213,
      "Ġpodmienku": 6214,
      "Ġposkytnuta": 6215,
      "Ġformy": 6216,
      "Ġenergi": 6217,
      "minant": 6218,
      "Ġvety": 6219,
      "Ġ1989": 6220,
      "Ġvybavenie": 6221,
      "Ġgminy": 6222,
      "Ġ180": 6223,
      "Ġclenmi": 6224,
      "fc": 6225,
      "Ġprezi": 6226,
      "Ġeg": 6227,
      "Ġneur": 6228,
      "Ġsal": 6229,
      "Ġpneumati": 6230,
      "Ġneja": 6231,
      "nula": 6232,
      "ker": 6233,
      "Ġvyhrady": 6234,
      "Ġprovin": 6235,
      "Ġskusa": 6236,
      "Ġdochodok": 6237,
      "Ġisty": 6238,
      "Ġaviation": 6239,
      "Ġzlozi": 6240,
      "Ġramcoveho": 6241,
      "Ġnavrhom": 6242,
      "vnych": 6243,
      "Ġpolska": 6244,
      "Ġslovami": 6245,
      "Ġpreruse": 6246,
      "Ġdeuts": 6247,
      "Ġzhr": 6248,
      "ĠÏĢ": 6249,
      "Ġdoba": 6250,
      "sor": 6251,
      "Ġriadok": 6252,
      "rate": 6253,
      "Ġspanielske": 6254,
      "Ġpravdepodobnost": 6255,
      "Ġmotorov": 6256,
      "reg": 6257,
      "rizon": 6258,
      "Ġmis": 6259,
      "Ġtyz": 6260,
      "Ġdlzky": 6261,
      "Ġexistencii": 6262,
      "Ġlehotu": 6263,
      "Ġgeografi": 6264,
      "Ġsuve": 6265,
      "Ġ137": 6266,
      "Ġkonecneho": 6267,
      "Ġvymeny": 6268,
      "Ġdigita": 6269,
      "Ġvyply": 6270,
      "Ġkau": 6271,
      "Ġtribunal": 6272,
      "Ġrozdielne": 6273,
      "tovy": 6274,
      "Ġprednie": 6275,
      "xu": 6276,
      "Ġlisty": 6277,
      "Ġspolocnym": 6278,
      "Ġzakonnosti": 6279,
      "Ġobvi": 6280,
      "Ġplc": 6281,
      "Ġer": 6282,
      "veho": 6283,
      "Ġnevyzaduje": 6284,
      "Ġskuse": 6285,
      "Ġmedzinarodneho": 6286,
      "Ġletiska": 6287,
      "Ġdomacnosti": 6288,
      "Ġkombinovanej": 6289,
      "Ġsprie": 6290,
      "rity": 6291,
      "Ġcivil": 6292,
      "Ġakymi": 6293,
      "Ġcertifikat": 6294,
      "Ġzeu": 6295,
      "Ġpodielov": 6296,
      "Ġzamietnutie": 6297,
      "Ġobmedzuje": 6298,
      "Ġute": 6299,
      "Ġviedlo": 6300,
      "Ġmedzinarodnu": 6301,
      "Ġdanovy": 6302,
      "zacie": 6303,
      "Ġzakotve": 6304,
      "Ġimple": 6305,
      "Ġprihlas": 6306,
      "Ġgeneral": 6307,
      "Ġprispevky": 6308,
      "Ġdocasneho": 6309,
      "Ġzacle": 6310,
      "Ġtkaniny": 6311,
      "tika": 6312,
      "sili": 6313,
      "zovat": 6314,
      "Ġoc": 6315,
      "renej": 6316,
      "Ġsur": 6317,
      "Ġ234": 6318,
      "Ġspravania": 6319,
      "Ġstanovenym": 6320,
      "Ġpisomnu": 6321,
      "Ġindo": 6322,
      "Ġpodnikmi": 6323,
      "Ġkomer": 6324,
      "Ġext": 6325,
      "Ġodkazy": 6326,
      "Ġalternativ": 6327,
      "Ġfunkcii": 6328,
      "Ġpobo": 6329,
      "Ġprira": 6330,
      "Ġprvo": 6331,
      "Ġuradne": 6332,
      "Ġusadit": 6333,
      "Ġcely": 6334,
      "Ġdelegovaneho": 6335,
      "int": 6336,
      "Ġjednoznacne": 6337,
      "Ġzapocita": 6338,
      "Ġvybera": 6339,
      "Ġlikvida": 6340,
      "dsi": 6341,
      "Ġkukuri": 6342,
      "Ġsele": 6343,
      "Ġnespochyb": 6344,
      "Ġmrl": 6345,
      "Ġdoplnaju": 6346,
      "Ġobehu": 6347,
      "Ġelektricke": 6348,
      "Ġskupine": 6349,
      "Ġpravnickych": 6350,
      "Ġvykonom": 6351,
      "Ġznizit": 6352,
      "roby": 6353,
      "Ġdemo": 6354,
      "Ġspravnych": 6355,
      "zolu": 6356,
      "Ġtretom": 6357,
      "Ġbanka": 6358,
      "Ġsystemati": 6359,
      "lli": 6360,
      "inde": 6361,
      "Ġ0003": 6362,
      "Ġ204": 6363,
      "Ġvelkosti": 6364,
      "Ġurciteho": 6365,
      "Ġvylucene": 6366,
      "Ġmz": 6367,
      "Ġznaky": 6368,
      "Ġzamestnanec": 6369,
      "hydro": 6370,
      "Ġzaregi": 6371,
      "Ġlisti": 6372,
      "Ġviacere": 6373,
      "Ġomeska": 6374,
      "nicku": 6375,
      "Ġrozu": 6376,
      "Ġvyhotove": 6377,
      "sena": 6378,
      "Ġseda": 6379,
      "Ġvykazova": 6380,
      "Ġplod": 6381,
      "Ġnajom": 6382,
      "Ġvsetkymi": 6383,
      "Ġvypocuti": 6384,
      "Ġsudov": 6385,
      "tech": 6386,
      "Ġstudie": 6387,
      "Ġdrz": 6388,
      "Ġdostupnych": 6389,
      "Ġzameny": 6390,
      "Ġpoma": 6391,
      "Ġochrannou": 6392,
      "Ġchlor": 6393,
      "Ġbioto": 6394,
      "citelne": 6395,
      "Ġpouzivatelov": 6396,
      "Ġpotvrd": 6397,
      "Ġplyn": 6398,
      "Ġhorizon": 6399,
      "Ġzohladni": 6400,
      "loba": 6401,
      "Ġpody": 6402,
      "ias": 6403,
      "Ġnajvac": 6404,
      "Ġskre": 6405,
      "lot": 6406,
      "Ġpodvod": 6407,
      "Ġmesa": 6408,
      "Ġmln": 6409,
      "Ġfos": 6410,
      "Ġposudzovania": 6411,
      "Ġosobitny": 6412,
      "Ġeuropa": 6413,
      "Ġ151": 6414,
      "76": 6415,
      "Ġtazkosti": 6416,
      "Ġsuhrn": 6417,
      "0010": 6418,
      "Ġfis": 6419,
      "Ġprotokol": 6420,
      "Ġnace": 6421,
      "Ġpravnom": 6422,
      "Ġrozdelenie": 6423,
      "sat": 6424,
      "Ġnamo": 6425,
      "Ġucinkom": 6426,
      "Ġprislusna": 6427,
      "mit": 6428,
      "Ġudelenie": 6429,
      "hlas": 6430,
      "Ġai": 6431,
      "Ġ0406": 6432,
      "Ġzelenina": 6433,
      "Ġmerania": 6434,
      "Ġdotknutym": 6435,
      "jucemu": 6436,
      "Ġ152": 6437,
      "zena": 6438,
      "Ġbezpecnostne": 6439,
      "Ġtextilie": 6440,
      "Ġnastup": 6441,
      "Ġvzajomne": 6442,
      "Ġoslobodenia": 6443,
      "Ġkopi": 6444,
      "Ġ800": 6445,
      "Ġucinku": 6446,
      "Ġfond": 6447,
      "Ġzasah": 6448,
      "cipli": 6449,
      "Ġneopravnene": 6450,
      "Ġodovodneniach": 6451,
      "pol": 6452,
      "Ġfaktory": 6453,
      "Ġneuverejneny": 6454,
      "licky": 6455,
      "Ġ310": 6456,
      "fer": 6457,
      "Ġpreven": 6458,
      "Ġpremen": 6459,
      "telovi": 6460,
      "Ġocakava": 6461,
      "Ġsukromne": 6462,
      "Ġ2150": 6463,
      "Ġsuvisi": 6464,
      "Ġhro": 6465,
      "Ġfyzicke": 6466,
      "Ġnutne": 6467,
      "Ġ155": 6468,
      "Ġchorob": 6469,
      "Ġakukolvek": 6470,
      "Ġeston": 6471,
      "Ġsustavy": 6472,
      "Ġvodic": 6473,
      "Ġproduktu": 6474,
      "Ġrozpoct": 6475,
      "ĠÎµ": 6476,
      "Ġzavisi": 6477,
      "Ġprislusenstvo": 6478,
      "Ġtype": 6479,
      "Ġmimoria": 6480,
      "Ġpripravy": 6481,
      "rymi": 6482,
      "Ġoznamene": 6483,
      "Ġvymedzene": 6484,
      "Ġposkytla": 6485,
      "Ġzdravotne": 6486,
      "tive": 6487,
      "Ġâī¥": 6488,
      "Ġludsku": 6489,
      "covych": 6490,
      "Ġrop": 6491,
      "Ġ170": 6492,
      "Ġvydania": 6493,
      "Ġire": 6494,
      "Ġurcitej": 6495,
      "Ġpolnohospodarskej": 6496,
      "niek": 6497,
      "kciu": 6498,
      "zane": 6499,
      "Ġstrat": 6500,
      "Ġuse": 6501,
      "Ġzhromaz": 6502,
      "tacie": 6503,
      "Ġ1988": 6504,
      "Ġeviden": 6505,
      "Ġodvolani": 6506,
      "tio": 6507,
      "Ġziskanie": 6508,
      "Ġnepredstavuje": 6509,
      "Ġfondov": 6510,
      "Ġskod": 6511,
      "Ġfungovanie": 6512,
      "Ġcelu": 6513,
      "Ġnapadnuty": 6514,
      "Ġvymenu": 6515,
      "Ġadvokati": 6516,
      "Ġix": 6517,
      "tickeho": 6518,
      "Ġpozaduje": 6519,
      "Ġvyvoja": 6520,
      "Ġdodrziavat": 6521,
      "Ġkle": 6522,
      "Ġnazna": 6523,
      "Ġnevyplyva": 6524,
      "Ġvysvetli": 6525,
      "Ġministerstva": 6526,
      "Ġzistit": 6527,
      "Ġ156": 6528,
      "Ġdovoznych": 6529,
      "Ġmodu": 6530,
      "Ġutr": 6531,
      "Ġdlhu": 6532,
      "zov": 6533,
      "Ġles": 6534,
      "Ġprispevkov": 6535,
      "Ġkonat": 6536,
      "Ġdefinicie": 6537,
      "Ġkni": 6538,
      "hof": 6539,
      "rozu": 6540,
      "Ġparame": 6541,
      "Ġexpozicii": 6542,
      "Ġplneni": 6543,
      "Ġrozde": 6544,
      "Ġzamestnavatel": 6545,
      "Ġvyrobnych": 6546,
      "dr": 6547,
      "Ġmilionov": 6548,
      "Ġzlyha": 6549,
      "Ġosipa": 6550,
      "Ġsplnomocneny": 6551,
      "Ġoznacenim": 6552,
      "Ġprikaz": 6553,
      "Ġprefere": 6554,
      "vov": 6555,
      "Ġhrub": 6556,
      "Ġvelkej": 6557,
      "Ġzaviest": 6558,
      "Ġ2138": 6559,
      "Ġuk": 6560,
      "Ġznamkou": 6561,
      "Ġ1001": 6562,
      "Ġsm": 6563,
      "rnej": 6564,
      "Ġvedo": 6565,
      "Ġ182": 6566,
      "Ġdotaz": 6567,
      "Ġ1068": 6568,
      "Ġuplatneni": 6569,
      "ziat": 6570,
      "Ġprvym": 6571,
      "pt": 6572,
      "Ð¸Ñ": 6573,
      "rovi": 6574,
      "Ġkusov": 6575,
      "tach": 6576,
      "Ġpodoz": 6577,
      "Ġdiscipli": 6578,
      "cat": 6579,
      "Ġodmietnut": 6580,
      "Ġposkytnutych": 6581,
      "Ġporaden": 6582,
      "Ġovocie": 6583,
      "hl": 6584,
      "Ġ168": 6585,
      "Ġpismeno": 6586,
      "Ġoperac": 6587,
      "Ġhospodarska": 6588,
      "Ġita": 6589,
      "Ġlimit": 6590,
      "Ġkolateral": 6591,
      "Ġ299": 6592,
      "Ġzmra": 6593,
      "Ġschopnost": 6594,
      "ction": 6595,
      "ban": 6596,
      "Ġdnu": 6597,
      "Ġintervenc": 6598,
      "Ġpripustnosti": 6599,
      "Ġvykonavacich": 6600,
      "au": 6601,
      "cok": 6602,
      "rili": 6603,
      "Ġzaradene": 6604,
      "Ġrodicov": 6605,
      "Ġwor": 6606,
      "Ġneobsahuje": 6607,
      "Ġpolnohospoda": 6608,
      "Ġpreukazanie": 6609,
      "Ġposudzovani": 6610,
      "Ġextra": 6611,
      "Ġprislusnikom": 6612,
      "Ġ149": 6613,
      "Ġpapiere": 6614,
      "Ġchlade": 6615,
      "Ġvzni": 6616,
      "Ġpresved": 6617,
      "hych": 6618,
      "ravy": 6619,
      "Ġformou": 6620,
      "trzi": 6621,
      "Ġvztahov": 6622,
      "renim": 6623,
      "Ġprimeranej": 6624,
      "Ġprevadzkove": 6625,
      "Ġ900": 6626,
      "Ġnepretrzi": 6627,
      "Ġvycerpa": 6628,
      "nium": 6629,
      "Ġsenatom": 6630,
      "Ġnev": 6631,
      "Ġvzory": 6632,
      "Ġ1408": 6633,
      "Ġmori": 6634,
      "Ġfyzickych": 6635,
      "kmi": 6636,
      "Ġszb": 6637,
      "Ġprostriedkami": 6638,
      "Ġsuveren": 6639,
      "Ġ560": 6640,
      "Ġvydal": 6641,
      "Ġvazne": 6642,
      "Ġpripustne": 6643,
      "Ġhlavnych": 6644,
      "Ġpolovi": 6645,
      "Ġobchode": 6646,
      "Ġchop": 6647,
      "logickej": 6648,
      "Ġviacero": 6649,
      "Ġrakusko": 6650,
      "Ġpasi": 6651,
      "Ġ722": 6652,
      "Ġszbp": 6653,
      "mbo": 6654,
      "Ġzhodno": 6655,
      "Ġudelene": 6656,
      "Ġjusti": 6657,
      "Ġleteckej": 6658,
      "Ġocen": 6659,
      "zovane": 6660,
      "Ġfrance": 6661,
      "Ġpalube": 6662,
      "Ġzabezpecuje": 6663,
      "Ġseve": 6664,
      "Ġoleja": 6665,
      "Ġintegrova": 6666,
      "Ġstyroch": 6667,
      "Ġdodava": 6668,
      "Ġplate": 6669,
      "riaduje": 6670,
      "Ġmon": 6671,
      "Ġvyuzit": 6672,
      "Ġslovin": 6673,
      "Ġneutra": 6674,
      "Ġnedodrza": 6675,
      "Ġzaviazat": 6676,
      "ovaciu": 6677,
      "Ġdavok": 6678,
      "Ġopatreniami": 6679,
      "vor": 6680,
      "Ġnepova": 6681,
      "Ġ0207": 6682,
      "Ġzastupcu": 6683,
      "Ġspolkova": 6684,
      "Ġprejudicialnej": 6685,
      "Ġcharakteru": 6686,
      "Ġamino": 6687,
      "Ġvzdelavania": 6688,
      "Ġatla": 6689,
      "Ġmaterskej": 6690,
      "Ġnapa": 6691,
      "Ġstaci": 6692,
      "Ġteleviz": 6693,
      "Ġfinancnu": 6694,
      "Ġodvolavat": 6695,
      "Ġludskych": 6696,
      "lovy": 6697,
      "Ġuroky": 6698,
      "Ġace": 6699,
      "Ġporusila": 6700,
      "Ġota": 6701,
      "Ġrokovani": 6702,
      "Ġnespravnom": 6703,
      "Ġzamestnanci": 6704,
      "Ġzli": 6705,
      "Ġucinnostou": 6706,
      "Ġ167": 6707,
      "cd": 6708,
      "Ġvycvi": 6709,
      "Ġexistujuce": 6710,
      "Ġneobmedze": 6711,
      "Ġdoloz": 6712,
      "Ġdalsieho": 6713,
      "ticka": 6714,
      "Ġosvedceni": 6715,
      "Ġstanovenu": 6716,
      "Ġnetyka": 6717,
      "Ġstatnym": 6718,
      "Ġ146": 6719,
      "Ġvylucenie": 6720,
      "Ġdopravu": 6721,
      "Ġpouziti": 6722,
      "Ġmaximalny": 6723,
      "Ġtetra": 6724,
      "Ġ144": 6725,
      "Ġ261": 6726,
      "Ġznacne": 6727,
      "Ġvnutrostatnom": 6728,
      "Ġcelistvo": 6729,
      "Ġpredchadzajucom": 6730,
      "Ġpriznanie": 6731,
      "Ġoddelenia": 6732,
      "Ġreferencneho": 6733,
      "car": 6734,
      "Ġsubor": 6735,
      "Ġprislusnost": 6736,
      "riti": 6737,
      "fina": 6738,
      "Ġpest": 6739,
      "Ġmimoriadne": 6740,
      "Ġpodanim": 6741,
      "Ġtvrdila": 6742,
      "Ġsamotna": 6743,
      "Ġmonitorovanie": 6744,
      "Ġeuropskemu": 6745,
      "Ġmlieko": 6746,
      "Ġjednotnej": 6747,
      "graf": 6748,
      "Ġspracovane": 6749,
      "bne": 6750,
      "Ġcenne": 6751,
      "Ġpagebreak": 6752,
      "nul": 6753,
      "Ġdvoma": 6754,
      "Ġxii": 6755,
      "Ġnastroja": 6756,
      "Ġtextilnych": 6757,
      "ingu": 6758,
      "Ġnarodnych": 6759,
      "Ġnemusi": 6760,
      "Ġvyzadovat": 6761,
      "Ġskupinu": 6762,
      "Ġziskanych": 6763,
      "Ġobchodovania": 6764,
      "davok": 6765,
      "wo": 6766,
      "Ġzaist": 6767,
      "Ġotazkach": 6768,
      "Ġspravnej": 6769,
      "Ġsuhlasu": 6770,
      "atic": 6771,
      "ex": 6772,
      "Ġnoti": 6773,
      "Ġplatit": 6774,
      "cla": 6775,
      "Ġsukromneho": 6776,
      "Ġclenom": 6777,
      "Ġspravodlivosti": 6778,
      "form": 6779,
      "Ġbundes": 6780,
      "itel": 6781,
      "Ġistom": 6782,
      "lacie": 6783,
      "Ġdisku": 6784,
      "Ġzloziek": 6785,
      "Ġ700": 6786,
      "Ġmak": 6787,
      "Ġkonstatovanie": 6788,
      "Ġadministrativne": 6789,
      "Ġstatny": 6790,
      "Ġhodnotia": 6791,
      "Ġorig": 6792,
      "nikovych": 6793,
      "Ġpismene": 6794,
      "Ġzalobcov": 6795,
      "Ġnarokov": 6796,
      "Ġhttp": 6797,
      "Ġbudov": 6798,
      "Ġ165": 6799,
      "Ġpoziadavku": 6800,
      "Ġsadzob": 6801,
      "Ġkonf": 6802,
      "Ġvyhradou": 6803,
      "zie": 6804,
      "Ġpozicie": 6805,
      "Ġharmonizaciu": 6806,
      "Ġsprievod": 6807,
      "Ġutrpe": 6808,
      "Ġuvah": 6809,
      "ĠpoÅĤ": 6810,
      "Ġciny": 6811,
      "Ġstvrteho": 6812,
      "Ġchor": 6813,
      "Ġnamietku": 6814,
      "Ġzodpovedajuce": 6815,
      "Ġprihlaska": 6816,
      "cid": 6817,
      "Ġcelok": 6818,
      "Ġmanu": 6819,
      "Ġzvyhod": 6820,
      "Ġcenou": 6821,
      "Ġoleje": 6822,
      "Ġdefinicia": 6823,
      "Ġuniou": 6824,
      "Ġ015": 6825,
      "Ġspotreba": 6826,
      "Ġdesi": 6827,
      "Ġpriori": 6828,
      "Ġzaplatenie": 6829,
      "bud": 6830,
      "Ġbezpecnostnych": 6831,
      "Ġrezidu": 6832,
      "Ġsan": 6833,
      "Ġderivaty": 6834,
      "Ġpracovnik": 6835,
      "Ġnapravy": 6836,
      "Ġminera": 6837,
      "Ġrozmno": 6838,
      "Ġulozena": 6839,
      "Ġgemeinde": 6840,
      "Ġarchi": 6841,
      "Ġture": 6842,
      "Ġpapier": 6843,
      "Ġnalezite": 6844,
      "Ġgrecko": 6845,
      "Ġvis": 6846,
      "coch": 6847,
      "vala": 6848,
      "Ġpredmety": 6849,
      "Ġkab": 6850,
      "Ġpresu": 6851,
      "Ġzmes": 6852,
      "Ġdreva": 6853,
      "Ġpoukazuje": 6854,
      "Ġ213800": 6855,
      "Ġzakaznikov": 6856,
      "Ġnetto": 6857,
      "Ġprevadzkovych": 6858,
      "Ġ640": 6859,
      "Ġregion": 6860,
      "Ġstia": 6861,
      "Ġzalobcovi": 6862,
      "Ġumyse": 6863,
      "Ġopo": 6864,
      "Ġsmere": 6865,
      "Ġvlastnictvo": 6866,
      "Ġzachovat": 6867,
      "400": 6868,
      "Ġzvysit": 6869,
      "Ġpristupeni": 6870,
      "Ġmas": 6871,
      "Ġkoncentracia": 6872,
      "lnenia": 6873,
      "Ġobce": 6874,
      "Ġ161": 6875,
      "rym": 6876,
      "Ġdvadsi": 6877,
      "Ġoznamia": 6878,
      "Ġpresa": 6879,
      "Ġslad": 6880,
      "denc": 6881,
      "Ġhovadzieho": 6882,
      "Ġfer": 6883,
      "Ġvyvazajucich": 6884,
      "Ġautonom": 6885,
      "wia": 6886,
      "Ġ153": 6887,
      "Ġopravnena": 6888,
      "zua": 6889,
      "Ġbrusel": 6890,
      "Ġuvery": 6891,
      "Ġryby": 6892,
      "Ġdobrovo": 6893,
      "tuje": 6894,
      "Ġpotrebnych": 6895,
      "Ġintegra": 6896,
      "Ġucastnikmi": 6897,
      "Ġpocia": 6898,
      "rbe": 6899,
      "ken": 6900,
      "Ġmiera": 6901,
      "novali": 6902,
      "Ġschopne": 6903,
      "iace": 6904,
      "Ġvztahy": 6905,
      "Ġaqu": 6906,
      "Ġdopy": 6907,
      "Ġnou": 6908,
      "Ġuvadzat": 6909,
      "Ġdip": 6910,
      "Ġstadiu": 6911,
      "Ġ154": 6912,
      "Ġindone": 6913,
      "Ġ510": 6914,
      "rito": 6915,
      "Ġrozhodla": 6916,
      "Ġdekretu": 6917,
      "Ġletovej": 6918,
      "Ġchorvat": 6919,
      "Ġprostriedku": 6920,
      "Ġchoroby": 6921,
      "cio": 6922,
      "Ġpracovnika": 6923,
      "Ġzony": 6924,
      "nitelne": 6925,
      "Ġtestu": 6926,
      "Ġoddielu": 6927,
      "Ġukoncenia": 6928,
      "zii": 6929,
      "Ġ0001": 6930,
      "Ġuplynutim": 6931,
      "Ġpenaznych": 6932,
      "cenych": 6933,
      "Ġ550": 6934,
      "Ġzodpovedaju": 6935,
      "nku": 6936,
      "Ġtrestne": 6937,
      "Ġktorejkolvek": 6938,
      "ye": 6939,
      "orga": 6940,
      "Ġpriestore": 6941,
      "Ġvypocte": 6942,
      "Ġvzduchu": 6943,
      "nkach": 6944,
      "Ġkali": 6945,
      "Ġinformovat": 6946,
      "Ġmeranie": 6947,
      "Ġspolocnostiam": 6948,
      "Ġpredlozeny": 6949,
      "Ġprednost": 6950,
      "Ġprv": 6951,
      "Ġpatriace": 6952,
      "Ġoznacuje": 6953,
      "Ġneumoznuje": 6954,
      "Ġkvalitu": 6955,
      "Ġekspo": 6956,
      "Ġtypoveho": 6957,
      "Ġvcas": 6958,
      "Ġvyssia": 6959,
      "Ġobid": 6960,
      "skup": 6961,
      "Ġmechanizmus": 6962,
      "Ġlodi": 6963,
      "Ġzasadami": 6964,
      "Ġdodrziavania": 6965,
      "Ġschvaleni": 6966,
      "Ġskumat": 6967,
      "tka": 6968,
      "Ġzasiela": 6969,
      "Ġsar": 6970,
      "ceu": 6971,
      "Ġland": 6972,
      "Ġxx": 6973,
      "Ġvyhradach": 6974,
      "Ġprijimat": 6975,
      "Ġodchylne": 6976,
      "Ġportugalsko": 6977,
      "mych": 6978,
      "Ġslovenska": 6979,
      "Ġ337": 6980,
      "Ġvytvorenie": 6981,
      "Ġdesat": 6982,
      "Ġzakladom": 6983,
      "Ġosetre": 6984,
      "til": 6985,
      "Ġnormotvorca": 6986,
      "Ġnavi": 6987,
      "Ġprislusnom": 6988,
      "Ġplavidlo": 6989,
      "Ġnedovod": 6990,
      "Ġvedlajsie": 6991,
      "novuje": 6992,
      "Ġjudikaturou": 6993,
      "Ġ1107": 6994,
      "Ġuveru": 6995,
      "Ġpripravu": 6996,
      "Ġwit": 6997,
      "Ġoznamit": 6998,
      "Ġtried": 6999,
      "Ġvybavene": 7000,
      "Ġcinskej": 7001,
      "Ġ184": 7002,
      "Ġsplatnosti": 7003,
      "Ġpodporuje": 7004,
      "Ġprevadzkovatelov": 7005,
      "rop": 7006,
      "Ġvu": 7007,
      "nutiu": 7008,
      "Ġrezolu": 7009,
      "Ġdohodou": 7010,
      "Ġacute": 7011,
      "Ġ343": 7012,
      "Ġsluzbami": 7013,
      "Ġrastliny": 7014,
      "chts": 7015,
      "Ġpristupe": 7016,
      "Ġodstranenie": 7017,
      "Ġakakolvek": 7018,
      "Ġludske": 7019,
      "Ġzalobnom": 7020,
      "Ġplatia": 7021,
      "Ġjednotne": 7022,
      "Ġzalezitosti": 7023,
      "Ġjapon": 7024,
      "byt": 7025,
      "Ġhno": 7026,
      "Ġspravodajca": 7027,
      "ple": 7028,
      "Ġvyborom": 7029,
      "Ġdoverne": 7030,
      "Ġpiate": 7031,
      "Ġmodi": 7032,
      "Ġvyssi": 7033,
      "Ġtru": 7034,
      "Ġ480": 7035,
      "Ġpreco": 7036,
      "Ġdochadza": 7037,
      "Ġnavrhovatel": 7038,
      "Ġzivocisneho": 7039,
      "Ġcestnej": 7040,
      "Ġposkytnu": 7041,
      "Ġnemcina": 7042,
      "Ġpodpolozky": 7043,
      "Ġpotreba": 7044,
      "Ġmc": 7045,
      "juc": 7046,
      "ya": 7047,
      "deniu": 7048,
      "Ġ2694": 7049,
      "Ġposkytovane": 7050,
      "Ġchemickych": 7051,
      "Ġsvieti": 7052,
      "Ġ330": 7053,
      "Ġdopustila": 7054,
      "Ġvykazuju": 7055,
      "Ġpriemyselne": 7056,
      "Ġradou": 7057,
      "Ġzvazok": 7058,
      "Ġtermin": 7059,
      "fenyl": 7060,
      "lup": 7061,
      "nach": 7062,
      "Ġvseobecnemu": 7063,
      "Ġnepredlozi": 7064,
      "Ġpouzity": 7065,
      "Ġprvostup": 7066,
      "Ġ158": 7067,
      "Ġdov": 7068,
      "Ġopodstatnene": 7069,
      "Ġprocesne": 7070,
      "Ġvyvola": 7071,
      "Ġvyhodu": 7072,
      "Ġzakladnej": 7073,
      "Ġludovej": 7074,
      "Ġasi": 7075,
      "Ġ396": 7076,
      "Ġvynimo": 7077,
      "Ġoko": 7078,
      "Ġpopulacie": 7079,
      "Ġspacha": 7080,
      "Ġhelen": 7081,
      "Ġobycaj": 7082,
      "del": 7083,
      "Ġpozosta": 7084,
      "Ġ205": 7085,
      "Ġhisto": 7086,
      "Ġoznacene": 7087,
      "Ġgloba": 7088,
      "Ġsankcii": 7089,
      "Ġzamestnavatela": 7090,
      "Ġabstra": 7091,
      "Ġpersona": 7092,
      "Ġdivi": 7093,
      "Ġspotrebitelom": 7094,
      "Ġschvalene": 7095,
      "Ġpovaha": 7096,
      "Ġostatnymi": 7097,
      "Ġpraxe": 7098,
      "Ġdovozy": 7099,
      "Ġcislom": 7100,
      "Ġorigina": 7101,
      "Ġvsetci": 7102,
      "Ġporiad": 7103,
      "Ġprimar": 7104,
      "Ġkrajinami": 7105,
      "Ġposkytnutia": 7106,
      "ult": 7107,
      "vym": 7108,
      "Ġvidi": 7109,
      "Ġuskutocnuje": 7110,
      "Ġkonsolid": 7111,
      "Ġzem": 7112,
      "Ġpotrebny": 7113,
      "Ġpane": 7114,
      "ktoch": 7115,
      "Ġkonkurz": 7116,
      "Ġpin": 7117,
      "Ġvychadzat": 7118,
      "ses": 7119,
      "Ġodmeny": 7120,
      "ments": 7121,
      "Ġatlanti": 7122,
      "Ġpricin": 7123,
      "Ġobchodovanie": 7124,
      "Ġzvlast": 7125,
      "Ġpreukaze": 7126,
      "Ġudelit": 7127,
      "Ġplatba": 7128,
      "Ġspracov": 7129,
      "Ġspolupraca": 7130,
      "Ġrovnakych": 7131,
      "Ġcorpo": 7132,
      "Ġmonitorovania": 7133,
      "Ġtrestnych": 7134,
      "nii": 7135,
      "Ġprofi": 7136,
      "nickym": 7137,
      "Ġsklada": 7138,
      "Ġnemohla": 7139,
      "Ġlicencii": 7140,
      "Ġstruktury": 7141,
      "Ġdodatok": 7142,
      "Ġrezidui": 7143,
      "Ġvyvazajuci": 7144,
      "Ġprejednavanom": 7145,
      "put": 7146,
      "Ġuzatvara": 7147,
      "Ġrezime": 7148,
      "Ġsad": 7149,
      "Ġnovej": 7150,
      "Ġvalc": 7151,
      "Ġbezpecnostnej": 7152,
      "Ġapro": 7153,
      "Ġodpadov": 7154,
      "Ġposudzovat": 7155,
      "fy": 7156,
      "Ġuznesenim": 7157,
      "Ġpaliv": 7158,
      "Ġopakova": 7159,
      "Ġvyuzitie": 7160,
      "Ġkonzerv": 7161,
      "Ġvzne": 7162,
      "Ġdoplnkove": 7163,
      "Ġhorizonta": 7164,
      "Ġfrancuzstina": 7165,
      "Ġprijali": 7166,
      "Ġobu": 7167,
      "Ġtkani": 7168,
      "Ġopravy": 7169,
      "ĠÕ": 7170,
      "Ġdlhopis": 7171,
      "Ġzavere": 7172,
      "rnych": 7173,
      "Ġpodpoloz": 7174,
      "Ġvyjadrene": 7175,
      "bus": 7176,
      "Ġvyklade": 7177,
      "Ġ171": 7178,
      "Ġvratit": 7179,
      "Ġpraci": 7180,
      "dentov": 7181,
      "Ġakcep": 7182,
      "Ġ175": 7183,
      "Ġposi": 7184,
      "don": 7185,
      "Ġpriznat": 7186,
      "Ġprepo": 7187,
      "Ġspoj": 7188,
      "Ġprote": 7189,
      "Ġneprimerane": 7190,
      "Ġosobnej": 7191,
      "Ġ211": 7192,
      "Ġradio": 7193,
      "reneho": 7194,
      "Ġkvanti": 7195,
      "Ġodpoveda": 7196,
      "cus": 7197,
      "Ġmotory": 7198,
      "Ġspre": 7199,
      "Ġspecifikova": 7200,
      "Ġ388": 7201,
      "logickych": 7202,
      "Ġrad": 7203,
      "hyd": 7204,
      "Ġiniciati": 7205,
      "Ġprejudicialnu": 7206,
      "Ġtz": 7207,
      "Ġargumentacia": 7208,
      "Ġstranke": 7209,
      "Ġinst": 7210,
      "Ġline": 7211,
      "Ġvyplate": 7212,
      "Ġpotravinach": 7213,
      "kovi": 7214,
      "vna": 7215,
      "Ġ630": 7216,
      "ovymi": 7217,
      "Ġfaktorov": 7218,
      "Ġspore": 7219,
      "Ġnesporne": 7220,
      "ami": 7221,
      "Ġurcovanie": 7222,
      "Ġ410": 7223,
      "Ġsocialnych": 7224,
      "Ġspecifickych": 7225,
      "Ġurokov": 7226,
      "Ġvyuzivat": 7227,
      "cje": 7228,
      "Ġodseky": 7229,
      "dan": 7230,
      "Ġinn": 7231,
      "Ġpristav": 7232,
      "Ġmimoriad": 7233,
      "Ġkilo": 7234,
      "Ġkonca": 7235,
      "Ġzdrzia": 7236,
      "Ġriadiaceho": 7237,
      "Ġceska": 7238,
      "Ġhospodarskom": 7239,
      "Ġukazovate": 7240,
      "Ġobjas": 7241,
      "Ġinstituciami": 7242,
      "Ġstarostlivost": 7243,
      "Ġnedostatok": 7244,
      "Ġpoistne": 7245,
      "Ġlieky": 7246,
      "Ġpokutu": 7247,
      "Ġrodiny": 7248,
      "Ġtero": 7249,
      "kcii": 7250,
      "Ġazyl": 7251,
      "Ġzria": 7252,
      "Ġtrhoch": 7253,
      "mt": 7254,
      "ud": 7255,
      "Ġvyjadrenia": 7256,
      "Ġzalozenom": 7257,
      "Ġbrania": 7258,
      "nder": 7259,
      "Ġuznava": 7260,
      "Ġsporov": 7261,
      "Ġcompany": 7262,
      "Ġspochybnit": 7263,
      "Ġopu": 7264,
      "Ġkonc": 7265,
      "Ġobcanov": 7266,
      "ire": 7267,
      "Ġzeleza": 7268,
      "Ġupravit": 7269,
      "Ġodporucania": 7270,
      "kovymi": 7271,
      "Ġvyznamom": 7272,
      "Ġpripravkov": 7273,
      "Ġsvetlo": 7274,
      "Ġinvestor": 7275,
      "Ġpremi": 7276,
      "Ġelektriny": 7277,
      "Ġvyuzivania": 7278,
      "siahne": 7279,
      "Ġnezrovnalosti": 7280,
      "Ġodchod": 7281,
      "Ġkurz": 7282,
      "Ġprihlasky": 7283,
      "ore": 7284,
      "mpingu": 7285,
      "dt": 7286,
      "Ġposil": 7287,
      "Ġregistrova": 7288,
      "Ġkoeficient": 7289,
      "aktiv": 7290,
      "ovanom": 7291,
      "Ġdete": 7292,
      "Ġkonkurenc": 7293,
      "Ġ169": 7294,
      "Ġskusenosti": 7295,
      "Ġskrob": 7296,
      "Ġ187": 7297,
      "Ġuzivatel": 7298,
      "Ġrozsudkov": 7299,
      "Ġvyplne": 7300,
      "Ġpriemyslu": 7301,
      "Ġsubjektmi": 7302,
      "bl": 7303,
      "Ġuradnych": 7304,
      "Ġtuku": 7305,
      "Ġzasielky": 7306,
      "Ġnavrhujem": 7307,
      "Ġnikdy": 7308,
      "Ġopravnenych": 7309,
      "ctva": 7310,
      "lizacii": 7311,
      "Ġicao": 7312,
      "Ġvyjadrit": 7313,
      "Ġrws": 7314,
      "Ġprevadzkovatelia": 7315,
      "cine": 7316,
      "Ġstiha": 7317,
      "Ġosobitnu": 7318,
      "Ġstandardi": 7319,
      "Ġnizsia": 7320,
      "Ġuvedenou": 7321,
      "Ġopravnenie": 7322,
      "Ġstranou": 7323,
      "Ġplatbu": 7324,
      "Ġ164": 7325,
      "Ġsport": 7326,
      "Î¿ÏĤ": 7327,
      "Ġdodatocnych": 7328,
      "atiny": 7329,
      "Ġetyl": 7330,
      "Ġobvykle": 7331,
      "Ġ543": 7332,
      "Ġcerve": 7333,
      "Ġafri": 7334,
      "Ġjanua": 7335,
      "dor": 7336,
      "Ġtechnicka": 7337,
      "Ġpostaveni": 7338,
      "zycje": 7339,
      "Ġpse": 7340,
      "Ġprerusit": 7341,
      "Ġekspozycje": 7342,
      "Ġspresnuje": 7343,
      "Ġdodav": 7344,
      "Ġvysokej": 7345,
      "Ġpristrojov": 7346,
      "Ġchranenych": 7347,
      "Ġspochybnuje": 7348,
      "Ġnehod": 7349,
      "Ġtretimi": 7350,
      "Ġbaze": 7351,
      "Ġmulti": 7352,
      "Ġrovnakym": 7353,
      "Ġspaja": 7354,
      "Ġdcerskej": 7355,
      "Ġpraxi": 7356,
      "Ġzvycajne": 7357,
      "Ġpremiest": 7358,
      "gr": 7359,
      "Ġpenazne": 7360,
      "Ġzrusene": 7361,
      "Ġrovnova": 7362,
      "Ġopiera": 7363,
      "mate": 7364,
      "Ġminu": 7365,
      "Ġpotvrdil": 7366,
      "lizacia": 7367,
      "Ġ163": 7368,
      "Ġcertifika": 7369,
      "Ġhlava": 7370,
      "Ġ1515": 7371,
      "Ġkontrolou": 7372,
      "Ġplocha": 7373,
      "Ġ1985": 7374,
      "Ġzlozenie": 7375,
      "Ġkralovstve": 7376,
      "Ġucinnu": 7377,
      "senych": 7378,
      "Ġuradom": 7379,
      "Ġformalne": 7380,
      "Ġokru": 7381,
      "Ġrespekt": 7382,
      "Ġadresu": 7383,
      "Ġsplnit": 7384,
      "Ġ9000": 7385,
      "Ġpredmetu": 7386,
      "Ġnudz": 7387,
      "Ġkarbo": 7388,
      "Ġinci": 7389,
      "Ġkupujuci": 7390,
      "Ġobchodny": 7391,
      "Ġ575": 7392,
      "Ġliste": 7393,
      "Ġ190": 7394,
      "Ġllc": 7395,
      "atym": 7396,
      "pra": 7397,
      "Ġuctovnych": 7398,
      "Ġregistracie": 7399,
      "Ġodvolacom": 7400,
      "Ġsiestich": 7401,
      "Ġtelefon": 7402,
      "Ġposudzovaneho": 7403,
      "Ġchemicky": 7404,
      "Ġzber": 7405,
      "tiva": 7406,
      "Ġkvota": 7407,
      "Ġschengen": 7408,
      "Ġnazvany": 7409,
      "Ġ203": 7410,
      "Ġpoziadavkam": 7411,
      "Ġurcuju": 7412,
      "Ġmadarsko": 7413,
      "Ġpomeru": 7414,
      "310": 7415,
      "fos": 7416,
      "Ġposledne": 7417,
      "Ġskonceni": 7418,
      "Ġprene": 7419,
      "Ġberu": 7420,
      "Ġpodiely": 7421,
      "gua": 7422,
      "Ġ166": 7423,
      "Ġeuropskou": 7424,
      "Ġmuta": 7425,
      "Ġpredlozenim": 7426,
      "Î¹Îº": 7427,
      "Ġzmenena": 7428,
      "Ġucinny": 7429,
      "Ġmesiac": 7430,
      "Ġzavedenie": 7431,
      "Ġstvrty": 7432,
      "Ġrozpatie": 7433,
      "Ġprijaty": 7434,
      "Ġustanovenych": 7435,
      "Ġ176": 7436,
      "Ġneexistencie": 7437,
      "Ġventi": 7438,
      "tylen": 7439,
      "Ġzaznamy": 7440,
      "Ġrychlosti": 7441,
      "ros": 7442,
      "Ġnahradene": 7443,
      "Ġgran": 7444,
      "Ġdumpingu": 7445,
      "Ġkonzultacie": 7446,
      "Ġvon": 7447,
      "Ġodvod": 7448,
      "Ġonesko": 7449,
      "Ġustanovenim": 7450,
      "tions": 7451,
      "log": 7452,
      "Ġumysle": 7453,
      "Ġzdanenia": 7454,
      "Ġtransparentnosti": 7455,
      "Ġ226": 7456,
      "Ġzucastne": 7457,
      "syste": 7458,
      "vymi": 7459,
      "Ġleteckych": 7460,
      "mene": 7461,
      "Ġskusok": 7462,
      "rcu": 7463,
      "Ġvychodis": 7464,
      "Ġ940": 7465,
      "Ġpodali": 7466,
      "zovany": 7467,
      "Ġaproxima": 7468,
      "Ġ253": 7469,
      "racu": 7470,
      "Ġpovodneho": 7471,
      "Ġnaklada": 7472,
      "ÏīÎ½": 7473,
      "Ġodber": 7474,
      "Ġprilohu": 7475,
      "410": 7476,
      "Ġsutazi": 7477,
      "Ġ950": 7478,
      "racovane": 7479,
      "cent": 7480,
      "Ġpohladavok": 7481,
      "Ġarom": 7482,
      "Ġpredpisoch": 7483,
      "350": 7484,
      "Ġvyhradne": 7485,
      "Ġelektronicky": 7486,
      "Ġdlhodobe": 7487,
      "Ġinformaciam": 7488,
      "Ġuznanie": 7489,
      "Ġkoncep": 7490,
      "Ġprostredi": 7491,
      "Ġvole": 7492,
      "Ġkonaniach": 7493,
      "Ġzachova": 7494,
      "rocne": 7495,
      "Ġ162": 7496,
      "Ġdeta": 7497,
      "Ġjas": 7498,
      "fen": 7499,
      "kazal": 7500,
      "Ġkumu": 7501,
      "Ġrecht": 7502,
      "Ġrestriktivnych": 7503,
      "Ġ172": 7504,
      "Ġnedostatoc": 7505,
      "lida": 7506,
      "Ġsebe": 7507,
      "Ġpriadze": 7508,
      "Ġmotorove": 7509,
      "Ġnepodlieha": 7510,
      "bon": 7511,
      "lio": 7512,
      "Ġpovolania": 7513,
      "Ġlietadiel": 7514,
      "Ġpasma": 7515,
      "Ġeco": 7516,
      "Ġdomaha": 7517,
      "Ġobsahujuci": 7518,
      "Ġstvrta": 7519,
      "Ġtlaci": 7520,
      "Ġsvedsko": 7521,
      "inou": 7522,
      "Ġmarke": 7523,
      "Ġuhlovodikov": 7524,
      "Ġurcil": 7525,
      "Ġkonkretnych": 7526,
      "Ġzaradenia": 7527,
      "kcia": 7528,
      "Ġzastave": 7529,
      "Ġkoli": 7530,
      "Ġzastupcov": 7531,
      "Ġdiela": 7532,
      "Ġnijaky": 7533,
      "Î´": 7534,
      "Ġpouziju": 7535,
      "Ġstanovila": 7536,
      "Ġopakovane": 7537,
      "Ġprimeranu": 7538,
      "Ġsamotne": 7539,
      "Ġnebudu": 7540,
      "Ġmail": 7541,
      "Ġfinancna": 7542,
      "Ġya": 7543,
      "Ġlimited": 7544,
      "Ġposkod": 7545,
      "Ġdoklady": 7546,
      "licke": 7547,
      "Ġdusevneho": 7548,
      "Ġvlakna": 7549,
      "Ġspojenom": 7550,
      "300": 7551,
      "Ġdedic": 7552,
      "Ġumele": 7553,
      "Ġdominant": 7554,
      "Ġpolsko": 7555,
      "Ġzalozenej": 7556,
      "Ġstudia": 7557,
      "Ġpriazni": 7558,
      "nutej": 7559,
      "Ġ260": 7560,
      "nujucich": 7561,
      "Ġfyzicka": 7562,
      "Ġseg": 7563,
      "Ġvydat": 7564,
      "ktor": 7565,
      "Ġstl": 7566,
      "Ġosobitnej": 7567,
      "Ġzaistenie": 7568,
      "Ġnepresahujucou": 7569,
      "tyla": 7570,
      "Ġ189": 7571,
      "Ġstroj": 7572,
      "Ġzvysenia": 7573,
      "pena": 7574,
      "Ġtypy": 7575,
      "Ġzodpovedne": 7576,
      "Ġurceneho": 7577,
      "Ġzarucit": 7578,
      "Ġpodiela": 7579,
      "bia": 7580,
      "Ġzalobkynou": 7581,
      "Ġpolozit": 7582,
      "Ġnavrhoch": 7583,
      "Ġspornych": 7584,
      "Ġnezabezpe": 7585,
      "Ġprojekty": 7586,
      "Ġcen": 7587,
      "Ġretaz": 7588,
      "Ġpripusti": 7589,
      "Ġvytvorit": 7590,
      "Ġirska": 7591,
      "Ġedlp": 7592,
      "Ġrozpatia": 7593,
      "Ġvete": 7594,
      "Ġtranspo": 7595,
      "Ġhydiny": 7596,
      "Ġverejnym": 7597,
      "Ġstanoveni": 7598,
      "pust": 7599,
      "Ġvyrie": 7600,
      "Ġurcenej": 7601,
      "lue": 7602,
      "Ġvstupnych": 7603,
      "Ġsplnena": 7604,
      "Ġumozni": 7605,
      "Ġoliv": 7606,
      "Ġskodli": 7607,
      "lizovane": 7608,
      "Ġkapacita": 7609,
      "Ġeuropske": 7610,
      "Ġnemalo": 7611,
      "kr": 7612,
      "tari": 7613,
      "Ġnedoslo": 7614,
      "Ġzistilo": 7615,
      "et": 7616,
      "ght": 7617,
      "Ġboj": 7618,
      "Ġverzi": 7619,
      "Ġdansko": 7620,
      "Ġnasledujucim": 7621,
      "ach": 7622,
      "zou": 7623,
      "Ġakredi": 7624,
      "Ġprebera": 7625,
      "nco": 7626,
      "Ġtito": 7627,
      "Ġ258": 7628,
      "Ġmlad": 7629,
      "Ġpozitiv": 7630,
      "Ġvelky": 7631,
      "Ġposkytovatela": 7632,
      "Ġkomp": 7633,
      "Ġjedle": 7634,
      "Ġorienta": 7635,
      "Ġ1006": 7636,
      "Ġomeskania": 7637,
      "Ġnasledujuceho": 7638,
      "Ġrakuska": 7639,
      "gan": 7640,
      "Ġmrazene": 7641,
      "Ġaquatic": 7642,
      "mento": 7643,
      "Ġukazovatele": 7644,
      "Ġfax": 7645,
      "Ġ347": 7646,
      "Ġtakomto": 7647,
      "Ġukoncenie": 7648,
      "cto": 7649,
      "rskych": 7650,
      "Ġzistovania": 7651,
      "Ġstyku": 7652,
      "Ġpouzivatel": 7653,
      "Ġsusene": 7654,
      "Ġsusi": 7655,
      "Ġrezerv": 7656,
      "roso": 7657,
      "Ġukraji": 7658,
      "Ġvykonania": 7659,
      "Ġrozpoctovych": 7660,
      "Ġuvadzane": 7661,
      "Ġzistenie": 7662,
      "Ġporovnanie": 7663,
      "Ġminut": 7664,
      "Ġrodinnych": 7665,
      "Ġusklad": 7666,
      "chov": 7667,
      "Ġ239": 7668,
      "Ġsou": 7669,
      "non": 7670,
      "Ġdoprave": 7671,
      "Ġtechnologie": 7672,
      "metrov": 7673,
      "Ġnastave": 7674,
      "Ġpredsed": 7675,
      "Ġjediny": 7676,
      "Ġstrata": 7677,
      "Ġnb": 7678,
      "Ġznamke": 7679,
      "Ġcasto": 7680,
      "telnosti": 7681,
      "Ġzla": 7682,
      "Ġreklama": 7683,
      "Ġsha": 7684,
      "socia": 7685,
      "Ġ221": 7686,
      "sion": 7687,
      "Ġhodnoteni": 7688,
      "Ġtretiu": 7689,
      "Ġpotvrdi": 7690,
      "Ġneznamena": 7691,
      "tera": 7692,
      "Ġpovazovane": 7693,
      "Ġuniverza": 7694,
      "Ġkur": 7695,
      "Ġvyjadrenie": 7696,
      "neniu": 7697,
      "jn": 7698,
      "Ġmechanizmu": 7699,
      "Ġln": 7700,
      "Ġ1000": 7701,
      "Ġhospodarenia": 7702,
      "lovanych": 7703,
      "df": 7704,
      "tkod": 7705,
      "zdu": 7706,
      "Ġpritomnost": 7707,
      "Ġkratkod": 7708,
      "Ġtranzit": 7709,
      "trva": 7710,
      "mien": 7711,
      "Ġminimalna": 7712,
      "Ġplody": 7713,
      "Ġvykazovania": 7714,
      "Ġtechnologii": 7715,
      "Ġ215": 7716,
      "Ġzmeneneho": 7717,
      "Ġzalobkyn": 7718,
      "Ġmanipula": 7719,
      "Ġnediskrimina": 7720,
      "Ġobnovi": 7721,
      "schaft": 7722,
      "cre": 7723,
      "sch": 7724,
      "Ġriziku": 7725,
      "Ġdobytka": 7726,
      "Ñĥ": 7727,
      "Ġiran": 7728,
      "mbri": 7729,
      "Ġtlaku": 7730,
      "Ġmenovi": 7731,
      "Ġkarty": 7732,
      "fikovat": 7733,
      "Ġprima": 7734,
      "klo": 7735,
      "Ġfyzickej": 7736,
      "kovania": 7737,
      "Ġofc": 7738,
      "Ġchapat": 7739,
      "novane": 7740,
      "Ġkot": 7741,
      "miek": 7742,
      "ruju": 7743,
      "Ġvyhlada": 7744,
      "Ġsposobu": 7745,
      "Ġprislucha": 7746,
      "Ġlistu": 7747,
      "Ġjednoduche": 7748,
      "Ġzakonnost": 7749,
      "Ġzdravotnej": 7750,
      "Ġpojmy": 7751,
      "Ġcini": 7752,
      "fault": 7753,
      "Ġodpis": 7754,
      "Ġprofesiona": 7755,
      "Ġfur": 7756,
      "Ġsleduje": 7757,
      "Ġrastu": 7758,
      "plyvne": 7759,
      "Ġstarob": 7760,
      "Ġjednou": 7761,
      "Ġtakmer": 7762,
      "Ġfaze": 7763,
      "Ġvyrobkoch": 7764,
      "Ġspravca": 7765,
      "Ġulozenie": 7766,
      "Ġkonstatuje": 7767,
      "Ġbezny": 7768,
      "Ġpostupmi": 7769,
      "Ġ231": 7770,
      "Ġploch": 7771,
      "mery": 7772,
      "hrna": 7773,
      "Ġvnuto": 7774,
      "Ġoe": 7775,
      "Ġbv": 7776,
      "Ġspolkovej": 7777,
      "Ġsluzbach": 7778,
      "Ġzverejnenie": 7779,
      "Ġprotisu": 7780,
      "Ġposkytli": 7781,
      "Ġzluce": 7782,
      "tost": 7783,
      "Ġpostupe": 7784,
      "Ġ218": 7785,
      "Ġpodnikania": 7786,
      "Ġvnima": 7787,
      "Ġom": 7788,
      "fta": 7789,
      "Ġmol": 7790,
      "Ġkontakt": 7791,
      "Ġcelistvosti": 7792,
      "Ġzainteresovane": 7793,
      "Ġtzv": 7794,
      "Ġportfo": 7795,
      "Ġpracovnoprav": 7796,
      "Ġpolozke": 7797,
      "Ġporuseniu": 7798,
      "Ġodpocitanie": 7799,
      "Ġopravny": 7800,
      "Ġtlak": 7801,
      "Ġflo": 7802,
      "Ġobsiahnut": 7803,
      "Ġmesta": 7804,
      "Ġ580": 7805,
      "Ġfarmaceu": 7806,
      "sin": 7807,
      "kry": 7808,
      "tanie": 7809,
      "roku": 7810,
      "Ġodvolacie": 7811,
      "Ġdemokra": 7812,
      "Ġtovarom": 7813,
      "lite": 7814,
      "menty": 7815,
      "Ġvedecke": 7816,
      "Ġ847": 7817,
      "Ġnabo": 7818,
      "Ġ185": 7819,
      "Ġpolye": 7820,
      "Ġvlh": 7821,
      "Ġtelefo": 7822,
      "bezne": 7823,
      "sed": 7824,
      "Ġteplota": 7825,
      "Ġkrizovych": 7826,
      "Ġnejde": 7827,
      "lena": 7828,
      "Ġislo": 7829,
      "Ġdoziada": 7830,
      "Ġprodukcie": 7831,
      "Ġzasoby": 7832,
      "Ġviedli": 7833,
      "kladat": 7834,
      "Ġsnima": 7835,
      "Ġorechy": 7836,
      "Ġwto": 7837,
      "Ġkonkretneho": 7838,
      "Ġcesty": 7839,
      "Ġspornej": 7840,
      "Ġposkytovani": 7841,
      "Ġovplyvne": 7842,
      "Ġnedostatku": 7843,
      "Ġnezahrna": 7844,
      "siahnut": 7845,
      "Ġnaroky": 7846,
      "Ġspolocna": 7847,
      "vent": 7848,
      "Ġnazvu": 7849,
      "js": 7850,
      "Ġchlad": 7851,
      "Ġ318": 7852,
      "Ġspanielska": 7853,
      "dam": 7854,
      "Ġdet": 7855,
      "Ġvazby": 7856,
      "Ġulohou": 7857,
      "Ġnavzajom": 7858,
      "Ġpolozil": 7859,
      "Ġodmietnutie": 7860,
      "Ġvlastnictve": 7861,
      "Ġdoruceny": 7862,
      "Ġodbera": 7863,
      "lnemu": 7864,
      "Ġzapisana": 7865,
      "Ġkomu": 7866,
      "Ġschopny": 7867,
      "Ġpresetrovani": 7868,
      "Ġcolnom": 7869,
      "Ġprijemcu": 7870,
      "Ġelektronickej": 7871,
      "Ġprze": 7872,
      "Ġpouzivani": 7873,
      "Ġskorsej": 7874,
      "Ġstri": 7875,
      "Ġstranam": 7876,
      "bility": 7877,
      "Ġkontra": 7878,
      "Ġclena": 7879,
      "meno": 7880,
      "Ġdomnieval": 7881,
      "Ġmod": 7882,
      "Ġegy": 7883,
      "reniu": 7884,
      "Ġzamietnuti": 7885,
      "Ġzavaznosti": 7886,
      "Ġ005": 7887,
      "Ġpalivo": 7888,
      "Ġola": 7889,
      "Ġteplote": 7890,
      "Ġoddelene": 7891,
      "Ġtrhy": 7892,
      "Ġformat": 7893,
      "Ġmajitela": 7894,
      "Ġdosiah": 7895,
      "telny": 7896,
      "Ġspotrebnej": 7897,
      "Ġpouzivajuci": 7898,
      "rane": 7899,
      "Ġodvode": 7900,
      "Ġobcianskeho": 7901,
      "Ġkedykolvek": 7902,
      "Ġantidumpingoveho": 7903,
      "citane": 7904,
      "kyna": 7905,
      "Ġstretnuti": 7906,
      "hovych": 7907,
      "vanim": 7908,
      "Ġstrie": 7909,
      "Ġmalych": 7910,
      "Ġnamietka": 7911,
      "Ġskutkoveho": 7912,
      "Ġitalia": 7913,
      "Ġzasahu": 7914,
      "Ġverejna": 7915,
      "Ġpresta": 7916,
      "Ġseba": 7917,
      "Ġsposobit": 7918,
      "Ġcourt": 7919,
      "Ġziaden": 7920,
      "Ġumiestnenie": 7921,
      "Ġnale": 7922,
      "Ġdefault": 7923,
      "Ġdorucenia": 7924,
      "propy": 7925,
      "Ġhmotnostnych": 7926,
      "Ġvynimiek": 7927,
      "201": 7928,
      "Ġelect": 7929,
      "Ġ450": 7930,
      "Ġ840": 7931,
      "Ġukonceni": 7932,
      "Ġeuropean": 7933,
      "Ġoficia": 7934,
      "Ġ174": 7935,
      "Ġpovode": 7936,
      "Ġpoziadanie": 7937,
      "ctom": 7938,
      "Ġnavste": 7939,
      "Ġnarodov": 7940,
      "Ġtox": 7941,
      "lik": 7942,
      "Ġidentifikaciu": 7943,
      "Ġage": 7944,
      "Ġinvesticne": 7945,
      "Ġplatnych": 7946,
      "Ġposledneho": 7947,
      "Ġproblem": 7948,
      "Ġprijemca": 7949,
      "Ġ1986": 7950,
      "Ġtunia": 7951,
      "Ġchemicke": 7952,
      "Ġ194": 7953,
      "Ġtyzd": 7954,
      "Ġdoplnenia": 7955,
      "Ġ159": 7956,
      "Ġmuse": 7957,
      "Ġnijake": 7958,
      "Ġnepatria": 7959,
      "mes": 7960,
      "Ġpal": 7961,
      "Ġpriadza": 7962,
      "Ġvedlajsieho": 7963,
      "Ġpriemerna": 7964,
      "Ġpredlzenie": 7965,
      "Ġ202": 7966,
      "Ġaktom": 7967,
      "Ġ256": 7968,
      "cp": 7969,
      "Ġdodania": 7970,
      "Ġ240": 7971,
      "Ġzamerane": 7972,
      "Ġsekuriti": 7973,
      "Ġinput": 7974,
      "Ġ1701": 7975,
      "Ġneexistencia": 7976,
      "Ġska": 7977,
      "Ġvode": 7978,
      "Î¿Î½": 7979,
      "Ġdividen": 7980,
      "Ġuver": 7981,
      "Ġpisomnych": 7982,
      "Ġhomo": 7983,
      "Ġdojedna": 7984,
      "Ġcinnostou": 7985,
      "Ġgas": 7986,
      "verzi": 7987,
      "Ġlet": 7988,
      "Ġpostupne": 7989,
      "Ġ191": 7990,
      "Ġdovoze": 7991,
      "Ġzdanitelna": 7992,
      "Ġrozhodujuci": 7993,
      "Ġip": 7994,
      "Ġkontext": 7995,
      "Ġcelkom": 7996,
      "Ġcharakteristiky": 7997,
      "Ġdvadsiatym": 7998,
      "tinu": 7999,
      "Ġnatu": 8000,
      "Ġintenzi": 8001,
      "Ġstupni": 8002,
      "Ġez": 8003,
      "narne": 8004,
      "Ġrokovania": 8005,
      "Ġschopnosti": 8006,
      "rator": 8007,
      "tima": 8008,
      "Ġtretou": 8009,
      "Ġvykonal": 8010,
      "Ġtechnickeho": 8011,
      "Ġpodpisy": 8012,
      "Ġziadnom": 8013,
      "Ġholandska": 8014,
      "Ġzamestnancom": 8015,
      "par": 8016,
      "Ġstvrtro": 8017,
      "Ġhrube": 8018,
      "Ġzhor": 8019,
      "Ġkaucu": 8020,
      "Ġcorporation": 8021,
      "Ġpokracovat": 8022,
      "Ġ236": 8023,
      "Ġpobera": 8024,
      "Ġtranzi": 8025,
      "Ġautomob": 8026,
      "Ġdatume": 8027,
      "Ġsvojimi": 8028,
      "Ġopisane": 8029,
      "Ġfaktor": 8030,
      "Ġlogi": 8031,
      "Ġrozhoduje": 8032,
      "Ġpoziadala": 8033,
      "Ġ217": 8034,
      "Ġselektiv": 8035,
      "Ġdosledkom": 8036,
      "Ġvlajkou": 8037,
      "Ġneexistuju": 8038,
      "Ġprenosu": 8039,
      "Ġjem": 8040,
      "ÏģÎ¹": 8041,
      "Ġpriestorov": 8042,
      "rzie": 8043,
      "Ġochrannu": 8044,
      "Ġsposoby": 8045,
      "Ġvyberoveho": 8046,
      "Ġwy": 8047,
      "Ġdojde": 8048,
      "Ġznamku": 8049,
      "Ġstanovisku": 8050,
      "Ġph": 8051,
      "Ġuvo": 8052,
      "bnych": 8053,
      "Ġ290": 8054,
      "redit": 8055,
      "Ġpociatoc": 8056,
      "Ġuplatnitelnych": 8057,
      "Ġzaisti": 8058,
      "Ġsolas": 8059,
      "Ġlatku": 8060,
      "Ġzdruzenie": 8061,
      "Ġkazdemu": 8062,
      "Ġzrych": 8063,
      "ÐµÐ½": 8064,
      "Ġnaviga": 8065,
      "tovom": 8066,
      "211": 8067,
      "Ġvyu": 8068,
      "Ġzemia": 8069,
      "Ġuskutocnene": 8070,
      "Ġcinu": 8071,
      "Ġvelka": 8072,
      "Ġuradneho": 8073,
      "Ġcastou": 8074,
      "fil": 8075,
      "Ġcat": 8076,
      "Ġtazko": 8077,
      "Ġ208": 8078,
      "Ġzapad": 8079,
      "Ġchranit": 8080,
      "Ġvykonavacim": 8081,
      "Ġaspekty": 8082,
      "vaku": 8083,
      "Ġtrvanie": 8084,
      "Ġrestriktivne": 8085,
      "vuje": 8086,
      "Ġvaje": 8087,
      "tky": 8088,
      "Ġ1702": 8089,
      "Ġpripustny": 8090,
      "Ġgeneralna": 8091,
      "Ġvlastnej": 8092,
      "Ġds": 8093,
      "Ġ002": 8094,
      "visi": 8095,
      "Ġvysetrovanie": 8096,
      "Ġinfe": 8097,
      "Ġnerezi": 8098,
      "Ġrozumie": 8099,
      "Ġdodavok": 8100,
      "toto": 8101,
      "Ġodrody": 8102,
      "Ġsudnych": 8103,
      "odpoveda": 8104,
      "Ġ179": 8105,
      "Ġvysvetlenie": 8106,
      "Ġ255": 8107,
      "Ġdorucene": 8108,
      "Ġmau": 8109,
      "Ġdr": 8110,
      "novala": 8111,
      "Ġzvr": 8112,
      "Ġrozdelenia": 8113,
      "berg": 8114,
      "Ġ181": 8115,
      "Ġnemohol": 8116,
      "Ġtrvalo": 8117,
      "Ġnezda": 8118,
      "Ġidentifikova": 8119,
      "Ġnalezitosti": 8120,
      "Ġinvesto": 8121,
      "vacieho": 8122,
      "Ġbor": 8123,
      "Ġeng": 8124,
      "Ġverzia": 8125,
      "Ġzluceniny": 8126,
      "Ġpodporovat": 8127,
      "Ġholandsku": 8128,
      "Ġ731": 8129,
      "Ġ177": 8130,
      "Ġsily": 8131,
      "Ġobvod": 8132,
      "Ġviacerymi": 8133,
      "Ġpreprave": 8134,
      "Ġmest": 8135,
      "ÏģÎ±": 8136,
      "Ġnavrat": 8137,
      "mlu": 8138,
      "Ġvyznamny": 8139,
      "Ġrezervy": 8140,
      "Ġveli": 8141,
      "Ġsuvahove": 8142,
      "Ġoxidu": 8143,
      "Ġpodanej": 8144,
      "Ġjednotneho": 8145,
      "Ġpopis": 8146,
      "ac": 8147,
      "bank": 8148,
      "Ġvyssej": 8149,
      "Ġprvykrat": 8150,
      "Ġorganizova": 8151,
      "noval": 8152,
      "Ġzon": 8153,
      "Ġuvedu": 8154,
      "Ġxxx": 8155,
      "Ġ228": 8156,
      "Ġpredavajuci": 8157,
      "Ġregistri": 8158,
      "Ġudajmi": 8159,
      "Ġ216": 8160,
      "Ġdlhodob": 8161,
      "Ġvymahanie": 8162,
      "Ġpet": 8163,
      "Ġidentifikacia": 8164,
      "Ġvaria": 8165,
      "Ġpreukazane": 8166,
      "Ġhladi": 8167,
      "ntom": 8168,
      "Ġpotrieb": 8169,
      "nickou": 8170,
      "Ġzalobcom": 8171,
      "Ġmotorom": 8172,
      "Ġzarobkovo": 8173,
      "Ġidentifikovat": 8174,
      "Ġ173": 8175,
      "ceniu": 8176,
      "Ġuctovne": 8177,
      "Ġsporna": 8178,
      "Ġstanovil": 8179,
      "Ġvykonavaciemu": 8180,
      "Ġpravnickej": 8181,
      "cor": 8182,
      "Ġpresetrovanie": 8183,
      "Ġposad": 8184,
      "Ġpredmetny": 8185,
      "Ġoznamu": 8186,
      "tiny": 8187,
      "Ġlistov": 8188,
      "Ġzmluvach": 8189,
      "Ġzahrnut": 8190,
      "Ġkalendarny": 8191,
      "Ġskla": 8192,
      "Ġplnom": 8193,
      "Ġvyznamu": 8194,
      "Ġbezprostredne": 8195,
      "Ġ183": 8196,
      "Ġsudmi": 8197,
      "Ġdovozov": 8198,
      "Ġcistej": 8199,
      "zenta": 8200,
      "mis": 8201,
      "novani": 8202,
      "Ġ296": 8203,
      "mente": 8204,
      "Ġzakaznikom": 8205,
      "Ġ750": 8206,
      "Ġpriamych": 8207,
      "Ġfazy": 8208,
      "lovany": 8209,
      "Ġservices": 8210,
      "Ġvyku": 8211,
      "stavit": 8212,
      "Ġzacatia": 8213,
      "Ġzdravotneho": 8214,
      "ktivity": 8215,
      "Ġbana": 8216,
      "hova": 8217,
      "Ġsymbo": 8218,
      "Ġrozsirenie": 8219,
      "Ġzeleznicnej": 8220,
      "Ġpredaji": 8221,
      "zeneho": 8222,
      "Ġumoznilo": 8223,
      "ham": 8224,
      "Ġzakony": 8225,
      "Ġdoplnena": 8226,
      "ckovane": 8227,
      "Ġhrubkou": 8228,
      "Ġzbave": 8229,
      "Ġneh": 8230,
      "Ġvnutornym": 8231,
      "Ġneznamy": 8232,
      "Ġ212": 8233,
      "Ġdumpingove": 8234,
      "Ġciselne": 8235,
      "Ġzraz": 8236,
      "020": 8237,
      "Ġdoplnujuce": 8238,
      "lop": 8239,
      "lines": 8240,
      "Ġdiag": 8241,
      "setre": 8242,
      "Ġ295": 8243,
      "of": 8244,
      "liehat": 8245,
      "Ġrn": 8246,
      "Ġobilnin": 8247,
      "Ġeti": 8248,
      "Ġvyjadreni": 8249,
      "Ġvykazuje": 8250,
      "Ġzlucitelnosti": 8251,
      "Ġnar": 8252,
      "siah": 8253,
      "Ġprilezitosti": 8254,
      "Ġhovo": 8255,
      "Ġurceni": 8256,
      "Ġaktivne": 8257,
      "Ġvybavenia": 8258,
      "Ġvar": 8259,
      "Ġpredniesol": 8260,
      "Ġzv": 8261,
      "Ġpodmienkam": 8262,
      "Ġkontrolne": 8263,
      "Ġprejudicialna": 8264,
      "Ġdlzku": 8265,
      "Ġabsor": 8266,
      "Ġsadzieb": 8267,
      "Ġportugalska": 8268,
      "gar": 8269,
      "ill": 8270,
      "Ġupres": 8271,
      "Ġpripomienkach": 8272,
      "cation": 8273,
      "dos": 8274,
      "Ġ192": 8275,
      "Ġodkazom": 8276,
      "Ġpecen": 8277,
      "Ġcastic": 8278,
      "Ġprekazkou": 8279,
      "Ġnovu": 8280,
      "Ġ193": 8281,
      "Ġzarazka": 8282,
      "Ġinterpre": 8283,
      "Ġargument": 8284,
      "Ġdokladov": 8285,
      "Ġrovnocenne": 8286,
      "zione": 8287,
      "Ġskutocneho": 8288,
      "Ġsca": 8289,
      "Ġzariadeniach": 8290,
      "Ġnepripustnosti": 8291,
      "Ġnew": 8292,
      "ĠÑģ": 8293,
      "Ġvykonnost": 8294,
      "Ġ060": 8295,
      "Ġ288": 8296,
      "vencii": 8297,
      "Ġdoprava": 8298,
      "Ġvolnom": 8299,
      "Ġzbier": 8300,
      "Ġchyby": 8301,
      "Ġkonstatovala": 8302,
      "Ġodklad": 8303,
      "Ġvymedzi": 8304,
      "Ġadvokatka": 8305,
      "vove": 8306,
      "Ġopravnenia": 8307,
      "Ġnarodneho": 8308,
      "Ġpolnohospodarskeho": 8309,
      "Ġpripravene": 8310,
      "Ġdomacnost": 8311,
      "Ġneschop": 8312,
      "Ġvylucuje": 8313,
      "Ġjac": 8314,
      "Ġperi": 8315,
      "Ġbezce": 8316,
      "Ġplastov": 8317,
      "Ġnm": 8318,
      "nts": 8319,
      "Ġprislusnik": 8320,
      "Ġvladou": 8321,
      "Ġsprostredkovatel": 8322,
      "Ġ659": 8323,
      "Ġdokumentacie": 8324,
      "Ġinvesticnych": 8325,
      "Ġ302": 8326,
      "Ġ213": 8327,
      "Ġrybolovne": 8328,
      "tisla": 8329,
      "ide": 8330,
      "Ġinspe": 8331,
      "skod": 8332,
      "Ġreferencnych": 8333,
      "Ġprejedna": 8334,
      "Ġ0808": 8335,
      "vin": 8336,
      "Ġalias": 8337,
      "Ġcitovane": 8338,
      "Ġ206": 8339,
      "Ġnv": 8340,
      "Ġoddelenie": 8341,
      "Ġwith": 8342,
      "inne": 8343,
      "Ġurcitym": 8344,
      "Ġprilezitost": 8345,
      "Ġvyhrad": 8346,
      "Ġexter": 8347,
      "Ġbitu": 8348,
      "Ġabsolut": 8349,
      "ovou": 8350,
      "mestna": 8351,
      "jit": 8352,
      "Ġstatne": 8353,
      "Ġrozdielu": 8354,
      "Ġjaz": 8355,
      "lation": 8356,
      "Ġsidla": 8357,
      "Ġvelkoobchod": 8358,
      "fr": 8359,
      "Ġcolna": 8360,
      "ctova": 8361,
      "kod": 8362,
      "Ġjedinym": 8363,
      "Ġdepozi": 8364,
      "Ġusporiada": 8365,
      "Ġpriru": 8366,
      "Ġ195": 8367,
      "Ġvodnych": 8368,
      "Ġpravnicka": 8369,
      "lozia": 8370,
      "Ġvyskumu": 8371,
      "Ġ209": 8372,
      "Ġucelu": 8373,
      "Ġbavlny": 8374,
      "Ġvseobecnu": 8375,
      "Ã¸": 8376,
      "Ġvertika": 8377,
      "Ġodberu": 8378,
      "2010": 8379,
      "Ġdovolenky": 8380,
      "znych": 8381,
      "Ġskutkovy": 8382,
      "Ġbratisla": 8383,
      "Ġosipanych": 8384,
      "Ġzijuce": 8385,
      "Ġuskutocni": 8386,
      "Ġplavidlami": 8387,
      "Ġposkytnuti": 8388,
      "Ġucinnych": 8389,
      "Ġpriez": 8390,
      "tori": 8391,
      "Ġoprava": 8392,
      "Ġzmenenej": 8393,
      "Ġsklenikovych": 8394,
      "Ġ530": 8395,
      "Ġ225": 8396,
      "Ġabsol": 8397,
      "Ġzaobera": 8398,
      "Ġsiet": 8399,
      "Ġposlednej": 8400,
      "clanok": 8401,
      "zio": 8402,
      "Ġinformaciami": 8403,
      "Ġodsekov": 8404,
      "Ġodobra": 8405,
      "Ġobmedzena": 8406,
      "Ġgrafi": 8407,
      "Ġsluzi": 8408,
      "Ġobmedzeny": 8409,
      "Ġneprij": 8410,
      "Ġslobodu": 8411,
      "ovaci": 8412,
      "Ġcitovaneho": 8413,
      "mal": 8414,
      "Ġzisky": 8415,
      "Ġuchadzacov": 8416,
      "ovacia": 8417,
      "Ġstretnutia": 8418,
      "Ġdiel": 8419,
      "Ġdanova": 8420,
      "Ġtyzden": 8421,
      "Ġvplyvov": 8422,
      "Ġcist": 8423,
      "Ġprevadzke": 8424,
      "Ġ820": 8425,
      "Ġbrazi": 8426,
      "chtshof": 8427,
      "Ġpriemerne": 8428,
      "Ġmnozstiev": 8429,
      "002": 8430,
      "rzat": 8431,
      "Ġziskovo": 8432,
      "ĠÏĥ": 8433,
      "Ġemite": 8434,
      "racuje": 8435,
      "Ġslovo": 8436,
      "Ġali": 8437,
      "Ġzamietnuta": 8438,
      "Ġlegitimnej": 8439,
      "strovane": 8440,
      "Ġprilis": 8441,
      "Ġvrate": 8442,
      "Ġdusevne": 8443,
      "Ġfunkcia": 8444,
      "torom": 8445,
      "Ġhs": 8446,
      "Ġvratenia": 8447,
      "Ġpripustnost": 8448,
      "stene": 8449,
      "Ġstvrtej": 8450,
      "am": 8451,
      "Ġdb": 8452,
      "Ġ249": 8453,
      "Ġoslobodene": 8454,
      "Ġ232": 8455,
      "Ġnedostatocne": 8456,
      "Ġdosahu": 8457,
      "Ġpriamej": 8458,
      "rske": 8459,
      "Ġcelkovu": 8460,
      "hyl": 8461,
      "Ġidentifikacie": 8462,
      "Ġuzivatelov": 8463,
      "Ġpotencialne": 8464,
      "Ġ308": 8465,
      "Ġporusuje": 8466,
      "Ġvziat": 8467,
      "Ġdlznika": 8468,
      "Ġagri": 8469,
      "censke": 8470,
      "cts": 8471,
      "Ġisland": 8472,
      "Ġzriaduje": 8473,
      "Ġregulacne": 8474,
      "Ġpoukazat": 8475,
      "Ġkol": 8476,
      "Ġvyvra": 8477,
      "Ġminimalny": 8478,
      "Ġustanovit": 8479,
      "Ġplatobnej": 8480,
      "Ġuvere": 8481,
      "Ġverejnost": 8482,
      "Ġ2645": 8483,
      "Ġdomnievala": 8484,
      "Ġobd": 8485,
      "Ġtribuna": 8486,
      "Ġing": 8487,
      "Ġpriezvis": 8488,
      "Ġzaruk": 8489,
      "Ġproblemy": 8490,
      "030": 8491,
      "Ġneve": 8492,
      "Ġrovnakom": 8493,
      "lici": 8494,
      "Ġmaximalnej": 8495,
      "lku": 8496,
      "Ġolaf": 8497,
      "Ġ297": 8498,
      "Ġdolozky": 8499,
      "Ġvyhnut": 8500,
      "lega": 8501,
      "Ġlahko": 8502,
      "Ġnadra": 8503,
      "Ġlieku": 8504,
      "Ġpapiera": 8505,
      "Ġzahranicnych": 8506,
      "Ġkategoriu": 8507,
      "Ġdovolenku": 8508,
      "Ġkorek": 8509,
      "Ġstanovia": 8510,
      "Ġposudzovanie": 8511,
      "Ġroztoku": 8512,
      "Ġobjemom": 8513,
      "Ġpriemerom": 8514,
      "Ġzavaznych": 8515,
      "Ġinvali": 8516,
      "Ġvykonavane": 8517,
      "Ġlizi": 8518,
      "Ġvzajomnej": 8519,
      "Ġpovinnostou": 8520,
      "Ġluxemburgu": 8521,
      "Ġsposobene": 8522,
      "Ġ186": 8523,
      "Ġobozna": 8524,
      "Ġzba": 8525,
      "ĠÐ¿": 8526,
      "Ġprvych": 8527,
      "Ġpoznamenava": 8528,
      "Ġrozpusta": 8529,
      "Ġnepochyb": 8530,
      "Ġrozhodovat": 8531,
      "Ġpravoplat": 8532,
      "Ġurobit": 8533,
      "Ġtakymto": 8534,
      "nita": 8535,
      "Ġklasifikacie": 8536,
      "Ġnational": 8537,
      "Ġsudcov": 8538,
      "Ġnadmer": 8539,
      "Ġalternativne": 8540,
      "chat": 8541,
      "Ġpodporova": 8542,
      "ricke": 8543,
      "speci": 8544,
      "1000": 8545,
      "Ġpridelene": 8546,
      "Ġskresle": 8547,
      "Ġlega": 8548,
      "Ġ2204": 8549,
      "Ġdodavatelov": 8550,
      "Ġdoplnkovych": 8551,
      "Ġzmluvnymi": 8552,
      "Ġgru": 8553,
      "Ġokra": 8554,
      "ÏĦÎ±": 8555,
      "Ġinterva": 8556,
      "Ġsamotneho": 8557,
      "Ġosobitna": 8558,
      "Ġem": 8559,
      "Ġzariadenim": 8560,
      "Ġzaznamov": 8561,
      "Ġtela": 8562,
      "Ġdopravnych": 8563,
      "Ġkremi": 8564,
      "Ġbuducnosti": 8565,
      "Ġzmierne": 8566,
      "Ġwo": 8567,
      "Ġpracovnici": 8568,
      "Ġbydliskom": 8569,
      "sz": 8570,
      "Ġpriestoroch": 8571,
      "Ġstvrte": 8572,
      "Ġrozmedzi": 8573,
      "Ġvykonanych": 8574,
      "lila": 8575,
      "Ġznovu": 8576,
      "Ġinformaciu": 8577,
      "Ġpatent": 8578,
      "Ġkandi": 8579,
      "Ġodstranit": 8580,
      "ling": 8581,
      "Ġtrvale": 8582,
      "mark": 8583,
      "Ġkomponentov": 8584,
      "Ġprilohach": 8585,
      "lovani": 8586,
      "setz": 8587,
      "Ġpsych": 8588,
      "Ġjean": 8589,
      "Ġjednoducho": 8590,
      "Ġnezname": 8591,
      "Ġpozornost": 8592,
      "Ġaromati": 8593,
      "Ġchzo": 8594,
      "Ġminimalnej": 8595,
      "Ġimplementa": 8596,
      "Ġzlepsenie": 8597,
      "Ġstlpec": 8598,
      "Ð¼": 8599,
      "Ġ280": 8600,
      "Ġnezavislost": 8601,
      "Ġpp": 8602,
      "Ġbranit": 8603,
      "Ġzakazane": 8604,
      "Ġ214": 8605,
      "Ġupravuju": 8606,
      "Ġprijateho": 8607,
      "Ġuradnik": 8608,
      "Ġpodava": 8609,
      "Ġenergeti": 8610,
      "Ġireleva": 8611,
      "Ġziskov": 8612,
      "Ġvytvoreni": 8613,
      "Ġreferencny": 8614,
      "Ġ278": 8615,
      "Ġ883": 8616,
      "Ġsukromnych": 8617,
      "Ġmetodu": 8618,
      "Ġpredlozena": 8619,
      "Ġ223": 8620,
      "Ġdovozcov": 8621,
      "Ġsurovin": 8622,
      "Ġoxid": 8623,
      "Ġmodel": 8624,
      "Ġzdroja": 8625,
      "Ġpochadzajuce": 8626,
      "dlz": 8627,
      "Ġ570": 8628,
      "Ġrezidua": 8629,
      "Ġ251": 8630,
      "Ġ235": 8631,
      "Ġprislusnici": 8632,
      "lozit": 8633,
      "Ġwin": 8634,
      "Ġsadzbu": 8635,
      "vacich": 8636,
      "Ġkodov": 8637,
      "stvom": 8638,
      "Ġvodica": 8639,
      "Ġsposobenej": 8640,
      "Ġjedineho": 8641,
      "Ġvyskyt": 8642,
      "Ġ245": 8643,
      "Ġporusil": 8644,
      "liny": 8645,
      "Ġucinna": 8646,
      "Ġ325": 8647,
      "Ġsudnom": 8648,
      "Ġlepe": 8649,
      "Ġregione": 8650,
      "Ġvyrobcami": 8651,
      "voch": 8652,
      "Ġuviedli": 8653,
      "Ġpravdepodobnosti": 8654,
      "Ġmobi": 8655,
      "bytoc": 8656,
      "Ġocho": 8657,
      "Ġprema": 8658,
      "Ġcelkovych": 8659,
      "Ġapli": 8660,
      "Ġum": 8661,
      "Ġpochy": 8662,
      "Ġpreferenc": 8663,
      "lni": 8664,
      "Ġtykajucimi": 8665,
      "Ġhygie": 8666,
      "Ġtail": 8667,
      "Ġurovna": 8668,
      "Ġvseobecna": 8669,
      "Ġsplnomocnena": 8670,
      "Ġoverovania": 8671,
      "Ġ0402": 8672,
      "Ġsvajciarsko": 8673,
      "Ġfungovania": 8674,
      "mys": 8675,
      "Ġriadneho": 8676,
      "Ġ233": 8677,
      "Ġcs": 8678,
      "Ġpolitika": 8679,
      "Ġobchadza": 8680,
      "Ġ222": 8681,
      "Ġdosiahnute": 8682,
      "Ġelektrickych": 8683,
      "Ġ420": 8684,
      "niest": 8685,
      "Ġ224": 8686,
      "Ġvhodnych": 8687,
      "Ġdochodkoveho": 8688,
      "stoj": 8689,
      "cr": 8690,
      "Ġvide": 8691,
      "denta": 8692,
      "Ġmontaz": 8693,
      "ite": 8694,
      "chen": 8695,
      "Ġdovodne": 8696,
      "Ġpotia": 8697,
      "Ġzohladneni": 8698,
      "Ġvyrobkom": 8699,
      "Ġasocia": 8700,
      "Ġdefinuje": 8701,
      "Ġ590": 8702,
      "Ġesma": 8703,
      "Ġuradnika": 8704,
      "Ġzaregistrova": 8705,
      "Ġcielmi": 8706,
      "Ġvznikla": 8707,
      "Ġ1980": 8708,
      "Ġjednotny": 8709,
      "Ġprevadzkovatelom": 8710,
      "Ġzohladnenie": 8711,
      "Ġvzajomneho": 8712,
      "Ġprenaj": 8713,
      "Ġodp": 8714,
      "Ġrevi": 8715,
      "Ġuplynutia": 8716,
      "Ġfre": 8717,
      "pel": 8718,
      "Ġprislusnu": 8719,
      "Ġnepritom": 8720,
      "Ġ760": 8721,
      "Ġdoplnenie": 8722,
      "Ġpriznane": 8723,
      "Ġvnutorne": 8724,
      "Ġzmluvneho": 8725,
      "Ġ321": 8726,
      "Ġodoslania": 8727,
      "ssa": 8728,
      "Ġdynami": 8729,
      "Ġzisteni": 8730,
      "Ġtrestu": 8731,
      "Ġvykonala": 8732,
      "Ġodpocet": 8733,
      "Ġprotipravne": 8734,
      "gle": 8735,
      "io": 8736,
      "tivi": 8737,
      "Ġvzoru": 8738,
      "ndy": 8739,
      "Ġinternetovej": 8740,
      "Ġudalost": 8741,
      "Ġtakemu": 8742,
      "spektu": 8743,
      "Ġvedlajsich": 8744,
      "Ġairlines": 8745,
      "Ġtai": 8746,
      "Ġecha": 8747,
      "Ġlinii": 8748,
      "Ġostatnym": 8749,
      "Ġmagne": 8750,
      "Ġcelku": 8751,
      "Ġzistene": 8752,
      "Ġvyhoviet": 8753,
      "rk": 8754,
      "Ġexpe": 8755,
      "Ġ1977": 8756,
      "Ġantidumpingovych": 8757,
      "dyto": 8758,
      "lor": 8759,
      "Ġneuve": 8760,
      "Ġrovnaku": 8761,
      "Ġodraza": 8762,
      "Ġrozpocet": 8763,
      "Ġcinnostiach": 8764,
      "Ġkonkretny": 8765,
      "Ġpredpisom": 8766,
      "Ġpripravku": 8767,
      "Ġakvaku": 8768,
      "Ġzdoraznil": 8769,
      "Ġpredkladanie": 8770,
      "Ġakvakultu": 8771,
      "Ġznakov": 8772,
      "Ġministe": 8773,
      "Ð³": 8774,
      "Ġdatabazy": 8775,
      "Ġ429": 8776,
      "Ġdosky": 8777,
      "Ġpolozene": 8778,
      "Ġfazu": 8779,
      "Ġspracovatel": 8780,
      "ovanou": 8781,
      "Ġkomunikacie": 8782,
      "Ġzaistenia": 8783,
      "Ġprvou": 8784,
      "Ġcasoveho": 8785,
      "sing": 8786,
      "rneho": 8787,
      "Ġrepli": 8788,
      "Ġgovt": 8789,
      "040": 8790,
      "Ġ268": 8791,
      "Ġzakaziek": 8792,
      "rbu": 8793,
      "vencia": 8794,
      "Ġ61162": 8795,
      "Ġdruz": 8796,
      "Ġzohladnuju": 8797,
      "Ġsacha": 8798,
      "Ġpeci": 8799,
      "Ġbelgicke": 8800,
      "Ġnezamestna": 8801,
      "Ġpriameho": 8802,
      "Ġudrzby": 8803,
      "Ġpisomnosti": 8804,
      "zovania": 8805,
      "Ġsposobile": 8806,
      "Ġtrestny": 8807,
      "tenych": 8808,
      "Ġposlednych": 8809,
      "Ġcolnym": 8810,
      "Ġstatut": 8811,
      "Ġnesposob": 8812,
      "Ġskoly": 8813,
      "jet": 8814,
      "Ġspecificky": 8815,
      "Ġprocesnych": 8816,
      "Ġ188": 8817,
      "Ġonx": 8818,
      "Ġfrancuzsku": 8819,
      "Ġpoziadal": 8820,
      "Ġkredyto": 8821,
      "Ġroznymi": 8822,
      "Ġkvalit": 8823,
      "Ġneda": 8824,
      "Ġnezodpoveda": 8825,
      "Ġskuske": 8826,
      "Ġzavedene": 8827,
      "Ġpritomnosti": 8828,
      "Ġprejudicialnych": 8829,
      "Ġpletene": 8830,
      "Ġdio": 8831,
      "Ġhsc": 8832,
      "mozne": 8833,
      "Ġ238": 8834,
      "Ġznalosti": 8835,
      "Ġodborne": 8836,
      "Ġformalneho": 8837,
      "Ġdobrej": 8838,
      "fona": 8839,
      "Ġmit": 8840,
      "Ġepi": 8841,
      "Ġkodu": 8842,
      "Ġdruhou": 8843,
      "Ġdos": 8844,
      "Ġhovadzi": 8845,
      "Ġpredmetna": 8846,
      "Ġ219": 8847,
      "Ġnadobudnuti": 8848,
      "Ġstudii": 8849,
      "zadu": 8850,
      "Ġtaric": 8851,
      "tine": 8852,
      "Ġspalova": 8853,
      "Ġupravena": 8854,
      "Ġpatriacich": 8855,
      "Ġhroma": 8856,
      "Ġlicenciu": 8857,
      "Ġ1177": 8858,
      "Ġdokazu": 8859,
      "Ġpredpokladat": 8860,
      "Ġprotihodno": 8861,
      "Ġzamietnute": 8862,
      "zania": 8863,
      "Ġdgr": 8864,
      "Ġobrat": 8865,
      "Ġnepov": 8866,
      "Ġhlavny": 8867,
      "zenim": 8868,
      "Ġsudcu": 8869,
      "gno": 8870,
      "Ġplnej": 8871,
      "neneho": 8872,
      "sh": 8873,
      "Ġmenova": 8874,
      "Ġzavaznost": 8875,
      "Ġzacala": 8876,
      "ntovane": 8877,
      "Ġdodavatela": 8878,
      "cenc": 8879,
      "Ġpotvrdzuju": 8880,
      "Ġorganizaciu": 8881,
      "Ġtar": 8882,
      "Ġplatnostou": 8883,
      "Ġque": 8884,
      "Ġzbrani": 8885,
      "Ġreferent": 8886,
      "cb": 8887,
      "rol": 8888,
      "Ġvizua": 8889,
      "nite": 8890,
      "Ġpodani": 8891,
      "Ġ271": 8892,
      "Ġnestanovuje": 8893,
      "Ġlitov": 8894,
      "Ġrumunsko": 8895,
      "Ġneusta": 8896,
      "Ġlimity": 8897,
      "Ġpetro": 8898,
      "Ġnormalnej": 8899,
      "Ġ266": 8900,
      "Ġcenach": 8901,
      "Ġodpady": 8902,
      "cili": 8903,
      "kuju": 8904,
      "Ġnapoje": 8905,
      "Ġvynimocne": 8906,
      "Ġzalobnych": 8907,
      "Ġnemohli": 8908,
      "Ġchov": 8909,
      "Ġ301": 8910,
      "risti": 8911,
      "Ġhlavneho": 8912,
      "hm": 8913,
      "Ġposkytovatelov": 8914,
      "ĠÎ¿": 8915,
      "renu": 8916,
      "Ġskutocny": 8917,
      "gram": 8918,
      "Ġzin": 8919,
      "Ġdovodoch": 8920,
      "Ġkazdo": 8921,
      "Ġkompe": 8922,
      "Ġverejnoprav": 8923,
      "Ġnepripustne": 8924,
      "Ġpozemkov": 8925,
      "Ġprebratie": 8926,
      "Ġrevid": 8927,
      "Ġprijatel": 8928,
      "Ġsystemoch": 8929,
      "Ġpovoluje": 8930,
      "Ġsume": 8931,
      "Ġprislusnika": 8932,
      "Ġzmier": 8933,
      "nenych": 8934,
      "tovane": 8935,
      "ut": 8936,
      "Ġneprija": 8937,
      "Ġ0709": 8938,
      "Ġvykonnosti": 8939,
      "Ġprezenta": 8940,
      "Ġpozadovanych": 8941,
      "Ġpochybe": 8942,
      "Ġposledny": 8943,
      "Ġpodu": 8944,
      "Ġuznat": 8945,
      "Ġ354": 8946,
      "Ġlaw": 8947,
      "Ġnadobudnutim": 8948,
      "Ġkoncentracii": 8949,
      "Ġveritel": 8950,
      "Ġdomov": 8951,
      "Ġurcovani": 8952,
      "Ġznevy": 8953,
      "ĠÎ·": 8954,
      "Ġdokladu": 8955,
      "seneho": 8956,
      "Ġhotovo": 8957,
      "Õ¡": 8958,
      "Ġneoddeli": 8959,
      "dend": 8960,
      "its": 8961,
      "Ġopisu": 8962,
[...]
