{
  "version": "1.0",
  "truncation": null,
  "padding": null,
  "added_tokens": [
    {
      "id": 0,
      "content": "<pad>",
      "single_word": false,
      "lstrip": false,
      "rstrip": false,
      "normalized": false,
      "special": true
    },
    {
      "id": 1,
      "content": "<s>",
      "single_word": false,
      "lstrip": false,
      "rstrip": false,
      "normalized": false,
      "special": true
    },
    {
      "id": 2,
      "content": "</s>",
      "single_word": false,
      "lstrip": false,
      "rstrip": false,
      "normalized": false,
      "special": true
    },
    {
      "id": 3,
      "content": "<unk>",
      "single_word": false,
      "lstrip": false,
      "rstrip": false,
      "normalized": false,
      "special": true
    },
    {
      "id": 4,
      "content": "<mask>",
      "single_word": false,
      "lstrip": false,
      "rstrip": false,
      "normalized": false,
      "special": true
    }
  ],
  "normalizer": {
    "type": "Sequence",
    "normalizers": [
      {
        "type": "NFKD"
      },
      {
        "type": "BertNormalizer",
        "clean_text": true,
        "handle_chinese_chars": true,
        "strip_accents": null,
        "lowercase": true
      }
    ]
  },
  "pre_tokenizer": {
    "type": "Sequence",
    "pretokenizers": [
      {
        "type": "BertPreTokenizer"
      },
      {
        "type": "ByteLevel",
        "add_prefix_space": true,
        "trim_offsets": true,
        "use_regex": true
      }
    ]
  },
  "post_processor": {
    "type": "RobertaProcessing",
    "sep": [
      "</s>",
      2
    ],
    "cls": [
      "<s>",
      1
    ],
    "trim_offsets": true,
    "add_prefix_space": true
  },
  "decoder": {
    "type": "ByteLevel",
    "add_prefix_space": true,
    "trim_offsets": true,
    "use_regex": true
  },
  "model": {
    "type": "BPE",
    "dropout": null,
    "unk_token": "<unk>",
    "continuing_subword_prefix": null,
    "end_of_word_suffix": null,
    "fuse_unk": false,
    "vocab": {
      "<pad>": 0,
      "<s>": 1,
      "</s>": 2,
      "<unk>": 3,
      "<mask>": 4,
      "!": 5,
      "\"": 6,
      "#": 7,
      "$": 8,
      "%": 9,
      "&": 10,
      "'": 11,
      "(": 12,
      ")": 13,
      "*": 14,
      "+": 15,
      ",": 16,
      "-": 17,
      ".": 18,
      "/": 19,
      "0": 20,
      "1": 21,
      "2": 22,
      "3": 23,
      "4": 24,
      "5": 25,
      "6": 26,
      "7": 27,
      "8": 28,
      "9": 29,
      ":": 30,
      ";": 31,
      "<": 32,
      "=": 33,
      ">": 34,
      "?": 35,
      "@": 36,
      "[": 37,
      "\\": 38,
      "]": 39,
      "^": 40,
      "_": 41,
      "`": 42,
      "a": 43,
      "b": 44,
      "c": 45,
      "d": 46,
      "e": 47,
      "f": 48,
      "g": 49,
      "h": 50,
      "i": 51,
      "j": 52,
      "k": 53,
      "l": 54,
      "m": 55,
      "n": 56,
      "o": 57,
      "p": 58,
      "q": 59,
      "r": 60,
      "s": 61,
      "t": 62,
      "u": 63,
      "v": 64,
      "w": 65,
      "x": 66,
      "y": 67,
      "z": 68,
      "{": 69,
      "|": 70,
      "}": 71,
      "~": 72,
      "¡": 73,
      "¢": 74,
      "£": 75,
      "¤": 76,
      "¥": 77,
      "¦": 78,
      "§": 79,
      "¨": 80,
      "©": 81,
      "ª": 82,
      "«": 83,
      "¬": 84,
      "®": 85,
      "¯": 86,
      "°": 87,
      "±": 88,
      "²": 89,
      "³": 90,
      "´": 91,
      "µ": 92,
      "¶": 93,
      "·": 94,
      "¸": 95,
      "¹": 96,
      "º": 97,
      "»": 98,
      "¼": 99,
      "½": 100,
      "¾": 101,
      "¿": 102,
      "Â": 103,
      "Ã": 104,
      "Ä": 105,
      "Å": 106,
      "Æ": 107,
      "Ç": 108,
      "É": 109,
      "Ê": 110,
      "Ë": 111,
      "Î": 112,
      "Ï": 113,
      "Ð": 114,
      "Ñ": 115,
      "Ò": 116,
      "Ó": 117,
      "Ô": 118,
      "Õ": 119,
      "Ö": 120,
      "×": 121,
      "Ø": 122,
      "Ù": 123,
      "Ú": 124,
      "Û": 125,
      "ß": 126,
      "à": 127,
      "á": 128,
      "â": 129,
      "ã": 130,
      "ä": 131,
      "å": 132,
      "æ": 133,
      "ç": 134,
      "è": 135,
      "é": 136,
      "ê": 137,
      "ï": 138,
      "ð": 139,
      "Ġ": 140,
      "Ģ": 141,
      "ģ": 142,
      "Ĥ": 143,
      "ĥ": 144,
      "Ħ": 145,
      "ħ": 146,
      "Ĩ": 147,
      "ĩ": 148,
      "Ī": 149,
      "ī": 150,
      "Ĭ": 151,
      "ĭ": 152,
      "Į": 153,
      "į": 154,
      "İ": 155,
      "ı": 156,
      "Ĳ": 157,
      "ĳ": 158,
      "Ĵ": 159,
      "ĵ": 160,
      "Ķ": 161,
      "ķ": 162,
      "ĸ": 163,
      "Ĺ": 164,
      "ĺ": 165,
      "Ļ": 166,
      "ļ": 167,
      "Ľ": 168,
      "ľ": 169,
      "Ŀ": 170,
      "ŀ": 171,
      "Ł": 172,
      "ł": 173,
      "Ń": 174,
      "de": 175,
      "Ġa": 176,
      "er": 177,
      "en": 178,
      "an": 179,
      "or": 180,
      "Ġs": 181,
      "in": 182,
      "ll": 183,
      "Ġf": 184,
      "ar": 185,
      "ti": 186,
      "om": 187,
      "Ġ.": 188,
      "tt": 189,
      "Ġde": 190,
      "Ġe": 191,
      "Ġm": 192,
      "et": 193,
      "Ġfor": 194,
      "st": 195,
      "Ġ,": 196,
      "ing": 197,
      "Ġo": 198,
      "ig": 199,
      "ra": 200,
      "Ġav": 201,
      "Ġi": 202,
      "on": 203,
      "Ġb": 204,
      "na": 205,
      "Ġp": 206,
      "ka": 207,
      "Ġti": 208,
      "am": 209,
      "ch": 210,
      "Ġtill": 211,
      "Ġk": 212,
      "Ġ1": 213,
      "lig": 214,
      "Ġu": 215,
      "Ġoch": 216,
      "ning": 217,
      "ed": 218,
      "Ġ2": 219,
      "Ġv": 220,
      "ande": 221,
      "is": 222,
      "Ġin": 223,
      "al": 224,
      "Ġg": 225,
      "Ġh": 226,
      "Ġatt": 227,
      "ag": 228,
      "Ġan": 229,
      "ter": 230,
      "Ġsom": 231,
      "Ġden": 232,
      "Ġt": 233,
      "re": 234,
      "Ġen": 235,
      "Ġar": 236,
      "Ġ)": 237,
      "el": 238,
      "Ġd": 239,
      "ligt": 240,
      "ro": 241,
      "all": 242,
      "Ġ-": 243,
      "Ġl": 244,
      "Ġom": 245,
      "as": 246,
      "Ġ(": 247,
      "Ġmed": 248,
      "Ġbe": 249,
      "kt": 250,
      "amp": 251,
      "Ġej": 252,
      "ri": 253,
      "at": 254,
      "em": 255,
      "Ġtillamp": 256,
      "and": 257,
      "Ġ/": 258,
      "un": 259,
      "ens": 260,
      "tion": 261,
      "Ġâ": 262,
      "Ġn": 263,
      "00": 264,
      "het": 265,
      "ĠâĢ": 266,
      "for": 267,
      "ol": 268,
      "sa": 269,
      "Ġdet": 270,
      "il": 271,
      "der": 272,
      "pp": 273,
      "te": 274,
      "ut": 275,
      "Ġc": 276,
      "Ġtillampligt": 277,
      "Ġ3": 278,
      "Ġska": 279,
      "Ġ_": 280,
      "sk": 281,
      "Ġut": 282,
      "Ġpa": 283,
      "ver": 284,
      "it": 285,
      "ran": 286,
      "si": 287,
      "ller": 288,
      "Ġra": 289,
      "ade": 290,
      "Ġst": 291,
      "tik": 292,
      "sl": 293,
      "da": 294,
      "Ġmo": 295,
      "omm": 296,
      "Ġhar": 297,
      "Ġeu": 298,
      "Ġ|": 299,
      "Ġre": 300,
      "Ġartik": 301,
      "Ġeller": 302,
      "ell": 303,
      "ck": 304,
      "Ġ5": 305,
      "se": 306,
      "Ġ:": 307,
      "Ġun": 308,
      "Ġ0": 309,
      "sta": 310,
      "Ġ4": 311,
      "Ġartikel": 312,
      "Ġinte": 313,
      "Ġvar": 314,
      "ad": 315,
      "Ġsam": 316,
      "ord": 317,
      "ent": 318,
      "dra": 319,
      "Ġkomm": 320,
      "Ġupp": 321,
      "od": 322,
      "Ġ20": 323,
      "Ġvi": 324,
      "var": 325,
      "Ġett": 326,
      "del": 327,
      "Ġr": 328,
      "ak": 329,
      "pe": 330,
      "Ġ9": 331,
      "Ġ200": 332,
      "isk": 333,
      "Ġna": 334,
      "Ġmot": 335,
      "gi": 336,
      "Ġpro": 337,
      "gar": 338,
      "um": 339,
      "att": 340,
      "tiv": 341,
      "iska": 342,
      "sion": 343,
      "ĠâĢĵ": 344,
      "Ġsk": 345,
      "dig": 346,
      "ering": 347,
      "Ġ6": 348,
      "ok": 349,
      "ission": 350,
      "ser": 351,
      "Ġgen": 352,
      "Ġ8": 353,
      "Ġeuro": 354,
      "kap": 355,
      "ningen": 356,
      "fter": 357,
      "Ġj": 358,
      "Ġall": 359,
      "slut": 360,
      "sp": 361,
      "den": 362,
      "Ġover": 363,
      "Ġkommission": 364,
      "ts": 365,
      "es": 366,
      "Ġ7": 367,
      "ci": 368,
      "Ġdom": 369,
      "Ġkon": 370,
      "aller": 371,
      "red": 372,
      "run": 373,
      "Ġ19": 374,
      "ur": 375,
      "ma": 376,
      "ang": 377,
      "Ġandra": 378,
      "Ġgenom": 379,
      "tta": 380,
      "li": 381,
      "Ġfran": 382,
      "terna": 383,
      "Ġ201": 384,
      "tal": 385,
      "ss": 386,
      "liga": 387,
      "lag": 388,
      "Ġdi": 389,
      "Ġunder": 390,
      "ella": 391,
      "stall": 392,
      "Ġenligt": 393,
      "ft": 394,
      "Ġfra": 395,
      "Ġratt": 396,
      "Ġvid": 397,
      "ordning": 398,
      "Ġeg": 399,
      "etag": 400,
      "art": 401,
      "ktiv": 402,
      "ast": 403,
      "yn": 404,
      "bet": 405,
      "erna": 406,
      "ĠâĢĿ": 407,
      "are": 408,
      "olj": 409,
      "lem": 410,
      "ort": 411,
      "tig": 412,
      "ff": 413,
      "Ġbeslut": 414,
      "emens": 415,
      "Ġkan": 416,
      "eg": 417,
      "Ġkommissionen": 418,
      "Ġgemens": 419,
      "du": 420,
      "Ġskall": 421,
      "Ġex": 422,
      "hall": 423,
      "ull": 424,
      "vi": 425,
      "ark": 426,
      "nings": 427,
      "anden": 428,
      "ru": 429,
      "Ġnr": 430,
      "Ġfolj": 431,
      "ska": 432,
      "Ġmedlem": 433,
      "gor": 434,
      "Ġdetta": 435,
      "ende": 436,
      "redit": 437,
      "Ġgrun": 438,
      "ber": 439,
      "andet": 440,
      "Ġdire": 441,
      "ant": 442,
      "Ġforordning": 443,
      "Ġmal": 444,
      "Ġ10": 445,
      "Ġforetag": 446,
      "Ġfore": 447,
      "lar": 448,
      "va": 449,
      "ion": 450,
      "Ġat": 451,
      "Ġpun": 452,
      "satt": 453,
      "Ġvil": 454,
      "Ġmedlems": 455,
      "og": 456,
      "Ġdenna": 457,
      "amm": 458,
      "ats": 459,
      "ningar": 460,
      "ratt": 461,
      "Ġeurope": 462,
      "vand": 463,
      "sti": 464,
      "ling": 465,
      "sak": 466,
      "Ġ00": 467,
      "far": 468,
      "ga": 469,
      "Ġbest": 470,
      "stol": 471,
      "Ġdel": 472,
      "Ġeuropeiska": 473,
      "dighet": 474,
      "hand": 475,
      "ster": 476,
      "Ġper": 477,
      "yg": 478,
      "skri": 479,
      "man": 480,
      "lighet": 481,
      "Ġgemenskap": 482,
      "Ġse": 483,
      "Ġlag": 484,
      "Ġefter": 485,
      "Ġ%": 486,
      "ans": 487,
      "tioner": 488,
      "ne": 489,
      "ud": 490,
      "Ġdirektiv": 491,
      "vis": 492,
      "ik": 493,
      "Ġfaller": 494,
      "Ġpunkt": 495,
      "le": 496,
      "Ġgrund": 497,
      "ammel": 498,
      "det": 499,
      "Ġavse": 500,
      "Ġdomstol": 501,
      "Ġutan": 502,
      "Ġ199": 503,
      "Ġmotp": 504,
      "risk": 505,
      "ilj": 506,
      "Ġber": 507,
      "val": 508,
      "vs": 509,
      "Ġnar": 510,
      "Ġunion": 511,
      "Ġfin": 512,
      "Ġ12": 513,
      "jan": 514,
      "akt": 515,
      "Ġer": 516,
      "ken": 517,
      "reditrisk": 518,
      "Ġfast": 519,
      "Ġdes": 520,
      "me": 521,
      "je": 522,
      "Ġbet": 523,
      "Ġfram": 524,
      "Ġver": 525,
      "Ġ11": 526,
      "verk": 527,
      "Ġdar": 528,
      "mn": 529,
      "ot": 530,
      "Ġsak": 531,
      "Ġsy": 532,
      "Ġprodu": 533,
      "fi": 534,
      "gan": 535,
      "Ġreg": 536,
      "son": 537,
      "Ġsok": 538,
      "stand": 539,
      "Ġinom": 540,
      "ul": 541,
      "Ġdessa": 542,
      "Ġy": 543,
      "land": 544,
      "Ġbestammel": 545,
      "ring": 546,
      "fatt": 547,
      "Ġtran": 548,
      "Ġsl": 549,
      "Ġavtal": 550,
      "met": 551,
      "ub": 552,
      "Ġnation": 553,
      "itt": 554,
      "Ġkra": 555,
      "Ġforsta": 556,
      "slag": 557,
      "iga": 558,
      "ets": 559,
      "yd": 560,
      "Ġinter": 561,
      "yndighet": 562,
      "pa": 563,
      "Ġatgar": 564,
      "Ġang": 565,
      "ir": 566,
      "Ġfoljande": 567,
      "Ġinfor": 568,
      "Ġinne": 569,
      "Ġexp": 570,
      "Ġfar": 571,
      "Ġpar": 572,
      "lan": 573,
      "ation": 574,
      "Ġfallerade": 575,
      "Ġbil": 576,
      "Ġsamt": 577,
      "Ġsad": 578,
      "Ġ15": 579,
      "gifter": 580,
      "be": 581,
      "Ġsin": 582,
      "sam": 583,
      "Ġverk": 584,
      "skil": 585,
      "Ġmedlemssta": 586,
      "Ġsa": 587,
      "drag": 588,
      "stem": 589,
      "av": 590,
      "Ġvis": 591,
      "cer": 592,
      "ta": 593,
      "ĠâĢĶ": 594,
      "Ġperson": 595,
      "ora": 596,
      "yl": 597,
      "Ġmin": 598,
      "Ġfaststall": 599,
      "us": 600,
      "ve": 601,
      "Ġ13": 602,
      "ellan": 603,
      "Ġsar": 604,
      "ost": 605,
      "Ġov": 606,
      "cial": 607,
      "mer": 608,
      "kter": 609,
      "Ġanvand": 610,
      "Ġmellan": 611,
      "heter": 612,
      "Ġ]": 613,
      "ds": 614,
      "Ġ[": 615,
      "las": 616,
      "Ġspe": 617,
      "10": 618,
      "Ġma": 619,
      "dets": 620,
      "ov": 621,
      "os": 622,
      "aga": 623,
      "Ġsig": 624,
      "Ġor": 625,
      "teri": 626,
      "svar": 627,
      "la": 628,
      "Ġpr": 629,
      "Ġand": 630,
      "Ġme": 631,
      "Ġoff": 632,
      "Ġtjan": 633,
      "ler": 634,
      "Ġmark": 635,
      "Ġkont": 636,
      "Ġkun": 637,
      "Ġ50": 638,
      "Ġenlighet": 639,
      "ember": 640,
      "kon": 641,
      "Ġbestammelser": 642,
      "Ġbeh": 643,
      "ligen": 644,
      "Ġradets": 645,
      "Ġing": 646,
      "Ġ14": 647,
      "Ġstod": 648,
      "yck": 649,
      "stat": 650,
      "nat": 651,
      "Ġka": 652,
      "Ġhan": 653,
      "Ġintern": 654,
      "Ġsarskil": 655,
      "op": 656,
      "Ġur": 657,
      "Ġ16": 658,
      "Ġ17": 659,
      "des": 660,
      "Ġgenomfor": 661,
      "ann": 662,
      "Ġdomstolen": 663,
      "Ġatgarder": 664,
      "Ġbor": 665,
      "Ġarbet": 666,
      "str": 667,
      "Ġbed": 668,
      "di": 669,
      "Ġsadan": 670,
      "Ġvara": 671,
      "sok": 672,
      "arna": 673,
      "lagg": 674,
      "metod": 675,
      "Ġli": 676,
      "Ġgaller": 677,
      "Ġomfatt": 678,
      "itet": 679,
      "ven": 680,
      "Ġsokanden": 681,
      "bar": 682,
      "Ġnag": 683,
      "mp": 684,
      "Ġw": 685,
      "Ġdess": 686,
      "Ġha": 687,
      "Ġte": 688,
      "min": 689,
      "irb": 690,
      "Ġinternmetod": 691,
      "sen": 692,
      "nader": 693,
      "Ġ\"": 694,
      "Ġtransak": 695,
      "Ġforfar": 696,
      "eringar": 697,
      "Ġsaker": 698,
      "Ġfall": 699,
      "arbet": 700,
      "Ġsamti": 701,
      "Ġsamtidig": 702,
      "ument": 703,
      "tag": 704,
      "Ġnationella": 705,
      "kor": 706,
      "Ġmilj": 707,
      "Ġalla": 708,
      "Ġaven": 709,
      "Ġmyndighet": 710,
      "Ġ18": 711,
      "Ġskull": 712,
      "Ġgod": 713,
      "Ġ=": 714,
      "Ġbi": 715,
      "ger": 716,
      "komm": 717,
      "Ġju": 718,
      "Ġskulle": 719,
      "Ġforeskri": 720,
      "Ġmedel": 721,
      "20": 722,
      "ari": 723,
      "Ġavses": 724,
      "Ġman": 725,
      "Ġ30": 726,
      "Ġtransaktioner": 727,
      "rad": 728,
      "Ġmedlemsstaterna": 729,
      "Ġfinan": 730,
      "Ġvill": 731,
      "Ġbilaga": 732,
      "Ġmotpart": 733,
      "nas": 734,
      "Ġ25": 735,
      "som": 736,
      "Ġsp": 737,
      "Ġspecial": 738,
      "station": 739,
      "gang": 740,
      "Ġslut": 741,
      "rade": 742,
      "Ġad": 743,
      "Ġ21": 744,
      "opp": 745,
      "Ġenda": 746,
      "Ġkreditrisk": 747,
      "restation": 748,
      "lam": 749,
      "Ġater": 750,
      "mal": 751,
      "bru": 752,
      "Ġrisk": 753,
      "ab": 754,
      "Ġres": 755,
      "Ġbedom": 756,
      "Ġth": 757,
      "Ġmotprestation": 758,
      "ket": 759,
      "Ġuppgifter": 760,
      "Ø§": 761,
      "Ġtull": 762,
      "Ġmarkna": 763,
      "Ġmen": 764,
      "Ġmedlemsstat": 765,
      "ac": 766,
      "Ġregi": 767,
      "Ġ29": 768,
      "ktor": 769,
      "klar": 770,
      "Ġnamn": 771,
      "samhet": 772,
      "Ġ<": 773,
      "handling": 774,
      "Ġmoj": 775,
      "Ġspecialut": 776,
      "Ġtid": 777,
      "tter": 778,
      "Ġmotpartsk": 779,
      "Ġmotpartskreditrisk": 780,
      "Ġbegar": 781,
      "Ġberor": 782,
      "Ġanges": 783,
      "Ġfinansi": 784,
      "Ġkommissionens": 785,
      "olag": 786,
      "Ġunionens": 787,
      "Ġ;": 788,
      "Ġbeslutet": 789,
      "Ġty": 790,
      "ktion": 791,
      "ubli": 792,
      "standig": 793,
      "oll": 794,
      "Ġavseende": 795,
      "par": 796,
      "Ġsj": 797,
      "Ġny": 798,
      "Ġfri": 799,
      "konom": 800,
      "Ġsatt": 801,
      "Ġ31": 802,
      "Ġ23": 803,
      "Ġhand": 804,
      "edan": 805,
      "Ġsi": 806,
      "Ġratts": 807,
      "bu": 808,
      "Ġle": 809,
      "cip": 810,
      "ras": 811,
      "pro": 812,
      "ostnader": 813,
      "Ġund": 814,
      "Ġmalet": 815,
      "ram": 816,
      "erade": 817,
      "Ġal": 818,
      "Ġsma": 819,
      "nan": 820,
      "Ġ26": 821,
      "nal": 822,
      "Ġii": 823,
      "Ġhade": 824,
      "Ġsal": 825,
      "ĠâĢĲ": 826,
      "Ġvilket": 827,
      "rik": 828,
      "ordningen": 829,
      "Ġtal": 830,
      "stift": 831,
      "Ġforslag": 832,
      "Ġvad": 833,
      "Ġkap": 834,
      "Ġbel": 835,
      "Ġ22": 836,
      "ien": 837,
      "Ġimp": 838,
      "Ġkontro": 839,
      "Ġbeg": 840,
      "Ġendast": 841,
      "stra": 842,
      "laning": 843,
      "erings": 844,
      "oneringar": 845,
      "Ġvilken": 846,
      "Ġfordrag": 847,
      "rip": 848,
      "Ġekonom": 849,
      "incip": 850,
      "cerad": 851,
      "Ġbeakt": 852,
      "Ġmedelst": 853,
      "andel": 854,
      "Ġmer": 855,
      "Ġrep": 856,
      "egang": 857,
      "fin": 858,
      "Ġmedelstora": 859,
      "sattning": 860,
      "else": 861,
      "Ġtred": 862,
      "Ġgemensam": 863,
      "Ġrattegang": 864,
      "Ġvillkor": 865,
      "Ġ24": 866,
      "Ġkredit": 867,
      "Ġskyd": 868,
      "stit": 869,
      "oka": 870,
      "fall": 871,
      "Ġspecialutlaning": 872,
      "Ġforen": 873,
      "Ġovan": 874,
      "Ġ90": 875,
      "Ġfl": 876,
      "iltig": 877,
      "rans": 878,
      "Ġannat": 879,
      "Ġgall": 880,
      "kn": 881,
      "Ġcor": 882,
      "Ġeur": 883,
      "Ġfraga": 884,
      "Ġoffent": 885,
      "Ġstor": 886,
      "Ġkom": 887,
      "Ġutgor": 888,
      "Ġ28": 889,
      "Ġmiljon": 890,
      "Ġhel": 891,
      "Ġskal": 892,
      "Ġhog": 893,
      "ic": 894,
      "mation": 895,
      "Ġvilka": 896,
      "sm": 897,
      "varande": 898,
      "vning": 899,
      "Ġhur": 900,
      "orter": 901,
      "Ġtol": 902,
      "Ġsamma": 903,
      "tra": 904,
      "ry": 905,
      "men": 906,
      "Ġorgan": 907,
      "Ġ27": 908,
      "bud": 909,
      "klag": 910,
      "Ġavan": 911,
      "res": 912,
      "Ġbehor": 913,
      "Ġtri": 914,
      "Ġgj": 915,
      "Ġskyl": 916,
      "ns": 917,
      "Ġavancerad": 918,
      "Ġomstandig": 919,
      "Ġtalan": 920,
      "Ġairb": 921,
      "fra": 922,
      "vant": 923,
      "Ġeftersom": 924,
      "Ġexponeringar": 925,
      "Ġso": 926,
      "Ġberorda": 927,
      "Ġkommer": 928,
      "stans": 929,
      "Ġallman": 930,
      "Ġsamman": 931,
      "Ġx": 932,
      "Ġfe": 933,
      "fy": 934,
      "Ġcorp": 935,
      "led": 936,
      "Ġform": 937,
      "Ġsystem": 938,
      "ernas": 939,
      "rung": 940,
      "cent": 941,
      "Ġinformation": 942,
      "sav": 943,
      "Ġlik": 944,
      "uni": 945,
      "Ġto": 946,
      "Ġthe": 947,
      "rak": 948,
      "sprung": 949,
      "Ġeuropa": 950,
      "Ġandring": 951,
      "Ġtillverk": 952,
      "Ġoverklag": 953,
      "ubliken": 954,
      "ander": 955,
      "sfor": 956,
      "andena": 957,
      "igt": 958,
      "Ġsadana": 959,
      "terial": 960,
      "Ġda": 961,
      "Ġlu": 962,
      "eri": 963,
      "Ġint": 964,
      "Ġpart": 965,
      "heten": 966,
      "Ġursprung": 967,
      "ja": 968,
      "Ġeeg": 969,
      "ĠÂ": 970,
      "nar": 971,
      "Ġnod": 972,
      "Ġror": 973,
      "Ġstat": 974,
      "stri": 975,
      "Ġsv": 976,
      "Ġmeddel": 977,
      "Ġforeskrivs": 978,
      "Ġgemenskapen": 979,
      "lament": 980,
      "Ġmar": 981,
      "tiska": 982,
      "Ġavtalet": 983,
      "Ġlagstift": 984,
      "ratten": 985,
      "tid": 986,
      "bor": 987,
      "Ġsarskilt": 988,
      "Ġval": 989,
      "Ġansok": 990,
      "aren": 991,
      "mec": 992,
      "veck": 993,
      "ce": 994,
      "delse": 995,
      "Ġvarje": 996,
      "Ġavs": 997,
      "cke": 998,
      "Ġuppfy": 999,
      "gram": 1000,
      "Ġsmec": 1001,
      "Ġof": 1002,
      "oli": 1003,
      "Ġgodk": 1004,
      "kas": 1005,
      "Ġml": 1006,
      "Ġvissa": 1007,
      "Ġbetal": 1008,
      "laggande": 1009,
      "Ġfordraget": 1010,
      "kten": 1011,
      "Ġicke": 1012,
      "Ġlam": 1013,
      "Ġyr": 1014,
      "Ġvaror": 1015,
      "Ġdec": 1016,
      "Ġne": 1017,
      "Ġgrundlaggande": 1018,
      "Ġbo": 1019,
      "Ġnodvand": 1020,
      "ys": 1021,
      "Ġsm": 1022,
      "Ġverksamhet": 1023,
      "Ġartiklar": 1024,
      "ÙĦ": 1025,
      "ffe": 1026,
      "Ġsina": 1027,
      "Ġtjanster": 1028,
      "kterna": 1029,
      "fri": 1030,
      "lass": 1031,
      "Ġundant": 1032,
      "Ġmln": 1033,
      "Ġmiljoner": 1034,
      "Ġkonk": 1035,
      "ass": 1036,
      "Ġnagon": 1037,
      "Ġparterna": 1038,
      "Ġdag": 1039,
      "ori": 1040,
      "ycket": 1041,
      "teck": 1042,
      "Ġskatt": 1043,
      "enskap": 1044,
      "Ġkapit": 1045,
      "riv": 1046,
      "Ġro": 1047,
      "ades": 1048,
      "Ġannan": 1049,
      "Ġdo": 1050,
      "tionen": 1051,
      "aste": 1052,
      "tis": 1053,
      "kra": 1054,
      "Ġimport": 1055,
      "Ġpre": 1056,
      "Ġforb": 1057,
      "kl": 1058,
      "mark": 1059,
      "Ġdecember": 1060,
      "Ġfisk": 1061,
      "Ġ40": 1062,
      "Ġovr": 1063,
      "Ġomfattas": 1064,
      "its": 1065,
      "Ġinneh": 1066,
      "Ġinterna": 1067,
      "Ġpris": 1068,
      "Ġbar": 1069,
      "Ġtillhand": 1070,
      "Ġbegaran": 1071,
      "Ġrepubliken": 1072,
      "Ġhans": 1073,
      "bruk": 1074,
      "Ġtillhanda": 1075,
      "instans": 1076,
      "kom": 1077,
      "ici": 1078,
      "bil": 1079,
      "ystem": 1080,
      "Ġhu": 1081,
      "Ġprincip": 1082,
      "Ġbolag": 1083,
      "Ġundantag": 1084,
      "vida": 1085,
      "Ġfa": 1086,
      "valt": 1087,
      "Ġct": 1088,
      "gorande": 1089,
      "ellt": 1090,
      "Ġforstainstans": 1091,
      "Ġtribu": 1092,
      "over": 1093,
      "Ġge": 1094,
      "umark": 1095,
      "era": 1096,
      "giltig": 1097,
      "Ġsamarbet": 1098,
      "Ġhandel": 1099,
      "Ġvag": 1100,
      "Ġ>": 1101,
      "satta": 1102,
      "Ġri": 1103,
      "Ġegt": 1104,
      "ses": 1105,
      "Ġupph": 1106,
      "ner": 1107,
      "Ġ2009": 1108,
      "Ġavser": 1109,
      "nad": 1110,
      "21": 1111,
      "spro": 1112,
      "alj": 1113,
      "parlament": 1114,
      "Ġavdel": 1115,
      "Ġtekn": 1116,
      "mini": 1117,
      "Ġgemensamma": 1118,
      "Ġkonkur": 1119,
      "oden": 1120,
      "dom": 1121,
      "Ġpl": 1122,
      "Ġtribunal": 1123,
      "radet": 1124,
      "Ġartiklarna": 1125,
      "iskt": 1126,
      "foretag": 1127,
      "Ġutfor": 1128,
      "sb": 1129,
      "Ġsvar": 1130,
      "Ġeuropaparlament": 1131,
      "Ġsakerhet": 1132,
      "ummer": 1133,
      "Ġap": 1134,
      "40": 1135,
      "Ġfallerad": 1136,
      "Ġutveck": 1137,
      "Ġprodukter": 1138,
      "Ġunionen": 1139,
      "Ġdat": 1140,
      "ĠâĢĻ": 1141,
      "tiva": 1142,
      "Ġtra": 1143,
      "vist": 1144,
      "ult": 1145,
      "Ġfinansiella": 1146,
      "do": 1147,
      "Ġtillgang": 1148,
      "uella": 1149,
      "Ġkall": 1150,
      "Ġkrav": 1151,
      "Ġbestammelserna": 1152,
      "Ġutt": 1153,
      "Ġtredje": 1154,
      "get": 1155,
      "Ġinstit": 1156,
      "Ġnamnda": 1157,
      "Ġmarknaden": 1158,
      "Ġoverens": 1159,
      "Ġ000": 1160,
      "Ġtillampas": 1161,
      "Ġgar": 1162,
      "30": 1163,
      "Ġgor": 1164,
      "Ġter": 1165,
      "Ġregistr": 1166,
      "Ġfors": 1167,
      "ank": 1168,
      "klass": 1169,
      "tiver": 1170,
      "Ġstall": 1171,
      "Ġled": 1172,
      "Ġ010": 1173,
      "fte": 1174,
      "ttig": 1175,
      "ingen": 1176,
      "don": 1177,
      "Ġderas": 1178,
      "Ġ2006": 1179,
      "Ġta": 1180,
      "hallande": 1181,
      "Ġsas": 1182,
      "Ġgallande": 1183,
      "Ġtjanst": 1184,
      "Ġhandling": 1185,
      "Ġkonkurr": 1186,
      "Ġdarfor": 1187,
      "Ġoffici": 1188,
      "Ġfinns": 1189,
      "Ġeut": 1190,
      "beg": 1191,
      "Ġpersoner": 1192,
      "Ġbland": 1193,
      "Ġmet": 1194,
      "orer": 1195,
      "Ġriskklass": 1196,
      "Ġsen": 1197,
      "Ġbedomning": 1198,
      "namn": 1199,
      "Ġradet": 1200,
      "qu": 1201,
      "artyg": 1202,
      "Ġ2003": 1203,
      "Ġ2001": 1204,
      "Ġyrk": 1205,
      "ret": 1206,
      "Ġkunna": 1207,
      "kat": 1208,
      "sats": 1209,
      "utom": 1210,
      "Ġlang": 1211,
      "Ġeffe": 1212,
      "Ġansokan": 1213,
      "Ġskyldighet": 1214,
      "50": 1215,
      "Ġinternation": 1216,
      "pun": 1217,
      "grun": 1218,
      "Ġgenomforande": 1219,
      "Ġkomp": 1220,
      "rit": 1221,
      "Ġekonomiska": 1222,
      "Ġtva": 1223,
      "ott": 1224,
      "Ġ2013": 1225,
      "ron": 1226,
      "nande": 1227,
      "medel": 1228,
      "Ġbev": 1229,
      "Ġant": 1230,
      "ygg": 1231,
      "Ġbud": 1232,
      "ÙĬ": 1233,
      "Ġmaterial": 1234,
      "Ġag": 1235,
      "Ġjuni": 1236,
      "ydelse": 1237,
      "Ġ2004": 1238,
      "eringen": 1239,
      "rid": 1240,
      "Ġ39": 1241,
      "kta": 1242,
      "Ġz": 1243,
      "halla": 1244,
      "Ġfler": 1245,
      "Ġdirektivet": 1246,
      "bart": 1247,
      "Ġsitt": 1248,
      "Ġmotiver": 1249,
      "Ġhuru": 1250,
      "Ġmedlemsstater": 1251,
      "Ġhuruvida": 1252,
      "Ġoli": 1253,
      "yr": 1254,
      "Ġsasom": 1255,
      "Ġdomen": 1256,
      "Ġ198": 1257,
      "Ġ2002": 1258,
      "pt": 1259,
      "med": 1260,
      "Ġbevilj": 1261,
      "Ġdem": 1262,
      "Ġgemenskapernas": 1263,
      "Ġklag": 1264,
      "iva": 1265,
      "Ġord": 1266,
      "till": 1267,
      "stalla": 1268,
      "fer": 1269,
      "Ġvarumark": 1270,
      "Ġkontroll": 1271,
      "Ġoffentlig": 1272,
      "Ġock": 1273,
      "Ġforvalt": 1274,
      "skostnader": 1275,
      "tifi": 1276,
      "Ġrapp": 1277,
      "Ġhansyn": 1278,
      "Ġanses": 1279,
      "Ġocksa": 1280,
      "Ġsyfte": 1281,
      "Ġovers": 1282,
      "tok": 1283,
      "Ġ38": 1284,
      "Ġakt": 1285,
      "Ġcr": 1286,
      "tokoll": 1287,
      "Ġmaste": 1288,
      "Ġutfar": 1289,
      "ces": 1290,
      "Ġmaj": 1291,
      "Ġjuli": 1292,
      "Ġsale": 1293,
      "Ġco": 1294,
      "Ġsarskilda": 1295,
      "dre": 1296,
      "Ġberak": 1297,
      "Ġpunkterna": 1298,
      "Ġansvar": 1299,
      "Ġsmf": 1300,
      "betyg": 1301,
      "Ġinnebar": 1302,
      "Ġforordningen": 1303,
      "Ġkreditbetyg": 1304,
      "Ġ0106": 1305,
      "Ġhus": 1306,
      "eras": 1307,
      "Ġsaledes": 1308,
      "Ġfort": 1309,
      "Ġofficiella": 1310,
      "Ġnat": 1311,
      "Ġbudget": 1312,
      "sin": 1313,
      "Ġrattig": 1314,
      "raff": 1315,
      "Ġob": 1316,
      "Ġjord": 1317,
      "Ġjam": 1318,
      "Ġhuv": 1319,
      "Ġgran": 1320,
      "talet": 1321,
      "eck": 1322,
      "so": 1323,
      "ge": 1324,
      "Ġ2011": 1325,
      "rax": 1326,
      "upp": 1327,
      "11": 1328,
      "Ġ2008": 1329,
      "Ġnedan": 1330,
      "mar": 1331,
      "by": 1332,
      "Ġ2000": 1333,
      "oder": 1334,
      "gas": 1335,
      "Ġforfarandet": 1336,
      "van": 1337,
      "Ġfun": 1338,
      "vid": 1339,
      "Ġovriga": 1340,
      "Ġuppfyll": 1341,
      "Ġlamp": 1342,
      "Ġfull": 1343,
      "raxis": 1344,
      "ministra": 1345,
      "Ġ37": 1346,
      "Ġhuvud": 1347,
      "Ġkar": 1348,
      "Ġasi": 1349,
      "Ġch": 1350,
      "Ġbeaktande": 1351,
      "Ġogiltig": 1352,
      "mon": 1353,
      "Ġsyn": 1354,
      "nitt": 1355,
      "erat": 1356,
      "Ġramen": 1357,
      "Ġprogram": 1358,
      "Ġ32": 1359,
      "band": 1360,
      "Ġhushall": 1361,
      "Ġbak": 1362,
      "Ġkonkurrens": 1363,
      "Ġskydd": 1364,
      "Ġcc": 1365,
      "Ġprov": 1366,
      "Ġrele": 1367,
      "Ġ36": 1368,
      "Ġ33": 1369,
      "vag": 1370,
      "rack": 1371,
      "Ġbelopp": 1372,
      "garik": 1373,
      "ater": 1374,
      "ug": 1375,
      "varde": 1376,
      "ĠÂ§": 1377,
      "gaende": 1378,
      "Ġolika": 1379,
      "Ġadministra": 1380,
      "Ġ2014": 1381,
      "eb": 1382,
      "Ġnya": 1383,
      "Ġ85": 1384,
      "Ġlagstiftning": 1385,
      "86": 1386,
      "Ġmars": 1387,
      "stru": 1388,
      "Ġeuropaparlamentets": 1389,
      "Ġ100": 1390,
      "Ġjan": 1391,
      "Ġ35": 1392,
      "grund": 1393,
      "Ġbehoriga": 1394,
      "lat": 1395,
      "Ġba": 1396,
      "Ġkor": 1397,
      "Ġfirb": 1398,
      "pli": 1399,
      "Ġ34": 1400,
      "Ġhal": 1401,
      "Ġ1999": 1402,
      "ny": 1403,
      "skap": 1404,
      "Ġvin": 1405,
      "Ġstycket": 1406,
      "sat": 1407,
      "im": 1408,
      "Ġombud": 1409,
      "Ġtolk": 1410,
      "Ġfoljer": 1411,
      "reg": 1412,
      "rupp": 1413,
      "Ġytt": 1414,
      "stammel": 1415,
      "annande": 1416,
      "Ġutveckling": 1417,
      "fog": 1418,
      "Ùħ": 1419,
      "sakring": 1420,
      "Ġpo": 1421,
      "Ġstand": 1422,
      "ten": 1423,
      "forklar": 1424,
      "giv": 1425,
      "Ġanstall": 1426,
      "oly": 1427,
      "Ġokt": 1428,
      "ober": 1429,
      "Ġregler": 1430,
      "ris": 1431,
      "ill": 1432,
      "Ġprotokoll": 1433,
      "Ġexport": 1434,
      "aktig": 1435,
      "Ġasido": 1436,
      "ĠØ§": 1437,
      "rift": 1438,
      "ĠØ": 1439,
      "Ġland": 1440,
      "Ġparter": 1441,
      "Ġ2007": 1442,
      "90": 1443,
      "uari": 1444,
      "Ġgener": 1445,
      "Ġsch": 1446,
      "po": 1447,
      "Ġprodukt": 1448,
      "gument": 1449,
      "Ġnor": 1450,
      "Ġrelevant": 1451,
      "stater": 1452,
      "Ġomstandigheter": 1453,
      "Ġoktober": 1454,
      "ighet": 1455,
      "ryck": 1456,
      "Ġkri": 1457,
      "Ġasidosatt": 1458,
      "Ġdirekt": 1459,
      "Ġkons": 1460,
      "Ġjanuari": 1461,
      "Ġtidning": 1462,
      "Ġkommitt": 1463,
      "rar": 1464,
      "Ġforhand": 1465,
      "itu": 1466,
      "Ġmojlighet": 1467,
      "Ġtransp": 1468,
      "Ġ2012": 1469,
      "voka": 1470,
      "kv": 1471,
      "dan": 1472,
      "staende": 1473,
      "Ġtyp": 1474,
      "Ġ*": 1475,
      "Ġforut": 1476,
      "Ġsyft": 1477,
      "Ġframgar": 1478,
      "Ġrattegangskostnader": 1479,
      "Ġgjort": 1480,
      "Ġtribunalen": 1481,
      "namnda": 1482,
      "fini": 1483,
      "ju": 1484,
      "Ġinve": 1485,
      "Ġindi": 1486,
      "Ġsakerstalla": 1487,
      "Ġmojligt": 1488,
      "Ġallmanna": 1489,
      "Ġrad": 1490,
      "Ġkonstater": 1491,
      "gariket": 1492,
      "Ġmotsvar": 1493,
      "Ġantag": 1494,
      "Ġ01": 1495,
      "Ġnov": 1496,
      "tit": 1497,
      "Ġsamband": 1498,
      "Ġgora": 1499,
      "Ġperi": 1500,
      "borgar": 1501,
      "ril": 1502,
      "ala": 1503,
      "sten": 1504,
      "Ġfel": 1505,
      "ings": 1506,
      "Ġdomstolens": 1507,
      "Ġ84": 1508,
      "Ġ99": 1509,
      "Ġ95": 1510,
      "Ġbas": 1511,
      "atten": 1512,
      "Ġuppratt": 1513,
      "rott": 1514,
      "lin": 1515,
      "Ġ+": 1516,
      "Ġbevis": 1517,
      "ultat": 1518,
      "Ġinbeg": 1519,
      "jur": 1520,
      "Ġinga": 1521,
      "app": 1522,
      "Ġele": 1523,
      "Ġ96": 1524,
      "Ġhanvis": 1525,
      "Ġovertra": 1526,
      "Ġkontroller": 1527,
      "lo": 1528,
      "Ġlever": 1529,
      "mligen": 1530,
      "Ġnationell": 1531,
      "sifi": 1532,
      "Ġtre": 1533,
      "Ġforet": 1534,
      "Ġ2010": 1535,
      "Ġogiltigforklar": 1536,
      "agg": 1537,
      "Ġvarde": 1538,
      "Ġdefini": 1539,
      "Ġtills": 1540,
      "ningsfor": 1541,
      "Ġforteck": 1542,
      "Ġminst": 1543,
      "Ġcent": 1544,
      "Ġjordbruk": 1545,
      "dande": 1546,
      "stag": 1547,
      "Ġinled": 1548,
      "Ġapril": 1549,
      "dat": 1550,
      "Ġkraft": 1551,
      "ett": 1552,
      "Ġforfarande": 1553,
      "Ġlamna": 1554,
      "Ġ'": 1555,
      "Ġklas": 1556,
      "Ġfaststalla": 1557,
      "Ġnagot": 1558,
      "terier": 1559,
      "Ġforenade": 1560,
      "Ġnovember": 1561,
      "Ġytter": 1562,
      "Ġundersok": 1563,
      "Ġgrundval": 1564,
      "Ġorganis": 1565,
      "Ġtotal": 1566,
      "Ġeme": 1567,
      "Ġ92": 1568,
      "Ġspeci": 1569,
      "sska": 1570,
      "Ġkostnader": 1571,
      "ress": 1572,
      "serna": 1573,
      "Ġon": 1574,
      "Ġcon": 1575,
      "80": 1576,
      "Ġurval": 1577,
      "Ġallt": 1578,
      "Ġbakgrund": 1579,
      "Ġvidare": 1580,
      "Ġmening": 1581,
      "jut": 1582,
      "erad": 1583,
      "Ġsocial": 1584,
      "Ġsept": 1585,
      "skatt": 1586,
      "Ġdelar": 1587,
      "Ġkapitel": 1588,
      "Ġemeller": 1589,
      "Ġnamligen": 1590,
      "Ġemellertid": 1591,
      "Ġharmon": 1592,
      "jar": 1593,
      "Ġfak": 1594,
      "Ġrattegangs": 1595,
      "enhet": 1596,
      "Ġinbegrip": 1597,
      "bild": 1598,
      "Ġ2005": 1599,
      "Ġ2016": 1600,
      "Ġital": 1601,
      "ia": 1602,
      "jor": 1603,
      "Ġregion": 1604,
      "speri": 1605,
      "Ġseptember": 1606,
      "Ġhin": 1607,
      "ningarna": 1608,
      "Ġva": 1609,
      "Ġev": 1610,
      "Ġarbets": 1611,
      "Ġharmonis": 1612,
      "Ġgjor": 1613,
      "Ġfordon": 1614,
      "Ġiden": 1615,
      "spe": 1616,
      "Ġ93": 1617,
      "skyd": 1618,
      "raden": 1619,
      "ssystem": 1620,
      "Ġ2015": 1621,
      "Ġla": 1622,
      "ral": 1623,
      "Ġ60": 1624,
      "ligare": 1625,
      "raf": 1626,
      "Ġtillverkning": 1627,
      "Ġbegrans": 1628,
      "Ġgemenskapens": 1629,
      "Ġkval": 1630,
      "Ġforstainstansratten": 1631,
      "Ġ94": 1632,
      "Ġfaststalls": 1633,
      "ttag": 1634,
      "iv": 1635,
      "Ġanvands": 1636,
      "Ġjamfor": 1637,
      "ution": 1638,
      "gift": 1639,
      "sag": 1640,
      "Ġersatt": 1641,
      "Ġdessutom": 1642,
      "Ġ43": 1643,
      "ele": 1644,
      "Ġgemenskaps": 1645,
      "Ġkravs": 1646,
      "000": 1647,
      "Ġfatt": 1648,
      "Ġtillampning": 1649,
      "Ġsitu": 1650,
      "Ġ42": 1651,
      "Ġ44": 1652,
      "Ġhos": 1653,
      "Ġ41": 1654,
      "Ġfragan": 1655,
      "Ġtillrack": 1656,
      "Ġaktuella": 1657,
      "Ġforsalj": 1658,
      "Ġegenskap": 1659,
      "Ġbetraff": 1660,
      "Ġfartyg": 1661,
      "betal": 1662,
      "Ġtillampningen": 1663,
      "Ġklassifi": 1664,
      "ligger": 1665,
      "dukter": 1666,
      "Ġsjal": 1667,
      "spraxis": 1668,
      "astig": 1669,
      "ktig": 1670,
      "ationen": 1671,
      "Ġliknande": 1672,
      "Ġnummer": 1673,
      "kan": 1674,
      "janster": 1675,
      "Ġ87": 1676,
      "ina": 1677,
      "tiskt": 1678,
      "oende": 1679,
      "Ġindu": 1680,
      "Ġ54": 1681,
      "ump": 1682,
      "Ġflera": 1683,
      "myndighet": 1684,
      "Ġ?": 1685,
      "Ġbli": 1686,
      "ritori": 1687,
      "Ġresultat": 1688,
      "Ġ91": 1689,
      "22": 1690,
      "Ġmyndigheterna": 1691,
      "Ġplan": 1692,
      "Ġvac": 1693,
      "Ġfebru": 1694,
      "Ġterritori": 1695,
      "94": 1696,
      "Ġsta": 1697,
      "Ġdock": 1698,
      "Ġfebruari": 1699,
      "Ġytterligare": 1700,
      "Ġrefer": 1701,
      "Ġ2017": 1702,
      "Ġanvandning": 1703,
      "tering": 1704,
      "Ġangrip": 1705,
      "Ġno": 1706,
      "Ġsadant": 1707,
      "Ġrattigheter": 1708,
      "ÙĪ": 1709,
      "Ġelekt": 1710,
      "Ġgrunden": 1711,
      "garder": 1712,
      "Ġby": 1713,
      "id": 1714,
      "Ġforklar": 1715,
      "Ġrattspraxis": 1716,
      "uk": 1717,
      "Ġ98": 1718,
      "Ġ52": 1719,
      "Ġ0086": 1720,
      "folj": 1721,
      "naden": 1722,
      "Ġanser": 1723,
      "Ġersatta": 1724,
      "Ġutom": 1725,
      "ktur": 1726,
      "Ġinnehaller": 1727,
      "still": 1728,
      "Ġ46": 1729,
      "Ġhe": 1730,
      "Ġ97": 1731,
      "Ġangripna": 1732,
      "ier": 1733,
      "bel": 1734,
      "Ġfragor": 1735,
      "Ġ45": 1736,
      "organ": 1737,
      "sc": 1738,
      "Ġinvest": 1739,
      "Ġmon": 1740,
      "Ġred": 1741,
      "Ġanfor": 1742,
      "Ġevent": 1743,
      "Ġaber": 1744,
      "alt": 1745,
      "Ġargument": 1746,
      "enter": 1747,
      "Ġeffektiv": 1748,
      "Ġ80": 1749,
      "Ġforl": 1750,
      "sprak": 1751,
      "Ġhy": 1752,
      "ie": 1753,
      "Ġbehov": 1754,
      "sskatt": 1755,
      "Ġframstall": 1756,
      "Ġrikt": 1757,
      "Ġbehandling": 1758,
      "Ġbeskri": 1759,
      "Ġtekniska": 1760,
      "Ġrespe": 1761,
      "Ġforevarande": 1762,
      "Ġ48": 1763,
      "Ġforst": 1764,
      "Ġyttr": 1765,
      "klu": 1766,
      "Ġtro": 1767,
      "Ġenhet": 1768,
      "Ġop": 1769,
      "Ġhall": 1770,
      "Ø±": 1771,
      "olk": 1772,
      "bara": 1773,
      "Ġflyg": 1774,
      "emp": 1775,
      "skjut": 1776,
      "Ġtidig": 1777,
      "oj": 1778,
      "Ġ49": 1779,
      "Ġtex": 1780,
      "Ġomrade": 1781,
      "uf": 1782,
      "vill": 1783,
      "ata": 1784,
      "Ġmervarde": 1785,
      "Ġavdelningen": 1786,
      "jekt": 1787,
      "Ġlivs": 1788,
      "ÙĨ": 1789,
      "Ġsub": 1790,
      "ssel": 1791,
      "Ġforman": 1792,
      "ĠØ§ÙĦ": 1793,
      "Ġgeneral": 1794,
      "kret": 1795,
      "Ġrelevanta": 1796,
      "Ġkonven": 1797,
      "Ġoverfor": 1798,
      "Ġ55": 1799,
      "Ġslag": 1800,
      "Ġlydelse": 1801,
      "Ġsamtliga": 1802,
      "Ġhav": 1803,
      "edel": 1804,
      "Ġfiske": 1805,
      "Ġnodvandigt": 1806,
      "Ġsokande": 1807,
      "cker": 1808,
      "okument": 1809,
      "olitik": 1810,
      "Ġanvandas": 1811,
      "Ġinbegripet": 1812,
      "Ġtillampliga": 1813,
      "Ġ2018": 1814,
      "Ġordfor": 1815,
      "iner": 1816,
      "Ġener": 1817,
      "cering": 1818,
      "Ġvatten": 1819,
      "heterna": 1820,
      "Ġarbetstag": 1821,
      "Ġsamarbete": 1822,
      "Ġstad": 1823,
      "farande": 1824,
      "Ġ51": 1825,
      "Ġanmal": 1826,
      "Ġ197": 1827,
      "Ġfoljd": 1828,
      "Ġforpli": 1829,
      "Ġprocent": 1830,
      "ask": 1831,
      "Ġinkom": 1832,
      "Ġak": 1833,
      "Ġmedborgar": 1834,
      "Ġspecifi": 1835,
      "rike": 1836,
      "Ġbestammelse": 1837,
      "Ġmyndigheter": 1838,
      "Ġ47": 1839,
      "Ġtillstand": 1840,
      "ationer": 1841,
      "Ġomt": 1842,
      "Ġtr": 1843,
      "Ġredan": 1844,
      "Ġmalen": 1845,
      "Ġoverstig": 1846,
      "Ġspan": 1847,
      "Ġforfaranden": 1848,
      "Ġ56": 1849,
      "Ġforslaget": 1850,
      "urg": 1851,
      "Ġifra": 1852,
      "ativ": 1853,
      "ader": 1854,
      "Ġ70": 1855,
      "saker": 1856,
      "rakt": 1857,
      "ity": 1858,
      "Ġdisk": 1859,
      "Ġvet": 1860,
      "Ġlc": 1861,
      "jel": 1862,
      "vin": 1863,
      "Ġmyndigheten": 1864,
      "Ġtysk": 1865,
      "Ġrattsliga": 1866,
      "Ġstorforetag": 1867,
      "Ġrapporter": 1868,
      "Ġinvand": 1869,
      "Ġforhandsav": 1870,
      "Ġ1998": 1871,
      "Ġsektor": 1872,
      "fl": 1873,
      "Ġdeltag": 1874,
      "Ġfastig": 1875,
      "Ġovannamnda": 1876,
      "gora": 1877,
      "Ġdjur": 1878,
      "por": 1879,
      "Ġhandlingar": 1880,
      "delning": 1881,
      "Ġgrunder": 1882,
      "iens": 1883,
      "emang": 1884,
      "ct": 1885,
      "Ġinratt": 1886,
      "Ġgaran": 1887,
      "verka": 1888,
      "Ġkg": 1889,
      "Ġkunde": 1890,
      "Ġfem": 1891,
      "tions": 1892,
      "Ġfakt": 1893,
      "ension": 1894,
      "Ġluft": 1895,
      "Ġtidigare": 1896,
      "Ġtransport": 1897,
      "Ġtredjel": 1898,
      "Ġger": 1899,
      "Ġindustri": 1900,
      "Ġforsk": 1901,
      "rust": 1902,
      "vistade": 1903,
      "Ġforhandsavgorande": 1904,
      "Ġproduktion": 1905,
      "Ġute": 1906,
      "ha": 1907,
      "Ġnodvandiga": 1908,
      "Ġomtvistade": 1909,
      "Ġiii": 1910,
      "Ġ57": 1911,
      "tegor": 1912,
      "Ġpersonal": 1913,
      "Ġnu": 1914,
      "Ġ07": 1915,
      "Ġim": 1916,
      "hor": 1917,
      "Ġtas": 1918,
      "Ġtillfall": 1919,
      "kraft": 1920,
      "Ġmervardesskatt": 1921,
      "edda": 1922,
      "Ġregel": 1923,
      "rat": 1924,
      "verkan": 1925,
      "Ġinstitut": 1926,
      "Ġhanskjut": 1927,
      "Ġcom": 1928,
      "Ġapp": 1929,
      "amal": 1930,
      "Ġbilag": 1931,
      "Ġinternationella": 1932,
      "Ġoffentliga": 1933,
      "Ġel": 1934,
      "emal": 1935,
      "Ġavgorande": 1936,
      "Ġlander": 1937,
      "Ġmindre": 1938,
      "Ġfi": 1939,
      "Ġbidrag": 1940,
      "und": 1941,
      "repp": 1942,
      "ingar": 1943,
      "Ġenskil": 1944,
      "Ġsidan": 1945,
      "jal": 1946,
      "Ġol": 1947,
      "no": 1948,
      "Ġet": 1949,
      "Ġmedlemsstaten": 1950,
      "cy": 1951,
      "Ġ53": 1952,
      "slapp": 1953,
      "Ġ&": 1954,
      "strument": 1955,
      "bolag": 1956,
      "ard": 1957,
      "Ġtolkas": 1958,
      "spr": 1959,
      "Ġeta": 1960,
      "Ġratten": 1961,
      "Ġ02": 1962,
      "Ġmedfor": 1963,
      "Ġfelaktig": 1964,
      "Ġhogst": 1965,
      "Ġlika": 1966,
      "Ġ2019": 1967,
      "kvens": 1968,
      "Ġantal": 1969,
      "99": 1970,
      "ifi": 1971,
      "Ġanp": 1972,
      "Ġavsnitt": 1973,
      "Ġmottag": 1974,
      "tas": 1975,
      "Ġpag": 1976,
      "Ġtillagg": 1977,
      "Ġgenomforandet": 1978,
      "nytt": 1979,
      "Ġadvoka": 1980,
      "Ġbetraffande": 1981,
      "Ġkapital": 1982,
      "Ġforvar": 1983,
      "vak": 1984,
      "Ġtillamplig": 1985,
      "slutande": 1986,
      "resse": 1987,
      "Ġvikt": 1988,
      "Ġskyldig": 1989,
      "Ġmedlemsstaternas": 1990,
      "vare": 1991,
      "Ġaberop": 1992,
      "Ġtyskland": 1993,
      "Ġunions": 1994,
      "Ġ71": 1995,
      "Ġ89": 1996,
      "ratts": 1997,
      "Ġlivsmedel": 1998,
      "Ġec": 1999,
      "punkt": 2000,
      "Ġsmer": 2001,
      "Ġregl": 2002,
      "fon": 2003,
      "Ġam": 2004,
      "oren": 2005,
      "Ġvax": 2006,
      "ba": 2007,
      "Ġvillkoren": 2008,
      "klusi": 2009,
      "Ġprodukten": 2010,
      "Ġ65": 2011,
      "nen": 2012,
      "Ġ59": 2013,
      "Ġit": 2014,
      "Ġbara": 2015,
      "Ġangaende": 2016,
      "Ġkol": 2017,
      "net": 2018,
      "oci": 2019,
      "Ġhem": 2020,
      "Ġniva": 2021,
      "tisk": 2022,
      "Ġass": 2023,
      "Ġdu": 2024,
      "Ġfunktion": 2025,
      "sprincip": 2026,
      "Ġlon": 2027,
      "ste": 2028,
      "rep": 2029,
      "Ġforsakring": 2030,
      "Ġsokandena": 2031,
      "Ġanal": 2032,
      "Ġskyldigheter": 2033,
      "aktligen": 2034,
      "Ġ2020": 2035,
      "Ġfr": 2036,
      "Ġskatte": 2037,
      "nade": 2038,
      "Ġfoljaktligen": 2039,
      "ko": 2040,
      "Ġneder": 2041,
      "satsen": 2042,
      "tro": 2043,
      "Ġutbild": 2044,
      "Ġ75": 2045,
      "kommer": 2046,
      "Ġmarknads": 2047,
      "Ġinre": 2048,
      "Ġ88": 2049,
      "skyl": 2050,
      "Ġ61": 2051,
      "60": 2052,
      "ktive": 2053,
      "atta": 2054,
      "Ġprincipen": 2055,
      "ransa": 2056,
      "Ġrespektive": 2057,
      "Ġ73": 2058,
      "Ġhanskjutande": 2059,
      "skon": 2060,
      "Ġpol": 2061,
      "Ġhela": 2062,
      "rattens": 2063,
      "Ġgodkannande": 2064,
      "gjor": 2065,
      "gen": 2066,
      "Ġvackt": 2067,
      "Ġpriv": 2068,
      "hang": 2069,
      "ĠÐ": 2070,
      "Ġingar": 2071,
      "Ġ1997": 2072,
      "Ġvardet": 2073,
      "hin": 2074,
      "Ġab": 2075,
      "elsen": 2076,
      "Ġpape": 2077,
      "Ġtv": 2078,
      "Ġsvens": 2079,
      "iti": 2080,
      "we": 2081,
      "Ġ1996": 2082,
      "Ġbru": 2083,
      "Ġlt": 2084,
      "Ġstar": 2085,
      "Ġuppfyller": 2086,
      "skydd": 2087,
      "verksamhet": 2088,
      "Ġsenast": 2089,
      "Ġdels": 2090,
      "Ġ81": 2091,
      "Ġskrift": 2092,
      "itets": 2093,
      "Ġsokandens": 2094,
      "Ġovertradel": 2095,
      "Ġegen": 2096,
      "xi": 2097,
      "Ġkommitten": 2098,
      "Ġlo": 2099,
      "sett": 2100,
      "Ġees": 2101,
      "atgarder": 2102,
      "Ġadministrativa": 2103,
      "ftt": 2104,
      "Ġmanader": 2105,
      "forordningen": 2106,
      "Ġoverstiger": 2107,
      "Ġ1995": 2108,
      "ningsom": 2109,
      "verkar": 2110,
      "Ġgiltig": 2111,
      "yra": 2112,
      "Ġrattegangssprak": 2113,
      "Ġetab": 2114,
      "Ġlagen": 2115,
      "Ġbegrepp": 2116,
      "pper": 2117,
      "skrifter": 2118,
      "assa": 2119,
      "Ġskriv": 2120,
      "mant": 2121,
      "Ġfritt": 2122,
      "Ġprovning": 2123,
      "Ġkomple": 2124,
      "Ġvan": 2125,
      "ratta": 2126,
      "edom": 2127,
      "Ġsto": 2128,
      "Ġandamal": 2129,
      "Ġbefin": 2130,
      "Ġhon": 2131,
      "Ġsystemet": 2132,
      "igen": 2133,
      "Ġanslut": 2134,
      "Ġatgard": 2135,
      "Ġforhandling": 2136,
      "Ġforemal": 2137,
      "Ġforhallande": 2138,
      "Ġ63": 2139,
      "Ġdokument": 2140,
      "sbe": 2141,
      "lla": 2142,
      "Ġfeuf": 2143,
      "Ġbygg": 2144,
      "Ø§Ø": 2145,
      "form": 2146,
      "Ġlak": 2147,
      "Ġars": 2148,
      "Ġrak": 2149,
      "Ġatag": 2150,
      "Ġreferens": 2151,
      "Ġbry": 2152,
      "varder": 2153,
      "Ġtids": 2154,
      "Ġmang": 2155,
      "Ġstyr": 2156,
      "iz": 2157,
      "Ġvidta": 2158,
      "gangar": 2159,
      "kade": 2160,
      "Ġbada": 2161,
      "Ġbefog": 2162,
      "ich": 2163,
      "Ġinnan": 2164,
      "sprincipen": 2165,
      "attig": 2166,
      "Ġuppl": 2167,
      "Ġrattegangskostnaderna": 2168,
      "Ġenergi": 2169,
      "burg": 2170,
      "Ġnagra": 2171,
      "reak": 2172,
      "Ġprojekt": 2173,
      "Ġgalla": 2174,
      "int": 2175,
      "Ġfjar": 2176,
      "Ġidentifi": 2177,
      "Ġkonun": 2178,
      "Ġ86": 2179,
      "Ġassoci": 2180,
      "ogs": 2181,
      "Ġomfattar": 2182,
      "Ġ77": 2183,
      "Ġexemp": 2184,
      "varen": 2185,
      "Ġ1994": 2186,
      "Ġ58": 2187,
      "Ġjurid": 2188,
      "Ġtillhandahall": 2189,
      "Ġskade": 2190,
      "Ġgrupp": 2191,
      "Ġskada": 2192,
      "ator": 2193,
      "Ġbr": 2194,
      "niva": 2195,
      "material": 2196,
      "Ġton": 2197,
      "Ġersattning": 2198,
      "Ġvars": 2199,
      "Ġ67": 2200,
      "Ġlin": 2201,
      "Ġsjalv": 2202,
      "Ġac": 2203,
      "Ġ64": 2204,
      "Ġober": 2205,
      "Ġser": 2206,
      "stan": 2207,
      "Ġutslapp": 2208,
      "Ġfordel": 2209,
      "Ġmini": 2210,
      "Ġvas": 2211,
      "Ġ62": 2212,
      "Ġpri": 2213,
      "12": 2214,
      "Ġbri": 2215,
      "Ġfrank": 2216,
      "Ġkonungariket": 2217,
      "elser": 2218,
      "Ġdra": 2219,
      "Ġem": 2220,
      "Ġhinder": 2221,
      "Ġsjuk": 2222,
      "Ġcp": 2223,
      "strin": 2224,
      "stammelse": 2225,
      "Ġforetaget": 2226,
      "ara": 2227,
      "Ġbehorighet": 2228,
      "tie": 2229,
      "rustning": 2230,
      "Ġupphav": 2231,
      "tek": 2232,
      "Ð°": 2233,
      "Ġkraven": 2234,
      "Ġforutsatt": 2235,
      "15": 2236,
      "produkter": 2237,
      "Ġklaganden": 2238,
      "forordning": 2239,
      "Ġanmark": 2240,
      "Ġutnytt": 2241,
      "Ġintresse": 2242,
      "ena": 2243,
      "ment": 2244,
      "Ġas": 2245,
      "Ġvoly": 2246,
      "satser": 2247,
      "Ġamn": 2248,
      "Ġ68": 2249,
      "Ġverkstall": 2250,
      "jalp": 2251,
      "Ġmarknad": 2252,
      "Ġnatur": 2253,
      "Ġforsaljning": 2254,
      "lats": 2255,
      "vande": 2256,
      "Ġminska": 2257,
      "Ġutfard": 2258,
      "ca": 2259,
      "undet": 2260,
      "br": 2261,
      "Ġanta": 2262,
      "Ġ72": 2263,
      "stad": 2264,
      "13": 2265,
      "fik": 2266,
      "Ġasidosattande": 2267,
      "struktur": 2268,
      "sperioden": 2269,
      "vision": 2270,
      "Ġfil": 2271,
      "Ġ74": 2272,
      "Ġanvanda": 2273,
      "jt": 2274,
      "Ġnormal": 2275,
      "bin": 2276,
      "Ġvagnar": 2277,
      "Ġcy": 2278,
      "Ġ83": 2279,
      "ung": 2280,
      "iss": 2281,
      "Î±": 2282,
      "domstol": 2283,
      "Ġve": 2284,
      "Ġau": 2285,
      "Ġkategor": 2286,
      "rel": 2287,
      "Ġforbatt": 2288,
      "Ġinnehall": 2289,
      "Ġpaverkar": 2290,
      "Ġbegransa": 2291,
      "Ġbehand": 2292,
      "Ġstra": 2293,
      "Ġkop": 2294,
      "Ġklassificering": 2295,
      "anda": 2296,
      "dad": 2297,
      "93": 2298,
      "Ġoverklagade": 2299,
      "Ġhelt": 2300,
      "Ġforhall": 2301,
      "skriterier": 2302,
      "Ġuttryck": 2303,
      "Ġkl": 2304,
      "ledning": 2305,
      "Ġovervak": 2306,
      "Ġtillsyn": 2307,
      "Ġoverklagandena": 2308,
      "Ġbeskatt": 2309,
      "Ġned": 2310,
      "uppgifter": 2311,
      "Ġredo": 2312,
      "Ġtjanstem": 2313,
      "Ġrum": 2314,
      "Ġges": 2315,
      "Ġforvaltning": 2316,
      "Ġtotala": 2317,
      "sekvens": 2318,
      "Ġhuvudsak": 2319,
      "Ġterritorium": 2320,
      "ktiva": 2321,
      "Ġbekraft": 2322,
      "digt": 2323,
      "jer": 2324,
      "vax": 2325,
      "Ġ76": 2326,
      "Ġmiljo": 2327,
      "Ġfaktiska": 2328,
      "Ø©": 2329,
      "Ġlux": 2330,
      "Ġpropor": 2331,
      "Ġfjarde": 2332,
      "Ġbrott": 2333,
      "ror": 2334,
      "Ġhypo": 2335,
      "Ġrapport": 2336,
      "Ġ66": 2337,
      "rimin": 2338,
      "ebreak": 2339,
      "Ġpagebreak": 2340,
      "Ġbryssel": 2341,
      "Ġmotsvarande": 2342,
      "Ġforetrad": 2343,
      "Ġoverklagandenamn": 2344,
      "Ġviktig": 2345,
      "eskrifter": 2346,
      "Ġbestam": 2347,
      "Ġbetydelse": 2348,
      "Ġvasent": 2349,
      "Ġ03": 2350,
      "Ġenbart": 2351,
      "igenom": 2352,
      "tera": 2353,
      "Ġforeligger": 2354,
      "Ġinteg": 2355,
      "Ġtjanste": 2356,
      "dire": 2357,
      "Ġopp": 2358,
      "Ġfon": 2359,
      "klusive": 2360,
      "Ġport": 2361,
      "Ġandringar": 2362,
      "Ġparten": 2363,
      "Ġrorande": 2364,
      "Ġplats": 2365,
      "emot": 2366,
      "Ġtab": 2367,
      "per": 2368,
      "hol": 2369,
      "co": 2370,
      "Ġtillampa": 2371,
      "Ġfab": 2372,
      "Ġperiod": 2373,
      "bi": 2374,
      "Ġbearbet": 2375,
      "Ġjag": 2376,
      "Ġmedborgare": 2377,
      "Ġ69": 2378,
      "rig": 2379,
      "titet": 2380,
      "Ġgenomfora": 2381,
      "rang": 2382,
      "Ġanbud": 2383,
      "Ġavfall": 2384,
      "Ġ78": 2385,
      "Ġ79": 2386,
      "Ġluxem": 2387,
      "Ġfallet": 2388,
      "ceras": 2389,
      "terade": 2390,
      "Ġunderteck": 2391,
      "enheter": 2392,
      "god": 2393,
      "Ġuppna": 2394,
      "Ġbl": 2395,
      "Ġloka": 2396,
      "Ġregeringen": 2397,
      "rekt": 2398,
      "Ġbin": 2399,
      "Ġ2021": 2400,
      "Ġgre": 2401,
      "Ġuppfylla": 2402,
      "ckning": 2403,
      "Ġanlagg": 2404,
      "Ġoverensstammelse": 2405,
      "atte": 2406,
      "fartyg": 2407,
      "Ġsn": 2408,
      "ho": 2409,
      "Ġgrans": 2410,
      "Ġaktor": 2411,
      "Ġverkan": 2412,
      "Î¿": 2413,
      "23": 2414,
      "ick": 2415,
      "Ġbetyd": 2416,
      "Ġerin": 2417,
      "Ġfrankrike": 2418,
      "Ġklar": 2419,
      "Ð¸": 2420,
      "Ġursprungs": 2421,
      "Ġomradet": 2422,
      "Ġ05": 2423,
      "fors": 2424,
      "Ġerk": 2425,
      "fritt": 2426,
      "Ġinklusive": 2427,
      "ate": 2428,
      "Ġreson": 2429,
      "kation": 2430,
      "19": 2431,
      "Ġkallad": 2432,
      "Ġdiskrimin": 2433,
      "Ġdan": 2434,
      "vet": 2435,
      "Ġsituation": 2436,
      "diga": 2437,
      "mb": 2438,
      "under": 2439,
      "Ġsedan": 2440,
      "Ġelektron": 2441,
      "grupp": 2442,
      "Ġfys": 2443,
      "yt": 2444,
      "Ġitalien": 2445,
      "Ġanvant": 2446,
      "dustrin": 2447,
      "Ġexempel": 2448,
      "yrel": 2449,
      "Ġ04": 2450,
      "Ġforstainstansrattens": 2451,
      "Î¹": 2452,
      "Ġkn": 2453,
      "Ġca": 2454,
      "Ġtillhandahalla": 2455,
      "Ġregering": 2456,
      "villkor": 2457,
      "Ġstallning": 2458,
      "alitet": 2459,
      "Ġkallat": 2460,
      "Ġgenomforandeforordning": 2461,
      "Ġdeleg": 2462,
      "Ġomraden": 2463,
      "Ġkungariket": 2464,
      "itiativ": 2465,
      "Ġverksam": 2466,
      "splan": 2467,
      "tivt": 2468,
      "Ġsan": 2469,
      "jud": 2470,
      "tliga": 2471,
      "Ġtillgangar": 2472,
      "givning": 2473,
      "Ġequ": 2474,
      "enta": 2475,
      "Ġhypotek": 2476,
      "Ġes": 2477,
      "Ġoberoende": 2478,
      "Ġlampliga": 2479,
      "Ġiv": 2480,
      "Ġ08": 2481,
      "ren": 2482,
      "Ġvarit": 2483,
      "ement": 2484,
      "Ġdata": 2485,
      "Ġfann": 2486,
      "cens": 2487,
      "Ġresonemang": 2488,
      "Ġupphandling": 2489,
      "Ġslsc": 2490,
      "dor": 2491,
      "ib": 2492,
      "fts": 2493,
      "Ġko": 2494,
      "Ġtag": 2495,
      "Ġutgang": 2496,
      "io": 2497,
      "lander": 2498,
      "Ġir": 2499,
      "Ġcentral": 2500,
      "Ġupplys": 2501,
      "Ġtillat": 2502,
      "Ġrub": 2503,
      "abil": 2504,
      "Ġstri": 2505,
      "Ġsynner": 2506,
      "Ġinstrument": 2507,
      "Ġutanfor": 2508,
      "th": 2509,
      "Ġ09": 2510,
      "14": 2511,
      "Ġviss": 2512,
      "Ġskalen": 2513,
      "Ġekonomisk": 2514,
      "ure": 2515,
      "Ġsyftet": 2516,
      "Ġskill": 2517,
      "Ġtillrackligt": 2518,
      "Ġogiltigforklaring": 2519,
      "kar": 2520,
      "landska": 2521,
      "Ġallvar": 2522,
      "Ġdatum": 2523,
      "Ġgra": 2524,
      "Ġexporter": 2525,
      "Ġmm": 2526,
      "olog": 2527,
      "Ġandras": 2528,
      "ograf": 2529,
      "Ġtilldel": 2530,
      "Ġyttrande": 2531,
      "Ġ1993": 2532,
      "Ġkompletter": 2533,
      "Ġproportion": 2534,
      "Ġhor": 2535,
      "Ġskilj": 2536,
      "Ġkvan": 2537,
      "Ġtele": 2538,
      "Ġarbetstagare": 2539,
      "Ġbarn": 2540,
      "skra": 2541,
      "Ġ0094": 2542,
      "Ġkv": 2543,
      "til": 2544,
      "iet": 2545,
      "nes": 2546,
      "Ġluxemburg": 2547,
      "Ġbeteck": 2548,
      "Ġfabrik": 2549,
      "Ġmotor": 2550,
      "Ġtabell": 2551,
      "Ġlangre": 2552,
      "Ùĥ": 2553,
      "Ġnytt": 2554,
      "Ġarende": 2555,
      "che": 2556,
      "iteten": 2557,
      "Ġavdelning": 2558,
      "san": 2559,
      "Ġutgora": 2560,
      "Ġgro": 2561,
      "Ġenheter": 2562,
      "Ġfranska": 2563,
      "Ġkost": 2564,
      "Ġange": 2565,
      "Ġ82": 2566,
      "Ġsu": 2567,
      "Ġproduktens": 2568,
      "Ġpubli": 2569,
      "Ġifragas": 2570,
      "Ġhjalp": 2571,
      "Ġus": 2572,
      "Ġoster": 2573,
      "Ġlagstiftningen": 2574,
      "Ġbegreppet": 2575,
      "vas": 2576,
      "Ġcomm": 2577,
      "behall": 2578,
      "Ġfaststallande": 2579,
      "Ġkontrakt": 2580,
      "Ġundersokning": 2581,
      "Ġiak": 2582,
      "savtal": 2583,
      "Ġsjatte": 2584,
      "organis": 2585,
      "17": 2586,
      "Ġlop": 2587,
      "Ġsynnerhet": 2588,
      "Ġbedomningen": 2589,
      "Ġersattas": 2590,
      "Ġgang": 2591,
      "fattning": 2592,
      "Ġordforande": 2593,
      "ega": 2594,
      "Ġdagen": 2595,
      "Ġsvensk": 2596,
      "Ġvolym": 2597,
      "one": 2598,
      "Ġingen": 2599,
      "Ġenskilda": 2600,
      "gin": 2601,
      "ressen": 2602,
      "lade": 2603,
      "Ġfaststallas": 2604,
      "sektor": 2605,
      "ova": 2606,
      "rum": 2607,
      "Ġheller": 2608,
      "ii": 2609,
      "beslut": 2610,
      "ita": 2611,
      "Ġkonventionen": 2612,
      "sut": 2613,
      "Ġsenare": 2614,
      "Ġgoras": 2615,
      "savtalet": 2616,
      "dens": 2617,
      "Ġinterven": 2618,
      "gien": 2619,
      "Ġis": 2620,
      "Ġram": 2621,
      "Ġran": 2622,
      "bygg": 2623,
      "Ġavtals": 2624,
      "Ġrekomm": 2625,
      "Ġgjorde": 2626,
      "Ġutgifter": 2627,
      "24": 2628,
      "Ġpension": 2629,
      "ovs": 2630,
      "farandet": 2631,
      "smyndighet": 2632,
      "erar": 2633,
      "Ġforeskrifter": 2634,
      "emedel": 2635,
      "Ġbesvar": 2636,
      "Ġprogrammet": 2637,
      "Ġdarmed": 2638,
      "hal": 2639,
      "Ġtillampningsom": 2640,
      "Ġdetalj": 2641,
      "nummer": 2642,
      "Ġmycket": 2643,
      "Ġatgarderna": 2644,
      "Ġeventu": 2645,
      "Ġforekomm": 2646,
      "instit": 2647,
      "Ġutbildning": 2648,
      "Ġantas": 2649,
      "Ġbolaget": 2650,
      "haller": 2651,
      "Ġuppen": 2652,
      "Ġinitiativ": 2653,
      "Ġyrkes": 2654,
      "Ġbade": 2655,
      "andra": 2656,
      "bord": 2657,
      "ĠÙħ": 2658,
      "to": 2659,
      "Ġregistrering": 2660,
      "Ġbetydande": 2661,
      "erare": 2662,
      "Ġgrek": 2663,
      "Ġdrift": 2664,
      "Ġavsedda": 2665,
      "Ġfastighet": 2666,
      "Ġtolkning": 2667,
      "Ġart": 2668,
      "Ġbank": 2669,
      "erats": 2670,
      "Ġavgifter": 2671,
      "Ġsamtidigt": 2672,
      "dex": 2673,
      "Ġprotokollet": 2674,
      "Ð¾": 2675,
      "Ġoverenskomm": 2676,
      "Ġtrots": 2677,
      "Ġja": 2678,
      "Ġgu": 2679,
      "Ġpost": 2680,
      "Ġframja": 2681,
      "Ġkort": 2682,
      "tar": 2683,
      "Ġ1992": 2684,
      "Ġske": 2685,
      "fragor": 2686,
      "Ġcer": 2687,
      "Ġomstandigheterna": 2688,
      "ular": 2689,
      "Ðµ": 2690,
      "Ġtvist": 2691,
      "Ġutvarder": 2692,
      "bb": 2693,
      "Ġmeddelande": 2694,
      "Ġframfor": 2695,
      "ffar": 2696,
      "stjanster": 2697,
      "Ġspanien": 2698,
      "Ġsol": 2699,
      "Ġforplikta": 2700,
      "pris": 2701,
      "ugu": 2702,
      "Ġsamrad": 2703,
      "procent": 2704,
      "Ġkonsum": 2705,
      "handel": 2706,
      "cka": 2707,
      "he": 2708,
      "Ġager": 2709,
      "Ġbilagan": 2710,
      "Ġkriterier": 2711,
      "Ġvetenskap": 2712,
      "Ġfaststallts": 2713,
      "Ġjar": 2714,
      "Ġtyska": 2715,
      "oten": 2716,
      "behandling": 2717,
      "sel": 2718,
      "Ġanledning": 2719,
      "Ġsyftar": 2720,
      "Ġomstandigheten": 2721,
      "Ġsammanhang": 2722,
      "Ġtjansteman": 2723,
      "arens": 2724,
      "sakerhet": 2725,
      "Ġeventuella": 2726,
      "Ġperioden": 2727,
      "Ġaty": 2728,
      "ox": 2729,
      "ital": 2730,
      "Ġmat": 2731,
      "sikt": 2732,
      "68": 2733,
      "Ġforlang": 2734,
      "Ġvarumarket": 2735,
      "Ġequity": 2736,
      "Ùģ": 2737,
      "Ġsaga": 2738,
      "Ġlan": 2739,
      "Ġdeltagande": 2740,
      "Ġgeneralad": 2741,
      "Ġann": 2742,
      "Ġham": 2743,
      "Ġinstitution": 2744,
      "kel": 2745,
      "tor": 2746,
      "regler": 2747,
      "Ġutnyttj": 2748,
      "Ġviktprocent": 2749,
      "Ġbedri": 2750,
      "Ġalterna": 2751,
      "Ġmcy": 2752,
      "rapp": 2753,
      "07": 2754,
      "han": 2755,
      "Ġhelst": 2756,
      "Ġlampligt": 2757,
      "Ġproces": 2758,
      "25": 2759,
      "Ġlos": 2760,
      "kast": 2761,
      "jting": 2762,
      "Ġrattslig": 2763,
      "08": 2764,
      "Ġleverant": 2765,
      "smed": 2766,
      "Ġgeneraladvoka": 2767,
      "Ġgodkan": 2768,
      "Ġdro": 2769,
      "Ġutby": 2770,
      "Ġtidsfri": 2771,
      "Ġklassificeringskriterier": 2772,
      "Ġoverklagande": 2773,
      "Ġspecifika": 2774,
      "snitt": 2775,
      "Ġangiv": 2776,
      "Ġsex": 2777,
      "Ġunderratt": 2778,
      "tts": 2779,
      "teras": 2780,
      "Ġdare": 2781,
      "dag": 2782,
      "Ġ0000": 2783,
      "dera": 2784,
      "Ġriktlin": 2785,
      "omal": 2786,
      "ktioner": 2787,
      "Ġovergang": 2788,
      "limin": 2789,
      "Ġantid": 2790,
      "Ġtur": 2791,
      "ringar": 2792,
      "trade": 2793,
      "Ġstrate": 2794,
      "Ġdarefter": 2795,
      "Ø³": 2796,
      "Ġetabler": 2797,
      "Ġtor": 2798,
      "Ġantidump": 2799,
      "amilj": 2800,
      "byran": 2801,
      "Ġdagar": 2802,
      "Ġegna": 2803,
      "Ġforvant": 2804,
      "Ġupplysningar": 2805,
      "Ġaugu": 2806,
      "ĠÎ": 2807,
      "Ġmort": 2808,
      "Ġtrader": 2809,
      "Ġena": 2810,
      "arnas": 2811,
      "Ġgeograf": 2812,
      "Ġkonsument": 2813,
      "Ø¯": 2814,
      "papper": 2815,
      "Ġomfatta": 2816,
      "Ġoka": 2817,
      "Ġtillgangliga": 2818,
      "Ġbeviljas": 2819,
      "Ġanfort": 2820,
      "Ġprova": 2821,
      "16": 2822,
      "Ġdri": 2823,
      "troll": 2824,
      "mare": 2825,
      "Ġtyd": 2826,
      "Ġkvalifi": 2827,
      "Ġkr": 2828,
      "Ġpartner": 2829,
      "Ġtredjeland": 2830,
      "smark": 2831,
      "Øª": 2832,
      "Ġmotsvarar": 2833,
      "Ġutred": 2834,
      "Ġberattig": 2835,
      "orna": 2836,
      "Ġinforli": 2837,
      "belopp": 2838,
      "Ġpaverka": 2839,
      "gava": 2840,
      "ges": 2841,
      "Ġtullfritt": 2842,
      "Ø¨": 2843,
      "Ġeng": 2844,
      "delar": 2845,
      "rattsliga": 2846,
      "system": 2847,
      "sf": 2848,
      "ine": 2849,
      "Ġredovis": 2850,
      "que": 2851,
      "Ġerhall": 2852,
      "lande": 2853,
      "Ġvisar": 2854,
      "seende": 2855,
      "Ġkonsekvens": 2856,
      "Ġltd": 2857,
      "Ġsarskild": 2858,
      "Ùĩ": 2859,
      "Ġberoende": 2860,
      "29": 2861,
      "sprogram": 2862,
      "Ġaugusti": 2863,
      "Ġhogsta": 2864,
      "ium": 2865,
      "Ġamnen": 2866,
      "drar": 2867,
      "len": 2868,
      "Ġovertradelse": 2869,
      "ransp": 2870,
      "Ġitaliens": 2871,
      "ust": 2872,
      "elag": 2873,
      "Ġrattsa": 2874,
      "Ġ06": 2875,
      "Ġbeaktas": 2876,
      "itten": 2877,
      "Ġutov": 2878,
      "03": 2879,
      "Ġogi": 2880,
      "Ġsociala": 2881,
      "Ġoversyn": 2882,
      "urser": 2883,
      "sindustrin": 2884,
      "staller": 2885,
      "Ġuppgift": 2886,
      "18": 2887,
      "Ġparternas": 2888,
      "Ġoverklagandenamnden": 2889,
      "nads": 2890,
      "Ġstora": 2891,
      "Ġslov": 2892,
      "skar": 2893,
      "Ġhogre": 2894,
      "Ġansag": 2895,
      "Ġlakemedel": 2896,
      "Ġforsvar": 2897,
      "lek": 2898,
      "rym": 2899,
      "Ġkopp": 2900,
      "Ð½": 2901,
      "Ġvard": 2902,
      "Ġslutligen": 2903,
      "Ġminister": 2904,
      "ow": 2905,
      "bestammel": 2906,
      "star": 2907,
      "Ġfru": 2908,
      "Ġinh": 2909,
      "Ġspecialutgava": 2910,
      "fa": 2911,
      "Ġnot": 2912,
      "Ġmotivering": 2913,
      "Ġtolknings": 2914,
      "Ġslutgiltig": 2915,
      "enda": 2916,
      "Ġinstitu": 2917,
      "domstolen": 2918,
      "Ġanstallda": 2919,
      "ige": 2920,
      "stod": 2921,
      "Ġinneha": 2922,
      "isering": 2923,
      "Ġforvaltnings": 2924,
      "Ġ104": 2925,
      "Ġgemensamt": 2926,
      "Ġovrigt": 2927,
      "skning": 2928,
      "ransl": 2929,
      "Ġly": 2930,
      "Ġlamnas": 2931,
      "kall": 2932,
      "Ġvarumarke": 2933,
      "Ġutarbet": 2934,
      "Ġpat": 2935,
      "punkter": 2936,
      "Ġkriteri": 2937,
      "Ġnarmare": 2938,
      "Ġfang": 2939,
      "Ġveder": 2940,
      "tto": 2941,
      "Ġharmoniserings": 2942,
      "Ġportug": 2943,
      "Ġoav": 2944,
      "Ġbindande": 2945,
      "Ġskrivelse": 2946,
      "Ġjusti": 2947,
      "derna": 2948,
      "Ġgenomsnitt": 2949,
      "sesi": 2950,
      "regl": 2951,
      "Ġsocker": 2952,
      "Ġprelimin": 2953,
      "ammans": 2954,
      "Ġforteckningen": 2955,
      "tier": 2956,
      "Ġposi": 2957,
      "js": 2958,
      "oter": 2959,
      "landerna": 2960,
      "Ġgron": 2961,
      "skomm": 2962,
      "Ġutrustning": 2963,
      "Ġatgarden": 2964,
      "Ġdistri": 2965,
      "ip": 2966,
      "Ġfamilj": 2967,
      "Ġru": 2968,
      "Ġuppgifterna": 2969,
      "Ġgrundforordningen": 2970,
      "27": 2971,
      "Ġjarn": 2972,
      "Ġeuropaparlamentet": 2973,
      "Ġtillsammans": 2974,
      "mat": 2975,
      "Ġskydds": 2976,
      "Ġfo": 2977,
      "Ġstodet": 2978,
      "Ġmask": 2979,
      "Ġforutsattning": 2980,
      "Ġbetala": 2981,
      "Ġomsesi": 2982,
      "sattningen": 2983,
      "Ġforesl": 2984,
      "vel": 2985,
      "Ġinnehallande": 2986,
      "erande": 2987,
      "blem": 2988,
      "Ġdig": 2989,
      "enterna": 2990,
      "Ġhanvisning": 2991,
      "Ġrorlighet": 2992,
      "Ġbesluta": 2993,
      "Ġbehorig": 2994,
      "Ġforplikt": 2995,
      "Ġaffar": 2996,
      "sekret": 2997,
      "Ġanpass": 2998,
      "Ġbal": 2999,
      "Ġkem": 3000,
      "Ġavslut": 3001,
      "Ġvia": 3002,
      "forsakring": 3003,
      "Ġexc": 3004,
      "Ġbeskrivning": 3005,
      "Ġdump": 3006,
      "02": 3007,
      "Ġmj": 3008,
      "Ġstaten": 3009,
      "Ġpass": 3010,
      "Ġprivat": 3011,
      "sor": 3012,
      "Ġvardepapper": 3013,
      "Ġbered": 3014,
      "Ġjo": 3015,
      "Ġbestar": 3016,
      "Ġrx": 3017,
      "Ġbeakta": 3018,
      "Ġforeslag": 3019,
      "Ġmeddelandet": 3020,
      "Ġpoli": 3021,
      "Ġaterbetal": 3022,
      "Ġstru": 3023,
      "Ġdomslut": 3024,
      "kommit": 3025,
      "sprodukter": 3026,
      "fe": 3027,
      "sland": 3028,
      "Ġga": 3029,
      "Ġsvarande": 3030,
      "Ġok": 3031,
      "04": 3032,
      "Ġgjorts": 3033,
      "01": 3034,
      "Ġbef": 3035,
      "skridande": 3036,
      "given": 3037,
      "Ġmak": 3038,
      "tic": 3039,
      "Ġforbehall": 3040,
      "Ġfemte": 3041,
      "institut": 3042,
      "Ġimporter": 3043,
      "xp": 3044,
      "foreskrifter": 3045,
      "sforetag": 3046,
      "Ġfot": 3047,
      "Ġkommuni": 3048,
      "Ġanpassa": 3049,
      "lev": 3050,
      "Ġantalet": 3051,
      "Ġerb": 3052,
      "Ġinspe": 3053,
      "mo": 3054,
      "Ġsver": 3055,
      "Ġforteckning": 3056,
      "Ġpla": 3057,
      "31": 3058,
      "Ġho": 3059,
      "Ġbyran": 3060,
      "Ġkomma": 3061,
      "Ġfolja": 3062,
      "ytt": 3063,
      "Ġmann": 3064,
      "Ġfaktiskt": 3065,
      "Ġtac": 3066,
      "Ġinvesteringar": 3067,
      "Ġupphavande": 3068,
      "Ġutstra": 3069,
      "Ġbelgien": 3070,
      "ations": 3071,
      "steg": 3072,
      "Ġfunktions": 3073,
      "radande": 3074,
      "Ġharmonisering": 3075,
      "Ġuppenbart": 3076,
      "Ġanslutning": 3077,
      "Ġkontrollera": 3078,
      "Ġkoll": 3079,
      "ire": 3080,
      "Ġkarakt": 3081,
      "verket": 3082,
      "05": 3083,
      "Ġpant": 3084,
      "Ġstal": 3085,
      "Ġblir": 3086,
      "pen": 3087,
      "skott": 3088,
      "Ġforhin": 3089,
      "Ġdelvis": 3090,
      "slagstift": 3091,
      "cis": 3092,
      "lands": 3093,
      "Ġkannet": 3094,
      "Ġkanneteck": 3095,
      "26": 3096,
      "stamm": 3097,
      "resent": 3098,
      "Ġtrad": 3099,
      "Ġgas": 3100,
      "Ġintressen": 3101,
      "fran": 3102,
      "Ġaut": 3103,
      "Ġcertifi": 3104,
      "Ġrik": 3105,
      "33": 3106,
      "ke": 3107,
      "Ġstandard": 3108,
      "Ġkombin": 3109,
      "Ġstatligt": 3110,
      "Ġinverkan": 3111,
      "Ġschwe": 3112,
      "Ġbefintliga": 3113,
      "ÙĤ": 3114,
      "Ġarbete": 3115,
      "fisk": 3116,
      "Ġexper": 3117,
      "Ġek": 3118,
      "74": 3119,
      "Ġovervakning": 3120,
      "Ġangiven": 3121,
      "Ġminim": 3122,
      "Ġordforanden": 3123,
      "Ġgodkann": 3124,
      "acitet": 3125,
      "uro": 3126,
      "Ġavdrag": 3127,
      "Ġantingen": 3128,
      "Ġprinciper": 3129,
      "Ġren": 3130,
      "Ġparlament": 3131,
      "mbh": 3132,
      "ec": 3133,
      "Ġpriser": 3134,
      "Ġjuridiska": 3135,
      "Ġstorre": 3136,
      "Ġutbetal": 3137,
      "Ġlas": 3138,
      "Ġtextil": 3139,
      "Ġstyrel": 3140,
      "Ġtillhandahallande": 3141,
      "ration": 3142,
      "ÑĢ": 3143,
      "foren": 3144,
      "Ġsaval": 3145,
      "Ġsjalva": 3146,
      "Ġdejting": 3147,
      "kraftt": 3148,
      "Ġste": 3149,
      "Ġgmbh": 3150,
      "ni": 3151,
      "Ġikraftt": 3152,
      "Ġschweiz": 3153,
      "ssam": 3154,
      "Ġvarorna": 3155,
      "republiken": 3156,
      "Ġutgaende": 3157,
      "skyldighet": 3158,
      "elopp": 3159,
      "bank": 3160,
      "Ġkina": 3161,
      "Ġben": 3162,
      "34": 3163,
      "ors": 3164,
      "arder": 3165,
      "pan": 3166,
      "Ġunderl": 3167,
      "Ġ220": 3168,
      "Ġutvecklingen": 3169,
      "tes": 3170,
      "Ġankommer": 3171,
      "Ġciv": 3172,
      "Ġintegr": 3173,
      "Ġgors": 3174,
      "frastruktur": 3175,
      "Ġforekommande": 3176,
      "Ġbrist": 3177,
      "Ġoverlam": 3178,
      "Ġtribunalens": 3179,
      "Ġrevision": 3180,
      "Ġomedel": 3181,
      "Ġdelta": 3182,
      "Ġlicens": 3183,
      "Ġtolkningen": 3184,
      "Ġmoder": 3185,
      "Ġlagar": 3186,
      "Ġpraxis": 3187,
      "produ": 3188,
      "Ġfinansiering": 3189,
      "sg": 3190,
      "kanis": 3191,
      "Ġbedoma": 3192,
      "Ġprak": 3193,
      "rafik": 3194,
      "myndigheten": 3195,
      "lad": 3196,
      "speriod": 3197,
      "plan": 3198,
      "Ġallmant": 3199,
      "fen": 3200,
      "Ġoverforing": 3201,
      "enden": 3202,
      "ÏĦ": 3203,
      "Ġrekommenda": 3204,
      "Ġsti": 3205,
      "Ġomsattning": 3206,
      "vik": 3207,
      "Ġutover": 3208,
      "Ġkostnaderna": 3209,
      "Ġboter": 3210,
      "up": 3211,
      "Ġcivil": 3212,
      "Ġlandet": 3213,
      "Ġogill": 3214,
      "Ġfolk": 3215,
      "Ġskadestand": 3216,
      "ningst": 3217,
      "brer": 3218,
      "Ġjust": 3219,
      "Ġbruk": 3220,
      "Ġsg": 3221,
      "Ġbifall": 3222,
      "Ġindivi": 3223,
      "Ġligger": 3224,
      "Ġinkomst": 3225,
      "atts": 3226,
      "Ġnederlanderna": 3227,
      "Ġogiltigforklara": 3228,
      "punkten": 3229,
      "ĠÂ·": 3230,
      "Ġcpc": 3231,
      "eter": 3232,
      "reglerna": 3233,
      "Ġkvar": 3234,
      "Ġforbattra": 3235,
      "Ġtillverkare": 3236,
      "Ġoverklagandet": 3237,
      "Ġintyg": 3238,
      "fil": 3239,
      "Ġdomarna": 3240,
      "Ġbestammelsen": 3241,
      "Ġinformer": 3242,
      "Ġbevisning": 3243,
      "ze": 3244,
      "Ġbu": 3245,
      "Ġuppfyllda": 3246,
      "Ġaldre": 3247,
      "Ġkraver": 3248,
      "Ġantagit": 3249,
      "Ġpantratt": 3250,
      "Ġitalienska": 3251,
      "gande": 3252,
      "Ġfyra": 3253,
      "icin": 3254,
      "Ġproduc": 3255,
      "Ġifraga": 3256,
      "Ġreglerna": 3257,
      "sch": 3258,
      "Ġhd": 3259,
      "Ġdelen": 3260,
      "Ġtrafik": 3261,
      "Ġklagande": 3262,
      "Ġbefogenhet": 3263,
      "Ġeffektivt": 3264,
      "lement": 3265,
      "ÑĤ": 3266,
      "Ġsand": 3267,
      "06": 3268,
      "nor": 3269,
      "Ġoffentliggor": 3270,
      "Ġmetoder": 3271,
      "Ġautom": 3272,
      "ktivet": 3273,
      "Ġkategori": 3274,
      "Ġborde": 3275,
      "Ġpt": 3276,
      "smass": 3277,
      "Ġkvantitet": 3278,
      "Ġgb": 3279,
      "Ġtillhor": 3280,
      "Ġsaknar": 3281,
      "Ġgransover": 3282,
      "Ġovervag": 3283,
      "Ġpoly": 3284,
      "Ġhelhet": 3285,
      "Ġkommun": 3286,
      "Ġfysiska": 3287,
      "soka": 3288,
      "dar": 3289,
      "Ġdiskriminering": 3290,
      "Ġavvis": 3291,
      "godk": 3292,
      "staten": 3293,
      "Ġ030": 3294,
      "Ġbg": 3295,
      "Ġeventuellt": 3296,
      "bo": 3297,
      "Ġtidpunkt": 3298,
      "Ġcar": 3299,
      "Ġbatt": 3300,
      "Ġtillracklig": 3301,
      "foring": 3302,
      "Ġtredjelander": 3303,
      "Ġyrkanden": 3304,
      "Ġanvandningen": 3305,
      "Ġford": 3306,
      "Ġpolitik": 3307,
      "Ġovertradelsen": 3308,
      "Ġfortsatta": 3309,
      "Ġvarandra": 3310,
      "Ġleda": 3311,
      "Ġstabil": 3312,
      "Ġbetrakt": 3313,
      "ningsvis": 3314,
      "Ġslutsatsen": 3315,
      "Ġforpa": 3316,
      "ines": 3317,
      "Ġutfora": 3318,
      "Ġluftt": 3319,
      "begrans": 3320,
      "ĠâĪ": 3321,
      "Ġhaft": 3322,
      "Ġsprak": 3323,
      "gav": 3324,
      "Ġyrkar": 3325,
      "Ġklagomal": 3326,
      "Ġarliga": 3327,
      "Ø¹": 3328,
      "mass": 3329,
      "0000": 3330,
      "45": 3331,
      "ĠâĢ¢": 3332,
      "avtalet": 3333,
      "Ġkontakt": 3334,
      "85": 3335,
      "cerade": 3336,
      "Ġkommersi": 3337,
      "Ġutstrackning": 3338,
      "Ġhalso": 3339,
      "Ġhavdat": 3340,
      "Ġ2022": 3341,
      "Ġfunger": 3342,
      "Ġsamhall": 3343,
      "Ġordning": 3344,
      "ssystemet": 3345,
      "akter": 3346,
      "Ġunderratta": 3347,
      "tagande": 3348,
      "Ġforetagen": 3349,
      "77": 3350,
      "Ġmetod": 3351,
      "sbelopp": 3352,
      "Ġotill": 3353,
      "mi": 3354,
      "Ġdotter": 3355,
      "Ġoavsett": 3356,
      "Ġgrad": 3357,
      "Ġataganden": 3358,
      "Ġursprungliga": 3359,
      "Ġforfatt": 3360,
      "Ġ1991": 3361,
      "Ġharmoniseringsbyran": 3362,
      "Ġpersonen": 3363,
      "Ġbit": 3364,
      "Ġskydda": 3365,
      "Ġbehover": 3366,
      "Ġangett": 3367,
      "Ġcz": 3368,
      "Ġforvarv": 3369,
      "ckt": 3370,
      "provning": 3371,
      "Ġgr": 3372,
      "avtal": 3373,
      "yndig": 3374,
      "Ġavgora": 3375,
      "Ġarbetsgi": 3376,
      "Ġbetalas": 3377,
      "stats": 3378,
      "Ġavsl": 3379,
      "sektorn": 3380,
      "Ġandel": 3381,
      "Ġprecis": 3382,
      "bas": 3383,
      "Ġsvaranden": 3384,
      "ock": 3385,
      "ana": 3386,
      "Ġ196": 3387,
      "uta": 3388,
      "Ġsammant": 3389,
      "Ġstraff": 3390,
      "ĠÕ": 3391,
      "Ġteknik": 3392,
      "Ġrek": 3393,
      "Ġkoncent": 3394,
      "kamp": 3395,
      "veckling": 3396,
      "vardet": 3397,
      "rapport": 3398,
      "Ġhemvist": 3399,
      "Ġ207": 3400,
      "Ġtim": 3401,
      "Ġgransoverskridande": 3402,
      "Ġundersokningen": 3403,
      "Ġrim": 3404,
      "Ġorganisation": 3405,
      "Ġxx": 3406,
      "Ġobje": 3407,
      "Ġvidtag": 3408,
      "ansvar": 3409,
      "39": 3410,
      "Ġinnehalla": 3411,
      "Ġstrider": 3412,
      "Ġkaraktar": 3413,
      "Ġ300": 3414,
      "Ġgiltighet": 3415,
      "Ġinc": 3416,
      "Ġekonomiskt": 3417,
      "Ġinfora": 3418,
      "spris": 3419,
      "Ġproblem": 3420,
      "sli": 3421,
      "Ġdenne": 3422,
      "unt": 3423,
      "slagen": 3424,
      "Ġforhindra": 3425,
      "Ġ107": 3426,
      "Ġstre": 3427,
      "Ġmedan": 3428,
      "ligator": 3429,
      "Ġstater": 3430,
      "Ġproportionalitet": 3431,
      "Ġavtalsslutande": 3432,
      "Ġsverige": 3433,
      "Ġifragavarande": 3434,
      "her": 3435,
      "Ġutform": 3436,
      "Ġobe": 3437,
      "Î½": 3438,
      "ale": 3439,
      "Ġservi": 3440,
      "Ġgo": 3441,
      "Ġharigenom": 3442,
      "Ġkvalitet": 3443,
      "samma": 3444,
      "Ġbok": 3445,
      "Ġutrym": 3446,
      "Ġtillfalligt": 3447,
      "Ġbransl": 3448,
      "vitt": 3449,
      "Ġfullstandig": 3450,
      "Ġindividu": 3451,
      "finan": 3452,
      "spolitik": 3453,
      "Ġvisa": 3454,
      "38": 3455,
      "jande": 3456,
      "Ġexporterande": 3457,
      "Ġuppe": 3458,
      "Ġfortsatt": 3459,
      "Ġannu": 3460,
      "smedborgar": 3461,
      "Îµ": 3462,
      "Ġgemenskapsvar": 3463,
      "Ġrestri": 3464,
      "Ġantagits": 3465,
      "visor": 3466,
      "parat": 3467,
      "Ġban": 3468,
      "Ġsker": 3469,
      "Ġsynpunkter": 3470,
      "Ġpen": 3471,
      "Ġmode": 3472,
      "Ġforand": 3473,
      "Ġapr": 3474,
      "Ġinternationell": 3475,
      "skaff": 3476,
      "Ġutvid": 3477,
      "Ġbeskattnings": 3478,
      "Ġsakerhets": 3479,
      "arater": 3480,
      "Ġdefinitionen": 3481,
      "Ġuttryckligen": 3482,
      "Ġcas": 3483,
      "Ġvarken": 3484,
      "Ġmannisk": 3485,
      "Ġmiss": 3486,
      "kun": 3487,
      "Ġtilltrade": 3488,
      "Ġpartnerskap": 3489,
      "Ġradi": 3490,
      "ers": 3491,
      "ventionen": 3492,
      "sol": 3493,
      "Ġfastigheter": 3494,
      "Ġce": 3495,
      "budet": 3496,
      "skilj": 3497,
      "Ġsag": 3498,
      "Ġdaremot": 3499,
      "Ġkonst": 3500,
      "Ġforenta": 3501,
      "Ġanstallning": 3502,
      "Ġmjolk": 3503,
      "stallning": 3504,
      "Ġ020": 3505,
      "Ġskul": 3506,
      "Ġmt": 3507,
      "Ġimporten": 3508,
      "Ġversion": 3509,
      "ford": 3510,
      "Ġpastaende": 3511,
      "Ġkorrekt": 3512,
      "fo": 3513,
      "Ġforskning": 3514,
      "Ġforega": 3515,
      "omradet": 3516,
      "gjorts": 3517,
      "ligheter": 3518,
      "Ġtar": 3519,
      "Ġnord": 3520,
      "Â°": 3521,
      "Ġgemenskapsratten": 3522,
      "Ġprp": 3523,
      "fibrer": 3524,
      "Ġsc": 3525,
      "Ġdub": 3526,
      "Ġsamord": 3527,
      "Ġry": 3528,
      "Ġleverans": 3529,
      "Ġdvs": 3530,
      "Ġtjansteforeskrifter": 3531,
      "fordon": 3532,
      "Ġmedlemmar": 3533,
      "Ġbul": 3534,
      "Ġkonstru": 3535,
      "Ġautoma": 3536,
      "Ġforegaende": 3537,
      "Ġnl": 3538,
      "ripande": 3539,
      "Ġingaende": 3540,
      "yp": 3541,
      "Ġ125": 3542,
      "Ġmeddela": 3543,
      "Ġjustitie": 3544,
      "Ġrattsak": 3545,
      "Ġtiden": 3546,
      "ue": 3547,
      "rikt": 3548,
      "Ġavgift": 3549,
      "Ġsektorn": 3550,
      "regi": 3551,
      "Ġengel": 3552,
      "Ġkro": 3553,
      "Ġunderlat": 3554,
      "Ġslutlig": 3555,
      "Ġanalys": 3556,
      "Ġgemenskapsvarumark": 3557,
      "lon": 3558,
      "Ġstaterna": 3559,
      "Ġ500": 3560,
      "Ġkonvention": 3561,
      "Ġ1990": 3562,
      "Ġmul": 3563,
      "Ġsaken": 3564,
      "omen": 3565,
      "stor": 3566,
      "Ñģ": 3567,
      "fragan": 3568,
      "ly": 3569,
      "ban": 3570,
      "Ġegendom": 3571,
      "Ġhandels": 3572,
      "44": 3573,
      "Ġmojlig": 3574,
      "Ġcentra": 3575,
      "Ġdep": 3576,
      "Ġutova": 3577,
      "zon": 3578,
      "Ġunderla": 3579,
      "Ġdanmark": 3580,
      "vo": 3581,
      "lems": 3582,
      "Ġpe": 3583,
      "Ġframti": 3584,
      "Ġvederbor": 3585,
      "Ġbetalning": 3586,
      "sattnings": 3587,
      "Ġbidra": 3588,
      "Ġnaring": 3589,
      "Ġhen": 3590,
      "Ġbegara": 3591,
      "Ġgi": 3592,
      "Ġbehandlas": 3593,
      "Ġkolle": 3594,
      "Ġlagre": 3595,
      "djur": 3596,
      "Ġskriftliga": 3597,
      "argument": 3598,
      "plats": 3599,
      "28": 3600,
      "Ġbegransningar": 3601,
      "Ġregionala": 3602,
      "tax": 3603,
      "Ġtank": 3604,
      "Ġolag": 3605,
      "Ġbem": 3606,
      "Ġpor": 3607,
      "Ĥ¬": 3608,
      "sv": 3609,
      "35": 3610,
      "Ġifragasatta": 3611,
      "riken": 3612,
      "tell": 3613,
      "peri": 3614,
      "Ġforetradare": 3615,
      "Ġbehovs": 3616,
      "unds": 3617,
      "ginal": 3618,
      "Ġsamordning": 3619,
      "Ġstandpunkt": 3620,
      "kats": 3621,
      "Ġvidtas": 3622,
      "Ġgeneraladvokat": 3623,
      "Ġq": 3624,
      "bedom": 3625,
      "delsen": 3626,
      "Ġdis": 3627,
      "Ġhalsa": 3628,
      "gerich": 3629,
      "Ġfoder": 3630,
      "Ġhuvudargument": 3631,
      "Ïģ": 3632,
      "Ġstruktur": 3633,
      "atur": 3634,
      "Ġrattigheterna": 3635,
      "Ġinhem": 3636,
      "Ġkommitte": 3637,
      "los": 3638,
      "Ġsna": 3639,
      "09": 3640,
      "Ġsituationen": 3641,
      "Ġledam": 3642,
      "Ġaktiv": 3643,
      "rom": 3644,
      "Ġregistrerings": 3645,
      "givande": 3646,
      "Ġupprattandet": 3647,
      "Ġforny": 3648,
      "Ġsist": 3649,
      "Ġforhallanden": 3650,
      "Ġbetraktas": 3651,
      "Ġvarumarken": 3652,
      "ipo": 3653,
      "tikel": 3654,
      "Ġundantaget": 3655,
      "Ġuteslut": 3656,
      "Ġutvardering": 3657,
      "Ġslakt": 3658,
      "91": 3659,
      "Ġgrekland": 3660,
      "Ġtjansteforeskrifterna": 3661,
      "Ġhanfor": 3662,
      "Ġhandeln": 3663,
      "Ġprodukterna": 3664,
      "Ġandrad": 3665,
      "Ġforbud": 3666,
      "Ġbistand": 3667,
      "Ġkunnat": 3668,
      "Ġuppdrag": 3669,
      "Ġunderlatta": 3670,
      "Ġpassag": 3671,
      "Ġorganisationer": 3672,
      "Ġstatliga": 3673,
      "kop": 3674,
      "Ġtidpunkten": 3675,
      "Ġunionsratten": 3676,
      "ningstull": 3677,
      "Ġlast": 3678,
      "Ġegenskaper": 3679,
      "Ġforeslagna": 3680,
      "Ġ112": 3681,
      "Ġder": 3682,
      "Ġkod": 3683,
      "ĠâĤ¬": 3684,
      "Ġportugal": 3685,
      "Ġnuvarande": 3686,
      "vara": 3687,
      "Ġbeviljats": 3688,
      "Ġ040": 3689,
      "ÅĤ": 3690,
      "Ġaktorer": 3691,
      "kohol": 3692,
      "Ġtullmyndighet": 3693,
      "Ġvart": 3694,
      "xponeringar": 3695,
      "tiga": 3696,
      "forande": 3697,
      "Ġmotpar": 3698,
      "Ġmis": 3699,
      "varor": 3700,
      "sens": 3701,
      "Ġtulltax": 3702,
      "Ġkreditinstitut": 3703,
      "Ġil": 3704,
      "sekreterare": 3705,
      "Ġgt": 3706,
      "Ġextra": 3707,
      "vika": 3708,
      "Ġerkannande": 3709,
      "Ġbyg": 3710,
      "aret": 3711,
      "verkas": 3712,
      "ux": 3713,
      "ura": 3714,
      "direktor": 3715,
      "verant": 3716,
      "Ġanaly": 3717,
      "Ġcir": 3718,
      "Ġlikvar": 3719,
      "Ġee": 3720,
      "Ġret": 3721,
      "Ġjarnvag": 3722,
      "Ġhs": 3723,
      "Ġsammanlag": 3724,
      "amt": 3725,
      "Ġbeloppet": 3726,
      "Ġfre": 3727,
      "Ġforekom": 3728,
      "Ġfrukt": 3729,
      "Ġavsag": 3730,
      "Ġresol": 3731,
      "onom": 3732,
      "Ġkott": 3733,
      "Ġrela": 3734,
      "Ġkli": 3735,
      "Ġuni": 3736,
      "Ġanm": 3737,
      "Ġdeklar": 3738,
      "fta": 3739,
      "95": 3740,
      "Ġengelska": 3741,
      "Ġpafolj": 3742,
      "36": 3743,
      "Ġomedelbart": 3744,
      "Ġtypgodk": 3745,
      "ansok": 3746,
      "uter": 3747,
      "Ġrubriken": 3748,
      "Ġrattsakt": 3749,
      "syn": 3750,
      "Ġhallbar": 3751,
      "dade": 3752,
      "ob": 3753,
      "Ġdelgivning": 3754,
      "Ġvetenskapliga": 3755,
      "stone": 3756,
      "Ġobundet": 3757,
      "Ġeuipo": 3758,
      "Ġmu": 3759,
      "Ġmateri": 3760,
      "Ġvinst": 3761,
      "Ġmojligheten": 3762,
      "Ġriktlinjer": 3763,
      "Ġmedlemsstats": 3764,
      "Ġfanns": 3765,
      "Ġallmanheten": 3766,
      "Ġgeografiska": 3767,
      "minister": 3768,
      "Ġuttag": 3769,
      "Ġmig": 3770,
      "Ġare": 3771,
      "finansi": 3772,
      "Ġwit": 3773,
      "Ġtotalt": 3774,
      "Ġbestri": 3775,
      "vard": 3776,
      "Ġklart": 3777,
      "gjorde": 3778,
      "Ġalternativ": 3779,
      "Ġupphand": 3780,
      "fart": 3781,
      "Ġhanseende": 3782,
      "ands": 3783,
      "smarknaden": 3784,
      "Ġdk": 3785,
      "Ġbun": 3786,
      "sy": 3787,
      "Ġhr": 3788,
      "Ġlamnats": 3789,
      "Ġfortfarande": 3790,
      "Ġunger": 3791,
      "Ġ115": 3792,
      "anska": 3793,
      "Ġsista": 3794,
      "ore": 3795,
      "Ġelektroniska": 3796,
      "Ġpasta": 3797,
      "bundet": 3798,
      "tistik": 3799,
      "sexponeringar": 3800,
      "ariga": 3801,
      "ordningar": 3802,
      "orerna": 3803,
      "Ġtje": 3804,
      "Ġmil": 3805,
      "bestammelser": 3806,
      "Ġogillas": 3807,
      "Ġatmin": 3808,
      "Ġkla": 3809,
      "vaxling": 3810,
      "Ġni": 3811,
      "eme": 3812,
      "vit": 3813,
      "Ġunderlatit": 3814,
      "Ġbattre": 3815,
      "Ġatminstone": 3816,
      "ola": 3817,
      "Ġmeningen": 3818,
      "Ġ101": 3819,
      "Ġforetags": 3820,
      "sgi": 3821,
      "Ġsavitt": 3822,
      "Ġvaru": 3823,
      "Ġdistribu": 3824,
      "Ġkonkurrensen": 3825,
      "Ġvaxt": 3826,
      "47": 3827,
      "Ġadress": 3828,
      "Ġlar": 3829,
      "enten": 3830,
      "Ġkorrig": 3831,
      "Ġleg": 3832,
      "gifts": 3833,
      "Ġforbin": 3834,
      "Ø¬": 3835,
      "Ġnodvandig": 3836,
      "Ġuppsag": 3837,
      "Ġinfrastruktur": 3838,
      "Ġinnehallet": 3839,
      "satgarder": 3840,
      "Ġdotterbolag": 3841,
      "Ġbetraffar": 3842,
      "Ġsakrade": 3843,
      "Ġaspe": 3844,
      "Ġmun": 3845,
      "otenti": 3846,
      "Ġforfattningar": 3847,
      "Ġirland": 3848,
      "Ġlufttrafik": 3849,
      "Ġosterrike": 3850,
      "df": 3851,
      "onde": 3852,
      "Ġforbju": 3853,
      "skydds": 3854,
      "Ġtvi": 3855,
      "Ġverksamheten": 3856,
      "41": 3857,
      "Ġangivna": 3858,
      "Ġprovas": 3859,
      "Ġkravet": 3860,
      "37": 3861,
      "58": 3862,
      "Ġlv": 3863,
      "liggande": 3864,
      "Ġkvin": 3865,
      "Ġprivata": 3866,
      "Ġhandlingarna": 3867,
      "Ġrattsstri": 3868,
      "Ġopera": 3869,
      "Ġuti": 3870,
      "vna": 3871,
      "Ġberakningen": 3872,
      "Ġstud": 3873,
      "iserade": 3874,
      "Ġforhandlingen": 3875,
      "Ġbetalnings": 3876,
      "Ġeurop": 3877,
      "Ġ1510": 3878,
      "Ġantagandet": 3879,
      "Ġexpon": 3880,
      "Ġskyddet": 3881,
      "Ġbevilja": 3882,
      "ØŃ": 3883,
      "Ġobligator": 3884,
      "Ġavsikt": 3885,
      "Ġforbunds": 3886,
      "Ġsaknas": 3887,
      "vart": 3888,
      "erin": 3889,
      "Ġassociering": 3890,
      "Ġsekret": 3891,
      "dress": 3892,
      "Ġeget": 3893,
      "sratt": 3894,
      "Ġliksom": 3895,
      "Ġvist": 3896,
      "Ġlamnat": 3897,
      "Ġsalu": 3898,
      "Ġklass": 3899,
      "Ġindirekt": 3900,
      "Ġsistnamnda": 3901,
      "serv": 3902,
      "Ġkolum": 3903,
      "Ġmarknader": 3904,
      "Ġcentrala": 3905,
      "Ġanmalan": 3906,
      "Ġrakenskap": 3907,
      "ĠÙĪ": 3908,
      "Ġpersonuppgifter": 3909,
      "Ġavgor": 3910,
      "Ġorik": 3911,
      "nova": 3912,
      "49": 3913,
      "Ġresurser": 3914,
      "ratom": 3915,
      "Ġforklaring": 3916,
      "Ġutrymme": 3917,
      "ric": 3918,
      "Ġbefogenheter": 3919,
      "Ġeuratom": 3920,
      "Ġfry": 3921,
      "beteck": 3922,
      "Ġuppda": 3923,
      "Ġombord": 3924,
      "Ġansokningar": 3925,
      "Ġbelag": 3926,
      "Ġupphor": 3927,
      "tika": 3928,
      "Ġinget": 3929,
      "Ġfria": 3930,
      "Ġsh": 3931,
      "Ġanslag": 3932,
      "Ġvasentliga": 3933,
      "Ġgenomforas": 3934,
      "Ġstodja": 3935,
      "ycke": 3936,
      "Ġtillverkaren": 3937,
      "fal": 3938,
      "Ġutfardat": 3939,
      "Ġfunktionssatt": 3940,
      "Ġmulti": 3941,
      "Ġunderhall": 3942,
      "cc": 3943,
      "ps": 3944,
      "Ġaren": 3945,
      "riska": 3946,
      "Ġlikabehandling": 3947,
      "Ġinledande": 3948,
      "Ġ108": 3949,
      "Ġanmarkning": 3950,
      "ki": 3951,
      "Ġ}": 3952,
      "Ġstorsta": 3953,
      "Ġfle": 3954,
      "ottag": 3955,
      "Ġbeslutar": 3956,
      "Ġikrafttradande": 3957,
      "lagga": 3958,
      "Ġmanad": 3959,
      "Ġhushallsexponeringar": 3960,
      "sokt": 3961,
      "Ġyrkat": 3962,
      "Ġbort": 3963,
      "Ġskatter": 3964,
      "Ġbulgar": 3965,
      "Ġweb": 3966,
      "Ġpas": 3967,
      "bered": 3968,
      "Ġfelaktigt": 3969,
      "Ġinvestering": 3970,
      "Ġleder": 3971,
      "Ġlamplig": 3972,
      "Ġoverlat": 3973,
      "Ġandrade": 3974,
      "66": 3975,
      "Ġkompletterande": 3976,
      "Ġnum": 3977,
      "Ġ105": 3978,
      "nam": 3979,
      "Ġgransk": 3980,
      "Ġspanska": 3981,
      "Ġpapekat": 3982,
      "Ġverksamheter": 3983,
      "Ġskon": 3984,
      "inne": 3985,
      "Ġjuridisk": 3986,
      "Ġtillampningsomrade": 3987,
      "Î¿Ï": 3988,
      "Ġaberopat": 3989,
      "giska": 3990,
      "Ġtransporter": 3991,
      "Ġkonstaterar": 3992,
      "Ġlett": 3993,
      "Ġbesvaras": 3994,
      "Ġetabl": 3995,
      "Ġutifran": 3996,
      "Ġteknisk": 3997,
      "Ġundersoka": 3998,
      "Ġcn": 3999,
      "ligheten": 4000,
      "emed": 4001,
      "Ġberaknas": 4002,
      "Ġnetto": 4003,
      "visa": 4004,
      "nats": 4005,
      "gs": 4006,
      "Ġomfattning": 4007,
      "Ġupphandlande": 4008,
      "Ġskattskyl": 4009,
      "Ġfy": 4010,
      "ea": 4011,
      "Ġlaggas": 4012,
      "ĠÃ": 4013,
      "Ġstreck": 4014,
      "faranden": 4015,
      "Î·": 4016,
      "Ġtillfor": 4017,
      "ffer": 4018,
      "Ġberattigade": 4019,
      "lob": 4020,
      "Ġlokala": 4021,
      "Ġinvester": 4022,
      "Ġmanga": 4023,
      "Ġatfolj": 4024,
      "Ġbete": 4025,
      "Ġpotenti": 4026,
      "Ġbalans": 4027,
      "go": 4028,
      "Ġvaraktig": 4029,
      "Ġ080": 4030,
      "Ġomsesidigt": 4031,
      "Ġinleda": 4032,
      "Ġdefinition": 4033,
      "Ġavslag": 4034,
      "Ġuppnas": 4035,
      "Ġpriori": 4036,
      "Ġmom": 4037,
      "janst": 4038,
      "Ġinnova": 4039,
      "Ġliv": 4040,
      "vander": 4041,
      "Ġtidsfrist": 4042,
      "undersok": 4043,
      "ou": 4044,
      "Ġresultaten": 4045,
      "Ġklassificeras": 4046,
      "Ġadvokaten": 4047,
      "Ġparti": 4048,
      "Ġyttranden": 4049,
      "Ġantidumpningstull": 4050,
      "kationer": 4051,
      "Ġoverensstamm": 4052,
      "Ġwe": 4053,
      "rikes": 4054,
      "Ġprovisor": 4055,
      "Ġproportionalitetsprincipen": 4056,
      "ika": 4057,
      "Ġher": 4058,
      "Ġdirektor": 4059,
      "Ġinledningsvis": 4060,
      "Ġbeskrivs": 4061,
      "Ġuppehall": 4062,
      "anvand": 4063,
      "Ġkult": 4064,
      "usul": 4065,
      "Ġkompens": 4066,
      "skommitten": 4067,
      "Ġavvik": 4068,
      "Ġuteslutande": 4069,
      "32": 4070,
      "Ġfaststallandet": 4071,
      "Ġforetra": 4072,
      "gripande": 4073,
      "ati": 4074,
      "Ġsenaste": 4075,
      "Ġhoj": 4076,
      "skrivning": 4077,
      "Ġaterbetalning": 4078,
      "Ġie": 4079,
      "Ġprinciperna": 4080,
      "Ġskyldigheten": 4081,
      "sint": 4082,
      "Ġqu": 4083,
      "Ġ{": 4084,
      "ransport": 4085,
      "Ġtjeck": 4086,
      "Ġtillhandahaller": 4087,
      "Ġuttal": 4088,
      "Ġantogs": 4089,
      "Ġfiskeri": 4090,
      "nades": 4091,
      "Ġsjukdom": 4092,
      "Ġgodtag": 4093,
      "Ġuppha": 4094,
      "Ġutbyte": 4095,
      "Ġanmarkningar": 4096,
      "Ġtillampningsfor": 4097,
      "Ġstadgan": 4098,
      "Ð²": 4099,
      "bildning": 4100,
      "Ġrepresent": 4101,
      "atet": 4102,
      "Ġsec": 4103,
      "Ġvarl": 4104,
      "Ġsarskilj": 4105,
      "Ġundvika": 4106,
      "Ġtekniskt": 4107,
      "kanna": 4108,
      "forvalt": 4109,
      "Ġlokal": 4110,
      "Ġreglerings": 4111,
      "Ġrattsakter": 4112,
      "Ġnara": 4113,
      "Ġbifog": 4114,
      "Ġsammansatt": 4115,
      "Ġest": 4116,
      "Ġjustitiesekreterare": 4117,
      "sh": 4118,
      "sproces": 4119,
      "Ġfasta": 4120,
      "Ġlufttrafikforetag": 4121,
      "Ġsann": 4122,
      "aler": 4123,
      "Ġalder": 4124,
      "Ġresultatet": 4125,
      "88": 4126,
      "ek": 4127,
      "Ġbefri": 4128,
      "ridning": 4129,
      "old": 4130,
      "Ġkonstateras": 4131,
      "Ġforsknings": 4132,
      "ption": 4133,
      "Ġmedfora": 4134,
      "stid": 4135,
      "Ġfarg": 4136,
      "Ġstrategi": 4137,
      "Ġvari": 4138,
      "Ġgratis": 4139,
      "Ġoverskri": 4140,
      "Ġgyn": 4141,
      "Ġmetall": 4142,
      "lu": 4143,
      "Ġforetagets": 4144,
      "tigt": 4145,
      "Ġglob": 4146,
      "Ġskapa": 4147,
      "fonden": 4148,
      "samling": 4149,
      "57": 4150,
      "Ġsamarbetet": 4151,
      "uri": 4152,
      "Ġanlaggningar": 4153,
      "Ġforhallandet": 4154,
      "Ġod": 4155,
      "Ġforenligt": 4156,
      "Ġtydligt": 4157,
      "Ġberakning": 4158,
      "edd": 4159,
      "Ġgenomfors": 4160,
      "Ġtillampningsomradet": 4161,
      "Ġbehovet": 4162,
      "Ġhindra": 4163,
      "59": 4164,
      "Ġuttry": 4165,
      "ktionen": 4166,
      "Ġmedicin": 4167,
      "omrade": 4168,
      "Ġformaner": 4169,
      "Ġcentralbank": 4170,
      "Ġkrava": 4171,
      "Ġ106": 4172,
      "Ġtrygg": 4173,
      "Ġspel": 4174,
      "rank": 4175,
      "Ġparlamentet": 4176,
      "vants": 4177,
      "Ġtillhandahalls": 4178,
      "Ġkunskap": 4179,
      "Ġsammanfattning": 4180,
      "Ġstarka": 4181,
      "orj": 4182,
      "Ġutfors": 4183,
      "Ġ1989": 4184,
      "Ġlagring": 4185,
      "Ġregistrerade": 4186,
      "Ġstandarder": 4187,
      "Ġunionsindustrin": 4188,
      "Ġrattsligt": 4189,
      "46": 4190,
      "instrument": 4191,
      "server": 4192,
      "za": 4193,
      "Ġsida": 4194,
      "Ġovertradelser": 4195,
      "Ġrisker": 4196,
      "Ð»": 4197,
      "Ġutgangen": 4198,
      "Ġapparater": 4199,
      "kval": 4200,
      "Ġlagga": 4201,
      "kort": 4202,
      "els": 4203,
      "Ġpolitiska": 4204,
      "Ġinternational": 4205,
      "Ġkines": 4206,
      "Ġtryck": 4207,
      "Ġtvisten": 4208,
      "gick": 4209,
      "Ġinstitutioner": 4210,
      "Õ¡": 4211,
      "Ġanvants": 4212,
      "Ġtillsynsmyndighet": 4213,
      "Ġveterin": 4214,
      "acil": 4215,
      "Ġnamns": 4216,
      "87": 4217,
      "Ġkompon": 4218,
      "stallda": 4219,
      "Ġdefinieras": 4220,
      "Ġinforande": 4221,
      "Ġbild": 4222,
      "anien": 4223,
      "Ġforsaljnings": 4224,
      "Ġinvandningar": 4225,
      "Ġbred": 4226,
      "Ġpm": 4227,
      "vikt": 4228,
      "Ġbasta": 4229,
      "wa": 4230,
      "Ġoverensstammer": 4231,
      "Ġnederlandska": 4232,
      "Ġ103": 4233,
      "Ġmote": 4234,
      "Ġgent": 4235,
      "dition": 4236,
      "Ġallmanhet": 4237,
      "amin": 4238,
      "Ġresolution": 4239,
      "pl": 4240,
      "Ġforbundsrepubliken": 4241,
      "53": 4242,
      "Ġemot": 4243,
      "Ġbeslutade": 4244,
      "edv": 4245,
      "skill": 4246,
      "deklar": 4247,
      "Ġkommittens": 4248,
      "Ġstort": 4249,
      "arbete": 4250,
      "Ġreferent": 4251,
      "Ġroll": 4252,
      "ament": 4253,
      "vention": 4254,
      "Ġkring": 4255,
      "Ġkommunikation": 4256,
      "Ġforelag": 4257,
      "Ġjamford": 4258,
      "Ġsnabb": 4259,
      "Ġvit": 4260,
      "Ġaktie": 4261,
      "Ġbedra": 4262,
      "age": 4263,
      "har": 4264,
      "gare": 4265,
      "84": 4266,
      "jsmal": 4267,
      "Ġslutliga": 4268,
      "Ġkallade": 4269,
      "Ġalkohol": 4270,
      "umul": 4271,
      "gericht": 4272,
      "Ġwith": 4273,
      "Ġdrojsmal": 4274,
      "Ġschab": 4275,
      "sforfarande": 4276,
      "Ġoforen": 4277,
      "Ġfig": 4278,
      "mann": 4279,
      "Ġprovningen": 4280,
      "Ġanvander": 4281,
      "Ġbemyndig": 4282,
      "laggning": 4283,
      "Ġtillganglig": 4284,
      "eln": 4285,
      "Ġrom": 4286,
      "Ġvisst": 4287,
      "ins": 4288,
      "Ġvarfor": 4289,
      "Ġkapacitet": 4290,
      "Ġupprattande": 4291,
      "Ġtyper": 4292,
      "terar": 4293,
      "Ġaret": 4294,
      "Ġrapporten": 4295,
      "Ġnarvarande": 4296,
      "Ġschablon": 4297,
      "olja": 4298,
      "Ġturk": 4299,
      "ork": 4300,
      "medlems": 4301,
      "oxid": 4302,
      "ach": 4303,
      "Ġutkast": 4304,
      "stitution": 4305,
      "Ġutlandska": 4306,
      "Ġbilagorna": 4307,
      "Ġhonom": 4308,
      "komst": 4309,
      "Ġ110": 4310,
      "55": 4311,
      "Ġpolen": 4312,
      "ologiska": 4313,
      "Ġomfattande": 4314,
      "gra": 4315,
      "ortt": 4316,
      "Ġtj": 4317,
      "71": 4318,
      "Ġ120": 4319,
      "Ġforal": 4320,
      "Ġiakttag": 4321,
      "nit": 4322,
      "ini": 4323,
      "Ġgaranti": 4324,
      "Ġgodtas": 4325,
      "Ġgodkanda": 4326,
      "Ġutgjorde": 4327,
      "ski": 4328,
      "dk": 4329,
      "standet": 4330,
      "zi": 4331,
      "cia": 4332,
      "Ġpapper": 4333,
      "Ġgrundar": 4334,
      "Ġ102": 4335,
      "Ġcm": 4336,
      "somradet": 4337,
      "smedborgare": 4338,
      "Ġstallet": 4339,
      "Ġharvid": 4340,
      "Ġgentemot": 4341,
      "Ġtolkningsfragor": 4342,
      "Ġskonsmass": 4343,
      "Ġbearbetning": 4344,
      "Ġ210": 4345,
      "utveckling": 4346,
      "Ġadvokat": 4347,
      "ningsforfarande": 4348,
      "Ġforvaltningen": 4349,
      "Ġkonkurrensbegrans": 4350,
      "vers": 4351,
      "forsalj": 4352,
      "Ġmaskiner": 4353,
      "sled": 4354,
      "Ġtving": 4355,
      "olo": 4356,
      "Ġbegransad": 4357,
      "Ġkonkret": 4358,
      "Ġflerariga": 4359,
      "Ġvii": 4360,
      "Ġerfar": 4361,
      "Ġfaktorer": 4362,
      "Ġavdelnings": 4363,
      "opa": 4364,
      "Ġprocess": 4365,
      "alis": 4366,
      "stallande": 4367,
      "denti": 4368,
      "Ġhot": 4369,
      "Ġfonden": 4370,
      "Ġlita": 4371,
      "ap": 4372,
      "Ġdennes": 4373,
      "Ġrack": 4374,
      "politik": 4375,
      "cion": 4376,
      "Ġinhemska": 4377,
      "ramen": 4378,
      "ison": 4379,
      "Ġukra": 4380,
      "Ġinternationellt": 4381,
      "hinder": 4382,
      "Ġfinans": 4383,
      "Ġrost": 4384,
      "Ġerhalla": 4385,
      "Ġgemenskapsvarumarke": 4386,
      "Ġjordbruksprodukter": 4387,
      "Ġfer": 4388,
      "ktyg": 4389,
      "Ġinvesterings": 4390,
      "ĠØ¨": 4391,
      "Ġgarantera": 4392,
      "Ġadministrativ": 4393,
      "Ġtypgodkannande": 4394,
      "Ġeuropeisk": 4395,
      "Ġmansk": 4396,
      "Ġstorlek": 4397,
      "Ġefterstra": 4398,
      "Ġarter": 4399,
      "Ġbro": 4400,
      "Ġsnedv": 4401,
      "mun": 4402,
      "56": 4403,
      "Ġutfardats": 4404,
      "ano": 4405,
      "Ġkunder": 4406,
      "Ġskillnad": 4407,
      "Ġ118": 4408,
      "certifi": 4409,
      "ktivt": 4410,
      "ytande": 4411,
      "Ġgal": 4412,
      "Ġsyssel": 4413,
      "spun": 4414,
      "Ġoverenskommelse": 4415,
      "uer": 4416,
      "ice": 4417,
      "ansokan": 4418,
      "Ġbegransning": 4419,
      "Ġoperat": 4420,
      "54": 4421,
      "ibland": 4422,
      "urope": 4423,
      "Ġair": 4424,
      "Ġverkstallighet": 4425,
      "dr": 4426,
      "Ġlangd": 4427,
      "Ġkansli": 4428,
      "Ġrisken": 4429,
      "Ġavsak": 4430,
      "Ġlitau": 4431,
      "Ġarendet": 4432,
      "Ġeffekt": 4433,
      "Ġforenliga": 4434,
      "9300": 4435,
      "Ġmojliga": 4436,
      "Ġtest": 4437,
      "Ġutfardande": 4438,
      "Ġtext": 4439,
      "radets": 4440,
      "stillstand": 4441,
      "Ġ150": 4442,
      "Ġfatta": 4443,
      "Ġpapekas": 4444,
      "Ġalagg": 4445,
      "etens": 4446,
      "Ġtilldelning": 4447,
      "Ġviktigt": 4448,
      "Ġgronsaker": 4449,
      "Ġinsatser": 4450,
      "Ġverkstallande": 4451,
      "hus": 4452,
      "Ġdaribland": 4453,
      "Ġtillverka": 4454,
      "Ġ136": 4455,
      "Ġtullar": 4456,
      "Ġstatistik": 4457,
      "Ġfinner": 4458,
      "faller": 4459,
      "umin": 4460,
      "Ġkonfi": 4461,
      "Ġforsak": 4462,
      "Ġanger": 4463,
      "Ġforpack": 4464,
      "Ġslutgiltiga": 4465,
      "Ġslovak": 4466,
      "Ġsum": 4467,
      "urs": 4468,
      "Ġallvarliga": 4469,
      "bak": 4470,
      "Ġskap": 4471,
      "Ġpartens": 4472,
      "Ġslutsats": 4473,
      "sbrott": 4474,
      "gran": 4475,
      "Ġinfl": 4476,
      "tog": 4477,
      "Ġfororen": 4478,
      "Ġmotiveringen": 4479,
      "Ġrapportering": 4480,
      "sadress": 4481,
      "Ġaterkall": 4482,
      "Ġkinesiska": 4483,
      "berg": 4484,
      "Ġrackvid": 4485,
      "Ïĥ": 4486,
      "Ġinterim": 4487,
      "siktig": 4488,
      "Ġadvokaterna": 4489,
      "Ġframtida": 4490,
      "metoder": 4491,
      "Ġ1988": 4492,
      "Ġhtt": 4493,
      "Ġregional": 4494,
      "Ġstatus": 4495,
      "dit": 4496,
      "Ġharav": 4497,
      "Ġrull": 4498,
      "Ġdeltar": 4499,
      "skontroll": 4500,
      "Ġingick": 4501,
      "ferens": 4502,
      "42": 4503,
      "Ġtrygghet": 4504,
      "holl": 4505,
      "Ġskett": 4506,
      "komma": 4507,
      "Ġskyldiga": 4508,
      "ydro": 4509,
      "jas": 4510,
      "bon": 4511,
      "Ġbilater": 4512,
      "Ġteck": 4513,
      "skost": 4514,
      "Ġoffentliggjorts": 4515,
      "Ġ549300": 4516,
      "sade": 4517,
      "Ġrec": 4518,
      "Ġposter": 4519,
      "Ġinforas": 4520,
      "Ġorsa": 4521,
      "Õ¸": 4522,
      "Ġsett": 4523,
      "Ġgav": 4524,
      "Ġspar": 4525,
      "plat": 4526,
      "Ġfinansierings": 4527,
      "bland": 4528,
      "Ġzon": 4529,
      "Ġerinras": 4530,
      "Ġkonfidenti": 4531,
      "Ġsituationer": 4532,
      "Ġvisat": 4533,
      "Ġkann": 4534,
      "Ġstrid": 4535,
      "Ġ109": 4536,
      "bes": 4537,
      "Ġskic": 4538,
      "mpro": 4539,
      "Ġnej": 4540,
      "Ġuppratta": 4541,
      "jerna": 4542,
      "Ġkonstaterade": 4543,
      "andes": 4544,
      "tet": 4545,
      "Ġankn": 4546,
      "bry": 4547,
      "Ġatagande": 4548,
      "ĠÙģ": 4549,
      "Ġasidosatts": 4550,
      "Ġwebb": 4551,
      "Ġuppman": 4552,
      "gavs": 4553,
      "not": 4554,
      "Ġluftfartyg": 4555,
      "hallanden": 4556,
      "Ġ126": 4557,
      "Ġandamalsen": 4558,
      "Ġfinland": 4559,
      "Ġsakprovning": 4560,
      "Ġsjo": 4561,
      "Ġoverva": 4562,
      "Ġanmod": 4563,
      "Ġvisser": 4564,
      "Ġkriterierna": 4565,
      "fr": 4566,
      "marginal": 4567,
      "ares": 4568,
      "Ġtjansten": 4569,
      "Ġbedriver": 4570,
      "Ġinsk": 4571,
      "skt": 4572,
      "Ġid": 4573,
      "Ġkartell": 4574,
      "Ġanpassad": 4575,
      "Ġovergripande": 4576,
      "81": 4577,
      "ws": 4578,
      "mottag": 4579,
      "bolaget": 4580,
      "Ġinrattats": 4581,
      "Ġefterlev": 4582,
      "Ġvav": 4583,
      "Ġmoten": 4584,
      "jo": 4585,
      "Ġsate": 4586,
      "Ġfortecknas": 4587,
      "Ġfili": 4588,
      "Ġbedrager": 4589,
      "Ġberors": 4590,
      "Ġ119": 4591,
      "Ġvide": 4592,
      "iteter": 4593,
      "Ġpreliminar": 4594,
      "Ġsnart": 4595,
      "ish": 4596,
      "Ġbestands": 4597,
      "75": 4598,
      "spar": 4599,
      "Ġsavida": 4600,
      "Ġkreditskydd": 4601,
      "Ġvisserligen": 4602,
      "igheter": 4603,
      "Ġschen": 4604,
      "gj": 4605,
      "Ġhuvudsakliga": 4606,
      "varden": 4607,
      "amn": 4608,
      "Ġforfog": 4609,
      "Ġiso": 4610,
      "ningsform": 4611,
      "Ġstrecksatsen": 4612,
      "Ġeuf": 4613,
      "Ġharror": 4614,
      "uell": 4615,
      "Ġspann": 4616,
      "Ġakti": 4617,
      "Ġinitiativet": 4618,
      "kations": 4619,
      "rakningen": 4620,
      "uris": 4621,
      "Ġspa": 4622,
      "Ġasyl": 4623,
      "Ġgenomsnittliga": 4624,
      "Ġslutsatser": 4625,
      "Ġ520": 4626,
      "Ġpriserna": 4627,
      "Ġbearbetade": 4628,
      "Ġmojligheter": 4629,
      "Ġkarn": 4630,
      "Ġfrihet": 4631,
      "sked": 4632,
      "Ġupphov": 4633,
      "Ġinforts": 4634,
      "Ġmest": 4635,
      "Ġmekanis": 4636,
      "Ġexakt": 4637,
      "Ġplanerade": 4638,
      "Ġhuvudsakligen": 4639,
      "Ġetablerade": 4640,
      "Ġtransi": 4641,
      "tiken": 4642,
      "Ġnormalt": 4643,
      "Ġrubrik": 4644,
      "krav": 4645,
      "Ġrese": 4646,
      "Ġkoncer": 4647,
      "osa": 4648,
      "Ġfrivill": 4649,
      "Ġtio": 4650,
      "Ġutfarda": 4651,
      "lit": 4652,
      "drig": 4653,
      "kapital": 4654,
      "laggningar": 4655,
      "stam": 4656,
      "Ġkolumn": 4657,
      "voly": 4658,
      "ligga": 4659,
      "skrav": 4660,
      "rets": 4661,
      "ampning": 4662,
      "Ġforenlig": 4663,
      "Ġecb": 4664,
      "Ġnet": 4665,
      "70": 4666,
      "Ġcour": 4667,
      "Ġgrundas": 4668,
      "Ġaspekter": 4669,
      "Ġundersokningsperioden": 4670,
      "Ġexempelvis": 4671,
      "mning": 4672,
      "unda": 4673,
      "Ġreklam": 4674,
      "Ġdelegerade": 4675,
      "Ġtillampningsforeskrifter": 4676,
      "Ġutfardas": 4677,
      "artikel": 4678,
      "Ġsank": 4679,
      "Ġstock": 4680,
      "ÏĢ": 4681,
      "cera": 4682,
      "tillstand": 4683,
      "Ġensam": 4684,
      "sson": 4685,
      "Ġrestriktiva": 4686,
      "Ġforfarandena": 4687,
      "satserna": 4688,
      "hav": 4689,
      "52": 4690,
      "Ġhi": 4691,
      "Ġpriset": 4692,
      "Ġelektronisk": 4693,
      "Ġneg": 4694,
      "tern": 4695,
      "Ġframstallts": 4696,
      "Ġfu": 4697,
      "rela": 4698,
      "Ġsammanlagda": 4699,
      "tekn": 4700,
      "43": 4701,
      "Ġsammansattning": 4702,
      "Ġbristande": 4703,
      "Ġbote": 4704,
      "Ġkannedom": 4705,
      "ht": 4706,
      "bidrag": 4707,
      "gard": 4708,
      "Ġforord": 4709,
      "mot": 4710,
      "Ġdrag": 4711,
      "Ġskattem": 4712,
      "Ġrest": 4713,
      "Ġrattstill": 4714,
      "Ġ540": 4715,
      "Ġkonkurrensbegransande": 4716,
      "62": 4717,
      "cks": 4718,
      "Ġutveckla": 4719,
      "Ġfullt": 4720,
      "Ġantog": 4721,
      "Ġverksamma": 4722,
      "utrustning": 4723,
      "certifikat": 4724,
      "Ġpastad": 4725,
      "Ġgodkants": 4726,
      "status": 4727,
      "Ġglas": 4728,
      "Ġani": 4729,
      "fs": 4730,
      "Ġskonsmassig": 4731,
      "Ġkand": 4732,
      "Ġfaststallt": 4733,
      "aten": 4734,
      "Ġutvidg": 4735,
      "kontor": 4736,
      "Ġoriktig": 4737,
      "Ġinnefatt": 4738,
      "Ġorganisationen": 4739,
      "Ġtak": 4740,
      "delser": 4741,
      "holm": 4742,
      "Ġorig": 4743,
      "sto": 4744,
      "Ġenkel": 4745,
      "Ġmotorfordon": 4746,
      "Ġkostnad": 4747,
      "Ġvarvid": 4748,
      "Ġsupp": 4749,
      "Ġtillatna": 4750,
      "Ġartikeln": 4751,
      "Ġfick": 4752,
      "uropeiska": 4753,
      "Ġnaringsi": 4754,
      "ph": 4755,
      "Ġmik": 4756,
      "Ġoljor": 4757,
      "Ġintra": 4758,
      "ĠÂ±": 4759,
      "enheten": 4760,
      "Ġsvenska": 4761,
      "Ġbegransas": 4762,
      "ningsatgarder": 4763,
      "Ġci": 4764,
      "Ġupphora": 4765,
      "direktivet": 4766,
      "Ġbeteende": 4767,
      "brott": 4768,
      "Ġtanke": 4769,
      "arie": 4770,
      "Ġjordbruks": 4771,
      "Ġundan": 4772,
      "spel": 4773,
      "materi": 4774,
      "Ġfur": 4775,
      "Ġvare": 4776,
      "Ġ720": 4777,
      "ningsforfarandet": 4778,
      "lare": 4779,
      "Ġradio": 4780,
      "sbestammel": 4781,
      "Ġmag": 4782,
      "Ġbetalningar": 4783,
      "Ġskillnader": 4784,
      "Ġupphovs": 4785,
      "ism": 4786,
      "Ġforeskriver": 4787,
      "Ġansvarar": 4788,
      "Ø§ÙĦ": 4789,
      "Ġerinrar": 4790,
      "Ġpaverkas": 4791,
      "Ġstats": 4792,
      "Ġstallt": 4793,
      "Ġdelgivningsadress": 4794,
      "92": 4795,
      "ech": 4796,
      "Ġfordragsbrott": 4797,
      "Ġnarstaende": 4798,
      "Ġassocierings": 4799,
      "Ġmanskliga": 4800,
      "Ðº": 4801,
      "stillverk": 4802,
      "kande": 4803,
      "Ġecu": 4804,
      "Ġaberopa": 4805,
      "full": 4806,
      "Ġlatt": 4807,
      "Ġforeskrivna": 4808,
      "010": 4809,
      "Ġbotesbelopp": 4810,
      "stal": 4811,
      "Ġwh": 4812,
      "beloppet": 4813,
      "Ġfigur": 4814,
      "oe": 4815,
      "Ġranta": 4816,
      "Ġmodeller": 4817,
      "Ġinvandning": 4818,
      "Ġ1987": 4819,
      "Ġinnebara": 4820,
      "Ġcomp": 4821,
      "Ġinrattande": 4822,
      "Ġklarhet": 4823,
      "effe": 4824,
      "98": 4825,
      "Ġforetradd": 4826,
      "Ġarbetet": 4827,
      "halt": 4828,
      "Ġdistribution": 4829,
      "atori": 4830,
      "Ġbransle": 4831,
      "Ġtullmyndigheterna": 4832,
      "Ġtun": 4833,
      "market": 4834,
      "Ġavge": 4835,
      "landet": 4836,
      "anser": 4837,
      "Ġgranska": 4838,
      "hl": 4839,
      "styrel": 4840,
      "difi": 4841,
      "Ġ250": 4842,
      "ise": 4843,
      "Ġpreliminara": 4844,
      "Ġflagg": 4845,
      "sattningar": 4846,
      "Ġerbjud": 4847,
      "Ġ2574": 4848,
      "Ġ400": 4849,
      "Ġskyddad": 4850,
      "Ġoffentligt": 4851,
      "Ġunivers": 4852,
      "Ġnational": 4853,
      "Ġmeddelat": 4854,
      "Ġcps": 4855,
      "cher": 4856,
      "Ġorsak": 4857,
      "Ġfaktum": 4858,
      "Ġforekomsten": 4859,
      "Ġdoc": 4860,
      "Ġforstainstansratt": 4861,
      "Ġtexten": 4862,
      "omraden": 4863,
      "Ġgroup": 4864,
      "Ġanimal": 4865,
      "Ġout": 4866,
      "Ġindikat": 4867,
      "rev": 4868,
      "sar": 4869,
      "Ġmol": 4870,
      "Ġ600": 4871,
      "Ġbestaende": 4872,
      "Ġutfardad": 4873,
      "Ġ117": 4874,
      "bl": 4875,
      "Ġjp": 4876,
      "Ġomstandighet": 4877,
      "itte": 4878,
      "Ġleverantorer": 4879,
      "oc": 4880,
      "Ġeffekter": 4881,
      "Ġinformationen": 4882,
      "Ġansvarig": 4883,
      "Ġbosatt": 4884,
      "abas": 4885,
      "Ġbygger": 4886,
      "sidi": 4887,
      "ygga": 4888,
      "villkoren": 4889,
      "hu": 4890,
      "Ġtillrackliga": 4891,
      "Ġforeb": 4892,
      "Ġmodifi": 4893,
      "Ġerbju": 4894,
      "Ġuppta": 4895,
      "rekta": 4896,
      "Ġforpliktas": 4897,
      "Ġformer": 4898,
      "Ġgemenskaperna": 4899,
      "Ġfinal": 4900,
      "Ġfog": 4901,
      "Ġspannmal": 4902,
      "jam": 4903,
      "Ġmaxi": 4904,
      "setts": 4905,
      "Ġbeteckning": 4906,
      "Ġtradde": 4907,
      "Õ¥": 4908,
      "eratur": 4909,
      "Ġangav": 4910,
      "Ġrattstillampning": 4911,
      "Ġborjan": 4912,
      "redi": 4913,
      "Ġfangst": 4914,
      "let": 4915,
      "Ġkategorier": 4916,
      "ong": 4917,
      "Ġstark": 4918,
      "Ġfinnas": 4919,
      "dokument": 4920,
      "Ġursprungsbeteck": 4921,
      "baka": 4922,
      "Ġbundes": 4923,
      "Ġdigit": 4924,
      "Ġaffars": 4925,
      "lik": 4926,
      "berattig": 4927,
      "Ġche": 4928,
      "fordran": 4929,
      "stry": 4930,
      "kampning": 4931,
      "formation": 4932,
      "organisation": 4933,
      "Ġkonsumenterna": 4934,
      "Ġ114": 4935,
      "farts": 4936,
      "Ġ!": 4937,
      "zion": 4938,
      "Ġtillbaka": 4939,
      "Ġvarav": 4940,
      "Ġgeneraldirektor": 4941,
      "Ġtjansterna": 4942,
      "ske": 4943,
      "51": 4944,
      "rivat": 4945,
      "Ġgarn": 4946,
      "Ġavsedd": 4947,
      "Ġkontrollen": 4948,
      "dering": 4949,
      "das": 4950,
      "Ġbedomas": 4951,
      "Ġenhetlig": 4952,
      "Ġkompetens": 4953,
      "Ġokade": 4954,
      "Ġdubbel": 4955,
      "Ġslapp": 4956,
      "Ġkvalitets": 4957,
      "Ġdirekta": 4958,
      "styr": 4959,
      "Ġ130": 4960,
      "arer": 4961,
      "Ġlanderna": 4962,
      "forfarande": 4963,
      "Ġnorge": 4964,
      "Ġhk": 4965,
      "Ġtillampar": 4966,
      "Ġsoci": 4967,
      "89": 4968,
      "Ġforordningar": 4969,
      "Ġmobil": 4970,
      "Ġhalv": 4971,
      "Ġseparat": 4972,
      "Ġbefinner": 4973,
      "Ġtullkv": 4974,
      "Ġhanvisas": 4975,
      "Ġhum": 4976,
      "ther": 4977,
      "Ġslutet": 4978,
      "Ġkvinnor": 4979,
      "Ġstalla": 4980,
      "Ġbevarande": 4981,
      "Ġyrkande": 4982,
      "Ġ113": 4983,
      "ino": 4984,
      "Ġfristen": 4985,
      "Ġfedera": 4986,
      "Ġhorison": 4987,
      "Ġfysisk": 4988,
      "fred": 4989,
      "Ġpres": 4990,
      "Ġandrat": 4991,
      "Ġpal": 4992,
      "Ġinterveni": 4993,
      "Ġenerg": 4994,
      "Ġutbildnings": 4995,
      "ess": 4996,
      "Ġinnehavaren": 4997,
      "Ġinfors": 4998,
      "Ġmedlemsstatens": 4999,
      "Ġed": 5000,
      "vatten": 5001,
      "Ġhavdade": 5002,
      "Ġfordonet": 5003,
      "Ġsat": 5004,
      "Ġvarme": 5005,
      "slan": 5006,
      "enti": 5007,
      "Ġvarumarkes": 5008,
      "ym": 5009,
      "Ġadministrativt": 5010,
      "cifi": 5011,
      "Ġbeskattning": 5012,
      "Ġfn": 5013,
      "Ġpatent": 5014,
      "ften": 5015,
      "lagt": 5016,
      "Ġpdf": 5017,
      "cz": 5018,
      "Ġfaststaller": 5019,
      "bok": 5020,
      "Ġeffektiva": 5021,
      "Ġwto": 5022,
      "Ġfrist": 5023,
      "Ġtom": 5024,
      "Ġutforas": 5025,
      "Ġyttre": 5026,
      "ile": 5027,
      "ĠØ¹": 5028,
      "Ġboterna": 5029,
      "Ġaf": 5030,
      "Ġingett": 5031,
      "Ġexklusi": 5032,
      "Ġdomar": 5033,
      "agen": 5034,
      "Ġpunkter": 5035,
      "kontroll": 5036,
      "Ġnaringsidk": 5037,
      "wer": 5038,
      "Ġogiltigforklaras": 5039,
      "Ġuppskatt": 5040,
      "Ġmeddelar": 5041,
      "Ġforbered": 5042,
      "Ġdarav": 5043,
      "Îº": 5044,
      "Ġpastadda": 5045,
      "rangemang": 5046,
      "Ġenheten": 5047,
      "Ġvidtagits": 5048,
      "Ð´": 5049,
      "chen": 5050,
      "Ġfly": 5051,
      "Ġind": 5052,
      "Ġjuri": 5053,
      "Ġindex": 5054,
      "Ġriktlinjerna": 5055,
      "Ġexperter": 5056,
      "Ġuttryckt": 5057,
      "ĠÙĦ": 5058,
      "Ġtillverkarna": 5059,
      "Ġul": 5060,
      "Ġordal": 5061,
      "Ġtemp": 5062,
      "ars": 5063,
      "Ġ116": 5064,
      "Ġklimat": 5065,
      "Ġinkomster": 5066,
      "Ġkollektiv": 5067,
      "ole": 5068,
      "Ġvalja": 5069,
      "ovar": 5070,
      "licens": 5071,
      "havaren": 5072,
      "anal": 5073,
      "Ġtransaktion": 5074,
      "ez": 5075,
      "hd": 5076,
      "ite": 5077,
      "ydelsen": 5078,
      "terad": 5079,
      "Ġ320": 5080,
      "Ġschengen": 5081,
      "uld": 5082,
      "Ġfinansieras": 5083,
      "Ġinstans": 5084,
      "rycker": 5085,
      "Ġabsol": 5086,
      "48": 5087,
      "Ġbesluten": 5088,
      "omenkl": 5089,
      "Ġluftfart": 5090,
      "undersokning": 5091,
      "uts": 5092,
      "nandet": 5093,
      "Ġvall": 5094,
      "regel": 5095,
      "Ġanstallnings": 5096,
      "ker": 5097,
      "ogen": 5098,
      "Ġklagandena": 5099,
      "Ġanvandare": 5100,
      "Ġgemenskapslagstift": 5101,
      "Ġservice": 5102,
      "Ġlamnade": 5103,
      "omenklatur": 5104,
      "Ġtobak": 5105,
      "Ġcentrum": 5106,
      "Ġhamn": 5107,
      "tex": 5108,
      "Ġauktor": 5109,
      "Ġmotivera": 5110,
      "slos": 5111,
      "Ġundanro": 5112,
      "Ġmotiverat": 5113,
      "Ġfalt": 5114,
      "Ġbon": 5115,
      "Ġzz": 5116,
      "Ġsamarbets": 5117,
      "Ġalltid": 5118,
      "acilitet": 5119,
      "Ġsvarigheter": 5120,
      "Ġfaststalldes": 5121,
      "Ġproducent": 5122,
      "Ġdrifts": 5123,
      "Ġinformera": 5124,
      "utbildning": 5125,
      "Ġeuropean": 5126,
      "fattande": 5127,
      "Ġtillnar": 5128,
      "Ġmad": 5129,
      "Ġblivit": 5130,
      "Ġsamarbeta": 5131,
      "Ġlab": 5132,
      "Ġisland": 5133,
      "skriv": 5134,
      "stalls": 5135,
      "slaget": 5136,
      "Ġent": 5137,
      "Ġkannetecken": 5138,
      "mekanis": 5139,
      "spolitiken": 5140,
      "Ġgemenskapsindustrin": 5141,
      "Ġmotiverade": 5142,
      "Ġlinje": 5143,
      "sforfarandet": 5144,
      "Ġstart": 5145,
      "Ġersattnings": 5146,
      "Ġ620": 5147,
      "Ġminskning": 5148,
      "Ġrekommendationer": 5149,
      "Ġkonsumenten": 5150,
      "visning": 5151,
      "Ġmarkning": 5152,
      "mit": 5153,
      "Ġcentralbanker": 5154,
      "kam": 5155,
      "Ġdominer": 5156,
      "Ġovanstaende": 5157,
      "Ġbudgetramen": 5158,
      "Ġbra": 5159,
      "Ġ721": 5160,
      "lingar": 5161,
      "Ġyrke": 5162,
      "Ġuppfattning": 5163,
      "Ġinkommit": 5164,
      "Ġnegativ": 5165,
      "Ġbeslutat": 5166,
      "Ġanforda": 5167,
      "73": 5168,
      "program": 5169,
      "Ġupphava": 5170,
      "tids": 5171,
      "Ġstockholm": 5172,
      "tive": 5173,
      "Ġfisker": 5174,
      "Ġnormala": 5175,
      "Ġaberopats": 5176,
      "ÏĤ": 5177,
      "Ġakter": 5178,
      "ction": 5179,
      "Ġregister": 5180,
      "Ġbio": 5181,
      "Ġef": 5182,
      "Ġiaktt": 5183,
      "ton": 5184,
      "au": 5185,
      "Ġort": 5186,
      "Ġmuntliga": 5187,
      "Ġsamverkan": 5188,
      "Ġforekommer": 5189,
      "Ġtillag": 5190,
      "Ġgeneraladvokaten": 5191,
      "Ġrevi": 5192,
      "Ġatn": 5193,
      "Ġframst": 5194,
      "Ġgenomforts": 5195,
      "Ġregleras": 5196,
      "Ġtel": 5197,
      "Ġstr": 5198,
      "jader": 5199,
      "Ġbestamm": 5200,
      "ningsmedel": 5201,
      "Ġbosatta": 5202,
      "83": 5203,
      "cht": 5204,
      "prov": 5205,
      "Ġsek": 5206,
      "Ġforlangning": 5207,
      "Ġtagits": 5208,
      "Ġmonster": 5209,
      "Ġskar": 5210,
      "syra": 5211,
      "emedlem": 5212,
      "Ġtech": 5213,
      "cession": 5214,
      "Ġbestritt": 5215,
      "Ġplast": 5216,
      "ningsformaga": 5217,
      "sbyg": 5218,
      "Ġpet": 5219,
      "Ġrattegangsreglerna": 5220,
      "Ġomstruktur": 5221,
      "Ġforutom": 5222,
      "Ġskogs": 5223,
      "Ġoperativa": 5224,
      "Ġinrattas": 5225,
      "kodex": 5226,
      "Ġexkl": 5227,
      "ungs": 5228,
      "stiden": 5229,
      "Ġtillsats": 5230,
      "Ġtilldelas": 5231,
      "Ġbom": 5232,
      "Ġsloven": 5233,
      "Ġlamnar": 5234,
      "aft": 5235,
      "Ġrekommendation": 5236,
      "dent": 5237,
      "lags": 5238,
      "Ġvasentlig": 5239,
      "Ġupprep": 5240,
      "ema": 5241,
      "eleverant": 5242,
      "Ġforvantningar": 5243,
      "Ġhavs": 5244,
      "pc": 5245,
      "Ġdatabas": 5246,
      "Ġgodkannandet": 5247,
      "Ġrante": 5248,
      "Ġfaststallda": 5249,
      "Ġkultur": 5250,
      "Ġkombination": 5251,
      "Ġansvariga": 5252,
      "barhet": 5253,
      "Ġalltsa": 5254,
      "Ġlikhet": 5255,
      "Ġbegransat": 5256,
      "Ġmax": 5257,
      "Ġanstalld": 5258,
      "trakt": 5259,
      "Ġbidrar": 5260,
      "Ġstyrelsen": 5261,
      "Ġ123": 5262,
      "Ġstadga": 5263,
      "Ġamer": 5264,
      "Ġdominerande": 5265,
      "Ġlosning": 5266,
      "Ġlandsbyg": 5267,
      "Ġundersokningar": 5268,
      "Ġinle": 5269,
      "Ġsoli": 5270,
      "andets": 5271,
      "Ġanpassning": 5272,
      "hantering": 5273,
      "Ġph": 5274,
      "Ġungern": 5275,
      "Ġprojektet": 5276,
      "ida": 5277,
      "Ġutga": 5278,
      "lagts": 5279,
      "ay": 5280,
      "Ġimo": 5281,
      "Ġdiskriminerande": 5282,
      "Ġfotnot": 5283,
      "Ġaterfin": 5284,
      "65": 5285,
      "Ġhindrar": 5286,
      "plikt": 5287,
      "splanen": 5288,
      "Ġdomslutet": 5289,
      "Ġangetts": 5290,
      "ots": 5291,
      "aglar": 5292,
      "Ġsannoli": 5293,
      "Ġtrans": 5294,
      "Ġagande": 5295,
      "aa": 5296,
      "Ġ234": 5297,
      "rapporten": 5298,
      "Ġ145": 5299,
      "Ġtradition": 5300,
      "skillnad": 5301,
      "Ġforeskriva": 5302,
      "Ø´": 5303,
      "Ġnarings": 5304,
      "kategor": 5305,
      "Ġjamforelse": 5306,
      "Ġog": 5307,
      "Ġyttrandet": 5308,
      "Ġ177": 5309,
      "Ġmajor": 5310,
      "Ġinrikt": 5311,
      "Ġanknyt": 5312,
      "Ġdarigenom": 5313,
      "Ġtillata": 5314,
      "Ġinlam": 5315,
      "rin": 5316,
      "garikets": 5317,
      "Ġrattsakten": 5318,
      "kostnader": 5319,
      "Ġaz": 5320,
      "Ġkontin": 5321,
      "Ġkontrolleras": 5322,
      "undna": 5323,
      "Ġgrupper": 5324,
      "Ġsw": 5325,
      "dning": 5326,
      "Ġfora": 5327,
      "Ġavdelningsord": 5328,
      "jus": 5329,
      "Ġkyl": 5330,
      "ica": 5331,
      "Ġregelbundet": 5332,
      "Ġbilaterala": 5333,
      "Ġpenning": 5334,
      "Ġflytt": 5335,
      "Ġbedriva": 5336,
      "Ġdefinitioner": 5337,
      "Ġgranser": 5338,
      "Ġforenk": 5339,
      "82": 5340,
      "tita": 5341,
      "oxi": 5342,
      "tiser": 5343,
      "Ġgransvar": 5344,
      "flo": 5345,
      "Ġetc": 5346,
      "Ġjamfort": 5347,
      "Ġdarvid": 5348,
      "Ġingatts": 5349,
      "Ġ1985": 5350,
      "Ġuppfyllt": 5351,
      "Ġmedborgarskap": 5352,
      "pi": 5353,
      "Ø§Øª": 5354,
      "Ġfartyget": 5355,
      "Ġsr": 5356,
      "Ġtjansteleverant": 5357,
      "Ġ1408": 5358,
      "Ġregeringar": 5359,
      "Ġvast": 5360,
      "Ġexponering": 5361,
      "siv": 5362,
      "ons": 5363,
      "Ġinspektion": 5364,
      "Ġslutfor": 5365,
      "Ġtillfalle": 5366,
      "Ġung": 5367,
      "Ġ140": 5368,
      "askiner": 5369,
      "Ġutovandet": 5370,
      "Ġforbudet": 5371,
      "cation": 5372,
      "61": 5373,
      "Ġlata": 5374,
      "Ġexcl": 5375,
      "satts": 5376,
      "Ġsystema": 5377,
      "Ġminer": 5378,
      "jansten": 5379,
      "Ġframstallning": 5380,
      "Ġinfordes": 5381,
      "Ġuppkommit": 5382,
      "Ġinforandet": 5383,
      "nr": 5384,
      "Ġkal": 5385,
      "freds": 5386,
      "Ġsjun": 5387,
      "ingsskyldighet": 5388,
      "Ġaterfinns": 5389,
      "resultat": 5390,
      "Ġinnovation": 5391,
      "hof": 5392,
      "Ġsokandenas": 5393,
      "emenskap": 5394,
      "Ġnotk": 5395,
      "Ġkvantiteter": 5396,
      "Ġuppstar": 5397,
      "Ġinternet": 5398,
      "Ġantagande": 5399,
      "Ġterritorier": 5400,
      "finansiering": 5401,
      "Ġinklu": 5402,
      "Ġutlam": 5403,
      "stallas": 5404,
      "Ġelektriska": 5405,
      "Ġorigin": 5406,
      "67": 5407,
      "Ġkungarikets": 5408,
      "Ġvaluta": 5409,
      "Ġsubsidi": 5410,
      "Ġrumanien": 5411,
      "Ġavkun": 5412,
      "97": 5413,
      "Ġinstitutionen": 5414,
      "Ġavvisas": 5415,
      "Ġovervaganden": 5416,
      "Ġskattes": 5417,
      "Ġagg": 5418,
      "bedomning": 5419,
      "ĠØª": 5420,
      "ian": 5421,
      "Ġvisering": 5422,
      "Ġverktyg": 5423,
      "64": 5424,
      "Ġbalansrakningen": 5425,
      "Ġanbudsgi": 5426,
      "Ġratta": 5427,
      "Ġkreditf": 5428,
      "Ġstodmottag": 5429,
      "Ġdigital": 5430,
      "Ġidentifiering": 5431,
      "Ġerkann": 5432,
      "gruppen": 5433,
      "Ġlista": 5434,
      "Ġ111": 5435,
      "Ġprovnings": 5436,
      "Ġgene": 5437,
      "Ġvat": 5438,
      "Ġbolags": 5439,
      "Ġlange": 5440,
      "Ġrakning": 5441,
      "Ġbitrad": 5442,
      "Ġgranskning": 5443,
      "Ġstatens": 5444,
      "Ġplatt": 5445,
      "Ġmeddelade": 5446,
      "Ġgett": 5447,
      "fun": 5448,
      "Ġmottagande": 5449,
      "Ġavsaknad": 5450,
      "pon": 5451,
      "Ġcertifikat": 5452,
      "200": 5453,
      "gett": 5454,
      "Ġamne": 5455,
      "Ġoeg": 5456,
      "Ġinskrank": 5457,
      "Ġforsaljningen": 5458,
      "Ġmor": 5459,
      "Ġtillkanna": 5460,
      "ij": 5461,
      "Ġutoka": 5462,
      "irektivet": 5463,
      "stin": 5464,
      "mport": 5465,
      "ulver": 5466,
      "Ġokning": 5467,
      "Ġmaximal": 5468,
      "Ġframstalld": 5469,
      "ere": 5470,
      "Ġperman": 5471,
      "Ġupprattas": 5472,
      "Ġomvand": 5473,
      "Ġkapac": 5474,
      "Ġtimmar": 5475,
      "Ġack": 5476,
      "ojligheter": 5477,
      "Ġide": 5478,
      "tisti": 5479,
      "Ġtullkodex": 5480,
      "Ġforsakrings": 5481,
      "amnen": 5482,
      "Ġ267": 5483,
      "Ġoegent": 5484,
      "Ġovervaka": 5485,
      "ÙĬØ©": 5486,
      "ruv": 5487,
      "Ġbestamt": 5488,
      "Ġnedsattning": 5489,
      "Ġtulltaxen": 5490,
      "Ġforeslas": 5491,
      "Ġforhandlingar": 5492,
      "laget": 5493,
      "ssamling": 5494,
      "Ġomfattningen": 5495,
      "Ġinnehar": 5496,
      "mav": 5497,
      "Ġforfl": 5498,
      "Ġanforts": 5499,
      "Ġavsett": 5500,
      "Ġdomstolarna": 5501,
      "Ġtillgod": 5502,
      "organisationer": 5503,
      "Ġforan": 5504,
      "Ġrimlig": 5505,
      "Ġmotparts": 5506,
      "standiga": 5507,
      "Ġrattssakerhet": 5508,
      "Ġkomponenter": 5509,
      "Ġmatt": 5510,
      "skal": 5511,
      "Ġbeviljande": 5512,
      "Ġkroati": 5513,
      "Ïī": 5514,
      "Ġlog": 5515,
      "Ġvasentligt": 5516,
      "Ġutse": 5517,
      "Ġgallde": 5518,
      "Ġinratta": 5519,
      "Ġbetalats": 5520,
      "Ġpan": 5521,
      "Ġsikt": 5522,
      "sutby": 5523,
      "Ġsur": 5524,
      "Ġforlust": 5525,
      "Ġinkop": 5526,
      "Ġviktigaste": 5527,
      "Ġanalog": 5528,
      "Ġ127": 5529,
      "Ġ129": 5530,
      "fakt": 5531,
      "arko": 5532,
      "Ġkreditfacilitet": 5533,
      "angs": 5534,
      "Ġhantering": 5535,
      "Ġvacka": 5536,
      "bevis": 5537,
      "Ġbulgarien": 5538,
      "Î¼": 5539,
      "Ġimmateri": 5540,
      "Ġanalyser": 5541,
      "bli": 5542,
      "Ġaktier": 5543,
      "Ġskiljer": 5544,
      "rop": 5545,
      "Ġrattsfall": 5546,
      "Ġtelefon": 5547,
      "ail": 5548,
      "Ġstyrka": 5549,
      "rycket": 5550,
      "Ġupptag": 5551,
      "Ġpraktiken": 5552,
      "Ġforebygg": 5553,
      "behor": 5554,
      "Ġsjalvstandig": 5555,
      "Ġobjektiva": 5556,
      "Ġregul": 5557,
      "Ġ611": 5558,
      "63": 5559,
      "Ġsektorer": 5560,
      "bilitet": 5561,
      "Ġsteg": 5562,
      "Ġalumin": 5563,
      "Ġandringen": 5564,
      "forand": 5565,
      "Ð¸Ñ": 5566,
      "Ġforlu": 5567,
      "Ġharmoniserade": 5568,
      "Ġkommersiella": 5569,
      "Ġfamiljemedlem": 5570,
      "Ġobearbet": 5571,
      "9900": 5572,
      "les": 5573,
      "Ġspridning": 5574,
      "systemet": 5575,
      "Ġgatt": 5576,
      "ist": 5577,
      "Ġoverlamna": 5578,
      "Ġvinna": 5579,
      "Ġomoj": 5580,
      "mannen": 5581,
      "Ġmikro": 5582,
      "Ġprop": 5583,
      "Ġskatten": 5584,
      "Ġgarantier": 5585,
      "Ġvillkoret": 5586,
      "Ġfattas": 5587,
      "Ġrevisions": 5588,
      "Ġavtalets": 5589,
      "Ġhold": 5590,
      "relaterade": 5591,
      "Ġsil": 5592,
      "Ġnatverk": 5593,
      "Ġonskar": 5594,
      "Ġkm": 5595,
      "vaxt": 5596,
      "Ġefterhand": 5597,
      "Ġanknytning": 5598,
      "Ġdeci": 5599,
      "vinning": 5600,
      "Ġmetyl": 5601,
      "rav": 5602,
      "uran": 5603,
      "Ġutvecklings": 5604,
      "Ġkris": 5605,
      "Ġsnar": 5606,
      "69": 5607,
      "Ġbegarde": 5608,
      "Ġovert": 5609,
      "Ġ1986": 5610,
      "Ġinstru": 5611,
      "konventionen": 5612,
      "Ġmall": 5613,
      "Ġrapporteras": 5614,
      "Ġtapp": 5615,
      "Ġansprak": 5616,
      "varens": 5617,
      "Ġifragasatt": 5618,
      "Ġukraina": 5619,
      "Ġbeskriv": 5620,
      "Ġknut": 5621,
      "Ġ388": 5622,
      "Ġstu": 5623,
      "jon": 5624,
      "ĠØ§ÙĦÙħ": 5625,
      "Ġminimi": 5626,
      "Ġutovar": 5627,
      "Ġfjader": 5628,
      "Ġutnyttjad": 5629,
      "Ġbedrageri": 5630,
      "Ġsvart": 5631,
      "staterna": 5632,
      "Ġlevande": 5633,
      "Ġje": 5634,
      "Ġskalet": 5635,
      "Øµ": 5636,
      "Ġeventuell": 5637,
      "Ġavskaff": 5638,
      "Ġmaskin": 5639,
      "Ġgranserna": 5640,
      "ced": 5641,
      "Ø§Ø±": 5642,
      "Ġorganet": 5643,
      "Ġoffentliggoras": 5644,
      "Ġbegart": 5645,
      "Ġ135": 5646,
      "Ġstatisti": 5647,
      "Ġutarbeta": 5648,
      "Ġinstitutet": 5649,
      "marna": 5650,
      "Ġindividuella": 5651,
      "Ġfinansiell": 5652,
      "ĠØ³": 5653,
      "aritet": 5654,
      "Ġsgb": 5655,
      "Ġberedda": 5656,
      "Ġavtalen": 5657,
      "Ġhennes": 5658,
      "terings": 5659,
      "Ġkonsekvenser": 5660,
      "Ġspp": 5661,
      "Ġcommission": 5662,
      "Ġunderlatenhet": 5663,
      "Ġ121": 5664,
      "Ġtagit": 5665,
      "Ġbomull": 5666,
      "Ġbifallas": 5667,
      "Ġnog": 5668,
      "forfarandet": 5669,
      "Ġthis": 5670,
      "Ġveck": 5671,
      "perioden": 5672,
      "stalld": 5673,
      "Ġ1977": 5674,
      "Ġsakerheten": 5675,
      "Ġgjordes": 5676,
      "stein": 5677,
      "Ġtvingande": 5678,
      "spli": 5679,
      "ologi": 5680,
      "Ġforvantas": 5681,
      "grupper": 5682,
      "icy": 5683,
      "Ġofta": 5684,
      "Ġgodkannas": 5685,
      "Ġfattats": 5686,
      "hov": 5687,
      "Ġtillfreds": 5688,
      "Ġlad": 5689,
      "skom": 5690,
      "vens": 5691,
      "Ġ138": 5692,
      "Ġsepar": 5693,
      "Õ¡Õ": 5694,
      "Ġetablerings": 5695,
      "Î»": 5696,
      "Ġpreskri": 5697,
      "Ġlivsmedels": 5698,
      "gorelse": 5699,
      "Ġskyddade": 5700,
      "100": 5701,
      "Ġplat": 5702,
      "Ġextern": 5703,
      "Ġuppfatt": 5704,
      "Ø§ÙĨ": 5705,
      "lender": 5706,
      "lak": 5707,
      "Ġ160": 5708,
      "Ġfungerar": 5709,
      "Ġuttagning": 5710,
      "Ġdras": 5711,
      "ktivitet": 5712,
      "Ġdell": 5713,
      "Ġtacka": 5714,
      "Ġanvande": 5715,
      "mm": 5716,
      "vall": 5717,
      "Ġtonfisk": 5718,
      "Ġ850": 5719,
      "oterna": 5720,
      "Ġ230": 5721,
      "Ġgrekiska": 5722,
      "Ġparts": 5723,
      "ister": 5724,
      "Ġlager": 5725,
      "Ġvol": 5726,
      "fc": 5727,
      "ffici": 5728,
      "Ġyttra": 5729,
      "Õ«": 5730,
      "Ġallvarlig": 5731,
      "Ġtillhorande": 5732,
      "Ġramav": 5733,
      "Ġmarknadsandel": 5734,
      "last": 5735,
      "Ġost": 5736,
      "Ġrattighet": 5737,
      "Ġoppna": 5738,
      "ransporter": 5739,
      "Ġdigitala": 5740,
      "Ġdomstols": 5741,
      "Ġmissbruk": 5742,
      "gatt": 5743,
      "foljande": 5744,
      "Ġdirektiven": 5745,
      "Ġforetrads": 5746,
      "Ġklausul": 5747,
      "Ġtulltaxenummer": 5748,
      "Ġautomatiskt": 5749,
      "kts": 5750,
      "Ġaluminium": 5751,
      "Ġact": 5752,
      "Ġbelgiska": 5753,
      "Ġcol": 5754,
      "Ġbibe": 5755,
      "varo": 5756,
      "Ġkvantita": 5757,
      "ussion": 5758,
      "Ġinnehavare": 5759,
      "Ġbehall": 5760,
      "havare": 5761,
      "Ġeffektivitet": 5762,
      "tan": 5763,
      "Ġ218": 5764,
      "Ġfullgora": 5765,
      "Ġinvesterare": 5766,
      "Ġproducenter": 5767,
      "Ġavdelningsordfor": 5768,
      "Ġhttp": 5769,
      "Ġutredning": 5770,
      "Ġcons": 5771,
      "Ġtrq": 5772,
      "ies": 5773,
      "Ġappli": 5774,
      "Ġtilldelats": 5775,
      "ww": 5776,
      "tjanster": 5777,
      "Ġobserv": 5778,
      "Ġsele": 5779,
      "Ġexterna": 5780,
      "Ġpolis": 5781,
      "Ġverkligen": 5782,
      "dik": 5783,
      "Ġbeteckningar": 5784,
      "Ġkalender": 5785,
      "Ġ#": 5786,
      "Ġskol": 5787,
      "Ġinvandningen": 5788,
      "Ġvistelse": 5789,
      "Ġveterinar": 5790,
      "Ġkombinerade": 5791,
      "Ġrattegangskost": 5792,
      "Ġturkiet": 5793,
      "Ġother": 5794,
      "Ġ122": 5795,
      "Ġbudgeten": 5796,
      "Ġfrance": 5797,
      "Ġdeltagit": 5798,
      "Ġ133": 5799,
      "bestammelserna": 5800,
      "Ġinformations": 5801,
      "ningsan": 5802,
      "Ġskulder": 5803,
      "formular": 5804,
      "Ġforebyggande": 5805,
      "later": 5806,
      "astighet": 5807,
      "iserings": 5808,
      "Ġsarskiljningsformaga": 5809,
      "Ġinforliv": 5810,
      "ned": 5811,
      "Ġanlaggning": 5812,
      "Ġanhang": 5813,
      "zo": 5814,
      "Ġens": 5815,
      "Ġskattskyldig": 5816,
      "Ġtredjelandsmedborgare": 5817,
      "79": 5818,
      "Ġbosta": 5819,
      "Ġ180": 5820,
      "Ġmotpartsrisk": 5821,
      "Ġali": 5822,
      "Ġkreditkval": 5823,
      "Ġunionslagstift": 5824,
      "statt": 5825,
      "Ġsanktion": 5826,
      "Ġgruppen": 5827,
      "Ġhort": 5828,
      "Ġbolagets": 5829,
      "Ġmotiveringsskyldighet": 5830,
      "draget": 5831,
      "Ġson": 5832,
      "Ġbyra": 5833,
      "Ġutgors": 5834,
      "troller": 5835,
      "Ġutnyttja": 5836,
      "Ġmateriella": 5837,
      "dioxid": 5838,
      "lagen": 5839,
      "Ġ139": 5840,
      "Ġskadan": 5841,
      "Ġsammanslut": 5842,
      "Ġformella": 5843,
      "ikali": 5844,
      "Ġforandringar": 5845,
      "Ġfyll": 5846,
      "cerat": 5847,
      "aden": 5848,
      "istiska": 5849,
      "Ġfiskem": 5850,
      "Ġanse": 5851,
      "Ġskyddsatgarder": 5852,
      "lop": 5853,
      "Ġutnyttjande": 5854,
      "Ø§Ùħ": 5855,
      "Ġjapan": 5856,
      "but": 5857,
      "gu": 5858,
      "Ġidentifiera": 5859,
      "Ġnega": 5860,
      "Ġlidit": 5861,
      "Ġansvaret": 5862,
      "Ġnamnet": 5863,
      "Ġviii": 5864,
      "Ġerhallit": 5865,
      "Ġviktiga": 5866,
      "Ġpafoljder": 5867,
      "Ġuppvis": 5868,
      "Ġtechn": 5869,
      "Ġstallts": 5870,
      "ical": 5871,
      "Ġarbetar": 5872,
      "Ġ141": 5873,
      "sprotokoll": 5874,
      "ota": 5875,
      "Ġnegativa": 5876,
      "Ġautonom": 5877,
      "Ġtillatet": 5878,
      "sfall": 5879,
      "Ġberord": 5880,
      "Ġminskade": 5881,
      "Ġtrada": 5882,
      "forman": 5883,
      "Ġframhall": 5884,
      "sprodu": 5885,
      "Ø·": 5886,
      "orts": 5887,
      "Ġmotet": 5888,
      "lock": 5889,
      "Ġmarknadstill": 5890,
      "Ġses": 5891,
      "Ġrepubli": 5892,
      "Ġganger": 5893,
      "Ġ350": 5894,
      "Ġradgivande": 5895,
      "Ġtax": 5896,
      "Ġavlags": 5897,
      "atorer": 5898,
      "Ġuppmark": 5899,
      "Ġlagt": 5900,
      "massiga": 5901,
      "Ġmanniskors": 5902,
      "Ġforbruk": 5903,
      "orn": 5904,
      "Ġtvart": 5905,
      "Ġhalla": 5906,
      "Ġpsy": 5907,
      "Ġtrosk": 5908,
      "Ġanda": 5909,
      "Ġstyck": 5910,
      "Ġprimar": 5911,
      "Ġmg": 5912,
      "Ġhoga": 5913,
      "omenklaturen": 5914,
      "ventioner": 5915,
      "Ġpensions": 5916,
      "hr": 5917,
      "Ġ189": 5918,
      "batt": 5919,
      "Ġvo": 5920,
      "Ġpunktskatt": 5921,
      "Ġmineral": 5922,
      "Ġanmodade": 5923,
      "Ġbord": 5924,
      "ffin": 5925,
      "kommitten": 5926,
      "Ġtillforlit": 5927,
      "mera": 5928,
      "frihet": 5929,
      "Ġsolidar": 5930,
      "Ġkvot": 5931,
      "Ġforebygga": 5932,
      "Ġungdom": 5933,
      "Ġenhetliga": 5934,
      "Ġgeografisk": 5935,
      "Ġbla": 5936,
      "Ġdiskussion": 5937,
      "Ġpublic": 5938,
      "Ġdomstolar": 5939,
      "Ġretro": 5940,
      "Ġfaststallde": 5941,
      "Ġsannolikt": 5942,
      "Ïħ": 5943,
      "Ġoverstiga": 5944,
      "okra": 5945,
      "Ġfen": 5946,
      "lopp": 5947,
      "Ġ134": 5948,
      "Ġvarden": 5949,
      "Ġhuman": 5950,
      "Ġreglering": 5951,
      "sbas": 5952,
      "Ġportugis": 5953,
      "gjort": 5954,
      "Ġanmalda": 5955,
      "ebolag": 5956,
      "Ġberaknings": 5957,
      "delningen": 5958,
      "intyg": 5959,
      "Ġfoljt": 5960,
      "elagg": 5961,
      "kommuni": 5962,
      "Ġcompan": 5963,
      "Ġrackvidd": 5964,
      "Ġbrans": 5965,
      "Ġperioder": 5966,
      "Ġklagandens": 5967,
      "Ġvitt": 5968,
      "Ġza": 5969,
      "Ġagar": 5970,
      "fordra": 5971,
      "aria": 5972,
      "Ġuppratthalla": 5973,
      "Ġcrr": 5974,
      "Ġpaverkan": 5975,
      "Ġles": 5976,
      "Ġbekraftas": 5977,
      "Ġandringsfor": 5978,
      "Ġfinansiellt": 5979,
      "Ġ124": 5980,
      "Ġkoppling": 5981,
      "Ġspecifikt": 5982,
      "Ġaterupp": 5983,
      "Ġmangd": 5984,
      "Ġmojliggora": 5985,
      "repren": 5986,
      "Ġdocument": 5987,
      "ttigheter": 5988,
      "Ġfarska": 5989,
      "Ġbestamma": 5990,
      "sprov": 5991,
      "Ġbegransade": 5992,
      "line": 5993,
      "seffe": 5994,
      "Ġstang": 5995,
      "ira": 5996,
      "pel": 5997,
      "sekonom": 5998,
      "Ġverifi": 5999,
      "ktiga": 6000,
      "Ġtjeckien": 6001,
      "Ġschweiziska": 6002,
      "beslutet": 6003,
      "cin": 6004,
      "ms": 6005,
      "miss": 6006,
      "Ġforeslar": 6007,
      "Ġdial": 6008,
      "Ġforordningarna": 6009,
      "kalla": 6010,
      "Ġsamtycke": 6011,
      "Ġtextilmaterial": 6012,
      "ties": 6013,
      "Ġkreditkvalitets": 6014,
      "platser": 6015,
      "Ġtillnarmning": 6016,
      "Ġmarock": 6017,
      "hi": 6018,
      "Ġmotsats": 6019,
      "Ġdokumentation": 6020,
      "erades": 6021,
      "itara": 6022,
      "Ġansokt": 6023,
      "Ġbefint": 6024,
      "Ġutgangspun": 6025,
      "Ġdetaljhandel": 6026,
      "Ùī": 6027,
      "teringen": 6028,
      "Ġkreditkvalitetssteg": 6029,
      "Ġinsamling": 6030,
      "Ġupprattats": 6031,
      "Ġcyper": 6032,
      "ĠÙģÙĬ": 6033,
      "igh": 6034,
      "Ġbesta": 6035,
      "Ġsvaret": 6036,
      "priset": 6037,
      "Ġacc": 6038,
      "stran": 6039,
      "fora": 6040,
      "Ġovervaknings": 6041,
      "Ġhypotekslan": 6042,
      "Ġforpackningar": 6043,
      "Ġnew": 6044,
      "Ġrn": 6045,
      "nivan": 6046,
      "ripa": 6047,
      "Ġpresum": 6048,
      "Ġotillrack": 6049,
      "Ġkostnads": 6050,
      "Ġgodkanna": 6051,
      "ix": 6052,
      "Ġuk": 6053,
      "ada": 6054,
      "Ġmeddelas": 6055,
      "Ġdekret": 6056,
      "Ġeksg": 6057,
      "walt": 6058,
      "Ġmetoden": 6059,
      "strang": 6060,
      "Ġnivan": 6061,
      "Ġparall": 6062,
      "Ġskriftligen": 6063,
      "Ġkopia": 6064,
      "organisationen": 6065,
      "Ġforetagens": 6066,
      "Ġdiag": 6067,
      "Ġluftfarts": 6068,
      "Ġforenlighet": 6069,
      "Ġlandsbygds": 6070,
      "Ġprote": 6071,
      "anter": 6072,
      "Ġinformationsutby": 6073,
      "Ġ157": 6074,
      "Ġflexi": 6075,
      "Ġokad": 6076,
      "Ġfordelning": 6077,
      "Ġrent": 6078,
      "Ġ131": 6079,
      "Ġbefal": 6080,
      "Ġfullstandigt": 6081,
      "Ġkonsumenter": 6082,
      "rada": 6083,
      "Ġenskild": 6084,
      "Ġfungera": 6085,
      "Ġtan": 6086,
      "Ġangavs": 6087,
      "Ġ2150": 6088,
      "ologisk": 6089,
      "ministeriet": 6090,
      "Ġordningen": 6091,
      "Ġbrand": 6092,
      "Ġingas": 6093,
      "orttull": 6094,
      "Ġvaxter": 6095,
      "Ġhanvisningar": 6096,
      "information": 6097,
      "Ġverkningar": 6098,
      "grunden": 6099,
      "kampa": 6100,
      "Ġvisade": 6101,
      "Ġbekampa": 6102,
      "ckar": 6103,
      "Ġvackts": 6104,
      "skraft": 6105,
      "Ã¸": 6106,
      "Ġbasis": 6107,
      "Ġlabor": 6108,
      "Ġthat": 6109,
      "Ġblandningar": 6110,
      "Ġkoncentra": 6111,
      "Ġbis": 6112,
      "Ġregionen": 6113,
      "Ġbeton": 6114,
      "Ġ128": 6115,
      "katt": 6116,
      "strom": 6117,
      "Ġforsok": 6118,
      "Ġgmin": 6119,
      "Ġforklara": 6120,
      "Ġ169": 6121,
      "Ġkemiska": 6122,
      "Ġven": 6123,
      "sbolag": 6124,
      "Ġforlor": 6125,
      "registr": 6126,
      "Ġkemikali": 6127,
      "Ġbehandlingen": 6128,
      "Ġsalt": 6129,
      "Ġext": 6130,
      "Ġforefaller": 6131,
      "Ġproduktions": 6132,
      "ĠÃ°": 6133,
      "Ġframgang": 6134,
      "Ġnationellt": 6135,
      "Ġmand": 6136,
      "Ġidentiska": 6137,
      "Ġjuris": 6138,
      "Ġvarlds": 6139,
      "Ġrefor": 6140,
      "Ġavent": 6141,
      "cep": 6142,
      "Ġslog": 6143,
      "derade": 6144,
      "Ġoffentliggors": 6145,
      "Ġharmed": 6146,
      "Ġ610": 6147,
      "savgift": 6148,
      "Ġfolkhal": 6149,
      "Ġcan": 6150,
      "frag": 6151,
      "speg": 6152,
      "Ġrorligheten": 6153,
      "Ġcl": 6154,
      "Ġdy": 6155,
      "Ġaktieag": 6156,
      "Ġrattsfallssamling": 6157,
      "ĠâĪĴ": 6158,
      "utslapp": 6159,
      "ergi": 6160,
      "span": 6161,
      "sprocessen": 6162,
      "Ġflygplats": 6163,
      "dagen": 6164,
      "Ġtari": 6165,
      "Ġskillnaden": 6166,
      "Ġadministration": 6167,
      "Ġpassagerare": 6168,
      "Ġforvaxling": 6169,
      "Ġkontraktet": 6170,
      "etz": 6171,
      "ckor": 6172,
      "Ġcommun": 6173,
      "mprogram": 6174,
      "stekn": 6175,
      "Ġsjunde": 6176,
      "Ġenskilt": 6177,
      "Ġformul": 6178,
      "Ġledamoter": 6179,
      "Ġpotentiella": 6180,
      "Ġskad": 6181,
      "Ġraknas": 6182,
      "Ġgeme": 6183,
      "ete": 6184,
      "Ġuppehallstillstand": 6185,
      "Ġforfogande": 6186,
      "Ġexportor": 6187,
      "edirektivet": 6188,
      "ben": 6189,
      "Ġforstar": 6190,
      "Ġerhallits": 6191,
      "Ġforutsattningar": 6192,
      "Ġkommit": 6193,
      "Ġgam": 6194,
      "Ġiaktta": 6195,
      "Ġlitauen": 6196,
      "Ġaberopas": 6197,
      "milj": 6198,
      "una": 6199,
      "Ġidentitet": 6200,
      "Ġtillfredsstallande": 6201,
      "Ġjuster": 6202,
      "posi": 6203,
      "Ġhandelse": 6204,
      "Ġ1983": 6205,
      "kopp": 6206,
      "Ġurvalet": 6207,
      "fel": 6208,
      "Ġarrangemang": 6209,
      "Ġarbetsmarknaden": 6210,
      "Ġforandring": 6211,
      "Ġfordrags": 6212,
      "Ġfaktur": 6213,
      "rub": 6214,
      "Ġsyften": 6215,
      "ceringen": 6216,
      "Ġdeltog": 6217,
      "rattsligt": 6218,
      "Ġexpert": 6219,
      "Ġtillfalliga": 6220,
      "Ġfullgor": 6221,
      "Ġforutsatter": 6222,
      "Ġrapportera": 6223,
      "riktioner": 6224,
      "Ġavskrivning": 6225,
      "Ġregistreras": 6226,
      "iten": 6227,
      "Ġredu": 6228,
      "Ġmotparter": 6229,
      "Ġdirektivets": 6230,
      "Ġhandlar": 6231,
      "Ġtillhandahallandet": 6232,
      "Ġatskillnad": 6233,
      "Ġmel": 6234,
      "Ġmarknadstilltrade": 6235,
      "Ġ132": 6236,
      "Ġcode": 6237,
      "Ġaterforsalj": 6238,
      "Ġfordringar": 6239,
      "Ġ1068": 6240,
      "Ġrekommende": 6241,
      "Ġtvivel": 6242,
      "styrelsen": 6243,
      "domet": 6244,
      "Ġforsorj": 6245,
      "dagar": 6246,
      "Ġinstall": 6247,
      "Ġproduktionen": 6248,
      "Ġledning": 6249,
      "Ġbekraftar": 6250,
      "Ġmas": 6251,
      "jalpa": 6252,
      "Ġten": 6253,
      "Ġforhandlingarna": 6254,
      "Ġbeskattningsbara": 6255,
      "Ġbudgetforordningen": 6256,
      "Ġverket": 6257,
      "Ġ440": 6258,
      "Ġskrivelsen": 6259,
      "Ġtolkningsfragan": 6260,
      "Ġefterfragan": 6261,
      "Ġhanvisat": 6262,
      "Ġeconom": 6263,
      "Ġhantera": 6264,
      "ÙĬÙĨ": 6265,
      "Ġatta": 6266,
      "Ġmedvet": 6267,
      "Ġvagra": 6268,
      "Ġamnet": 6269,
      "Ġstral": 6270,
      "Ġpreparat": 6271,
      "Ġ340": 6272,
      "Ġbad": 6273,
      "Ġ730": 6274,
      "Ġ156": 6275,
      "Ġinnehav": 6276,
      "Ġtand": 6277,
      "Ġ263": 6278,
      "Ġmeddelats": 6279,
      "Ġbefrielse": 6280,
      "ktorer": 6281,
      "Ġskadestands": 6282,
      "Ġning": 6283,
      "medlemsstaten": 6284,
      "Ġwww": 6285,
      "Ġcoll": 6286,
      "Ġ529900": 6287,
      "ya": 6288,
      "Ġanord": 6289,
      "Ġstandar": 6290,
      "Ġ1980": 6291,
      "Ġsanktioner": 6292,
      "Ġtillfallig": 6293,
      "Ġfastsl": 6294,
      "Ġpu": 6295,
      "Ġdod": 6296,
      "ider": 6297,
      "zz": 6298,
      "Ġsnabbt": 6299,
      "78": 6300,
      "Ġ149": 6301,
      "Ġsubsidiaritet": 6302,
      "Ġvaxtskydds": 6303,
      "Ġoffentliggora": 6304,
      "Ġinflytande": 6305,
      "Ġ550": 6306,
      "Ġoska": 6307,
      "Ġforskott": 6308,
      "Ġsor": 6309,
      "Ġfrage": 6310,
      "Ġ630": 6311,
      "Ġrys": 6312,
      "Ġandringarna": 6313,
      "sida": 6314,
      "Ġprioritering": 6315,
      "Ġveg": 6316,
      "Ġljud": 6317,
      "Ġoversattning": 6318,
      "Ġberakna": 6319,
      "Ġkommersiell": 6320,
      "Ġallmanint": 6321,
      "Ġwebbplats": 6322,
      "Ġtillgodo": 6323,
      "Ġpow": 6324,
      "Ġinrattandet": 6325,
      "konsekvens": 6326,
      "Ġplanen": 6327,
      "Ġâī": 6328,
      "Ġdemokra": 6329,
      "Ġimmateriella": 6330,
      "Ġfordragsslutande": 6331,
      "Ġlangt": 6332,
      "Ġgalden": 6333,
      "ivet": 6334,
      "Ġvaraktighet": 6335,
      "Ġtillvaxt": 6336,
      "Ġhas": 6337,
      "Ġsammantrade": 6338,
      "Ġkontor": 6339,
      "Ġvaran": 6340,
      "Ġforvag": 6341,
      "Ġ1049": 6342,
      "Ġgodta": 6343,
      "Ġpic": 6344,
      "fli": 6345,
      "rakning": 6346,
      "spriset": 6347,
      "Ġprof": 6348,
      "Ġavis": 6349,
      "Ġskyddas": 6350,
      "olv": 6351,
      "Ġnordir": 6352,
      "europeiska": 6353,
      "Ġband": 6354,
      "Ġutvarde": 6355,
      "idat": 6356,
      "Ġ170": 6357,
      "leken": 6358,
      "Ġaterspeg": 6359,
      "svaror": 6360,
      "Ġbv": 6361,
      "amman": 6362,
      "Ġiakttas": 6363,
      "vatt": 6364,
      "handlingar": 6365,
      "Ġtog": 6366,
      "ĠÙĥ": 6367,
      "Ġmyndighetens": 6368,
      "Ġfilm": 6369,
      "Ġtillbehor": 6370,
      "Ġinforsel": 6371,
      "aner": 6372,
      "rot": 6373,
      "Ġkompensation": 6374,
      "Ġ190": 6375,
      "ence": 6376,
      "Ġig": 6377,
      "Ġ700": 6378,
      "spension": 6379,
      "pati": 6380,
      "Ġ137": 6381,
      "Ġtidsfristen": 6382,
      "Ġberaknade": 6383,
      "Ġarbetsgivare": 6384,
      "ummi": 6385,
      "Ġdepart": 6386,
      "Ġinstitutionerna": 6387,
      "Ġriktigt": 6388,
      "mul": 6389,
      "Ġtroskel": 6390,
      "Ġnyck": 6391,
      "Ġimportant": 6392,
      "savgifter": 6393,
      "Ġkoncession": 6394,
      "Ġax": 6395,
      "dekret": 6396,
      "terat": 6397,
      "Ġseg": 6398,
      "splats": 6399,
      "Ġ800": 6400,
      "Ġris": 6401,
      "Ġforse": 6402,
      "tiden": 6403,
      "Ġjustering": 6404,
      "sbestammelser": 6405,
      "Ġ148": 6406,
      "radandet": 6407,
      "Ġxxx": 6408,
      "Ġtillverkningen": 6409,
      "Ġforluster": 6410,
      "omet": 6411,
      "Ġdari": 6412,
      "Ġbelast": 6413,
      "Ġramprogram": 6414,
      "somrade": 6415,
      "Ġmottagare": 6416,
      "Ġkans": 6417,
      "Ġpastatt": 6418,
      "Ġjuridi": 6419,
      "Ġfordelar": 6420,
      "sprovning": 6421,
      "delen": 6422,
      "Ġutsetts": 6423,
      "oper": 6424,
      "Ġstalls": 6425,
      "sintyg": 6426,
      "Ġbosattning": 6427,
      "Ġot": 6428,
      "marknaden": 6429,
      "stationer": 6430,
      "Ġ178": 6431,
      "Ġeuropeiskt": 6432,
      "ĠÂ°": 6433,
      "Ġarbetstagaren": 6434,
      "jup": 6435,
      "Ġuts": 6436,
      "Ġuttrycket": 6437,
      "Ġ182": 6438,
      "Ġdumpning": 6439,
      "ittens": 6440,
      "Ġutesl": 6441,
      "Ġlettland": 6442,
      "Ġproje": 6443,
      "Ġryssland": 6444,
      "metoden": 6445,
      "sbeslut": 6446,
      "ppar": 6447,
      "Ġhanvisar": 6448,
      "Ġ143": 6449,
      "Ġkonkreta": 6450,
      "Ġplc": 6451,
      "Ġfond": 6452,
      "Ġmultilater": 6453,
      "ind": 6454,
      "revs": 6455,
      "Ġutslappsratt": 6456,
      "Ġmyndigheternas": 6457,
      "Ġavdelningsordforanden": 6458,
      "Ġblev": 6459,
      "Ġfolkrepubliken": 6460,
      "igheten": 6461,
      "Ġkali": 6462,
      "Ġtype": 6463,
      "ato": 6464,
      "sia": 6465,
      "foretagare": 6466,
      "Ġkonstaterats": 6467,
      "Ġformellt": 6468,
      "Ġstodberattig": 6469,
      "Ġgodkant": 6470,
      "Ġflo": 6471,
      "Ġsysselsattning": 6472,
      "Ġslagit": 6473,
      "Ġauktoris": 6474,
      "Ġaktiebolag": 6475,
      "Ġassocieringsradet": 6476,
      "Ġantar": 6477,
      "Ġalternativa": 6478,
      "Ġlagsta": 6479,
      "ona": 6480,
      "Ġ173": 6481,
      "strate": 6482,
      "Ġaldrig": 6483,
      "Ġinst": 6484,
      "Ġdate": 6485,
      "Ġliber": 6486,
      "fang": 6487,
      "Ġrader": 6488,
      "Ġersattningen": 6489,
      "Ġarbetsgivaren": 6490,
      "Ġnom": 6491,
      "pla": 6492,
      "Ġavbry": 6493,
      "seled": 6494,
      "Ġvarumarkena": 6495,
      "nos": 6496,
      "Ġskadeundersokning": 6497,
      "Ġaga": 6498,
      "Ġfard": 6499,
      "Ġ142": 6500,
      "Ġregelverk": 6501,
      "Ġracker": 6502,
      "Ġinsyn": 6503,
      "inde": 6504,
      "bla": 6505,
      "Ġkvalificerade": 6506,
      "Ġsju": 6507,
      "Ġtransitering": 6508,
      "varna": 6509,
      "Ġmakt": 6510,
      "Ġwa": 6511,
      "Ġsubventioner": 6512,
      "Ġforenkl": 6513,
      "Ġ900": 6514,
      "Ġdirektoren": 6515,
      "Ġlandets": 6516,
      "industrin": 6517,
      "annen": 6518,
      "Ġartic": 6519,
      "Ġimmaterial": 6520,
      "sorg": 6521,
      "Ġvanligt": 6522,
      "ks": 6523,
      "Ġavg": 6524,
      "Ġursprungsmaterial": 6525,
      "flu": 6526,
      "jade": 6527,
      "Ġgov": 6528,
      "Ġportugisiska": 6529,
      "Ġpermanent": 6530,
      "Ġskattemyndighet": 6531,
      "Ġvon": 6532,
      "Ġframstallda": 6533,
      "ktt": 6534,
      "Ġutjam": 6535,
      "sist": 6536,
      "bens": 6537,
      "Ġtolkningsfragorna": 6538,
      "Ġbrister": 6539,
      "Ġomojligt": 6540,
      "Ġlaga": 6541,
      "72": 6542,
      "Ġriktar": 6543,
      "Ġgemenskapsin": 6544,
      "Ġjurisdik": 6545,
      "Ġpunkten": 6546,
      "Ġleverantor": 6547,
      "Ġcivila": 6548,
      "Ġbevara": 6549,
      "namnden": 6550,
      "ĠÎµ": 6551,
      "tiklar": 6552,
      "Ġgeor": 6553,
      "Ġtillater": 6554,
      "Ġutrust": 6555,
      "ĠÂ»": 6556,
      "Ġveget": 6557,
      "Ġnarko": 6558,
      "alen": 6559,
      "Ġminsta": 6560,
      "rest": 6561,
      "Ġbehandla": 6562,
      "Ġforklaras": 6563,
      "volym": 6564,
      "Ġursprungsbeteckning": 6565,
      "Ġmanniskor": 6566,
      "Ġ168": 6567,
      "yer": 6568,
      "Ġpaga": 6569,
      "wo": 6570,
      "96": 6571,
      "Ġfartygets": 6572,
      "Ġutovande": 6573,
      "import": 6574,
      "Ġforening": 6575,
      "Ġgangen": 6576,
      "Ġformed": 6577,
      "Ġdumpnings": 6578,
      "Ġ722": 6579,
      "Ġforklaringar": 6580,
      "Ġinbegriper": 6581,
      "stadg": 6582,
      "Ġfas": 6583,
      "sprogrammet": 6584,
      "Ġskadeundersokningsperioden": 6585,
      "person": 6586,
      "Ġryska": 6587,
      "Ġvarucertifikat": 6588,
      "wn": 6589,
      "Ġforsen": 6590,
      "Ġgodkand": 6591,
      "Ġtjug": 6592,
      "Ġtvister": 6593,
      "Ġpersonliga": 6594,
      "fram": 6595,
      "Ġ175": 6596,
      "Ġhandlagg": 6597,
      "Ġcod": 6598,
      "Ġregistrerats": 6599,
      "vival": 6600,
      "Ġ2694": 6601,
      "Ġavgifts": 6602,
      "sd": 6603,
      "Ġnaringsidkare": 6604,
      "Ġordin": 6605,
      "Ġandrats": 6606,
      "Ġjuridique": 6607,
      "Ġintervention": 6608,
      "Î¿Ïħ": 6609,
      "Ġlone": 6610,
      "byggnad": 6611,
      "Ġvilande": 6612,
      "Ġbens": 6613,
      "Ġdator": 6614,
      "Ġinforlivande": 6615,
      "trafik": 6616,
      "Ġavsla": 6617,
      "Ġindirekta": 6618,
      "Ġ151": 6619,
      "Ġerfarenhet": 6620,
      "Ġprestand": 6621,
      "Ġvidtagit": 6622,
      "Ġimmun": 6623,
      "Ġspecifikationer": 6624,
      "Ġnett": 6625,
      "Ġfir": 6626,
      "rubrik": 6627,
      "Ġefterle": 6628,
      "bruket": 6629,
      "tits": 6630,
      "Ġgd": 6631,
      "Ġledde": 6632,
      "Ġ640": 6633,
      "Ġjamforbara": 6634,
      "Ġefterlevnad": 6635,
      "Ġutforts": 6636,
      "Ġbedomningar": 6637,
      "Ġpra": 6638,
      "Ġvederborande": 6639,
      "Ġforverk": 6640,
      "Ġfragorna": 6641,
      "skottet": 6642,
      "Ġmeddelanden": 6643,
      "Ġrattegangsregler": 6644,
      "Ġtelekommuni": 6645,
      "ogra": 6646,
      "Ġintress": 6647,
      "Ġ152": 6648,
      "Ġpi": 6649,
      "cifika": 6650,
      "Ġgminy": 6651,
      "Ġ1984": 6652,
      "Ġola": 6653,
      "Ġintegrerad": 6654,
      "ube": 6655,
      "cerats": 6656,
      "ritann": 6657,
      "Ġkir": 6658,
      "Ġbegarda": 6659,
      "Ġdejtingsa": 6660,
      "Ġuppkommer": 6661,
      "ures": 6662,
      "order": 6663,
      "ameter": 6664,
      "Ġreform": 6665,
      "Ġdeltagare": 6666,
      "organet": 6667,
      "hoj": 6668,
      "Ġkumul": 6669,
      "Ġmsc": 6670,
      "pre": 6671,
      "Ġderivat": 6672,
      "Ġmervardesskattedirektivet": 6673,
      "skor": 6674,
      "Ġborja": 6675,
      "Ġekonomi": 6676,
      "Ġetablerad": 6677,
      "Ġikrafttradandet": 6678,
      "Ġque": 6679,
      "Ġstycke": 6680,
      "Ġslovakien": 6681,
      "stjansten": 6682,
      "Ġmott": 6683,
      "Ġsjukvard": 6684,
      "amet": 6685,
      "Ġvardera": 6686,
      "juk": 6687,
      "Ġanalogt": 6688,
      "rattslig": 6689,
      "Ġkust": 6690,
      "Ġvagt": 6691,
      "Ġhallas": 6692,
      "Ġlat": 6693,
      "Ġborjar": 6694,
      "Ġabsolut": 6695,
      "Ġlagstadg": 6696,
      "Ġverkligt": 6697,
      "Ġchem": 6698,
      "tim": 6699,
      "Ġforpliktelser": 6700,
      "Ġdack": 6701,
      "Ġstate": 6702,
      "Ġskriftvaxling": 6703,
      "Ġix": 6704,
      "nex": 6705,
      "Ġretroak": 6706,
      "Ġregelb": 6707,
      "Ġslags": 6708,
      "Ġterror": 6709,
      "Ġnormer": 6710,
      "bal": 6711,
      "ink": 6712,
      "fyll": 6713,
      "Ġefterstravas": 6714,
      "Ġforeliggande": 6715,
      "kal": 6716,
      "Ġâİ": 6717,
      "Ġundersokt": 6718,
      "Ġverkliga": 6719,
      "Ġolyck": 6720,
      "hyr": 6721,
      "Ġpastaendet": 6722,
      "Ġcont": 6723,
      "Ġkonstruktion": 6724,
      "Ġframsteg": 6725,
      "Ġkriteriet": 6726,
      "Ġkroatien": 6727,
      "Ġhandelser": 6728,
      "Ġlaboratori": 6729,
      "sperioder": 6730,
      "Ġuppfolj": 6731,
      "Ġholding": 6732,
      "teckning": 6733,
      "Ġrespekter": 6734,
      "Ġ1515": 6735,
      "Ġlosningar": 6736,
      "Ġskattskyldiga": 6737,
      "Ġavrun": 6738,
      "Ġgrunderna": 6739,
      "Ġkriterium": 6740,
      "Ġeffekterna": 6741,
      "ĠÎ±": 6742,
      "Ġkoncern": 6743,
      "Ġsalj": 6744,
      "echten": 6745,
      "Ġ226": 6746,
      "Ġavsk": 6747,
      "Ġutrikes": 6748,
      "Ġfamiljemedlemmar": 6749,
      "Ġ330": 6750,
      "Ġformular": 6751,
      "Ġunionstillverk": 6752,
      "Ġforsam": 6753,
      "Ġvisas": 6754,
      "ĠÏĦ": 6755,
      "Ġtratt": 6756,
      "Ġsem": 6757,
      "Ġcourt": 6758,
      "Ġbudgetkonsekvens": 6759,
      "cil": 6760,
      "Ġseri": 6761,
      "Ġ050": 6762,
      "umm": 6763,
      "Ġkonsoli": 6764,
      "Ġforbindelser": 6765,
      "Ġnormalvardet": 6766,
      "Ġdepon": 6767,
      "Ġobligatoriska": 6768,
      "Ġ147": 6769,
      "Ġmodell": 6770,
      "Ġforetratt": 6771,
      "Ġstorb": 6772,
      "Ġ310": 6773,
      "skontor": 6774,
      "Ġsubsidiaritetsprincipen": 6775,
      "smyndigheten": 6776,
      "Ġiec": 6777,
      "Ġkok": 6778,
      "Ġvaxth": 6779,
      "vav": 6780,
      "Ġsiff": 6781,
      "Ġovertradelsens": 6782,
      "Ġpresen": 6783,
      "Ġskriftlig": 6784,
      "Ġxii": 6785,
      "Ġbesvara": 6786,
      "Ġavgang": 6787,
      "Ġhydro": 6788,
      "Ġkonserver": 6789,
      "Ġfiskefartyg": 6790,
      "Ġlydelsen": 6791,
      "Ġutslappsratter": 6792,
      "Ġakten": 6793,
      "Ġslutgiltigt": 6794,
      "Ġriktig": 6795,
      "Ġliechten": 6796,
      "Ġkonsumtion": 6797,
      "Ġ239": 6798,
      "Ġep": 6799,
      "Ġarlig": 6800,
      "ary": 6801,
      "dorf": 6802,
      "Ġavsand": 6803,
      "Ġslovenien": 6804,
      "Ġbeaktar": 6805,
      "eta": 6806,
      "Ġmangfal": 6807,
      "skla": 6808,
      "Ġ480": 6809,
      "anta": 6810,
      "Ñĥ": 6811,
      "ssa": 6812,
      "Ġmy": 6813,
      "Ġoverenskommelsen": 6814,
      "behov": 6815,
      "Ġutkastet": 6816,
      "Ġlandsbygdsutveckling": 6817,
      "Ġkb": 6818,
      "Ġpati": 6819,
      "Ġfetter": 6820,
      "Ġkoldioxid": 6821,
      "ex": 6822,
      "Ġholl": 6823,
      "Ġkna": 6824,
      "ep": 6825,
      "Ġrws": 6826,
      "ffa": 6827,
      "Ġkvantitativa": 6828,
      "vans": 6829,
      "1000": 6830,
      "Ġsokta": 6831,
      "Ġogiltighet": 6832,
      "orid": 6833,
      "Ġsakra": 6834,
      "Ġjak": 6835,
      "Ġfelaktiga": 6836,
      "dsfor": 6837,
      "Ġoffentliggorande": 6838,
      "Ġexce": 6839,
      "Ġstudier": 6840,
      "Ġstorbritann": 6841,
      "Ġvaxthus": 6842,
      "Ġegenforetagare": 6843,
      "Ġrev": 6844,
      "Ġestland": 6845,
      "zione": 6846,
      "Ġ410": 6847,
      "sakt": 6848,
      "ciplin": 6849,
      "Ġonline": 6850,
      "ÐµÐ½": 6851,
      "fj": 6852,
      "Ġnationalitet": 6853,
      "Ġ1982": 6854,
      "Ġursprungsstatus": 6855,
      "Ġmarknaderna": 6856,
      "givningen": 6857,
      "Ġaklag": 6858,
      "rapporter": 6859,
      "Ġmedlemmarna": 6860,
      "Ġtolv": 6861,
      "Ġomk": 6862,
      "Ġ2023": 6863,
      "Ġnomenklaturen": 6864,
      "fiske": 6865,
      "Ġcal": 6866,
      "Ġaud": 6867,
      "direktiv": 6868,
      "Ġbotesbeloppet": 6869,
      "Ġparis": 6870,
      "Ġolaglig": 6871,
      "76": 6872,
      "Ġforsiktig": 6873,
      "sform": 6874,
      "Ġformaga": 6875,
      "Ġhast": 6876,
      "Î¹Î±": 6877,
      "hm": 6878,
      "Ġkron": 6879,
      "datum": 6880,
      "hn": 6881,
      "Ġsva": 6882,
      "Ġ184": 6883,
      "Ġskuld": 6884,
      "Ġgemenskapsrattsliga": 6885,
      "Ġ1979": 6886,
      "mang": 6887,
      "rem": 6888,
      "forhallanden": 6889,
      "Ġnoggran": 6890,
      "Ġotillbor": 6891,
      "orten": 6892,
      "Ø²": 6893,
      "Ġrelevans": 6894,
      "Ġku": 6895,
      "Ġforad": 6896,
      "cen": 6897,
      "Ġposition": 6898,
      "tagning": 6899,
      "Ġinsol": 6900,
      "bem": 6901,
      "Ġ144": 6902,
      "Ġavgas": 6903,
      "Ġemitt": 6904,
      "Ġbefolk": 6905,
      "Ġ146": 6906,
      "Õ¥Õ": 6907,
      "Ġtullfri": 6908,
      "Ġinbland": 6909,
      "Ġgiltigheten": 6910,
      "arter": 6911,
      "Ġmodern": 6912,
      "Ġkandidat": 6913,
      "Ġstorbritannien": 6914,
      "rattigheter": 6915,
      "Ġpil": 6916,
      "Ġlaggs": 6917,
      "Ġtu": 6918,
      "reatur": 6919,
      "Ġnytta": 6920,
      "Ġprogrammen": 6921,
      "maskiner": 6922,
      "Ġflykt": 6923,
      "Ġplatsen": 6924,
      "Ġagerande": 6925,
      "Ġ450": 6926,
      "Ġalagga": 6927,
      "Ġaterh": 6928,
      "Ġosterrik": 6929,
      "ji": 6930,
      "ckta": 6931,
      "deklaration": 6932,
      "Ġpin": 6933,
      "Ġupptagande": 6934,
      "Ġstraffrattsliga": 6935,
      "Ġvagled": 6936,
      "Ġgaranteras": 6937,
      "andamal": 6938,
      "Ġstick": 6939,
      "Ġsyd": 6940,
      "ystemet": 6941,
      "Ġansags": 6942,
      "Ġ155": 6943,
      "Ġsamarbetsomradet": 6944,
      "Ġfrageformular": 6945,
      "Ġdumpningsmarginal": 6946,
      "uellt": 6947,
      "produktion": 6948,
      "ariat": 6949,
      "Ġregioner": 6950,
      "Ġgusp": 6951,
      "Ġsakerstaller": 6952,
      "Ġgods": 6953,
      "Ġkanada": 6954,
      "Ġprovin": 6955,
      "Ġaterforsakring": 6956,
      "Ġdrog": 6957,
      "Ġandringsforslag": 6958,
      "Ġpresent": 6959,
      "put": 6960,
      "Ġmottagaren": 6961,
      "Ġexam": 6962,
      "Ġdiffer": 6963,
      "Ġindien": 6964,
      "Ġexemplar": 6965,
      "Ġ0207": 6966,
      "banken": 6967,
      "ipp": 6968,
      "Ġfod": 6969,
      "Ġkommunikations": 6970,
      "Ġintervenienten": 6971,
      "Ġformat": 6972,
      "Ġpastaenden": 6973,
      "Ġansl": 6974,
      "Ġskador": 6975,
      "Ġforbran": 6976,
      "Ġtecken": 6977,
      "Ġframstallt": 6978,
      "Ġinnefattar": 6979,
      "Ġ165": 6980,
      "Ġforpackning": 6981,
      "Ġenkelt": 6982,
      "Ġprog": 6983,
      "Ġforstas": 6984,
      "Ġvavnader": 6985,
      "Ġhov": 6986,
      "Ġkartellen": 6987,
      "garan": 6988,
      "Ġresur": 6989,
      "Ġredovisning": 6990,
      "Ġhom": 6991,
      "Ġallvarligt": 6992,
      "Ġunderlag": 6993,
      "00000": 6994,
      "Ġreser": 6995,
      "Ġdetsamma": 6996,
      "Ġindikatorer": 6997,
      "Ġintegrerade": 6998,
      "Ġklagomalet": 6999,
      "Ġring": 7000,
      "Ġnyckel": 7001,
      "Ġgl": 7002,
      "Ġkart": 7003,
      "missbruk": 7004,
      "Ġbudgetrubrik": 7005,
      "Ġsvin": 7006,
      "Ġloneg": 7007,
      "Ġsamordnade": 7008,
      "Ġsakkun": 7009,
      "Ġavgiften": 7010,
      "alisering": 7011,
      "Ġbredd": 7012,
      "tekniska": 7013,
      "Î¹Îº": 7014,
      "Ġfrekvens": 7015,
      "Ġgrundade": 7016,
      "yz": 7017,
      "Ġimmaterialratt": 7018,
      "Ġbehalla": 7019,
      "Ġomstrukturering": 7020,
      "Ġsamfor": 7021,
      "forfaranden": 7022,
      "onventionen": 7023,
      "vards": 7024,
      "Ġdriv": 7025,
      "Ġsekund": 7026,
      "leverant": 7027,
      "Ġmr": 7028,
      "kommande": 7029,
      "com": 7030,
      "landsk": 7031,
      "Ġlimit": 7032,
      "Ġfunktioner": 7033,
      "Ġaktiva": 7034,
      "kad": 7035,
      "Ġnotkreatur": 7036,
      "fu": 7037,
      "Ġvegetabil": 7038,
      "Ġbut": 7039,
      "ĠâĪı": 7040,
      "Ġtemperatur": 7041,
      "pelfibrer": 7042,
      "Ġkreditvarder": 7043,
      "Ġbrottmal": 7044,
      "Ġslutsatserna": 7045,
      "Ġinletts": 7046,
      "Ġbibehalla": 7047,
      "tella": 7048,
      "Ġinformationsutbyte": 7049,
      "Ġ171": 7050,
      "Ġskog": 7051,
      "Ġundertecknande": 7052,
      "Ġimporterade": 7053,
      "Ġoriginal": 7054,
      "Ġlis": 7055,
      "Ġagde": 7056,
      "Ġagre": 7057,
      "Ġmeddelades": 7058,
      "Ġbegransar": 7059,
      "Ġdor": 7060,
      "sic": 7061,
      "Ġgiltiga": 7062,
      "yper": 7063,
      "Ġfortro": 7064,
      "Ġutgangspunkt": 7065,
      "kte": 7066,
      "Ġfrom": 7067,
      "Ġskalig": 7068,
      "Ġstorleken": 7069,
      "Ġaterkra": 7070,
      "Ġhandlingen": 7071,
      "hjalp": 7072,
      "ior": 7073,
      "Ġdetaljerade": 7074,
      "Ġunderrattelse": 7075,
      "Ġtraditionella": 7076,
      "Ġgemeinde": 7077,
      "Ġ167": 7078,
      "vade": 7079,
      "Ġtiller": 7080,
      "Ġrattvis": 7081,
      "Ġ158": 7082,
      "bring": 7083,
      "Ġimporteras": 7084,
      "Ġanvis": 7085,
      "Ġoversynen": 7086,
      "Ġlonsamhet": 7087,
      "vagar": 7088,
      "Ġnodvandigtvis": 7089,
      "bro": 7090,
      "Ġ0003": 7091,
      "Ġuppgar": 7092,
      "Ġbrom": 7093,
      "Ġgrundens": 7094,
      "Ġaktuell": 7095,
      "priser": 7096,
      "Ġtillsyns": 7097,
      "Ġnordirland": 7098,
      "Ġintrang": 7099,
      "Ġforeligga": 7100,
      "vantitet": 7101,
      "Ġfack": 7102,
      "gr": 7103,
      "Ġimporttull": 7104,
      "Ġinlag": 7105,
      "resurser": 7106,
      "ĠâĮ": 7107,
      "Ġljus": 7108,
      "Ġutgifterna": 7109,
      "Ġordet": 7110,
      "Ġdin": 7111,
      "Ġpersonligen": 7112,
      "Ġ166": 7113,
      "Ġ161": 7114,
      "Ġforeningar": 7115,
      "Ġskogsbruk": 7116,
      "Ġmart": 7117,
      "Ġanmala": 7118,
      "Ġtillaggs": 7119,
      "Ġinv": 7120,
      "Ġvarm": 7121,
      "Ġtillampats": 7122,
      "overvak": 7123,
      "Ġglobala": 7124,
      "Ġrestriktioner": 7125,
      "Ġup": 7126,
      "Ġtillverkarens": 7127,
      "Ġoegentligheter": 7128,
      "Ġrepar": 7129,
      "Ġinneholl": 7130,
      "Ġindustrin": 7131,
      "Ġfattat": 7132,
      "Ġbrotts": 7133,
      "ĠâĪļ": 7134,
      "Ġpara": 7135,
      "Ġdevel": 7136,
      "Ġvalet": 7137,
      "Ġvaxthusgas": 7138,
      "Ġinsats": 7139,
      "Ġalagts": 7140,
      "az": 7141,
      "Ġfac": 7142,
      "Ġleverantoren": 7143,
      "sforsakring": 7144,
      "Ġtit": 7145,
      "just": 7146,
      "Ġomfattades": 7147,
      "iki": 7148,
      "utral": 7149,
      "Ġcompany": 7150,
      "Ġkomplettera": 7151,
      "con": 7152,
      "detta": 7153,
      "andelar": 7154,
      "Ġbyggnader": 7155,
      "rium": 7156,
      "Ġkoncentration": 7157,
      "Ġ999": 7158,
      "Ġcount": 7159,
      "Ġrimliga": 7160,
      "Ġkritiser": 7161,
      "Ġkapitalbas": 7162,
      "ĠâĹ": 7163,
      "Ġundantas": 7164,
      "Ġmodu": 7165,
      "Ġnarkotika": 7166,
      "Ġrattsstridigt": 7167,
      "Ġoppet": 7168,
      "Ġbehova": 7169,
      "lades": 7170,
      "Ġsammanfatt": 7171,
      "Ġannanstans": 7172,
      "hydro": 7173,
      "Ġmajoritet": 7174,
      "Ġ176": 7175,
      "Ġinn": 7176,
      "ÙĪØ±": 7177,
      "Ġtidsfrister": 7178,
      "Ġpolska": 7179,
      "gjordes": 7180,
      "baserade": 7181,
      "kallor": 7182,
      "Ġpresi": 7183,
      "Ġloper": 7184,
      "Ġ1107": 7185,
      "Ġkomment": 7186,
      "Ġaberopar": 7187,
      "Ġ153": 7188,
      "Î³": 7189,
      "tshof": 7190,
      "lank": 7191,
      "opol": 7192,
      "Ġmodifierade": 7193,
      "Ġkry": 7194,
      "Ġflesta": 7195,
      "Ġnoteras": 7196,
      "Ġ253": 7197,
      "Ġundertecknat": 7198,
      "Ġforflytt": 7199,
      "Ġblandning": 7200,
      "Ġservices": 7201,
      "Ġratifi": 7202,
      "Ġ414": 7203,
      "Ø«": 7204,
      "Ġtillgangen": 7205,
      "Ġarenden": 7206,
      "Ġelect": 7207,
      "Ġkant": 7208,
      "Ġmoderbolag": 7209,
      "able": 7210,
      "Ġgeneraladvokatens": 7211,
      "ĠÐ¿": 7212,
      "Ġdelegerad": 7213,
      "Ġledamot": 7214,
      "urella": 7215,
      "Ġnit": 7216,
      "Ġ204": 7217,
      "beskatt": 7218,
      "Ġbast": 7219,
      "somraden": 7220,
      "Ġhj": 7221,
      "Ġagt": 7222,
      "Ġofc": 7223,
      "Ġtack": 7224,
      "Ġinforliva": 7225,
      "Ġkostnaden": 7226,
      "stas": 7227,
      "Ġnationernas": 7228,
      "Ġjugo": 7229,
      "lor": 7230,
      "Ġmojliggor": 7231,
      "arbeten": 7232,
      "Ġmedger": 7233,
      "Ġintegration": 7234,
      "Ġreglerar": 7235,
      "Ġvackte": 7236,
      "Ġregistrerat": 7237,
      "Ġjugosl": 7238,
      "atgard": 7239,
      "ĠâĢ²": 7240,
      "Ġfordonets": 7241,
      "Ġenergy": 7242,
      "unden": 7243,
      "Ġarbetsuppgifter": 7244,
      "Ġkorrigering": 7245,
      "Ġfjaderfa": 7246,
      "Ġfal": 7247,
      "Ġmi": 7248,
      "propor": 7249,
      "Ġconta": 7250,
      "Ġforberedande": 7251,
      "Ġiran": 7252,
      "Ġframlagt": 7253,
      "Ġavskrack": 7254,
      "Ġsatell": 7255,
      "ÖĢ": 7256,
      "Ø®": 7257,
      "Ġuppsagning": 7258,
      "Ġprofil": 7259,
      "Ġlagts": 7260,
      "Ġberattigat": 7261,
      "Ġalaggs": 7262,
      "Ġkontinuer": 7263,
      "itor": 7264,
      "overens": 7265,
      "Ġbag": 7266,
      "operat": 7267,
      "Ġutslappande": 7268,
      "bjud": 7269,
      "Ġberaknad": 7270,
      "Ġsul": 7271,
      "Ġmass": 7272,
      "Ġtvartom": 7273,
      "metyl": 7274,
      "Ġtillhandahallas": 7275,
      "Ġunionsindustrins": 7276,
      "Ġkonto": 7277,
      "Ġpress": 7278,
      "Ġsystemen": 7279,
      "Ġ185": 7280,
      "Ġaberopade": 7281,
      "Ġseparata": 7282,
      "Ġfinanz": 7283,
      "Ġstam": 7284,
      "Ġavkunnat": 7285,
      "Ġpetro": 7286,
      "Ġindividuell": 7287,
      "Ġkonstaterat": 7288,
      "Ġintegrit": 7289,
      "Ġdej": 7290,
      "gg": 7291,
      "dell": 7292,
      "Ġlikvardiga": 7293,
      "Ġseme": 7294,
      "Ġfiskezon": 7295,
      "dejting": 7296,
      "Ġarbetsordning": 7297,
      "unn": 7298,
      "Ġskiljedom": 7299,
      "Ġarten": 7300,
      "Ġuppforande": 7301,
      "ÙĬØ±": 7302,
      "Ġdecimal": 7303,
      "garn": 7304,
      "Ġforaldra": 7305,
      "erg": 7306,
      "Ġsamarbetsvill": 7307,
      "Ġprofes": 7308,
      "endet": 7309,
      "Ġsatta": 7310,
      "Ġoversynsperioden": 7311,
      "Ġbedrivs": 7312,
      "Ġonsk": 7313,
      "Ġindelning": 7314,
      "Ġupphort": 7315,
      "Ġingang": 7316,
      "Ġundanroja": 7317,
      "sforfaranden": 7318,
      "Ġmarknadsekonom": 7319,
      "Ġkvalifikationer": 7320,
      "Ġtabellen": 7321,
      "Ġterrorism": 7322,
      "mace": 7323,
      "Ġ154": 7324,
      "Ġmekan": 7325,
      "tio": 7326,
      "Ġ1978": 7327,
      "orl": 7328,
      "Ġkw": 7329,
      "ente": 7330,
      "Ġsammanhangande": 7331,
      "spad": 7332,
      "Ġbos": 7333,
      "stapelfibrer": 7334,
      "anten": 7335,
      "Ġflygplan": 7336,
      "data": 7337,
      "meddel": 7338,
      "Ġfortlop": 7339,
      "ĠpoÅĤ": 7340,
      "Ġefterfoljande": 7341,
      "Ġbeviljat": 7342,
      "Ġordalydelsen": 7343,
      "Ġlegi": 7344,
      "Ġordmarket": 7345,
      "Ġsot": 7346,
      "Ġsupplement": 7347,
      "verksamheten": 7348,
      "Ġundertecknades": 7349,
      "Ġaterhamt": 7350,
      "Ġstrategiska": 7351,
      "sper": 7352,
      "kla": 7353,
      "Ġox": 7354,
      "fraga": 7355,
      "Ġkalla": 7356,
      "Ġtry": 7357,
      "iserad": 7358,
      "Ġ060": 7359,
      "Ġforbattring": 7360,
      "Ġ299": 7361,
      "ble": 7362,
      "Ġgrunda": 7363,
      "ansk": 7364,
      "Ġuniversitet": 7365,
      "Ġopropor": 7366,
      "edra": 7367,
      "Ġnarma": 7368,
      "Ġproduktt": 7369,
      "Ġargumentet": 7370,
      "Ġordinarie": 7371,
      "Ġomsorg": 7372,
      "Ġintakter": 7373,
      "ningens": 7374,
      "Ġ261": 7375,
      "Ġframjande": 7376,
      "Ġomradena": 7377,
      "Ġjurisdiktion": 7378,
      "Ġshall": 7379,
      "Ġutformning": 7380,
      "skostnaderna": 7381,
      "Ġlimited": 7382,
      "fogar": 7383,
      "stig": 7384,
      "ign": 7385,
      "kti": 7386,
      "Ġvikten": 7387,
      "oo": 7388,
      "Ð·": 7389,
      "Ġkvoter": 7390,
      "uel": 7391,
      "inas": 7392,
      "Ġsalufor": 7393,
      "Ġpabor": 7394,
      "Ġsprit": 7395,
      "Ġaligger": 7396,
      "Ġarbeta": 7397,
      "Ġinnehas": 7398,
      "vt": 7399,
      "sle": 7400,
      "Ġvilda": 7401,
      "lassifi": 7402,
      "Ġdialog": 7403,
      "somfattande": 7404,
      "Ġcypern": 7405,
      "Ġcirka": 7406,
      "pol": 7407,
      "Ġtjock": 7408,
      "Ġln": 7409,
      "Ġyt": 7410,
      "Ġmedlemsstaters": 7411,
      "Ġkortare": 7412,
      "rida": 7413,
      "Ġrorelse": 7414,
      "Ġborgen": 7415,
      "Ġliechtenstein": 7416,
      "Ġutvarderingen": 7417,
      "Ġandelar": 7418,
      "Ġ209": 7419,
      "Ġlosa": 7420,
      "Ġfortlopande": 7421,
      "ordforande": 7422,
      "Ġtillaten": 7423,
      "Ġstyrelse": 7424,
      "Ġbety": 7425,
      "Ġvarigenom": 7426,
      "Ġki": 7427,
      "skrift": 7428,
      "Ġflu": 7429,
      "issionen": 7430,
      "stalle": 7431,
      "Ġ187": 7432,
      "Ġinstruktioner": 7433,
      "Ġsamhallet": 7434,
      "Ġpersonaldomstolen": 7435,
      "Ġrullande": 7436,
      "Ġill": 7437,
      "Ġradgivning": 7438,
      "Ġbestandsdelar": 7439,
      "oma": 7440,
      "Ġuppfylls": 7441,
      "enamn": 7442,
      "Ġpapekade": 7443,
      "Ġfusion": 7444,
      "sul": 7445,
      "emenskapen": 7446,
      "Ġeib": 7447,
      "ĠÑģ": 7448,
      "Ġbostads": 7449,
      "Ġstatistiska": 7450,
      "massigt": 7451,
      "Ġerbjuda": 7452,
      "Ġhorisontella": 7453,
      "Ġfiskemojligheter": 7454,
      "Ġligga": 7455,
      "Ġanordningar": 7456,
      "Ġvalut": 7457,
      "Ġbrutto": 7458,
      "Ġexklusiva": 7459,
      "ĠÎ¼": 7460,
      "Ġproducenterna": 7461,
      "Ġforlag": 7462,
      "Ġexister": 7463,
      "Ġnv": 7464,
      "skrets": 7465,
      "Ġfree": 7466,
      "Ġker": 7467,
      "Ġuppdelning": 7468,
      "analys": 7469,
      "Ġallmanhetens": 7470,
      "Ġminsk": 7471,
      "Ġkonkurrenskraft": 7472,
      "Ġos": 7473,
      "Ġarbetslos": 7474,
      "Ġdelmal": 7475,
      "ĠÙĬ": 7476,
      "Ġagric": 7477,
      "Ġforesk": 7478,
      "Ġalltfor": 7479,
      "orterna": 7480,
      "Ġ181": 7481,
      "Ġaktorerna": 7482,
      "Ġdanska": 7483,
      "Ġbre": 7484,
      "Ġtillsattnings": 7485,
      "ĠÙħÙĨ": 7486,
      "Ġleveranser": 7487,
      "Ġuthyr": 7488,
      "Ø¶": 7489,
      "Ġjakande": 7490,
      "Ġbrad": 7491,
      "Ġgenomforandebeslut": 7492,
      "Ġatervand": 7493,
      "Ġ1234": 7494,
      "Ġgul": 7495,
      "Ġsing": 7496,
      "Ġdrycker": 7497,
      "Ġforas": 7498,
      "Ġprovisorisk": 7499,
      "Ġimportorer": 7500,
      "Ġanlaggnings": 7501,
      "Ġantidumpningsatgarder": 7502,
      "Ġsamforstand": 7503,
      "ssed": 7504,
      "Ġwal": 7505,
      "Ġ2138": 7506,
      "ments": 7507,
      "Ġutses": 7508,
      "Ġdomare": 7509,
      "Ġrattsmedel": 7510,
      "Ġlopande": 7511,
      "Ġforbjud": 7512,
      "central": 7513,
      "Ġberedningen": 7514,
      "Ġassocieringsavtalet": 7515,
      "foretaget": 7516,
      "Ġ1981": 7517,
      "Ġcorpor": 7518,
      "pr": 7519,
      "Ġsalunda": 7520,
      "Ġkaka": 7521,
      "als": 7522,
      "Ġfarskt": 7523,
      "Ġlikvardig": 7524,
      "Ġgenomfort": 7525,
      "Ġlamnades": 7526,
      "Ġmultilaterala": 7527,
      "Ġmotiveras": 7528,
      "Ġ213800": 7529,
      "Ġmervardesskatte": 7530,
      "drande": 7531,
      "Ġtillstandet": 7532,
      "Ġdrabb": 7533,
      "Ġsocialforsakring": 7534,
      "cha": 7535,
      "Ġpreskription": 7536,
      "stiftning": 7537,
      "Ġundersektor": 7538,
      "Ġrelativt": 7539,
      "Ġfred": 7540,
      "Ġexportoren": 7541,
      "dam": 7542,
      "Ġ228": 7543,
      "dnings": 7544,
      "Ġforemalet": 7545,
      "spart": 7546,
      "Ġklin": 7547,
      "grad": 7548,
      "cio": 7549,
      "ane": 7550,
      "Ġregeln": 7551,
      "Ġbilagor": 7552,
      "Ġbeaktat": 7553,
      "Ġavsnittet": 7554,
      "ado": 7555,
      "Ġobjektivt": 7556,
      "Ġforklarat": 7557,
      "Ġmarket": 7558,
      "Ġuppmun": 7559,
      "hy": 7560,
      "sattas": 7561,
      "anvandning": 7562,
      "Ġcertifiering": 7563,
      "Ġ347": 7564,
      "verkningar": 7565,
      "avgifter": 7566,
      "Ġ163": 7567,
      "Ġwill": 7568,
      "Ġrepres": 7569,
      "Ġdjurhal": 7570,
      "Ġstift": 7571,
      "Ġnatet": 7572,
      "Ġinresa": 7573,
      "Ġfamilje": 7574,
      "Ġ940": 7575,
      "Ġlopt": 7576,
      "Ġ211": 7577,
      "vagag": 7578,
      "Ġfartygsag": 7579,
      "Ġ191": 7580,
      "fos": 7581,
      "slander": 7582,
      "Ġstodberattigande": 7583,
      "ĠâĹ»": 7584,
      "Ġobearbetade": 7585,
      "Ġspecifikation": 7586,
      "rus": 7587,
      "Ġgodkannanden": 7588,
      "ario": 7589,
      "Ġbidraget": 7590,
      "Ġtillvagag": 7591,
      "Ġansoker": 7592,
      "Ġ1001": 7593,
      "Ġfett": 7594,
      "Ġforfogar": 7595,
      "Ġbn": 7596,
      "Ġmotiverad": 7597,
      "nie": 7598,
      "Ġpagaende": 7599,
      "angssatt": 7600,
      "cr": 7601,
      "Ð½Ð°": 7602,
      "Ġoverlatelse": 7603,
      "Ġsli": 7604,
      "kann": 7605,
      "Ġoverdrag": 7606,
      "Ġkonstatera": 7607,
      "Ġramavtalet": 7608,
      "Ġgemenskapsniva": 7609,
      "Ġminskas": 7610,
      "Ġ270": 7611,
      "Ġsumman": 7612,
      "Ġtillvagagangssatt": 7613,
      "Ġsubvention": 7614,
      "Ġforbli": 7615,
      "Ġberedningar": 7616,
      "schaft": 7617,
      "Ġindustriell": 7618,
      "Ġkanda": 7619,
      "Ġvilandeforklar": 7620,
      "Ġskri": 7621,
      "uc": 7622,
      "Ġll": 7623,
      "Ġifr": 7624,
      "Ġplaner": 7625,
      "Ġpel": 7626,
      "Ġ510": 7627,
      "Ġtet": 7628,
      "Ġ337": 7629,
      "Ġvaxtskyddsmedel": 7630,
      "naderna": 7631,
      "goring": 7632,
      "ual": 7633,
      "Ð¼": 7634,
      "Ġ1976": 7635,
      "Ġpulver": 7636,
      "Ġnivaer": 7637,
      "Ġobligatorisk": 7638,
      "Ġkapacitets": 7639,
      "Ġsnarare": 7640,
      "Ġlands": 7641,
      "our": 7642,
      "Ġhl": 7643,
      "ktar": 7644,
      "Ġsags": 7645,
      "politiken": 7646,
      "Ġedsfor": 7647,
      "regelverket": 7648,
      "Ġlangsiktig": 7649,
      "Ġsemester": 7650,
      "Ġnack": 7651,
      "statens": 7652,
      "Ð³": 7653,
      "Ġanpassas": 7654,
      "ydlig": 7655,
      "Ġcla": 7656,
      "Ġ192": 7657,
      "Ġreserv": 7658,
      "Ġterm": 7659,
      "Ġobliga": 7660,
      "jen": 7661,
      "Ġara": 7662,
      "Ġundernummer": 7663,
      "Ġorim": 7664,
      "Ġlikadan": 7665,
      "Ġfiska": 7666,
      "Ġspecifik": 7667,
      "Ġ468": 7668,
      "bit": 7669,
      "Ġviet": 7670,
      "Ġnastan": 7671,
      "Ġanstallningsavtal": 7672,
      "kannas": 7673,
      "Ġfortsatter": 7674,
      "Ġfordragets": 7675,
      "onien": 7676,
      "Ġinkomma": 7677,
      "Ġuppmuntra": 7678,
      "pension": 7679,
      "Ġleveranssatt": 7680,
      "Ġoversattningen": 7681,
      "dels": 7682,
      "Ġskiljenamn": 7683,
      "Ġpraktiska": 7684,
      "Ġoverfora": 7685,
      "Ġoforenligt": 7686,
      "Ġtidsperiod": 7687,
      "elserna": 7688,
      "sbedom": 7689,
      "Ġbananer": 7690,
      "hel": 7691,
      "omer": 7692,
      "Ġfaktisk": 7693,
      "cie": 7694,
      "Ġidrott": 7695,
      "Ġwo": 7696,
      "Ġavskrackande": 7697,
      "Ġsamarbetsvilliga": 7698,
      "Ġsz": 7699,
      "bemyndig": 7700,
      "Ġnarvaro": 7701,
      "Ġcap": 7702,
      "Ġbeviljades": 7703,
      "Ġbudgetkonsekvenser": 7704,
      "Ġkoppar": 7705,
      "ĠÙĨ": 7706,
      "Ġbygga": 7707,
      "Ġpask": 7708,
      "Ġull": 7709,
      "uret": 7710,
      "Ġasidosatte": 7711,
      "Ġforlangas": 7712,
      "Ġbras": 7713,
      "Ġregistret": 7714,
      "losning": 7715,
      "Ġanvandes": 7716,
      "mension": 7717,
      "Ġfinansieringen": 7718,
      "begransa": 7719,
      "Ġarticle": 7720,
      "Ġbestamning": 7721,
      "Ġregeringens": 7722,
      "stjanst": 7723,
      "Ġoproportioner": 7724,
      "Ġersatts": 7725,
      "Ġ159": 7726,
      "spon": 7727,
      "Ġupphavas": 7728,
      "Ġefsa": 7729,
      "ordin": 7730,
      "Ġrem": 7731,
      "Ġdartill": 7732,
      "Ġisra": 7733,
      "Ġproducts": 7734,
      "Ġtypen": 7735,
      "Ġnomin": 7736,
      "cal": 7737,
      "Ġgem": 7738,
      "version": 7739,
      "Ġidentifieras": 7740,
      "Ġundergra": 7741,
      "Ġsla": 7742,
      "Ġerbjuder": 7743,
      "Ġgiltigt": 7744,
      "Ġagen": 7745,
      "Ġsvara": 7746,
      "Ġinforlivas": 7747,
      "slosa": 7748,
      "befri": 7749,
      "Ġingatt": 7750,
      "Ġpersonens": 7751,
      "Ġattonde": 7752,
      "Ġpapekar": 7753,
      "Ġprem": 7754,
      "samt": 7755,
      "Ġforran": 7756,
      "Ġskede": 7757,
      "gens": 7758,
      "Ġetyl": 7759,
      "Ġjordbrukare": 7760,
      "Ġpublicerad": 7761,
      "Ġ172": 7762,
      "Õ¸Õ": 7763,
      "Ġpassagerar": 7764,
      "ÃŁ": 7765,
      "Ġkvaliteten": 7766,
      "kategori": 7767,
      "Ġ215": 7768,
      "Ġprovision": 7769,
      "Ġinsolvens": 7770,
      "Ġerhaller": 7771,
      "Ġult": 7772,
      "vat": 7773,
      "Ġsidor": 7774,
      "Ġautonoma": 7775,
      "ku": 7776,
      "Ġersattningsgi": 7777,
      "Ġexporten": 7778,
      "Ġmalta": 7779,
      "omstol": 7780,
      "Ġtrika": 7781,
      "licenser": 7782,
      "Ġtillverkas": 7783,
      "Ġstarkelse": 7784,
      "part": 7785,
      "Ġhemma": 7786,
      "Ġkollektivavtal": 7787,
      "Ġ543": 7788,
      "Ġrue": 7789,
      "Ġbransch": 7790,
      "Ġforstnamnda": 7791,
      "Ġbenam": 7792,
      "020": 7793,
      "Ġski": 7794,
      "Ġoppen": 7795,
      "Ġetablering": 7796,
      "Ġisol": 7797,
      "ĠÎº": 7798,
      "Ġpy": 7799,
      "region": 7800,
      "Ġschengenregelverket": 7801,
      "din": 7802,
      "Ġkravas": 7803,
      "Ġvaxel": 7804,
      "Ġklor": 7805,
      "Ġ580": 7806,
      "Ġsjukdomar": 7807,
      "Ġomprovning": 7808,
      "Ġexportbidrag": 7809,
      "formaner": 7810,
      "sfaglar": 7811,
      "Ġgransvarden": 7812,
      "Ġnegativt": 7813,
      "Ġredogorelse": 7814,
      "Ã¦": 7815,
      "Ġrambeslut": 7816,
      "Ġforadling": 7817,
      "Ġskick": 7818,
      "ance": 7819,
      "Ġkraf": 7820,
      "Ġbaseras": 7821,
      "sakten": 7822,
      "Ġpsyk": 7823,
      "Ġspra": 7824,
      "sprojekt": 7825,
      "zy": 7826,
      "fogenheter": 7827,
      "Ġ840": 7828,
      "rations": 7829,
      "Ġner": 7830,
      "Ġ213": 7831,
      "Ġoppenhet": 7832,
      "skande": 7833,
      "Ġ260": 7834,
      "Ġarbetstagarna": 7835,
      "Ġanvandningsom": 7836,
      "Ġoverforingen": 7837,
      "Ġassociation": 7838,
      "Ġregistreringen": 7839,
      "Ġdejta": 7840,
      "marke": 7841,
      "Ġkos": 7842,
      "strategi": 7843,
      "oljor": 7844,
      "ef": 7845,
      "Ġfriheten": 7846,
      "Ġsvavel": 7847,
      "Ġomfor": 7848,
      "Ġcirk": 7849,
      "kapacitet": 7850,
      "Ġnamnden": 7851,
      "mak": 7852,
      "Ġoverenskommelser": 7853,
      "Ġ1177": 7854,
      "Ġ2645": 7855,
      "Ġwhich": 7856,
      "utsfaglar": 7857,
      "Ġmedelhav": 7858,
      "Ġtvar": 7859,
      "Ġdriva": 7860,
      "massig": 7861,
      "Ġbeloppen": 7862,
      "Ġregistreringshinder": 7863,
      "Ġforfall": 7864,
      "sklausul": 7865,
      "hallandet": 7866,
      "Ġuppm": 7867,
      "ckas": 7868,
      "Ġsked": 7869,
      "Ġrekry": 7870,
      "myndigheter": 7871,
      "Ġfordran": 7872,
      "Ġkur": 7873,
      "Ġlonegrad": 7874,
      "Ġintegritet": 7875,
      "Ġ174": 7876,
      "Ġforbjuda": 7877,
      "001": 7878,
      "Ġkomplex": 7879,
      "cor": 7880,
      "Ġkoncentrationen": 7881,
      "Ġtullfrit": 7882,
      "Ġdisciplin": 7883,
      "stalan": 7884,
      "Ġkonver": 7885,
      "Ġ249": 7886,
      "bransl": 7887,
      "Ġersattningsgilla": 7888,
      "Ġresul": 7889,
      "Ġporno": 7890,
      "Ġlaw": 7891,
      "Ġyrkesutbildning": 7892,
      "isera": 7893,
      "Ġbarnet": 7894,
      "Ġberaknat": 7895,
      "Ġkategorin": 7896,
      "splaner": 7897,
      "Ġstrida": 7898,
      "Ġjamte": 7899,
      "Ġnaturgas": 7900,
      "Ġinstaller": 7901,
      "ange": 7902,
      "underlaget": 7903,
      "Ġfrukter": 7904,
      "Ġsamlade": 7905,
      "ÏīÎ½": 7906,
      "flyg": 7907,
      "hallning": 7908,
      "Ġmarocko": 7909,
      "sning": 7910,
      "Ġinterimistiska": 7911,
      "Ġerfarenheter": 7912,
      "Ġdevelop": 7913,
      "ĠÏĢ": 7914,
      "Ġagare": 7915,
      "Ġpafor": 7916,
      "Ġ164": 7917,
      "tten": 7918,
      "eman": 7919,
      "Ġtillfallen": 7920,
      "fonder": 7921,
      "Ġansoka": 7922,
      "bre": 7923,
      "Ġforlik": 7924,
      "indi": 7925,
      "Ġskil": 7926,
      "maktig": 7927,
      "Ġflas": 7928,
      "Ġgransen": 7929,
      "Ġ221": 7930,
      "Ġyrkandet": 7931,
      "Ġvietnam": 7932,
      "Ġutbetalning": 7933,
      "Ġkonkurrenter": 7934,
      "Ġlopa": 7935,
      "Ġolagligt": 7936,
      "arier": 7937,
      "Ġjordbrukspolitiken": 7938,
      "Ġkunskaper": 7939,
      "Ġelement": 7940,
      "Ġsalter": 7941,
      "Ġefta": 7942,
      "givare": 7943,
      "Ġjordbruket": 7944,
      "Ġvant": 7945,
      "Ġmarken": 7946,
      "Ġbibehall": 7947,
      "Ġfoll": 7948,
      "Ġavviker": 7949,
      "Ġsyntet": 7950,
      "Ġkamp": 7951,
      "Ġraffin": 7952,
      "Ġ251": 7953,
      "sskatter": 7954,
      "Ġbetalningen": 7955,
      "Ġkat": 7956,
      "Ġfinansiera": 7957,
      "hertig": 7958,
      "Ġliten": 7959,
      "Ġavseendet": 7960,
      "Ġaterfor": 7961,
      "Ġvalt": 7962,
      "Ġbolagen": 7963,
      "Ġ1975": 7964,
      "Ġforber": 7965,
      "Ġolja": 7966,
      "Ġutslapps": 7967,
      "Ġeuropol": 7968,
      "Ġke": 7969,
      "Ġvatt": 7970,
      "kontoret": 7971,
      "Ġnatdejting": 7972,
      "Ġinleddes": 7973,
      "Ġupprepade": 7974,
      "Ġcit": 7975,
      "Ġforvantade": 7976,
      "Ġtjocklek": 7977,
      "Ġdon": 7978,
      "union": 7979,
      "ctor": 7980,
      "Ġindon": 7981,
      "Ġcell": 7982,
      "Ġvir": 7983,
      "stang": 7984,
      "Ġunge": 7985,
      "Ġfullstandiga": 7986,
      "Ġkonstruerade": 7987,
      "Ġavveckling": 7988,
      "Ġavslutats": 7989,
      "Ġ290": 7990,
      "Ġ011": 7991,
      "Ġwork": 7992,
      "Ġadhd": 7993,
      "Ġstorhertig": 7994,
      "Ġmedicinska": 7995,
      "Ġcru": 7996,
      "trad": 7997,
      "ham": 7998,
      "domstolens": 7999,
      "Ġforekommit": 8000,
      "olik": 8001,
      "resen": 8002,
      "Ġforstark": 8003,
      "Ġkallor": 8004,
      "Ġborts": 8005,
      "Ġsrl": 8006,
      "Ġ235": 8007,
      "Ġtillgangligt": 8008,
      "Ġ162": 8009,
      "Ġtimmer": 8010,
      "hz": 8011,
      "Ġbeaktats": 8012,
      "sbi": 8013,
      "myndigheterna": 8014,
      "Ġkil": 8015,
      "Ġaterkalla": 8016,
      "Ġkodifi": 8017,
      "Ġfrysta": 8018,
      "Ġgenerellt": 8019,
      "Ġxi": 8020,
      "Ġolaf": 8021,
      "Ġproced": 8022,
      "Ø§Ø¨": 8023,
      "Ġatnjut": 8024,
      "dt": 8025,
      "wan": 8026,
      "Ġ240": 8027,
      "Ġlagstiftnings": 8028,
      "Ġanstallningsfor": 8029,
      "Ġgiv": 8030,
      "Ġexakta": 8031,
      "fria": 8032,
      "Ġinspektioner": 8033,
      "cs": 8034,
      "fast": 8035,
      "Ġluftrum": 8036,
      "Ġprocesser": 8037,
      "Ġandrar": 8038,
      "opera": 8039,
      "Ġmusi": 8040,
      "Ġdestin": 8041,
      "Ġautomatisk": 8042,
      "Ġslutligt": 8043,
      "waltungs": 8044,
      "ase": 8045,
      "Ġmekanism": 8046,
      "Ġht": 8047,
      "Ġutlat": 8048,
      "skol": 8049,
      "Ġoverforas": 8050,
      "skriteri": 8051,
      "Ġstandiga": 8052,
      "Ġutdelning": 8053,
      "Ġknutna": 8054,
      "Ġdok": 8055,
      "Ġomfattade": 8056,
      "Ġarg": 8057,
      "Ġ343": 8058,
      "rr": 8059,
      "Ġ208": 8060,
      "Ġstoder": 8061,
      "Ġrepresentativ": 8062,
      "stids": 8063,
      "skedjan": 8064,
      "Ġinleds": 8065,
      "Ġboksta": 8066,
      "ranta": 8067,
      "friheten": 8068,
      "Ġgiltighetstid": 8069,
      "Ġversionen": 8070,
      "Ġforbjudet": 8071,
      "Ġutlan": 8072,
      "Ġansvara": 8073,
      "Ġmotparten": 8074,
      "Ġutre": 8075,
      "Ġrads": 8076,
      "Ġstrom": 8077,
      "olitiska": 8078,
      "Ġkorkort": 8079,
      "Ġmarknadsforing": 8080,
      "Ġverkningarna": 8081,
      "Ġminimik": 8082,
      "Ġstran": 8083,
      "Ġkonsekvenserna": 8084,
      "Ġrut": 8085,
      "innehall": 8086,
      "Ġverkar": 8087,
      "Ġindelningskriterier": 8088,
      "Ġverklig": 8089,
      "Ġutovas": 8090,
      "Ġbudgetar": 8091,
      "Ġrorde": 8092,
      "deras": 8093,
      "Ġplacering": 8094,
      "Ġimmunitet": 8095,
      "ttjanster": 8096,
      "Ġias": 8097,
      "pliktiga": 8098,
      "Ġatervinning": 8099,
      "Ġbifogas": 8100,
      "Ġifrs": 8101,
      "Ġunionsniva": 8102,
      "behand": 8103,
      "Ġaterstaende": 8104,
      "vien": 8105,
      "Ġliknar": 8106,
      "Ġnaturliga": 8107,
      "Ġgummi": 8108,
      "Ġbekamp": 8109,
      "Ġthail": 8110,
      "Ġriktat": 8111,
      "Ġbyggnads": 8112,
      "Ġsed": 8113,
      "byrans": 8114,
      "Ġgodtagbar": 8115,
      "Ġpark": 8116,
      "Ġofficiellt": 8117,
      "Ġ256": 8118,
      "Ġomkring": 8119,
      "Ġframtiden": 8120,
      "Ġref": 8121,
      "Ġavslutas": 8122,
      "Ġmotiveringsskyldigheten": 8123,
      "Ġ621": 8124,
      "Ġsaljs": 8125,
      "Ġungefar": 8126,
      "Ġdiff": 8127,
      "inn": 8128,
      "Ġosterrikiska": 8129,
      "esi": 8130,
      "Ġ194": 8131,
      "Ġnoll": 8132,
      "Ġopar": 8133,
      "Ġinput": 8134,
      "Ġbekraftade": 8135,
      "Ġai": 8136,
      "Ġokat": 8137,
      "stiftningen": 8138,
      "Ġfordelningen": 8139,
      "kvantitet": 8140,
      "Ġsiffror": 8141,
      "Ġmich": 8142,
      "Ġursprungligen": 8143,
      "Ġ820": 8144,
      "Ġagera": 8145,
      "situ": 8146,
      "Ġrattvisa": 8147,
      "Ġamb": 8148,
      "Ġfororeningar": 8149,
      "Ġforsiktighet": 8150,
      "medicin": 8151,
      "Ġusa": 8152,
      "Ġbefintlig": 8153,
      "Ġhenne": 8154,
      "lex": 8155,
      "rats": 8156,
      "Ġutsade": 8157,
      "Ġmottagit": 8158,
      "Ġhavdar": 8159,
      "ĠÃĹ": 8160,
      "osi": 8161,
      "ktjanster": 8162,
      "Ġlagligen": 8163,
      "Ġtillskri": 8164,
      "Ġjon": 8165,
      "Ġregistrera": 8166,
      "Ġfron": 8167,
      "ivor": 8168,
      "Ġintraff": 8169,
      "Ġetik": 8170,
      "antin": 8171,
      "Ġramprogrammet": 8172,
      "Ġjusteringar": 8173,
      "Ġiakttagande": 8174,
      "Ġorsakssam": 8175,
      "ĠÂ«": 8176,
      "Ġze": 8177,
      "ktan": 8178,
      "Ġ236": 8179,
      "edi": 8180,
      "forder": 8181,
      "Ġrattsordning": 8182,
      "Ġoverskrider": 8183,
      "Ġutesluter": 8184,
      "Ġbeteckningen": 8185,
      "fektion": 8186,
      "Ġflytande": 8187,
      "Ġpresident": 8188,
      "Ġproportioner": 8189,
      "cel": 8190,
      "bemyndiganden": 8191,
      "tryck": 8192,
      "malt": 8193,
      "Ġkarl": 8194,
      "gesetz": 8195,
      "Ġforts": 8196,
      "Ġrym": 8197,
      "Ġ202": 8198,
      "Ġ225": 8199,
      "Ġgrundat": 8200,
      "lings": 8201,
      "Ġoper": 8202,
      "Ġovrig": 8203,
      "Ġonx": 8204,
      "ding": 8205,
      "Ġhamnar": 8206,
      "Ġgott": 8207,
      "Ġduk": 8208,
      "Ġtillampade": 8209,
      "resser": 8210,
      "Ġmarginal": 8211,
      "Ġparag": 8212,
      "Ġetablerat": 8213,
      "Ġuppfoljning": 8214,
      "Ġunga": 8215,
      "Ġskadestandsansvar": 8216,
      "Ġkam": 8217,
      "Ġstrikt": 8218,
      "Ġveckor": 8219,
      "Ġstyrkt": 8220,
      "sprotokollet": 8221,
      "esel": 8222,
      "Ġbyrans": 8223,
      "Ġtjanstemannen": 8224,
      "Ġlikvid": 8225,
      "Ġagreement": 8226,
      "Ġ0001": 8227,
      "kning": 8228,
      "Ġunit": 8229,
      "Ġvagran": 8230,
      "ssen": 8231,
      "Ġwin": 8232,
      "fordraget": 8233,
      "Ġanforde": 8234,
      "utit": 8235,
      "Ġ216": 8236,
      "Ġrepresenta": 8237,
      "verkat": 8238,
      "centrum": 8239,
      "fas": 8240,
      "direktoren": 8241,
      "Ġavva": 8242,
      "amid": 8243,
      "Ġbradskande": 8244,
      "Ġinvandningsforfarande": 8245,
      "Ġsolas": 8246,
      "Ġtermin": 8247,
      "use": 8248,
      "Ġavsta": 8249,
      "Ġforsedda": 8250,
      "Ġanti": 8251,
      "kod": 8252,
      "Ġolje": 8253,
      "Ġmekanismer": 8254,
      "Ġinval": 8255,
      "Ġassi": 8256,
      "Ġpositiva": 8257,
      "Ġgenomforandeakter": 8258,
      "roso": 8259,
      "Ġkva": 8260,
      "Ġrapporterings": 8261,
      "fre": 8262,
      "maceu": 8263,
      "Ġrepresentativa": 8264,
      "Ġsannolik": 8265,
      "Ġaktivt": 8266,
      "Ġkontra": 8267,
      "Ġade": 8268,
      "mbol": 8269,
      "Ġskedde": 8270,
      "Ġursprungsintyg": 8271,
      "030": 8272,
      "Ġanlaggningen": 8273,
      "Ġtillverkade": 8274,
      "Ġhanvisningen": 8275,
      "ungen": 8276,
      "Ġsocialt": 8277,
      "isel": 8278,
      "Ġ193": 8279,
      "Ġklader": 8280,
      "ili": 8281,
      "Ġmc": 8282,
      "Ġunderskrifter": 8283,
      "Ġstopp": 8284,
      "jet": 8285,
      "ssystemen": 8286,
      "Ġpaket": 8287,
      "Ġbesluts": 8288,
      "Ġundantagen": 8289,
      "Ġprovisoriska": 8290,
      "Ġstamp": 8291,
      "priserna": 8292,
      "Ġmisstan": 8293,
      "opro": 8294,
      "Ġuteslutas": 8295,
      "Ġskjut": 8296,
      "Ġkund": 8297,
      "sforvalt": 8298,
      "hem": 8299,
      "Ġaccep": 8300,
      "ila": 8301,
      "Ġ258": 8302,
      "Ġprovisoriskt": 8303,
      "Ġtillverknings": 8304,
      "skyddet": 8305,
      "Ġutvidgning": 8306,
      "Ġkomplett": 8307,
      "Ġliter": 8308,
      "Ġbetydligt": 8309,
      "ÑĢÐ°": 8310,
      "tish": 8311,
      "Ġkonsul": 8312,
      "Ġdelas": 8313,
      "Ġthailand": 8314,
      "Ġbekampning": 8315,
      "Ġfaststallelse": 8316,
      "Ġaktenskap": 8317,
      "forvaltning": 8318,
      "Ġandrades": 8319,
      "Ġmandat": 8320,
      "isch": 8321,
      "skontoret": 8322,
      "proces": 8323,
      "borg": 8324,
      "Ġutokad": 8325,
      "Ġpolicy": 8326,
      "Ġatertagande": 8327,
      "Ġlagstiftaren": 8328,
      "Ġutredningar": 8329,
      "Ġstorhertigdomet": 8330,
      "Ġstry": 8331,
      "Ġfoljderna": 8332,
      "Ġdifferenti": 8333,
      "sspe": 8334,
      "Ġbestrid": 8335,
      "forslag": 8336,
      "tillskott": 8337,
      "Ġtat": 8338,
      "Ġenhetligt": 8339,
      "Ġtorr": 8340,
      "Ġskatteplikt": 8341,
      "Ġbelgi": 8342,
      "ĠØĮ": 8343,
      "Ġforhandlings": 8344,
      "Ġanbudsgivare": 8345,
      "Ġcorporation": 8346,
      "Ġtilltra": 8347,
      "Ġlans": 8348,
      "ekonom": 8349,
      "Ġ302": 8350,
      "tillverk": 8351,
      "Ġdiver": 8352,
      "Ġsund": 8353,
      "overenskomm": 8354,
      "Ġavkast": 8355,
      "stanser": 8356,
      "Ġoverklagandenamnd": 8357,
      "Ġmotiverar": 8358,
      "Ġsjukhus": 8359,
      "fan": 8360,
      "Ġutnyttjas": 8361,
      "Ġokar": 8362,
      "Ġpubliceras": 8363,
      "Ġsaluforing": 8364,
      "ografi": 8365,
      "Ġfunnit": 8366,
      "Ġerhallna": 8367,
      "skoe": 8368,
      "Ġkonstaterades": 8369,
      "Ġforeskrevs": 8370,
      "Ġstrategin": 8371,
      "Ġip": 8372,
      "saktioner": 8373,
      "Ġbeskrivningen": 8374,
      "Ġstabilitet": 8375,
      "ckande": 8376,
      "Ġdetaljerad": 8377,
      "Ġbranslen": 8378,
      "utsch": 8379,
      "Ġgenomfordes": 8380,
      "styp": 8381,
      "ssy": 8382,
      "Ġerforder": 8383,
      "period": 8384,
      "Ġrattegangskostnad": 8385,
      "overvakning": 8386,
      "Ġdie": 8387,
      "Ġ247": 8388,
      "Ġkollektiva": 8389,
      "Ġtullkodexen": 8390,
      "Ġvetenskaplig": 8391,
      "Ġcommunity": 8392,
      "Ġavsevart": 8393,
      "Ġbeskaff": 8394,
      "Ġtogs": 8395,
      "varu": 8396,
      "iges": 8397,
      "Ġutesluta": 8398,
      "Ġstabiliserings": 8399,
      "Ġ590": 8400,
      "Ġ280": 8401,
      "Ġuppgick": 8402,
      "Ġavfalls": 8403,
      "Ġmill": 8404,
      "Ġvideos": 8405,
      "Ġkung": 8406,
      "ommande": 8407,
      "Ġbakom": 8408,
      "Ġcoun": 8409,
      "Ġ183": 8410,
      "Ġsjot": 8411,
      "Ġtjansteleverantorer": 8412,
      "Ġmaked": 8413,
      "Ġcentre": 8414,
      "Ġolamp": 8415,
      "sakerheten": 8416,
      "Ġfilial": 8417,
      "Ġanslutningen": 8418,
      "900": 8419,
      "Ġkatal": 8420,
      "Ġnav": 8421,
      "atsen": 8422,
      "Ġbeviljade": 8423,
      "Ġdemokratiska": 8424,
      "fod": 8425,
      "Ġ233": 8426,
      "Ġeuropaavtalet": 8427,
      "zen": 8428,
      "nars": 8429,
      "Ġcu": 8430,
      "vest": 8431,
      "Ġforklarade": 8432,
      "Ġgoda": 8433,
      "Ġfarliga": 8434,
      "klorid": 8435,
      "Ġvapen": 8436,
      "Ġexception": 8437,
      "Ġplanering": 8438,
      "Ġministeriet": 8439,
      "Ġ335": 8440,
      "Ġomsattningskrets": 8441,
      "skoeffici": 8442,
      "aviska": 8443,
      "natet": 8444,
      "Ġtai": 8445,
      "Ġbokforing": 8446,
      "Ġackredi": 8447,
      "Ġtraff": 8448,
      "pat": 8449,
      "Ġ750": 8450,
      "Ġ212": 8451,
      "Ġvore": 8452,
      "Ġtulltaxan": 8453,
      "cit": 8454,
      "Ġ188": 8455,
      "Ġkoncernen": 8456,
      "Ġterritoriet": 8457,
      "Ġanmarkningen": 8458,
      "sledning": 8459,
      "Ġvarier": 8460,
      "Ġbevisningen": 8461,
      "leum": 8462,
      "Ġutredningen": 8463,
      "Ġtyder": 8464,
      "Ġvidtar": 8465,
      "Ġlev": 8466,
      "sek": 8467,
      "Ġforlanga": 8468,
      "Ġbestand": 8469,
      "ÙĪÙĨ": 8470,
      "rister": 8471,
      "Ġtolka": 8472,
      "Ġmotorer": 8473,
      "Ġforordningens": 8474,
      "ikanska": 8475,
      "Ġxvi": 8476,
      "Ġvederborlig": 8477,
      "Ġjean": 8478,
      "Ġprestation": 8479,
      "Ġavgifterna": 8480,
      "Ġbrit": 8481,
      "sidan": 8482,
      "Ġbitradd": 8483,
      "Ġatfoljas": 8484,
      "Ġ206": 8485,
      "Ġnasta": 8486,
      "Ġutbyta": 8487,
      "hen": 8488,
      "Ġpos": 8489,
      "Ġcle": 8490,
      "9000": 8491,
      "Ġmojligheterna": 8492,
      "Ġlivsmilj": 8493,
      "driv": 8494,
      "Ġefterlevnaden": 8495,
      "Ġkommunen": 8496,
      "Ġkvoten": 8497,
      "Ġsubstans": 8498,
      "Ġlyder": 8499,
      "Ġags": 8500,
      "Ġmjol": 8501,
      "Ġpop": 8502,
      "Ġogilla": 8503,
      "Ġvederborligen": 8504,
      "Ġ090": 8505,
      "institution": 8506,
      "steknik": 8507,
      "lett": 8508,
      "Ġhallbarhet": 8509,
      "Ġanstrang": 8510,
      "Ġtillampades": 8511,
      "Ġkontakter": 8512,
      "cept": 8513,
      "Ġlakare": 8514,
      "Ġfordragen": 8515,
      "ester": 8516,
      "Ġbesok": 8517,
      "Ġaterges": 8518,
      "Ġdeklaration": 8519,
      "Ġhigh": 8520,
      "Ġ217": 8521,
      "Ġhandlag": 8522,
      "Ġbifogade": 8523,
      "Ġvariab": 8524,
      "Ġsokandebolaget": 8525,
      "forsorj": 8526,
      "Ġoffice": 8527,
      "Ġedsforbundet": 8528,
      "Ġbetydelsen": 8529,
      "funktion": 8530,
      "frika": 8531,
      "Ġmitt": 8532,
      "kost": 8533,
      "ĠØŃ": 8534,
      "Ġrackvidden": 8535,
      "Ġutman": 8536,
      "Ġundantagna": 8537,
      "ynd": 8538,
      "Ġ268": 8539,
      "apper": 8540,
      "Ġfrivillig": 8541,
      "Ġavdelningar": 8542,
      "Ġ296": 8543,
      "Ġforetrade": 8544,
      "Ġunderrattas": 8545,
      "Ġkonfidentiella": 8546,
      "Ġtunis": 8547,
      "umenter": 8548,
      "Ġ205": 8549,
      "vsnitt": 8550,
      "Ġ255": 8551,
      "Ġhalften": 8552,
      "Ġone": 8553,
      "Ġmic": 8554,
      "Ġsjalvstandigt": 8555,
      "illa": 8556,
      "redo": 8557,
      "drycker": 8558,
      "Ġregistreringsansokan": 8559,
      "Ġisrael": 8560,
      "Ø¯ÙĬ": 8561,
      "Ġbokfor": 8562,
      "Ġbekrafta": 8563,
      "beskattning": 8564,
      "Ġsmor": 8565,
      "Ġutvecklas": 8566,
      "Ġbrev": 8567,
      "Ġomsesidiga": 8568,
      "Ġallmanintresse": 8569,
      "Ġ179": 8570,
      "Ġbestammas": 8571,
      "Ġsakert": 8572,
      "Ġ575": 8573,
      "Ġ0805": 8574,
      "pack": 8575,
      "eraren": 8576,
      "Ġupptas": 8577,
      "dena": 8578,
      "trol": 8579,
      "ros": 8580,
      "bilaga": 8581,
      "Ġbyggsektorn": 8582,
      "Ġdruv": 8583,
      "Ġkontrollsystem": 8584,
      "atag": 8585,
      "Ġbox": 8586,
      "Ġinvandnings": 8587,
      "alth": 8588,
      "Ġsis": 8589,
      "Ġkapitalkra": 8590,
      "Ġtydlig": 8591,
      "Ġgodkanns": 8592,
      "Ġgick": 8593,
      "Ġmottagandet": 8594,
      "Ġtrade": 8595,
      "Ġbortska": 8596,
      "end": 8597,
      "Ġforum": 8598,
      "amma": 8599,
      "Ġforesla": 8600,
      "skraven": 8601,
      "Ġmedges": 8602,
      "Ġaterin": 8603,
      "Ġ232": 8604,
      "Õ«Õ": 8605,
      "aket": 8606,
      "aster": 8607,
      "Ġonod": 8608,
      "Ġunderlatt": 8609,
      "Ġavrundat": 8610,
      "Ð¸Ñı": 8611,
      "Ġalternativt": 8612,
      "Ġinkomsterna": 8613,
      "Ġglobal": 8614,
      "sover": 8615,
      "Ġofor": 8616,
      "Ġ530": 8617,
      "Ġenergieffe": 8618,
      "Ġtelevision": 8619,
      "Ġjugoslaviska": 8620,
      "Ġlokaler": 8621,
      "Ġloptid": 8622,
      "Ġune": 8623,
      "Ġnyttjande": 8624,
      "Ġbevar": 8625,
      "Ġforslagets": 8626,
      "Ġinvalid": 8627,
      "ew": 8628,
      "Ġ659": 8629,
      "Ġye": 8630,
      "Ġlikvida": 8631,
      "Ġmarknadens": 8632,
      "Ġredovisas": 8633,
      "bedomningen": 8634,
      "Ġsport": 8635,
      "Ġ203": 8636,
      "Ġingiv": 8637,
      "Ġsalja": 8638,
      "Ġ1971": 8639,
      "Ġbus": 8640,
      "Ġvux": 8641,
      "svatten": 8642,
      "Ġarrest": 8643,
      "Ġstrutsfaglar": 8644,
      "Ġtjugonde": 8645,
      "Ġanordning": 8646,
      "bert": 8647,
      "Ġlq": 8648,
      "sidor": 8649,
      "Ġdumpade": 8650,
      "Ġdisku": 8651,
      "ision": 8652,
      "befogenheter": 8653,
      "Ġtullsats": 8654,
      "Ġhallbart": 8655,
      "Ġtillats": 8656,
      "Ġfinna": 8657,
      "Ġkontrollerna": 8658,
      "Ġravaror": 8659,
      "Ġrodrig": 8660,
      "Ġforeskrifterna": 8661,
      "Ġyen": 8662,
      "Ġuttommande": 8663,
      "Ġbelagen": 8664,
      "Ġinbegripna": 8665,
      "horande": 8666,
      "gd": 8667,
      "Ġvardepappersforetag": 8668,
      "elle": 8669,
      "Ġconse": 8670,
      "Ġpolitisk": 8671,
      "Ġatnju": 8672,
      "Î¿ÏĤ": 8673,
      "ellschaft": 8674,
      "Ġunionsmarknaden": 8675,
      "ĠÐ½": 8676,
      "Ġsamhallsomfattande": 8677,
      "Ġchef": 8678,
      "Ġesp": 8679,
      "Ġlader": 8680,
      "chts": 8681,
      "Ġmb": 8682,
      "pass": 8683,
      "Ġagerar": 8684,
      "Ġlage": 8685,
      "Ġtings": 8686,
      "Ġrattstjansten": 8687,
      "Ġuppstalls": 8688,
      "Ġutfardade": 8689,
      "Ġnettovikt": 8690,
      "Ġframhallit": 8691,
      "Ġomlast": 8692,
      "Ġtillkannagiv": 8693,
      "ĠØ¬": 8694,
      "Ġ847": 8695,
      "Ġmedgett": 8696,
      "Ġ2025": 8697,
      "Ġvideo": 8698,
      "Ġvilseled": 8699,
      "cerings": 8700,
      "Ġ2024": 8701,
      "Ġ195": 8702,
      "Ġriktade": 8703,
      "rads": 8704,
      "stallningen": 8705,
      "Ġpartnerskapsavtalet": 8706,
      "Ġplus": 8707,
      "lingen": 8708,
      "040": 8709,
      "etyl": 8710,
      "Ġkoden": 8711,
      "Ġannars": 8712,
      "Ġhandlande": 8713,
      "ias": 8714,
      "Ġ241": 8715,
      "Ġbristfall": 8716,
      "Ġoverensstam": 8717,
      "Ġgros": 8718,
      "Ġmultipli": 8719,
      "Ġ259": 8720,
      "Ġtaric": 8721,
      "bekampning": 8722,
      "Ġunionsmedborgare": 8723,
      "Ġdoma": 8724,
      "Ġwien": 8725,
      "Ġelektroniskt": 8726,
      "Ġvidarebe": 8727,
      "Ġundersoknings": 8728,
      "Ġinkomstskatt": 8729,
      "Ġsprid": 8730,
      "Ġ222": 8731,
      "Ġoliv": 8732,
      "Ġvistas": 8733,
      "Ġbemyndigande": 8734,
      "Ġbevisa": 8735,
      "Ġsvarar": 8736,
      "Ġavlopp": 8737,
      "Ġvertika": 8738,
      "Ġmanag": 8739,
      "cykel": 8740,
      "Ġvegetabiliska": 8741,
      "Ġegy": 8742,
      "Ġmangden": 8743,
      "Ġavgorandet": 8744,
      "Ġsoka": 8745,
      "Ġpagar": 8746,
      "Ġ1972": 8747,
      "Ġhit": 8748,
      "Ġsandningar": 8749,
      "Ġhaller": 8750,
      "etjanster": 8751,
      "num": 8752,
      "aring": 8753,
      "Ġmay": 8754,
      "Ġgetts": 8755,
      "Ġintervenient": 8756,
      "sekv": 8757,
      "ods": 8758,
      "spapper": 8759,
      "Ġatomen": 8760,
      "Ġprofession": 8761,
      "Ġ1968": 8762,
      "Ġdeutsch": 8763,
      "vtal": 8764,
      "uropa": 8765,
      "produkt": 8766,
      "ÙĥØ³": 8767,
      "Ġkommande": 8768,
      "Ġriskerna": 8769,
      "Ġcin": 8770,
      "Ġdynam": 8771,
      "Ġkonferens": 8772,
      "Ġfinancial": 8773,
      "Ġgemenskapslagstiftningen": 8774,
      "otek": 8775,
      "Ġits": 8776,
      "Ġcur": 8777,
      "Ġforsakran": 8778,
      "Ġleveran": 8779,
      "Ġbur": 8780,
      "Ġarv": 8781,
      "Ġlicenser": 8782,
      "Ġprioriteringar": 8783,
      "Ġcat": 8784,
      "ĠÐ¸": 8785,
      "Ġeurostat": 8786,
      "Ġregelverket": 8787,
      "Ġhojd": 8788,
      "Ġmatning": 8789,
      "Ġhjalpa": 8790,
      "Ġsjom": 8791,
      "centra": 8792,
      "Ġavslog": 8793,
      "Ġstrategier": 8794,
      "Ġtillatas": 8795,
      "Ġlant": 8796,
      "Ġgovt": 8797,
      "ÙĬÙĦ": 8798,
      "Ġdelarna": 8799,
      "Ġovre": 8800,
      "Ġmiljarder": 8801,
      "Ġgradvis": 8802,
      "Ġunderstry": 8803,
      "Ġvetenskapligt": 8804,
      "Ġtelekommunikation": 8805,
      "bilar": 8806,
      "Ġhalls": 8807,
      "Ġkompletterar": 8808,
      "eringsorder": 8809,
      "Ġexporteras": 8810,
      "Ġkopplade": 8811,
      "xt": 8812,
      "ÑĬ": 8813,
      "Ġvagnarordforande": 8814,
      "Ġesta": 8815,
      "Ġgeneraldirektoratet": 8816,
      "Ġvilandeforklara": 8817,
      "terats": 8818,
      "utnytt": 8819,
      "Ġinbegripa": 8820,
      "Ġforhallandena": 8821,
      "Ġgodt": 8822,
      "Ġnyligen": 8823,
      "Ġ245": 8824,
      "dustri": 8825,
[...]
