{
  "version": "1.0",
  "truncation": null,
  "padding": null,
  "added_tokens": [
    {
      "id": 0,
      "content": "<pad>",
      "single_word": false,
      "lstrip": false,
      "rstrip": false,
      "normalized": false,
      "special": true
    },
    {
      "id": 1,
      "content": "<s>",
      "single_word": false,
      "lstrip": false,
      "rstrip": false,
      "normalized": false,
      "special": true
    },
    {
      "id": 2,
      "content": "</s>",
      "single_word": false,
      "lstrip": false,
      "rstrip": false,
      "normalized": false,
      "special": true
    },
    {
      "id": 3,
      "content": "<unk>",
      "single_word": false,
      "lstrip": false,
      "rstrip": false,
      "normalized": false,
      "special": true
    },
    {
      "id": 4,
      "content": "<mask>",
      "single_word": false,
      "lstrip": false,
      "rstrip": false,
      "normalized": false,
      "special": true
    }
  ],
  "normalizer": {
    "type": "Sequence",
    "normalizers": [
      {
        "type": "NFKD"
      },
      {
        "type": "BertNormalizer",
        "clean_text": true,
        "handle_chinese_chars": true,
        "strip_accents": null,
        "lowercase": true
      }
    ]
  },
  "pre_tokenizer": {
    "type": "Sequence",
    "pretokenizers": [
      {
        "type": "BertPreTokenizer"
      },
      {
        "type": "ByteLevel",
        "add_prefix_space": true,
        "trim_offsets": true,
        "use_regex": true
      }
    ]
  },
  "post_processor": {
    "type": "RobertaProcessing",
    "sep": [
      "</s>",
      2
    ],
    "cls": [
      "<s>",
      1
    ],
    "trim_offsets": true,
    "add_prefix_space": true
  },
  "decoder": {
    "type": "ByteLevel",
    "add_prefix_space": true,
    "trim_offsets": true,
    "use_regex": true
  },
  "model": {
    "type": "BPE",
    "dropout": null,
    "unk_token": "<unk>",
    "continuing_subword_prefix": null,
    "end_of_word_suffix": null,
    "fuse_unk": false,
    "vocab": {
      "<pad>": 0,
      "<s>": 1,
      "</s>": 2,
      "<unk>": 3,
      "<mask>": 4,
      "!": 5,
      "\"": 6,
      "#": 7,
      "$": 8,
      "%": 9,
      "&": 10,
      "'": 11,
      "(": 12,
      ")": 13,
      "*": 14,
      "+": 15,
      ",": 16,
      "-": 17,
      ".": 18,
      "/": 19,
      "0": 20,
      "1": 21,
      "2": 22,
      "3": 23,
      "4": 24,
      "5": 25,
      "6": 26,
      "7": 27,
      "8": 28,
      "9": 29,
      ":": 30,
      ";": 31,
      "<": 32,
      "=": 33,
      ">": 34,
      "?": 35,
      "@": 36,
      "[": 37,
      "\\": 38,
      "]": 39,
      "^": 40,
      "_": 41,
      "`": 42,
      "a": 43,
      "b": 44,
      "c": 45,
      "d": 46,
      "e": 47,
      "f": 48,
      "g": 49,
      "h": 50,
      "i": 51,
      "j": 52,
      "k": 53,
      "l": 54,
      "m": 55,
      "n": 56,
      "o": 57,
      "p": 58,
      "q": 59,
      "r": 60,
      "s": 61,
      "t": 62,
      "u": 63,
      "v": 64,
      "w": 65,
      "x": 66,
      "y": 67,
      "z": 68,
      "{": 69,
      "|": 70,
      "}": 71,
      "~": 72,
      "¡": 73,
      "¢": 74,
      "£": 75,
      "¤": 76,
      "¥": 77,
      "¦": 78,
      "§": 79,
      "¨": 80,
      "©": 81,
      "ª": 82,
      "«": 83,
      "¬": 84,
      "®": 85,
      "¯": 86,
      "°": 87,
      "±": 88,
      "²": 89,
      "³": 90,
      "´": 91,
      "µ": 92,
      "¶": 93,
      "·": 94,
      "¸": 95,
      "¹": 96,
      "º": 97,
      "»": 98,
      "¼": 99,
      "½": 100,
      "¾": 101,
      "¿": 102,
      "Â": 103,
      "Ã": 104,
      "Ä": 105,
      "Å": 106,
      "Æ": 107,
      "É": 108,
      "Ê": 109,
      "Ë": 110,
      "Î": 111,
      "Ï": 112,
      "Ð": 113,
      "Ñ": 114,
      "Ò": 115,
      "Õ": 116,
      "Ö": 117,
      "×": 118,
      "Ø": 119,
      "Ù": 120,
      "Ú": 121,
      "Û": 122,
      "ß": 123,
      "à": 124,
      "á": 125,
      "â": 126,
      "ã": 127,
      "ä": 128,
      "å": 129,
      "æ": 130,
      "ç": 131,
      "è": 132,
      "é": 133,
      "ð": 134,
      "Ġ": 135,
      "Ģ": 136,
      "ģ": 137,
      "Ĥ": 138,
      "ĥ": 139,
      "Ħ": 140,
      "ħ": 141,
      "Ĩ": 142,
      "ĩ": 143,
      "Ī": 144,
      "ī": 145,
      "Ĭ": 146,
      "ĭ": 147,
      "Į": 148,
      "į": 149,
      "İ": 150,
      "ı": 151,
      "Ĳ": 152,
      "ĳ": 153,
      "Ĵ": 154,
      "ĵ": 155,
      "Ķ": 156,
      "ķ": 157,
      "ĸ": 158,
      "Ĺ": 159,
      "ĺ": 160,
      "Ļ": 161,
      "ļ": 162,
      "Ľ": 163,
      "ľ": 164,
      "Ŀ": 165,
      "ŀ": 166,
      "Ł": 167,
      "ł": 168,
      "Ń": 169,
      "Ġa": 170,
      "el": 171,
      "es": 172,
      "en": 173,
      "et": 174,
      "al": 175,
      "Ġ.": 176,
      "at": 177,
      "er": 178,
      "ek": 179,
      "Ġk": 180,
      "Ġ,": 181,
      "sz": 182,
      "eg": 183,
      "an": 184,
      "Ġm": 185,
      "as": 186,
      "Ġt": 187,
      "Ġh": 188,
      "ar": 189,
      "it": 190,
      "oz": 191,
      "Ġv": 192,
      "ol": 193,
      "ez": 194,
      "ag": 195,
      "Ġaz": 196,
      "on": 197,
      "em": 198,
      "os": 199,
      "ot": 200,
      "Ġb": 201,
      "Ġsz": 202,
      "ok": 203,
      "Ġf": 204,
      "Ġ1": 205,
      "Ġn": 206,
      "in": 207,
      "Ġal": 208,
      "Ġ2": 209,
      "or": 210,
      "Ġ)": 211,
      "og": 212,
      "Ġâ": 213,
      "ak": 214,
      "ĠâĢ": 215,
      "Ġes": 216,
      "Ġi": 217,
      "Ġc": 218,
      "az": 219,
      "Ġ(": 220,
      "Ġel": 221,
      "ott": 222,
      "ul": 223,
      "Ġ-": 224,
      "Ġr": 225,
      "am": 226,
      "Ġmeg": 227,
      "ik": 228,
      "Ġnem": 229,
      "Ġp": 230,
      "Ġe": 231,
      "Ġl": 232,
      "ben": 233,
      "Ġj": 234,
      "ett": 235,
      "do": 236,
      "Ġ/": 237,
      "iz": 238,
      "int": 239,
      "ap": 240,
      "00": 241,
      "alm": 242,
      "ab": 243,
      "gy": 244,
      "egy": 245,
      "seg": 246,
      "ely": 247,
      "almaz": 248,
      "all": 249,
      "Ġu": 250,
      "Ġ3": 251,
      "eny": 252,
      "esz": 253,
      "Ġs": 254,
      "Ġalk": 255,
      "ed": 256,
      "ov": 257,
      "Ġfel": 258,
      "end": 259,
      "ogy": 260,
      "od": 261,
      "Ġalkalmaz": 262,
      "ĠâĢĵ": 263,
      "Ġer": 264,
      "ell": 265,
      "Ġhogy": 266,
      "Ġrend": 267,
      "ir": 268,
      "any": 269,
      "Ġ:": 270,
      "Ġ0": 271,
      "agy": 272,
      "koz": 273,
      "ont": 274,
      "Ġegy": 275,
      "ando": 276,
      "ev": 277,
      "ad": 278,
      "Ġki": 279,
      "art": 280,
      "ni": 281,
      "Ġalkalmazando": 282,
      "sag": 283,
      "ent": 284,
      "elet": 285,
      "Ġ4": 286,
      "Ġhat": 287,
      "Ġ5": 288,
      "cs": 289,
      "ban": 290,
      "Ġkoz": 291,
      "is": 292,
      "Ġam": 293,
      "Ġd": 294,
      "ra": 295,
      "Ġbiz": 296,
      "ikk": 297,
      "re": 298,
      "Ġcikk": 299,
      "Ġ_": 300,
      "ep": 301,
      "hat": 302,
      "Ġval": 303,
      "kez": 304,
      "Ġ20": 305,
      "Ġvagy": 306,
      "Ġszer": 307,
      "ese": 308,
      "itas": 309,
      "il": 310,
      "Ġeu": 311,
      "Ġker": 312,
      "om": 313,
      "ja": 314,
      "enek": 315,
      "asz": 316,
      "ci": 317,
      "Ġjog": 318,
      "Ġ200": 319,
      "tal": 320,
      "ai": 321,
      "ĠâĢĲ": 322,
      "nak": 323,
      "aj": 324,
      "Ġir": 325,
      "Ġall": 326,
      "Ġ9": 327,
      "us": 328,
      "atkoz": 329,
      "Ġ|": 330,
      "eben": 331,
      "elm": 332,
      "Ġ6": 333,
      "iv": 334,
      "Ġkell": 335,
      "gal": 336,
      "ert": 337,
      "uk": 338,
      "Ġter": 339,
      "Ġ7": 340,
      "ezd": 341,
      "aroz": 342,
      "let": 343,
      "Ġamely": 344,
      "Ġ8": 345,
      "ovet": 346,
      "Ġugy": 347,
      "szer": 348,
      "nek": 349,
      "aly": 350,
      "ekezd": 351,
      "osag": 352,
      "Ġg": 353,
      "esi": 354,
      "elj": 355,
      "tat": 356,
      "Ġrendelet": 357,
      "Ġez": 358,
      "Ġ201": 359,
      "Ġny": 360,
      "ny": 361,
      "bb": 362,
      "op": 363,
      "esek": 364,
      "Ġalap": 365,
      "ottsag": 366,
      "tet": 367,
      "Ġpont": 368,
      "hoz": 369,
      "het": 370,
      "Ġkovet": 371,
      "Ġvon": 372,
      "Ġert": 373,
      "Ġbekezd": 374,
      "Ġbizottsag": 375,
      "Ġeur": 376,
      "itett": 377,
      "ossz": 378,
      "asi": 379,
      "asok": 380,
      "ej": 381,
      "asa": 382,
      "Ġar": 383,
      "ara": 384,
      "Ġvonatkoz": 385,
      "anak": 386,
      "Ġmin": 387,
      "Ġo": 388,
      "itel": 389,
      "Ġ;": 390,
      "Ġin": 391,
      "olt": 392,
      "Ġszol": 393,
      "Ġtart": 394,
      "um": 395,
      "un": 396,
      "esit": 397,
      "ort": 398,
      "Ġossz": 399,
      "abb": 400,
      "Ġad": 401,
      "Ġ10": 402,
      "Ġaltal": 403,
      "av": 404,
      "len": 405,
      "Ġirany": 406,
      "Ġresz": 407,
      "ut": 408,
      "Ġrendel": 409,
      "oly": 410,
      "osit": 411,
      "Ġis": 412,
      "ere": 413,
      "Ġmod": 414,
      "arm": 415,
      "Ġkor": 416,
      "Ġ19": 417,
      "elv": 418,
      "Ġbir": 419,
      "Ġcs": 420,
      "aban": 421,
      "Ġtelj": 422,
      "Ġil": 423,
      "Ġvalam": 424,
      "bol": 425,
      "Ġtag": 426,
      "meny": 427,
      "azat": 428,
      "Ġmas": 429,
      "lat": 430,
      "Ġen": 431,
      "fel": 432,
      "Ġvonatkozo": 433,
      "Ġgy": 434,
      "Ġ00": 435,
      "est": 436,
      "ig": 437,
      "Ġjel": 438,
      "Ġrendelkez": 439,
      "elem": 440,
      "ony": 441,
      "ĠâĢĿ": 442,
      "Ġan": 443,
      "ĠâĢŀ": 444,
      "Ġle": 445,
      "ezet": 446,
      "zet": 447,
      "allal": 448,
      "ia": 449,
      "eszt": 450,
      "Ġszab": 451,
      "segek": 452,
      "Ġem": 453,
      "Ġelo": 454,
      "acs": 455,
      "Ġhataroz": 456,
      "allap": 457,
      "Ġszerint": 458,
      "Ġbe": 459,
      "Ġveg": 460,
      "allam": 461,
      "Ġtagallam": 462,
      "Ġszem": 463,
      "Ġbirosag": 464,
      "Ġmegallap": 465,
      "Ġterm": 466,
      "oc": 467,
      "ekint": 468,
      "ve": 469,
      "Ġeset": 470,
      "elo": 471,
      "Ġkul": 472,
      "vet": 473,
      "Ġeurop": 474,
      "Ġszam": 475,
      "Ġkot": 476,
      "nal": 477,
      "Ġtan": 478,
      "jar": 479,
      "Ġtekint": 480,
      "Ġint": 481,
      "eket": 482,
      "Ġek": 483,
      "Ġhely": 484,
      "ezett": 485,
      "ĠâĢĶ": 486,
      "Ġ12": 487,
      "eset": 488,
      "okat": 489,
      "Ġhitel": 490,
      "asag": 491,
      "Ġeljar": 492,
      "Ġeuropai": 493,
      "izs": 494,
      "atal": 495,
      "eb": 496,
      "Ġat": 497,
      "Ġit": 498,
      "ter": 499,
      "obb": 500,
      "Ġhoz": 501,
      "jan": 502,
      "Ġuni": 503,
      "ult": 504,
      "rol": 505,
      "Ġiranyelv": 506,
      "Ġkovetkez": 507,
      "ked": 508,
      "Ġkap": 509,
      "Ġ11": 510,
      "enny": 511,
      "Ġ]": 512,
      "ber": 513,
      "Ġ[": 514,
      "Ġfor": 515,
      "ec": 516,
      "Ġhiv": 517,
      "ock": 518,
      "Ġleg": 519,
      "izsgal": 520,
      "so": 521,
      "uj": 522,
      "itott": 523,
      "veny": 524,
      "Ġhatarozat": 525,
      "Ġazon": 526,
      "Ġmeghat": 527,
      "ockazat": 528,
      "Ġeml": 529,
      "Ġ%": 530,
      "evel": 531,
      "Ġtanacs": 532,
      "szt": 533,
      "orsz": 534,
      "id": 535,
      "Ġak": 536,
      "Ġteljesit": 537,
      "ozo": 538,
      "ast": 539,
      "Ġvalo": 540,
      "ujt": 541,
      "Ġtar": 542,
      "Ġitelet": 543,
      "Ġbekezdes": 544,
      "Ġmegfel": 545,
      "fog": 546,
      "ati": 547,
      "ennyi": 548,
      "orszag": 549,
      "Ġmell": 550,
      "Ġfog": 551,
      "Ġmeghataroz": 552,
      "ug": 553,
      "Ġkulon": 554,
      "im": 555,
      "Ġbizt": 556,
      "Ġszabaly": 557,
      "Ġkozos": 558,
      "Ġintez": 559,
      "va": 560,
      "Ġillet": 561,
      "asznal": 562,
      "Ġbekezdese": 563,
      "ugy": 564,
      "Ġbel": 565,
      "Ġkotel": 566,
      "aci": 567,
      "Ġertek": 568,
      "Ġszolgal": 569,
      "Ġha": 570,
      "eres": 571,
      "Ġemlitett": 572,
      "Ġvallal": 573,
      "Ġoly": 574,
      "Ġkapcs": 575,
      "Ġcikke": 576,
      "Ġtor": 577,
      "Ġvalamint": 578,
      "arol": 579,
      "ur": 580,
      "Ġut": 581,
      "Ġ13": 582,
      "hez": 583,
      "ant": 584,
      "leg": 585,
      "Ġolyan": 586,
      "Ġlehet": 587,
      "val": 588,
      "alis": 589,
      "Ġazt": 590,
      "atok": 591,
      "Ġeg": 592,
      "Ġkapcsol": 593,
      "kockazat": 594,
      "Ġmind": 595,
      "Ġ15": 596,
      "pont": 597,
      "lo": 598,
      "aszt": 599,
      "ulet": 600,
      "Ġtort": 601,
      "eklet": 602,
      "kor": 603,
      "Ġig": 604,
      "hato": 605,
      "Ġszolo": 606,
      "Ġkozott": 607,
      "10": 608,
      "for": 609,
      "ositas": 610,
      "Ġtermek": 611,
      "elt": 612,
      "Ġteljesito": 613,
      "Ġalapjan": 614,
      "Ġkep": 615,
      "allitas": 616,
      "Ġellen": 617,
      "ani": 618,
      "Ġvizsgal": 619,
      "Ġertelm": 620,
      "Ġamelyek": 621,
      "ovabb": 622,
      "Ġmelleklet": 623,
      "unk": 624,
      "etes": 625,
      "Ġcikkenek": 626,
      "ajt": 627,
      "Ġmegfelelo": 628,
      "io": 629,
      "eno": 630,
      "be": 631,
      "Ġmint": 632,
      "Ġok": 633,
      "eles": 634,
      "enz": 635,
      "dek": 636,
      "Ġnemzet": 637,
      "Ġtovabb": 638,
      "Ġszerz": 639,
      "Ġpr": 640,
      "azd": 641,
      "Ġ14": 642,
      "Ġeljaras": 643,
      "oseg": 644,
      "ba": 645,
      "ill": 646,
      "Ġszemely": 647,
      "Ġido": 648,
      "ezes": 649,
      "old": 650,
      "ic": 651,
      "za": 652,
      "akor": 653,
      "ebb": 654,
      "Ġind": 655,
      "Ġfej": 656,
      "Ġpontj": 657,
      "eteben": 658,
      "Ġ16": 659,
      "Ġ17": 660,
      "Ġmar": 661,
      "Ġ50": 662,
      "Ġintezked": 663,
      "Ġannak": 664,
      "ta": 665,
      "tetel": 666,
      "ito": 667,
      "etel": 668,
      "20": 669,
      "Ġtorteno": 670,
      "Ġtorveny": 671,
      "ember": 672,
      "Ġerint": 673,
      "Ġved": 674,
      "odes": 675,
      "Ġsor": 676,
      "ged": 677,
      "Ġkiv": 678,
      "Ġ199": 679,
      "asat": 680,
      "jak": 681,
      "Ġmodszer": 682,
      "seges": 683,
      "kent": 684,
      "Ġz": 685,
      "Ġhitelkockazat": 686,
      "Ġ25": 687,
      "Ġvis": 688,
      "Ġvallalkoz": 689,
      "Ġhataly": 690,
      "Ġ30": 691,
      "Ġjelent": 692,
      "ugyi": 693,
      "Ġkerd": 694,
      "Ġtam": 695,
      "Ġfi": 696,
      "yen": 697,
      "azdasag": 698,
      "tol": 699,
      "Ġegyes": 700,
      "Ġkapcsolat": 701,
      "Ġezen": 702,
      "Ġev": 703,
      "many": 704,
      "asara": 705,
      "Ġerdek": 706,
      "Ġsp": 707,
      "lan": 708,
      "Ġhivatkoz": 709,
      "enn": 710,
      "kul": 711,
      "Ġszolgaltat": 712,
      "Ġmag": 713,
      "Ġhatosag": 714,
      "ing": 715,
      "lal": 716,
      "segi": 717,
      "ulo": 718,
      "Ġid": 719,
      "Ġ18": 720,
      "ugg": 721,
      "Ġarra": 722,
      "oen": 723,
      "ogat": 724,
      "Ġegyeb": 725,
      "Ġde": 726,
      "att": 727,
      "leges": 728,
      "Ġesz": 729,
      "Ġelso": 730,
      "Ġpenz": 731,
      "ertek": 732,
      "ĠÂ": 733,
      "ivel": 734,
      "ip": 735,
      "Ġgyakor": 736,
      "Ġszuk": 737,
      "hajt": 738,
      "Ġfelp": 739,
      "Ġtobb": 740,
      "Ġvegre": 741,
      "Ġbizony": 742,
      "Ġ29": 743,
      "Ġfeltetel": 744,
      "tr": 745,
      "Ġeloir": 746,
      "ang": 747,
      "Ġallam": 748,
      "Ġcel": 749,
      "adott": 750,
      "hozatal": 751,
      "Ġ21": 752,
      "form": 753,
      "szak": 754,
      "Ġex": 755,
      "ezo": 756,
      "Ġala": 757,
      "Ġmunk": 758,
      "Ġkitett": 759,
      "Ġhl": 760,
      "tar": 761,
      "jegy": 762,
      "azdasagi": 763,
      "Ġtamogat": 764,
      "Ġteljes": 765,
      "ei": 766,
      "Ġunio": 767,
      "Ġenged": 768,
      "erol": 769,
      "Ġvegrehajt": 770,
      "Ġtev": 771,
      "Ġossze": 772,
      "zes": 773,
      "Ġhal": 774,
      "Ġii": 775,
      "ettel": 776,
      "Ġnyil": 777,
      "Ġrendszer": 778,
      "gat": 779,
      "Ġfigy": 780,
      "iszt": 781,
      "Ġteny": 782,
      "abol": 783,
      "Ġnemzeti": 784,
      "Ġpart": 785,
      "Ġhasznal": 786,
      "Ġszallitas": 787,
      "Ġtagallamok": 788,
      "Ġelter": 789,
      "Ġelfog": 790,
      "ezesi": 791,
      "Ġpontja": 792,
      "Ġx": 793,
      "Ġkitettsegek": 794,
      "Ġmegt": 795,
      "Ġmeghatarozott": 796,
      "ossag": 797,
      "Ġ31": 798,
      "Ġvam": 799,
      "Ġugyben": 800,
      "elmi": 801,
      "sasag": 802,
      "Ġunios": 803,
      "Ġkotelezett": 804,
      "Ġlet": 805,
      "Ġszerv": 806,
      "Ġmivel": 807,
      "ason": 808,
      "jeszt": 809,
      "Ġ23": 810,
      "menyek": 811,
      "Ġkolt": 812,
      "eli": 813,
      "Ġ28": 814,
      "Ġ26": 815,
      "Ġinform": 816,
      "Ġszak": 817,
      "Ġbekezdesenek": 818,
      "Ġbiztosit": 819,
      "olg": 820,
      "Ġfoglal": 821,
      "itva": 822,
      "ch": 823,
      "Ġpar": 824,
      "Ġjelen": 825,
      "Ġfoly": 826,
      "Ġterulet": 827,
      "Ġmu": 828,
      "Ġ22": 829,
      "Ġszerinti": 830,
      "Ġ90": 831,
      "odas": 832,
      "Ġerintett": 833,
      "Ġmill": 834,
      "Ġszerep": 835,
      "Ġintezkedesek": 836,
      "ner": 837,
      "odik": 838,
      "enti": 839,
      "Ġinformaci": 840,
      "Ġengedely": 841,
      "Ġ24": 842,
      "ekeny": 843,
      "ennyiben": 844,
      "Ġszo": 845,
      "ozas": 846,
      "kal": 847,
      "Ġkif": 848,
      "Ġmillio": 849,
      "Ġamennyiben": 850,
      "Ġpia": 851,
      "Ġsem": 852,
      "Ġkk": 853,
      "Ġpartner": 854,
      "seget": 855,
      "Ġ=": 856,
      "Ġharm": 857,
      "Ġhozott": 858,
      "Ġvissz": 859,
      "ers": 860,
      "Ġered": 861,
      "eni": 862,
      "Ġminden": 863,
      "vany": 864,
      "Ġany": 865,
      "Ġkont": 866,
      "Ġfigyelem": 867,
      "ata": 868,
      "Ġw": 869,
      "Ġellenor": 870,
      "Ġfenn": 871,
      "ujtott": 872,
      "Ġ27": 873,
      "Ġhivatal": 874,
      "inek": 875,
      "mer": 876,
      "kel": 877,
      "Ġminosit": 878,
      "osen": 879,
      "cialis": 880,
      "Ġugyan": 881,
      "Ġkkv": 882,
      "Ġkerelm": 883,
      "Ġpenzugyi": 884,
      "Ġirb": 885,
      "Ġtanacsi": 886,
      "Ġtekinteteben": 887,
      "na": 888,
      "alap": 889,
      "irb": 890,
      "evo": 891,
      "Ġjogi": 892,
      "szam": 893,
      "asanak": 894,
      "esere": 895,
      "Ġilletve": 896,
      "Ġfelh": 897,
      "ocs": 898,
      "uli": 899,
      "Ġnov": 900,
      "Ġtartozo": 901,
      "uz": 902,
      "Ġfelperes": 903,
      "Ġigaz": 904,
      "Ġdont": 905,
      "Ġilyen": 906,
      "Ġfr": 907,
      "Ġszerzodes": 908,
      "Ġerdekeben": 909,
      "sege": 910,
      "anyag": 911,
      "isz": 912,
      "Ġszamara": 913,
      "Ġfejl": 914,
      "Ġtevekeny": 915,
      "vis": 916,
      "Ġorszag": 917,
      "tak": 918,
      "Ġ+": 919,
      "Ġnyitva": 920,
      "szab": 921,
      "ass": 922,
      "odo": 923,
      "armaz": 924,
      "Ġadott": 925,
      "esre": 926,
      "Ġeb": 927,
      "Ġszallitasok": 928,
      "Ġvallalkozasok": 929,
      "oter": 930,
      "Ġsoran": 931,
      "Ġelfogad": 932,
      "ikai": 933,
      "Ġszarmaz": 934,
      "Ġvan": 935,
      "Ġtargy": 936,
      "Ġlas": 937,
      "adik": 938,
      "esen": 939,
      "ium": 940,
      "Ġnagy": 941,
      "lam": 942,
      "izet": 943,
      "Ġegesz": 944,
      "Ġosszeg": 945,
      "jel": 946,
      "40": 947,
      "szek": 948,
      "Ġkontra": 949,
      "Ġszukseges": 950,
      "Ġlasd": 951,
      "heto": 952,
      "Ġcsak": 953,
      "Ġertelmeben": 954,
      "Ġanyag": 955,
      "Ġmegfeleloen": 956,
      "Ġminosites": 957,
      "Ġjell": 958,
      "30": 959,
      "iak": 960,
      "tart": 961,
      "Ġkorlat": 962,
      "entes": 963,
      "ac": 964,
      "Ġazok": 965,
      "Ġkesz": 966,
      "nok": 967,
      "Ġnap": 968,
      "Ġket": 969,
      "Ġuj": 970,
      "ond": 971,
      "Ġor": 972,
      "Ġgazdasagi": 973,
      "etlen": 974,
      "sert": 975,
      "ud": 976,
      "elkul": 977,
      "Ġeltero": 978,
      "Ġtermekek": 979,
      "Ġuz": 980,
      "Ġfell": 981,
      "utt": 982,
      "Ġforg": 983,
      "biz": 984,
      "Ġmegallapitas": 985,
      "Ġkovetkezo": 986,
      "Ġkozvet": 987,
      "pr": 988,
      "Ġkon": 989,
      "eve": 990,
      "ikus": 991,
      "elmeny": 992,
      "Ġbeny": 993,
      "Ġ2006": 994,
      "Ġtekintettel": 995,
      "Ġkulonosen": 996,
      "Ġ100": 997,
      "Ġtartoz": 998,
      "Ġelv": 999,
      "Ġkez": 1000,
      "Ġgyart": 1001,
      "hang": 1002,
      "Ġharmadik": 1003,
      "Ġ2009": 1004,
      "Ġkozossegi": 1005,
      "Ġfelhasznal": 1006,
      "Ġesetben": 1007,
      "pen": 1008,
      "asra": 1009,
      "Ġvalamely": 1010,
      "Ġadat": 1011,
      "vetel": 1012,
      "Ġnyilv": 1013,
      "Ġkeres": 1014,
      "Ġgyakorlat": 1015,
      "Ġtul": 1016,
      "Ġ<": 1017,
      "Ġol": 1018,
      "Ġidoszak": 1019,
      "Ġdi": 1020,
      "Ġtr": 1021,
      "uar": 1022,
      "Ġkiz": 1023,
      "ado": 1024,
      "Ġtartalmaz": 1025,
      "ozott": 1026,
      "Ġst": 1027,
      "oj": 1028,
      "Ġeseteben": 1029,
      "Ġmi": 1030,
      "Ġmegallapodas": 1031,
      "Ġeloz": 1032,
      "Ġado": 1033,
      "Ġkifej": 1034,
      "ocsat": 1035,
      "Ġezt": 1036,
      "Ġkovetelmeny": 1037,
      "Ġ40": 1038,
      "Ġjov": 1039,
      "hely": 1040,
      "Ġindok": 1041,
      "Ġhatar": 1042,
      "ezni": 1043,
      "Ġtorvenyszek": 1044,
      "50": 1045,
      "ess": 1046,
      "Ġkapcsolatos": 1047,
      "Ġspe": 1048,
      "Ġmer": 1049,
      "21": 1050,
      "Ġeloter": 1051,
      "Ġitel": 1052,
      "itani": 1053,
      "Ġelott": 1054,
      "Ġlak": 1055,
      "te": 1056,
      "Ġhivatkozott": 1057,
      "anos": 1058,
      "Ġeloterjeszt": 1059,
      "inak": 1060,
      "Ġfugg": 1061,
      "Ġfellebb": 1062,
      "oi": 1063,
      "Ġ\"": 1064,
      "alt": 1065,
      "Ġag": 1066,
      "Ġhi": 1067,
      "Ġelozetes": 1068,
      "armu": 1069,
      "Ġte": 1070,
      "cia": 1071,
      "Ġszint": 1072,
      "Ġvizsgalat": 1073,
      "enni": 1074,
      "Ġlep": 1075,
      "Ġeszkoz": 1076,
      "Ġon": 1077,
      "Ġ2004": 1078,
      "ob": 1079,
      "ht": 1080,
      "fer": 1081,
      "edig": 1082,
      "alom": 1083,
      "oport": 1084,
      "Ġpiac": 1085,
      "rend": 1086,
      "Ġegyutt": 1087,
      "Ġjav": 1088,
      "eppen": 1089,
      "Ġkereset": 1090,
      "Ġparlam": 1091,
      "Ġcim": 1092,
      "utat": 1093,
      "Ġkar": 1094,
      "Ġtiszt": 1095,
      "Ġab": 1096,
      "oztat": 1097,
      "Ġban": 1098,
      "eti": 1099,
      "ved": 1100,
      "Ġmegtam": 1101,
      "vizsgal": 1102,
      "Ġ2013": 1103,
      "szabaly": 1104,
      "onsag": 1105,
      "Ġirant": 1106,
      "untet": 1107,
      "Ġpontjaban": 1108,
      "Ġdec": 1109,
      "Ġfigyelembe": 1110,
      "Ġhozza": 1111,
      "Ġfelek": 1112,
      "ah": 1113,
      "Ġspecialis": 1114,
      "Ġkg": 1115,
      "hatosag": 1116,
      "ekben": 1117,
      "Ġjegy": 1118,
      "Ġszabad": 1119,
      "Ġlegal": 1120,
      "bekezd": 1121,
      "Ġ2008": 1122,
      "Ġbr": 1123,
      "Ġfelel": 1124,
      "Ġ01": 1125,
      "Ġah": 1126,
      "Ġkozotti": 1127,
      "Ġ39": 1128,
      "Ġmegtamadott": 1129,
      "and": 1130,
      "Ġber": 1131,
      "Ġnelkul": 1132,
      "Ġfejlett": 1133,
      "aval": 1134,
      "Ġkepvis": 1135,
      "Ġmuk": 1136,
      "tarsasag": 1137,
      "ajd": 1138,
      "Ġ2003": 1139,
      "Ġszemben": 1140,
      "Ġszov": 1141,
      "Ġhason": 1142,
      "Ġosszhang": 1143,
      "Ġ32": 1144,
      "Ġallap": 1145,
      "Ġmegallapitott": 1146,
      "ajat": 1147,
      "Ġegk": 1148,
      "Ġellenorz": 1149,
      "Ġlegalabb": 1150,
      "Ġairb": 1151,
      "Ġletre": 1152,
      "mp": 1153,
      "Ġvalt": 1154,
      "Ġkorul": 1155,
      "Ġvolt": 1156,
      "Ġhivatalos": 1157,
      "Ġct": 1158,
      "Ġcor": 1159,
      "hal": 1160,
      "Ġ2007": 1161,
      "Ġeseten": 1162,
      "Ġvit": 1163,
      "szol": 1164,
      "Ġiranti": 1165,
      "Ġvalamennyi": 1166,
      "Ġhitelezesi": 1167,
      "Ġmasodik": 1168,
      "Ġszereplo": 1169,
      "ekre": 1170,
      "Ġdecember": 1171,
      "to": 1172,
      "ument": 1173,
      "Ġhatas": 1174,
      "Ġbekezdeseben": 1175,
      "okra": 1176,
      "ites": 1177,
      "Ġkeresked": 1178,
      "if": 1179,
      "Ġosszhangban": 1180,
      "szeru": 1181,
      "ech": 1182,
      "Ġlap": 1183,
      "endo": 1184,
      "osult": 1185,
      "Ġaltalanos": 1186,
      "eknek": 1187,
      "Ġrendelkezesek": 1188,
      "Ġ2014": 1189,
      "Ġ2011": 1190,
      "Ġ33": 1191,
      "Ġsm": 1192,
      "ion": 1193,
      "Ġszervezet": 1194,
      "fugg": 1195,
      "Ġre": 1196,
      "Ġakkor": 1197,
      "Ġjogalap": 1198,
      "uh": 1199,
      "Ġvedjegy": 1200,
      "Ġhelyzet": 1201,
      "Ġdontes": 1202,
      "eztet": 1203,
      "Ġkovetoen": 1204,
      "Ġeloirt": 1205,
      "Ġ38": 1206,
      "90": 1207,
      "agos": 1208,
      "Ġ36": 1209,
      "vallal": 1210,
      "Ġfenti": 1211,
      "Ġtars": 1212,
      "zal": 1213,
      "ove": 1214,
      "Ġdo": 1215,
      "alek": 1216,
      "zett": 1217,
      "ens": 1218,
      "Ġalatt": 1219,
      "Ġkit": 1220,
      "Ġkozvetlen": 1221,
      "Ġszolgaltatasok": 1222,
      "Ġmodosit": 1223,
      "Ġ35": 1224,
      "Ġbef": 1225,
      "itasa": 1226,
      "amat": 1227,
      "ette": 1228,
      "ipus": 1229,
      "eng": 1230,
      "Ġ37": 1231,
      "Ġcorp": 1232,
      "11": 1233,
      "evetel": 1234,
      "Ġot": 1235,
      "ram": 1236,
      "uni": 1237,
      "Ġkerelem": 1238,
      "Ġbehozatal": 1239,
      "igaz": 1240,
      "Ġjelleg": 1241,
      "ĠÂ§": 1242,
      "Ġform": 1243,
      "ekes": 1244,
      "Ġcelj": 1245,
      "uly": 1246,
      "Ġszoveg": 1247,
      "asarol": 1248,
      "Ġmodositas": 1249,
      "Ġbej": 1250,
      "Ġkotelezettseg": 1251,
      "Ġ34": 1252,
      "asaban": 1253,
      "szor": 1254,
      "Ġelem": 1255,
      "Ġ2005": 1256,
      "Ġkoztarsasag": 1257,
      "Ġszakasz": 1258,
      "Ġakt": 1259,
      "Ġbiztositas": 1260,
      "Ġexp": 1261,
      "onal": 1262,
      "Ġnev": 1263,
      "Ġuzem": 1264,
      "adek": 1265,
      "Ġkereteben": 1266,
      "Ġbizonyit": 1267,
      "Ġ*": 1268,
      "Ġbarm": 1269,
      "ker": 1270,
      "ezmeny": 1271,
      "pontj": 1272,
      "kezesi": 1273,
      "beli": 1274,
      "Ġviz": 1275,
      "ekt": 1276,
      "ozat": 1277,
      "bocsat": 1278,
      "osul": 1279,
      "Ġ2001": 1280,
      "Ġkis": 1281,
      "80": 1282,
      "esenek": 1283,
      "Ġerveny": 1284,
      "egesz": 1285,
      "Ġbet": 1286,
      "Ġszarmazo": 1287,
      "Ġpedig": 1288,
      "Ġfed": 1289,
      "Ġforgo": 1290,
      "of": 1291,
      "Ġ2012": 1292,
      "Ġszoban": 1293,
      "Ġjarmu": 1294,
      "oknak": 1295,
      "etben": 1296,
      "Ġkizarol": 1297,
      "alk": 1298,
      "eert": 1299,
      "Ġjar": 1300,
      "Ġbelul": 1301,
      "Ġtom": 1302,
      "Ġhasonlo": 1303,
      "agyar": 1304,
      "Ġkormany": 1305,
      "abbi": 1306,
      "Ġvol": 1307,
      "Ġkovetkezok": 1308,
      "Ġfogy": 1309,
      "000": 1310,
      "assal": 1311,
      "Ġvers": 1312,
      "Ġ02": 1313,
      "ept": 1314,
      "Ġkoltsegek": 1315,
      "Ġ99": 1316,
      "ater": 1317,
      "Ġnyelv": 1318,
      "Ġkivetel": 1319,
      "Ġtal": 1320,
      "Ġsmec": 1321,
      "ari": 1322,
      "Ġjogosult": 1323,
      "ogi": 1324,
      "Ġjegyz": 1325,
      "emeny": 1326,
      "asaval": 1327,
      "Ġnyujt": 1328,
      "Ġmagyar": 1329,
      "Ġdonteshozatal": 1330,
      "eertve": 1331,
      "esseg": 1332,
      "esben": 1333,
      "Ġkir": 1334,
      "Ġkulonb": 1335,
      "Ġjuni": 1336,
      "ogram": 1337,
      "Ġreg": 1338,
      "Ġof": 1339,
      "Ġrendelkezo": 1340,
      "ex": 1341,
      "Ġjunius": 1342,
      "Ġazonban": 1343,
      "Ġ84": 1344,
      "Ġ60": 1345,
      "zo": 1346,
      "Ġitelkezesi": 1347,
      "ii": 1348,
      "Ġapr": 1349,
      "Ġjuli": 1350,
      "Ġhu": 1351,
      "Ġfin": 1352,
      "eld": 1353,
      "Ġch": 1354,
      "Ġverseny": 1355,
      "Ġsajat": 1356,
      "okkal": 1357,
      "Ġpre": 1358,
      "Ġamelyet": 1359,
      "edo": 1360,
      "Ġne": 1361,
      "Ġfran": 1362,
      "Ġilletekes": 1363,
      "Ġosz": 1364,
      "Ġ41": 1365,
      "Ġterv": 1366,
      "Ġadatok": 1367,
      "Ġjulius": 1368,
      "Ġtaj": 1369,
      "Ġallo": 1370,
      "okument": 1371,
      "asokat": 1372,
      "Ġfeltetelek": 1373,
      "Ġiranyulo": 1374,
      "Ġkibocsat": 1375,
      "Ġkivul": 1376,
      "ateg": 1377,
      "oh": 1378,
      "Ġ2002": 1379,
      "Ġpontjat": 1380,
      "Ġvitat": 1381,
      "iakban": 1382,
      "Ġfogyaszt": 1383,
      "ebe": 1384,
      "Ġellat": 1385,
      "Ġtovabba": 1386,
      "Ġcr": 1387,
      "Ġ85": 1388,
      "qu": 1389,
      "Ġamelynek": 1390,
      "Ġbenyujtott": 1391,
      "ettek": 1392,
      "Ġ2010": 1393,
      "Ġmegsert": 1394,
      "Ġjogszabaly": 1395,
      "Ġvesz": 1396,
      "Ġtesz": 1397,
      "Ġdokument": 1398,
      "erg": 1399,
      "amb": 1400,
      "Ġmentes": 1401,
      "elesi": 1402,
      "Ġ2015": 1403,
      "Ġth": 1404,
      "Ġmunkav": 1405,
      "Ġ2016": 1406,
      "Ġvezet": 1407,
      "Ġrendelkezese": 1408,
      "osz": 1409,
      "Ġkr": 1410,
      "Ġnyujtott": 1411,
      "ikor": 1412,
      "onyv": 1413,
      "Ġ000": 1414,
      "Ġbizottsagi": 1415,
      "Ġcsok": 1416,
      "Ġlehetove": 1417,
      "nia": 1418,
      "Ġfelelos": 1419,
      "Ġ43": 1420,
      "Ġkozosseg": 1421,
      "Ġlegf": 1422,
      "Ġ42": 1423,
      "Ġvonatkozoan": 1424,
      "Ġajan": 1425,
      "Ġkerdest": 1426,
      "Ġegyesult": 1427,
      "Ġtovabbiakban": 1428,
      "Ġ05": 1429,
      "itja": 1430,
      "Ġtajek": 1431,
      "Ġkockazat": 1432,
      "Ġlehetoseg": 1433,
      "Ġmertek": 1434,
      "olas": 1435,
      "Ġfelul": 1436,
      "eseket": 1437,
      "Ġeredmeny": 1438,
      "Ġ44": 1439,
      "kod": 1440,
      "Ġfennall": 1441,
      "Ġkin": 1442,
      "Ġmodon": 1443,
      "Ġhiany": 1444,
      "60": 1445,
      "Ġtarsasag": 1446,
      "ilyen": 1447,
      "Ġmennyi": 1448,
      "Ġpeld": 1449,
      "Ġigy": 1450,
      "Ġbev": 1451,
      "Ġ45": 1452,
      "kozi": 1453,
      "elek": 1454,
      "Ġvegrehajtasi": 1455,
      "einek": 1456,
      "Ġfejezet": 1457,
      "Ġjan": 1458,
      "Ġmegk": 1459,
      "Ġ010": 1460,
      "Ġkapcsolatban": 1461,
      "Ġmaj": 1462,
      "Ġhalasz": 1463,
      "olcs": 1464,
      "70": 1465,
      "Ġkitettsegektol": 1466,
      "Ġlakossag": 1467,
      "Ġegyen": 1468,
      "atlan": 1469,
      "ans": 1470,
      "Ġhozz": 1471,
      "Ġvelem": 1472,
      "elese": 1473,
      "Ġbiztonsag": 1474,
      "Ġezert": 1475,
      "Ġtulajd": 1476,
      "Ġaruk": 1477,
      "ox": 1478,
      "Ġ91": 1479,
      "tober": 1480,
      "Ġebben": 1481,
      "ativ": 1482,
      "cius": 1483,
      "Ġ75": 1484,
      "Ġoktober": 1485,
      "Ġtomeg": 1486,
      "Ġfelt": 1487,
      "ahagy": 1488,
      "Ġtipus": 1489,
      "Ġletrehoz": 1490,
      "Ġceljabol": 1491,
      "utas": 1492,
      "Ġkom": 1493,
      "eit": 1494,
      "Ġbesz": 1495,
      "Ġhaj": 1496,
      "Ġrendelkezik": 1497,
      "omany": 1498,
      "Ġkizarolag": 1499,
      "Ġet": 1500,
      "Ġaru": 1501,
      "Ġpartnerkockazat": 1502,
      "Ġkiegesz": 1503,
      "erm": 1504,
      "ki": 1505,
      "Ġeum": 1506,
      "Ġmez": 1507,
      "Ġtamogatas": 1508,
      "nel": 1509,
      "oku": 1510,
      "Ġell": 1511,
      "Ġnemet": 1512,
      "Ġreszes": 1513,
      "Ġteruleten": 1514,
      "ezi": 1515,
      "Ġebht": 1516,
      "ellen": 1517,
      "Ġjanuar": 1518,
      "Ġhon": 1519,
      "Ġmarcius": 1520,
      "Ġtagallamban": 1521,
      "up": 1522,
      "Ġrep": 1523,
      "Ġmiatt": 1524,
      "ĠÎ": 1525,
      "Ġtajekoztat": 1526,
      "Ġreszlet": 1527,
      "Ġ80": 1528,
      "Ġ>": 1529,
      "Ġprogram": 1530,
      "Ġmegjel": 1531,
      "mert": 1532,
      "86": 1533,
      "Ġkivetelevel": 1534,
      "dolg": 1535,
      "sor": 1536,
      "Ġ54": 1537,
      "ektr": 1538,
      "Ġkart": 1539,
      "itese": 1540,
      "ull": 1541,
      "Ġ2017": 1542,
      "elen": 1543,
      "Ġosszes": 1544,
      "Ġpol": 1545,
      "Ġvolna": 1546,
      "arom": 1547,
      "sa": 1548,
      "ekony": 1549,
      "eljebb": 1550,
      "Ġeumsz": 1551,
      "Ġlegfeljebb": 1552,
      "Ġfizet": 1553,
      "Ġkod": 1554,
      "Ġjavas": 1555,
      "ilis": 1556,
      "unik": 1557,
      "Ġosszefugg": 1558,
      "Ġazokat": 1559,
      "Ġep": 1560,
      "Ġ52": 1561,
      "Ġkorlatoz": 1562,
      "Ġma": 1563,
      "kulon": 1564,
      "Ġcsoport": 1565,
      "Ġ70": 1566,
      "Ġezek": 1567,
      "eig": 1568,
      "Ġellent": 1569,
      "abl": 1570,
      "Ġennek": 1571,
      "Ġ95": 1572,
      "uhaz": 1573,
      "Ġtok": 1574,
      "Ġkiraly": 1575,
      "Ġnemzetkozi": 1576,
      "fr": 1577,
      "Ġnyilvan": 1578,
      "Ġhataskor": 1579,
      "edv": 1580,
      "Ġ46": 1581,
      "Ġ2000": 1582,
      "di": 1583,
      "Ġazzal": 1584,
      "Ġ49": 1585,
      "itasi": 1586,
      "bizt": 1587,
      "Ġvalaszt": 1588,
      "Ġmegval": 1589,
      "ulum": 1590,
      "Ġfelad": 1591,
      "Ġkerdes": 1592,
      "Ġelektr": 1593,
      "Ġiii": 1594,
      "Ġpreamb": 1595,
      "talan": 1596,
      "Ġamikor": 1597,
      "Ġpreambulum": 1598,
      "echn": 1599,
      "asahoz": 1600,
      "Ġlevo": 1601,
      "ezese": 1602,
      "Ġvelemeny": 1603,
      "Ġmodositott": 1604,
      "Ġszept": 1605,
      "Ġmegf": 1606,
      "Ġarany": 1607,
      "Ġmajus": 1608,
      "Ġnegy": 1609,
      "igazgat": 1610,
      "Ġ48": 1611,
      "Ġaktus": 1612,
      "Ġ51": 1613,
      "ategor": 1614,
      "Ġszukseg": 1615,
      "ansz": 1616,
      "osan": 1617,
      "enyeg": 1618,
      "foku": 1619,
      "Ġfoglalt": 1620,
      "Ġnovember": 1621,
      "Ġagazat": 1622,
      "Ġmezog": 1623,
      "Ġszeptember": 1624,
      "almas": 1625,
      "ard": 1626,
      "Ġvett": 1627,
      "Ġtalal": 1628,
      "resz": 1629,
      "Ġszabalyok": 1630,
      "eh": 1631,
      "31": 1632,
      "Ġfelulvizsgal": 1633,
      "Ġfrancia": 1634,
      "Ġ55": 1635,
      "Ġmegfelel": 1636,
      "af": 1637,
      "Ġfolytat": 1638,
      "Ġac": 1639,
      "ind": 1640,
      "Ġvedelm": 1641,
      "Ġerv": 1642,
      "incs": 1643,
      "Ġpreambulumbekezd": 1644,
      "Ġnyom": 1645,
      "Ġsl": 1646,
      "Ġszerzod": 1647,
      "Ġallas": 1648,
      "szolgal": 1649,
      "Ġ96": 1650,
      "Ġszan": 1651,
      "Ġkozl": 1652,
      "Ġeszkozok": 1653,
      "Ġhatalya": 1654,
      "Ġfo": 1655,
      "ekkel": 1656,
      "ze": 1657,
      "fold": 1658,
      "Ġkiralysag": 1659,
      "Ġ2018": 1660,
      "adas": 1661,
      "Ġparlamenti": 1662,
      "Ġtekintetben": 1663,
      "Ġaprilis": 1664,
      "Ġbarmely": 1665,
      "mis": 1666,
      "tek": 1667,
      "ation": 1668,
      "Ġminoseg": 1669,
      "itotta": 1670,
      "itvany": 1671,
      "Ġeloterjeszto": 1672,
      "je": 1673,
      "Ġ0106": 1674,
      "Ġ92": 1675,
      "Ġtenyleges": 1676,
      "Ġalkalmazott": 1677,
      "Ġtevekenyseg": 1678,
      "Ġmasik": 1679,
      "Ġutan": 1680,
      "ne": 1681,
      "Ġ53": 1682,
      "Ġtulajdon": 1683,
      "gel": 1684,
      "se": 1685,
      "Ġtel": 1686,
      "uv": 1687,
      "Ġbizonyos": 1688,
      "ib": 1689,
      "reszt": 1690,
      "Ġ47": 1691,
      "Ġamelyeket": 1692,
      "Ġdokumentum": 1693,
      "Ġkereskedelmi": 1694,
      "Ġ1999": 1695,
      "Ġmegel": 1696,
      "azalek": 1697,
      "Ġreszt": 1698,
      "Ġalkalmazni": 1699,
      "Ġigeny": 1700,
      "Ġbeleertve": 1701,
      "Ġinformaciok": 1702,
      "Ġszolgalo": 1703,
      "Ġbejel": 1704,
      "Ġmet": 1705,
      "Ġper": 1706,
      "Ġmunkavallal": 1707,
      "Ġkoltseg": 1708,
      "ogz": 1709,
      "Ġigazol": 1710,
      "keppen": 1711,
      "Ġjovahagy": 1712,
      "Ġnincs": 1713,
      "Ġvallalkozas": 1714,
      "rel": 1715,
      "22": 1716,
      "Ġ93": 1717,
      "Ġbor": 1718,
      "Ġ59": 1719,
      "Ġkev": 1720,
      "uszt": 1721,
      "Ġminta": 1722,
      "Ġcsokkent": 1723,
      "muk": 1724,
      "Ġugyanis": 1725,
      "Ġlev": 1726,
      "Ġkorny": 1727,
      "Ġmezogazdasagi": 1728,
      "Ġpelda": 1729,
      "st": 1730,
      "Ġtermesz": 1731,
      "Ġelsofoku": 1732,
      "Ġabban": 1733,
      "Ġkifog": 1734,
      "taly": 1735,
      "Ġrendelkezes": 1736,
      "zi": 1737,
      "hatja": 1738,
      "Ġlenyeg": 1739,
      "Ġhatosagok": 1740,
      "boz": 1741,
      "sel": 1742,
      "olgar": 1743,
      "Ġkeret": 1744,
      "Ġeleg": 1745,
      "Ġfolyamat": 1746,
      "le": 1747,
      "Ġelis": 1748,
      "Ġertekesit": 1749,
      "ilag": 1750,
      "Ġegyed": 1751,
      "Ġilletoen": 1752,
      "Ġvonatkozik": 1753,
      "Ġfold": 1754,
      "Ġfelper": 1755,
      "Ġcikkeben": 1756,
      "Ġkozvetlenul": 1757,
      "Ġ57": 1758,
      "Ġvallalatok": 1759,
      "Ġ61": 1760,
      "Ġkedv": 1761,
      "zel": 1762,
      "bbol": 1763,
      "Ġkoveto": 1764,
      "cio": 1765,
      "Ġegyuttmuk": 1766,
      "oszt": 1767,
      "Ġ94": 1768,
      "Ġimp": 1769,
      "Ġalapulo": 1770,
      "elok": 1771,
      "Ġelutas": 1772,
      "Ġegyik": 1773,
      "mal": 1774,
      "Ġhonap": 1775,
      "onak": 1776,
      "94": 1777,
      "ozasi": 1778,
      "Ġnyilatkoz": 1779,
      "ebr": 1780,
      "Ġrogz": 1781,
      "jat": 1782,
      "Ġkezd": 1783,
      "Ġbelso": 1784,
      "Ġevi": 1785,
      "Ġkornyezet": 1786,
      "Ġkerul": 1787,
      "Ġtil": 1788,
      "eltet": 1789,
      "Ġtovabbi": 1790,
      "Ġ2019": 1791,
      "Ġmukod": 1792,
      "Ġpontban": 1793,
      "Ġ56": 1794,
      "erz": 1795,
      "pontja": 1796,
      "zat": 1797,
      "galom": 1798,
      "Ġvalasz": 1799,
      "adja": 1800,
      "Ġkategor": 1801,
      "ainak": 1802,
      "Ġami": 1803,
      "Ġ65": 1804,
      "Ġgr": 1805,
      "ea": 1806,
      "Ġkorulmenyek": 1807,
      "Ġinter": 1808,
      "Ġintezmeny": 1809,
      "Ġfirb": 1810,
      "eked": 1811,
      "Ġminosul": 1812,
      "Ġszemelyek": 1813,
      "Ġkapcsolodo": 1814,
      "Ġszabalyozas": 1815,
      "Ġhasznalat": 1816,
      "land": 1817,
      "Ġvegy": 1818,
      "Ġfebr": 1819,
      "Ġtehat": 1820,
      "Ġ98": 1821,
      "Ġ87": 1822,
      "Ġrendelkezesre": 1823,
      "Ġparlament": 1824,
      "Ġvisz": 1825,
      "esztes": 1826,
      "enger": 1827,
      "Ġfebruar": 1828,
      "Ġkotelezo": 1829,
      "Ġtobbek": 1830,
      "Ġpiaci": 1831,
      "Ġvissza": 1832,
      "Ġreszere": 1833,
      "kr": 1834,
      "Ġajanlat": 1835,
      "áĥ": 1836,
      "Ġsuly": 1837,
      "Ġpeldaul": 1838,
      "Ġcom": 1839,
      "Ġcelja": 1840,
      "Ġjelentos": 1841,
      "Ġelelmi": 1842,
      "Ġvitatott": 1843,
      "Ġharom": 1844,
      "Ġpl": 1845,
      "kulonboz": 1846,
      "Ġidot": 1847,
      "Ġbenyujt": 1848,
      "vezet": 1849,
      "aras": 1850,
      "ub": 1851,
      "Ġcsat": 1852,
      "Ġ71": 1853,
      "Ġkim": 1854,
      "Ġfoglalkoz": 1855,
      "almi": 1856,
      "Ġseg": 1857,
      "Ġjogsert": 1858,
      "acio": 1859,
      "Ġfenntart": 1860,
      "Ġthe": 1861,
      "Ġcc": 1862,
      "Ġelelmiszer": 1863,
      "Ġutal": 1864,
      "Ġco": 1865,
      "Ġmellett": 1866,
      "atart": 1867,
      "obbi": 1868,
      "elesere": 1869,
      "Ġbizonyitek": 1870,
      "Ġkes": 1871,
      "Ġmely": 1872,
      "Ġtabl": 1873,
      "vos": 1874,
      "Ġszolgaltatas": 1875,
      "Ġelnok": 1876,
      "ellenes": 1877,
      "Ġ64": 1878,
      "meg": 1879,
      "Ġideig": 1880,
      "Ġgep": 1881,
      "Ġmegjegy": 1882,
      "Ġvar": 1883,
      "Ġmegsz": 1884,
      "Ġmegh": 1885,
      "Ġ198": 1886,
      "Ġutas": 1887,
      "Ġhatekony": 1888,
      "Ġas": 1889,
      "Ġexport": 1890,
      "Ġ58": 1891,
      "feren": 1892,
      "Ġfuggetlen": 1893,
      "Ġy": 1894,
      "acios": 1895,
      "zak": 1896,
      "ire": 1897,
      "Ġra": 1898,
      "Ġip": 1899,
      "Î±": 1900,
      "antart": 1901,
      "ektet": 1902,
      "str": 1903,
      "sal": 1904,
      "Ġser": 1905,
      "Ġbejelent": 1906,
      "Ġiv": 1907,
      "Ġforgalom": 1908,
      "lak": 1909,
      "Ġvizsgalati": 1910,
      "Ġkozpont": 1911,
      "Ġfent": 1912,
      "szin": 1913,
      "Ġcikkben": 1914,
      "Ġ62": 1915,
      "ahoz": 1916,
      "nev": 1917,
      "jon": 1918,
      "Ġegeszseg": 1919,
      "Ġos": 1920,
      "Ġels": 1921,
      "ce": 1922,
      "Ġeloterjesztett": 1923,
      "Ġtol": 1924,
      "Ġ?": 1925,
      "ekek": 1926,
      "Ġingat": 1927,
      "Ġrendelete": 1928,
      "Ġ97": 1929,
      "Ġindokol": 1930,
      "Ġvisszater": 1931,
      "Ġtud": 1932,
      "essel": 1933,
      "esehez": 1934,
      "Ġ08": 1935,
      "elemben": 1936,
      "ania": 1937,
      "Ġalkot": 1938,
      "Ġkozigazgat": 1939,
      "Ġamint": 1940,
      "Ġhan": 1941,
      "Ġallamp": 1942,
      "Ġrel": 1943,
      "Ġkerelmet": 1944,
      "Ġvas": 1945,
      "Ġlegi": 1946,
      "Ġegyezmeny": 1947,
      "sc": 1948,
      "Ġallat": 1949,
      "Ġszall": 1950,
      "almazott": 1951,
      "Ġkiveve": 1952,
      "urg": 1953,
      "anacs": 1954,
      "Ġ73": 1955,
      "99": 1956,
      "Ġvonatkozasaban": 1957,
      "Ġ88": 1958,
      "foldi": 1959,
      "Ġenerg": 1960,
      "iter": 1961,
      "Ġalapvet": 1962,
      "Ġallami": 1963,
      "Ġ63": 1964,
      "egyen": 1965,
      "ait": 1966,
      "Ġnyilvantart": 1967,
      "Ġeljarasok": 1968,
      "Ġkovetkezik": 1969,
      "ĠÂ»": 1970,
      "Ġorszagok": 1971,
      "Ġeloallitas": 1972,
      "Ġtechn": 1973,
      "Ġintezkedeseket": 1974,
      "Ġfelugy": 1975,
      "Ġelk": 1976,
      "ore": 1977,
      "Ġhozzaj": 1978,
      "Ġvenni": 1979,
      "osito": 1980,
      "Î¿": 1981,
      "Ġrendeletet": 1982,
      "Ġ81": 1983,
      "telen": 1984,
      "Ġhaz": 1985,
      "heti": 1986,
      "itik": 1987,
      "Ġkiegeszito": 1988,
      "ĠÂ«": 1989,
      "Ġintezmenyek": 1990,
      "Ġnoveny": 1991,
      "Ġalbekezd": 1992,
      "Ġingatlan": 1993,
      "ortal": 1994,
      "ezte": 1995,
      "nie": 1996,
      "Ġleir": 1997,
      "apir": 1998,
      "mel": 1999,
      "Ġlc": 2000,
      "Ġanyagok": 2001,
      "Ġterjeszt": 2002,
      "sem": 2003,
      "Ġand": 2004,
      "Ġmuszak": 2005,
      "Ġosztaly": 2006,
      "omag": 2007,
      "Ġegyseg": 2008,
      "Ġszar": 2009,
      "Ġidotart": 2010,
      "Ġresze": 2011,
      "Ġmoz": 2012,
      "Ġmuv": 2013,
      "Ġtav": 2014,
      "Ġertelmezni": 2015,
      "Ġjellem": 2016,
      "Ġpontjanak": 2017,
      "Ġmeghal": 2018,
      "Ġervenyes": 2019,
      "Ġ72": 2020,
      "Ġugylet": 2021,
      "Ġszabadsag": 2022,
      "Ġkovetkezes": 2023,
      "Ġtagja": 2024,
      "niuk": 2025,
      "Ġfelsor": 2026,
      "min": 2027,
      "Ġkulonbozo": 2028,
      "Ġmegallapod": 2029,
      "Ġkozigazgatasi": 2030,
      "Ġkovetkeztet": 2031,
      "Ġmasod": 2032,
      "Ġmutat": 2033,
      "Ġberend": 2034,
      "Ġtargyal": 2035,
      "Ġmegkulonboz": 2036,
      "Ġlapja": 2037,
      "Ġintezkedes": 2038,
      "Ġ67": 2039,
      "Ġbank": 2040,
      "ord": 2041,
      "janak": 2042,
      "Ġhanem": 2043,
      "Ġhelyebe": 2044,
      "Ġideiglen": 2045,
      "Ġfeldolg": 2046,
      "Ġkozzet": 2047,
      "Ġkovetkezeskeppen": 2048,
      "idr": 2049,
      "Ġ68": 2050,
      "eljaras": 2051,
      "Ġdomp": 2052,
      "Ġolasz": 2053,
      "oldal": 2054,
      "Ġismert": 2055,
      "Ġott": 2056,
      "Ġ66": 2057,
      "Ġmegkulonboztet": 2058,
      "Ġ09": 2059,
      "Ġdomping": 2060,
      "Ġosszet": 2061,
      "Ġkifejezett": 2062,
      "Ġertesit": 2063,
      "Ġtevekenysegek": 2064,
      "Ġforr": 2065,
      "arul": 2066,
      "Ġ74": 2067,
      "Ġhossz": 2068,
      "Ġhatarozatot": 2069,
      "Ġeljarasban": 2070,
      "Ġnagyvallal": 2071,
      "Ġveszely": 2072,
      "jed": 2073,
      "Î¹": 2074,
      "jog": 2075,
      "edik": 2076,
      "ow": 2077,
      "Ġhatalyon": 2078,
      "Ġalp": 2079,
      "aba": 2080,
      "Ġteszi": 2081,
      "Ġaut": 2082,
      "Ġezzel": 2083,
      "ules": 2084,
      "izetes": 2085,
      "ologi": 2086,
      "Ġ89": 2087,
      "Ġmuszaki": 2088,
      "Ġ78": 2089,
      "anszir": 2090,
      "bir": 2091,
      "hatok": 2092,
      "kiv": 2093,
      "Ġalabbi": 2094,
      "anyol": 2095,
      "Ġstat": 2096,
      "Ġtarsai": 2097,
      "felek": 2098,
      "Ġreszerol": 2099,
      "12": 2100,
      "Ġben": 2101,
      "ost": 2102,
      "akat": 2103,
      "Ġegyedi": 2104,
      "Ġkorabbi": 2105,
      "alma": 2106,
      "Ġ07": 2107,
      "ist": 2108,
      "Ġhagy": 2109,
      "szolgaltat": 2110,
      "Ġ2020": 2111,
      "okon": 2112,
      "enne": 2113,
      "Ġmegelozo": 2114,
      "Ġlat": 2115,
      "imalis": 2116,
      "aran": 2117,
      "Ġelveg": 2118,
      "ird": 2119,
      "Ġeszr": 2120,
      "Ġtu": 2121,
      "Ġgyogy": 2122,
      "Ġspanyol": 2123,
      "esor": 2124,
      "Ġbefektet": 2125,
      "Ġahhoz": 2126,
      "Ġmegsem": 2127,
      "csoport": 2128,
      "iai": 2129,
      "Ġkovetkezokeppen": 2130,
      "okban": 2131,
      "Ġim": 2132,
      "etol": 2133,
      "ity": 2134,
      "Ġalkalmazasa": 2135,
      "asm": 2136,
      "Ġeler": 2137,
      "Ġnyug": 2138,
      "zese": 2139,
      "Ġ79": 2140,
      "elly": 2141,
      "Ġigazgat": 2142,
      "lok": 2143,
      "Ġov": 2144,
      "15": 2145,
      "alak": 2146,
      "ezesek": 2147,
      "Ġhasznalt": 2148,
      "Ġkik": 2149,
      "ithato": 2150,
      "Ġ77": 2151,
      "13": 2152,
      "Ġ69": 2153,
      "Ġalapveto": 2154,
      "ezok": 2155,
      "Ġatl": 2156,
      "Ġcp": 2157,
      "Ġmegsemmis": 2158,
      "Ġember": 2159,
      "jaban": 2160,
      "Ġhalaszati": 2161,
      "tor": 2162,
      "Ġuzemeltet": 2163,
      "Ġsemm": 2164,
      "Ġjut": 2165,
      "ellyel": 2166,
      "Ġfellebbezesi": 2167,
      "Ġkulonleges": 2168,
      "Ġ83": 2169,
      "ulladek": 2170,
      "kep": 2171,
      "onek": 2172,
      "Ġidotartam": 2173,
      "Ġford": 2174,
      "Ġhol": 2175,
      "ertelm": 2176,
      "Ġmerleg": 2177,
      "Ġ76": 2178,
      "olo": 2179,
      "Ġfedezett": 2180,
      "Ġfelhat": 2181,
      "ĠÐ": 2182,
      "Ġnyilatkozat": 2183,
      "adaly": 2184,
      "Ġbirsag": 2185,
      "itesi": 2186,
      "Ġhozzajarul": 2187,
      "Ġkotelezettsegek": 2188,
      "ira": 2189,
      "Ġrendeletben": 2190,
      "Ġmagas": 2191,
      "Ġbiztositott": 2192,
      "Ġarrol": 2193,
      "Ġhang": 2194,
      "Ġegyseges": 2195,
      "Ġkorulmeny": 2196,
      "Ġeljarasi": 2197,
      "Ġellenorzes": 2198,
      "iti": 2199,
      "Ġtest": 2200,
      "Ġebbol": 2201,
      "Ġmeger": 2202,
      "Ġbesor": 2203,
      "Ġmert": 2204,
      "Ġrelev": 2205,
      "Ġalapul": 2206,
      "Ġnemetorszag": 2207,
      "ral": 2208,
      "Ġallando": 2209,
      "Ġalak": 2210,
      "Ġnagyvallalati": 2211,
      "Ġjavaslat": 2212,
      "Ġ0086": 2213,
      "ukor": 2214,
      "Ġinditvany": 2215,
      "valo": 2216,
      "Ġelektron": 2217,
      "Ġpreambulumbekezdese": 2218,
      "Ġtalalhato": 2219,
      "Ġaltali": 2220,
      "Ġbevezet": 2221,
      "Ġbar": 2222,
      "Ġkozponti": 2223,
      "uc": 2224,
      "ator": 2225,
      "Ġcsal": 2226,
      "Ġhatarid": 2227,
      "asban": 2228,
      "Ġjegyzok": 2229,
      "Ġazonos": 2230,
      "Ġtenger": 2231,
      "Ġemlek": 2232,
      "szazalek": 2233,
      "Ġbekezdesben": 2234,
      "otor": 2235,
      "Ġeszrevetel": 2236,
      "enged": 2237,
      "Ġkereszt": 2238,
      "Ġhatalyba": 2239,
      "Ġtablazat": 2240,
      "Ġrendelettel": 2241,
      "Ġmellekletben": 2242,
      "Ġkotott": 2243,
      "Ġvi": 2244,
      "met": 2245,
      "Ġdij": 2246,
      "Ġalkalmas": 2247,
      "Ġvel": 2248,
      "erek": 2249,
      "Ġideiglenes": 2250,
      "Ġosszefuggesben": 2251,
      "Ġtartalmazo": 2252,
      "Ġmegallapitotta": 2253,
      "Ġlt": 2254,
      "Ġkepviselo": 2255,
      "Ġ86": 2256,
      "Ġ06": 2257,
      "Ġlab": 2258,
      "ura": 2259,
      "Ġmm": 2260,
      "Ġterh": 2261,
      "term": 2262,
      "ido": 2263,
      "Ġtermeszetes": 2264,
      "Ġkerult": 2265,
      "Ġszovet": 2266,
      "Ġbuntet": 2267,
      "azon": 2268,
      "Ġfot": 2269,
      "ulek": 2270,
      "Ġsert": 2271,
      "Ġfelhatalmaz": 2272,
      "Ġallampolgar": 2273,
      "bevetel": 2274,
      "usz": 2275,
      "Ġertelemben": 2276,
      "Ġmellekleteben": 2277,
      "iterium": 2278,
      "Ġjoved": 2279,
      "Ġfelmer": 2280,
      "Ġreferen": 2281,
      "olcson": 2282,
      "Ġrov": 2283,
      "Ġtartozik": 2284,
      "Ġfeny": 2285,
      "Ġfelugyelet": 2286,
      "Ġkriterium": 2287,
      "Ġvegzett": 2288,
      "Ġeves": 2289,
      "Ġhozzafer": 2290,
      "ene": 2291,
      "Ġelektronikus": 2292,
      "Ġfok": 2293,
      "Ġbiztonsagi": 2294,
      "Ġszempont": 2295,
      "ertelmu": 2296,
      "Ġop": 2297,
      "Ġamelyben": 2298,
      "itasat": 2299,
      "Ġszerzodesek": 2300,
      "Ð°": 2301,
      "rany": 2302,
      "Ġallamok": 2303,
      "Ġakik": 2304,
      "szert": 2305,
      "Ġfelperesek": 2306,
      "Ġszama": 2307,
      "Ġkiszam": 2308,
      "tarif": 2309,
      "allo": 2310,
      "Ġszor": 2311,
      "Ġmunka": 2312,
      "Ġimport": 2313,
      "Ġkl": 2314,
      "Ġeljarast": 2315,
      "Ġfaj": 2316,
      "Ġdonteshozatalra": 2317,
      "Ġvamtarif": 2318,
      "ine": 2319,
      "Ġoszt": 2320,
      "Ġegyertelmu": 2321,
      "Ġletesit": 2322,
      "Ġkovetelmenyek": 2323,
      "Ġkih": 2324,
      "Ġ82": 2325,
      "iss": 2326,
      "Ġ03": 2327,
      "Ġugyanez": 2328,
      "Ġrelevans": 2329,
      "Ġlevel": 2330,
      "besz": 2331,
      "veg": 2332,
      "Ġrev": 2333,
      "Ġtudo": 2334,
      "Ġjogv": 2335,
      "etek": 2336,
      "ektiv": 2337,
      "Ġinformaciokat": 2338,
      "Ġ197": 2339,
      "raj": 2340,
      "ĠâĢĻ": 2341,
      "Ġszabalyzat": 2342,
      "Ġfont": 2343,
      "mutat": 2344,
      "Ġszinten": 2345,
      "01": 2346,
      "ef": 2347,
      "olni": 2348,
      "Ġmuvelet": 2349,
      "Ġemlekeztet": 2350,
      "Ġahol": 2351,
      "almat": 2352,
      "Ġmagatart": 2353,
      "Ġellentetes": 2354,
      "Ġod": 2355,
      "Ġkolcson": 2356,
      "cios": 2357,
      "Ġkedvezmeny": 2358,
      "Ġmelleklete": 2359,
      "Ġtak": 2360,
      "Ġtetel": 2361,
      "Ġforgalomba": 2362,
      "Ġiz": 2363,
      "Ġkifejt": 2364,
      "Ġkijel": 2365,
      "oleg": 2366,
      "esevel": 2367,
      "19": 2368,
      "Ġ'": 2369,
      "Ġerd": 2370,
      "Ġertekel": 2371,
      "ezve": 2372,
      "Ġbizottsagnak": 2373,
      "Ġeredo": 2374,
      "Ġkiter": 2375,
      "Ġmertekben": 2376,
      "alany": 2377,
      "Ġton": 2378,
      "Ġbrus": 2379,
      "Ġvet": 2380,
      "ozasa": 2381,
      "kit": 2382,
      "Ġmegbiz": 2383,
      "Ġbocsat": 2384,
      "atol": 2385,
      "Ġbehozatali": 2386,
      "Ġkoteles": 2387,
      "Ġfelsorolt": 2388,
      "hatnak": 2389,
      "Ġszempontj": 2390,
      "gyel": 2391,
      "mentes": 2392,
      "Ġkozossegek": 2393,
      "Ġbun": 2394,
      "Ġhulladek": 2395,
      "Ġalol": 2396,
      "Ġeloszor": 2397,
      "leti": 2398,
      "Ġfinanszir": 2399,
      "Ġkiad": 2400,
      "Ġhasz": 2401,
      "Ġegeszeben": 2402,
      "Ġidopont": 2403,
      "Ġgond": 2404,
      "Ġgyarto": 2405,
      "Ġ101": 2406,
      "Ġelfogadott": 2407,
      "Ġhatrany": 2408,
      "Ġszig": 2409,
      "foly": 2410,
      "eken": 2411,
      "ux": 2412,
      "enet": 2413,
      "Ġmozg": 2414,
      "Ġkifizet": 2415,
      "ich": 2416,
      "Ġtomegszazalek": 2417,
      "szel": 2418,
      "acsony": 2419,
      "kret": 2420,
      "Ġmellekletenek": 2421,
      "Ġreszenek": 2422,
      "Ġatal": 2423,
      "Ġszempontjabol": 2424,
      "Ġjellegu": 2425,
      "Ġelm": 2426,
      "Ġgaz": 2427,
      "Ġ04": 2428,
      "Ġzs": 2429,
      "itette": 2430,
      "Ġegt": 2431,
      "Ġkelt": 2432,
      "irol": 2433,
      "Ġkerdesek": 2434,
      "Ġstr": 2435,
      "Ġvegleges": 2436,
      "23": 2437,
      "Ġjogok": 2438,
      "ie": 2439,
      "alommal": 2440,
      "itottak": 2441,
      "Ġalapeljaras": 2442,
      "dij": 2443,
      "Ġzar": 2444,
      "Ġjelenleg": 2445,
      "Ġun": 2446,
      "93": 2447,
      "Ġjarmuv": 2448,
      "atum": 2449,
      "Ġkoltsege": 2450,
      "Ġkonkret": 2451,
      "Ġbelg": 2452,
      "ro": 2453,
      "Ġkeszit": 2454,
      "Ġkeszult": 2455,
      "Ġsa": 2456,
      "ologiai": 2457,
      "Ġjegyzokonyv": 2458,
      "azdalk": 2459,
      "Ġmc": 2460,
      "abban": 2461,
      "Ġ2021": 2462,
      "Ġismer": 2463,
      "nyujt": 2464,
      "Ġkal": 2465,
      "jogi": 2466,
      "Ġlenni": 2467,
      "Ġbekezdeset": 2468,
      "Ġ040": 2469,
      "vedelmi": 2470,
      "14": 2471,
      "iteli": 2472,
      "mag": 2473,
      "Ġcelkit": 2474,
      "Ġreszet": 2475,
      "Ġla": 2476,
      "Ġaki": 2477,
      "Ġallit": 2478,
      "Ġkotet": 2479,
      "itasara": 2480,
      "Ġmegvizsgal": 2481,
      "Ġvevo": 2482,
      "Ġjogalk": 2483,
      "Ġkn": 2484,
      "Ġtanus": 2485,
      "Ġport": 2486,
      "Ġfeltuntet": 2487,
      "Ġpan": 2488,
      "Ġmodositasarol": 2489,
      "Ġegyetlen": 2490,
      "Ġ110": 2491,
      "Ġtargyat": 2492,
      "Ġutobbi": 2493,
      "Ġfogad": 2494,
      "Ġeredet": 2495,
      "Ġmeghatalmazott": 2496,
      "Ġmax": 2497,
      "Ġreszesed": 2498,
      "Ġkizar": 2499,
      "Ġpaly": 2500,
      "Ġtoke": 2501,
      "ka": 2502,
      "allitott": 2503,
      "Ġelotti": 2504,
      "anyagok": 2505,
      "rak": 2506,
      "ri": 2507,
      "Ġmegjelol": 2508,
      "Ġidopontj": 2509,
      "Ġrepul": 2510,
      "24": 2511,
      "Ġtekinteni": 2512,
      "Ġexportal": 2513,
      "Ġvedelem": 2514,
      "asos": 2515,
      "Ġalat": 2516,
      "vel": 2517,
      "Ġcikket": 2518,
      "ezik": 2519,
      "Ġemberi": 2520,
      "Ġmennyiseg": 2521,
      "Ġtett": 2522,
      "Ġfennallo": 2523,
      "Ġbiztositasa": 2524,
      "Ġegym": 2525,
      "ora": 2526,
      "Ð¸": 2527,
      "umolcs": 2528,
      "Ġap": 2529,
      "Ġallapitani": 2530,
      "Ġbek": 2531,
      "Ġcsatlak": 2532,
      "Ġeredeti": 2533,
      "Ġtamogatasi": 2534,
      "Ġutjan": 2535,
      "anakkor": 2536,
      "avatkoz": 2537,
      "Ġugyanakkor": 2538,
      "Ġalperes": 2539,
      "Ġakar": 2540,
      "Ġbeavatkoz": 2541,
      "egyeztet": 2542,
      "ici": 2543,
      "Ġmegalap": 2544,
      "Ġkoltsegvet": 2545,
      "Ġur": 2546,
      "Ġtisztelet": 2547,
      "szeruen": 2548,
      "hatatlan": 2549,
      "aszam": 2550,
      "ezesere": 2551,
      "Ġgyogyszer": 2552,
      "Ġszek": 2553,
      "0000": 2554,
      "Ġalacsony": 2555,
      "Ġproj": 2556,
      "Ġkivet": 2557,
      "Ġmeghatarozasa": 2558,
      "bal": 2559,
      "kivul": 2560,
      "etto": 2561,
      "33": 2562,
      "ezze": 2563,
      "Ġszemelyzet": 2564,
      "her": 2565,
      "ma": 2566,
      "Ġosszeegyeztet": 2567,
      "irdet": 2568,
      "Ġbeluli": 2569,
      "Ġmond": 2570,
      "Ġtartozkod": 2571,
      "rendelet": 2572,
      "Ġszant": 2573,
      "Ġgyerm": 2574,
      "Ġsegit": 2575,
      "Ġlej": 2576,
      "Ġelfogadta": 2577,
      "Ġreszletes": 2578,
      "biztositas": 2579,
      "ha": 2580,
      "adi": 2581,
      "hetoseg": 2582,
      "Ġnapon": 2583,
      "ottak": 2584,
      "jarmu": 2585,
      "Ġjegyzek": 2586,
      "Ġesetleges": 2587,
      "valaszt": 2588,
      "mus": 2589,
      "Ġed": 2590,
      "Ġugynok": 2591,
      "Ġosszeget": 2592,
      "Ġkepezo": 2593,
      "Ġkifejezetten": 2594,
      "Ġelet": 2595,
      "Ġ104": 2596,
      "amaszt": 2597,
      "ung": 2598,
      "ezeserol": 2599,
      "Ġveve": 2600,
      "Ġgor": 2601,
      "ment": 2602,
      "Ġelony": 2603,
      "asokra": 2604,
      "Ġkifogas": 2605,
      "atot": 2606,
      "Ġjogot": 2607,
      "ogep": 2608,
      "Ġ1998": 2609,
      "Ġbejegy": 2610,
      "hetok": 2611,
      "Ġvisszav": 2612,
      "Ġmegszer": 2613,
      "Ġnor": 2614,
      "Ġtiszteletben": 2615,
      "Ġezeket": 2616,
      "Ġlen": 2617,
      "Ġalatamaszt": 2618,
      "Ġszerepel": 2619,
      "Ġugyved": 2620,
      "Ġhib": 2621,
      "Ġszocialis": 2622,
      "armany": 2623,
      "Ġtuz": 2624,
      "Ġmotor": 2625,
      "Ġfelhasznalt": 2626,
      "eztek": 2627,
      "Ġtej": 2628,
      "Ġadatokat": 2629,
      "Ġmegallapitasarol": 2630,
      "Ġmukodes": 2631,
      "olasi": 2632,
      "Ġhivatkozik": 2633,
      "elep": 2634,
      "Ġhom": 2635,
      "Ġob": 2636,
      "Ġbizottsagot": 2637,
      "Ġcon": 2638,
      "Ġbas": 2639,
      "Ġcsomag": 2640,
      "34": 2641,
      "Ġkonz": 2642,
      "Ġertekeles": 2643,
      "Ġszervezetek": 2644,
      "Ġugyanezen": 2645,
      "Ġmagaban": 2646,
      "25": 2647,
      "biztonsag": 2648,
      "ke": 2649,
      "papir": 2650,
      "ukt": 2651,
      "Ġvii": 2652,
      "Ġalapugy": 2653,
      "Ġeuro": 2654,
      "sagi": 2655,
      "Ġfotanacs": 2656,
      "Ġberuhaz": 2657,
      "ozza": 2658,
      "Ġallatok": 2659,
      "Ġtobbi": 2660,
      "Ġvannak": 2661,
      "Ġszen": 2662,
      "Ġkeresetet": 2663,
      "esztesi": 2664,
      "Ġalabb": 2665,
      "Ġerteke": 2666,
      "Ġus": 2667,
      "Ġbi": 2668,
      "Ġprojekt": 2669,
      "Ġegyet": 2670,
      "Ġequ": 2671,
      "Ġkitunik": 2672,
      "Ġtakarmany": 2673,
      "Ġelt": 2674,
      "men": 2675,
      "Ġfolytatott": 2676,
      "pedig": 2677,
      "xt": 2678,
      "itikai": 2679,
      "Ġfelfugg": 2680,
      "arta": 2681,
      "Ġgyakorl": 2682,
      "him": 2683,
      "Ġintern": 2684,
      "Ġmasreszt": 2685,
      "Ġifr": 2686,
      "16": 2687,
      "ezest": 2688,
      "hitel": 2689,
      "Ġvamtarifaszam": 2690,
      "Ġtenni": 2691,
      "Ġsch": 2692,
      "Ġmik": 2693,
      "Ġhatarozott": 2694,
      "Ġholland": 2695,
      "Ġslsc": 2696,
      "la": 2697,
      "Ðµ": 2698,
      "Ġbrusszel": 2699,
      "Ġrom": 2700,
      "Ġelegendo": 2701,
      "Ġmegad": 2702,
      "ÏĦ": 2703,
      "29": 2704,
      "allgat": 2705,
      "Ġreven": 2706,
      "Ġszamitott": 2707,
      "otta": 2708,
      "Ġkellett": 2709,
      "oval": 2710,
      "hess": 2711,
      "Ġviselesere": 2712,
      "Ġfigyelm": 2713,
      "Ġmagan": 2714,
      "Ġelve": 2715,
      "Ġbefoly": 2716,
      "Ġgaran": 2717,
      "atresz": 2718,
      "Ġvaltoz": 2719,
      "Ð¾": 2720,
      "orvos": 2721,
      "Ġele": 2722,
      "Ġjogsertes": 2723,
      "Ġigen": 2724,
      "Ġlenyegeben": 2725,
      "kiadas": 2726,
      "fele": 2727,
      "ero": 2728,
      "Ġenergia": 2729,
      "Ġszabvany": 2730,
      "Ġlegyen": 2731,
      "valt": 2732,
      "Ġzold": 2733,
      "Ġnegyedik": 2734,
      "Ġfotanacsnok": 2735,
      "uti": 2736,
      "Ġhea": 2737,
      "Ġinformacio": 2738,
      "Ġegyuttmukodes": 2739,
      "vas": 2740,
      "itast": 2741,
      "Ġul": 2742,
      "keres": 2743,
      "kezett": 2744,
      "Ġtisztvis": 2745,
      "Ġpolg": 2746,
      "olagos": 2747,
      "Ġszank": 2748,
      "Ġtarsad": 2749,
      "itr": 2750,
      "Ġnyelvu": 2751,
      "hetnek": 2752,
      "Ġnyelve": 2753,
      "Ĥ¬": 2754,
      "Ġ0094": 2755,
      "ĠâĤ¬": 2756,
      "Ġjogalkot": 2757,
      "Ġegyreszt": 2758,
      "suly": 2759,
      "essz": 2760,
      "Ġse": 2761,
      "Ġkulonkiadas": 2762,
      "pol": 2763,
      "Ġmeghalado": 2764,
      "Ġalair": 2765,
      "Ġerdekelt": 2766,
      "zesek": 2767,
      "zalog": 2768,
      "Ġmon": 2769,
      "Ġidej": 2770,
      "Ġnagyobb": 2771,
      "Ġnyilvanvalo": 2772,
      "Ġlenne": 2773,
      "izal": 2774,
      "Ġalkalmazasaban": 2775,
      "Ġvill": 2776,
      "Ġkonc": 2777,
      "ita": 2778,
      "Ġviszony": 2779,
      "Ġjelzalog": 2780,
      "eszkoz": 2781,
      "Ġhelyi": 2782,
      "Ġfeladata": 2783,
      "Ġtap": 2784,
      "Ġfontos": 2785,
      "Ġszakm": 2786,
      "Ġbirosagi": 2787,
      "Ġoldal": 2788,
      "izmus": 2789,
      "asmod": 2790,
      "Ġidoszakban": 2791,
      "Ġegeszsegugyi": 2792,
      "eserol": 2793,
      "Ġkelet": 2794,
      "kezet": 2795,
      "Ġazaz": 2796,
      "iteni": 2797,
      "Ġkialak": 2798,
      "Ġtartalmazza": 2799,
      "Î½": 2800,
      "Ġgyumolcs": 2801,
      "hiv": 2802,
      "Ġaug": 2803,
      "Ġro": 2804,
      "Ġkinai": 2805,
      "Ġszerzodo": 2806,
      "okbol": 2807,
      "17": 2808,
      "bizottsag": 2809,
      "Ġtext": 2810,
      "Ġbekezdesevel": 2811,
      "Ġifrs": 2812,
      "juk": 2813,
      "Ġmaga": 2814,
      "ashoz": 2815,
      "Ïģ": 2816,
      "esito": 2817,
      "ust": 2818,
      "level": 2819,
      "elme": 2820,
      "Ġosszege": 2821,
      "enk": 2822,
      "Ġkiigaz": 2823,
      "Ġbanasmod": 2824,
      "Ġmegter": 2825,
      "Ġltd": 2826,
      "Ġkivan": 2827,
      "Ġfigyelemmel": 2828,
      "Ġkamat": 2829,
      "Ġhatarozata": 2830,
      "Ġszok": 2831,
      "ay": 2832,
      "Ġbem": 2833,
      "manyos": 2834,
      "lop": 2835,
      "Ġregion": 2836,
      "Ġmegallapitasa": 2837,
      "Ġkulonos": 2838,
      "Ġreszveny": 2839,
      "bin": 2840,
      "Ġhelyett": 2841,
      "Ġlegk": 2842,
      "Ġohim": 2843,
      "Ġvizsgalata": 2844,
      "sak": 2845,
      "Ġfelulvizsgalat": 2846,
      "Ġkeresztul": 2847,
      "Ġnyilvantartas": 2848,
      "Ġrendeletre": 2849,
      "Ġkategori": 2850,
      "02": 2851,
      "Ġtelep": 2852,
      "kezo": 2853,
      "eher": 2854,
      "Ġalaprendelet": 2855,
      "Ġovezet": 2856,
      "zek": 2857,
      "Ġfelelosseg": 2858,
      "foglal": 2859,
      "18": 2860,
      "hatjak": 2861,
      "Ġvad": 2862,
      "Ġrendszerek": 2863,
      "sch": 2864,
      "Ġhozzaf": 2865,
      "balep": 2866,
      "68": 2867,
      "Ġertekpapir": 2868,
      "Ġec": 2869,
      "Ġnyugdij": 2870,
      "Ġallomany": 2871,
      "Ġlehetseges": 2872,
      "Ġnetto": 2873,
      "Ġko": 2874,
      "hetetlen": 2875,
      "esebb": 2876,
      "eszteseg": 2877,
      "olja": 2878,
      "emi": 2879,
      "asonl": 2880,
      "Ġingatlannal": 2881,
      "lu": 2882,
      "atek": 2883,
      "Ġgazdalk": 2884,
      "Ġerinto": 2885,
      "Ġkepviselet": 2886,
      "Ġno": 2887,
      "Ġszabalyokat": 2888,
      "Ġindokolt": 2889,
      "ona": 2890,
      "Ġhatalybalep": 2891,
      "Ġszemelyes": 2892,
      "usztus": 2893,
      "Ġszandek": 2894,
      "iszter": 2895,
      "jenek": 2896,
      "Ġfelszol": 2897,
      "Ġaugusztus": 2898,
      "Ġugyekben": 2899,
      "elni": 2900,
      "Ġvegzes": 2901,
      "echan": 2902,
      "Ġtiz": 2903,
      "Ġrendelkezesei": 2904,
      "Ġsk": 2905,
      "Ġosszeh": 2906,
      "elte": 2907,
      "Ġalkatresz": 2908,
      "asu": 2909,
      "atikus": 2910,
      "Ġfriss": 2911,
      "hataroz": 2912,
      "Ġdel": 2913,
      "Ġjogszabalyok": 2914,
      "Ġosszehasonl": 2915,
      "fi": 2916,
      "Ġerre": 2917,
      "Ġoda": 2918,
      "Ġjelentes": 2919,
      "Ġcsup": 2920,
      "Ġcselek": 2921,
      "ana": 2922,
      "Ġaty": 2923,
      "Ġadok": 2924,
      "Ġmarpedig": 2925,
      "Ġbiztositek": 2926,
      "ogen": 2927,
      "Ġszav": 2928,
      "Ġ220": 2929,
      "Ġbirosagnak": 2930,
      "ezeset": 2931,
      "Ġtervezett": 2932,
      "Ġjelzaloghitel": 2933,
      "Ġtorten": 2934,
      "Ġequity": 2935,
      "Ġcsupan": 2936,
      "Ġpot": 2937,
      "Ġhelyesen": 2938,
      "Ġszerzodesre": 2939,
      "forr": 2940,
      "ruhaz": 2941,
      "Ġhelye": 2942,
      "ven": 2943,
      "Ġanelkul": 2944,
      "ca": 2945,
      "Ġgorog": 2946,
      "Ġtortent": 2947,
      "uvaroz": 2948,
      "asnak": 2949,
      "Ġahogy": 2950,
      "Ġjelol": 2951,
      "Ġmcy": 2952,
      "Ġhozzaferes": 2953,
      "Ġterjed": 2954,
      "Ġli": 2955,
      "Ġkotelezettsege": 2956,
      "Ġideertve": 2957,
      "tatott": 2958,
      "Ġgyakorolt": 2959,
      "Ġemlekeztetni": 2960,
      "ford": 2961,
      "otting": 2962,
      "Ġakadaly": 2963,
      "Ġhet": 2964,
      "Ġennel": 2965,
      "Ġhidr": 2966,
      "rajzi": 2967,
      "Ġteljesul": 2968,
      "Ġkedvezmenyezett": 2969,
      "74": 2970,
      "Ġlegut": 2971,
      "strom": 2972,
      "altal": 2973,
      "Ġbeszam": 2974,
      "sav": 2975,
      "Ġvt": 2976,
      "Ġslotting": 2977,
      "Ġlaj": 2978,
      "nagy": 2979,
      "ver": 2980,
      "Ġiteletenek": 2981,
      "Ġkerelmezo": 2982,
      "Ġiranymutat": 2983,
      "Ġkulso": 2984,
      "Ġtagallami": 2985,
      "ken": 2986,
      "Ġ&": 2987,
      "ereseg": 2988,
      "Ġjoghatosag": 2989,
      "Ġkapac": 2990,
      "Ġlevon": 2991,
      "Ġtestulet": 2992,
      "oll": 2993,
      "Ġhianyaban": 2994,
      "Îµ": 2995,
      "Ġveszteseg": 2996,
      "Ġrak": 2997,
      "Ġattol": 2998,
      "Ġef": 2999,
      "emb": 3000,
      "Ġanal": 3001,
      "Ġcukor": 3002,
      "van": 3003,
      "ajaban": 3004,
      "Ġhataskorrel": 3005,
      "Ġrendeletnek": 3006,
      "iszony": 3007,
      "Ġfigyelembevetel": 3008,
      "Ġnehez": 3009,
      "Ġkimond": 3010,
      "Ġamer": 3011,
      "Ġfellebbezes": 3012,
      "Ġtartoznak": 3013,
      "Ġszakmai": 3014,
      "Ġkozul": 3015,
      "ebol": 3016,
      "Ġpolgari": 3017,
      "Ġeloirja": 3018,
      "lem": 3019,
      "Ġszin": 3020,
      "haz": 3021,
      "Ġegyenertek": 3022,
      "Ġrovid": 3023,
      "Ġvagyon": 3024,
      "Ġment": 3025,
      "Ġertekelese": 3026,
      "Ġfoldrajzi": 3027,
      "keresked": 3028,
      "Ġlapjaban": 3029,
      "Ġhatranyos": 3030,
      "Ġmechan": 3031,
      "Ġmegtag": 3032,
      "Ġkozzetetel": 3033,
      "Ġbrusszelben": 3034,
      "Ġkv": 3035,
      "Ġezenkivul": 3036,
      "Ġkulfoldi": 3037,
      "Ġprob": 3038,
      "Ġtenylegesen": 3039,
      "Ġreszvetel": 3040,
      "Ġjelentoseg": 3041,
      "oanyag": 3042,
      "Ġfelhatalmazason": 3043,
      "Ġhatarido": 3044,
      "Ġfelfuggeszt": 3045,
      "Ġhor": 3046,
      "eleg": 3047,
      "Ġmig": 3048,
      "Ġfuggetlenul": 3049,
      "Ġ080": 3050,
      "08": 3051,
      "Ġkuld": 3052,
      "Ġkisebb": 3053,
      "allas": 3054,
      "rendszer": 3055,
      "Ġmegind": 3056,
      "Ġreszben": 3057,
      "etelep": 3058,
      "Ġteljesitmeny": 3059,
      "Ð½": 3060,
      "Ġlajstrom": 3061,
      "Â°": 3062,
      "okhoz": 3063,
      "Ġlengyel": 3064,
      "Ġjoga": 3065,
      "Ġnek": 3066,
      "Ġelismer": 3067,
      "Ġitelete": 3068,
      "Ġfer": 3069,
      "Ġkonyv": 3070,
      "Ġkapott": 3071,
      "itesere": 3072,
      "ors": 3073,
      "lagos": 3074,
      "oket": 3075,
      "Ġkikot": 3076,
      "Ġuzleti": 3077,
      "Ġlehetoseget": 3078,
      "Ġ1994": 3079,
      "elik": 3080,
      "Ġkorlatozas": 3081,
      "Ġkozleked": 3082,
      "ener": 3083,
      "Ġfelteve": 3084,
      "abil": 3085,
      "Ġalabbiak": 3086,
      "ikl": 3087,
      "Ġjarmuvek": 3088,
      "Ġaltala": 3089,
      "viteli": 3090,
      "Ġegyenlo": 3091,
      "Ġszembeni": 3092,
      "45": 3093,
      "Ġtamogatasok": 3094,
      "Ġbiztositani": 3095,
      "ugal": 3096,
      "Ġmegerosit": 3097,
      "Ġmunkavallalok": 3098,
      "Ġkezdemeny": 3099,
      "Ġmegenged": 3100,
      "Ġ125": 3101,
      "Ġmilyen": 3102,
      "Ġengedelyezett": 3103,
      "Ġrendelkezeseket": 3104,
      "Ġmindaz": 3105,
      "asbeli": 3106,
      "Ġalkalmazasat": 3107,
      "Ġfeltet": 3108,
      "Ġvallalat": 3109,
      "irany": 3110,
      "Ġhosszu": 3111,
      "Ġhangsuly": 3112,
      "Ġletelep": 3113,
      "Ġvtsz": 3114,
      "Ġfranciaorszag": 3115,
      "Ġnyereseg": 3116,
      "Ġdompingellenes": 3117,
      "Ġox": 3118,
      "Ġjellemz": 3119,
      "Ġcelkituz": 3120,
      "Ġexc": 3121,
      "Ġvillam": 3122,
      "las": 3123,
      "39": 3124,
      "Ġtovabbra": 3125,
      "Ġhatarozza": 3126,
      "Ġsemmilyen": 3127,
      "Ġstatiszt": 3128,
      "Ġvizsgalatok": 3129,
      "Ġvag": 3130,
      "Ġkozbesz": 3131,
      "Ġleteleped": 3132,
      "Ġbeteg": 3133,
      "Ġdr": 3134,
      "Ġonallo": 3135,
      "Ġbekezdesere": 3136,
      "vezeto": 3137,
      "erzesi": 3138,
      "Ġbelep": 3139,
      "Ġtunik": 3140,
      "Ġfut": 3141,
      "Ġallapot": 3142,
      "Ġhatarozatban": 3143,
      "Ġfunk": 3144,
      "Ġorvos": 3145,
      "Ġmegallapodasok": 3146,
      "ulf": 3147,
      "Ġesetekben": 3148,
      "Ġ1997": 3149,
      "Ġfolyamatban": 3150,
      "haj": 3151,
      "Ġgyermek": 3152,
      "Ġallitja": 3153,
      "hetik": 3154,
      "Ġtermelo": 3155,
      "ket": 3156,
      "olaj": 3157,
      "adt": 3158,
      "Ġvegul": 3159,
      "Ġkotelezettseget": 3160,
      "meneti": 3161,
      "Ġtevekenyseget": 3162,
      "Ġbizonyitvany": 3163,
      "nagyobb": 3164,
      "Ġ020": 3165,
      "Ġbefolyas": 3166,
      "Ġlennie": 3167,
      "Ġ0000": 3168,
      "itasanak": 3169,
      "Ġarucsoport": 3170,
      "Î¿Ï": 3171,
      "Ġvonatkoznak": 3172,
      "Ġlegnagyobb": 3173,
      "co": 3174,
      "Ġeloirasok": 3175,
      "Ġ1996": 3176,
      "vi": 3177,
      "Ġszamu": 3178,
      "Ġreszeben": 3179,
      "Ġhaladja": 3180,
      "itok": 3181,
      "csok": 3182,
      "Ġberendezesek": 3183,
      "Ġhaszn": 3184,
      "Ġkotelezettsegvallal": 3185,
      "Ġiranyul": 3186,
      "Ġtettek": 3187,
      "Ġsegitseg": 3188,
      "Ġszekhely": 3189,
      "Ġvagyis": 3190,
      "Ġatmeneti": 3191,
      "Ġelleni": 3192,
      "Ġfeher": 3193,
      "Ġjetol": 3194,
      "Ġhe": 3195,
      "Ġforgalmaz": 3196,
      "Ġkerdesre": 3197,
      "77": 3198,
      "Ġmegelozoen": 3199,
      "Ġellenorzesi": 3200,
      "Ġhivatkozas": 3201,
      "nov": 3202,
      "Ġnyers": 3203,
      "Ġaranak": 3204,
      "Ġolaj": 3205,
      "Ġkozze": 3206,
      "elesek": 3207,
      "Ġszintu": 3208,
      "Ġalkalmazhato": 3209,
      "Ġvaltozat": 3210,
      "Ġelektrom": 3211,
      "eseben": 3212,
      "Ġallaspontja": 3213,
      "Ġkivuli": 3214,
      "amp": 3215,
      "fogva": 3216,
      "Ġtartozkodasi": 3217,
      "Ġtextil": 3218,
      "ileg": 3219,
      "Ġtri": 3220,
      "Ġennelfogva": 3221,
      "mar": 3222,
      "Ġkerelmek": 3223,
      "Ġegyuttmukod": 3224,
      "Ġexportalo": 3225,
      "kerul": 3226,
      "Ġvaloszin": 3227,
      "Ġmeghoz": 3228,
      "Ġfelszer": 3229,
      "utan": 3230,
      "Ġfa": 3231,
      "Ġcas": 3232,
      "Ġviszont": 3233,
      "Ġ1995": 3234,
      "son": 3235,
      "Ġatruhaz": 3236,
      "Ġ103": 3237,
      "Ġbiztositasi": 3238,
      "Ġero": 3239,
      "Ġkeri": 3240,
      "Ġjelenti": 3241,
      "Ġugyanazon": 3242,
      "Ġbecs": 3243,
      "Ġmegszuntet": 3244,
      "Ġrogzitett": 3245,
      "Ġharmon": 3246,
      "saga": 3247,
      "eves": 3248,
      "ÑĢ": 3249,
      "Ġipar": 3250,
      "fej": 3251,
      "Ġlett": 3252,
      "Ġokmany": 3253,
      "26": 3254,
      "Ġszazalek": 3255,
      "Ġpiacon": 3256,
      "Ġellatott": 3257,
      "Ġsmer": 3258,
      "Ġreferencia": 3259,
      "Ġcl": 3260,
      "Ġfellebbezo": 3261,
      "Ġfelhiv": 3262,
      "okesz": 3263,
      "Ġve": 3264,
      "Ġmajd": 3265,
      "Ġrendelkezesere": 3266,
      "ositott": 3267,
      "Ġmed": 3268,
      "Ġhajt": 3269,
      "Ġportugal": 3270,
      "Ġstand": 3271,
      "Ġmetil": 3272,
      "onaltal": 3273,
      "Ġmaximalis": 3274,
      "Ġmindazonaltal": 3275,
      "Ġadoalany": 3276,
      "Ġalapitott": 3277,
      "Ġrendelkeznek": 3278,
      "Ġszankci": 3279,
      "Ġszeles": 3280,
      "27": 3281,
      "talom": 3282,
      "Ġfeladat": 3283,
      "Ġfelso": 3284,
      "Ġkepes": 3285,
      "Ġsv": 3286,
      "Ġirasbeli": 3287,
      "olog": 3288,
      "Ġsulyos": 3289,
      "Ġneve": 3290,
      "Ġgepjarmu": 3291,
      "terulet": 3292,
      "Ġoszlop": 3293,
      "Ġelszam": 3294,
      "Ġvilag": 3295,
      "Ġmegkot": 3296,
      "Ġleany": 3297,
      "ingens": 3298,
      "Ġmegfont": 3299,
      "Ġtudomanyos": 3300,
      "Ġelvenek": 3301,
      "Ġhelyes": 3302,
      "Ġkozel": 3303,
      "fin": 3304,
      "les": 3305,
      "Ġnep": 3306,
      "Ġseb": 3307,
      "ennyel": 3308,
      "Ġbemutat": 3309,
      "Ġkiszab": 3310,
      "jen": 3311,
      "Ġrendes": 3312,
      "Ġ115": 3313,
      "Ġmodosul": 3314,
      "Ġminiszter": 3315,
      "Ġto": 3316,
      "hany": 3317,
      "35": 3318,
      "Ġvisszaterit": 3319,
      "Ġair": 3320,
      "lov": 3321,
      "Ġolaszorszag": 3322,
      "kozel": 3323,
      "izalt": 3324,
      "Ġnelkuli": 3325,
      "Ġmegsertese": 3326,
      "Ġbizottsaga": 3327,
      "Ġinformaciot": 3328,
      "Ġnyilvanossag": 3329,
      "Ġarak": 3330,
      "Ġallaspont": 3331,
      "ian": 3332,
      "orvoslat": 3333,
      "Ġautom": 3334,
      "biztositasi": 3335,
      "Ġilleti": 3336,
      "hasznal": 3337,
      "adasa": 3338,
      "mb": 3339,
      "Ġelismert": 3340,
      "Ġfoglalkoztat": 3341,
      "Ġpor": 3342,
      "Ġjogorvoslat": 3343,
      "ational": 3344,
      "alasi": 3345,
      "ika": 3346,
      "ein": 3347,
      "Ġadni": 3348,
      "Ġegysegek": 3349,
      "ft": 3350,
      "Ġamerikai": 3351,
      "Ġigazsag": 3352,
      "Ġiteletet": 3353,
      "asai": 3354,
      "Ġallati": 3355,
      "Ġvetel": 3356,
      "44": 3357,
      "ica": 3358,
      "05": 3359,
      "Ġjogszeru": 3360,
      "Ġkombin": 3361,
      "Ġq": 3362,
      "Ġkivalaszt": 3363,
      "Ġobj": 3364,
      "Ġeszak": 3365,
      "zs": 3366,
      "Ġacel": 3367,
      "Ġkovetelmenyeknek": 3368,
      "Ġismertet": 3369,
      "Ġang": 3370,
      "pal": 3371,
      "Ġlesz": 3372,
      "Ġvegrehajtasa": 3373,
      "Ġerteket": 3374,
      "Ġadalek": 3375,
      "Ġszallit": 3376,
      "ehez": 3377,
      "Ġgyartok": 3378,
      "Ġhatodik": 3379,
      "Ġatalany": 3380,
      "Ġstandard": 3381,
      "Ġminimalis": 3382,
      "Ġminos": 3383,
      "07": 3384,
      "38": 3385,
      "ron": 3386,
      "esei": 3387,
      "Ġfelmerult": 3388,
      "Ġhatasa": 3389,
      "Ġkomp": 3390,
      "Ġszokasos": 3391,
      "ipo": 3392,
      "Ġpoz": 3393,
      "Ġbefektetesi": 3394,
      "Ġfiz": 3395,
      "Ġutasitani": 3396,
      "Ġhatarozatok": 3397,
      "lesi": 3398,
      "Ġszal": 3399,
      "itika": 3400,
      "Ġcikkevel": 3401,
      "Ġkihirdet": 3402,
      "Ġso": 3403,
      "Ġelkovet": 3404,
      "ga": 3405,
      "Ġbejelentett": 3406,
      "Ġbarmilyen": 3407,
      "04": 3408,
      "Ġhatalyos": 3409,
      "Ġrendeltet": 3410,
      "Ġ105": 3411,
      "Ġegyenerteku": 3412,
      "Ġodaitel": 3413,
      "Ġugynokseg": 3414,
      "Ġ030": 3415,
      "Ġkepezi": 3416,
      "Ġkiem": 3417,
      "Ġfuz": 3418,
      "Ġaram": 3419,
      "Ġhozatal": 3420,
      "Ġujra": 3421,
      "Ġvegyes": 3422,
      "Ġver": 3423,
      "tok": 3424,
      "Ġara": 3425,
      "Ġpalyazat": 3426,
      "fa": 3427,
      "Ġmeret": 3428,
      "Ġkevesebb": 3429,
      "Ġszulet": 3430,
      "85": 3431,
      "Ġ107": 3432,
      "Ġallapit": 3433,
      "Ġalkalmazasanak": 3434,
      "pe": 3435,
      "Ġalacsonyabb": 3436,
      "Ġelvet": 3437,
      "Ġmal": 3438,
      "reszrol": 3439,
      "Ġkozep": 3440,
      "xx": 3441,
      "ÑĤ": 3442,
      "Ġlux": 3443,
      "Ġmegkovet": 3444,
      "Ġminosegben": 3445,
      "Ġalkotmany": 3446,
      "omb": 3447,
      "osszabb": 3448,
      "Ġazonosito": 3449,
      "ino": 3450,
      "Ġsh": 3451,
      "Ġfuvaroz": 3452,
      "Ġzsir": 3453,
      "Ġkutat": 3454,
      "Ġonmag": 3455,
      "ger": 3456,
      "Ġmeghatarozni": 3457,
      "Ġipari": 3458,
      "66": 3459,
      "Ġhajo": 3460,
      "almanak": 3461,
      "Ġpt": 3462,
      "Ġrendelkezeseinek": 3463,
      "zesi": 3464,
      "arak": 3465,
      "icht": 3466,
      "onat": 3467,
      "Ġjogellenes": 3468,
      "ina": 3469,
      "kol": 3470,
      "Ġtipusu": 3471,
      "Ġmeghallgat": 3472,
      "intezet": 3473,
      "elmet": 3474,
      "etil": 3475,
      "Ġpontos": 3476,
      "munk": 3477,
      "Ġpanasz": 3478,
      "Ġcimzett": 3479,
      "Ġelektromos": 3480,
      "Ġkorabban": 3481,
      "endszer": 3482,
      "Ġspanyolorszag": 3483,
      "Ġegyszer": 3484,
      "oja": 3485,
      "eszeti": 3486,
      "ezheto": 3487,
      "Ġutol": 3488,
      "Ġszabalyoz": 3489,
      "Ġmegfontol": 3490,
      "Ġvisszavon": 3491,
      "Ġformajaban": 3492,
      "Ġszil": 3493,
      "Ġszarmazasi": 3494,
      "segenek": 3495,
      "azis": 3496,
      "Ġalapja": 3497,
      "Ġtekintheto": 3498,
      "Ġlegutobb": 3499,
      "Ġkivitel": 3500,
      "Ġuveg": 3501,
      "Ġsi": 3502,
      "kesz": 3503,
      "par": 3504,
      "Ġfelugyeleti": 3505,
      "Ġokoz": 3506,
      "nevezes": 3507,
      "li": 3508,
      "Ġvegso": 3509,
      "Ġirorszag": 3510,
      "Ġelrend": 3511,
      "Ġszolgaltatasnyujt": 3512,
      "Ġeredmenyek": 3513,
      "Ġlenyeges": 3514,
      "kovet": 3515,
      "Ġ112": 3516,
      "dig": 3517,
      "Ġregionalis": 3518,
      "okrol": 3519,
      "Ġmegadott": 3520,
      "Ġmagyarorszag": 3521,
      "Ġmegl": 3522,
      "Ġhit": 3523,
      "Ġelkerul": 3524,
      "Ġtermekekre": 3525,
      "Ġtolt": 3526,
      "Ġjavasolt": 3527,
      "Ġmaguk": 3528,
      "ovel": 3529,
      "Ġhelyen": 3530,
      "Ġinteg": 3531,
      "aris": 3532,
      "06": 3533,
      "Ġleanyvallal": 3534,
      "Ġret": 3535,
      "Ġkert": 3536,
      "Ġ300": 3537,
      "esites": 3538,
      "Ġszereplok": 3539,
      "birosag": 3540,
      "Ġmegold": 3541,
      "49": 3542,
      "Ġnoveked": 3543,
      "Ġcharta": 3544,
      "Ġhatarertek": 3545,
      "Ġjaro": 3546,
      "Ġkarter": 3547,
      "Ġdar": 3548,
      "Ġellenere": 3549,
      "200": 3550,
      "szint": 3551,
      "Ġhus": 3552,
      "Ġiteletben": 3553,
      "ÅĤ": 3554,
      "Ġmunkal": 3555,
      "Ġkifejezes": 3556,
      "Ġfelteteleket": 3557,
      "lap": 3558,
      "Ġtenyezok": 3559,
      "Ġhalozat": 3560,
      "Î·": 3561,
      "Ġmegszun": 3562,
      "Ġkozbeszerzesi": 3563,
      "Ġszerkezet": 3564,
      "Ġfelszam": 3565,
      "erseklet": 3566,
      "Ġtagjai": 3567,
      "Ġpo": 3568,
      "28": 3569,
      "Ġobjektiv": 3570,
      "vonal": 3571,
      "amutat": 3572,
      "Ġ1993": 3573,
      "Ġszenny": 3574,
      "Ġhatoanyag": 3575,
      "Ġtengeri": 3576,
      "Ġmegkulonboztetes": 3577,
      "Ġ207": 3578,
      "Ġjoggal": 3579,
      "Ġlabjegy": 3580,
      "Ġamelyre": 3581,
      "Ġkepviselok": 3582,
      "Ġman": 3583,
      "evok": 3584,
      "Ġmindegy": 3585,
      "ekbol": 3586,
      "odleges": 3587,
      "Ġelhely": 3588,
      "Ġgab": 3589,
      "Ġdes": 3590,
      "Ġvid": 3591,
      "Ġszemelyzeti": 3592,
      "Ġjogosultsag": 3593,
      "Ġfur": 3594,
      "Ġnyilvantartasba": 3595,
      "Ġkonzult": 3596,
      "ulaszt": 3597,
      "Ġelsodleges": 3598,
      "Ġbiztosito": 3599,
      "Ġfoglalja": 3600,
      "Ġder": 3601,
      "iteset": 3602,
      "Ġmegfog": 3603,
      "Ġkam": 3604,
      "Ġsved": 3605,
      "Ġletrehozott": 3606,
      "Ġkapacitas": 3607,
      "Ġtagallamoknak": 3608,
      "arl": 3609,
      "olasa": 3610,
      "Ġkepest": 3611,
      "Ġres": 3612,
      "Ġlem": 3613,
      "Ġvizsgalni": 3614,
      "Ġegyertelmuen": 3615,
      "Ġmindegyik": 3616,
      "ios": 3617,
      "95": 3618,
      "anc": 3619,
      "Ġallitas": 3620,
      "Ġmegkozel": 3621,
      "03": 3622,
      "Ġtechnikai": 3623,
      "Ġtavol": 3624,
      "Ġlabjegyzet": 3625,
      "Ġlako": 3626,
      "szerint": 3627,
      "Ġtartomany": 3628,
      "hidr": 3629,
      "cial": 3630,
      "arb": 3631,
      "Ġ106": 3632,
      "Ġatlagos": 3633,
      "Ġkotelezze": 3634,
      "Ġtet": 3635,
      "uket": 3636,
      "Ġkeny": 3637,
      "Ġbekovet": 3638,
      "Ġmarad": 3639,
      "Ġmeghatalmazotti": 3640,
      "Ġellenorzesek": 3641,
      "Ġtartott": 3642,
      "ecs": 3643,
      "Ġmukodo": 3644,
      "Ġiranyelvnek": 3645,
      "Ġkepviseleteben": 3646,
      "Ġelfogadhatatlan": 3647,
      "Ġtartozk": 3648,
      "Ġart": 3649,
      "Ġertelmezes": 3650,
      "Ġmeghosszabb": 3651,
      "Ïĥ": 3652,
      "Ġajanl": 3653,
      "Ġ1992": 3654,
      "Ġalkalmazasi": 3655,
      "eik": 3656,
      "Ġelore": 3657,
      "Ġgazdasag": 3658,
      "Ġletrehozasarol": 3659,
      "Ġsik": 3660,
      "Ġhasznalata": 3661,
      "Ġfelv": 3662,
      "Ġazonositas": 3663,
      "Ġeuipo": 3664,
      "Ġszamit": 3665,
      "Ġmad": 3666,
      "ink": 3667,
      "Ġdem": 3668,
      "Ġevre": 3669,
      "Ġhig": 3670,
      "Ġszakert": 3671,
      "pia": 3672,
      "Ġdijak": 3673,
      "eznek": 3674,
      "talanul": 3675,
      "Ġelkesz": 3676,
      "Ġmerlegelesi": 3677,
      "Ġfuggelek": 3678,
      "Ġcomp": 3679,
      "Ġfoglaltak": 3680,
      "Ġnat": 3681,
      "zott": 3682,
      "Ġegeszul": 3683,
      "Ġ108": 3684,
      "91": 3685,
      "Ġadmin": 3686,
      "kormany": 3687,
      "Ġtamogatast": 3688,
      "Ġlefoly": 3689,
      "der": 3690,
      "Ġmeghatarozza": 3691,
      "ulesi": 3692,
      "kolt": 3693,
      "agyaszt": 3694,
      "Ġcelbol": 3695,
      "Ġluxemb": 3696,
      "Ġfelulvizsgalati": 3697,
      "Ġkorr": 3698,
      "Ġjol": 3699,
      "Ñģ": 3700,
      "Ġkartell": 3701,
      "Ġkat": 3702,
      "Ġmasodszor": 3703,
      "Ġertelmezese": 3704,
      "nem": 3705,
      "ezot": 3706,
      "Ġneveben": 3707,
      "man": 3708,
      "Ġosszehang": 3709,
      "Ġidoszakra": 3710,
      "Ġletesitmeny": 3711,
      "36": 3712,
      "Ġellenorzo": 3713,
      "Ġszlov": 3714,
      "Ġmeglevo": 3715,
      "Ġamelyekre": 3716,
      "Ġjellemzo": 3717,
      "Ġoltalom": 3718,
      "Ġcm": 3719,
      "Ġhir": 3720,
      "Ġkozt": 3721,
      "Ġbelfoldi": 3722,
      "Ġtarsul": 3723,
      "Ġrek": 3724,
      "Ġonkormany": 3725,
      "Ġfizetesi": 3726,
      "Ġelutasitotta": 3727,
      "37": 3728,
      "Ġerinti": 3729,
      "zest": 3730,
      "ente": 3731,
      "ĠâĢ²": 3732,
      "Ġkozlemeny": 3733,
      "Ġmellek": 3734,
      "Ġgyujt": 3735,
      "orban": 3736,
      "Ġtulajdonos": 3737,
      "Ġmeghozatal": 3738,
      "oje": 3739,
      "Ġvo": 3740,
      "Ġmort": 3741,
      "Ġeloallitott": 3742,
      "Ġnyilvanos": 3743,
      "Ġgb": 3744,
      "fejl": 3745,
      "esitett": 3746,
      "Ġelad": 3747,
      "Ġbal": 3748,
      "Ġerve": 3749,
      "Ġnyert": 3750,
      "asztal": 3751,
      "Ġhajok": 3752,
      "Ġkezdo": 3753,
      "hessen": 3754,
      "Ġveli": 3755,
      "lep": 3756,
      "Ġ500": 3757,
      "Ġias": 3758,
      "Ġmegis": 3759,
      "meres": 3760,
      "elest": 3761,
      "Ġgh": 3762,
      "Ġbetart": 3763,
      "ester": 3764,
      "Ġkoncent": 3765,
      "Ġjogvita": 3766,
      "47": 3767,
      "Ġidopontjaban": 3768,
      "Ġtonna": 3769,
      "Ġnezve": 3770,
      "orok": 3771,
      "itasarol": 3772,
      "Ġkezeles": 3773,
      "Ġbelgium": 3774,
      "Ġzz": 3775,
      "Ġbevetel": 3776,
      "Ġjogkor": 3777,
      "Ġfordul": 3778,
      "Ġfogalom": 3779,
      "hozott": 3780,
      "Ġalkoh": 3781,
      "Ġreszesul": 3782,
      "cselek": 3783,
      "Ġtargyaban": 3784,
      "bben": 3785,
      "Ġabbol": 3786,
      "almu": 3787,
      "Ġallnak": 3788,
      "Ġellenorzese": 3789,
      "Ġfem": 3790,
      "ukr": 3791,
      "Ġatv": 3792,
      "Ġvalos": 3793,
      "ear": 3794,
      "Ġcelra": 3795,
      "Ġkellene": 3796,
      "Ġszovetsegi": 3797,
      "aszati": 3798,
      "Ġberendezes": 3799,
      "41": 3800,
      "Ġuk": 3801,
      "Ġaktiv": 3802,
      "ect": 3803,
      "Ġgazdalkodo": 3804,
      "Ġhomerseklet": 3805,
      "Ġcelu": 3806,
      "Ġmegegy": 3807,
      "Ġtevesen": 3808,
      "hass": 3809,
      "Ġszerzodeses": 3810,
      "Ġprp": 3811,
      "Ġlegkes": 3812,
      "Ġelozo": 3813,
      "Ġkoltsegvetesi": 3814,
      "Ġvedelme": 3815,
      "alas": 3816,
      "ellett": 3817,
      "ubl": 3818,
      "Ġbirosagok": 3819,
      "Ġhelyezeserol": 3820,
      "hy": 3821,
      "Ġfedezet": 3822,
      "Ġhozzaadott": 3823,
      "Ġmukodtet": 3824,
      "ukat": 3825,
      "Ġvoltak": 3826,
      "Ġalkalmazasara": 3827,
      "Ġmegsertesere": 3828,
      "Ġnom": 3829,
      "Ġvedelmet": 3830,
      "Ġtortenik": 3831,
      "Ġjo": 3832,
      "Ġesemeny": 3833,
      "Ġmegjelen": 3834,
      "itk": 3835,
      "tartasi": 3836,
      "Ġkibocsatasi": 3837,
      "Ġlist": 3838,
      "Ġmg": 3839,
      "Ġmegvalt": 3840,
      "Ġkormanyz": 3841,
      "Ġgener": 3842,
      "Ġpontot": 3843,
      "teben": 3844,
      "Ġmegak": 3845,
      "Ġklor": 3846,
      "Ġmechanizmus": 3847,
      "elve": 3848,
      "Ġcimu": 3849,
      "Ġlegkesobb": 3850,
      "Ġ102": 3851,
      "Ġkeszulek": 3852,
      "Ġnet": 3853,
      "Ġca": 3854,
      "Ġmegakadaly": 3855,
      "Ġtisztviselo": 3856,
      "forg": 3857,
      "Ġszell": 3858,
      "Ġhatosagi": 3859,
      "46": 3860,
      "azas": 3861,
      "encialis": 3862,
      "Ġalapugyben": 3863,
      "Ġmeghatarozasara": 3864,
      "ozni": 3865,
      "Ġfele": 3866,
      "Ġkornyezeti": 3867,
      "ergia": 3868,
      "Ġangol": 3869,
      "Ġanak": 3870,
      "Ġvamhatosag": 3871,
      "Ġaltalaban": 3872,
      "mbh": 3873,
      "esebben": 3874,
      "Ġkovetkezteben": 3875,
      "Ġtermeles": 3876,
      "Ġtermelesi": 3877,
      "Ġ120": 3878,
      "Ġbesorolas": 3879,
      "ezer": 3880,
      "eleset": 3881,
      "Ġmukodesi": 3882,
      "Ġidopontja": 3883,
      "Ġmegvalositas": 3884,
      "Ġallitolagos": 3885,
      "onkent": 3886,
      "Ġmiszerint": 3887,
      "Ġjen": 3888,
      "Ġkovetelmenyeket": 3889,
      "astr": 3890,
      "Ġhitelm": 3891,
      "ultet": 3892,
      "Ġgmbh": 3893,
      "Ġmegkeres": 3894,
      "Ġmasodlagos": 3895,
      "mond": 3896,
      "Ġkorlatozo": 3897,
      "Ġjovedelem": 3898,
      "oru": 3899,
      "Ġbiztositja": 3900,
      "Ġfizetes": 3901,
      "Ġlit": 3902,
      "Ġhr": 3903,
      "Ġugyfel": 3904,
      "Ġoket": 3905,
      "Ġ196": 3906,
      "Ġkotelezi": 3907,
      "Ġkizarolagos": 3908,
      "Ġtanul": 3909,
      "Ġmunkavallalo": 3910,
      "osorban": 3911,
      "ach": 3912,
      "Ġtevekenysege": 3913,
      "ipari": 3914,
      "Ġfelett": 3915,
      "Ġelbir": 3916,
      "seggel": 3917,
      "58": 3918,
      "Ġbenz": 3919,
      "ekhez": 3920,
      "Ġolt": 3921,
      "Ġgyakorol": 3922,
      "Ġteszik": 3923,
      "Ġutolso": 3924,
      "Ġkovetkezoket": 3925,
      "ice": 3926,
      "kont": 3927,
      "vedelem": 3928,
      "Ġdolg": 3929,
      "Ġazert": 3930,
      "Ġbunteto": 3931,
      "Ġlis": 3932,
      "jov": 3933,
      "Ġfunkci": 3934,
      "Ġkorlatozott": 3935,
      "Ġmennyisegek": 3936,
      "Ġirja": 3937,
      "Ġgondos": 3938,
      "Ġkimutat": 3939,
      "Ġadatszolgaltat": 3940,
      "Ġfl": 3941,
      "Ġelh": 3942,
      "32": 3943,
      "Ġkivant": 3944,
      "Ġaranyossag": 3945,
      "Ġintezkedest": 3946,
      "Ġtermelok": 3947,
      "98": 3948,
      "Ġmegjegyzes": 3949,
      "Ġoktat": 3950,
      "Ġbizonyitekok": 3951,
      "Ġmegallapitani": 3952,
      "Ġtermeket": 3953,
      "Ġital": 3954,
      "Ġszolgaltato": 3955,
      "itor": 3956,
      "Ġszabalyozott": 3957,
      "Ġreszletesebben": 3958,
      "Ġserelme": 3959,
      "kot": 3960,
      "Ġhitelintezet": 3961,
      "Ġhataridon": 3962,
      "Ġkozvetett": 3963,
      "Ġjarulek": 3964,
      "irat": 3965,
      "talansag": 3966,
      "eire": 3967,
      "Ġatlat": 3968,
      "Ġsvaj": 3969,
      "Ġhut": 3970,
      "Ġfogyaszto": 3971,
      "Ġevben": 3972,
      "ĠÂ°": 3973,
      "Ġhelyzetben": 3974,
      "Ġtermekeket": 3975,
      "ilt": 3976,
      "Ġegyesitett": 3977,
      "Ġonmagaban": 3978,
      "Ġelsosorban": 3979,
      "Ġic": 3980,
      "osszeg": 3981,
      "Ġzoldseg": 3982,
      "elott": 3983,
      "Ġramutat": 3984,
      "Ġletrehozo": 3985,
      "Ġsemmis": 3986,
      "Ġgum": 3987,
      "arat": 3988,
      "ekrol": 3989,
      "asainak": 3990,
      "Ġrendelkezeseit": 3991,
      "eviz": 3992,
      "Ġdokumentumok": 3993,
      "apcs": 3994,
      "ure": 3995,
      "Ġiranyelvben": 3996,
      "Ġterjesztett": 3997,
      "fogo": 3998,
      "Ġmegallapitja": 3999,
      "Ġellenoriz": 4000,
      "Ġgl": 4001,
      "Ġiranyelvet": 4002,
      "Ġszallitasi": 4003,
      "Ġlakossagi": 4004,
      "asakor": 4005,
      "ajanak": 4006,
      "Ġmegeloz": 4007,
      "Ġtargya": 4008,
      "Ġceg": 4009,
      "igy": 4010,
      "istr": 4011,
      "Ġszamos": 4012,
      "Ġfoszabaly": 4013,
      "Ġszaraz": 4014,
      "Ġvizsgalatot": 4015,
      "anal": 4016,
      "Ġminim": 4017,
      "84": 4018,
      "Ġmegjelolt": 4019,
      "Ġsc": 4020,
      "Ġbuncselek": 4021,
      "osegi": 4022,
      "enil": 4023,
      "Ġgyartelep": 4024,
      "Ġkereskedelem": 4025,
      "ement": 4026,
      "uf": 4027,
      "Ġhelyt": 4028,
      "ezked": 4029,
      "Ġph": 4030,
      "Ġhelyszin": 4031,
      "Ġqu": 4032,
      "enklat": 4033,
      "Ġgyartelepi": 4034,
      "Ġtanacsa": 4035,
      "71": 4036,
      "Ġvedelmi": 4037,
      "atom": 4038,
      "amid": 4039,
      "Ġproblem": 4040,
      "Ġkiser": 4041,
      "zon": 4042,
      "Ġold": 4043,
      "Ġkategoria": 4044,
      "odott": 4045,
      "Ġaktusok": 4046,
      "Ġkihirdeteset": 4047,
      "Ġkiterjeszt": 4048,
      "Ġrendszert": 4049,
      "Ġinfr": 4050,
      "Ġformaban": 4051,
      "Ġmukodeserol": 4052,
      "gaz": 4053,
      "Ġkolcsonos": 4054,
      "55": 4055,
      "Ġiranyado": 4056,
      "Ġelokesz": 4057,
      "alo": 4058,
      "ts": 4059,
      "ÏĢ": 4060,
      "strument": 4061,
      "Ġstabil": 4062,
      "Ġszabalyozo": 4063,
      "Ġmegfizet": 4064,
      "Ġjogalkoto": 4065,
      "Ġav": 4066,
      "Ġosszegenek": 4067,
      "Ġegyebkent": 4068,
      "Ġkesed": 4069,
      "Ġmunkaltat": 4070,
      "Ġvarhato": 4071,
      "termek": 4072,
      "Ġkesobbi": 4073,
      "Ġâī": 4074,
      "Ġvir": 4075,
      "Ġnl": 4076,
      "Ġnomenklat": 4077,
      "sd": 4078,
      "egeszseg": 4079,
      "Ġitelte": 4080,
      "Ġjelenlegi": 4081,
      "he": 4082,
      "Ġszervek": 4083,
      "Ġjogat": 4084,
      "Ġuzemelteto": 4085,
      "Ġtargyalason": 4086,
      "itest": 4087,
      "Ġmagasabb": 4088,
      "Ġkvot": 4089,
      "Ġdatum": 4090,
      "Ġigenybe": 4091,
      "Ġbg": 4092,
      "csak": 4093,
      "its": 4094,
      "Ġfizetendo": 4095,
      "Ð²": 4096,
      "eju": 4097,
      "Ġcser": 4098,
      "Ġlo": 4099,
      "Ġhatter": 4100,
      "Ġauszt": 4101,
      "Ġbirtok": 4102,
      "Ġhatarozattal": 4103,
      "Ġiranyelvvel": 4104,
      "Ġszolgaltatasokat": 4105,
      "amin": 4106,
      "Ġkijelolt": 4107,
      "Ġahogyan": 4108,
      "Ġstrateg": 4109,
      "des": 4110,
      "itve": 4111,
      "oxi": 4112,
      "egyenl": 4113,
      "Ġrez": 4114,
      "Ġinc": 4115,
      "Ġkerte": 4116,
      "Ġdio": 4117,
      "agazat": 4118,
      "Ġgyors": 4119,
      "Ġpet": 4120,
      "Ġelemzes": 4121,
      "Ġant": 4122,
      "Ġ150": 4123,
      "astrukt": 4124,
      "Ġszemelyi": 4125,
      "Ġlakohely": 4126,
      "Ġiranyito": 4127,
      "Ġfelteteleknek": 4128,
      "Ġvizsgalt": 4129,
      "75": 4130,
      "Ġletrej": 4131,
      "erdek": 4132,
      "ualis": 4133,
      "avallal": 4134,
      "Ġbehozatalara": 4135,
      "Ġtapasztal": 4136,
      "Ġ118": 4137,
      "Ġkezelese": 4138,
      "Ġismet": 4139,
      "Ġpolgar": 4140,
      "onom": 4141,
      "Ġmegtagad": 4142,
      "Ġkozosseget": 4143,
      "Ð»": 4144,
      "Ġht": 4145,
      "Ġcn": 4146,
      "okent": 4147,
      "uleg": 4148,
      "Ġoszton": 4149,
      "Ġtuzelo": 4150,
      "aciot": 4151,
      "Ġeljarassal": 4152,
      "Ġtanusitvany": 4153,
      "Ġ070": 4154,
      "aival": 4155,
      "Ġiso": 4156,
      "Ġpapir": 4157,
      "Ġigazgatasi": 4158,
      "adektalanul": 4159,
      "Ġvezeto": 4160,
      "ozi": 4161,
      "Ġleheto": 4162,
      "Ġugyletek": 4163,
      "Ġkerdeses": 4164,
      "Ġketseg": 4165,
      "Ġfizetett": 4166,
      "Ġatlag": 4167,
      "Ġrepuloter": 4168,
      "engely": 4169,
      "Ġenergi": 4170,
      "Ġrx": 4171,
      "Ġmenet": 4172,
      "Ġellentetben": 4173,
      "Ġna": 4174,
      "akra": 4175,
      "Ġmintav": 4176,
      "Ġmegor": 4177,
      "bor": 4178,
      "Ġletrejott": 4179,
      "Ġbirosaghoz": 4180,
      "88": 4181,
      "allito": 4182,
      "Ġcsokken": 4183,
      "Ġkiterjed": 4184,
      "Ġlez": 4185,
      "Ġszovege": 4186,
      "Ġkm": 4187,
      "Ġgu": 4188,
      "Ġmegengedett": 4189,
      "Ġ1510": 4190,
      "itjak": 4191,
      "Ġfoglalkozo": 4192,
      "Ġautomatikus": 4193,
      "aram": 4194,
      "Ġfinn": 4195,
      "megallap": 4196,
      "Ġ136": 4197,
      "Ġtarto": 4198,
      "Ġvont": 4199,
      "advany": 4200,
      "Ġalapjaul": 4201,
      "szeg": 4202,
      "itasahoz": 4203,
      "pa": 4204,
      "Ġinfrastrukt": 4205,
      "esekre": 4206,
      "Ġsav": 4207,
      "rac": 4208,
      "Ġink": 4209,
      "Ġstatisztikai": 4210,
      "Ġkulonboz": 4211,
      "ustr": 4212,
      "und": 4213,
      "Ġeljaro": 4214,
      "Ġfegy": 4215,
      "itsa": 4216,
      "Ġsal": 4217,
      "Ġnak": 4218,
      "Ġegymast": 4219,
      "Ġazonnal": 4220,
      "Ġreszleges": 4221,
      "oldalu": 4222,
      "Ġhitelmin": 4223,
      "Ġhalad": 4224,
      "Ġengedelyt": 4225,
      "Ġforrasok": 4226,
      "Ġkorrek": 4227,
      "Ġosszefuggo": 4228,
      "tern": 4229,
      "Ġvalamelyik": 4230,
      "Ġhianya": 4231,
      "Ġkozszolgal": 4232,
      "sm": 4233,
      "oha": 4234,
      "Ġ2022": 4235,
      "Ġszakaszaban": 4236,
      "100": 4237,
      "Î»": 4238,
      "Ġvil": 4239,
      "asait": 4240,
      "ong": 4241,
      "Ġkarb": 4242,
      "Ġteren": 4243,
      "Ġfolyam": 4244,
      "Ġotodik": 4245,
      "Ġegyeni": 4246,
      "Ġeurope": 4247,
      "Ġjogalany": 4248,
      "talek": 4249,
      "Ġmt": 4250,
      "ran": 4251,
      "Ġatalak": 4252,
      "Ġbo": 4253,
      "ya": 4254,
      "Ġaf": 4255,
      "Ġje": 4256,
      "Ġszempontbol": 4257,
      "Ġmus": 4258,
      "ate": 4259,
      "Ġengedelyek": 4260,
      "Ġazonosit": 4261,
      "Ġjegyezni": 4262,
      "jet": 4263,
      "eltek": 4264,
      "sp": 4265,
      "Ġvedjegyek": 4266,
      "Ġtox": 4267,
      "vedo": 4268,
      "Ġertekesitesi": 4269,
      "Ġreferenci": 4270,
      "Ġcell": 4271,
      "Ġcikkere": 4272,
      "esitesi": 4273,
      "Ġcy": 4274,
      "szallitas": 4275,
      "Ġteves": 4276,
      "Ġtarsadalom": 4277,
      "nan": 4278,
      "raf": 4279,
      "akt": 4280,
      "azol": 4281,
      "Ġatfogo": 4282,
      "Ġregi": 4283,
      "Ġbizalmas": 4284,
      "Ġjuttat": 4285,
      "assz": 4286,
      "Ġprop": 4287,
      "Ġtarsasagok": 4288,
      "Ġirat": 4289,
      "Ġnorveg": 4290,
      "Ġfajt": 4291,
      "ars": 4292,
      "Ġdan": 4293,
      "Ġutalo": 4294,
      "felol": 4295,
      "Ġkem": 4296,
      "ozasara": 4297,
      "Ġjovahagyott": 4298,
      "Ġazokra": 4299,
      "Ġfert": 4300,
      "Ġsol": 4301,
      "Ġmerteku": 4302,
      "Ġfejleszt": 4303,
      "strumentum": 4304,
      "kontingens": 4305,
      "Ġmindket": 4306,
      "Ġalapok": 4307,
      "ova": 4308,
      "Ġjelentest": 4309,
      "Îº": 4310,
      "Ġfeltetelei": 4311,
      "Ġfogyasztok": 4312,
      "kodex": 4313,
      "nyi": 4314,
      "Ġhatassal": 4315,
      "jai": 4316,
      "ies": 4317,
      "Ġelom": 4318,
      "itasok": 4319,
      "ekent": 4320,
      "Ġeloiras": 4321,
      "Ġorosz": 4322,
      "Ġfolyamatos": 4323,
      "Ġtuntet": 4324,
      "umin": 4325,
      "Ġrepr": 4326,
      "54": 4327,
      "Ġtur": 4328,
      "Ġkarban": 4329,
      "aru": 4330,
      "Ġfelulet": 4331,
      "Ġmegitel": 4332,
      "Ġcikkel": 4333,
      "esbe": 4334,
      "Ġalkalmazasaval": 4335,
      "Ġlabjegyzetben": 4336,
      "Ġpuszt": 4337,
      "Ġetil": 4338,
      "cal": 4339,
      "letek": 4340,
      "Ġkonny": 4341,
      "kuld": 4342,
      "odasi": 4343,
      "Ġcont": 4344,
      "Ġatultet": 4345,
      "avar": 4346,
      "Ġervenyesit": 4347,
      "sh": 4348,
      "Ġfinom": 4349,
      "Ġkifejtett": 4350,
      "Ġmeghaladja": 4351,
      "Ġletesitmenyek": 4352,
      "Ġvasuti": 4353,
      "Ġfelvetel": 4354,
      "Ġhaladektalanul": 4355,
      "Ġpreambulumbekezdeseben": 4356,
      "Ġajanlatker": 4357,
      "aterv": 4358,
      "egen": 4359,
      "akent": 4360,
      "Ġtun": 4361,
      "Ġszakaszban": 4362,
      "Ġbio": 4363,
      "Ġbiztositjak": 4364,
      "Ġsebesseg": 4365,
      "racio": 4366,
      "Ġvegrehajtasarol": 4367,
      "59": 4368,
      "Ġindokok": 4369,
      "yal": 4370,
      "Ġkovetkezmeny": 4371,
      "Ġvamkontingens": 4372,
      "Ġnyilvanvaloan": 4373,
      "itse": 4374,
      "Ġ400": 4375,
      "Ġpiacra": 4376,
      "Ġteljesen": 4377,
      "Ġeleget": 4378,
      "Ġlehessen": 4379,
      "Ġ138": 4380,
      "Ġkozossegen": 4381,
      "Ġreklam": 4382,
      "esztett": 4383,
      "Ġpir": 4384,
      "Ġml": 4385,
      "Ġagr": 4386,
      "Ġharmad": 4387,
      "lom": 4388,
      "Ġ109": 4389,
      "Ġvalasztott": 4390,
      "ĠÎ¼": 4391,
      "Ġyear": 4392,
      "Ġforras": 4393,
      "Ġosszefoglal": 4394,
      "gericht": 4395,
      "Ġgaranci": 4396,
      "Ġnapjan": 4397,
      "jedo": 4398,
      "Ġeloszt": 4399,
      "Ġszolgalat": 4400,
      "Ġsok": 4401,
      "Ġvaros": 4402,
      "Ġcime": 4403,
      "ace": 4404,
      "Ġcar": 4405,
      "Ġelozetesen": 4406,
      "Ġosszek": 4407,
      "viz": 4408,
      "Ġadalekanyag": 4409,
      "Ġadoztat": 4410,
      "tur": 4411,
      "Ġ210": 4412,
      "Ġvisszaterites": 4413,
      "Ġvasar": 4414,
      "Ġdisz": 4415,
      "hetove": 4416,
      "Ġ1991": 4417,
      "meghataroz": 4418,
      "Ġher": 4419,
      "huz": 4420,
      "Ġnitr": 4421,
      "ae": 4422,
      "termekek": 4423,
      "57": 4424,
      "Ġily": 4425,
      "56": 4426,
      "csokkent": 4427,
      "itettek": 4428,
      "sk": 4429,
      "Ġekb": 4430,
      "Ġmondat": 4431,
      "rop": 4432,
      "Ġgro": 4433,
      "Ġtukr": 4434,
      "Ġkab": 4435,
      "Ġcseh": 4436,
      "Ġtilt": 4437,
      "Ġvegrehajtasara": 4438,
      "ellel": 4439,
      "Ġkibocsatott": 4440,
      "Ġbelga": 4441,
      "43": 4442,
      "53": 4443,
      "eiben": 4444,
      "09": 4445,
      "Ġtudom": 4446,
      "Ġkoltsegeinek": 4447,
      "Ġkidolg": 4448,
      "Ġanyavallal": 4449,
      "eszkozok": 4450,
      "nyil": 4451,
      "Ġsemmi": 4452,
      "andok": 4453,
      "isch": 4454,
      "aik": 4455,
      "oben": 4456,
      "Ġbejegyzes": 4457,
      "Ġvette": 4458,
      "Ġtisztesseg": 4459,
      "Ġlu": 4460,
      "egyseg": 4461,
      "Ġszigoru": 4462,
      "Ġfigyelembevetelevel": 4463,
      "Ġelnoke": 4464,
      "esekor": 4465,
      "Ġtalalkoz": 4466,
      "Ġnyomon": 4467,
      "Ġdu": 4468,
      "Ġszallitmany": 4469,
      "ordin": 4470,
      "ezesenek": 4471,
      "Ġkibocsatas": 4472,
      "Ġteruletek": 4473,
      "dont": 4474,
      "Ġemellett": 4475,
      "ezesre": 4476,
      "Ġkeresetlevel": 4477,
      "Ġorszagokbol": 4478,
      "orol": 4479,
      "52": 4480,
      "Ġmodell": 4481,
      "Ġkorzet": 4482,
      "Ġszabalyozasi": 4483,
      "Ġhasonl": 4484,
      "Ġkol": 4485,
      "Ġfogalma": 4486,
      "ler": 4487,
      "Ġszintet": 4488,
      "Ġ050": 4489,
      "Ġghs": 4490,
      "Ġertekelesi": 4491,
      "folyam": 4492,
      "Ġstb": 4493,
      "Ġaltern": 4494,
      "Ġcod": 4495,
      "Ġfelhasznalasra": 4496,
      "Ġkoltsegekrol": 4497,
      "elzet": 4498,
      "Ġkozolt": 4499,
      "enc": 4500,
      "fed": 4501,
      "orator": 4502,
      "Ġ116": 4503,
      "Ġelismeres": 4504,
      "eren": 4505,
      "Ġkoltsegeket": 4506,
      "esetol": 4507,
      "Ġpolitikai": 4508,
      "zik": 4509,
      "Ġhelyzetet": 4510,
      "Ġspp": 4511,
      "Ġvamkodex": 4512,
      "Ġtartalek": 4513,
      "Ġru": 4514,
      "telj": 4515,
      "Ġszur": 4516,
      "Ġunion": 4517,
      "Ġkomm": 4518,
      "Ġmeghatarozo": 4519,
      "tp": 4520,
      "Ġatalanyertek": 4521,
      "biztonsagi": 4522,
      "estol": 4523,
      "Ġmegfeleles": 4524,
      "Ġfogado": 4525,
      "Ġkieleg": 4526,
      "Ġelkulon": 4527,
      "Ġkoru": 4528,
      "ozd": 4529,
      "Ġfolyt": 4530,
      "Ġalapon": 4531,
      "Ġkan": 4532,
      "esse": 4533,
      "Ġbefej": 4534,
      "Ġmegjeloles": 4535,
      "Ġtanulmany": 4536,
      "Ġsur": 4537,
      "Ġformaterv": 4538,
      "Ġtenybeli": 4539,
      "Ġmunkan": 4540,
      "ada": 4541,
      "Ġmodositani": 4542,
      "Ġanalog": 4543,
      "cel": 4544,
      "Ġilletoseg": 4545,
      "Ġeroforr": 4546,
      "Ġhelyre": 4547,
      "Ġmaradek": 4548,
      "rium": 4549,
      "Ġallapitotta": 4550,
      "Ġerdem": 4551,
      "Ġfoigazgat": 4552,
      "Ġinternational": 4553,
      "Ġbeszer": 4554,
      "Ġkapcsan": 4555,
      "Ġbut": 4556,
      "Ġalternativ": 4557,
      "Ïī": 4558,
      "Ġ127": 4559,
      "Ġprogramok": 4560,
      "efon": 4561,
      "Ġszulf": 4562,
      "azo": 4563,
      "Ġsajatos": 4564,
      "onalis": 4565,
      "Ġalbekezdese": 4566,
      "Ġjelleget": 4567,
      "Ġdarab": 4568,
      "Ġmentesseg": 4569,
      "emely": 4570,
      "Ġprod": 4571,
      "Ġszigetek": 4572,
      "Ġfek": 4573,
      "Ġraj": 4574,
      "Ġformatervezesi": 4575,
      "Ġdk": 4576,
      "Ġpal": 4577,
      "Ġamelyekben": 4578,
      "Ġvegyi": 4579,
      "Ġkiskeresked": 4580,
      "mennyel": 4581,
      "Ġanyagbol": 4582,
      "Ġirod": 4583,
      "Ġrad": 4584,
      "Ġkelloen": 4585,
      "62": 4586,
      "Ġmegsemmisitese": 4587,
      "Ġmodszert": 4588,
      "Ġegyetem": 4589,
      "Ġkesobb": 4590,
      "Ġszaml": 4591,
      "Ġhatosagai": 4592,
      "Ġutkoz": 4593,
      "Ġosszesen": 4594,
      "42": 4595,
      "Ġrendeltetesi": 4596,
      "vevo": 4597,
      "Ġlefolytat": 4598,
      "Ġkeszitmenyek": 4599,
      "Ġmegeros": 4600,
      "Ġbiztositasara": 4601,
      "Ġ}": 4602,
      "Ġota": 4603,
      "Ġpi": 4604,
      "Ġ{": 4605,
      "Ġill": 4606,
      "Ġcpa": 4607,
      "Ġkiegyenl": 4608,
      "br": 4609,
      "Ġkinev": 4610,
      "kedo": 4611,
      "Ġindokolas": 4612,
      "Ġsy": 4613,
      "ezz": 4614,
      "Ġ117": 4615,
      "Ġxii": 4616,
      "Ġham": 4617,
      "Ġcz": 4618,
      "ÏĤ": 4619,
      "asokkal": 4620,
      "Ġabr": 4621,
      "dr": 4622,
      "Ġmegnev": 4623,
      "Ġinditott": 4624,
      "Ġfedelzet": 4625,
      "ete": 4626,
      "Ġmegfelelnek": 4627,
      "Ġtisztessegtelen": 4628,
      "Ġalatti": 4629,
      "Ġjogalapok": 4630,
      "Ġintegr": 4631,
      "Ġmerteket": 4632,
      "Ġszekhelye": 4633,
      "jelol": 4634,
      "Ġkornyezetvedelmi": 4635,
      "Ġ178": 4636,
      "Ġensz": 4637,
      "Ġfizikai": 4638,
      "Ġvillamos": 4639,
      "Ġtipusa": 4640,
      "zeset": 4641,
      "Ġbud": 4642,
      "Ġtegy": 4643,
      "Ġdim": 4644,
      "luor": 4645,
      "Ġhid": 4646,
      "etet": 4647,
      "Ġhelyesb": 4648,
      "alapu": 4649,
      "bev": 4650,
      "Ġelbiral": 4651,
      "Ġbeszed": 4652,
      "fon": 4653,
      "Ġeredetu": 4654,
      "Ġertelmezett": 4655,
      "Ġeloseg": 4656,
      "Ġceljara": 4657,
      "hivatal": 4658,
      "Ġelemek": 4659,
      "Ġ123": 4660,
      "Ġallampolgarsag": 4661,
      "Ġegyuttes": 4662,
      "Ġmegjegyzesek": 4663,
      "81": 4664,
      "51": 4665,
      "konyv": 4666,
      "Ġutobb": 4667,
      "berend": 4668,
      "Ġjogalapot": 4669,
      "Ġunioba": 4670,
      "Ġinkabb": 4671,
      "ior": 4672,
      "Ġeszt": 4673,
      "Ġfuggoen": 4674,
      "Ġtarsadalmi": 4675,
      "Ġtagallamokban": 4676,
      "Ġalkalmazas": 4677,
      "Ġszerzett": 4678,
      "Ġminosulnek": 4679,
      "Ġ114": 4680,
      "Ġhalaszat": 4681,
      "Ġszel": 4682,
      "Ġmegmunk": 4683,
      "Ġhozzajarulas": 4684,
      "Ġezaltal": 4685,
      "ax": 4686,
      "szovet": 4687,
      "Ġ126": 4688,
      "Ġervek": 4689,
      "Ġbarom": 4690,
      "echnikai": 4691,
      "felv": 4692,
      "akkal": 4693,
      "Ġpalyazati": 4694,
      "Ġkerek": 4695,
      "jovahagy": 4696,
      "Ġ600": 4697,
      "lor": 4698,
      "Ġeh": 4699,
      "Ġelmulaszt": 4700,
      "Ġvidek": 4701,
      "Ġkiszer": 4702,
      "ale": 4703,
      "ĠÃ": 4704,
      "Ġszellemi": 4705,
      "Ġmegfontolasok": 4706,
      "Ġkovetett": 4707,
      "Ġpost": 4708,
      "Ġnapja": 4709,
      "felul": 4710,
      "Ġkoordin": 4711,
      "Ġkozszolgalati": 4712,
      "iranyelv": 4713,
      "Ġtorz": 4714,
      "Ġmuveletek": 4715,
      "Ġszamviteli": 4716,
      "Ġimo": 4717,
      "Ġkozerdek": 4718,
      "Ġza": 4719,
      "Ġkeletkez": 4720,
      "Ġmol": 4721,
      "Ġee": 4722,
      "ue": 4723,
      "Ġfeladatok": 4724,
      "aja": 4725,
      "Ġszuletesi": 4726,
      "Ġosszetett": 4727,
      "avol": 4728,
      "Ġfokozat": 4729,
      "Ġbeavatkozo": 4730,
      "lin": 4731,
      "Ġokok": 4732,
      "mod": 4733,
      "Ġszallito": 4734,
      "Ġtartalom": 4735,
      "Ġvammentes": 4736,
      "Ġados": 4737,
      "Ġtorok": 4738,
      "Ġkeverek": 4739,
      "Ġszerzodest": 4740,
      "ojanak": 4741,
      "edek": 4742,
      "lant": 4743,
      "Ġtipusjovahagy": 4744,
      "Ġik": 4745,
      "lehet": 4746,
      "Ġatad": 4747,
      "tipus": 4748,
      "Ġhaloz": 4749,
      "onny": 4750,
      "Ġazoknak": 4751,
      "ival": 4752,
      "forgalmi": 4753,
      "Ġalpontj": 4754,
      "Ġalkalmazta": 4755,
      "Ġkenyszer": 4756,
      "Ġokozott": 4757,
      "Ġmegkulonbozteto": 4758,
      "Ġazaltal": 4759,
      "Ġajanlatt": 4760,
      "fejlesztesi": 4761,
      "Ġalkalmazandok": 4762,
      "azasi": 4763,
      "Ġimportal": 4764,
      "Ġregio": 4765,
      "elked": 4766,
      "Ġfagyaszt": 4767,
      "Ġfelhasznalas": 4768,
      "Ġfonal": 4769,
      "Ġsziv": 4770,
      "Ġelutasitja": 4771,
      "Ġtorl": 4772,
      "Ġvamok": 4773,
      "Ġtengely": 4774,
      "Ġmegkez": 4775,
      "Ġmegsertette": 4776,
      "esu": 4777,
      "Ġamig": 4778,
      "Ġbele": 4779,
      "essegenek": 4780,
      "Ġkozuti": 4781,
      "Ġrec": 4782,
      "ejel": 4783,
      "Ġoper": 4784,
      "iteserol": 4785,
      "Ġosztrak": 4786,
      "ukra": 4787,
      "Ġkoll": 4788,
      "Ġvisszaeles": 4789,
      "Ġfelperesnek": 4790,
      "Ġneg": 4791,
      "Ġkoltsegeit": 4792,
      "ria": 4793,
      "penz": 4794,
      "Ġsug": 4795,
      "Ġ1990": 4796,
      "irant": 4797,
      "Ġezenfelul": 4798,
      "Ġveszelyeztet": 4799,
      "Ġcikka": 4800,
      "ko": 4801,
      "Ġ119": 4802,
      "oratorium": 4803,
      "rid": 4804,
      "Ġtuzeloanyag": 4805,
      "Ġfellep": 4806,
      "ĠÎ´": 4807,
      "Ġmr": 4808,
      "izacios": 4809,
      "Ġsajt": 4810,
      "Ġpoli": 4811,
      "Ġorszagban": 4812,
      "olc": 4813,
      "9300": 4814,
      "Ġkever": 4815,
      "zata": 4816,
      "Î¼": 4817,
      "Ġtartozkodas": 4818,
      "Ġhuz": 4819,
      "48": 4820,
      "Ġaranyos": 4821,
      "Ġelban": 4822,
      "Ġamit": 4823,
      "Ġtem": 4824,
      "Ġtette": 4825,
      "anz": 4826,
      "aju": 4827,
      "eme": 4828,
      "Î¿Ïħ": 4829,
      "Ġkotelezettsegszeg": 4830,
      "Ġnyujtottak": 4831,
      "Ġcrr": 4832,
      "Ġcpc": 4833,
      "Ġmagyarazat": 4834,
      "Ġertelmezesere": 4835,
      "Ġge": 4836,
      "Ġjellege": 4837,
      "itasra": 4838,
      "Ġ250": 4839,
      "atty": 4840,
      "990": 4841,
      "esetre": 4842,
      "ret": 4843,
      "Ġelteres": 4844,
      "Ġmegallapodast": 4845,
      "Ġvegezni": 4846,
      "ias": 4847,
      "Ġ540": 4848,
      "Ġnegyed": 4849,
      "ain": 4850,
      "Ġkiszabott": 4851,
      "Ġmen": 4852,
      "vo": 4853,
      "omas": 4854,
      "Ġkibocsato": 4855,
      "Ġnevezet": 4856,
      "Ġvegzo": 4857,
      "Ġfull": 4858,
      "Ġlehetosege": 4859,
      "ano": 4860,
      "Ġnr": 4861,
      "Ġkriteriumok": 4862,
      "Ġkeszul": 4863,
      "92": 4864,
      "Ġmeguj": 4865,
      "ister": 4866,
      "Ġidotartama": 4867,
      "Ġnevezetesen": 4868,
      "Ġkett": 4869,
      "Ġinst": 4870,
      "Ġhasznalni": 4871,
      "tion": 4872,
      "Ġnal": 4873,
      "Ġvilagos": 4874,
      "Ġegyebirant": 4875,
      "eptelen": 4876,
      "Ġland": 4877,
      "Ġkorlatozasok": 4878,
      "Ġtulajdonsag": 4879,
      "Ġmindenesetre": 4880,
      "per": 4881,
      "Ġhagyomany": 4882,
      "Ġhatarozataval": 4883,
      "Ġmegalapozott": 4884,
      "Ġelfogadasa": 4885,
      "Ġmagansz": 4886,
      "enie": 4887,
      "Ġlv": 4888,
      "Ġ130": 4889,
      "Ġkommunik": 4890,
      "aria": 4891,
      "Ġcip": 4892,
      "Ġkotelesek": 4893,
      "urt": 4894,
      "Ġamelyeknek": 4895,
      "Ġugyanaz": 4896,
      "Ġ!": 4897,
      "Ġfil": 4898,
      "oss": 4899,
      "ws": 4900,
      "Ġhatarozni": 4901,
      "Ġidoben": 4902,
      "lab": 4903,
      "gr": 4904,
      "Ġwh": 4905,
      "ĠÎ±": 4906,
      "asrol": 4907,
      "Ġtagallamnak": 4908,
      "Ġminimum": 4909,
      "edit": 4910,
      "Ġpontosan": 4911,
      "Ġmintak": 4912,
      "Ġhatekonysag": 4913,
      "utto": 4914,
      "Ġbankok": 4915,
      "Ġmodositasa": 4916,
      "Ġvaltozas": 4917,
      "Ġhav": 4918,
      "otol": 4919,
      "Ġhonapon": 4920,
      "Ġ549300": 4921,
      "Ġszarv": 4922,
      "Ġ320": 4923,
      "Ġmester": 4924,
      "egeszsegugyi": 4925,
      "Ġtechnolog": 4926,
      "Ġkerdo": 4927,
      "Ġterseg": 4928,
      "Ġorszagbeli": 4929,
      "faj": 4930,
      "Ġpeldany": 4931,
      "Ġkozon": 4932,
      "Ġdur": 4933,
      "nyulo": 4934,
      "eje": 4935,
      "Ġsegitsegnyujt": 4936,
      "Ġkemeny": 4937,
      "vat": 4938,
      "tari": 4939,
      "Ġasvany": 4940,
      "Ġelfogadhatosag": 4941,
      "amet": 4942,
      "olat": 4943,
      "Ġalapeljarasban": 4944,
      "Ġpontosit": 4945,
      "port": 4946,
      "ejt": 4947,
      "Ġvaltoztat": 4948,
      "Ġmiutan": 4949,
      "mon": 4950,
      "Ġtrib": 4951,
      "Ġgroup": 4952,
      "Ðº": 4953,
      "Ġmegfogalmaz": 4954,
      "Ġeszreveteleket": 4955,
      "Ġelelmiszerek": 4956,
      "ij": 4957,
      "Ġ267": 4958,
      "Ġvitatja": 4959,
      "Ġvele": 4960,
      "Ġegyuttesen": 4961,
      "Ġeloford": 4962,
      "Ġmuanyag": 4963,
      "Ġhatalyat": 4964,
      "Ġ113": 4965,
      "Ġmut": 4966,
      "Ġigazsagugyi": 4967,
      "Ġgabona": 4968,
      "Ġkimondja": 4969,
      "uzes": 4970,
      "otok": 4971,
      "osenergia": 4972,
      "87": 4973,
      "Ġminosegi": 4974,
      "Ġsport": 4975,
      "Ġkulonbseg": 4976,
      "Ġmintavetel": 4977,
      "ark": 4978,
      "Ġserti": 4979,
      "Ġszabalyainak": 4980,
      "Ġft": 4981,
      "Ġszolgaltatasnyujtas": 4982,
      "Ġerrol": 4983,
      "orendszer": 4984,
      "96": 4985,
      "reak": 4986,
      "ith": 4987,
      "ys": 4988,
      "Ġroz": 4989,
      "Ġ140": 4990,
      "Ġhitelkockazati": 4991,
      "Ġfak": 4992,
      "Ġtenyall": 4993,
      "Ġhatarozatat": 4994,
      "Ġbiro": 4995,
      "Ġnegativ": 4996,
      "Ġmodszerek": 4997,
      "Ġnel": 4998,
      "vetelet": 4999,
      "Ġtartani": 5000,
      "Ġatnyulo": 5001,
      "Ġkaros": 5002,
      "Ġbont": 5003,
      "da": 5004,
      "Ġaloli": 5005,
      "arend": 5006,
      "Ġnatrium": 5007,
      "olasara": 5008,
      "Ġosszegek": 5009,
      "ju": 5010,
      "Ġerkezett": 5011,
      "Ġeuropa": 5012,
      "Ġgyakorlata": 5013,
      "alan": 5014,
      "Ġie": 5015,
      "Ġteljesulnek": 5016,
      "Ġeuratom": 5017,
      "Ġvegrehajtasanak": 5018,
      "Ġamellyel": 5019,
      "Ġbrutto": 5020,
      "Ġfeltetele": 5021,
      "Ġmiatti": 5022,
      "esnek": 5023,
      "Ġegyid": 5024,
      "isag": 5025,
      "Ġleirt": 5026,
      "Ġfelhozott": 5027,
      "Ġmegallapitasara": 5028,
      "kocs": 5029,
      "Ġmegfeleloseg": 5030,
      "asmar": 5031,
      "sen": 5032,
      "meno": 5033,
      "Ġmegfigy": 5034,
      "Ġkeszitmeny": 5035,
      "Ġletelepedett": 5036,
      "Ġnovenyi": 5037,
      "Ġjavara": 5038,
      "Ġdiox": 5039,
      "elheto": 5040,
      "vesztes": 5041,
      "Ġelkovetett": 5042,
      "Ġhaszon": 5043,
      "Ġmegsemmisites": 5044,
      "altalan": 5045,
      "Ġfinanszirozas": 5046,
      "Ġegyaltalan": 5047,
      "cif": 5048,
      "Ġszarvasmar": 5049,
      "Ġhatast": 5050,
      "Ġkombinalt": 5051,
      "Ġlob": 5052,
      "Ġorvosi": 5053,
      "Ġervenyesul": 5054,
      "Ġmagatartas": 5055,
      "Ġunioban": 5056,
      "Ġcikl": 5057,
      "Ġlegy": 5058,
      "Ġbizottsaggal": 5059,
      "Ġindex": 5060,
      "Ġkerdeseket": 5061,
      "Ġnomenklatura": 5062,
      "Ġalszam": 5063,
      "emu": 5064,
      "aiban": 5065,
      "Ġuton": 5066,
      "Ġhollandia": 5067,
      "Ġmegy": 5068,
      "Ġadminiszt": 5069,
      "Ġvizi": 5070,
      "gan": 5071,
      "uld": 5072,
      "Ġruhaz": 5073,
      "kozlesi": 5074,
      "aszerz": 5075,
      "oni": 5076,
      "ensuly": 5077,
      "Ġiranyelve": 5078,
      "Ġajanlatkero": 5079,
      "Ġfeldolgozott": 5080,
      "Ġuzlet": 5081,
      "Ġbeadvany": 5082,
      "entr": 5083,
      "Ġvegrehajto": 5084,
      "Ġnovenyvedo": 5085,
      "eseinek": 5086,
      "zesere": 5087,
      "Ġtamaszt": 5088,
      "Ġleanyvallalat": 5089,
      "Ġmegallapitasat": 5090,
      "Ġlog": 5091,
      "Ġkiadott": 5092,
      "tatvany": 5093,
      "Ġadja": 5094,
      "Ġkusz": 5095,
      "Ġbirosaga": 5096,
      "Ġ620": 5097,
      "Ġtenyezo": 5098,
      "Ġcelkituzes": 5099,
      "Ġszeg": 5100,
      "Ġehhez": 5101,
      "landi": 5102,
      "Ġervel": 5103,
      "Ġnehany": 5104,
      "Ġosszegu": 5105,
      "Ġmeggy": 5106,
      "Ġvezer": 5107,
      "Ġkoze": 5108,
      "Ġbizottsaghoz": 5109,
      "Ġintezkedesekrol": 5110,
      "pu": 5111,
      "Ġfogalmat": 5112,
      "Ġelomozd": 5113,
      "Ġbeep": 5114,
      "Ġhozzaferest": 5115,
      "Ġaltaluk": 5116,
      "Ġmunkaviszony": 5117,
      "Ġkifogast": 5118,
      "Ġnemetorszagi": 5119,
      "Ġerof": 5120,
      "uzd": 5121,
      "Ġidok": 5122,
      "Ġho": 5123,
      "Ġgyakorlatot": 5124,
      "Ġalumin": 5125,
      "010": 5126,
      "bazis": 5127,
      "Ġegyszeru": 5128,
      "Ġszabalytalansag": 5129,
      "Ġfenyeben": 5130,
      "Ġjogosultja": 5131,
      "Ġfellebbezok": 5132,
      "Ġiratok": 5133,
      "etelt": 5134,
      "Ġismeretlen": 5135,
      "Ġluxemburg": 5136,
      "ini": 5137,
      "Ġleveg": 5138,
      "Ġversenytar": 5139,
      "Ġinformacios": 5140,
      "jek": 5141,
      "megjelol": 5142,
      "Ġteszt": 5143,
      "Ġviii": 5144,
      "Ġfogva": 5145,
      "Ġ999": 5146,
      "Ġfeltuntetett": 5147,
      "Ġdig": 5148,
      "Ġvettek": 5149,
      "uletek": 5150,
      "Ġlejart": 5151,
      "Ġhold": 5152,
      "Ġcsaladt": 5153,
      "allyal": 5154,
      "Ġveszelyes": 5155,
      "Ġkezb": 5156,
      "amos": 5157,
      "Ġmennyiseget": 5158,
      "fol": 5159,
      "Ïħ": 5160,
      "Ġsg": 5161,
      "Ġveszi": 5162,
      "omet": 5163,
      "ozben": 5164,
      "Ġkevesbe": 5165,
      "segeket": 5166,
      "Ġosszetev": 5167,
      "Ġvelemenyevel": 5168,
      "Ġhasznaljak": 5169,
      "Ġalkoto": 5170,
      "Ġszlovak": 5171,
      "Ġkovetkezoen": 5172,
      "Ġmennyisege": 5173,
      "Ġfelszolalasi": 5174,
      "ella": 5175,
      "eszi": 5176,
      "Ġkozlekedesi": 5177,
      "Ġvegrehajtott": 5178,
      "voz": 5179,
      "Ġlim": 5180,
      "Ġtudja": 5181,
      "Ġjogokat": 5182,
      "arancs": 5183,
      "Ġugyre": 5184,
      "ole": 5185,
      "Ġhy": 5186,
      "Ġmegalapozat": 5187,
      "Ġfuzodo": 5188,
      "Ġcsaladtag": 5189,
      "fizet": 5190,
      "Ġhar": 5191,
      "ezheti": 5192,
      "Ġfogalm": 5193,
      "usi": 5194,
      "Ġtartalmat": 5195,
      "Ġund": 5196,
      "Ġjogbiztonsag": 5197,
      "Ġhttp": 5198,
      "Ġpolitika": 5199,
      "Ġlemez": 5200,
      "Ġlehiv": 5201,
      "Ġeloado": 5202,
      "szal": 5203,
      "Ġegyeztet": 5204,
      "Ġfejlesztesi": 5205,
      "Ġszolgaltatast": 5206,
      "Ġont": 5207,
      "Ä±": 5208,
      "Ġfigyelmen": 5209,
      "Ġ111": 5210,
      "Ġutani": 5211,
      "Ġhatosagnak": 5212,
      "ack": 5213,
      "Ġmont": 5214,
      "Ġmenek": 5215,
      "Ġkiind": 5216,
      "Ġarut": 5217,
      "eki": 5218,
      "Ġjogvit": 5219,
      "feldolg": 5220,
      "Ġcsalad": 5221,
      "Ġminositett": 5222,
      "Ġalpontja": 5223,
      "Ġkovetkeztetesre": 5224,
      "Ġelvegezni": 5225,
      "arok": 5226,
      "Ġjutott": 5227,
      "65": 5228,
      "Ġbiroi": 5229,
      "Ġanyavallalat": 5230,
      "Ġ160": 5231,
      "Ġegyuttmukodesi": 5232,
      "vek": 5233,
      "Ġvaloszinu": 5234,
      "Ġelor": 5235,
      "Ġtoj": 5236,
      "Ġterfog": 5237,
      "Ġalkalmazzak": 5238,
      "Ġplat": 5239,
      "Ġteljesitett": 5240,
      "Ġfogyasztasra": 5241,
      "itiv": 5242,
      "ezent": 5243,
      "Ġbarmelyik": 5244,
      "Ġliz": 5245,
      "Ġnyilvanossagra": 5246,
      "Ġleirasa": 5247,
      "Ġlehetnek": 5248,
      "Ġ139": 5249,
      "sobb": 5250,
      "Ġeredetmegjelol": 5251,
      "Ġnyolc": 5252,
      "Ġpolitik": 5253,
      "Ġjoger": 5254,
      "Ġty": 5255,
      "Ġmegallapitast": 5256,
      "ikat": 5257,
      "Ġkeszitett": 5258,
      "Ġmesterseges": 5259,
      "Ġ121": 5260,
      "Ġvegrehajtas": 5261,
      "Ġannal": 5262,
      "Ġeldont": 5263,
      "Ġstrukt": 5264,
      "Ġ870": 5265,
      "Ġnoha": 5266,
      "fem": 5267,
      "Ġideje": 5268,
      "Ġfellebbezest": 5269,
      "Ġmegvizsgalni": 5270,
      "Ġopt": 5271,
      "Ġtitk": 5272,
      "Ġmasreszrol": 5273,
      "Ġvillamosenergia": 5274,
      "Ġmegkezd": 5275,
      "Ġtorvenyi": 5276,
      "Ġhitelker": 5277,
      "Ġefsa": 5278,
      "Ġismertetett": 5279,
      "Ġfogalommeghataroz": 5280,
      "Ġbetolt": 5281,
      "Ġhonapos": 5282,
      "Ġiranymutatas": 5283,
      "Ġfeldolgozas": 5284,
      "ute": 5285,
      "Ġpow": 5286,
      "Ġtelefon": 5287,
      "Ġmaganszemely": 5288,
      "Ġosztalek": 5289,
      "Ġosztalyba": 5290,
      "jara": 5291,
      "Ġtartaly": 5292,
      "ettol": 5293,
      "ozasat": 5294,
      "Ġbol": 5295,
      "ulajd": 5296,
      "Ġhasznalati": 5297,
      "eseit": 5298,
      "utal": 5299,
      "oltak": 5300,
      "enkent": 5301,
      "Ġaluminium": 5302,
      "Ġau": 5303,
      "ance": 5304,
      "Ġertesites": 5305,
      "hatarozat": 5306,
      "Ġlengyelorszag": 5307,
      "Ġmeghatarozottak": 5308,
      "Ġmegny": 5309,
      "Ġtartalmaznia": 5310,
      "raci": 5311,
      "Ġosszefon": 5312,
      "Ġ135": 5313,
      "Ġáĥ": 5314,
      "Ġjelentosen": 5315,
      "Ġmob": 5316,
      "ozta": 5317,
      "helyzet": 5318,
      "Ð´": 5319,
      "Ġ2574": 5320,
      "ozast": 5321,
      "atsz": 5322,
      "Ġtenyek": 5323,
      "Ġvedelemhez": 5324,
      "olhato": 5325,
      "Ġkiadasok": 5326,
      "Ġcps": 5327,
      "eker": 5328,
      "itt": 5329,
      "Ġeny": 5330,
      "olta": 5331,
      "Ġ145": 5332,
      "Ġrovat": 5333,
      "ourg": 5334,
      "ĠÃĹ": 5335,
      "Ġhasonloan": 5336,
      "Ġ124": 5337,
      "Ġ@": 5338,
      "anat": 5339,
      "oljak": 5340,
      "Ġbirak": 5341,
      "Ġkiallitas": 5342,
      "Ġteruleti": 5343,
      "Ġszakasza": 5344,
      "Ġ122": 5345,
      "Ġteljesitese": 5346,
      "89": 5347,
      "Ġgondoskod": 5348,
      "ical": 5349,
      "Ġ016": 5350,
      "Ġinn": 5351,
      "Ġtrans": 5352,
      "Ġfelperest": 5353,
      "Ġtilalom": 5354,
      "Ġhosszabb": 5355,
      "Ġszamat": 5356,
      "Ġjellemzok": 5357,
      "Ġkockazati": 5358,
      "Ġtanacsanak": 5359,
      "fajt": 5360,
      "Ġhelyszini": 5361,
      "Ġcsaladi": 5362,
      "Ġkitettseg": 5363,
      "Ġww": 5364,
      "Ġervet": 5365,
      "Ġlegfel": 5366,
      "Ġtac": 5367,
      "Ġmelt": 5368,
      "Ġhozzaferhetove": 5369,
      "Ġadohatosag": 5370,
      "Ġfennallasat": 5371,
      "Ġorok": 5372,
      "Ġjollehet": 5373,
      "Ġlegyenek": 5374,
      "Ġerkezo": 5375,
      "Ġjoghat": 5376,
      "Ġalatamasztasara": 5377,
      "edes": 5378,
      "Ġ611": 5379,
      "Ġnevet": 5380,
      "szektor": 5381,
      "Ġertekeleset": 5382,
      "one": 5383,
      "enyek": 5384,
      "Ġtribun": 5385,
      "Ġkitolt": 5386,
      "Ġhenger": 5387,
      "Ġxi": 5388,
      "Ġbevon": 5389,
      "Ġegyreszrol": 5390,
      "Ġparhuz": 5391,
      "83": 5392,
      "Ġtulmeno": 5393,
      "Ġpusztan": 5394,
      "ck": 5395,
      "Ġinternet": 5396,
      "Ġszuksegesek": 5397,
      "Ġix": 5398,
      "Ġhelyenvalo": 5399,
      "oker": 5400,
      "Ġszamitogep": 5401,
      "Ġ350": 5402,
      "Ġmindig": 5403,
      "Ġalkohol": 5404,
      "Ġengedellyel": 5405,
      "au": 5406,
      "Ġadata": 5407,
      "Ġkereseti": 5408,
      "Ġervei": 5409,
      "Ġadokot": 5410,
      "Ġvaltozo": 5411,
      "Ġkimer": 5412,
      "nyal": 5413,
      "Ġjogosultak": 5414,
      "Ġelfogadhato": 5415,
      "Ġmos": 5416,
      "Ġteruletere": 5417,
      "Ġdigit": 5418,
      "Ġkello": 5419,
      "Ġlobog": 5420,
      "ossagi": 5421,
      "Ġalkalommal": 5422,
      "Ġidopontban": 5423,
      "Ġmunkaszerz": 5424,
      "Ġkimondta": 5425,
      "Ġpontjaval": 5426,
      "rat": 5427,
      "Ġjelolt": 5428,
      "Ġprof": 5429,
      "Ġhozzaadottertek": 5430,
      "Ġkov": 5431,
      "Ġelsz": 5432,
      "Ġmozgas": 5433,
      "Ġholding": 5434,
      "Ġexcl": 5435,
      "Ġmult": 5436,
      "Ġvolum": 5437,
      "Ġ721": 5438,
      "keptelen": 5439,
      "67": 5440,
      "ulajdon": 5441,
      "Ġlathato": 5442,
      "Ġelfogadni": 5443,
      "ou": 5444,
      "Ġfosz": 5445,
      "iat": 5446,
      "Ġkuldott": 5447,
      "Ġfol": 5448,
      "Ġrendelkezest": 5449,
      "Ġugyvedek": 5450,
      "Ġeljarasokat": 5451,
      "Ġcikknek": 5452,
      "kezelo": 5453,
      "Ġâī¤": 5454,
      "Ġom": 5455,
      "ulasi": 5456,
      "Ġszamlak": 5457,
      "ĠÂ±": 5458,
      "mertek": 5459,
      "Ġszerves": 5460,
      "sagu": 5461,
      "Ġgorogorszag": 5462,
      "Ġteher": 5463,
      "Ġelev": 5464,
      "Ġosszeegyeztethetetlen": 5465,
      "vid": 5466,
      "Ġserv": 5467,
      "illet": 5468,
      "Ġepitesi": 5469,
      "Ġkuszob": 5470,
      "szerv": 5471,
      "aros": 5472,
      "Ġkollektiv": 5473,
      "Ġadatbazis": 5474,
      "Ġbejelentes": 5475,
      "ukben": 5476,
      "Ġmegkuld": 5477,
      "Ġigazolas": 5478,
      "Ġszilard": 5479,
      "idin": 5480,
      "Ġatlathatosag": 5481,
      "Ġtervezet": 5482,
      "Ġallampolg": 5483,
      "Ġkiveteles": 5484,
      "Ġindustr": 5485,
      "Ġfelteteleit": 5486,
      "bet": 5487,
      "Ġvelemenyem": 5488,
      "Ġvall": 5489,
      "Ġ141": 5490,
      "tom": 5491,
      "Ġ850": 5492,
      "Ġtajekoztatast": 5493,
      "aira": 5494,
      "Ġallitotta": 5495,
      "Ġterr": 5496,
      "Ġesszeru": 5497,
      "Ġvidekfejlesztesi": 5498,
      "Ġvagyoni": 5499,
      "Ġbetegseg": 5500,
      "Ġej": 5501,
      "Ġfajok": 5502,
      "Ġadot": 5503,
      "Ġkettos": 5504,
      "Ġhirdet": 5505,
      "Ġharmadszor": 5506,
      "szerek": 5507,
      "Ġforgalmi": 5508,
      "Ġhagyni": 5509,
      "97": 5510,
      "Ġlenniuk": 5511,
      "Ġgumi": 5512,
      "Ġbl": 5513,
      "Ġinditvanyanak": 5514,
      "erteket": 5515,
      "Ġcselekmeny": 5516,
      "Ġmegoszt": 5517,
      "emt": 5518,
      "ulas": 5519,
      "ojat": 5520,
      "Ġtokehal": 5521,
      "cium": 5522,
      "aig": 5523,
      "Ġviseli": 5524,
      "Ġannyi": 5525,
      "Ġkifizetes": 5526,
      "Ġszolgaltatasi": 5527,
      "Ġreszesedes": 5528,
      "Ġ1234": 5529,
      "Ġtenyallas": 5530,
      "61": 5531,
      "Ġmak": 5532,
      "ultek": 5533,
      "Ġimportor": 5534,
      "Ġsu": 5535,
      "Ġjogorvoslati": 5536,
      "Ġce": 5537,
      "Ġosszetetel": 5538,
      "Ġvisszaf": 5539,
      "Ġhiba": 5540,
      "Ġsvedorszag": 5541,
      "Ġ263": 5542,
      "politika": 5543,
      "Ġinstrumentum": 5544,
      "piac": 5545,
      "ish": 5546,
      "javal": 5547,
      "Ġjovedelm": 5548,
      "tartas": 5549,
      "Ġmindenek": 5550,
      "ozva": 5551,
      "Ġkategoriaba": 5552,
      "Ġ134": 5553,
      "Ġanyagi": 5554,
      "Ġtulmenoen": 5555,
      "Ġkerethatarozat": 5556,
      "Ġhitelkeret": 5557,
      "ukre": 5558,
      "Ġ440": 5559,
      "Ġvalojaban": 5560,
      "me": 5561,
      "almatlan": 5562,
      "Ġ520": 5563,
      "Ġhatarokon": 5564,
      "Ġgo": 5565,
      "Ġxx": 5566,
      "Ġfolyo": 5567,
      "Ġelnevezes": 5568,
      "Ġkovetelmenyeinek": 5569,
      "Ġszub": 5570,
      "Ġnagyon": 5571,
      "Ġelvegzett": 5572,
      "Ġkiviteli": 5573,
      "Ġhur": 5574,
      "Ġcelzo": 5575,
      "Ġjovahagyasi": 5576,
      "arant": 5577,
      "Ġallaspontj": 5578,
      "etelet": 5579,
      "Ġamelyen": 5580,
      "Ġ230": 5581,
      "pl": 5582,
      "Ġreprezent": 5583,
      "Ġjoh": 5584,
      "allomany": 5585,
      "Ġjatek": 5586,
      "Ġdohany": 5587,
      "Ġadomentes": 5588,
      "Ġfeket": 5589,
      "ozzak": 5590,
      "Ġmegvaltoztat": 5591,
      "assa": 5592,
      "Ġmeghatarozas": 5593,
      "Ġcons": 5594,
      "Ġkotelezettsegeit": 5595,
      "Ġsvajc": 5596,
      "Ġallt": 5597,
      "Ġvaj": 5598,
      "Ġeljarasnak": 5599,
      "Ġinterven": 5600,
      "Ġnapjat": 5601,
      "Ġellatas": 5602,
      "put": 5603,
      "Ġvegrehajtasat": 5604,
      "Ġkemiai": 5605,
      "Ġvamtetel": 5606,
      "Ġtajekoztatja": 5607,
      "Ġfelet": 5608,
      "Ġvedelmere": 5609,
      "Ġ132": 5610,
      "Î¹Î±": 5611,
      "Ġlamp": 5612,
      "osok": 5613,
      "Ġeusz": 5614,
      "Ġsurg": 5615,
      "Ġcelok": 5616,
      "Ġelfogadasat": 5617,
      "Ġlegfelsobb": 5618,
      "Ġfejlodes": 5619,
      "Ġkirak": 5620,
      "eszto": 5621,
      "Ġegyez": 5622,
      "Ġkerdesrol": 5623,
      "ial": 5624,
      "Ġkw": 5625,
      "Ġnemcsak": 5626,
      "Ġalkotmanybirosag": 5627,
      "Ġcimen": 5628,
      "Ġ129": 5629,
      "Ġidore": 5630,
      "63": 5631,
      "Ġbul": 5632,
      "Ġtermeszet": 5633,
      "ĠÏĦ": 5634,
      "Ġrepulogep": 5635,
      "Ġkezdodo": 5636,
      "Ġszamitas": 5637,
      "Ġ720": 5638,
      "Ġpag": 5639,
      "Ġfenntarthato": 5640,
      "hatar": 5641,
      "Ġtonn": 5642,
      "Ġegyszerus": 5643,
      "ato": 5644,
      "Ġ1987": 5645,
      "Ġteruleteken": 5646,
      "Ġpotencialis": 5647,
      "enci": 5648,
      "Ġkarok": 5649,
      "Ġnemtelj": 5650,
      "Ġugyet": 5651,
      "Ġhatallyal": 5652,
      "Ġeltavol": 5653,
      "kivuli": 5654,
      "Ġszintetikus": 5655,
      "szabad": 5656,
      "okep": 5657,
      "Ġvedelmerol": 5658,
      "obban": 5659,
      "Ġterfogat": 5660,
      "Ġacelbol": 5661,
      "Ġkeresere": 5662,
      "asoknak": 5663,
      "Ġszolgaltatott": 5664,
      "Ġ0805": 5665,
      "Ġpiaccal": 5666,
      "Ġ128": 5667,
      "koru": 5668,
      "Ġkijelol": 5669,
      "Ġinfrastruktura": 5670,
      "Ġkozben": 5671,
      "Ġeppen": 5672,
      "yl": 5673,
      "Ġexportor": 5674,
      "Ġindokolasi": 5675,
      "Ġiparag": 5676,
      "Ġrendkivuli": 5677,
      "Ġhusz": 5678,
      "Ġwww": 5679,
      "Ġfelei": 5680,
      "Ġegyetert": 5681,
      "ros": 5682,
      "Ġosszesseg": 5683,
      "yn": 5684,
      "Ġuzemben": 5685,
      "Ġalapelv": 5686,
      "gyart": 5687,
      "Ġszolgalati": 5688,
      "Ġkerelme": 5689,
      "itesek": 5690,
      "Ġvedett": 5691,
      "Ġvegen": 5692,
      "Ġcode": 5693,
      "Ġcap": 5694,
      "Ġhasznos": 5695,
      "Ġengedelyezesi": 5696,
      "Ġszamla": 5697,
      "Ġger": 5698,
      "inc": 5699,
      "ungs": 5700,
      "ozik": 5701,
      "Ġmellekletet": 5702,
      "Ġjelenlet": 5703,
      "Ġjelzes": 5704,
      "Ġkultur": 5705,
      "Ġhaladhatja": 5706,
      "Ġib": 5707,
      "Ġnaptari": 5708,
      "Ġmsc": 5709,
      "oros": 5710,
      "Ġrendeleti": 5711,
      "Ġlaboratorium": 5712,
      "Ġoem": 5713,
      "Ġmegkonny": 5714,
      "Ġjogall": 5715,
      "Ġleb": 5716,
      "Ġfrissen": 5717,
      "Ġtartalma": 5718,
      "vallalkoz": 5719,
      "Ġalper": 5720,
      "Ġeso": 5721,
      "onai": 5722,
      "Ġujbol": 5723,
      "Ġkivanja": 5724,
      "Ġ730": 5725,
      "Ġkezelesere": 5726,
      "Ġfizeteskeptelen": 5727,
      "ern": 5728,
      "Ġonkent": 5729,
      "Ġteleviz": 5730,
      "Ġden": 5731,
      "Ġkotelezettsegszeges": 5732,
      "Ġbenyujtani": 5733,
      "Ġautonom": 5734,
      "Ġitt": 5735,
      "apest": 5736,
      "Ġtartasa": 5737,
      "irdetes": 5738,
      "Ġjart": 5739,
      "Ġasz": 5740,
      "Ġ1989": 5741,
      "astag": 5742,
      "Ġglo": 5743,
      "Ġhasznalo": 5744,
      "res": 5745,
      "otanacs": 5746,
      "Ġcimet": 5747,
      "okr": 5748,
      "Ġbudapest": 5749,
      "Ġegymassal": 5750,
      "Ġfinanszirozasi": 5751,
      "Ġhasznalatat": 5752,
      "Ġtisztviselok": 5753,
      "ix": 5754,
      "Ġpiacok": 5755,
      "Ġrendelkezett": 5756,
      "elnok": 5757,
      "Ġkiallitott": 5758,
      "Ġvegzese": 5759,
      "Ġnovenyek": 5760,
      "Ġruh": 5761,
      "Ġarfolyam": 5762,
      "Ġ025": 5763,
      "Ġparamet": 5764,
      "Ġkur": 5765,
      "Ġhitelintezetek": 5766,
      "Ġkepzes": 5767,
      "Ġsegitsegevel": 5768,
      "Ġosszeegyeztethetoseg": 5769,
      "Ġkioszt": 5770,
      "ellenor": 5771,
      "Ġreszei": 5772,
      "Ġtobbszor": 5773,
      "Ġugyesz": 5774,
      "Î³": 5775,
      "arg": 5776,
      "Ġervenytelen": 5777,
      "Ġafr": 5778,
      "Ġperc": 5779,
      "Ġother": 5780,
      "001": 5781,
      "astol": 5782,
      "ulir": 5783,
      "Ġbiztonsagos": 5784,
      "Ġ147": 5785,
      "Ġgyakorlasa": 5786,
      "Ġpontjara": 5787,
      "Ġkepesseg": 5788,
      "Ġvizum": 5789,
      "Ġ157": 5790,
      "Ġreprezentativ": 5791,
      "Ġleiras": 5792,
      "Ġbuncselekmeny": 5793,
      "unt": 5794,
      "Ġsim": 5795,
      "Ġbaromfi": 5796,
      "Ġszobeli": 5797,
      "Ġhagyomanyos": 5798,
      "Ġlizing": 5799,
      "Ġnyer": 5800,
      "Ġgyartasi": 5801,
      "Ġtajekoztatas": 5802,
      "Ġfigyelmet": 5803,
      "Ġvizsgalatat": 5804,
      "szervezet": 5805,
      "Ġkuzd": 5806,
      "Ġ137": 5807,
      "Ġjelleggel": 5808,
      "Ġterhelo": 5809,
      "Ġhelyettesit": 5810,
      "Ġeloadja": 5811,
      "Ġugyek": 5812,
      "Ġdokumentacio": 5813,
      "Ġtamasz": 5814,
      "ozok": 5815,
      "Ġszenhidr": 5816,
      "lik": 5817,
      "64": 5818,
      "Ġtanacsnak": 5819,
      "Ġbekezdesebol": 5820,
      "Ġba": 5821,
      "Ġelert": 5822,
      "Ġgyogyszerek": 5823,
      "Ġeloirany": 5824,
      "Ġszemelyt": 5825,
      "Ġ414": 5826,
      "ĠÎº": 5827,
      "Ġtavu": 5828,
      "Ġkotelezettsegeket": 5829,
      "Ġlista": 5830,
      "Ġszervezeti": 5831,
      "intezked": 5832,
      "Ġerveles": 5833,
      "Ġoperativ": 5834,
      "Ġirasban": 5835,
      "Ġalapjogi": 5836,
      "Ġsemmisitse": 5837,
      "Ġ133": 5838,
      "Ġmerteke": 5839,
      "Ġbizonyitekokat": 5840,
      "itesre": 5841,
      "Ġmelyek": 5842,
      "Ġanalitikai": 5843,
      "Ġgmin": 5844,
      "Ġ847": 5845,
      "Ġsec": 5846,
      "Ġvedo": 5847,
      "Ġazokkal": 5848,
      "Ġkamatlab": 5849,
      "Ġertekelni": 5850,
      "ite": 5851,
      "Ġtuntetni": 5852,
      "Ġbaleset": 5853,
      "Ġkorebe": 5854,
      "Ġterjedo": 5855,
      "anol": 5856,
      "sanak": 5857,
      "Ġdif": 5858,
      "segere": 5859,
      "Ġfeltetlen": 5860,
      "Ġoxid": 5861,
      "adat": 5862,
      "izalasa": 5863,
      "Ġjelentese": 5864,
      "Ġadatai": 5865,
      "Ġ610": 5866,
      "Ġtobblet": 5867,
      "Ġoroszorszag": 5868,
      "Ġminiszterium": 5869,
      "ile": 5870,
      "Ġnapi": 5871,
      "osztaly": 5872,
      "Ġertekesites": 5873,
      "Ġesetlegesen": 5874,
      "inal": 5875,
      "Ġokirat": 5876,
      "Ġutmutat": 5877,
      "dal": 5878,
      "Ġnyilatkozatot": 5879,
      "Ġfeloszt": 5880,
      "Ġjobb": 5881,
      "kezeles": 5882,
      "Ġarukat": 5883,
      "imer": 5884,
      "Ġvegez": 5885,
      "Ġfelmerulo": 5886,
      "Ġelol": 5887,
      "Ġpam": 5888,
      "aft": 5889,
      "Ġelobb": 5890,
      "koztarsasag": 5891,
      "hus": 5892,
      "Ġtransz": 5893,
      "Ġegyidej": 5894,
      "ami": 5895,
      "Ġbevezetett": 5896,
      "Ġkozossegben": 5897,
      "Ġszemelynek": 5898,
      "Ġfelhasznalasa": 5899,
      "Ġmegkozelites": 5900,
      "nap": 5901,
      "olyan": 5902,
      "ositasi": 5903,
      "Ġlin": 5904,
      "Ġmegv": 5905,
      "Ġlepett": 5906,
      "ajan": 5907,
      "Ġszarvasmarha": 5908,
      "Ġtartalmaznak": 5909,
      "Ġlezar": 5910,
      "Ġmindenekelott": 5911,
      "Ġciklus": 5912,
      "Ġertekesitett": 5913,
      "cl": 5914,
      "mint": 5915,
      "Ġregiszt": 5916,
      "Ġmegallapithato": 5917,
      "Ġegyidejuleg": 5918,
      "Ġinnov": 5919,
      "Ġmegmunkal": 5920,
      "Ġjp": 5921,
      "Ġrendszeres": 5922,
      "cid": 5923,
      "Ġallampolgara": 5924,
      "finanszir": 5925,
      "Ġhazas": 5926,
      "Ġszakaszanak": 5927,
      "Ġellatasok": 5928,
      "Ġformatum": 5929,
      "Ġegyenl": 5930,
      "Ġpap": 5931,
      "Ġda": 5932,
      "eleti": 5933,
      "Ġelsobb": 5934,
      "Ġilletosegu": 5935,
      "302": 5936,
      "Ġberuhazasok": 5937,
      "enel": 5938,
      "Ġhatosaga": 5939,
      "Ġnyomas": 5940,
      "Ġjegyzekbe": 5941,
      "Ġ148": 5942,
      "Ġtelephely": 5943,
      "Ġnot": 5944,
      "Ġtartalm": 5945,
      "Ġhatalyban": 5946,
      "Ġdin": 5947,
      "Ġkepezik": 5948,
      "Ġfelvet": 5949,
      "Ġbocsatott": 5950,
      "Ġ167": 5951,
      "aknak": 5952,
      "Ġhk": 5953,
      "Ġertekenek": 5954,
      "Ġalapu": 5955,
      "olva": 5956,
      "hi": 5957,
      "Ġ131": 5958,
      "Ġhogyan": 5959,
      "Ġmegadni": 5960,
      "Ġgyap": 5961,
      "Ġ340": 5962,
      "Ġcelt": 5963,
      "Ġszerepet": 5964,
      "Ġdoc": 5965,
      "Ġrizs": 5966,
      "Ġjuh": 5967,
      "Ġmasfelol": 5968,
      "Ġ180": 5969,
      "Ġnepkoztarsasag": 5970,
      "Ġcselekv": 5971,
      "Ġannyiban": 5972,
      "Ġrepules": 5973,
      "Ġjap": 5974,
      "onc": 5975,
      "piaci": 5976,
      "Ġkozlekedes": 5977,
      "Ġkovetkeztetest": 5978,
      "Ġdir": 5979,
      "Ġkockazatok": 5980,
      "Ġjogalkotasi": 5981,
      "Ġrn": 5982,
      "szolgaltatas": 5983,
      "Ġuzemanyag": 5984,
      "Ġonkormanyzat": 5985,
      "Ġertekek": 5986,
      "Ġpara": 5987,
      "00000": 5988,
      "utsch": 5989,
      "sorban": 5990,
      "Ġosszeegyeztetheto": 5991,
      "jei": 5992,
      "Ġfigyelmeztet": 5993,
      "zatok": 5994,
      "Ġszabalyzata": 5995,
      "Ġanalogia": 5996,
      "ancs": 5997,
      "Ġbrit": 5998,
      "Ġfelelosseget": 5999,
      "ellat": 6000,
      "Ġ021": 6001,
      "ations": 6002,
      "Ġakkent": 6003,
      "Ġvizs": 6004,
      "Ġtamogatasnak": 6005,
      "esekkel": 6006,
      "Ġmindez": 6007,
      "Ġcsokkentese": 6008,
      "Ġmegallapodasban": 6009,
      "we": 6010,
      "elezett": 6011,
      "eder": 6012,
      "Ġkizaro": 6013,
      "Ġegyike": 6014,
      "Ġkinal": 6015,
      "Ġinv": 6016,
      "Ġtorzs": 6017,
      "Ġhatosagoknak": 6018,
      "Ġharmonizalt": 6019,
      "Ġtarsasagi": 6020,
      "Ġmunkanap": 6021,
      "Ġgarantal": 6022,
      "Ġjei": 6023,
      "olasarol": 6024,
      "evon": 6025,
      "Ġukraj": 6026,
      "por": 6027,
      "oxid": 6028,
      "Ġpontossag": 6029,
      "onyol": 6030,
      "Ġtermeloi": 6031,
      "Ġhitelminosegi": 6032,
      "Ġinditvanya": 6033,
      "Ġmenekult": 6034,
      "Ġkifejezve": 6035,
      "Ġelkerulese": 6036,
      "que": 6037,
      "ezonek": 6038,
      "racios": 6039,
      "Ġkivon": 6040,
      "Ġbundes": 6041,
      "Ġpat": 6042,
      "Ġmegfizetes": 6043,
      "Ġszempontok": 6044,
      "iket": 6045,
      "Ġdigitalis": 6046,
      "odnak": 6047,
      "Ġtanacsado": 6048,
      "Ġszolgaltatok": 6049,
      "Ġhorvat": 6050,
      "Ġkereskedesi": 6051,
      "ited": 6052,
      "Ġcol": 6053,
      "opol": 6054,
      "Ġnyujto": 6055,
      "ade": 6056,
      "Ġprojektek": 6057,
      "Ġkatonai": 6058,
      "Ġaud": 6059,
      "mennyi": 6060,
      "Ġ143": 6061,
      "eszult": 6062,
      "Ġpozitiv": 6063,
      "Ġkerulnek": 6064,
      "Ġtalaj": 6065,
      "Ġevente": 6066,
      "69": 6067,
      "Ġszerzoi": 6068,
      "Ġegyarant": 6069,
      "Ġtevo": 6070,
      "Ġinput": 6071,
      "Ġellenorzesere": 6072,
      "Ġkovetkeztetes": 6073,
      "Ġlehivott": 6074,
      "Ġszerzodesben": 6075,
      "orf": 6076,
      "Ġkormanyzati": 6077,
      "Ġbizonyitekot": 6078,
      "Ġmegvalosit": 6079,
      "Ġact": 6080,
      "Ġszom": 6081,
      "tartalommal": 6082,
      "Ġkoncessz": 6083,
      "Ġjoganak": 6084,
      "Ġindokolassal": 6085,
      "Ġjogviszony": 6086,
      "Ġemelked": 6087,
      "Ġjogellen": 6088,
      "Ġ142": 6089,
      "Ġfiok": 6090,
      "bp": 6091,
      "nes": 6092,
      "mara": 6093,
      "Ġrendszere": 6094,
      "Ġintegralt": 6095,
      "Ġproduc": 6096,
      "Ġkoztuk": 6097,
      "gyujt": 6098,
      "Ġigazolja": 6099,
      "artalommal": 6100,
      "Ġellenorzest": 6101,
      "Ġutvonal": 6102,
      "Ð¸Ñ": 6103,
      "Ġertekpapirok": 6104,
      "feltetel": 6105,
      "Ġhivatalvezeto": 6106,
      "zok": 6107,
      "Ġ270": 6108,
      "hozatali": 6109,
      "ori": 6110,
      "eszked": 6111,
      "Ġmeghozta": 6112,
      "szik": 6113,
      "Ġ234": 6114,
      "Ġborok": 6115,
      "Ġeven": 6116,
      "Ġtulajdonjog": 6117,
      "Ġhoztak": 6118,
      "Ġsertes": 6119,
      "Ġszuksegesnek": 6120,
      "Ġjovoben": 6121,
      "Ġ1049": 6122,
      "Ġhatasok": 6123,
      "Ġkorm": 6124,
      "arbon": 6125,
      "Ġmegallapitasahoz": 6126,
      "Ġmunkahely": 6127,
      "Ġtartja": 6128,
      "Ġmutato": 6129,
      "Ġerteken": 6130,
      "Ġvaloban": 6131,
      "Ġnyelven": 6132,
      "Ġmat": 6133,
      "Ġcitr": 6134,
      "Ġsurgos": 6135,
      "Ġhatarozatnak": 6136,
      "Ġreteg": 6137,
      "Ġhianyossag": 6138,
      "Ġepito": 6139,
      "akar": 6140,
      "Ġ1988": 6141,
      "Ġallamban": 6142,
      "Ġfekete": 6143,
      "hetoen": 6144,
      "ukon": 6145,
      "sek": 6146,
      "Ġvizei": 6147,
      "Ġtavolsag": 6148,
      "itesenek": 6149,
      "Ġkiigazitas": 6150,
      "Ġhelyzete": 6151,
      "Ġlik": 6152,
      "9900": 6153,
      "Ġkozonseges": 6154,
      "berg": 6155,
      "Ġelmar": 6156,
      "Ġfigyelembevetele": 6157,
      "Ġszerepelnek": 6158,
      "Ġbekovetkezett": 6159,
      "ĠÏĢ": 6160,
      "cr": 6161,
      "Ġebb": 6162,
      "esebol": 6163,
      "ota": 6164,
      "Ġlakoh": 6165,
      "Ġmeleg": 6166,
      "Ġfontosabb": 6167,
      "vedett": 6168,
      "Ġagazatban": 6169,
      "Ġmegtilt": 6170,
      "Ġigenybevetel": 6171,
      "ula": 6172,
      "Ġkifizetett": 6173,
      "Ġkezhez": 6174,
      "Ġkezelt": 6175,
      "tanacs": 6176,
      "Ġpamut": 6177,
      "Ġkeszlet": 6178,
      "Ġbels": 6179,
      "Ġcipr": 6180,
      "Ġmasodlagosan": 6181,
      "Ġjogszabalyi": 6182,
      "Ġmunkaltato": 6183,
      "Ġmeghatarozasarol": 6184,
      "Ġaqu": 6185,
      "Ġnorm": 6186,
      "Ġme": 6187,
      "Ġerosit": 6188,
      "nyom": 6189,
      "Ġpontjabol": 6190,
      "Ġjova": 6191,
      "Ġvizsgalatara": 6192,
      "Ġ168": 6193,
      "Ġmikozben": 6194,
      "Ġgyan": 6195,
      "Ġbiologiai": 6196,
      "Ġrendszerenek": 6197,
      "Ġpa": 6198,
      "ama": 6199,
      "Ġ170": 6200,
      "Ġmagukban": 6201,
      "Ġules": 6202,
      "Ġvonja": 6203,
      "Ġeuros": 6204,
      "Ġtekintet": 6205,
      "felvetel": 6206,
      "Ġkore": 6207,
      "Ġhatarozzak": 6208,
      "Ġvelemenye": 6209,
      "Ġcsatolt": 6210,
      "Ġausztria": 6211,
      "Ġszukseglet": 6212,
      "Ġegyesulet": 6213,
      "Ġbenyujtasanak": 6214,
      "Ġelvek": 6215,
      "hol": 6216,
      "asatol": 6217,
      "Ġleveleben": 6218,
      "ins": 6219,
      "Ġszoft": 6220,
      "Ġalbekezdes": 6221,
      "Ġradio": 6222,
      "Ġiteli": 6223,
      "Ġkutatasi": 6224,
      "Ġokokbol": 6225,
      "ier": 6226,
      "Ġsulyozott": 6227,
      "Ġdioxid": 6228,
      "Ġgyakorlati": 6229,
      "Ġtagallamokat": 6230,
      "Ġkeretmegallap": 6231,
      "Ġprud": 6232,
      "Ġstruktur": 6233,
      "Ġszerek": 6234,
      "Ġelteroen": 6235,
      "Ġalakul": 6236,
      "Ġzaj": 6237,
      "Ġesetre": 6238,
      "Ġszabalyoknak": 6239,
      "Ġjogos": 6240,
      "hagy": 6241,
      "Ġeload": 6242,
      "Ġkozzetett": 6243,
      "encia": 6244,
      "hatonak": 6245,
      "Ġvetomag": 6246,
      "Ġtullep": 6247,
      "cser": 6248,
      "ukban": 6249,
      "Ġmikr": 6250,
      "Ġpenznem": 6251,
      "ive": 6252,
      "Ġalkoholt": 6253,
      "Ġelerheto": 6254,
      "Ġalbekezdesenek": 6255,
      "Ġosszetevo": 6256,
      "Ġatt": 6257,
      "Ġcu": 6258,
      "Ġteljesitette": 6259,
      "umul": 6260,
      "Ġenyh": 6261,
      "Ġalapjat": 6262,
      "aid": 6263,
      "Ġrendszerben": 6264,
      "ekven": 6265,
      "ipar": 6266,
      "Ġnational": 6267,
      "szerz": 6268,
      "Ġtamogatasa": 6269,
      "Ġtajekoztato": 6270,
      "kort": 6271,
      "Ġ800": 6272,
      "Ġkaz": 6273,
      "politikai": 6274,
      "Ġidoszakot": 6275,
      "segu": 6276,
      "ezotlen": 6277,
      "Ġgal": 6278,
      "Ġkulcs": 6279,
      "Ġtilos": 6280,
      "Ġindon": 6281,
      "Ġramutatott": 6282,
      "Ġadminisztr": 6283,
      "Ġbulg": 6284,
      "Ġintezmenyi": 6285,
      "Ġkulonbseget": 6286,
      "Ġellentmond": 6287,
      "Ġfeljegy": 6288,
      "ossagu": 6289,
      "Ġalapokmany": 6290,
      "Ġfelmond": 6291,
      "tel": 6292,
      "Ġfeltuntetni": 6293,
      "Ġ156": 6294,
      "Ġegyensuly": 6295,
      "Ġeredmenyez": 6296,
      "Ġkosz": 6297,
      "Ġfelhasznalo": 6298,
      "Ġigazolo": 6299,
      "Ġvastag": 6300,
      "Ġfogyasztoi": 6301,
      "Ġszabalyait": 6302,
      "Ġlakohellyel": 6303,
      "Ġpe": 6304,
      "Ġhozni": 6305,
      "Ġrendszeresen": 6306,
      "Ġarucsoportba": 6307,
      "Ġelett": 6308,
      "elje": 6309,
      "Ġkezdve": 6310,
      "Ġreszesit": 6311,
      "Ġmunkaveg": 6312,
      "ius": 6313,
      "Ġcir": 6314,
      "Ġalatamasztasa": 6315,
      "Ġpozici": 6316,
      "Ġcellal": 6317,
      "Ġtamogatasra": 6318,
      "Ġacet": 6319,
      "Ġszabadon": 6320,
      "Ġlehetett": 6321,
      "ge": 6322,
      "Ġmor": 6323,
      "Ġkotelez": 6324,
      "Ġmegfogalmazott": 6325,
      "82": 6326,
      "Ġfenil": 6327,
      "Ġluxembourg": 6328,
      "Ġmeghatalmazottak": 6329,
      "Ġkarteritesi": 6330,
      "Ġelohely": 6331,
      "Ġ182": 6332,
      "Ġzoldsegfelek": 6333,
      "Ġheairanyelv": 6334,
      "Ġ204": 6335,
      "ola": 6336,
      "Ġgminy": 6337,
      "eivel": 6338,
      "Ġdompingelt": 6339,
      "Ġ0406": 6340,
      "ceg": 6341,
      "rag": 6342,
      "felhasznal": 6343,
      "Ġ0207": 6344,
      "Ġszet": 6345,
      "Ġciv": 6346,
      "Ġkivetett": 6347,
      "Ġjavitasa": 6348,
      "Ġlanc": 6349,
      "Ġmegallapit": 6350,
      "idae": 6351,
      "Ġjapan": 6352,
      "gyogy": 6353,
      "Ġhalaszhaj": 6354,
      "Ġkifizetesek": 6355,
      "Ġfejt": 6356,
      "Ġvedjegyb": 6357,
      "Ġlegj": 6358,
      "aterm": 6359,
      "no": 6360,
      "Ġportugalia": 6361,
      "Ġ155": 6362,
      "oparancs": 6363,
      "Ġmeghatarozasat": 6364,
      "Ġkapcsolodik": 6365,
      "adasi": 6366,
      "Ġlapos": 6367,
      "400": 6368,
      "hellyel": 6369,
      "Ġazokban": 6370,
      "lott": 6371,
      "Ġkepvisel": 6372,
      "Ġtartozek": 6373,
      "Ġeszkozoket": 6374,
      "Ġarat": 6375,
      "Ġhonlap": 6376,
      "Ġadminisztrativ": 6377,
      "rr": 6378,
      "Ġ310": 6379,
      "Ġhisz": 6380,
      "Ġiskol": 6381,
      "Ġszt": 6382,
      "Ġoff": 6383,
      "ento": 6384,
      "Ġ722": 6385,
      "Ġfolyadek": 6386,
      "Ġfal": 6387,
      "Ġ152": 6388,
      "Ġgeneral": 6389,
      "Ġvezetett": 6390,
      "Ġidopontjat": 6391,
      "Ġeloadott": 6392,
      "Ġmegkoveteli": 6393,
      "szolgaltatasi": 6394,
      "Ġszavatol": 6395,
      "Ġberuhazasi": 6396,
      "uel": 6397,
      "Ġintezkedesekre": 6398,
      "Ġkipu": 6399,
      "Ġhasznalhato": 6400,
      "Ġvin": 6401,
      "Ġing": 6402,
      "ĠÎµ": 6403,
      "erd": 6404,
      "magas": 6405,
      "Ġmegismet": 6406,
      "cikk": 6407,
      "oleges": 6408,
      "Ġdontott": 6409,
      "Ġokologiai": 6410,
      "artalmu": 6411,
      "Ġeszl": 6412,
      "Ġmodositotta": 6413,
      "Ġ1000": 6414,
      "hajlat": 6415,
      "line": 6416,
      "eresere": 6417,
      "epp": 6418,
      "Ġfeltett": 6419,
      "Ġminosegu": 6420,
      "Ġbejegyzett": 6421,
      "Ġzart": 6422,
      "Ġromania": 6423,
      "Ġbu": 6424,
      "Ġszarmazek": 6425,
      "Ġkiszamitasa": 6426,
      "Ġdeutsch": 6427,
      "Ġszabalyai": 6428,
      "ats": 6429,
      "Ġeghajlat": 6430,
      "cim": 6431,
      "okk": 6432,
      "Ġkerdesevel": 6433,
      "Ġnyilt": 6434,
      "Ġtekintve": 6435,
      "Ġbuntetoeljaras": 6436,
      "Ġdania": 6437,
      "Ġmegillet": 6438,
      "Ġjarm": 6439,
      "Ġpreambulumbekezdesben": 6440,
      "Ġby": 6441,
      "Ġjogalaprol": 6442,
      "Ġ151": 6443,
      "Ġerz": 6444,
      "manyom": 6445,
      "anti": 6446,
      "Ġmel": 6447,
      "zen": 6448,
      "Ġfest": 6449,
      "Ġelterve": 6450,
      "Ġformanyom": 6451,
      "Ġmegbizott": 6452,
      "Ġkedvezotlen": 6453,
      "Ġletelepedes": 6454,
      "Ġmac": 6455,
      "Ġkider": 6456,
      "Ġmil": 6457,
      "Ġhurkolt": 6458,
      "Ġkontingens": 6459,
      "bel": 6460,
      "Ġsr": 6461,
      "Ġech": 6462,
      "Ġszarmaztatott": 6463,
      "Ġnemes": 6464,
      "iac": 6465,
      "Ġszankciok": 6466,
      "Ġmegfelelj": 6467,
      "Ġhangsulyozza": 6468,
      "Ġ900": 6469,
      "ly": 6470,
      "ks": 6471,
      "Ġszabalyozast": 6472,
      "Ġiec": 6473,
      "Ġatmer": 6474,
      "79": 6475,
      "Ġkepviselik": 6476,
      "Ġ560": 6477,
      "Ġszap": 6478,
      "Ġtevekenysegeket": 6479,
      "ual": 6480,
      "ajara": 6481,
      "Ġtorvenykonyv": 6482,
      "Ġhallgat": 6483,
      "Ġtarsulasi": 6484,
      "hu": 6485,
      "Ġhas": 6486,
      "Ġeljarasra": 6487,
      "Ġmerul": 6488,
      "azin": 6489,
      "ise": 6490,
      "Ġtribunal": 6491,
      "Ġvamhivatal": 6492,
      "Ġerzek": 6493,
      "itasaval": 6494,
      "Ġhibat": 6495,
      "Ġfoldgaz": 6496,
      "mann": 6497,
      "Ġrulir": 6498,
      "Ġallomanyba": 6499,
      "Ġtamogatott": 6500,
      "Ġhord": 6501,
      "Ġkorlatozasa": 6502,
      "Ġmodja": 6503,
      "olasat": 6504,
      "Ġkorlatozza": 6505,
      "Ġszakertoi": 6506,
      "Ġkoncentracio": 6507,
      "Ġhatarozatanak": 6508,
      "Ġbecsult": 6509,
      "Ġkilep": 6510,
      "Ġintervencios": 6511,
      "Ġhaztartasi": 6512,
      "Ġhataridot": 6513,
      "Ġpostai": 6514,
      "Ġrulirozo": 6515,
      "aciok": 6516,
      "Ġgeme": 6517,
      "Ġhozzaad": 6518,
      "are": 6519,
      "Ġbeszerz": 6520,
      "Ġszintjen": 6521,
      "Ġ146": 6522,
      "Ġterror": 6523,
      "Ġrug": 6524,
      "torveny": 6525,
      "Ġprudencialis": 6526,
      "tv": 6527,
      "Ġkapcsolatok": 6528,
      "Ġpp": 6529,
      "Ġavi": 6530,
      "Ġkarterites": 6531,
      "Ġsugar": 6532,
      "Ġeroforrasok": 6533,
      "Ġformanyomtatvany": 6534,
      "Ġigazgatotanacs": 6535,
      "asabol": 6536,
      "Ġfennallasa": 6537,
      "Ġ299": 6538,
      "Ġsot": 6539,
      "cc": 6540,
      "Ġneven": 6541,
      "Ġrogziti": 6542,
      "Ġprior": 6543,
      "Ġminosulo": 6544,
      "Ġif": 6545,
      "Ġ700": 6546,
      "Ġparancs": 6547,
      "lag": 6548,
      "Ġ2150": 6549,
      "Ġcelkituzesek": 6550,
      "Ġkarbantart": 6551,
      "eljar": 6552,
      "Ġ149": 6553,
      "Ġmegtest": 6554,
      "Ġhasonlosag": 6555,
      "Ġspecif": 6556,
      "Ġtagok": 6557,
      "Ġ1107": 6558,
      "Ġugyanolyan": 6559,
      "Ġora": 6560,
      "Ġkategoriak": 6561,
      "Ġbeszamithato": 6562,
      "tam": 6563,
      "Ġfolyamatosan": 6564,
      "Ġcal": 6565,
      "Ġtoz": 6566,
      "Ġbov": 6567,
      "Ġkihirdetes": 6568,
      "uveren": 6569,
      "Ġdokumentumokat": 6570,
      "Ġnyujtasa": 6571,
      "th": 6572,
      "Ġhivatalbol": 6573,
      "Ġkipufog": 6574,
      "atalak": 6575,
      "Ġsan": 6576,
      "Ġfogalmanak": 6577,
      "Ġhivatkozni": 6578,
      "Ġscheng": 6579,
      "agn": 6580,
      "Ġcsatlakozas": 6581,
      "Ġveszt": 6582,
      "Ġtisztes": 6583,
      "Ġsil": 6584,
      "Ġkifejtette": 6585,
      "Ġcsap": 6586,
      "ciok": 6587,
      "bank": 6588,
      "Ġnyelvi": 6589,
      "obol": 6590,
      "Ġvelemenyt": 6591,
      "Ġ640": 6592,
      "Ġcsomagolas": 6593,
      "Ġspa": 6594,
      "Ġgarancia": 6595,
      "Ġkerdoiv": 6596,
      "Ġmeltany": 6597,
      "ione": 6598,
      "Ġfelulvizsgalata": 6599,
      "arsasag": 6600,
      "Ġeredmenye": 6601,
      "Ġviv": 6602,
      "vizsgalat": 6603,
      "ril": 6604,
      "Ġlegalabbis": 6605,
      "Ġ1001": 6606,
      "Ġszuveren": 6607,
      "Ġjogilag": 6608,
      "Ġbizalom": 6609,
      "Ġbecsl": 6610,
      "Ġimm": 6611,
      "atic": 6612,
      "Ġjelentesek": 6613,
      "kezelesi": 6614,
      "Ġegyuttmukodo": 6615,
      "aido": 6616,
      "Ġfelteteleinek": 6617,
      "szama": 6618,
      "Ġiteleteben": 6619,
      "Ġelvevel": 6620,
      "Ġtetele": 6621,
      "Ġmegkovetelt": 6622,
      "Ġcent": 6623,
      "uzem": 6624,
      "Ġresztvevo": 6625,
      "Ġ144": 6626,
      "ital": 6627,
      "Ġkoh": 6628,
      "Ġtisztesseges": 6629,
      "Ġvagott": 6630,
      "Ġertesiti": 6631,
      "Ġfejezete": 6632,
      "Ġjognak": 6633,
      "Ġamelyhez": 6634,
      "ikak": 6635,
      "Ġkiszereles": 6636,
      "allasi": 6637,
      "Ġszoros": 6638,
      "gazdasagi": 6639,
      "Ġallapitja": 6640,
      "Ġorszagbol": 6641,
      "si": 6642,
      "Ġfeltetelekkel": 6643,
      "Ġri": 6644,
      "Ġfax": 6645,
      "Ġmegerositette": 6646,
      "Ġkecs": 6647,
      "Ġszuksegesse": 6648,
      "Ġvak": 6649,
      "Ġszulo": 6650,
      "Ġkovetelesek": 6651,
      "Ġhasznalnak": 6652,
      "Ġeredmenyekent": 6653,
      "Ġmegtart": 6654,
      "Ġkapcsolt": 6655,
      "Ġmegalapoz": 6656,
      "fogy": 6657,
      "Ġkulturalis": 6658,
      "Ġmegerositi": 6659,
      "Ġtartos": 6660,
      "Ġsvajci": 6661,
      "lasa": 6662,
      "Ġbefog": 6663,
      "asztott": 6664,
      "Ġkotveny": 6665,
      "Ġ1068": 6666,
      "Ġnevleges": 6667,
      "Ġtagallamot": 6668,
      "Ġkodex": 6669,
      "Ġhasonlok": 6670,
      "Ġerdemi": 6671,
      "ence": 6672,
      "Ġbevont": 6673,
      "hatosagi": 6674,
      "Ġ550": 6675,
      "Ġhelyezte": 6676,
      "Ñĥ": 6677,
      "Ġmutatja": 6678,
      "Ġhetedik": 6679,
      "Ġmember": 6680,
      "Ġutasitas": 6681,
      "olgal": 6682,
      "telep": 6683,
      "azati": 6684,
      "Ġanyagokat": 6685,
      "itikus": 6686,
      "Ġkormanya": 6687,
      "Ġpf": 6688,
      "Ġjogrend": 6689,
      "Ġjogban": 6690,
      "Ġkoveteles": 6691,
      "Ġszloven": 6692,
      "Ġvonatkozasu": 6693,
      "Ġtype": 6694,
      "Ġfelk": 6695,
      "Ġszalag": 6696,
      "Ġnace": 6697,
      "Ġvalik": 6698,
      "Ġallategeszsegugyi": 6699,
      "Ġfogja": 6700,
      "vak": 6701,
      "Ġszerzodesi": 6702,
      "Ġteljesiti": 6703,
      "Ġtajekoztatta": 6704,
      "ogaz": 6705,
      "Ġgyartott": 6706,
      "Ġmegvalasz": 6707,
      "hasz": 6708,
      "78": 6709,
      "Ġorszagos": 6710,
      "Ġ510": 6711,
      "Ġvisszatart": 6712,
      "Ġteruletet": 6713,
      "Ġtamaszkod": 6714,
      "Ġadokoteles": 6715,
      "felugy": 6716,
      "Ġkozszektor": 6717,
      "Ġtulzott": 6718,
      "Ġ153": 6719,
      "Ġide": 6720,
      "Ġatom": 6721,
      "enes": 6722,
      "Ġ261": 6723,
      "Ġkkbp": 6724,
      "Ġmentesit": 6725,
      "isebb": 6726,
      "Ġkeretmegallapodas": 6727,
      "Ġakinek": 6728,
      "mell": 6729,
      "omu": 6730,
      "Ġepulet": 6731,
      "ialis": 6732,
      "Ġ165": 6733,
      "Ġbur": 6734,
      "Ġazonnali": 6735,
      "bo": 6736,
      "Ġcikkek": 6737,
      "Ġbizonyitani": 6738,
      "ham": 6739,
      "Ġbirsagok": 6740,
      "segre": 6741,
      "Ġjarulekos": 6742,
      "Ġepit": 6743,
      "Ġletet": 6744,
      "Ġszazalekos": 6745,
      "Ġmennyisegi": 6746,
      "Ġjogalapra": 6747,
      "Ġkoltsegei": 6748,
      "Ġpreambulumbekezdes": 6749,
      "Ġszintje": 6750,
      "Ġext": 6751,
      "Ġlegkisebb": 6752,
      "ektor": 6753,
      "Ġhasznalatra": 6754,
      "lenc": 6755,
      "Ġezeknek": 6756,
      "Ġschengeni": 6757,
      "Ġbirsagot": 6758,
      "Ġti": 6759,
      "Ġszavatolotok": 6760,
      "hatekony": 6761,
      "Ġwith": 6762,
      "Ġokozo": 6763,
      "Ġalbekezdeseben": 6764,
      "Ġkorrekcios": 6765,
      "Ġiranyelvek": 6766,
      "fizetes": 6767,
      "Ġkovetkezmenyek": 6768,
      "Ġmeghatarozasahoz": 6769,
      "burg": 6770,
      "Ġosszegeket": 6771,
      "de": 6772,
      "Ġmunkat": 6773,
      "Ġhoriz": 6774,
      "rem": 6775,
      "Ġfeltetelt": 6776,
      "inde": 6777,
      "Ġkuzdelem": 6778,
      "kategor": 6779,
      "vii": 6780,
      "uzott": 6781,
      "Ġ#": 6782,
      "Ġnon": 6783,
      "akban": 6784,
      "iro": 6785,
      "Ġnav": 6786,
      "kovetkez": 6787,
      "els": 6788,
      "Ġnyujtanak": 6789,
      "Ġutobbiak": 6790,
      "Ġszerkez": 6791,
      "Ġtv": 6792,
      "Ġbuntetoj": 6793,
      "Ġkepez": 6794,
      "Ġrendelkezeseivel": 6795,
      "Ġtulajdonaban": 6796,
      "Ġaviation": 6797,
      "Ġeleresehez": 6798,
      "Ġkerdesekre": 6799,
      "Ġhivatalahoz": 6800,
      "uman": 6801,
      "Ġmondata": 6802,
      "Ġalkalmazza": 6803,
      "Ġtorokorszag": 6804,
      "Ġfenyeg": 6805,
      "Ġinformaciocs": 6806,
      "Ġtomegu": 6807,
      "Ġvedjegybejel": 6808,
      "csal": 6809,
      "essze": 6810,
      "Ġujabb": 6811,
      "Ġlikvid": 6812,
      "gep": 6813,
      "Ġsorozat": 6814,
      "Ġnemesfem": 6815,
      "Ġfrance": 6816,
      "Ġlejarat": 6817,
      "szamot": 6818,
      "Ġerdekeit": 6819,
      "Ġutolagos": 6820,
      "Ġmegszak": 6821,
      "Ġdijaz": 6822,
      "Ġfelhasznalok": 6823,
      "Ġfiatal": 6824,
      "Ġkielegito": 6825,
      "otlen": 6826,
      "Ġjovedeki": 6827,
      "Ġelenged": 6828,
      "Ġvezetoi": 6829,
      "Ġ015": 6830,
      "Ġismetelt": 6831,
      "Ġfordulat": 6832,
      "áĥĲ": 6833,
      "Ġaj": 6834,
      "Ġmobil": 6835,
      "Ġszervezett": 6836,
      "Ġelemzese": 6837,
      "Ġlegmagas": 6838,
      "Ġ184": 6839,
      "olag": 6840,
      "Ġbelsoseg": 6841,
      "Ġ158": 6842,
      "Ġ480": 6843,
      "Ġcelokra": 6844,
      "Ġtekintendo": 6845,
      "Ġrq": 6846,
      "Ġmegallapitasra": 6847,
      "rom": 6848,
      "Ġhivatkozhat": 6849,
      "Ġmiert": 6850,
      "Ġvelte": 6851,
      "Ġdijat": 6852,
      "Ġlegmagasabb": 6853,
      "Ġellenorzott": 6854,
      "Ġautomatikusan": 6855,
      "Ġmulaszt": 6856,
      "Ġgen": 6857,
      "Ġhidrogen": 6858,
      "Ġeloleg": 6859,
      "Ġmegallapito": 6860,
      "Ġidobeli": 6861,
      "Ġkozossegbe": 6862,
      "Ġterjesztettek": 6863,
      "Ġkategoriaju": 6864,
      "Ġkonzultaciot": 6865,
      "Ġkek": 6866,
      "Ġjogszeruen": 6867,
      "oztak": 6868,
      "Ġqr": 6869,
      "Ġelfogat": 6870,
      "olast": 6871,
      "oved": 6872,
      "Ġeros": 6873,
      "Ġintezet": 6874,
      "Ġtermektipus": 6875,
      "Ġdonteshozatali": 6876,
      "Ġjovahagyas": 6877,
      "Ġrag": 6878,
      "Ġszemelyeket": 6879,
      "Ġ1408": 6880,
      "Ġalkatreszek": 6881,
      "Ġkomoly": 6882,
      "elveny": 6883,
      "Ġnyujtani": 6884,
      "Ġkedvez": 6885,
      "marado": 6886,
      "Ġsw": 6887,
      "Ġtarif": 6888,
      "obeli": 6889,
      "Ġfen": 6890,
      "elle": 6891,
      "ever": 6892,
      "Ġhivat": 6893,
      "Ġosszekapcs": 6894,
      "Ġmodosito": 6895,
      "Ġhazai": 6896,
      "Ġkenyszerito": 6897,
      "Ġpiacanak": 6898,
      "acion": 6899,
      "Ġibizottsag": 6900,
      "Ġ175": 6901,
      "Ġchem": 6902,
      "Ġcomm": 6903,
      "Ġelerni": 6904,
      "Ġkonkretan": 6905,
      "azott": 6906,
      "Ġ187": 6907,
      "Ġszolgaltatasokra": 6908,
      "ikkel": 6909,
      "Ġhorizont": 6910,
      "Ġ161": 6911,
      "fajta": 6912,
      "Ġ154": 6913,
      "itheto": 6914,
      "Ġpenzeszkozok": 6915,
      "Ġfinnorszag": 6916,
      "Ġeljarashoz": 6917,
      "Ġkukor": 6918,
      "Ġfeletti": 6919,
      "Ġalpontjaban": 6920,
      "Ġszir": 6921,
      "Ġkifogaskoz": 6922,
      "ight": 6923,
      "Ġfelep": 6924,
      "Ġmodositasara": 6925,
      "Ġbuncselekmenyek": 6926,
      "ĠpoÅĤ": 6927,
      "Ġdontest": 6928,
      "kezes": 6929,
      "Ġent": 6930,
      "itol": 6931,
      "Ġokbol": 6932,
      "Ġmrl": 6933,
      "Ġ330": 6934,
      "Ġoreg": 6935,
      "Ġelbanas": 6936,
      "Ġfon": 6937,
      "dik": 6938,
      "Ġalkalmazo": 6939,
      "Ġmeghallgatasat": 6940,
      "ekercs": 6941,
      "Ġvennie": 6942,
      "Ġaddig": 6943,
      "Ġnum": 6944,
      "Ġszuksegszeruen": 6945,
      "Ġmelynek": 6946,
      "Ġhataskorebe": 6947,
      "Ġkompenz": 6948,
      "Ġmegjegyzi": 6949,
      "Ġosszefonodas": 6950,
      "300": 6951,
      "Ġ1985": 6952,
      "Ġhazast": 6953,
      "Ġkizarja": 6954,
      "ebreak": 6955,
      "oknek": 6956,
      "act": 6957,
      "Ġ337": 6958,
      "Ġ529900": 6959,
      "haszn": 6960,
      "Ġgyartasa": 6961,
      "Ġkotelezettsegvallalas": 6962,
      "Ġpagebreak": 6963,
      "Ġkizart": 6964,
      "Ġfoigazgato": 6965,
      "Ġnedv": 6966,
      "jut": 6967,
      "Ġlehetetlen": 6968,
      "Ġerzekeny": 6969,
      "Ġkerdese": 6970,
      "Ġkedvezmenyes": 6971,
      "Ġhelyreallitas": 6972,
      "korlat": 6973,
      "ose": 6974,
      "Ġhiszen": 6975,
      "Ġmail": 6976,
      "Ġju": 6977,
      "Ġszerve": 6978,
      "Ġalkalmazasarol": 6979,
      "Ġelotte": 6980,
      "Ġerofol": 6981,
      "Ġaranya": 6982,
      "Ġjovobeli": 6983,
      "Ġjavaslatot": 6984,
      "Ġeszrevetelek": 6985,
      "Ġrsm": 6986,
      "Ġadatvedelmi": 6987,
      "Ġfu": 6988,
      "onta": 6989,
      "Ġamelyekkel": 6990,
      "Ġmit": 6991,
      "Ġugyint": 6992,
      "Ġreto": 6993,
      "Ġbizonyitotta": 6994,
      "Ġcat": 6995,
      "jarol": 6996,
      "Ġrsms": 6997,
      "Ġ218": 6998,
      "Ġ169": 6999,
      "Ġsmot": 7000,
      "Ġfuvarozo": 7001,
      "Ġkivalasztott": 7002,
      "Ġtulajdoni": 7003,
      "Ġrqrr": 7004,
      "Ġelfogadasara": 7005,
      "Ġqrre": 7006,
      "ozon": 7007,
      "Ġkilenc": 7008,
      "Ġiranyelvre": 7009,
      "Ġevig": 7010,
      "ary": 7011,
      "Ġhivatkozva": 7012,
      "Ġkerelmenek": 7013,
      "sagot": 7014,
      "Ġfejlod": 7015,
      "Ġfioktelep": 7016,
      "ados": 7017,
      "Ġhasznalatanak": 7018,
      "Ġrost": 7019,
      "ozod": 7020,
      "Ġmenedek": 7021,
      "po": 7022,
      "Ġelutasito": 7023,
      "Ġfoglalkoztatas": 7024,
      "Ġkoreben": 7025,
      "Ġmegtestesito": 7026,
      "Ġcelszeru": 7027,
      "Ġcsatlakozasi": 7028,
      "Ġszamukra": 7029,
      "Ġtomege": 7030,
      "Ġeszszeru": 7031,
      "Ġaktusokat": 7032,
      "Ġellenkez": 7033,
      "Ġforgalombahozatali": 7034,
      "Ġ176": 7035,
      "Ġlegjobb": 7036,
      "Ġszabalyozza": 7037,
      "Ġelszen": 7038,
      "Ġharmonizacios": 7039,
      "Ġmegbizhato": 7040,
      "Ġll": 7041,
      "Ġmodul": 7042,
      "Ġ396": 7043,
      "Ġszul": 7044,
      "Ġelismerte": 7045,
      "technikai": 7046,
      "Ġhab": 7047,
      "Ġtilalm": 7048,
      "Ġkh": 7049,
      "Ġfluor": 7050,
      "Ġzaro": 7051,
      "Ġszankcio": 7052,
      "odi": 7053,
      "Ġkifejti": 7054,
      "Ġkozszektorbeli": 7055,
      "airol": 7056,
      "Ġtartalommal": 7057,
      "Ġertesitest": 7058,
      "Ġonkentes": 7059,
      "Ġreag": 7060,
      "Ġlehetosegek": 7061,
      "Ġmegserteset": 7062,
      "Ġrendor": 7063,
      "ezeseket": 7064,
      "Ġeletkor": 7065,
      "ili": 7066,
      "ions": 7067,
      "Ġallitasa": 7068,
      "gyogyaszati": 7069,
      "jogosult": 7070,
      "Ġgabonafelek": 7071,
      "Ġvoros": 7072,
      "Ġvizsgalo": 7073,
      "Ġtablazatban": 7074,
      "apr": 7075,
      "akon": 7076,
      "Ġ060": 7077,
      "Ġhelyezze": 7078,
      "Ġoliv": 7079,
      "Ġdeviz": 7080,
      "Ġdijazas": 7081,
      "kocsi": 7082,
      "Ġgemeinde": 7083,
      "Ġfenntartasa": 7084,
      "Ġ410": 7085,
      "Ġtargyi": 7086,
      "Ġszemelyeknek": 7087,
      "zanak": 7088,
      "Ġhip": 7089,
      "Ġbeer": 7090,
      "Ġelado": 7091,
      "Ġkiskereskedelmi": 7092,
      "Ġkoltsegvetes": 7093,
      "Ġkepviseloje": 7094,
      "ho": 7095,
      "esseget": 7096,
      "izel": 7097,
      "teteli": 7098,
      "Ġszempontokat": 7099,
      "Ġideiglenesen": 7100,
      "Ġbeleptet": 7101,
      "Ġbekezdessel": 7102,
      "Ġfoldterulet": 7103,
      "ovid": 7104,
      "Ġabras": 7105,
      "walt": 7106,
      "Ġtargyalasok": 7107,
      "Ġszoved": 7108,
      "itesehez": 7109,
      "Ġuzenet": 7110,
      "oanyagok": 7111,
      "Ġelok": 7112,
      "Ġpontok": 7113,
      "Ġcselekmenyek": 7114,
      "oju": 7115,
      "Ġkodok": 7116,
      "Ġacute": 7117,
      "foldon": 7118,
      "Ġjogsertesek": 7119,
      "Ġkapcsolatot": 7120,
      "ibral": 7121,
      "Ġszekhellyel": 7122,
      "Ġ190": 7123,
      "73": 7124,
      "Ġelfogatoparancs": 7125,
      "Ġmezogazdasag": 7126,
      "Ġallaspontom": 7127,
      "Ġertelmezeset": 7128,
      "Ġanyagot": 7129,
      "Ġdis": 7130,
      "Ġchart": 7131,
      "Î¿ÏĤ": 7132,
      "Ġkorlatozodik": 7133,
      "Ġfogyasztas": 7134,
      "Ġta": 7135,
      "Ġidejen": 7136,
      "fogyaszt": 7137,
      "Ġmegilleto": 7138,
      "Ġszamitva": 7139,
      "Ġjellegenek": 7140,
      "Ġveszik": 7141,
      "Ġ205": 7142,
      "Ġadatt": 7143,
      "kovetelmeny": 7144,
      "Ġilletek": 7145,
      "onap": 7146,
      "Ġtarsadalombiztositasi": 7147,
      "Ġbehajt": 7148,
      "Ġhasznositas": 7149,
      "Ġbenyujtasara": 7150,
      "Ġhivatkoznak": 7151,
      "72": 7152,
      "Ġhydr": 7153,
      "Ġjegyzokony": 7154,
      "Ġparhuzamos": 7155,
      "Ġ388": 7156,
      "Ġ2694": 7157,
      "Ġertekelesere": 7158,
      "1000": 7159,
      "Ġfunkcio": 7160,
      "zendo": 7161,
      "szed": 7162,
      "reg": 7163,
      "Ġpin": 7164,
      "ista": 7165,
      "Ġ171": 7166,
      "Î¹Îº": 7167,
      "Ġ1986": 7168,
      "Ġklorid": 7169,
      "anyagbol": 7170,
      "Ġmukodeset": 7171,
      "ektol": 7172,
      "Ġbizonyitasi": 7173,
      "Ġeng": 7174,
      "Ġveget": 7175,
      "Ġszakaszat": 7176,
      "Ġhatranyosan": 7177,
      "Ġtechnologiai": 7178,
      "Ġjavaslatara": 7179,
      "Ġoktatasi": 7180,
      "Ġlajstromozott": 7181,
      "Ġalso": 7182,
      "Ġertekesitese": 7183,
      "Ġkerelmeket": 7184,
      "Ġosszeteveszt": 7185,
      "bont": 7186,
      "Ġidon": 7187,
      "esitmeny": 7188,
      "Ġelhagy": 7189,
      "Ġfolyaman": 7190,
      "och": 7191,
      "Ġfov": 7192,
      "Ġfelhasznalasi": 7193,
      "Ġfogalmaz": 7194,
      "szerus": 7195,
      "fo": 7196,
      "sagat": 7197,
      "Ġcsoportok": 7198,
      "eta": 7199,
      "Ġvaloszinuleg": 7200,
      "Ġmegkeresett": 7201,
      "Ġmutatni": 7202,
      "Ġletezo": 7203,
      "Ġ239": 7204,
      "Ġsegito": 7205,
      "Ġhelyet": 7206,
      "Ġeladasi": 7207,
      "Ġhatasat": 7208,
      "Ġimportorok": 7209,
      "Ġosszehangolt": 7210,
      "Ġjellegere": 7211,
      "ozes": 7212,
      "orl": 7213,
      "Ġ164": 7214,
      "Ġvaltozata": 7215,
      "Ġreszecs": 7216,
      "wa": 7217,
      "Ġkiegyenlito": 7218,
      "Ġ940": 7219,
      "Ġgas": 7220,
      "Ġkiszamitani": 7221,
      "Ġvizsgalatokat": 7222,
      "Ġtekercs": 7223,
      "Ġellentetel": 7224,
      "Ġeredetileg": 7225,
      "Ġ630": 7226,
      "yc": 7227,
      "nn": 7228,
      "zesehez": 7229,
      "Ġertekelo": 7230,
      "Ġ343": 7231,
      "izacio": 7232,
      "Ġutazasi": 7233,
      "Ġfolytan": 7234,
      "Ġ575": 7235,
      "Ġigazgatosag": 7236,
      "Ġszakaszra": 7237,
      "Ġcsont": 7238,
      "Ġatvalt": 7239,
      "ÏīÎ½": 7240,
      "Ġgyartas": 7241,
      "Ġdiagn": 7242,
      "Ġhalozatok": 7243,
      "Ġhasznalatara": 7244,
      "Ġertekelest": 7245,
      "Ġwto": 7246,
      "Ġjelentoseggel": 7247,
      "Ġkockazatot": 7248,
      "Ġhuszadik": 7249,
      "Ġpenzforgalmi": 7250,
      "Ġalairt": 7251,
      "Ġlejarta": 7252,
      "Ġkisero": 7253,
      "Ġcsator": 7254,
      "Ġreszesulo": 7255,
      "idoszak": 7256,
      "asaert": 7257,
      "Ġalkotoelem": 7258,
      "osabb": 7259,
      "Ġilletoleg": 7260,
      "Ġvedelmenek": 7261,
      "ÐµÐ½": 7262,
      "olgaltat": 7263,
      "Ġmasolat": 7264,
      "Ġszim": 7265,
      "Ġlakohelye": 7266,
      "Ġraadas": 7267,
      "Ġelvalaszt": 7268,
      "Ġelteresek": 7269,
      "Ġnaprak": 7270,
      "ĠÕ": 7271,
      "Ġszent": 7272,
      "onya": 7273,
      "Ġgyakorlatbol": 7274,
      "vers": 7275,
      "Ġneki": 7276,
      "Ġraadasul": 7277,
      "nyilatkoz": 7278,
      "Ġagazati": 7279,
      "jaro": 7280,
      "Ġmegszunt": 7281,
      "Ġerteku": 7282,
      "Ġ226": 7283,
      "Ġdompingkulonboz": 7284,
      "Ġkak": 7285,
      "velem": 7286,
      "jegyzek": 7287,
      "Ġhozzat": 7288,
      "itassal": 7289,
      "Ġ172": 7290,
      "Ġtizen": 7291,
      "uss": 7292,
      "Ġbizonyitja": 7293,
      "helyett": 7294,
      "ĠÐ¿": 7295,
      "Ġtamogato": 7296,
      "Ġminister": 7297,
      "Ġtermeszeti": 7298,
      "Ġmegsertesenek": 7299,
      "Ġszavatolotoke": 7300,
      "Ġnyilatkozatok": 7301,
      "Ġmodositasok": 7302,
      "Ġuzemi": 7303,
      "ultak": 7304,
      "Ġvegrehajtasahoz": 7305,
      "Ġtevekenysegenek": 7306,
      "áĥĶ": 7307,
      "Ġvisszateritesi": 7308,
      "Ġ260": 7309,
      "Ġkozzetetele": 7310,
      "Ġelobbi": 7311,
      "Ġtilalma": 7312,
      "Ġbelepesi": 7313,
      "Ġtagallamai": 7314,
      "Ġhany": 7315,
      "Ġdiv": 7316,
      "Ġ166": 7317,
      "etu": 7318,
      "Ġred": 7319,
      "Ġ950": 7320,
      "Ġ9000": 7321,
      "Ġfogyatek": 7322,
      "Ġosszev": 7323,
      "Ġhangsulyozni": 7324,
      "Ġzavar": 7325,
      "Ġrendkivul": 7326,
      "Ġ347": 7327,
      "Ġalkalmazottak": 7328,
      "Ġkiemelt": 7329,
      "kori": 7330,
      "azonosito": 7331,
      "Ġist": 7332,
      "ulese": 7333,
      "oktol": 7334,
      "veteli": 7335,
      "Ġpiacan": 7336,
      "Ġoldat": 7337,
      "Ġidoponttol": 7338,
      "Ġ1515": 7339,
      "Ġoldo": 7340,
      "Ġszalbol": 7341,
      "Ġgyakorlatban": 7342,
      "Ġnemetorszagban": 7343,
      "Ġeheto": 7344,
      "Ġ163": 7345,
      "Ġ543": 7346,
      "Ġtegye": 7347,
      "Ġtenyt": 7348,
      "Ġgepek": 7349,
      "Ġidegen": 7350,
      "hatta": 7351,
      "eto": 7352,
      "Ġfentiek": 7353,
      "ectr": 7354,
      "Ġsemmifele": 7355,
      "410": 7356,
      "Ġszelektiv": 7357,
      "Ġtermel": 7358,
      "Ġmart": 7359,
      "Ġmegnevezes": 7360,
      "Ġmark": 7361,
      "Ġpad": 7362,
      "Ġ253": 7363,
      "Ġdocument": 7364,
      "Ġintezkedeseknek": 7365,
      "Ġulesen": 7366,
      "Ġlehetne": 7367,
      "Ġcivil": 7368,
      "Ġgyartasahoz": 7369,
      "szolid": 7370,
      "Ġfenykep": 7371,
      "ices": 7372,
      "Ġcompany": 7373,
      "ao": 7374,
      "arin": 7375,
      "Ġszaritott": 7376,
      "Ġfilm": 7377,
      "Ġmegalapozottsag": 7378,
      "Ġszovedjegy": 7379,
      "Ġhitelezo": 7380,
      "ings": 7381,
      "ated": 7382,
      "Ġbekovetkez": 7383,
      "Ġdep": 7384,
      "Ġbehozatalra": 7385,
      "aktiv": 7386,
      "odr": 7387,
      "Ġkozvetito": 7388,
      "Ġertekelt": 7389,
      "Ġagg": 7390,
      "Ġalapvetoen": 7391,
      "okratikus": 7392,
      "Ġkinabol": 7393,
      "Ġkorulmenyei": 7394,
      "Ġsoi": 7395,
      "310": 7396,
      "Ð¼": 7397,
      "Ġhianyat": 7398,
      "Ġcer": 7399,
      "Ġcsov": 7400,
      "Ġreform": 7401,
      "Ġkezelo": 7402,
      "Ġaranytalan": 7403,
      "df": 7404,
      "Ġkiadas": 7405,
      "iras": 7406,
      "Ġrws": 7407,
      "Ġkijelent": 7408,
      "Ġarab": 7409,
      "ĠÑģ": 7410,
      "Ġamino": 7411,
      "Ġmegszerzett": 7412,
      "Ġburg": 7413,
      "Ġbevezeto": 7414,
      "Ġbefolyasol": 7415,
      "Ġfennmarado": 7416,
      "Ġmic": 7417,
      "Ġkontrol": 7418,
      "keny": 7419,
      "Ġkialakitott": 7420,
      "Ġajanlott": 7421,
      "hatosagat": 7422,
      "Ġallampolgarok": 7423,
      "Ġarucikk": 7424,
      "Ġelemet": 7425,
      "Ġmegker": 7426,
      "akter": 7427,
      "Ġdimetil": 7428,
      "wer": 7429,
      "Ġallitottak": 7430,
      "Ġdip": 7431,
      "Ġmozgaster": 7432,
      "hulladek": 7433,
      "Ġadando": 7434,
      "Ġnew": 7435,
      "Ġ162": 7436,
      "eiket": 7437,
      "kap": 7438,
      "Ġonline": 7439,
      "hyl": 7440,
      "Ġtermekertek": 7441,
      "Ġterit": 7442,
      "Ġizom": 7443,
      "anci": 7444,
      "Ġcorpor": 7445,
      "Ġhitelek": 7446,
      "Ġuzemmod": 7447,
      "Ġabra": 7448,
      "Ġallitjak": 7449,
      "Ġnehezsegek": 7450,
      "Ġgar": 7451,
      "Ġhatalybalepese": 7452,
      "Ġmegszerzese": 7453,
      "Ġtetelek": 7454,
      "Ġrol": 7455,
      "Ġeuropean": 7456,
      "Ġcsoportja": 7457,
      "Ġpartnerek": 7458,
      "Ġjelentett": 7459,
      "Ġkezi": 7460,
      "Ġkarton": 7461,
      "Ġelofordul": 7462,
      "Ġsar": 7463,
      "jav": 7464,
      "ics": 7465,
      "Ġnincsenek": 7466,
      "Ġtekinthetok": 7467,
      "okkel": 7468,
      "Ġ1006": 7469,
      "Ġidoszakok": 7470,
      "Ġfejezetenek": 7471,
      "Ġszerkezetatalak": 7472,
      "Ġketoldalu": 7473,
      "Ġosszesitett": 7474,
      "ejet": 7475,
      "Ġolvas": 7476,
      "Ġinternetes": 7477,
      "Ġadalekanyagok": 7478,
      "Ġcsek": 7479,
      "Ġhollandi": 7480,
      "Ġup": 7481,
      "Ġteh": 7482,
      "Ġsup": 7483,
      "Ġfelszereles": 7484,
      "age": 7485,
      "Ġ211": 7486,
      "nam": 7487,
      "Ġnapos": 7488,
      "Ġszabadsaga": 7489,
      "Ġ208": 7490,
      "Ġdemokratikus": 7491,
      "ogenek": 7492,
      "ns": 7493,
      "Ġoce": 7494,
      "Ġ203": 7495,
      "Ġgepjarmuvek": 7496,
      "Ġdom": 7497,
      "Ġtargyalas": 7498,
      "Ġprot": 7499,
      "Ġhonappal": 7500,
      "Ġoc": 7501,
      "Ġnull": 7502,
      "zesre": 7503,
      "Ġszervezeserol": 7504,
      "Ġelerese": 7505,
      "iszemu": 7506,
      "Ġelfogadasanak": 7507,
      "Ġ189": 7508,
      "Ġszorit": 7509,
      "76": 7510,
      "Ġja": 7511,
      "Ġkonszolid": 7512,
      "Ġvallalkozasnak": 7513,
      "yr": 7514,
      "Ġpil": 7515,
      "tein": 7516,
      "Ġesetleg": 7517,
      "Ġmegvizsgalta": 7518,
      "zesenek": 7519,
      "Ġjellemzoi": 7520,
      "Ġhivatala": 7521,
      "Ġallatgyogyaszati": 7522,
      "Ġcikkebol": 7523,
      "Ġmegalapozatlan": 7524,
      "Ġkiderul": 7525,
      "Ġkepviseloi": 7526,
      "kereskedelmi": 7527,
      "Ġkatal": 7528,
      "amentes": 7529,
      "Ġseged": 7530,
      "Ġtorzul": 7531,
      "Ġparancsnok": 7532,
      "Ġsziget": 7533,
      "hasznalat": 7534,
      "Ġingy": 7535,
      "Ġelszenvedett": 7536,
      "Ġkulonfele": 7537,
      "Ġeljarasokban": 7538,
      "Ġugyvedi": 7539,
      "Ġdatuma": 7540,
      "Ġâī¥": 7541,
      "Ġindokolatlan": 7542,
      "Ġfedelzeten": 7543,
      "Ġtagjainak": 7544,
      "Ġathely": 7545,
      "Ġfelhivas": 7546,
      "Ġtechnologia": 7547,
      "Ġ258": 7548,
      "Ġrud": 7549,
      "Ġ290": 7550,
      "Ġedes": 7551,
      "elyem": 7552,
      "letet": 7553,
      "Ġjelzi": 7554,
      "Ġajanlattevo": 7555,
      "Ġvelelm": 7556,
      "eznie": 7557,
      "Ġatm": 7558,
      "Ġbefagyaszt": 7559,
      "Ġjegyzeket": 7560,
      "abron": 7561,
      "Ġallapotban": 7562,
      "Ġou": 7563,
      "Ġnyitott": 7564,
      "Ġfedezettel": 7565,
      "Ġrendelkezeseknek": 7566,
      "gazdalk": 7567,
      "leked": 7568,
      "Ġjet": 7569,
      "ezod": 7570,
      "rep": 7571,
      "iff": 7572,
      "Ġvedjegyet": 7573,
      "Ġfuggveny": 7574,
      "Ġkozrend": 7575,
      "Ġkop": 7576,
      "Ġglob": 7577,
      "Ġcso": 7578,
      "Ġvedek": 7579,
      "Ġrendelkezesben": 7580,
      "Ġplc": 7581,
      "Ġbraz": 7582,
      "Ġellenorzeseket": 7583,
      "Ġexportalt": 7584,
      "assak": 7585,
      "Ġszoftver": 7586,
      "Ġfeladatokat": 7587,
      "Ġveheto": 7588,
      "Ġosszegy": 7589,
      "szamu": 7590,
      "Ġhulladekok": 7591,
      "Ġjarat": 7592,
      "Ġfogadtak": 7593,
      "Ġmagat": 7594,
      "Ġjogait": 7595,
      "Ġkormanyzatok": 7596,
      "Ġbv": 7597,
      "allit": 7598,
      "essege": 7599,
      "Ġbuntetes": 7600,
      "jeg": 7601,
      "Ġjatsz": 7602,
      "Ġradi": 7603,
      "Ġcsokkentett": 7604,
      "Ġalkalm": 7605,
      "Ġmintaban": 7606,
      "Ġkoncentraci": 7607,
      "part": 7608,
      "Î´": 7609,
      "Ġtapasztalat": 7610,
      "Ġgyak": 7611,
      "Ġfeszult": 7612,
      "0010": 7613,
      "jee": 7614,
      "Ġjogszabalyai": 7615,
      "Ġfennallasanak": 7616,
      "Ġkil": 7617,
      "ucs": 7618,
      "Ġkeszpenz": 7619,
      "Ġjelentosegu": 7620,
      "akci": 7621,
      "Ġszapor": 7622,
      "Ġrogziteni": 7623,
      "eml": 7624,
      "Ġgyakorlasat": 7625,
      "Ġmegyei": 7626,
      "Ġ174": 7627,
      "Ġreszesedese": 7628,
      "Ġadministr": 7629,
      "szabalyok": 7630,
      "Ġidopontjatol": 7631,
      "Ġszoritkoz": 7632,
      "endok": 7633,
      "Ġadtak": 7634,
      "berendezes": 7635,
      "ski": 7636,
      "vam": 7637,
      "Ġkezdeti": 7638,
      "Ġoka": 7639,
      "Ġszallitott": 7640,
      "Ġlek": 7641,
      "Ġbulgaria": 7642,
      "Ġdonto": 7643,
      "Ġrugalmas": 7644,
      "atos": 7645,
      "omra": 7646,
      "viszony": 7647,
      "Ġeloirasoknak": 7648,
      "esztese": 7649,
      "Ġejee": 7650,
      "Ġmentesseget": 7651,
      "Ġforum": 7652,
      "Ġproc": 7653,
      "Ġ256": 7654,
      "edekes": 7655,
      "Ġhex": 7656,
      "Ġadatot": 7657,
      "Ġhatosagot": 7658,
      "ersek": 7659,
      "Ġkerelemben": 7660,
      "agu": 7661,
      "tarto": 7662,
      "verek": 7663,
      "Ġ240": 7664,
      "Ġregiok": 7665,
      "Ġarakat": 7666,
      "Ġalkalmasak": 7667,
      "Ġszoveget": 7668,
      "Ġhataskore": 7669,
      "kerek": 7670,
      "Ġszarmazik": 7671,
      "Ġhelyettesito": 7672,
      "Ġosszehangolasarol": 7673,
      "unc": 7674,
      "yk": 7675,
      "Ġvalasztottbirosag": 7676,
      "Ġoptikai": 7677,
      "uto": 7678,
      "Ġ185": 7679,
      "ezt": 7680,
      "Ġbab": 7681,
      "Ġpubl": 7682,
      "schaft": 7683,
      "Ġujboli": 7684,
      "Ġelemeket": 7685,
      "Ġmegrend": 7686,
      "Ġbehozott": 7687,
      "Ġbizottsaganak": 7688,
      "vasarl": 7689,
      "Ġelterest": 7690,
      "Ġfeleket": 7691,
      "Ġtra": 7692,
      "Ġfolyekony": 7693,
      "Ġgyermekek": 7694,
      "harm": 7695,
      "Ġrat": 7696,
      "Ġkorlatlan": 7697,
      "Ġammon": 7698,
      "Ġkituzott": 7699,
      "Ġotvoz": 7700,
      "Ġkedvezo": 7701,
      "Ġ840": 7702,
      "Ġfrekven": 7703,
      "Ġkepviseli": 7704,
      "politik": 7705,
      "Ġpanaszt": 7706,
      "Ġbefolyasolja": 7707,
      "kredit": 7708,
      "oth": 7709,
      "low": 7710,
      "Ġarc": 7711,
      "Ġfoglalo": 7712,
      "Ġtoxic": 7713,
      "Ġalaku": 7714,
      "Ġabszol": 7715,
      "Ġ236": 7716,
      "Ġrepubl": 7717,
      "Ġkiutas": 7718,
      "Ġalapitvany": 7719,
      "Ġoldalan": 7720,
      "Ġsajatossag": 7721,
      "Ġpervesztes": 7722,
      "Ġindiai": 7723,
      "mo": 7724,
      "tatta": 7725,
      "Ġkerelmere": 7726,
      "Ġszanalasi": 7727,
      "Ġszomszed": 7728,
      "Ġadatszolgaltatasi": 7729,
      "Ġlic": 7730,
      "Ġinfrastruktur": 7731,
      "Ġadodo": 7732,
      "ide": 7733,
      "Ġvegrehajtani": 7734,
      "ser": 7735,
      "Ġvegett": 7736,
      "Ġabszolut": 7737,
      "Ġbis": 7738,
      "har": 7739,
      "jeggyel": 7740,
      "Ġrecht": 7741,
      "Ġ1701": 7742,
      "Ġidotartamra": 7743,
      "Ġindit": 7744,
      "gyules": 7745,
      "Ġkeletkezett": 7746,
      "Ġhatalybalepes": 7747,
      "Ġmuszer": 7748,
      "Ġakiknek": 7749,
      "hor": 7750,
      "Ġ450": 7751,
      "Ġmodjat": 7752,
      "Ġhalal": 7753,
      "Ġaquatic": 7754,
      "Ġtermekre": 7755,
      "Ġmegjelolesek": 7756,
      "Ġnapjatol": 7757,
      "Ġvisszateritesek": 7758,
      "Ġtavkozlesi": 7759,
      "Ġmost": 7760,
      "Ġteruletre": 7761,
      "Ġjelentosege": 7762,
      "vizs": 7763,
      "olok": 7764,
      "Ġ820": 7765,
      "Ġkommunikacios": 7766,
      "Ġiranyitobizottsag": 7767,
      "allom": 7768,
      "Ġnegyzet": 7769,
      "Ġfellebbviteli": 7770,
      "Ġkesedelem": 7771,
      "Ġga": 7772,
      "Ġcsatlakozo": 7773,
      "Ġvadon": 7774,
      "Ġtisztasag": 7775,
      "Ġofj": 7776,
      "Ġtabla": 7777,
      "Ġkerultek": 7778,
      "Ġtennie": 7779,
      "Ġfelszerelt": 7780,
      "ograf": 7781,
      "Ġln": 7782,
      "Ġfunkcionalis": 7783,
      "Ġimportalt": 7784,
      "oznak": 7785,
      "Ġcan": 7786,
      "Ġokozati": 7787,
      "Ġellenkezoleg": 7788,
      "saggal": 7789,
      "Ġrendeletek": 7790,
      "zati": 7791,
      "Ġutasitsa": 7792,
      "Ġhozzaferesi": 7793,
      "Ġ173": 7794,
      "Ġhidroxi": 7795,
      "Ġmodszerrel": 7796,
      "Ġkiny": 7797,
      "Ġkezdodoen": 7798,
      "Ġadoalap": 7799,
      "Ġvirag": 7800,
      "Ġices": 7801,
      "Ġhuman": 7802,
      "Ġalkotmanyos": 7803,
      "Ġigazgato": 7804,
      "Ġfelelnek": 7805,
      "Ġtudjak": 7806,
      "Ġpu": 7807,
      "Ġ231": 7808,
      "Ġjogeros": 7809,
      "Ġelismeri": 7810,
      "lev": 7811,
      "Ġhatarozatbol": 7812,
      "ikoz": 7813,
      "itz": 7814,
      "Ġkovetkezetes": 7815,
      "Ġutasok": 7816,
      "kek": 7817,
      "Ġalapanyag": 7818,
      "era": 7819,
      "Ġegeszsegre": 7820,
      "Ġellenorzeset": 7821,
      "Ġfelszamitott": 7822,
      "Ġ202": 7823,
      "Ġferfi": 7824,
      "elnek": 7825,
      "Ġstrategiai": 7826,
      "Ġfelszin": 7827,
      "Ġhasznalja": 7828,
      "Ġtervek": 7829,
      "erteke": 7830,
      "Ġ318": 7831,
      "muv": 7832,
      "Ġmukodesenek": 7833,
      "Ġ159": 7834,
      "Ġfegyelmi": 7835,
      "Ġhatarozatokat": 7836,
      "Ġbirosagot": 7837,
      "Ġakkredit": 7838,
      "Ġliber": 7839,
      "Ġhaztart": 7840,
      "Ġtechnologiak": 7841,
      "Ġmo": 7842,
      "Ġorizet": 7843,
      "Ġbenne": 7844,
      "Ġszennyezo": 7845,
      "Ġmegfizetesere": 7846,
      "Ġketsegtelen": 7847,
      "Ġagy": 7848,
      "Ġtit": 7849,
      "Ġ731": 7850,
      "lanc": 7851,
      "Ġallasfoglal": 7852,
      "Ġideju": 7853,
      "Ġbetet": 7854,
      "fl": 7855,
      "aihoz": 7856,
      "iaban": 7857,
      "Ġszerszam": 7858,
      "Ġerdekeinek": 7859,
      "Ġfelnek": 7860,
      "eshez": 7861,
      "Ġkotelezettsegvallalasok": 7862,
      "Ġjogainak": 7863,
      "acsoport": 7864,
      "Ġversenyt": 7865,
      "Ġpill": 7866,
      "Ġvisszaterittet": 7867,
      "Ġ0001": 7868,
      "Ġ221": 7869,
      "ĺĲ": 7870,
      "Ġkonnyen": 7871,
      "icium": 7872,
      "Ġfovaros": 7873,
      "Ġalkalmaznak": 7874,
      "Ġdiagnoszt": 7875,
      "arany": 7876,
      "arab": 7877,
      "Ġsad": 7878,
      "Ġvamtarifa": 7879,
      "Ġfod": 7880,
      "hatott": 7881,
      "Ġigazolhato": 7882,
      "Ġkozrem": 7883,
      "Ġ215": 7884,
      "Ġagrar": 7885,
      "Ġmagn": 7886,
      "amen": 7887,
      "saganak": 7888,
      "Ġhibrid": 7889,
      "Ġmunkaszerzodes": 7890,
      "eirol": 7891,
      "Ġ216": 7892,
      "Ġegeszben": 7893,
      "irt": 7894,
      "ejenek": 7895,
      "Ġmodositasat": 7896,
      "Ġbeill": 7897,
      "Ġkeszulekek": 7898,
      "Ġ1980": 7899,
      "Ġvizsgalta": 7900,
      "Ġhatarozataban": 7901,
      "Ġkornyezetre": 7902,
      "Ġesedekes": 7903,
      "Ġglobalis": 7904,
      "Ġerok": 7905,
      "Ġkarty": 7906,
      "Ġelszamol": 7907,
      "Ġhatarozatlan": 7908,
      "ossagat": 7909,
      "Ġszakkep": 7910,
      "Ġlemond": 7911,
      "eck": 7912,
      "argy": 7913,
      "Ġkozremuk": 7914,
      "Ġbevezetese": 7915,
      "Ġjogalkalmaz": 7916,
      "Ġletezik": 7917,
      "tatasi": 7918,
      "yz": 7919,
      "Ġ217": 7920,
      "Ġ228": 7921,
      "Ġbanki": 7922,
      "eletlen": 7923,
      "iklor": 7924,
      "Ġmegkotott": 7925,
      "Ġmezo": 7926,
      "omad": 7927,
      "miss": 7928,
      "Ġ580": 7929,
      "Ġhataron": 7930,
      "Ġhavi": 7931,
      "Ġhatarertekek": 7932,
      "350": 7933,
      "Ġugyvezeto": 7934,
      "Ġkalcium": 7935,
      "Ġuveghaz": 7936,
      "Ġzarja": 7937,
      "Ġtoltott": 7938,
      "Ġklin": 7939,
      "cin": 7940,
      "oge": 7941,
      "Ġbenyujtasa": 7942,
      "Ġpos": 7943,
      "Ġletrehozasa": 7944,
      "Ġfoszf": 7945,
      "Ġpent": 7946,
      "Ġesetek": 7947,
      "Ġfelvett": 7948,
      "Ġcik": 7949,
      "Ġketszer": 7950,
      "Ġpreambulumbekezdesebol": 7951,
      "Ġcourt": 7952,
      "tervezet": 7953,
      "Ġvamhatosagok": 7954,
      "Ġerveket": 7955,
      "Ġtozsd": 7956,
      "Ġtajekoztatjak": 7957,
      "Î¿Î½": 7958,
      "velemeny": 7959,
      "Ġ177": 7960,
      "Ġ179": 7961,
      "nanak": 7962,
      "Ġvamot": 7963,
      "Ġ191": 7964,
      "Ġ1702": 7965,
      "Ġallaspontjat": 7966,
      "Ġnemzetek": 7967,
      "adok": 7968,
      "kodik": 7969,
      "ezesevel": 7970,
      "Ġkeresete": 7971,
      "Ġhibas": 7972,
      "Ġtomegszazalekot": 7973,
      "Ġmenetrend": 7974,
      "Ġjogsertest": 7975,
      "Ġvasut": 7976,
      "Ġgomb": 7977,
      "Ġfakado": 7978,
      "Ġiran": 7979,
      "Ġlatogat": 7980,
      "Ġkozelebb": 7981,
      "eszek": 7982,
      "Ġrang": 7983,
      "Ġvaltozasok": 7984,
      "áĥĺ": 7985,
      "jatsz": 7986,
      "Ġluxemburgi": 7987,
      "Ġtojas": 7988,
      "atikai": 7989,
      "Ġkonf": 7990,
      "Ġettol": 7991,
      "Ġ213": 7992,
      "ÏģÎ±": 7993,
      "Ġkonyvvizsgal": 7994,
      "Ġellenorizni": 7995,
      "Ġalaptorveny": 7996,
      "soci": 7997,
      "Ġmaxim": 7998,
      "Ġbesorolasi": 7999,
      "Ġtorvenyben": 8000,
      "cz": 8001,
      "Ġengedekeny": 8002,
      "Ġcimkez": 8003,
      "Ġmeresi": 8004,
      "Ġkrem": 8005,
      "Ġodaitelesi": 8006,
      "Ġarg": 8007,
      "Ġgov": 8008,
      "Ġatvitel": 8009,
      "Ġkipufogogaz": 8010,
      "Ã¸": 8011,
      "Ġutkozo": 8012,
      "Ġhelyzetere": 8013,
      "Ġbiztositasahoz": 8014,
      "Ġly": 8015,
      "Ġmegtamad": 8016,
      "Ġatalanyertekeket": 8017,
      "Ġszenhidrogenek": 8018,
      "Ġfenntartas": 8019,
      "Ġfagyasztva": 8020,
      "Ġkozjogi": 8021,
      "Ġszemelyekkel": 8022,
      "Ġmielott": 8023,
      "Ġgazok": 8024,
      "ÏģÎ¹": 8025,
      "Ġlitv": 8026,
      "Ġhalm": 8027,
      "szerkezet": 8028,
      "Ġkamatok": 8029,
      "Ġsegitsegnyujtas": 8030,
      "Ġvonatkozott": 8031,
      "ork": 8032,
      "Ġmaradekanyag": 8033,
      "Ġvaltozasa": 8034,
      "Ġ2204": 8035,
      "Ġfokent": 8036,
      "Ġtonhal": 8037,
      "Ġszarmazas": 8038,
      "Ġrendelkeznie": 8039,
      "Ġkriteriumokat": 8040,
      "Ġveszelye": 8041,
      "Ġmegkap": 8042,
      "Ġfeltetlenul": 8043,
      "Ġ255": 8044,
      "Ġest": 8045,
      "omat": 8046,
      "2010": 8047,
      "Ġ750": 8048,
      "Ġpreferen": 8049,
      "Ġkina": 8050,
      "Ġtisztaz": 8051,
      "Ġ296": 8052,
      "Ġrepulesi": 8053,
      "Ġ2138": 8054,
      "ick": 8055,
      "Ġbiztos": 8056,
      "bizony": 8057,
      "Ġvalsag": 8058,
      "Ġtorlesi": 8059,
      "Ġrajuk": 8060,
      "Ġ183": 8061,
      "rit": 8062,
      "Ġvalosit": 8063,
      "Ġeloallitasara": 8064,
      "Ð³": 8065,
      "ozis": 8066,
      "Ġkerulhet": 8067,
      "Ġelkeszitett": 8068,
      "Ġvarhatoan": 8069,
      "Ġ181": 8070,
      "Ġkerelmei": 8071,
      "bl": 8072,
      "Ġkepzesi": 8073,
      "Ġtesznek": 8074,
      "Ġ194": 8075,
      "Ġoszlopban": 8076,
      "allatok": 8077,
      "Ġoszlopaban": 8078,
      "Ġidotartamat": 8079,
      "Ġadozas": 8080,
      "Ġelevulesi": 8081,
      "Ġosszehasonlithato": 8082,
      "Ġ192": 8083,
      "Ġszarazfoldi": 8084,
      "tus": 8085,
      "Ġbuntetojogi": 8086,
      "Ġbolgar": 8087,
      "Ġosszefugges": 8088,
      "Ġ235": 8089,
      "echt": 8090,
      "ukle": 8091,
      "Ġmai": 8092,
      "fektet": 8093,
      "Ġveluk": 8094,
      "Ġbt": 8095,
      "Ġlimited": 8096,
      "Ġdb": 8097,
      "Ġimpr": 8098,
      "Ġegyfelol": 8099,
      "Ġkiralysagban": 8100,
      "Ġvaloszinus": 8101,
      "Ġinvest": 8102,
      "itesevel": 8103,
      "Ġ295": 8104,
      "Ġnappal": 8105,
      "Ġ0808": 8106,
      "Ġka": 8107,
      "Ġkihirdetesenek": 8108,
      "Ġkerelmezok": 8109,
      "Ġjelentkez": 8110,
      "aibol": 8111,
      "Ġerintik": 8112,
      "Ġeszkozokkel": 8113,
      "Ġszermar": 8114,
      "Ġjogra": 8115,
      "Ġelfogadja": 8116,
      "Ġgumiabron": 8117,
      "pon": 8118,
      "Ġfelhasznalasaval": 8119,
      "Ġigenlo": 8120,
      "Ġfelugyelo": 8121,
      "Ġfac": 8122,
      "iabol": 8123,
      "Ġ193": 8124,
      "Ġjelezte": 8125,
      "Ġviselo": 8126,
      "Ġalav": 8127,
      "Ġerkez": 8128,
      "Ġvisszak": 8129,
      "Ġeltelt": 8130,
      "ico": 8131,
      "Ġfizeteskeptelensegi": 8132,
      "arty": 8133,
      "ena": 8134,
      "Ġline": 8135,
      "Ġhatalybalepeset": 8136,
      "Ġhamis": 8137,
      "Ġbon": 8138,
      "addig": 8139,
      "Ġmegegyezo": 8140,
      "Ġkikuld": 8141,
      "Ġmunkaer": 8142,
      "Ġmunkaero": 8143,
      "ane": 8144,
      "Ġ209": 8145,
      "Ġsorrend": 8146,
      "Ġllc": 8147,
      "encs": 8148,
      "Ġ206": 8149,
      "Ġmennyisegu": 8150,
      "Ġefta": 8151,
      "hetonek": 8152,
      "rost": 8153,
      "Ġmindaddig": 8154,
      "Ġkepzett": 8155,
      "Ġhelyzetre": 8156,
      "Ġelectr": 8157,
      "mero": 8158,
      "Ġmunkaugyi": 8159,
      "egu": 8160,
      "belul": 8161,
      "Ġitalok": 8162,
      "Ġmegjegyezte": 8163,
      "Ġkozjegy": 8164,
      "Ġhangsulyozta": 8165,
      "Ġesp": 8166,
      "Ġjean": 8167,
      "Ġhelyesbites": 8168,
      "Ġraford": 8169,
      "Ġterheli": 8170,
      "Ġcsekely": 8171,
      "viselo": 8172,
      "elyeg": 8173,
      "Ġegyetemes": 8174,
      "Ġevet": 8175,
      "Ġceljat": 8176,
      "Ġkartalan": 8177,
      "Ġszarmaznak": 8178,
      "Ġhatarozatra": 8179,
      "esetz": 8180,
      "Ð°Ð½": 8181,
      "Ġmeghalad": 8182,
      "Ġeurostat": 8183,
      "Ġrendszerint": 8184,
      "Ġosszeteveszthetoseg": 8185,
      "Ġ212": 8186,
      "Ġgyakran": 8187,
      "Ġlevego": 8188,
      "Ġprz": 8189,
      "Ġtevekenysegi": 8190,
      "Ġend": 8191,
      "icin": 8192,
      "Ġbirtokaban": 8193,
      "tartalom": 8194,
      "Ġnormal": 8195,
      "Ð¾Ð²": 8196,
      "Ġfelhatalmazast": 8197,
      "aro": 8198,
      "Ġarum": 8199,
      "Ġtobbeves": 8200,
      "Ġhirkozlesi": 8201,
      "Ġbeut": 8202,
      "tartalmu": 8203,
      "Ġalbekezdesben": 8204,
      "mellu": 8205,
      "umb": 8206,
      "Ġ429": 8207,
      "Ġ249": 8208,
      "Ġvasarl": 8209,
      "erei": 8210,
      "Ġvide": 8211,
      "Ġmunkak": 8212,
      "cor": 8213,
      "omuv": 8214,
      "Ġvisszafizet": 8215,
      "Ġmegelozese": 8216,
      "Ġkorulbelul": 8217,
      "Ġversenyellenes": 8218,
      "Ġmegoldas": 8219,
      "Ġelokeszito": 8220,
      "Ġvilagosan": 8221,
      "oper": 8222,
      "Ġfoigazgatosag": 8223,
      "Ġmegegyezik": 8224,
      "ilia": 8225,
      "Ġarukra": 8226,
      "Ġmegszuntetese": 8227,
      "eseg": 8228,
      "Ġvallalt": 8229,
      "Ġgraf": 8230,
      "Ġegyedul": 8231,
      "eret": 8232,
      "Ġhez": 8233,
      "adrag": 8234,
      "Ġmersek": 8235,
      "Ġeszkozt": 8236,
      "Ġfutomad": 8237,
      "Ġ225": 8238,
      "Ġmegvalosul": 8239,
      "Ġsolas": 8240,
      "urs": 8241,
      "Ġhozzaferheto": 8242,
      "icio": 8243,
      "Ġlov": 8244,
      "Ġszuletett": 8245,
      "Ġbesorolni": 8246,
      "Ġberuhazas": 8247,
      "go": 8248,
      "Ġmeghatarozzak": 8249,
      "Ġkereskedo": 8250,
      "Ġ590": 8251,
      "metsz": 8252,
      "Ġnyolcadik": 8253,
      "Ġazonositasa": 8254,
      "Ġfedelzeti": 8255,
      "Ġ321": 8256,
      "Ġ186": 8257,
      "Ġmegtort": 8258,
      "Ġlaposmellu": 8259,
      "Ġtartalmazzak": 8260,
      "Ġfelelossege": 8261,
      "onnan": 8262,
      "Ġkiszerelesben": 8263,
      "Ġportfol": 8264,
      "Ġvirus": 8265,
      "itot": 8266,
      "Ġfoglalkoztatasi": 8267,
      "Ġelonyben": 8268,
      "odast": 8269,
      "Ġcsod": 8270,
      "Ġnemteljesito": 8271,
      "Ġ302": 8272,
      "allitani": 8273,
      "Ġiranyitas": 8274,
      "rec": 8275,
      "Ġfejezeteben": 8276,
      "Ġolv": 8277,
      "Ġfeleknek": 8278,
      "Ġmegfoszt": 8279,
      "fc": 8280,
      "Ġtisztan": 8281,
      "Ġprofil": 8282,
      "ekedo": 8283,
      "Ġlakas": 8284,
      "Ġugyfelek": 8285,
      "Ġszamitasi": 8286,
      "Ġatvetel": 8287,
      "Ġmikent": 8288,
      "eneti": 8289,
      "Ġalkalmazhatok": 8290,
      "Ġhianyara": 8291,
      "Ġvesztesegek": 8292,
      "Ġartalmatlan": 8293,
      "ertekeles": 8294,
      "Ġkalium": 8295,
      "Ġkerik": 8296,
      "ĠÏĥ": 8297,
      "Ġmegsertesevel": 8298,
      "Ġevvel": 8299,
      "Ġtudta": 8300,
      "ossaga": 8301,
      "Ġnyujtasara": 8302,
      "Ġmintat": 8303,
      "Ġbeoszt": 8304,
      "Ġmentesul": 8305,
      "Ġbany": 8306,
      "Ġkivalt": 8307,
      "Ġreszletesen": 8308,
      "Ġamelybol": 8309,
      "ugu": 8310,
      "Ġkesedelm": 8311,
      "rof": 8312,
      "Ġelbocsat": 8313,
      "Ġelvegzese": 8314,
      "Ġismertetese": 8315,
      "lasi": 8316,
      "Ġosszessege": 8317,
      "Ġhelyezni": 8318,
      "Ġszamomra": 8319,
      "Ġteljesiteni": 8320,
      "Ġtagallamba": 8321,
      "Ġszabvanyok": 8322,
      "Ġigazolt": 8323,
      "hasson": 8324,
      "Ġkodja": 8325,
      "Ġsub": 8326,
      "Ġhataridok": 8327,
      "Ġtervet": 8328,
      "Ġ288": 8329,
      "Ġdokumentumot": 8330,
      "Ġmunkavallaloi": 8331,
      "Ġhatalybalepesenek": 8332,
      "020": 8333,
      "Ġbehozatala": 8334,
      "Ġkiegeszitese": 8335,
      "Ġukrajna": 8336,
      "Ġnoi": 8337,
      "Ġextr": 8338,
      "eszes": 8339,
      "Ġallatorvos": 8340,
      "Ġeredmenyei": 8341,
      "Ġiranymutatasok": 8342,
      "Ġintezkedesekkel": 8343,
      "Ġfelhasznalasanak": 8344,
      "Ġald": 8345,
      "Ġindul": 8346,
      "Ġvolumen": 8347,
      "Ġ621": 8348,
      "Ġ530": 8349,
      "Ġbit": 8350,
      "Ġ195": 8351,
      "Ġcuk": 8352,
      "Ġkezelni": 8353,
      "Ġ297": 8354,
      "veres": 8355,
      "Ġszog": 8356,
      "Ġszamanak": 8357,
      "Ġonkormanyzati": 8358,
      "Ð·": 8359,
      "nevezett": 8360,
      "ÏĦÎ±": 8361,
      "Ġsorolt": 8362,
      "Ġkezdemenyezes": 8363,
      "Ġiranyitasi": 8364,
      "Ġelrendelo": 8365,
      "ien": 8366,
      "Ġserul": 8367,
      "hassa": 8368,
      "Ġkozlekedo": 8369,
      "Ġhasznalataval": 8370,
      "Ġadag": 8371,
      "Ġpontositas": 8372,
      "essen": 8373,
      "Ġtorvenyes": 8374,
      "Ġmaganszemelyek": 8375,
      "Ġlaz": 8376,
      "Ġnyilvantartasi": 8377,
      "Ġszemelyekre": 8378,
      "Ġmasodsorban": 8379,
      "hatosaga": 8380,
      "Ġindonez": 8381,
      "ff": 8382,
      "Ġmegallapitottak": 8383,
      "var": 8384,
      "pel": 8385,
      "Ġkovetkeztetni": 8386,
      "Ġfutomadarak": 8387,
      "Ġalabbiakat": 8388,
      "Ġkerdesben": 8389,
      "jakent": 8390,
      "Ġbemutatott": 8391,
      "Ġmot": 8392,
      "Ġelsodlegesen": 8393,
      "Ġamiatt": 8394,
      "Ġesemenyek": 8395,
      "Ġeloirasokat": 8396,
      "Ġlitvan": 8397,
      "Ġugynevezett": 8398,
      "asuk": 8399,
      "Ġtargyalasra": 8400,
      "pi": 8401,
      "Ġjegyzeke": 8402,
      "idi": 8403,
      "Ġarutovabb": 8404,
      "Ġ251": 8405,
      "Ġ232": 8406,
      "Ġvizek": 8407,
      "Ġadol": 8408,
      "Ġamin": 8409,
      "Ġalairasok": 8410,
      "Ġnepkoztarsasagbol": 8411,
      "Ġolom": 8412,
      "Ġ1977": 8413,
      "Ġservices": 8414,
      "Ġmonitor": 8415,
      "ivo": 8416,
      "Ġkorulmenyeket": 8417,
      "Ġalkalmaztak": 8418,
      "Ġversenyvizs": 8419,
      "Ġszarazanyag": 8420,
      "Ġplatform": 8421,
      "Ġnok": 8422,
      "eland": 8423,
      "Ġvegzi": 8424,
      "Ġmegvalaszt": 8425,
      "Ġvege": 8426,
      "Ġbeta": 8427,
      "onia": 8428,
      "Ġ280": 8429,
      "Ġbiztositsa": 8430,
      "aszk": 8431,
      "Ġfelelnie": 8432,
      "Ġhorizontalis": 8433,
      "Ġmusorsz": 8434,
      "Ġfobb": 8435,
      "Ġindokkal": 8436,
      "Ġmegsemmisiteset": 8437,
      "Ġvese": 8438,
      "Ġindult": 8439,
      "Ġatlanti": 8440,
      "Ġhalozati": 8441,
      "Ġkb": 8442,
      "Ġterfogatszazalek": 8443,
      "Ġvalasztasi": 8444,
      "agazatban": 8445,
      "Ġegyszeruen": 8446,
      "Ġtermelt": 8447,
      "Ġ659": 8448,
      "Ġnyersanyag": 8449,
      "Ġatrak": 8450,
      "Ġbevezetes": 8451,
      "Ġakadalyozza": 8452,
      "Ġbenyujtasat": 8453,
      "Ġesik": 8454,
      "Ġszervet": 8455,
      "Ġrendelkezesekrol": 8456,
      "adatok": 8457,
      "Ġbarmikor": 8458,
      "Ġasvanyi": 8459,
      "Ġfokozott": 8460,
      "mos": 8461,
      "essek": 8462,
      "ebben": 8463,
      "Ġmagatartasa": 8464,
      "Ġkapcsolatosan": 8465,
      "Ġdokumentumokhoz": 8466,
      "Ġnm": 8467,
      "Ġfogalommeghatarozasok": 8468,
      "Ġsat": 8469,
      "Ġolaf": 8470,
      "Ġhall": 8471,
      "Ġni": 8472,
      "Ġhivatkozassal": 8473,
      "Ġaltalanosan": 8474,
      "Ġterjeszti": 8475,
      "110": 8476,
      "ozasra": 8477,
      "Ġ420": 8478,
      "ejen": 8479,
      "Ġlevelben": 8480,
      "nenek": 8481,
      "Ġ0402": 8482,
      "Ġadatait": 8483,
      "Ġpih": 8484,
      "Ġ213800": 8485,
      "Ġcsokkenteni": 8486,
      "Ġmukodese": 8487,
      "szerzodes": 8488,
      "Ġ883": 8489,
      "ropil": 8490,
      "Ġsta": 8491,
      "Ġbekovetkezo": 8492,
      "Ġdug": 8493,
      "Ġjeloli": 8494,
      "Ġegymas": 8495,
      "Ġ223": 8496,
      "Ġfigyelmezteto": 8497,
      "Ġtanacselnok": 8498,
      "osp": 8499,
      "cukor": 8500,
      "Ġlaw": 8501,
      "Ġsas": 8502,
      "Ġmegitelese": 8503,
      "Ġtelevizios": 8504,
      "Ġkutatas": 8505,
      "keszit": 8506,
      "Ġtersegrol": 8507,
      "Ġbrom": 8508,
      "Ġhatara": 8509,
      "Ġiranyulnak": 8510,
      "Ġtim": 8511,
      "Ġindokolasa": 8512,
      "Ġ308": 8513,
      "Ġ0709": 8514,
      "cat": 8515,
      "Ġallast": 8516,
      "Ġmegsertesen": 8517,
      "Ġmegalapozatlant": 8518,
      "Ġles": 8519,
      "szog": 8520,
      "Ġtartjak": 8521,
      "Ġxxx": 8522,
      "ered": 8523,
      "Ġfelszolal": 8524,
      "Ġervelese": 8525,
      "Ġtukroz": 8526,
      "ulajdonos": 8527,
      "ithatja": 8528,
      "Ġ268": 8529,
      "Ġatutal": 8530,
      "Ġfedezeti": 8531,
      "Ġvedjeggyel": 8532,
      "Ġcsaladtagja": 8533,
      "Ġkuszobertek": 8534,
      "Ġegb": 8535,
      "Ġhatalyu": 8536,
      "Ġfelhasznalasat": 8537,
      "ee": 8538,
      "Ġlettorszag": 8539,
      "eljek": 8540,
      "iratok": 8541,
      "Ġbort": 8542,
      "Ġult": 8543,
      "Ġkony": 8544,
      "Ġhonapban": 8545,
      "Ġeloallitasa": 8546,
      "dijak": 8547,
      "Ġkerelemnek": 8548,
      "Ġnaf": 8549,
      "Ġkontroll": 8550,
      "Ġgyakorlasanak": 8551,
      "Ġjelzesek": 8552,
      "Ġallapithato": 8553,
      "kepp": 8554,
      "Ġuveghazhat": 8555,
      "Ġszalak": 8556,
      "Ġ238": 8557,
      "Ġorszagokban": 8558,
      "Ġ222": 8559,
      "Ġvegezet": 8560,
      "ossaggal": 8561,
      "030": 8562,
      "Ġfarok": 8563,
      "Ġnukle": 8564,
      "acioja": 8565,
      "Ġvegezetul": 8566,
      "oto": 8567,
      "hetett": 8568,
      "Ġszabalyokrol": 8569,
      "Ġmegfelelosegi": 8570,
      "Ġmukodik": 8571,
      "Ġbefizet": 8572,
      "ection": 8573,
      "rt": 8574,
      "Ġaron": 8575,
      "Ġcsalas": 8576,
      "Ġkok": 8577,
      "Ġmegkulonboztetest": 8578,
      "Ġszerencs": 8579,
      "Ġtiltott": 8580,
      "Ġutem": 8581,
      "Ġ214": 8582,
      "Ġellato": 8583,
      "Ġ005": 8584,
      "Ġhej": 8585,
      "Ġmikro": 8586,
      "Ġelov": 8587,
      "Ġmeghozatala": 8588,
      "Ġuzemeltetesi": 8589,
      "izi": 8590,
      "Ġ188": 8591,
      "itat": 8592,
      "Ġerdeke": 8593,
      "Ġ2645": 8594,
      "Ġszintjet": 8595,
      "Ġallapitottak": 8596,
      "Ġinstrumentumok": 8597,
      "Ġkozvetve": 8598,
      "Ġcorporation": 8599,
      "Ġversenytars": 8600,
      "Ġvevok": 8601,
      "Ġvalodi": 8602,
      "igacios": 8603,
      "ets": 8604,
      "Ġtitok": 8605,
      "Ġrozsd": 8606,
      "Ġamilyen": 8607,
      "Ġeloirtak": 8608,
      "Ġ278": 8609,
      "Ġ354": 8610,
      "Ġformalis": 8611,
      "mi": 8612,
      "engedely": 8613,
      "Ġazokhoz": 8614,
      "Ġadatfeldolg": 8615,
      "kom": 8616,
      "Ġberbe": 8617,
      "ication": 8618,
      "Ġjogalapja": 8619,
      "Ġtartottak": 8620,
      "Ġroman": 8621,
      "Ġvasarlok": 8622,
      "Ġtiff": 8623,
      "Ġregul": 8624,
      "Ġalapulnak": 8625,
      "Ġgaranciak": 8626,
      "cso": 8627,
      "Ġbeepitett": 8628,
      "Ġamelyeken": 8629,
      "Ġtaric": 8630,
      "echtens": 8631,
      "hord": 8632,
      "vir": 8633,
      "ismer": 8634,
      "Ġ224": 8635,
      "Ġkriteriumoknak": 8636,
      "Ġkovetel": 8637,
      "Ġluc": 8638,
      "mens": 8639,
      "Ġhorvatorszag": 8640,
      "Ġjelentesben": 8641,
      "artalom": 8642,
      "Ġvonal": 8643,
      "nac": 8644,
      "elesre": 8645,
      "Ġbirosagtol": 8646,
      "Ġlefolytatott": 8647,
      "ann": 8648,
      "aa": 8649,
      "Ġ649": 8650,
      "taroz": 8651,
      "Ġ1907": 8652,
      "Ġzoldsegek": 8653,
      "Ġarai": 8654,
      "Ġkepesit": 8655,
      "Ġrendelkezeseire": 8656,
      "Ġ266": 8657,
      "uch": 8658,
      "forgalom": 8659,
      "Ġbetegsegek": 8660,
      "Ġsikeres": 8661,
      "arch": 8662,
      "uek": 8663,
      "Ġnyugat": 8664,
      "Ġelmult": 8665,
      "Ġkepesek": 8666,
      "Ġszervezesenek": 8667,
      "vasar": 8668,
      "Ġful": 8669,
      "Ġereju": 8670,
      "Ġgyeng": 8671,
      "Ġmegallapitasok": 8672,
      "Ġhozzaadottertekado": 8673,
      "zol": 8674,
      "Ġszovegresz": 8675,
      "Ġecha": 8676,
      "Ġjogalanyok": 8677,
      "Ġmaskent": 8678,
      "Ġosszetevok": 8679,
      "cie": 8680,
      "Ġgyakorisag": 8681,
      "Ġismertetes": 8682,
      "Ġmy": 8683,
      "Ġ335": 8684,
      "Ġmeltanyos": 8685,
      "Ġeredetmegjelolessel": 8686,
      "Ġtagad": 8687,
      "Ġhelytelen": 8688,
      "Ġutaz": 8689,
      "ezesrol": 8690,
      "Ġabb": 8691,
      "Ġsov": 8692,
      "odasa": 8693,
      "Ġpartnersegi": 8694,
      "emenyek": 8695,
      "Ġbetoltott": 8696,
      "Ġkartya": 8697,
      "Ġilleszked": 8698,
      "Ġkonzul": 8699,
      "Ġsegitseget": 8700,
      "Ġmasol": 8701,
      "Ġazonositott": 8702,
      "Ġkulonbsegek": 8703,
      "Ġlobogoja": 8704,
      "Ġszomszedos": 8705,
      "Ġ245": 8706,
      "Ġliechtens": 8707,
      "Ġanyagokbol": 8708,
      "instrumentum": 8709,
      "Ġmeghozott": 8710,
      "viszonyt": 8711,
      "Ġtermekeknek": 8712,
      "oxil": 8713,
      "Ġtot": 8714,
      "Ġkifejezesek": 8715,
      "Ġalapszabaly": 8716,
      "Ġass": 8717,
      "Ġbeker": 8718,
      "Ġkarbantartasi": 8719,
      "Ġszabalyokkal": 8720,
      "Ġismeret": 8721,
      "ifik": 8722,
      "Ġnomenklatur": 8723,
      "Ġszabadalmi": 8724,
      "Ġjogszabalyainak": 8725,
      "Ġadolevon": 8726,
      "Ġkeresztmetsz": 8727,
      "Ġbeszamolo": 8728,
      "oviz": 8729,
      "Ġtitkar": 8730,
      "Ġnn": 8731,
      "Ġkikoto": 8732,
      "Ġarumeg": 8733,
      "Ġponttal": 8734,
      "Ġbefektetesek": 8735,
      "Ġeszaki": 8736,
      "Ġ1308": 8737,
      "Ġ760": 8738,
      "Ġkuria": 8739,
      "way": 8740,
      "Ġreszekent": 8741,
      "Ġlenn": 8742,
      "Ġszallitasara": 8743,
      "210": 8744,
      "Ġnott": 8745,
      "Ġvallalkozasoknak": 8746,
      "Ġvizsgalja": 8747,
      "Ġengedelyezese": 8748,
      "Ġkerekpar": 8749,
      "szo": 8750,
      "Ġeljarasa": 8751,
      "Ġmero": 8752,
      "Ġszorosan": 8753,
      "Ġmegujulo": 8754,
      "ey": 8755,
      "Ġmunkaido": 8756,
      "Ġ1177": 8757,
      "Ġkozelebbrol": 8758,
      "Ġbiztositania": 8759,
      "Ġatalanyertekek": 8760,
      "Ġgyakorlasara": 8761,
      "Ġfelsz": 8762,
      "Ġ233": 8763,
      "Ġhelyzetenek": 8764,
      "Ġ2933": 8765,
      "Ġ570": 8766,
      "uma": 8767,
      "Ġfelfuggeszti": 8768,
      "Ġerofoleny": 8769,
      "Ġkeruljon": 8770,
      "ali": 8771,
      "Ġhibak": 8772,
      "Ġatlathato": 8773,
      "Ġfoglaljak": 8774,
      "Ġkategorizalasa": 8775,
      "Ġforint": 8776,
      "illa": 8777,
      "Ġ680": 8778,
      "aritas": 8779,
      "Ġszuloi": 8780,
      "Ġkorhaz": 8781,
[...]
